#version: 0.2
Ġ t
Ġ a
i n
h e
r e
o n
Ġt he
e r
Ġ s
Ġ w
a t
Ġ o
n d
Ġ c
i t
o r
e s
i s
e n
o u
Ġ f
Ġ b
in g
Ġ p
e d
a n
a l
Ġt o
Ġ m
a r
Ġa nd
Ġo f
Ġ in
Ġ d
i c
l e
Ġ h
a s
o m
i on
Ġt h
l l
â Ģ
en t
Ġ l
v e
Ġ e
s t
Ġ re
Ġ n
r o
Ġ y
Ġ g
l y
Ġ I
c t
Ġb e
Ġ T
u t
e t
o t
Ġ is
Ġ S
i d
Ġy ou
Ġ on
a y
Ġf or
o w
Ġ A
u r
Ġ C
s e
i m
a d
c e
i g
a m
v er
Ġth at
Ġ u
c h
i l
it h
at ion
Ġs t
o l
i r
Ġw ith
âĢ Ļ
Ġ M
Ġ it
Ġ he
Ġw e
r a
Ġw h
Ġ P
Ġ B
Ġa n
Ġa s
i ll
er s
i f
k e
Ġp ro
t er
Ġa re
Ġh a
g e
Ġ W
Ġc on
l d
o o
he r
Ġo r
u l
at e
Ġ H
es s
Ġ D
p p
c k
Ġa t
Ġs e
Ġc om
o re
r i
m ent
ĠT he
es t
Ġd e
Ġ F
Ġ 1
u s
Ġ R
ig h
t h
a b
Ġw as
Ġ (
r om
is t
Ġ 2
Ġn e
p e
Ġe x
u n
Ġ L
an t
re s
it y
Ġs u
q u
Ġ v
i ve
o p
e m
Ġha ve
Ġ r
Ġ G
or t
Ġ âĢ
Ġ N
a in
ar t
Ġyou r
Ġth is
Ġ E
Ġn ot
u st
Ġf rom
n t
u m
Ġs h
o s
e l
i es
a nd
Ġb y
Ġa l
igh t
Ġc h
Ġc an
al l
i e
Ġ le
om e
ar d
Ġ O
ou t
Ġw ill
ou ld
u d
ou r
re d
Ġa b
Ġd o
i v
Ġw or
g h
al ly
0 0
o st
t e
o d
Ġp l
' s
Ġa ll
Ġ J
r ou
as t
c i
e ar
Ġ j
id e
a k
T he
in e
Ġ k
u re
a g
f e
p er
Ġs o
Ġh as
p t
Ġm e
Ġw he
Ġb ut
a ck
âĢ Ŀ
ic e
Ġu s
a ge
ct ion
ic h
a c
t her
Ġa d
Ġo ut
p l
Ġ U
a ke
Ġu p
Ġthe y
oo k
on e
in d
o g
Ġthe ir
s o
Ġm ore
a re
r y
on g
ver y
Ġcom p
Ġ en
ab le
im e
Ġm y
at ed
oo d
Ġt e
c c
ou s
Ġh is
Ġon e
am e
it e
an s
i z
Ġc l
i ke
i p
Ġs a
or m
Ġwh o
Ġab out
Ġ im
ĠT h
ĠI n
Ġo ur
ĠâĢ ľ
b er
Ġcon t
Ġg o
ion s
r u
Ġm an
c l
Ġwh ich
n e
d u
Ġf e
a ct
an ce
Ġ K
Ġ2 0
t o
i a
as e
i b
Ġre s
a il
Ġwor k
i re
ig n
Ġ Y
f f
re e
o c
Ġa pp
a ch
re at
a p
ay s
ar y
ation s
Ġp er
a ce
ic k
Ġo ther
ul t
v en
e p
a u
ĠS t
Ġof f
. .
as s
Ġy ear
Ġt ime
u b
Ġ qu
ic al
Ġs ome
Ġl ike
u e
Ġal so
Ġan y
Ġd is
i le
ou nt
n ow
Ġ "
en ce
o ve
ar k
Ġg et
Ġu n
f orm
Ġ V
Ġh ad
or d
ĠI t
res s
Ġthe m
Ġne w
Ġs p
ing s
er v
ĠC h
Ġwe re
Ġbe en
Ġp art
on d
Ġ 3
Ġa g
Ġthe re
o se
Ġp e
ve l
Ġo ver
Ġwhe n
Ġhe r
ou gh
Ġw ould
Ġwh at
a v
it ion
Ġa r
i al
ent s
Ġ if
in k
or s
Ġ -
Ġth an
en s
Ġt r
Ġj ust
ou nd
Ġ20 1
Ġ ro
Ġp re
ir st
p ort
Ġs pe
in t
is h
il d
Ġbe c
m er
o b
Ġk now
Ġre c
op le
w n
Ġin to
ĠW e
ow n
Ġne ed
or y
Ġsa id
re n
o v
f ter
nd er
ĠH e
Ġh ow
o y
at er
Ġs c
Ġa cc
rou gh
Ġa m
ad e
Ġt w
Ġc o
it t
Ġit s
ver s
Ġpe ople
an g
ol d
n ing
l ic
Ġd es
Ġf irst
on s
Ġm ay
cl ud
Ġs he
Ġb l
c es
w e
Ġn o
u al
ĠâĢ ĵ
ci al
Ġcom m
au se
i an
am p
he d
' t
at es
Ġon ly
l p
u ll
Ġm ake
Ġ1 9
f t
re nt
Ġm ost
r ic
Ġt ra
Ġp o
Ġbe t
ment s
Ġ 4
Ġad d
d ay
Ġb ack
e nd
Ġl ook
Ġpro v
Ġhe lp
Ġin d
at ing
ĠTh is
ter n
Ġe very
i ly
rou nd
Ġf l
Ġe m
Ġth rough
Ġin clud
Ġw ant
h ing
Ġ 5
is e
ĠR e
Ġtw o
Ġcon s
i ous
Ġse e
ie w
) .
Ġa ct
Ġu se
l es
Ġwe ll
Ġthe se
g r
Ġpro du
Ġb u
Ġu nder
se l
Ġa fter
Ġp h
e ct
p h
k s
fe ct
e w
it ies
if e
Ġc ould
o ll
is s
x t
f ore
c ed
Ġs erv
r it
T h
if ic
he n
ur n
pp ort
Ġd if
ro w
a w
Ġ very
t ing
Ġyear s
u ch
Ġre l
Ġs y
le ct
Ġpl ay
Ġe ven
Ġw ay
t s
Ġin c
Ġg ood
Ġman y
ers on
Ġre g
Ġin v
Ġh im
al s
an ge
Ġ ra
j ect
Ġn ow
Ġre m
f ul
Ġim p
Ġp r
pe ct
c ess
on t
os s
Ġ2 00
Ġc ol
Ġst ud
Ġthe n
Ġe v
| |
Ġwhe re
ak ing
in ess
ation al
ĠY ou
Ġsh ould
o ol
Ġ ke
o ck
Ġs m
ot h
c om
er t
Ġd id
ol og
ib le
b s
as ed
Ġr ight
il ity
Ġbec ause
Ġd on
Ġex per
id ent
g et
Ġst art
w ard
ul ar
Ġse c
ĠU n
at h
an y
Ġd own
t y
i ed
ow er
Ġo wn
u res
er m
ĠW h
. âĢĿ
ur ing
b le
) ,
ĠS e
Ġa c
Ġg reat
Ġf in
ĠA s
Ġg u
Ġth ink
form ation
Ġb us
Ġm uch
ic es
Ġat t
Ġ $
h ip
Ġto o
y s
ĠA nd
he s
at ive
ot her
st em
Ġ ent
Ġsu ch
u p
Ġd ay
e ll
ic t
it s
Ġl ong
it ed
Ġag ain
or k
Ġh igh
om et
ra ct
Ġ 6
ar ch
Ġde c
I n
a ir
Ġin st
ic s
ĠC om
Ġt ake
Ġs et
vel op
Ġf ind
al th
Ġth ose
Ġre ad
g an
Ġhe re
en er
ri b
Ġbe ing
Ġbe fore
Ġdo es
Ġin s
u nd
Ġbe l
Ġe nd
Ġwe e
Ġsh ow
Ġm ade
Ġc all
Ġin te
Ġ &
Ġm on
Ġdif fe
c y
Ġp res
ĠP ro
Ġp erson
n er
Ġb est
i x
Ġwor ld
as on
ĠA n
ĠD e
u ally
âĢ ľ
Ġc ar
Ġm in
Ġas s
ch ool
al k
oll ow
Ġre qu
Ġs ur
u es
Ġl oc
ĠI f
Ġin formation
Ġf am
Ġb r
Ġl ast
Ġh ome
w ay
l ine
Ġl ife
re st
l i
a x
an k
Ġc he
Ġa v
Ġs im
2 0
Ġbus iness
i o
ĠN ew
sel f
n g
Ġm ed
v ing
Ġ1 0
W e
Ġha nd
.. .
Ġm ark
Ġ 7
gr am
f fect
Ġo p
in ce
Ġsy stem
in s
Ġe ar
Ġtr ans
at her
a ve
ub lic
Ġm em
Ġp ol
Ġus ed
Ġde velop
Ġwh ile
ĠB ut
ro s
Ġle ad
Ġin ter
at ch
l ed
Ġsu b
ou se
ch n
Ġar t
iv es
. "
Ġc ount
n ess
ar m
p r
Ġre ally
Ġc re
a z
ce pt
Ġgo ing
Ġth ough
Ġe ach
ak es
Ġd et
Ġm od
p le
l and
Ġn um
Ġa round
Ġre t
im es
, âĢĿ
Ġ 8
i ence
Ġv is
re ad
v iew
Ġdis c
ĠA l
Ġdes ign
Ġsu pport
Ġprodu ct
al e
Ġs omet
Ġf ollow
we en
mer ic
Ġc our
in es
Ġfor m
al ity
Ġst ill
ction s
e ver
Ġc ur
ĠS h
et s
ire ct
en e
Ġs ay
v ed
Ġc are
ut ion
Ġs er
g g
Ġcomp le
Ġte am
ri end
Ġad v
as h
Ġprov id
iz e
Ġch ar
rou p
ĠF or
Ġpo int
Ġdiffe rent
Ġf ound
Ġs ign
d er
Ġb ook
Ġs ame
ĠA r
ou n
i vers
Ġs l
ag es
Ġ ed
Ġbet ween
Ġg r
Ġch ild
le ase
m an
Th is
a h
Ġa ut
at a
Ġst r
Ġex p
Ġr un
Ġfe el
ĠS o
Ġs k
itt le
ut e
Ġcomm un
Ġth ree
ĠThe y
Ġb oth
ust om
Ġpl ace
ar s
W h
Ġ 9
Ġc le
I t
ĠB e
w ays
ĠC l
Ġfe w
Ġe as
Ġb o
00 0
Ġg l
Ġst ate
e x
t he
ion al
Ġl ot
Ġha pp
Ġpro gram
ist s
Ġf ree
ĠA meric
Ġm et
Ġp ost
t on
l ess
Ġl ove
t en
Ġre p
ĠL e
Ġp ur
iz ed
Ġth ings
Ġim port
od y
am es
i ent
Ġpro cess
Ġpro f
i red
Ġf un
c er
v es
or n
b e
Ġf ull
Ġto p
Ġex t
olog y
ver n
Ġl ar
th ing
ĠA d
Ġmon th
et y
Ġg ener
Ġl ittle
Ġf act
Ġre al
o h
ant s
it al
ail able
at ure
ros s
Ġre port
Ġl ist
Ġhe alth
Ġd uring
c ent
ar n
Ġpl an
Ġapp ro
Ġte chn
Ġke ep
o ad
Ġop en
Ġcom e
b ers
Ġde f
u g
u c
Ġf r
Ġre f
Ġf il
Ġp at
Ġp oss
Ġo b
er ing
ie ld
, "
c on
Ġus ing
Ġin t
ic ally
Ġc ent
Ġpart ic
m s
is hed
at t
Ġsomet hing
1 0
iv ing
Ġre st
Ġis s
Ġres p
Ġcont in
Ġwith out
in ed
ra nd
Ġg ame
Ġc ustom
g y
Ġp ut
o ot
Ġres ult
Ġt y
Ġm ust
Ġs chool
ĠThe re
in ing
t t
Ġinte rest
Ġc or
a red
g er
Ġan other
Ġinclud ing
Ġg ot
Ġall ow
Ġbet ter
at ur
Ġne xt
Ġp ri
ĠB l
Ġb ig
Ġm ight
ent ion
Ġv ar
Ġd ist
Ġav ailable
Ġf riend
Ġs ol
Ġal ways
Ġp ass
Ġsm all
Ġqu est
Ġcomp any
Ġcon f
Ġt ry
Ġhe ad
Ġg roup
us s
Ġw r
Ġ ide
ĠS he
ĠH ow
Ġs ince
Ġsec ond
Ġst and
en se
Ġm ain
Ġmark et
i k
i qu
Ġne ver
Ġwee k
Ġe ffect
Ġv al
re en
ĠâĢ ĺ
Ġfam ily
Ġw ater
Ġor gan
pl oy
Ġt ri
st and
Ġbu ild
Ġp ay
Ġo pt
âĢ ¦
Ġd ata
Ġd ri
Ġm us
Ġh ard
ert ain
Ġw om
Ġnum ber
i er
is ion
is m
Ġm ov
ate ly
Ġre ce
a j
amp le
Ġinc re
ĠI s
Ġimport ant
Ġas k
ill ion
ĠO n
Ġc r
ĠA ll
Ġpro ble
ĠF r
ĠP l
Ġexper ience
w are
Ġp ublic
Ġsu re
Ġp ower
l ing
ĠE x
Ġo ld
Ġ i
ro l
r ist
el s
Ġd irect
Ġex pl
Ġin f
m e
Ġb ro
Ġper form
Ġle vel
one y
ivers ity
ĠâĢ Ķ
Ġd ays
E R
ren ce
1 9
t ed
ĠI nd
âĢ Ķ
I f
Ġserv ice
Ġpro ject
Ġagain st
cc ess
Ġcl ass
i or
Ġspe c
ir d
Ġ Q
Ġg ive
Ġl aw
Ġ '
Ġe l
r al
Ġl ess
Ġ1 2
Ġb re
Ġw in
Ġg row
Ġle t
p s
o k
Ġc ost
Ġse em
Ġbel ie
Ġinv est
pe nd
Ġon line
Ġab le
c o
w ork
as es
Ġ 0
u ck
Ġt est
in al
Ġ ve
ard s
Ġl ight
Ġc a
Ġf our
Ġh um
Ġp os
Ġre se
Ġcur rent
Ġd i
ra ph
ot e
at s
ĠP h
Ġs ays
Ġu nt
iv id
e red
Ġprov ide
i ents
ĠT e
Ġ Z
Ġs it
he re
our s
Ġor der
ĠC on
Ġ1 8
Ġle g
Ġt urn
i en
Ġwith in
Ġme et
g in
H e
c ing
ou th
vern ment
ab ly
ru ct
r ation
em ber
an n
ĠC ol
pp ed
o pe
Ġ .
r on
ent ly
ĠU S
ff ic
ĠTh at
Ġp op
Ġto day
at or
Ġj ob
5 0
m ed
p os
. ,
Ġo per
Ġpro per
is ed
Ġpro te
a ut
Ġf ood
Ġpre v
re t
Ġa way
iss ion
e c
ot t
Ġbe h
Ġan n
pp ing
o int
Ġ est
Ġv iew
i um
Ġm aking
id er
Ġh ist
Ġacc ess
at ter
Ġwork ing
Ġde m
ain s
Ġsu pp
Ġcour se
Ġserv ices
Ġp rom
Ġs ing
Ġc ase
o f
g ed
h or
Ġadd ition
ĠS p
Ġare a
Ġt ru
Y ou
ĠM an
Ġs al
Ġph ot
Ġe qu
Ġen g
ne y
Ġc ap
A s
Ġn ight
u red
l ish
if ied
ĠO r
Ġspe cial
e ad
ord ing
Ġch ange
Ġth ing
re am
id s
Ġwe bs
ir on
or th
te nd
w w
le y
Ġch ang
Ġunt il
Ġw rit
ĠCom m
Ġp ast
or ies
p or
ĠT o
Ġchild ren
in a
if y
Ġpres ent
Ġwh y
ur y
Ġwor d
I N
om m
Ġlook ing
it ing
Ġf ac
ĠT r
Ġk ind
Ġcon st
ĠS c
' re
en g
Ġb as
le ction
m in
Ġm oney
it ions
ĠR es
Ġp ract
c u
ĠC ent
Ġstud ents
au gh
um p
ar ing
Ġloc al
j oy
Ġlar ge
Ġse ason
3 0
ab ility
Ġunder stand
Ġle ft
Ġprof ess
s h
Ġt erm
ĠCh rist
Ġn ame
Ġin tern
so ci
Ġem ploy
Ġof ten
Ġev ent
get her
Ġto gether
Ġs ite
oh n
ir l
Ġde v
iz ation
Ġv ide
Ġact iv
is ing
Ġsu ccess
con om
Ġt imes
ĠM ar
Ġro om
ic le
are nt
age ment
ri es
ent ial
iv en
1 2
Ġex pect
Ġdid n
le t
Ġd r
ĠC an
Ġte ll
b y
Ġcon d
Ġt alk
Ġimp ro
Ġapp lic
ut es
Ġ1 5
ĠG od
Ġha ving
Ġ es
Ġcomple te
Ġind ust
e e
Ġd ra
aj or
Ġche ck
Ġal ong
Ġne ar
ill s
iv ed
ĠN o
p art
Ġen ough
od e
read y
Ġc reat
Ġle arn
Ġ [
Ġm ove
ĠW hen
o x
Ġs w
Ġs ide
ivid ual
ur s
Ġsh ort
Ġp ain
an e
ver al
oc us
it ive
Ġe ver
in ation
Ġt reat
ĠWh at
as ter
Ġproduct s
Ġbec ome
al f
b r
Ġa ir
Ġcount ry
Ġ1 1
Ġcommun ity
O N
ĠUn iversity
Ġinclud e
ot s
Ġd one
en cy
Ġcall ed
Ġrec ord
un e
Ġ19 9
Ġm en
s ide
en n
Ġh ouse
Ġst ory
a im
Ġacc ount
Ġoff ic
Ġoff er
ater ial
ĠM ay
Ġp a
Ġmem bers
er y
Ġl ine
ene f
Ġal ready
Ġcon ne
Ġb it
Ġm ar
Ġ3 0
Ġf ar
ĠW ith
Ġbu y
Ġc ertain
Ġm il
' m
er n
Wh at
ĠE ng
Ġperson al
ain ed
Ġposs ible
Ġen joy
Ġtr ad
Ġrese arch
ĠA t
Ġb ody
ow s
Ġfollow ing
Ġc ame
Ġind ividual
Ġl ive
S t
er r
Ġfe at
Ġo cc
ore d
ail s
Ġm akes
Ġse veral
1 1
s on
Ġother s
Ġme an
F or
ra p
! !
Ġneed s
v iron
it her
Ġgo vernment
ĠF l
Ġnew s
Ġget ting
Ġc amp
ĠAmeric an
Ġcont rol
Ġp ot
Ġc ou
Ġre view
o ver
Ġme ans
us h
Ġdo ing
Ġwom en
E S
Ġso cial
Ġf ore
pport un
Ġeas y
ut ure
an ces
Ġh old
ĠC ar
and s
ro p
Ġt re
f ort
Ġwebs ite
Ġmus ic
Ġqu ality
Ġl im
iqu e
Ġm ajor
o ice
Ġb ased
Ġret urn
Ġle ast
Ġw ent
Ġn on
Ġm illion
o or
A T
Ġe lect
Ġthough t
at ic
Ġact ually
du ct
Ġf ocus
Ġm ind
a ff
os ed
Ġed uc
ĠA m
Ġvis it
ort s
ri pt
ĠJ ohn
f er
Ġ |
Ġb enef
Ġcom es
Ġtoo k
Ġdoes n
' ve
Ġf av
f or
ci ally
i ans
ĠM y
A R
Ġac ross
m ost
Ġyou ng
w h
Ġe y
ĠS u
Ġchar act
le ment
id d
Ġo pportun
on es
Ġcre ate
Ġper cent
Ġl a
Ġm om
ap s
n ot
m ber
Ġan al
c hed
id es
Ġcle ar
ull y
Ġpartic ular
c hes
u ro
Ġf und
Ġon ce
Ġde al
ward s
Ġl ow
Ġor ig
ĠR ep
Ġqu ick
am a
ĠA pp
O R
ĠS te
Ġstart ed
Ġ- -
Ġw on
a pp
The re
Ġm ult
Ġinv ol
Ġm aterial
c rib
a pe
viron ment
Ġcont act
y le
m m
Ġe conom
Ġhapp en
Ġy et
b ook
on y
ak en
Ġso ft
ur ther
Ġc e
A N
is k
Ġn et
âĢ ĵ
Ġdevelop ment
Ġre ason
Ġc ity
Ġf uture
Ġex ample
Ġl ater
fe rence
u ff
ar r
Ġl ink
Ġ ess
Ġear ly
Ġc ut
Ġto ld
ro om
l f
Ġh ours
Ġspec ific
a i
Ġt em
l ished
ul ation
Ġbr ing
Ġ vers
Ġfriend s
og raph
Ġmonth s
Ġstud y
Ġ Â
Ġre du
Ġ ident
ĠM ed
ip s
Ġstr ong
l oad
ĠUn ited
Ġf ive
p ro
Ġp ar
Ġper fect
Ġhum an
ĠC o
is ter
Ġhe art
Ġbe aut
ĠThe se
u se
Ġsh are
Ġty p
Ġh ig
g es
Ġke y
Ġcom b
our ce
c he
id ay
A nd
Ġknow n
A n
Ġw a
ĠS y
Ġcl ose
if t
Ġbe gin
e b
Ġ1 4
Ġapp ear
Ġco ver
Ġvide o
ll ing
Ġt ax
Ġp ress
Ġrequ ire
c le
Ġst ep
ate g
Ġ1 6
Ġproble m
Ġbel ow
Ġit em
res ent
Ġh ot
ĠB r
ĠSt ate
st er
ĠP r
Ġaut hor
Ġpol it
o ber
ight s
Ġem ail
in o
ĠIn tern
Ġcomp an
o on
Ġre le
ĠO ne
s w
Ġf ield
Ġde li
Ġe t
Ġp age
p ar
our ces
ic y
re et
oo se
ur ity
ĠW or
ut ions
os p
' ll
Ġp ack
o ard
d e
Ġ X
B ut
Ġdisc uss
Ġcomp et
ĠN e
Ġevery thing
Ġch all
Ġen er
Ġvar i
i od
le ge
ill ed
Ġan t
ĠE n
h od
id ence
it or
un ch
il ities
Ġpri v
Ġpro b
H ow
ac y
Ġs ound
Ġg iven
Ġhist ory
Ġf ace
n ed
Ġw alk
th ough
1 5
er al
Ġrel ations
ĠHow ever
Ġpur ch
ĠC ont
Ġwho le
ĠIn st
Ġindust ry
ĠD o
b all
l er
our n
Ġmin utes
Ġg ames
Ġc ult
Ġquest ion
Ġp ie
Ġresp ons
W hen
Ġp ick
il ar
Ġse en
Ġto t
- -
Ġen s
Ġsp ace
Ġwhe ther
re w
ĠY ork
Ġsing le
O n
Ġ /
Ġam ong
Ġsome one
Ġa ge
il t
Ġbelie ve
ur al
Ġw ind
Ġst ay
ac es
Ġadd ress
ens ive
n ers
Ġag o
p ly
Ġt aking
Ġs ci
Ġm or
g o
pe cially
atur al
Ġcont ent
sel ves
Ġsu per
Ġbre ak
ĠN ot
C h
ne w
Ġh alf
Ġm ess
her s
t ain
Ġ201 2
Ġh ope
ra in
S o
id ed
ric t
Ġst e
ib ility
u ed
is on
ĠS erv
Ġen c
Ġam ount
Ġ1 00
Ġv ol
Ġcl aim
m b
ĠM c
ĠM e
Ġmed ia
ct or
g ing
gg est
ab or
pl ay
A S
Ġser ies
Ġany thing
f ic
Ġ1 3
Ġp ub
ĠC ount
og n
Ġpr ice
im ate
Ġen vironment
a f
Ġcomm on
ious ly
Ġiss ues
Ġph ys
ir m
Ġg irl
f ully
Ġj o
Ġf re
ent al
Ġd ue
Ġcle an
Ġcon cer
Ġab ove
Ġf all
ĠC al
led ge
i ver
Ġst ore
Ġcompan ies
Ġto ol
Ġ1 7
Ġc red
Ġman ag
Ġc ra
Ġm ot
Ġrec omm
I S
ro wn
E N
1 3
1 8
d d
Ġquest ions
Ġrecomm end
Ġse x
Ġp lease
Ġfr ont
ĠCom p
Ġb ad
ĠG u
Ġresult s
ur ch
Ġener gy
ir t
Ġe ff
an cial
Ġide a
g le
Ġtechn ology
Ġcons ider
Ġa ud
Ġp ort
il le
Ġme as
Ġr ange
Ġper iod
Ġbl og
1 6
Ġw atch
Ġc rit
Ġal most
R e
Ġ2 4
Ġ z
Ġw ond
Ġe ither
ĠE uro
A L
Ġsu ggest
b ack
as ing
Ġbuild ing
v ent
E D
c ome
ĠC ity
c ript
Ġwork s
u ation
Ġse arch
Ġb ar
2 00
at ors
Ġth ird
Ġs ix
/ /
Ġf urther
Ġbl ack
Ġa ff
ĠSt ates
Ġ2 5
itt ed
Ġtra vel
ĠP res
el t
ĠO ur
Ġcom pl
Ġent ire
am s
ri ed
us ed
Ġcomp ut
or g
an ks
Ġevery one
Ġc al
Ġpoint s
Ġt aken
ĠG o
Ġc ir
y l
as k
1 4
Ġl and
Ġne cess
ĠY our
Ġtry ing
ro du
Ġfil m
: //
Ġb rand
pl es
Ġde b
Ġd ou
ĠM in
le x
I T
ĠC he
Ġlike ly
it es
un g
ive ly
ce ll
Ġp ict
Ġty pe
Ġrelations hip
Ġtra ck
Ġm iss
ver t
Ġse lf
. )
Ġdo cu
Ġ #
ri e
ĠN ational
o id
om es
ch ie
ob al
Ġes pecially
il i
Ġtra ining
Ġwrit ing
Ġfav or
Ġre pl
Ġfeat ures
Ġde l
Ġwant ed
Ġval ue
um b
fic ult
t ime
Ġm ag
Ġneed ed
Ġare as
res h
ĠJ an
Ġcustom ers
ov ed
g est
m y
op s
i res
Ġsim ple
um e
Ġ :
i ol
Ġc ard
Ġd ig
ĠT w
Ġs ent
op y
Ġpre t
i ally
a ur
Ġ5 0
ĠA fter
Ġe le
Ġprote ct
Ġspe nd
Ġoff ers
ar ning
Ġr ather
Ġqu ite
Ġman agement
Ġ201 3
Ġhow ever
it ch
ĠS chool
Ġimpro ve
2 5
Ġvar ious
Ġwe b
Ġsign ific
ĠG r
y ear
Ġc ell
Ġex c
Ġiss ue
Ġoff ice
y n
Ġcom ing
ĠEuro pe
Ġr isk
g ress
Ġmet hod
ic ation
Ġpartic ip
ific ation
ĠWor ld
Ġask ed
ru ction
I C
ĠM r
Ġdif ficult
Ġel se
Ġo il
itt ing
Ġperform ance
Ġh ost
Ġre d
ĠN orth
Ġinst all
T o
Ġab s
Ġex ist
f act
Ġp arent
Ġte xt
Ġsim ply
Ġprob ably
is es
ĠSe c
ĠP e
ĠG e
ĠE d
Ġw ays
if ul
ĠS outh
Ġrequ ired
Ġev ents
U S
Ġf oot
Ġadd ed
Ġpret ty
Ġl iving
ang u
Ġbeh ind
1 7
z e
ro ll
Ġan sw
ĠH is
Ġacc ording
Ġprovid es
Ġcontin ue
w here
Ġso on
ic ated
Ġinf l
min ist
Ġwh ite
Ġword s
ru g
Ġg ra
Ġproble ms
Ġexper ien
ĠD ep
Ġst aff
em pt
Ġnot hing
ach ing
_ _
a pt
Ġcharact er
et h
v al
ĠW ill
Ġprofess ional
Ġde ath
itt en
Ġpos ition
o le
Ġd am
Ġis n
Ġin it
Ġup d
ib r
Ġm atter
Ġa ction
he ad
ition al
ab les
Ġb ed
Ġh y
Ġrep resent
re me
ĠP art
Ġpre p
Ġh on
ĠG l
ĠQ u
Ġdet erm
Ġprovid ed
Ġf ail
ul es
Ġass ist
l t
Ġs ize
ĠS m
Ġro le
o e
Ġg round
Ġfin al
ol ution
ĠP er
pp er
am er
ie f
Ġcons um
Ġsim ilar
n es
pr il
Ġwee ks
Ġsub ject
ĠT ra
Ġpop ular
ob ile
cl us
ĠAmeric a
ĠD r
Ġimp act
iv al
ĠA ust
ĠP ark
ur ance
Ġproper ty
ĠCent er
Ġac cept
Ġro ad
Ġin j
Ġph one
Ġs we
Ġt ou
Ġup on
Ġconne ct
Ġfor ward
Ġann oun
ĠM ark
ĠD es
Ġyour self
Ġt akes
an c
ĠO ct
ĠB ar
A C
Ġsignific ant
ĠA f
ad es
ĠJ ust
Ġn atural
Ġinclud es
Ġtru e
ĠA b
ĠP ol
e es
ĠT H
Ġin n
Ġrec ent
ĠJ u
Ġst at
Ġl og
ver age
A l
R E
Ġpart y
a ily
op h
ic ro
Ġd ate
i et
re g
ĠC or
Ġse lect
Ġr ad
Ġc ook
u ge
Ġf ire
Ġ201 1
med i
Ġan im
Ġout side
Ġgener al
Ġincre ase
Ġun ique
Ġchang es
Ġseem s
n a
Ġa chie
Ġrequ est
ĠK e
Ġas soci
ar get
Ġg en
Ġse nd
Ġext ra
ove red
Ġcan not
Ġs ong
Ġk ids
Ġw ide
Ġknow ledge
ĠD is
Ġreg ard
Ġshow s
ast ic
Ġrec ogn
Ġfin ancial
ad a
ĠS ome
Ġlong er
Ġhe ld
Ġoffic ial
Ġf ig
Ġeduc ation
ar ter
Ġres pect
Ġcre ated
Ġst op
Ġt it
Ġart icle
Ġmod el
u fact
Ġsu m
Ġest ab
ĠA ug
Ġatt ack
p ut
r ing
Ġh tt
Ġmem ber
Ġsa fe
Ġl oss
2 2
ĠM arch
Ġfun ction
Ġcou ple
Ġo pp
ĠA g
av ing
Ġsystem s
Ġ201 0
Ã ©
id ge
I D
Ġrun ning
ud e
ĠCount y
Ġind e
et er
Ġspe ak
Ġex am
6 0
Ġle ave
at ory
Ġag ree
Ġtreat ment
Ġdo g
Ġmom ent
ĠA ct
Ġsa w
Ġco ll
ou ra
an ced
Ġus ually
Ġh it
Ġf a
Ġst ri
s c
ĠPres ident
Ġhig her
Ġsec urity
Ġ19 8
Ġr ate
Ġcol lect
Ġdesign ed
f ace
an a
Ġsoft ware
Ġplay ers
it er
Ġsk in
Ġcont rib
Ġcol or
al es
Ġany one
am ed
Ġb ott
u ary
Ġb ase
Ġdet ails
Ġopportun ity
ĠJ une
Ġs ens
Ġopt ions
Ġorig inal
ĠD av
Ġread ing
Ġ ill
h ib
ou d
Ġread y
g u
Ġdes crib
a ign
Ġl o
Ġn orm
Ġs le
Ġwor th
er c
Ġdef in
Ġw ar
s y
Ġbo x
Ġthrough out
f fe
Ġbeaut iful
Ġgrow th
f l
iz ing
ear ch
ĠO b
Ġlead ers
Ġpot ential
ĠI m
ĠH ouse
Ġpa per
ir it
ac ed
Ġl at
Ġins ide
Ġ x
Ġt able
Ġrece ive
Ġeng ine
Ġn ational
Ġrece ived
ĠSt ud
Ġs ense
Ġnet work
re m
ĠD ay
Ġl ay
ĠB y
Ġne g
Ġpat ients
ĠW est
Ġreg ular
Ġbook s
oo gle
re ct
Ġc ause
Ġmed ical
b ased
Ġf ast
Ġpr int
idd le
Ġtot al
Ġl ate
Ġch oose
Ġl ives
Ġbl ood
Ġexp ress
es e
Ġem b
ed eral
Ġd om
ĠP a
Ġens ure
Ġet c
m it
Ġsal es
Ġrec ently
Ġb all
Ġthem selves
Ġgo al
r ight
as hing
Ġpri or
Ġm ach
ĠN ow
Ġc oun
Ġp ark
Ġl ost
o ff
if f
Ġst ra
ĠS pe
Ġus ers
Ġapplic ation
Ġcom fort
âĢ ¢
ci ety
ĠA pril
en ing
ain ing
Ġhapp y
Ġ ,
Ġfor mer
Ġd est
Ġst ruct
Ġcl ick
Ġf it
Ġdown load
Ġvers ion
i ber
ĠSe pt
Ġcour t
Ġwond er
b or
ys is
Ġ ...
am ent
c ast
Ġp ric
ĠIn c
o es
l ike
c il
Ġcurrent ly
Ġpol icy
ag ing
o ke
Ġim m
Ġa ffect
Ġcont ract
Ġde ep
ag ue
Ġto wn
Ġe p
Ġde pend
Ġm ass
ist ic
Ġv iol
Ġcare er
ĠE l
Ġit self
Ġn ice
Ġitem s
Ġat tend
Ġhand s
ĠD on
Ġpolit ical
Ġmor ning
ac hed
p ri
Ġp ers
Ġdec ision
ce ed
atur day
ĠRe g
h am
art ment
Ġdis e
Ġterm s
Ġob ject
Ġbo ard
Ġpriv ate
ic les
Ġp le
W ith
Ġpract ice
Ġha ir
Ġo bs
ĠH igh
Ġex act
ad em
h a
4 0
ourn al
in ary
Ġv ia
ĠAr t
ut h
Ġde g
li er
Ġgo es
olog ical
Ġwork ed
Ġaddition al
g round
2 1
Ġ ut
ĠH ar
Ġmeet ing
Ġb al
Ġright s
en ces
Ġcred it
Ġprogram s
Ġdri ve
Ġc ases
e k
he l
Ġle arning
Ġquick ly
Ġm other
ir th
Ġprodu ction
at form
a ction
O T
ĠM ore
Ġbl ock
et t
Ġab ility
M y
ab y
Ġinclud ed
ĠM ich
Ġst yle
Ġte ac
Ġpr im
Ġlevel s
u x
Ġ ri
Ġt arget
Ġcustom er
Ġce le
Ġl angu
Ġcomput er
O U
im um
Ġw all
O ur
Ġ2 1
Ġs at
Ġplay ing
Ġrem ember
or ing
Ġwas n
ĠJu ly
ess ion
Ġ4 0
Ġbe gan
Ġ201 4
h aps
air s
er ve
Ġactiv ities
A ll
Ġapp e
A M
ĠW ar
Ġp an
Ġwom an
ĠHe alth
re l
Ġcl os
Ġbec ame
Ġcond itions
Ġco ol
Ġch ance
n y
w ood
m ing
Ġappro ach
h ood
Ġinvol ved
az ing
Ġcamp aign
it ary
Ġaut om
Ġmy self
Ġcount ries
ec ut
as ons
ĠP ar
ict ion
ĠU s
Ġs qu
Ġleg al
Ġm ix
Ġwr itten
Ġ ur
rough t
Ġf ight
ĠWh ile
l ight
Ġsh all
ĠF eb
Ġv ict
Ġsum mer
Ġgr ad
und ay
Ġinst ead
Ġint rodu
O S
Ġins p
ĠO ff
us es
ĠCh ar
Ġar ri
Ġman ufact
2 4
Ġr ound
Ġj ud
Ġlat est
Ġbu ilt
Ġsk ills
Ġ200 9
Ġwr ite
.. ..
Ġnecess ary
s u
ĠS an
Ġm atch
ed d
att le
ic ations
ond on
Ġeas ily
Ġb ur
ĠAs soci
at ives
Ġim medi
ip ment
ĠE m
on se
ĠEng lish
p ose
Ġc and
Ġinvest ig
Ġdra w
st r
ĠF in
ĠB u
ĠB ro
' d
A t
Ġlook s
ĠS w
ill ing
ĠC our
Ġdec ided
am b
IN G
Ġd rug
ĠT V
ren g
Ġsc reen
Ġre lease
Ġ201 6
Ġsur pr
Ġwr ong
Ġg ave
Ġpres ident
ove mber
Ġon es
Ġre v
un t
Ġor d
Ġc as
ĠO f
r ay
j ust
ĠB rit
it ter
Ġm ention
Ġe mer
Ġse ll
Ġve h
Ġstand ard
Ġf resh
Th at
Ġintern ational
ffic ient
Ġp red
Ġwe ight
ĠDep artment
ĠV al
Ġatt ention
it c
her n
Ġc y
ĠI nt
Ġpro pos
ĠHe re
Ġsa f
Ġb ank
Ġl ab
ough t
Ġs il
Ġst ock
Ġatt empt
i am
Ġf elt
Ġgroup s
Ġl ower
Ġb i
ĠH er
Ġex cept
Ġgl obal
Ġset t
S h
Ġt our
ĠCal if
Ġrel ated
Ġs un
o om
Ġs us
Ġh ol
Ġus er
Ġide as
it te
augh t
Ġlead ing
Ġapp ly
Ġey es
ĠM on
ip le
ond ay
es ter
Ġfavor ite
Ġmov ie
ĠAust ral
P h
er ous
m on
Ġstud ent
ke nd
ĠFr iday
Ġhe ar
al t
ĠM us
ĠR ed
Ġenc oura
Ġsay ing
Ġproject s
Ġch oice
ro te
ĠP at
al d
r is
Ġh uge
Ġcl ients
Ġa verage
est s
ĠAf ric
Ġim age
b it
Ġf ile
Ġh or
Ġs n
ĠAug ust
Ġinte gr
Ġcost s
Ġallow s
iv ity
Ġhim self
2 3
Ġa w
Ġtou ch
Ġdocu ment
ou l
ĠBl ack
Ġeffect ive
Ġ2 3
Ġpl atform
Ġres ources
Ġ200 8
Ġde fe
Ġmod ern
ĠG erm
Ġdis play
ĠF ace
Ġst ru
Ġpol ice
p ress
ide red
B e
av es
Ġreport ed
av y
ĠS ci
Ġs old
Ġget s
Ġse par
ver se
Ġpart s
cript ion
Ġm id
Ġtr ust
Ġb oy
u le
E C
Ġmarket ing
Ġparent s
Ġb ud
ent y
ci ous
Ġc ross
k y
Ġf air
al y
orn ia
C l
Ġad minist
7 0
Ġd iv
Ġvari ety
Ġr out
" .
Ġ201 5
Ġplay ed
O ne
Ġpl ans
Ġp ull
ke y
Ġfe ed
ve y
as te
8 0
Ġansw er
Ġn ature
ĠJan uary
h old
ĠS en
ĠOct ober
Ġl ed
Ġk new
Ġthink ing
Ġcent er
v ille
se c
ag ed
ĠS aturday
Ġde ad
ĠAd d
Ġd aily
Ġexpect ed
ci p
ĠNew s
Ġpie ce
ĠS ch
ir ing
ĠF rom
Ġdr ink
w ise
n s
Ġg ives
Ġ2 2
Ġcom ment
us iness
ĠThe n
Ġinterest ing
Ġg iving
ĠL ondon
Ġd ark
Ġhe ard
ak er
O M
Ġde part
ap an
ĠA c
ĠS er
E T
ens ion
en ge
ĠSept ember
Ġcomplete ly
ce mber
Ġs ource
Ġsaf ety
Ġopt ion
ĠU K
N o
Ġte le
Ġcon duct
Ġpurch ase
Ġprev ent
p ite
is c
id ing
Ġex cell
Ġdig ital
Ġpos itive
it ute
Ġ201 7
Ġent er
u el
Ġt al
Ġst reng
m ission
Ġde cl
Ġg reen
Ġdo or
ĠIntern ational
Ġp ath
Ġse ction
err or
Ġbenef its
it ution
Ġar ch
ĠD em
Ġc at
ish ing
oc r
Ġchall eng
Ġpub lished
ĠN et
Ġtyp es
A fter
Ġstart ing
ar ies
ĠA ut
il es
Ġinfl u
Ġsa ve
Ġl if
Ġdet ail
is ions
pt ion
ashing ton
il ies
Ġst ates
k ing
ĠS unday
Ġloc ated
Ġv ac
m a
Ġn ation
g ar
mer cial
Ġspe ed
Ġcons idered
om en
I L
it ation
Ġsl ow
Ġb rought
ĠG oogle
ĠC ons
A P
ĠN ovember
ĠJ e
osp ital
Ġsit es
en ed
s p
Ġsomet imes
Ġnot e
Ġv ot
ĠD irect
z y
y ond
im ately
Ġfl ow
Ġpr in
Ġdirect ly
Ġprovid ing
Ġorgan ization
a el
or ge
ww w
Ġam azing
Ġinter view
Ġsc he
b oard
Ġloc ation
Ġw ood
Ġfe ll
Ġsit uation
Ġdev ice
Ġrele ased
r s
Ġl ic
iv il
Ġpl ant
Ġbeh av
Ġsu bs
ĠCalif ornia
9 9
Ġcol lection
Ġro ck
Ġins urance
ur t
Ġc opy
Ġeconom ic
Ġav oid
c ies
Ġst uff
Ġext reme
p re
b and
id ents
Ġmess age
Ġc amer
Ġmult iple
Ġcons ist
ĠâĢ ¦
ĠRe ad
ic a
Ġbro ad
Ġhigh ly
Ġp en
ĠG ener
Ġcond ition
Ġfe ature
Ġst ories
Ġ2 8
eng th
f ord
Ġcon vers
ib ly
ĠSt reet
ain t
ĠA cc
erv ed
ag n
Ġqu al
Ġof fe
Ġplay er
Ġresp onse
Ġf ather
ĠA re
Ġlook ed
Ġturn ed
ĠComm un
E L
urs day
ac hes
Ġto wards
ar i
ru ary
n ame
Ġre ach
Ġimp lement
Ġanal ysis
Ġwee kend
ar ily
ĠS im
Ġw arm
Ġc up
ĠFace book
Ġlim ited
Ġcele br
Ġh our
ad d
Ġrest aur
Ġindividual s
Ġs on
ĠF irst
Ġf ine
sy ch
ĠP lease
an cy
ĠP ost
ĠW ind
Ġpro gress
Ġphys ical
Ġequ ipment
Ġfl oor
Ġlangu age
Ġl ack
ar a
ĠU p
Ġeffect s
Ġad ult
Ġsp ent
Ġeff ort
Ġtool s
) :
Ġcon cept
ues day
c ol
Ġre ve
Ġ2 6
ed nes
ĠA ir
ren ces
Ġd ream
ĠL a
ĠA N
Ġadv ant
ĠK ing
Ġca pt
Ġdise ase
Ġw rote
Ġf ix
Ġf arm
Ġm obile
Ġim ag
Ġb and
Ġreg ul
Ġf irm
m ore
Ġhelp s
Ġ *
Ġnear ly
ra ft
augh ter
Ġa ware
id a
ograph y
ĠOb ama
r ast
r am
f ield
Ġorgan iz
Ġ6 0
Ġhtt p
Ġpl aces
Ġcomple x
Ġpart ners
Ġreg ist
ĠW ashington
âĢĿ .
Ġcl ub
Ġra ce
Ġmaterial s
Ġb irth
un k
The y
Ġcertain ly
Ġne igh
Ġd ress
ite ly
P ro
ĠCh ina
Ġth reat
ĠP re
Ġsub st
u ate
Ġs en
Ġf at
Ġ +
nd s
Ġm ount
Ġcol lege
Ġd ro
Ġm is
Ġgrow ing
Ġt ick
Ġemploy ees
ut ed
Ġhist or
Ġev idence
itte e
Ġphot os
ĠJ apan
Ġdist rib
Ġc ode
ĠServ ice
z z
ĠCol lege
ĠDe cember
Ġcar ry
b ur
Ġg e
Ġt en
im ent
Ġsc ore
Ġsol ution
v in
ĠE very
Ġcor rect
iz es
Ġinn ov
o pping
Ġex erc
E O
ol ute
Ġu lt
se qu
ant ly
Ġbusiness es
r an
Ġtri ed
Ġg old
Ġfin ally
Ġey e
Ġbegin ning
ednes day
Ġd ating
Ġk n
Ġtri p
a ult
Ġcir c
I ON
Ġe at
Ġd ed
ĠWe ll
Ġactiv ity
itc hen
Ġresp ond
Ġsuccess ful
ĠDav id
ĠInd ia
Ġtem per
Ġ2 7
ĠRep ublic
Ġfull y
ĠC oun
ĠL aw
Ġs ort
Ġparticular ly
ĠO ut
Ġdem and
a res
Ġexper t
i pping
Ġwant s
Ġachie ve
b l
Ġdevelop ed
b um
u k
E x
B C
ĠM onday
Ġsh ot
Ġfeel ing
ĠE ast
Ġsp ot
Ġcult ure
Ġdiffe rence
Ġtrad itional
Ġd ry
ru it
Ġal tern
Ġocc ur
Ġb ra
ĠI I
od ay
it able
Ġprev ious
Ġinde pend
Ġw ife
b ody
Ġm at
Ġth ous
ard en
ĠG roup
ĠF ree
Ġsp irit
ord s
Ġinterest ed
v ant
? âĢĿ
om s
Ġw ish
d own
Ġwho se
Ġass ess
ĠJ es
w ide
Ġdirect or
Ġexact ly
Ġprom ot
Ġst ress
he t
Ġsle ep
Ġsh oot
ag s
Ġfam ilies
m itted
om b
Ġmain tain
Ġpa id
ĠM ost
Ġst age
Ġim ages
v est
re ed
Ġacc om
Ġfe et
ĠWh ite
ren ch
Ġstra ight
al ing
Ġgo als
ĠCour t
l s
ar ant
om ing
Ġapp l
im s
Ġplan ning
Ġ200 7
Ġmov ing
P S
Ġ201 8
Ġal one
Ġreport s
Ġhe at
w or
4 5
ĠWe b
Ġmay be
Ġmil itary
m ark
Ġtalk ing
an i
Ġf ear
it iz
as c
y ing
v is
Ġpur pose
ound s
Ġt er
he st
ron ic
ĠI N
row s
Ġb aby
Ġear lier
Ġanal y
ĠTe chn
ate ver
Ġdem on
m as
Ġcreat ing
l in
Ġpric es
3 5
ag er
Ġpress ure
o ly
Ġpre m
Ġteam s
ĠTH E
du c
Ġse ven
Ġh op
Ġappro pri
Ġwa it
Ġopportun ities
Ġtit le
Ġ ver
Ġf ans
Ġreg ion
ĠPa ul
Ġsci ent
Ġwe l
Ġdeli ver
Ġannoun ced
Ġin form
ven ue
Ġcons ult
r ig
Ġcan cer
Ġchar ge
ĠP M
es tern
ibr ary
und red
ĠM or
Ġdou b
im in
Ġh ous
ĠR uss
ĠE ven
Ġschool s
ri al
ch an
ate gy
Ġ =
Ġd ire
Ġdo ll
ĠPro f
Ġpict ure
Ġre nt
ĠA M
Ġus es
Ġincre ased
Ġt ur
ra el
am m
Ġimp ress
Ġe ight
ex ample
Ġsh own
ĠE ar
Ġexcell ent
Ġhealth y
Ġro ll
Ġstate ment
Ġr ules
or age
Ġmean ing
He re
Ġunderstand ing
il s
Ġser ious
O L
Ġb illion
ash ion
s et
Ġqu arter
Ġsol utions
Ġ er
Ġrel ig
Ġrem ain
A D
Ġcor por
S he
ĠP al
Ġinst ru
Ġpro ced
Ġtr ade
B y
p m
ord er
an cing
Ġnorm al
ck s
al ed
ĠG reat
Ġc ert
ĠFeb ruary
Ġem ot
in ner
Ġv oice
ing er
ĠM et
ĠR om
Ġbe yond
ĠPro gram
Ġpat tern
Ġallow ed
Ġsm art
Ġser ve
Ġsci ence
Ġc ateg
Ġop in
Ġnum bers
ĠB usiness
Ġac qu
Ġrequire ments
Ġfre qu
Ġover all
Ġg rand
Ġal though
Ġapplic ations
Ġgl ass
i ant
p en
Ġbenef it
qu e
is l
Ġstru gg
pl ace
Ġchang ed
ĠAl so
Ġcould n
Ġcap ital
Ġg as
d om
Ġex tend
Ġu nd
ĠG reen
Ġl oved
ub e
Ġm iddle
Ġf ederal
Ġstud ies
Ġsur v
ĠSy stem
Ġincre asing
Ġdev ices
Ġbud get
Ġcom ments
ol f
Ġb ill
an ch
g en
N ew
Ġf em
e ch
ch ange
for ce
2 7
v ision
is f
Ġpo or
Ġa part
ic ate
et ic
ĠJ ack
Ġl iter
Ġhappen ed
Ġr ates
I s
we ll
Ġinvest ment
m p
ĠIntern et
b an
ĠTr ans
Ġ19 7
Ġcand id
nd ed
ecut ive
c ause
Ġl oad
Ġd en
Ġm ax
Ġa ward
ĠAssoci ation
Ġredu ce
Ġfor ce
ĠÂ £
Ġmeas ure
Ġ2 9
Ġadv ice
Ġcom mercial
Ġimmedi ately
ĠServ ices
ĠCan ada
Ġb le
ous ly
ĠInd ian
U n
Ġmach ine
ar c
Ġpat ient
Ġrespons ible
I G
Ġl ik
2 6
Ġjob s
i ance
Ġad vert
ag o
o oth
Ġmil es
i able
Ġconst ruction
Ġch urch
D A
Ġre asons
ĠTh ursday
Ġc old
Ġstr ateg
D e
er ry
Ġg one
Ġsh op
Ġcont ain
Ġown ers
Ġoffe red
ĠH ome
Ġp et
ĠL et
Ġen h
N ow
ĠI S
Ġal bum
2 8
Ġw ww
Ġper haps
ly ing
Ġtru ly
Ġa head
ĠAs s
Ġabs olute
re ci
Ġcl in
Ġc ru
se e
il ing
Ġchall enge
Wh ile
Ġdefin itely
ĠO ther
ĠB oard
ĠC ong
h ouse
Ġas pect
ĠT uesday
Ġgreat er
Ġs ale
Ġassoci ated
Ġdeg ree
ĠT ex
Ġhelp ed
ĠIs rael
ĠIn ter
Ġbas is
Ġlet ter
ĠJes us
Ġn ut
ĠG et
Ġref lect
ĠF e
rie f
Ġact ive
Ġh undred
Ġann ual
t ies
Ġt rou
Ġn amed
Ġgu ide
Ġdam age
in y
Ġf ra
Ġess ential
Ġ201 9
ĠB ook
ap ter
Ġsp read
Ġfollow ed
Ġpre fer
Ġso ciety
D on
ak ers
c are
Ġmov ed
Ġd ang
Ġh us
Ġ200 6
Ġprodu ce
1 00
Ġsu st
Ġgu y
Ġp ages
Ġbl ue
Ġpower ful
Ġlar gest
ĠRes earch
Ġw ild
Ġche m
ĠM od
ĠAn ge
Ġp ow
ist ics
ol ic
Ġdeli very
ic o
ĠD ist
Ġst ar
b ed
re y
Ġjo in
amp ions
L E
ĠH all
Ġgirl s
or row
Ġm er
Ġsl ight
Ġphot o
Ġpop ulation
ĠEurope an
le g
Ġbott om
com ing
Ġ ing
ĠA nt
Ġare n
Ġbro ther
Ġorig in
ul ated
os ing
Ġdou ble
C om
Ġl ines
Ġeff orts
Ġsur round
Ġeconom y
ffe e
Ġn ove
ĠS l
use um
Ġprofess ion
Ġacc ur
ĠSu per
Ġnot ice
ĠW ednesday
ick s
ĠD el
Ġopen ing
Ġfa ith
ul f
Ġev al
Ġsp orts
ĠP ort
s es
Ġb orn
Ġb rain
Ġcomp ared
ĠG old
Ġg ar
ad o
ĠJ ames
Ġeas ier
it ude
ĠCoun cil
Ġwe ather
Ġoff ering
ĠY ear
ĠBrit ish
Ġb reat
am ic
Ġfin ished
ĠFl or
p a
ist ry
I P
Ġbas ic
Ġfin ish
ĠMich ael
ĠB ra
Ġpro s
ĠR et
ru pt
S T
Ġserv ed
2 9
Ġcl ient
Ġadvant age
Ġstr ategy
Ġc ry
ĠC le
Ġdo ctor
hip s
ĠPl ay
Ġ20 20
Ġstep s
ĠM any
Ġcl ot
m at
Ġad just
Ġmove ment
Ġwonder ful
ĠChrist ian
Ġw at
ĠE duc
Ġgu ys
Ġpart ner
ĠOff ice
Ġf ab
ative ly
Ġstruct ure
O W
The se
Ġocc as
ĠR ich
Ġset ting
Ġcamer a
Ġlot s
ĠChrist mas
Ġc ash
ust r
Ġco ffee
ĠM ac
ĠL ord
ĠAn y
Ġwork ers
Ġke pt
Ġob v
Ġl ength
Ġswe et
k er
3 3
Ġtr uth
Ġregard ing
I V
ĠG ood
ĠS pr
b on
ĠRe view
am in
Ġapp reci
Ġcontin ued
our ney
Ġfr ame
ĠB ill
Ġre b
ter m
Ġbe g
Ġc ast
Ġlead er
Ġhelp ing
Ġpe ace
ud d
Ġinc ome
Ġstreng th
Ġpass ed
Ġsur face
Ġre ality
Ġwould n
Ġtrans fer
ify ing
ĠO ver
Ġexist ing
k en
Ġsu ff
Ġrun s
Ġcon c
Ġexp and
ĠP C
ic ip
ĠTex as
port s
Ġpict ures
Ġsupp ly
Ġcomp on
ĠR em
Ġlearn ed
ĠR ock
ĠB est
Ġappropri ate
un te
Ġcharact ers
Ġrepl ace
Ġfig ure
er o
Ġwe ar
ĠO F
edd ing
Ġatt ract
Ġd ied
9 0
olog ies
and er
S e
Ġre pe
ĠP ri
Ġant i
Ġinit i
Ġtra in
hen s
rap y
ĠI T
Ġg un
Ġes c
Ġlar ger
as y
ign ed
Ġintern et
Ġveh icle
Ġprote ction
ic ine
Ġcrit ical
us ing
Ġcall s
Ġk itchen
ite ct
Ġcomple ted
O V
Ġh om
Ġcreat ive
ĠMark et
ov ing
ang ing
Ġ ir
ĠS ur
ĠB el
ĠRe c
i pped
Ġf an
Ġte nd
ĠGener al
ĠWh y
T H
so ft
Ġcent ury
Ġpl us
Ġsee ing
im al
Ġaud ience
Ġapp oint
land s
Ġv irt
f riend
ĠT y
ĠB ig
Ġgener ally
Ġess ay
Ġg ift
ĠW ork
ĠF rench
6 5
Ġhus band
Ġback ground
ĠAn n
Ġdis app
er ia
? "
Ġf ant
Ġsat isf
Ġc ivil
st on
ed s
ac ity
Ġgo vern
Ġent ertain
i j
Ġcell s
Ġme chan
Ġha ven
r ange
P lease
ĠE v
Ġorganiz ations
g l
ĠM icro
Ġ â
Ġh omes
ve re
ĠF ound
Ġexperien ced
te xt
Ġhot el
od es
Ġstat us
Ġdri ving
Ġpie ces
a e
Ġaff ord
Ġknow s
Ġgu arant
I M
du le
Ġh arm
Ġextreme ly
ĠDe velop
ic ed
pect ive
Ġto ward
Ġc itiz
se y
o pped
ad y
ore s
Ġpro t
erv ation
Ġcon ference
ĠR oad
Ġcontin u
Ġreview s
ĠWind ows
Ġl ock
ĠC r
Ġp sych
Ġtrans port
A r
ĠCh urch
Ġdemon str
ĠP ress
Ġthan k
ĠAustral ia
ra w
Ġinc red
k now
y m
Ġst ream
N ot
g n
Ġconne ction
re es
por ary
ĠS un
Ġhig hest
ĠM art
Ġ @
ĠA v
Ġelect ric
ov es
Ġm ist
Ġact ual
l im
ĠR ober
Ġestab lished
Ġrequ ires
Ġcoll abor
Ġbig gest
Ġon to
7 5
Ġ8 0
A A
S ome
s s
az ine
um n
a ven
it ar
um an
Ġdi et
ĠM em
un ately
D o
i os
Ġw ine
Ġwh atever
E M
am ing
ĠB en
g ency
Ġthere fore
ri an
Ġcomm it
Ġhe avy
z a
Ġst orage
Ġsec ret
ĠTw itter
ill er
ĠSe e
Ġad op
Ġprim ary
Ġd aughter
ĠS am
ĠM ary
âĢĿ ,
il ed
ĠInst itute
ĠO h
Ġac adem
Ġme ant
ĠTh om
Ġm ission
Ġv ill
Ġcol le
Ġm aster
row d
Ġestab lish
ent ially
ĠP ublic
ĠS T
ĠH ot
Ġref er
w ith
as ure
i ers
Ġr ich
m en
C on
Ġh ospital
Ġuse ful
ĠB ank
ĠS ol
Ġn ames
ĠPh il
ann el
ĠComp any
oo s
ĠC amp
est ival
Ġold er
Ġseem ed
5 00
ĠMan agement
ĠPe ople
nd ing
ĠCl ub
ĠM ag
oc al
__ __
ĠFlor ida
ic on
b ox
Ġres ist
ĠR iver
Ġrem ains
Ġc ards
Ġst ation
Ġvis ion
Ġfact ors
Ġmod els
Ġun it
Ġbec omes
ĠCl ass
ac ing
Ġpart ies
Ġlim it
Ġmem ory
ĠEng land
Ġb ath
Ġb atter
Ġex hib
l a
Ġst reet
Ġmanag er
o ices
Ġprodu ced
U R
Ġt on
Ġc overed
ĠT ime
ĠL ife
ens es
ph one
ĠDem ocr
Ġd rop
Ġra re
Ġdevelop ing
Ġmon itor
Ġm ill
Ġ200 5
Ġchalleng es
Ġpay ment
Ġfil es
Ġpl aced
ĠR ob
os ure
uck y
or ial
on a
O P
Ġpain t
ĠOn ce
Ġar gu
Ġgu id
Ġbal ance
Ġear th
* *
Ġa im
v ention
ĠCong ress
en cies
Ġro b
Ġ9 0
k in
it ors
Ġ3 1
Ġlink s
it ness
Ġfind ing
ĠM ex
Ġleg isl
Ġm att
Ġrem ind
Ġst ick
Ġcomfort able
P l
Ġhapp ens
Ġsc en
ĠApp le
Ġt im
ĠM iss
Ġ3 5
Ġmethod s
ĠDirect or
Ġexperien ces
) ;
ĠB ay
l ook
Ġgu ess
Ġform s
re ak
Ġb ow
g al
is co
stand ing
Ġmanufact ure
k i
Ġcent ral
Ġep is
at ically
oll y
C H
EN T
Ġtest ing
r or
ro y
" ,
ĠBe cause
Ġdescrib ed
rou d
Â ®
Ġsc ene
ul a
Ġv ote
Ġbe at
ĠS ub
ĠPl an
Ġsen ior
Ġsy m
Ġj ourney
ĠW he
Ġfl av
i ation
in n
Ġsh ared
Ġeven ing
ĠDes ign
g ers
m ail
Ġclaim s
ĠC ap
ĠH ist
Ġd at
ul ate
Ġtra ffic
ber g
Ġstand ards
Ġcommun ities
ri age
e ed
ent ure
Ġdeterm ine
ul ed
C C
ĠE ach
wor ks
Ġbehav ior
am ily
Ġe th
ot a
oy al
Ġshow ed
Ġopen ed
Ġret ail
l ast
Ġmajor ity
4 4
ĠJ ew
Ġt ips
Ġofficial s
Ġj ournal
ot o
ĠP R
os ition
Ġwa iting
Ġspend ing
Ġv ir
Ġwatch ing
it ure
ĠS ince
ĠC are
iqu es
os is
Ġview s
Ġf ashion
Ġkeep ing
Ġwind ow
az on
Ġrecord s
cl es
Ġthan ks
Ġl ands
se mb
Ġthous ands
Ġexerc ise
ĠUS A
ra b
F rom
Ġca used
Ġsec ure
Ġsex ual
ĠA P
Ġse lection
Ġj ump
l ig
ĠH el
ines e
f ree
Ġcontin ues
st ate
Ġear n
ĠSci ence
Ġth us
ĠP et
Ġex clus
Ġpre c
ĠIn formation
d o
Ġown er
Ġcompet ition
Ġsu mm
Ġide al
Ġf ish
ĠComm ission
Ġpost ed
b ut
Ġman age
Ġpol ic
tern al
Ġte aching
ĠL ou
Ġsol id
Ġg ain
p oint
Ġl ose
oo per
Ġappear s
ĠEduc ation
ol ate
Ġele ments
Ġfor get
Ġcommun ication
h y
g ment
ed y
Ġwin ter
l or
ant a
Ġpr ay
Ġdec ide
Ġtechn ical
Ġmention ed
Ġf urn
ĠB rown
Ġpresent ed
Ġanim als
i pe
Ġdire ction
Ġde p
R A
Ġl abor
Ġb ag
ĠT om
ĠGe orge
A b
s pe
Ġprep ared
ĠU se
Ġco ach
Ġclear ly
Ġmult i
ic ago
Ġpl enty
âĢ ĺ
ent ed
Ġim pl
Ġut il
Ġother wise
it z
ien cy
o very
Ġr ule
or ney
as p
Ġoper ations
p an
Ġra p
9 5
Ġest im
et te
Ġ7 0
ĠSm ith
Ġm ail
f ast
N A
Ġla unch
Ġh ar
Ġlaw s
m iss
Ġ ice
Ġtri al
in ct
Ġneigh bor
ne ct
Ġwas te
Ġse m
ell ow
n ight
Ġadv ance
Ġbut ton
P ost
Ġs ources
Ġcr is
C ont
b o
Ġrad io
y er
Ġsh ip
ap ers
Ġgr ant
Ġtemper ature
Ġsust ain
ĠCh ild
ĠAl though
os h
ĠP ower
3 4
ĠM ake
i pp
ro id
ĠR el
Ġend ed
ĠA lex
ĠC D
st e
Ġpass ion
Ġag ency
Ġdepart ment
Ġr ank
a ctions
all s
Ġle aving
Ġs and
Ġs now
Ġe fficient
Ġvide os
Ġrem ove
Ġc rowd
Ġwill ing
Ġsp ring
Ġindepend ent
Ġleaders hip
Ġcoun ter
w ater
om in
ĠL ake
ĠDe c
Ġadd ing
Ġa ctions
ĠM at
ant ic
p et
Ġc atch
out hern
Ġdisc over
B l
Ġm ort
Ġing red
in c
Ġwh om
ad s
ĠM ount
Ġb ird
Ġbec oming
est ic
ord in
Ġappro x
ĠSt ar
Ġshow ing
cept ion
Ġspec ies
Ġdes pite
Ġf lex
Ġstart s
ad ing
Ġval ues
act ive
Ġart ist
Ġfore ign
Ġk id
Ġs ession
un ction
M e
b ing
ĠF ore
Ġexc ited
Ġra ised
Ġfam ous
Ġded icated
Ġnove l
Ġ19 6
Ġopin ion
Ġlist ed
Ġf ol
Ġtra il
Ġb ul
Ġsu gar
ĠOn line
Ġf ill
3 6
ĠS il
Ġupd ate
Ġcont ains
Ġpo ol
Ġt ask
ĠT op
Ġhon est
Ġ ign
ĠT or
ĠB ur
Ġsche dule
M ore
Ġp air
Ġcl osed
u gg
Ġinj ury
f it
fe rences
Ġrel ax
Ġtrans l
ĠAmeric ans
Ġfoot ball
Ġst y
ger y
ĠC ur
Ġth row
3 7
3 8
Ġsh opping
Ġcra ft
Ġc ore
Ġb rief
Ġg raph
Ġk illed
Ġb oo
Ġinc or
ĠBl ue
n o
P A
ĠS al
Ġpract ices
5 5
d oor
Ġe gg
Ġclass es
Ġwel come
Ġr at
ree k
Ġun c
Ġsym pt
Ġcap acity
Ġvol unte
ĠGo vernment
Wh y
ct ors
ab ilities
r d
Ġpo ll
ĠAfric a
Ġcover age
Ġsh ape
ĠT O
Ġdec isions
is hes
ce l
ĠD et
3 2
D F
Ġm ur
Ġmost ly
Ġv s
w ord
Ġagree ment
Ġrestaur ant
ĠV ir
ĠS a
Ġn or
ĠS ing
ar ge
Ġexper ts
c raft
Ġres idents
Ġcon ven
Ġfac ilities
t ained
ak ed
ĠU nder
Ġfl u
Ġfund s
ester day
ili ar
Ġb ought
Ġbr ight
ĠW ood
Ġmanag ed
A d
ĠM il
Ġsmall er
Ġhand le
Ġcor ner
Ġsc hed
Ġadminist ration
ĠB er
Ġconnect ed
Ġdocu ments
Ġnot es
Ġs ch
ĠL ike
ĠComm ittee
ĠCent ral
Ġident ify
Ġa p
Ġdri ver
Ġs oul
Ġsepar ate
Ġp roud
Ġlead s
ĠL ear
Ġcas ino
Ġnum erous
uc le
go ing
Ġbuy ing
Ġselect ed
Ġs outh
ol es
Ġsh ut
Ġrele vant
h ow
ĠA tt
Ġmin ute
Ġpres ence
Ġenvironment al
Ġreturn ed
ĠCar ol
Ġdiscuss ion
Ġb on
Ġch air
ul ations
Ġchang ing
Ġ >
oo p
Ġcirc um
r ad
Ġpl ants
Ġt aste
Ġdi agn
ĠAN D
ci ent
Ġm icro
Ġb attle
Y our
M S
Ġthough ts
Ġrelationship s
ĠW ater
Ġcomb ination
Ġt ree
ck et
wh ich
Ġwin ning
Ġse qu
B S
ĠM al
Ġpost s
Ġcon text
Ġcl oud
Ġslight ly
B A
Ġm ental
wh ile
ur ies
Ġk ick
ick en
Ġabsolute ly
Ġprev iously
Ġconcer ns
Ġpolic ies
Ġle aves
ĠCh inese
Ġfre ed
w in
Ġart icles
Ġask ing
ĠV ol
Ġ200 0
ĠSc ott
Ġar m
out s
us ion
Ġvis ual
at ures
Ġhol iday
l ife
ĠL ove
ĠJ o
ig r
Ġj oint
Ġadv anced
Ġaltern ative
ĠF ood
Ġ200 4
Ġinit ial
know n
f in
4 8
h ab
Ġind ic
Ġcar s
Ġhe aring
um ber
A cc
ten ance
Ġp al
ĠCh icago
Ġc ab
Ġra in
Ġre ached
Ġn orth
Ġcons id
ĠIn s
Ġwalk ing
ĠD own
Ġclass ic
Ġm ap
ĠSt r
Ġwor ry
k a
Ġoper ating
Ġbr ings
Ġad apt
Ġcol ors
C T
r ont
Ġ Ã
4 7
Ġlist en
Ġr id
wh at
Ġexpl ore
ĠChe ck
ĠS um
Ġfour th
Ġg arden
ĠM ain
Ġgener ation
Ġprin ci
ĠD iv
ĠT imes
ĠFr anc
t op
i xt
t ion
Ġe ating
ill a
ĠO pen
Ġfl at
Ġcitiz ens
I R
Ġdoub t
in i
ĠG rand
Ġest ate
Ġd inner
Ġr ide
Ġsound s
I A
L ast
ĠLe ague
Ġcon cent
Ġs pl
Ġpack age
Ġmot or
ĠM ad
Ġevent ually
oc olate
Ġsong s
y a
ig an
ĠIs land
ĠT ur
Ġun less
ĠV is
Ġmin or
Ġcorpor ate
Ġla un
O D
Ġlo an
Ġfeel s
Ġteac her
Ġput ting
or ter
Ġdef ense
Ġsh aring
os en
g a
ĠCl ick
Ġsit u
ĠProf ess
Ġallow ing
Ġde lic
Ġve get
Ġc art
ut y
Ġencoura ge
G et
Ġneg ative
Ġappe ared
Ġaccom pl
ra ce
ĠW in
Ġarch itect
Ġfocus ed
is ation
Ġspe ct
Ġcal c
ĠCol or
Ġse a
ĠV e
ĠMicro soft
Ġmark ets
ĠF ire
Ġfab ric
Ġcl imate
Ġsign ed
Ġob tain
Ġw edding
ĠH ill
Ġr ise
Ġdec or
ĠThe ir
Ġm outh
Ġsm ooth
og rap
ĠTw o
Ġar rest
Ġrespons ibility
ĠEar th
L e
n oon
Ġfund ing
Ġcomp ar
Ġdes k
Ġbeaut y
Ġanim al
es ome
e ction
Ġfor ces
Ġnot ed
Ġform at
M ay
ear s
z en
ruct ure
Ġdeb t
Ġcomm itted
Ġexp ensive
c oh
re hens
ĠB et
ci pe
roll ed
! âĢĿ
res p
ĠY es
Ġdog s
r im
Ġfe e
Ġsee k
P R
Ġm o
Ġf illed
ĠL u
Ġart ists
ll ig
c ont
i i
n et
ĠPro ject
fort unately
ĠFr ank
ri ve
and a
ic ians
Ġteac hers
ĠJ ournal
ĠGerm an
ĠJ er
Ġoper ation
a it
Ġth r
us hed
e al
ĠI r
Ġse ctor
Ġf if
Ġe lection
Ġdat ab
Ġse lling
us hing
Ġdist ance
ĠAr ch
ĠDevelop ment
um in
S P
Ġpred ict
p o
Ġfriend ly
Ġfac ility
ĠSo cial
om a
Ġinflu ence
ĠB ack
ident ial
ĠL in
Ġread ers
Ġprofession als
te red
Ġfem ale
un ning
Ġcomm and
Ġperform ed
if ts
ult ure
Ġhold ing
Ġal le
! "
Ġb rows
ĠW omen
Ġapp arent
Ġg all
S te
Ġsh ipping
ĠUn ion
ra g
Ġcl im
Ġph il
Ġpl ays
ĠWh o
Ġra ise
Ġcre am
Ġman ner
ĠN Y
Ġgu ests
Ġassist ance
th at
ĠJ ud
D es
ĠRe al
Ġconvers ation
Ġn ine
ĠH y
Ġyou th
Ġd u
Ġpro ceed
Ġcon v
Ġch ief
ĠCon st
ĠDist rict
Ġb an
ob e
Ġsur vey
Ġst ated
Ġ4 5
Ġexpl ain
an o
c her
i us
Ġprocess es
Ġre ference
ess ions
n el
Ġwrit er
Ġexc iting
ĠT oday
ĠC all
ĠF orm
Ġjo ined
Ġproper ties
Ġappl ied
ĠFound ation
r ical
ĠU N
Ġser ver
Ġsecond s
Ġent ry
Ġmeas ures
Ġwe ap
ĠH ol
Ġro of
ĠPart y
Ġour selves
k ins
T S
Ġspe ech
ĠSo ciety
Ġset s
Ġmed ium
Ġsign s
pos es
ĠMed ia
ĠM ass
Ġed ge
Ġfor g
ĠTe am
arr ant
Ġtrans form
A dd
omm od
Ġd ie
Ġmin imum
Ġt error
ĠM el
Ġimport ance
Ġopt im
Ġtyp ically
Ġc ities
J ust
ĠC ustom
ĠCommun ity
ĠG en
R ead
Ġsympt oms
E very
4 9
u ce
Ġqu iet
Ġenjoy ed
Ġrem oved
Ġsw itch
ĠEng ine
y e
ĠQ ue
at in
ĠFr ance
How ever
Ġrese arc
Ġtell s
ild ing
s hip
ĠM er
Ġsa v
Ġdis p
Ġmet al
A pp
ut s
ĠE lect
Ġcult ural
ort hern
Ġchem ical
ĠSpe cial
ot ic
d en
Ġr an
Ġar g
Ġintern al
Ġdist rict
Ġs itting
ic ian
Ġtechn iques
Ġdisc ount
ĠR ad
ĠAm azon
Ġacc ident
Ġinst ance
t ra
Ġst ret
Ġmar ried
Ġpropos ed
ĠL ong
ĠL os
Ġinterest s
ĠT est
Ġhe ro
Ġj u
Ġsupp osed
ĠRober t
Ġte ach
up s
Ġw ire
Ġtop ic
N e
Ġchar ges
Ġup gr
Ġacadem ic
3 9
y ou
8 8
Ġd er
Ġdet ect
is her
ĠTh anks
ĠW il
Ġl ived
Ġposs ibly
Ġcall ing
Ġafter noon
os es
ĠCan ad
Ġmiss ing
Ġrep air
Ġsupp l
room s
Ġroom s
Ġl iber
Ġtot ally
Ġat h
Ġhelp ful
ĠT im
ĠD i
ok es
ĠVal ley
Ph one
ĠAfric an
Ġfact or
3 1
Ġf ruit
y an
ur ation
Ġche ap
as er
Ġpre gn
ĠJ ones
Ġmar riage
L A
Ġt ough
ber t
Ġdec ades
ĠAc adem
ri a
ĠD ata
og ue
ed ia
ĠIt s
Ġrecommend ed
Ġm ale
ĠD uring
idd en
Ġadult s
Ġinte llig
Ġsp ort
ĠW estern
S A
Ġtre es
Ġfail ed
ĠMus ic
4 6
ĠW all
Ġthem e
Ġf uel
ive red
Ġth ick
ĠI ll
Ġem p
Ġsc ale
Ġconcer ned
um s
Ġwebs ites
Ġsp ons
Ġpur poses
Ġfe es
Ġserv ing
Ġmov ies
ĠC EO
ĠN ov
m et
ĠP eter
Ġste el
ĠMc C
ist an
od ies
ĠVir gin
u able
Ġv an
Ġun s
Ġfam iliar
Ġgreat est
Ġprof ile
Ġval id
Ġsal t
0 1
ĠThom as
Ġde pos
ra q
ĠL ight
ĠJe ff
Ġc aught
Ġp ush
ĠT re
ph as
Ġun its
ars h
Ġsh ock
Ġcont em
Ġproper ly
ĠI D
clud ing
omet imes
Ġstore s
ri p
ĠEx per
le ts
ĠC ard
ĠK ore
Ġconsum ers
Ġve ter
ĠGerm any
Ġwe ak
Ġinst it
Ġjud ge
Ġingred ients
Ġfor ced
ci pl
Ġt ight
en a
L C
Ġbe ach
ĠJ oe
W ell
Ġqu ant
Ġinte nded
ĠSec ret
fe ction
er g
Ġm ent
ir ation
Ġsu it
av ig
Ġcomb ined
ĠL ook
Ġr is
Ġcour ses
b our
Ġbus y
m es
Ġord ers
Ġass um
Ġdoll ars
Ġm ir
ens ions
Ġmax imum
Ġaccount s
Ġapprox imately
? ?
k et
ĠP ay
Ġcircum st
Ġw itness
Ġp un
Ġrap id
Ġre venue
Ġam b
Ġviol ence
cu it
T e
all ed
Ġocc up
Ġcon sequ
Ġ200 3
ĠAt l
Ġfail ure
re ens
ĠOn ly
Ġfreed om
Ġto w
Ġconf lic
Ġdetail ed
ĠM ot
ĠD ig
ĠO ld
Ġ5 00
ĠSh ow
e qu
ro ad
Ġex change
Ġdisc overed
h and
Ġsus pect
ĠI d
Ġwor se
ĠTr ump
ar io
Ġt ro
ĠM ike
Ġpr ison
ĠF amily
Ġreal ize
Acc ording
Ġb urn
Ġp u
Ġpl astic
ĠLou is
Ġintrodu ced
Ġe ffic
Ġspecific ally
Ġp ure
im inal
ri er
Ġtw ice
ner gy
Ġa id
Ġy es
Ġk ill
Ġdrug s
ĠT ake
ce an
dd en
Ġsupport ed
Ġconf idence
L et
Ġy esterday
Ġqu ot
Ġc op
ag ram
Ġb ound
Ġacc ommod
. âĢĻ
E W
ĠJ im
w o
Ġstand ing
ĠI P
Ġd yn
Ġse at
ĠF ind
Ġenh ance
Ġprocess ing
Ġappro ved
or ry
ĠF il
ost on
Ġbelie f
Ġp m
coh ol
ĠF ort
l ist
Ġapp s
Ġtrou ble
u nder
Ġsw im
Ġaffect ed
Ġsur gery
Ġed itor
Ġmen u
Ġmot iv
ĠSt and
Ġtele vision
Ġex ecutive
pr ise
ar ian
Ġca uses
Ġk ing
Ġdra ft
Ġun iversity
Ġvisit ors
ĠM ont
C he
as ks
Ġloc ations
Ġeduc ational
C an
Ġag reed
0 5
ĠR E
Y es
Ġemploy ee
v an
ĠOr gan
Ġpan el
it a
ĠI raq
ĠBe ach
Ġext ensive
Ġprom ote
ĠH am
Ġdes ire
ucle ar
Ġaspect s
ĠB o
Ġg ather
ĠAcc ording
ĠS and
ir ty
ĠW ord
ĠAnge les
ing ly
ĠJ ul
Ġmain tenance
Ġprovid er
Ġannoun ce
ĠTechn ology
Ġturn s
Ġpro p
ĠCh ris
Ġrem ark
Ġd ial
Ġd ance
ĠA ward
Ġar range
Ġlab el
Ġtechn ologies
rel ated
ult y
Ġel imin
ĠMed ical
Ġincor por
Ġcar ried
Ġbre ast
oc ation
Ġlic ense
Ġcris is
Ġdesign s
Ġtest s
Ġre cipe
Ġsu dden
Ġr ub
Ġf old
Ġdepend ing
Ġadvert ising
Ġpark ing
Ġbeg ins
Ġemer gency
Ġsee king
Ġlands c
ĠRep ort
Ġbring ing
Ġarri ved
rast ructure
A meric
U N
tt ers
i est
os oph
Ġsy mb
Ġst opped
ĠG ame
5 9
Ġbro ken
7 7
Ġt ables
Ġm ine
Ġcomp rehens
Ġs ides
Ġdel ivered
h t
Ġan g
n ov
Ġne ck
ide o
Ġimpro ved
Ġl unch
ĠB ob
oss ible
ĠPro duct
Ġfl ight
ĠD ou
are n
em s
ĠV ict
Ġany where
Ġfav our
Ġdec re
Ġvol ume
Ġbut ter
Ġsch ol
Ġconsid ering
b u
ar p
Ġu ne
Ġse vere
Ġrelig ious
Ġdeterm ined
S c
Ġconsum er
Ġhtt ps
R es
ok ing
Ġoccas ion
Ġ rom
Ġprep are
Ġepis ode
Ġtre ated
F L
Ġre cip
ĠA L
Ġt un
Ġwe alth
ult ural
ang ed
Ġtell ing
Ġdis cl
l ock
â Ħ
al ian
Ġcateg ory
ĠY OU
Ġ200 2
Ġappear ance
Ġbro wn
Ġlaun ched
ĠH ave
Ġl ibrary
U T
Ġte en
Ġhundred s
Ġin put
Ġun ivers
Ġ200 1
ĠA S
ĠEn ter
Ġinvestig ation
ĠNet work
Ġf aster
Ġbuild ings
Ġpay ing
Ġaud io
clus ion
S u
Ġ error
Ġpick ed
k es
Ġst ars
ir med
ĠF ederal
ampions hip
Ġres ource
Ġsupport ing
Ġl iqu
erv es
Ġredu ced
Ġpers pective
i as
Ġthe ory
Ġend s
ĠSec urity
ig ration
e en
r ick
Ġv ary
Ġb ond
Ġinsp ired
ĠJapan ese
Ġcommit ment
ĠP an
ĠD an
Ġbig ger
Ġfore st
k ay
ĠLe ad
ĠWill iam
i at
ĠG ar
C S
ĠMex ico
Ġhistor ical
ĠC y
ĠD en
Ġproced ure
Ġbel ong
Ġdefe nd
Ġaw esome
Ġmil k
Ġclin ical
Ġfant astic
Ġh un
ol a
I F
ĠB oth
Ġf le
Ġme at
!! !!
E n
Ġme re
Ġclean ing
Ġe c
bur g
ic it
Ġtru ck
M ost
ĠO N
Ġscient ific
ul ous
Ġexpl ained
ib ilities
Ġpo ly
Ġindust rial
Ġmod e
iven ess
e v
ĠB re
! )
Ġe lement
ĠL ab
Ġspe aking
An y
ĠCon ference
het ic
Ġs ac
Ġclos er
Ġimag ine
ĠIn vest
Ġoffic er
ĠW ay
Ġs am
Ġso le
Ġadv is
ĠSen ate
Ġres ol
Ġcompon ents
or ough
ific ations
ĠJohn son
Ġtick ets
ĠL ast
Ġtrad ition
Ġst im
ĠP erson
el ines
âĦ ¢
Ġcr ime
. |
U s
ĠSer ies
i ability
ĠH uman
Ġfun ctions
Ġlight s
Ġupd ated
Ġsqu are
Ġentire ly
e per
Ġro t
Ġfood s
Ġphot ograph
Ġfor t
Ġexam ples
Ġwe aring
S ee
ĠF und
Ab out
ad ed
Ġdom in
F irst
Ġb ike
ow nt
ĠM a
Ġident ified
Ġf ly
Ġj oy
f ol
Ġs ister
Ġconcer n
Ġag ent
Ġem phas
8 6
r ate
ĠN OT
ĠJ ose
Ġaccept ed
Ĥ ¬
Ġm ut
Ġmot ion
Q u
Ġregist ered
ĠH aw
Ġch osen
Ġs ad
Ġkind s
ĠN or
Ġhigh light
ĠAd minist
Ġt ast
Ġco ast
ploy ment
ĠO ffic
Ġboo st
m osp
Ġs an
D S
Ġrem aining
Ġme al
Ġwork sh
Ġrel atively
Ġo dd
Ġvict ory
ĠN C
Ġinstit utions
Ġl ux
ap ed
Ġhous ing
Ġag encies
ĠIs l
I I
Ġprote in
O C
or ation
Ġreg ister
Ġconf ig
Ġparticip ate
ĠHist ory
Ġthe rapy
re al
ĠW ild
Ġparticip ants
il it
Ġmed icine
Ġcount y
Ġfeed back
Ġplan ned
Ġs ample
Ġcrit ic
Ġh ur
ĠDe f
K e
ĠHe ad
ĠChar l
ĠTh ank
p ret
igh ter
az z
Ġeffect ively
ĠA T
Ġch oices
Ġg ro
Ġper man
Ġw al
Ġupd ates
Ġmag n
ĠC at
ĠM useum
ĠO per
p ass
er ies
Ġfil ms
Ġout put
Ġspirit ual
h ors
Ġr ough
4 2
Ġto m
Ġbatter y
Ġfield s
ĠA ud
Ġmatt ers
Ġch apter
Ġfl o
Ġrem ote
Ġconf irm
Ġstrateg ies
Ġworld wide
Ġob lig
ĠSte p
Ġdang erous
g age
last name
Ġcont rast
app y
Ġcol our
ĠC am
Ġrec overy
Ġconst ruct
Ġrecord ed
E E
i ams
Ġadminist r
V D
Ġab use
Ġher self
Ġveh icles
Ġn one
ĠB oston
A G
ĠM ic
Ġch ocolate
ĠV iew
Ġcircumst ances
ĠPro te
Ġcre ation
Ġen em
Ġcre w
ĠCarol ina
al a
Ġrest rict
w est
U p
ne ver
ĠM ur
ĠH en
Ġex cess
ĠCor por
Ġdest roy
Ġ3 6
Ġautom atically
ĠMart in
ĠM ax
Ġiss ued
A m
Ġinstall ation
Ġneighbor hood
ĠC ath
rom e
Ġobv ious
ĠV er
d ro
pre ne
ĠSt art
Ġcent re
Ġauthor ity
ĠInst ead
ot i
ĠC up
Ġfollow s
Ġattack s
e ah
Ġl it
Ġun f
Ġch ain
Ġus ual
Ġtre nd
Ġdatab ase
ĠB i
: ||
ĠA D
ric s
Ġfell ow
F r
ĠS k
Ġdistrib ution
Ġ3 2
ĠM att
ĠG ra
Ġequ al
ĠAb out
ĠSec ond
Ġsignificant ly
Ġknow ing
Ġinstall ed
. '
M an
0 7
h i
est yle
Ġhon or
Ġmass ive
ĠM aster
ĠCanad ian
Ġsc r
Ġ <
Ġp ump
Ġst orm
Ġt rib
olly wood
0 8
5 6
Ġan x
Ġprovid ers
Ġoffic ers
Ġv it
ĠPar is
Ġtrad ing
Ġreve aled
ĠD u
ck now
re prene
ab et
Ġhouse hold
Ġun like
ĠM en
Ġch at
Ġchar ged
Ġw arrant
Ġfurn iture
C E
O ver
ge nd
h us
Ġmom ents
Ġpub lish
I nd
ll a
Ġrece iving
Ġpos itions
he nt
ĠE nergy
Ġkeep s
Ġsubst ant
ĠAr ts
Ġemploy ment
ĠMin ister
ar row
Ġfix ed
Ġi Phone
Ġresearc hers
Ġpract ical
u ated
Ġm el
ĠO R
ap es
Ġansw ers
Ġpurch ased
Ġrep ut
Ġhold s
ĠW here
Ġcomprehens ive
Ġle ague
I m
Ġmiss ed
ĠRuss ian
Ġaccur ate
Ġl augh
Ġinvest ors
ĠL im
Ġsuggest ed
p ot
Ġt aught
Ġde press
Ġre form
ly mp
Ġform ed
Ġadv oc
Ġbelie ved
ĠB as
ĠPro v
ĠL and
com m
Ġident ity
ĠGl obal
S ince
c an
t r
Ġconst antly
Ġcut ting
Ġte a
Ġsh ares
Ġsurpr ise
Ġb read
g ent
Ġc ro
Ġf ro
Ġreturn s
Ġprotect ed
Ġgra b
es h
Ġwor st
ĠK now
ĠPol ice
C A
Ġro w
Ġr ing
Ġar ms
ĠVirgin ia
ĠP enn
ĠL ist
o ch
ĠP ac
Ġinf rastructure
Ġfor th
ak s
Ġshoot ing
ack s
ĠSte ve
pa per
7 8
el ess
Cl ick
resp ond
Ġf ulf
ĠWe ek
Ġinvol ve
Ġjust ice
Ġbas ket
s m
Ġm al
ĠRe v
ĠM P
Ġsu itable
Ġel ig
Ġhappen ing
Ġcook ing
Ġcr iminal
ost er
Ġat mosp
Ġv en
Ġcont ro
Ġs in
ĠTh ose
Ġtop ics
Ġexpert ise
en ced
Ġout door
i ors
ĠAnd roid
O r
Ġp ed
re ets
ĠâĢ ¢
we ight
Ġwind ows
Ġincred ible
e f
in ch
ĠSu pport
Ġcompet itive
Ġrestaur ants
ĠRepublic an
ab led
Ġdr am
Ġill ustr
Ġemot ional
Ġboy s
at re
ĠDe v
Ġwin ner
ourn ament
O h
al og
Ġinde ed
Ġre new
D r
Ġincre ases
Ġw id
og a
ĠS to
Ġgu est
Ġval uable
T C
Ġgood s
An other
Ġsc ript
Ġexpress ion
Ġch art
Ġsc ored
Ġmag azine
Ġsett ings
Ġentertain ment
Ġn urs
ĠC as
Ġg rown
opy right
Ġtur ning
Ġgr ade
Ġengine ering
Ġrout e
in et
Ġsh oes
Ġ4 8
Ġappe al
he red
Ġcomm ission
ĠInd ust
Ġelect ronic
c ers
ow ing
Ġear ned
Ġcy cle
Ġassess ment
Ġh urt
Ġex ternal
Ġsim pl
Ġfol ks
x y
at o
Ġsy n
Ġinnov ative
Ġal cohol
Ġt iss
ut ing
Ġen able
Ġregular ly
Ġa cknow
ĠRuss ia
Ġcandid ates
Ġs ick
Ġra nd
Ġdom estic
Ġguarant ee
ing u
ĠT own
ill y
ĠH D
ĠE xt
The n
ĠI ran
Ġcon ver
Ġlove ly
Ġrecogn ized
ac he
Ġstud io
T A
Ġch annel
Ġdisapp oint
4 3
ĠKe ep
Ġpl ate
Ġpresent ation
a id
Ġ20 21
ag on
Ġ3 00
Ġass ign
Ġfrequ ently
l o
Ġa f
ĠG irl
Ġsp r
crib e
Ġ iron
0 6
O ther
Ġgu ard
AT ION
Ġvac c
Ġperfect ly
ĠL ibrary
Ġreason able
Ġfight ing
Ġbo at
Ġproced ures
Ġcra zy
ĠMich igan
Ġen force
ang er
Ġextend ed
ĠCol umb
Ġcandid ate
M ar
ĠT em
Ġwhe el
ĠMay be
ir ms
Ġl osing
od d
Ġdis h
0 9
ĠF ull
ĠE nd
Ġnot iced
oos ing
L Y
ĠW al
v y
Ġfeat ured
Ġinc hes
Ġcamp us
Ġpolit ics
ĠCont rol
Ġri ver
Ġrel iable
ĠA ri
el ine
19 9
ĠPh ot
A re
M any
semb ly
Ġatt orney
ĠC A
Ġcare fully
Ġn ative
or a
Ġsched uled
Ġinstru ctions
ri ble
Ġche ese
Ġtyp ical
Ġu pper
Ġfact s
Ġmonth ly
Ġdeb ate
z er
Ġ ?
in ations
ĠM iddle
r as
Ġport ion
ĠAs ia
iver se
Ġbrand s
Ġregul ations
Ġrand om
Ġch icken
ĠPl us
Ġsymb ol
ĠM S
ĠRich ard
Ġn avig
ens ity
Ġdist inct
l ights
Ġinst itution
Ġmess ages
ĠS ar
Ġco vers
ĠAr my
Ġclot hes
w ing
Ġmus ical
re te
ĠS qu
ĠMan ager
5 8
Ġreg ional
Ġsupport s
Ġd im
On ce
à ¤
T oday
Ġsp oke
Ġath let
g as
ĠP ub
Ġhous es
Ġris ks
0 2
Ġimp ossible
Ġauthor ities
Ġdis s
Post ed
4 1
Ġcons erv
ĠSp irit
ĠCent re
ind ing
v a
Ġdo ors
Ġdeg rees
os ite
S pe
h ost
ĠAustral ian
P e
or al
Ġha bit
ans as
ans ion
rit ing
Ġ ille
Ġfig ures
Ġwall s
Ġown ed
Ġtax es
d ate
Ġd ump
as tern
Ġlay er
ĠAcadem y
ĠM o
Ġv ast
Ġk ne
Ġde als
om an
ĠE conom
Ġsur f
ĠB oy
Ġvis iting
y ard
ĠO lymp
Ã ¡
Ġbl ess
Ġdec ade
M A
Ġg rew
Ġent ered
Ġhor se
r id
ĠB ow
ĠF air
ĠCh ief
gy pt
Ġp il
al se
ĠIt alian
clud ed
Ġappreci ate
Ġt ail
ĠA R
Ġcont est
ĠChild ren
u a
âĢĻ .
T r
i ety
Ġsitu ations
ĠG al
Ġup coming
Ġtick et
H S
ĠS ports
Ġmill ions
l ines
ĠT it
Ġdes cription
Ġph ase
Ġconduct ed
l ong
Ġy ards
ĠLe e
Ġrout ine
Ġed ition
Ġreal ized
Ġconf irmed
Ġfac ing
M r
ang es
Ġsm ell
ĠWill iams
Ġorigin ally
ic ial
Ġinf o
Ġhealth care
ord ers
Ġinter ior
Ġsus p
5 7
Ġfirst name
ĠAn other
-- --
Ġbreat h
ind er
ĠAd v
Ġmus cle
Ġdel ay
Ġpros pect
er ation
Ġh ate
Ġh ook
et her
le te
Ġmeet ings
b orn
Ġs essions
Ġsk y
ĠK en
G B
mer ce
Ġinnov ation
m l
in em
ĠC ir
p at
ĠL og
Ġbirth day
Ġ Ð
b al
Ġdiscuss ed
Ġpull ed
Ġdef ined
0 4
Ġsuccess fully
Ġtal ent
Ġaware ness
ĠS ign
ĠAut hor
ĠSpr ing
ĠS P
ĠVict or
p erson
ul ing
b i
ĠF OR
Ġsil ver
ani el
Ġad m
Ġchalleng ing
O f
Ġass ets
int s
!! !
ic an
em ic
Ġhard ware
Ġbe er
Ġfound ation
G o
Ġl oves
ĠF ollow
Ġtr ig
Ġt ack
Ġte eth
Ġret ire
Ġun able
Ġtw e
Ġco ordin
ER S
ag ues
ĠTh rough
Ġis land
Ġprom pt
Al though
Ġregist ration
f rom
g s
Ġdri vers
Ġafford able
ĠJ on
ĠYou ng
Ġac id
Ġrecogn ize
ear ing
r um
Ġser iously
Ġsurpr ised
âĢĻ ,
ck ing
Ġdiffe rences
ĠBe fore
Ġaff ili
ĠOh io
Ġbon us
Ġbe ar
Ġfair ly
al le
ĠF estival
Ġcap able
el f
Ġsurround ing
ĠA ff
ĠL ive
Ġstand s
Ġmount ain
ĠB rand
Ġdro pped
Ġb en
Ġle tters
ĠL t
Ġmanufact uring
Ġvirt ual
Ġc ake
Ġre in
ĠB ible
Ġv ul
Ġserv es
Ġplan et
ĠT our
Ġpro ve
ĠSc ot
Ġbreak fast
Al so
Ġeffic iency
i h
Ġan cient
Ġsu c
ell y
ĠP ass
n am
Ã Ń
Ġcomm ittee
u gh
ĠB ush
Ġinv ent
Ġw arn
ĠA ccess
Ġj ack
Ġi P
ĠE r
ĠCont act
OV ID
. ||
Ġd ates
Ġsub mit
Ġfun ny
Ġmix ed
m ond
Ġc orn
Ġcomp ens
RE E
E d
a wn
Ġaut hors
ĠGe org
Ġgrad uate
Ġdi verse
Ġclose ly
Ġtom orrow
Ġinc ident
Ġprem ium
Ġlist ening
Ġwalk ed
n ic
in ally
Ġexclus ive
Ġcoun sel
Ġres olution
Ġeng age
ĠW alk
Ġt iny
om y
ĠE p
ĠCo ast
Ġpriv acy
F C
Ġposs ibility
Ġobject s
6 6
Ġhe ight
t le
ig ure
ĠIt aly
ĠC reat
um es
Ġro ot
Ġorgan ic
ĠChar les
ic ing
Ġpay ments
Ġslow ly
S p
Ġcommun ications
l aw
ĠI re
ĠC oll
ĠH and
ĠE qu
t a
Ġneg oti
Ġdelic ious
Ġent hus
Ġpattern s
ĠWhe ther
P C
Ġsh ift
Ġdep th
Ġyoung er
Ġvill age
Ġphil osoph
Ġstret ch
Ġh ang
ĠE U
Ġlik ed
in er
Ġc ooper
Ġag es
Ġadv enture
Ġmach ines
Ġexpect ations
Ġsuggest s
T R
Ġ id
Ġy ellow
Ġon going
Ġph arm
Ġpain ting
cl ing
Ġprof it
Ġrev olution
ĠDig ital
Ġn uclear
ot y
Ġhum ans
A Y
M L
ĠP age
Ġreport ing
ĠFranc isco
0 3
Ġt ank
Ġpl ug
Ġconsist ent
ĠC ast
Ġv ital
ed ing
Ġcor respond
s he
es ides
Ġpass ing
ĠCont in
Ġem pt
W here
ĠL o
Ġmin i
ĠA rab
aw ay
atur ally
ĠJust ice
I nt
Ġn arr
cl ass
ail ability
ĠP rem
Ġatt rib
ust er
p ay
Ġtalk ed
c ons
Ġar ts
Ġra il
Ġflow ers
F ree
ot al
ĠS af
ĠColor ado
Ġsuc ceed
Ġlegisl ation
ĠR ights
ac hel
int on
Ġco ck
sec ut
Ġdel ight
am ber
ĠL ink
ĠF arm
Ġev il
Ġtrans ition
end ar
Ġf uck
Ġnecess arily
Ġpre par
Ġcollect ed
g reg
st ream
ul s
ub s
ĠJack son
res ents
ĠS et
ĠC ode
ĠD ie
Ġnorm ally
P er
ĠL ittle
Ġleg s
Ġvict ims
Ġth in
com es
Ġtest ed
Ġ icon
Ġlic ens
Ġt ag
Ġrel ief
ĠN ight
Ġsa uce
c a
el come
Ġperson ally
Ġphot ograp
Ġult imately
is er
ĠNe xt
Ġg ay
Ġur ban
Ġh all
ain ts
Ġsh ots
ov al
Ġcar bon
Ġoper ate
S S
Ġs ight
ĠS up
z il
5 2
Ġa st
gh an
is ms
ĠDiv ision
Ġs izes
E ven
Ġimmedi ate
Ġb are
Ġfl ood
ĠM id
ĠJ un
or ne
ĠS on
Ġfeat uring
ut ch
an ish
ĠC re
ĠR est
Ġinst ruct
ograph ic
Ġsol ar
Ġbelie ves
ĠC ook
Ġgu itar
Ġt asks
Ġcons cious
Ġappro val
Ġalle ged
Ġh its
Ġdescrib e
Ġpartners hip
Ġst one
Ġhe ll
ĠP ack
ld er
ĠE gypt
ĠThere fore
Ġevery day
ES T
ĠR ight
osp it
V iew
ĠG all
Ġfeel ings
Ġliqu id
ur ning
pect ed
Ġve nd
Ġaccess ible
Ġton ight
he m
ad ium
Ġsome where
ual ity
Ġob tained
Ġbrows er
Ġst reets
ĠInt e
pp ers
it age
Ġconf ident
Ġb order
red it
ress ion
Ġsl ot
Th anks
Ġstate ments
Ġstrugg le
ĠHot el
Ġsub sequ
ĠSecret ary
a per
ĠD C
Ġhop ing
w hel
Ġ err
Ġorgan ized
ĠDo es
ĠS ite
Ġsustain able
m ar
ĠC ert
Ġhas n
Ġro se
Ġg olf
as hed
Ġl ie
cl aim
ple te
o in
st ers
h an
p es
pe l
Ġadd s
Ġimprove ment
Ġlik es
ĠY et
Ġsk ill
we et
Ġre ward
H A
Ġpers ons
Ġtra ined
Ġdeal ing
C ol
Ġp apers
el lect
Ġlo ans
Ġlink ed
Ġintegr ated
Ġguid ance
L ook
Ġb anks
Ġp itch
ĠW atch
Ġint ent
Ġth orough
og en
Ġcontem porary
Ġrep resents
pro fit
Ġant icip
Ġprot est
f oot
Ġsu fficient
ĠE ll
Ġappoint ment
ist ers
c ue
ber ry
Ġfind s
Ġexp osure
Ġso ci
R S
Ġpro of
ĠU t
Ġhe av
D uring
Ġless ons
Ġent reprene
Ġill ness
Ġargu ment
ĠC ross
U L
ĠC ost
Ġch ose
y ers
or able
Ġimpress ive
le ments
Ġprom ise
Ġinform ed
Ġc able
pl oad
ĠAnd rew
ĠO S
Ġany way
Ġbow l
ĠS her
ĠH ard
ult s
Ġind ex
Ġsuff ering
J ohn
ownt own
ĠF our
Ġrem ained
Ġtal ks
ste in
Ġact s
Ġgl ad
b les
gr ad
ĠMr s
Ġestim ated
u ine
ast ers
Ġshe l
Ġext ent
Ġscient ists
ĠJew ish
Ġbed room
Ġb odies
ĠP ot
Ġsm ile
Ġaut o
Ġtechn ique
Ġfil ed
Ġt ut
Ġb at
ent le
Ġnet works
Ġclot hing
Ġth read
Ġag ents
Ġmonitor ing
d es
Ġm ic
ĠL ind
Ġpercent age
Ġabs or
Ġinj uries
et ime
Wh o
Ġbas ically
ĠGu ide
7 6
Ġp od
Ġn ob
Ġgr ass
Ġaut hent
on ed
Ġrec ording
Americ an
ĠB al
Ġtr ick
Ġ199 9
ĠO il
ĠAg ain
Ġd ining
ra ge
Ġatt ached
ĠEx ecutive
Ġw et
ĠH ospital
ĠG ames
Ġprinci ples
Ġex ecut
Ġatmosp here
Ġt all
ĠRom an
m ade
ĠH or
ĠTr ust
Ġele v
Ġrefer red
st one
ĠPl ace
Ġexpress ed
st ar
iz z
amp ion
ĠPr ice
Ġrelig ion
s ue
ot ton
ob s
Ġresult ing
Ġ7 5
Ġ199 0
c ase
ou ch
Ġwrit ers
Ġn arrow
ĠO pt
Ġ3 8
ĠUs ing
Ġpur su
Ġsearch ing
u ction
ian a
Ġreplace ment
ou p
Ġcreat es
ixt ure
ĠC B
Ġinter pret
Ġwat ched
rie ved
Ġh at
qu ir
ĠK n
Ġdef ault
Ġre ar
ĠS outhern
Ġas ide
ast s
ob by
Ġm and
ra cy
Ġexpl ains
Ġnear by
Ġce rem
ĠH ollywood
um ps
Â °
Ġcomp r
ony m
Ġread er
Ġfac ilit
Ġdom ain
Ġp ounds
Ġbott le
Ġord ered
b a
st ood
Ġte ch
Ġam end
Ġtw enty
Ġent r
Ġdi am
Ġfor um
ad el
Ġdirect ed
ly n
Ġconst ant
Ġprec ise
b el
ac c
Ġobv iously
Ġfl ash
ce ler
ĠM ult
Ġne ither
Ġlif estyle
Ġbroad cast
) ||
Ġp it
ĠT ri
Ġimpro ving
art ers
r ition
Ġs oph
Ġsome what
Ġfore ver
vent ional
P M
an ing
Ġm useum
ĠC H
Ġconven ient
ay lor
Ġhead s
ĠEn vironment
ĠIr ish
ĠB ox
Ġdis cipl
Ġvul ner
Ġno ise
Ġmov es
i ac
ĠC ra
ra id
Ġph r
Ġcir cuit
r ich
ne ll
Ġcut s
Ġple asure
Ġrepe ated
le vel
Ġvers ions
se ll
Ġwere n
ĠSo ft
3 00
ĠT ru
ĠF urther
ĠV an
Ġcontrib ute
Ġlight ing
Ġcateg ories
Ġsuppl ies
Ġsurpr ising
Ġmur der
et ing
ĠH im
ĠSt at
A B
Ġl ad
ĠP DF
ĠF riend
ath y
Ġev ol
ĠHel p
Ġschol ars
Ġag ric
Ġf o
ĠE s
Ġact ing
Ġtre nds
Ġvir us
ĠIre land
ar ry
Ġinter face
Ġoccur red
abet es
u ment
z ing
Ġj e
ĠP oint
Ġweek ly
Ġsign al
h tt
Ġso il
Ġout standing
Ġresist ance
ask a
e le
ĠR yan
Ġple ased
in cluding
Ġw est
= =
Ġj un
Ġbl ind
Ġpropos al
Ġweap ons
Ġreput ation
if ies
Ġstri ke
ĠK im
ro ke
Ġg ear
C R
ro g
ure au
Ġapart ment
Ġcru cial
T ube
ĠF ield
Ġsp in
en ger
ĠBl og
Ġcol umn
Ġlarge ly
Ġamount s
Ġconsum ption
as ant
ĠM ach
ĠB on
ĠAre a
Ġsp aces
ĠSystem s
Ġincreasing ly
Ġf alse
ul ating
Ġr ig
Ġter rit
ĠLe g
Ġapparent ly
Ġd uty
ound ed
Ġprofess or
Ġcelebr ate
Ġconflic t
ĠR on
ĠL iber
og ether
U P
ĠD VD
Ġbr idge
ann a
Ġmo ist
M ed
in ter
nd a
Ġp in
ĠEx pl
ĠB ell
ark s
Ġf asc
ur a
Ġ )
Ġover whel
ĠInst agram
Ġdrink ing
ĠAss ist
ĠCath olic
B u
i ot
Ġp hen
ĠRes p
o ir
B ec
ĠR ay
ab eth
Ġrent al
ĠZ eal
ĠMount ain
ĠH arr
Ġ1 50
Ġcl ar
Ġres erved
l ive
ĠR oom
ĠR oyal
Ġbr ill
Ġbro ke
ĠSp anish
M P
ĠS earch
ĠK ent
Ġdefin ition
ĠStud ies
ĠDown load
P r
Ġin ner
Ġal ive
Ġent it
Ġinsp iration
t hen
ol it
Ġshe et
Ġl uck
ĠL ow
Ġwide ly
Ġsty les
te en
Ġpl ot
Ġclaim ed
id ays
20 13
Che ck
Ġd ivid
Ġexper iment
Ġstr ange
Ġsa ved
Ġmembers hip
ĠApp lic
cip al
d y
Ġe ase
ĠH on
C D
w orth
Ġ3 7
ffe red
Ġlandsc ape
Ġperman ent
pl ate
Ġman ual
Ġ3 3
Ġcopy right
Ġkn ock
ĠS n
Ġperform ing
Ġplatform s
Ġt ab
ĠJ ac
Ġmain ly
Ġsend ing
Ġfac ulty
T ER
f ront
S m
Ġun us
Ġtrack s
Ġachie ved
E P
ĠF ar
ĠR am
Ġmag ic
Ġimplement ation
Ġch oosing
Ġpot entially
ĠPac ific
Ġsens itive
ĠS ometimes
Ġro les
Th ank
ĠC OVID
Ġprim arily
Ġp ace
Ġex ceed
ific ate
Ġdesign er
ĠF ox
Ġco al
ĠLt d
Ġ199 8
Ġexist ence
z ona
Ġcapt ure
Ġcontrol s
Ġmanag ing
Ġobs erved
Ġfavour ite
im ents
Ġex ec
in os
ĠIn f
Ġfac es
ĠKe y
Ġer a
ins on
ĠGeorg ia
% .
ur b
Ġreg ions
li ament
ĠZeal and
P re
c ific
d ated
Ġp ra
ĠD ate
Ġrec y
Ġposs ess
m aking
ĠCh air
Ġinv ited
ik es
Ġcollabor ation
il st
Ġfl our
br idge
ĠH a
B I
ĠR un
es sel
Ġinvol ves
Ġl ucky
Ġre action
ĠH ope
Ġdiv ision
5 4
ĠFin ancial
Ġexcept ion
Ġstrateg ic
s we
ĠS anta
am ental
x ic
ĠAdminist ration
t es
Ġwith d
Ġmark ed
Ġfound ed
ĠTh us
Ġflex ible
ĠR ose
ten se
Ġtreat ments
enn is
ĠSup reme
p age
er ate
ĠD id
Ġrequest s
Ġbath room
Ġaccompl ish
J an
Ġvac ation
ð Ł
Ġse es
ann els
Ġgen uine
Ġge nder
Ġst ood
Ð ¾
Ġd ust
Ġpro ven
ĠDis ney
Ġult imate
Ġv ent
Ġz one
ĠPol icy
Ġinstru ment
Ġaf raid
C O
Ġsav ings
H ave
ur rent
ann ed
ĠJer sey
Ġag gress
Ġla pt
Ġprior ity
ĠR o
Ġper mission
Ġhop es
Ġk m
5 3
u ous
Ġt ip
Ġf inger
Ġform al
y stem
Ġl ies
ĠD aily
Ġintellig ence
in ent
an while
ĠC a
ĠV ideo
Ġcontinu ing
Ġe ast
ĠS ky
ur able
ition ally
ok en
ĠCon nect
Ġlim its
hold ers
G u
ig er
Ġst uck
Ġfind ings
Ġqual ified
b ar
Ġh ole
Ġcompon ent
Ġfif th
Ġelig ible
r ated
os m
Ġoff ices
Ġflav or
Ġbird s
Ġh ire
Ġg ifts
Ġmanufacture r
E A
Ġn ic
T V
Ġb ab
Ġp ink
Ġm ile
Ġh idden
av a
ĠWe bs
ren cy
less ly
Ġtiss ue
al ty
ian o
Ġvis ited
Ġille gal
ict ed
Ġopp osite
ad ow
to col
Ġrel ative
E G
P ub
Ġw ins
ĠU k
Ġeng aged
Ġpow der
ĠF ed
Ġstrong er
t ers
u ing
Ġb att
Ġun w
ĠDis c
Ġdo ctors
Ġ4 00
ĠAs h
8 00
ĠN ote
Ġtrans p
ivers ary
Ġst ake
ra ction
ac le
ĠTh ree
Ġsp okes
Ġdevelop ers
C ar
N ote
ĠK enn
Ġevery where
az e
Ġpass word
on to
Ġwas h
Ġcra ck
Ġopp on
Ġdraw ing
ĠProfess or
Ġf estival
Ġd ad
Ġr ating
Ġsub mitted
th is
ĠL abor
Ġdri ven
Ġsa ving
Ġcap abilities
ll ed
ol ar
ion e
pp y
Ġhistor ic
ie ce
ĠPol it
Ġattend ed
Ġt um
Ġj ew
ann y
ĠBrit ain
ĠGo vern
ĠT ax
Ġgener ate
ing ers
Ġm m
ut er
Ġvict im
ĠMarket ing
B ook
Ġme als
Ġguid elines
olog ist
Ġass ault
Ġrecommend ations
Ġdise ases
in te
ĠC O
Ġincred ibly
Re g
ĠBra zil
Ġw ra
ĠV iet
Ġshould n
r ite
ou red
ers hip
R ep
Ġintrodu ction
Ġeval uation
on na
at i
Ġp ill
Ġele g
Ġinvol ving
Ġfit ness
Ġliter ature
Ġev olution
Ġhead ed
Ġad s
iz abeth
ĠPh ys
Ġin tense
et ry
if orm
ĠV ill
co ver
Ġrepl aced
Ġempt y
Ġexp enses
Ġegg s
Ġch ances
Ġcl ock
Ġcommon ly
r un
ĠH un
Ġdeb ut
Ġdream s
7 9
Ġse ed
ĠN ever
Ġany more
ĠSu pp
b re
ĠT er
Ġnew ly
Ġprogram me
v ard
Ġext ract
Ġstruct ures
pr int
Ġfore cast
Ġmort gage
Ġf irms
ap ing
' '
Ġt ournament
Ġcont rolled
Ġmem ories
ĠAd am
s en
Ġpublic ation
Ġconsider ation
Ġ3 4
Ġca using
Ġlux ury
form ance
Ġfl ag
ĠHe art
Ġdes ired
ĠS us
ĠB udd
âĢ¦ .
er ts
Ġvot ers
Ġb omb
Ġdepos it
Ġout come
is dom
ĠF ather
T wo
Ġp ipe
ĠB all
P ress
Ġl oving
ĠM ill
ci a
b its
Ġa wards
Ġfall ing
re qu
Ġse asons
ink ing
ES S
Ġanx iety
Ġenforce ment
F i
ĠSt an
Ġacc ord
ĠCon f
ph y
Ġdra wn
Ġdepend s
p ir
Ġo ven
orm al
Ġhost ing
Ġrec over
Ġliter ally
p ack
Ġ ;
ĠS at
Ġle ather
Ġcarry ing
Ġr ising
ĠJ r
Ġphot ography
ĠFor ce
Ġc ute
Ġy ield
se ason
Ġ20 22
ĠStud ents
ĠT urn
amp s
Ġelect rical
Ġb ull
Ġexpl an
Ġredu ction
Ġfunction al
R I
Ġn om
Ġarrest ed
l ers
ĠK ar
Ġbe ll
Ġthink s
Ġdec ent
Ġsol ve
ĠWor ks
Ġregard less
Ġb ags
st ery
et ary
Ġsh arp
iz er
ath an
ĠTra ining
ĠS H
ĠC ond
let ter
Ġprefer red
ĠPri v
ĠD ar
oc racy
Ġbre aking
ĠCount ry
miss ions
ĠTh ough
ĠWh ich
Ġcook ies
fol io
C L
Ġst ead
Ġspl it
Ġh ospit
im ize
ĠP op
the w
Ġredu cing
Ġalong side
Ġsubject s
Ġt act
Ġre ject
iz za
Be fore
Ġmer ch
ĠR a
ĠL ED
Ġm ood
ce ived
Ġche st
Ġcoun cil
Bec ause
6 8
Ġg ene
ĠYou Tube
Ġav ailability
w as
Ġt or
Ġins pe
Ġdeep ly
ĠCorpor ation
w art
Ġla id
Ġtransport ation
ĠO k
Ġint ellect
Ġhard er
Ġlaw yer
ĠAcc ount
Ġst rict
ĠE ss
og s
Ġvis ible
Ġpost ing
ĠBu ilding
ĠCl in
ino is
Ġthous and
Ġdyn amic
adel ph
Ġb act
Ġb unch
Ġunder t
ĠSe a
F ollow
le ep
ĠP ract
6 4
u ct
Ġp p
ant ed
Ġr u
Ġbase ball
Ġprint ed
ĠSil ver
ĠC ab
ĠR od
Ġcont ained
Ġend ing
i ate
it is
Ġre act
Ġexp osed
err ing
Ġrecogn ition
Ġhe l
ĠCl inton
AT E
ĠTra vel
in ity
Ġb ars
ĠH ou
ĠF ord
Ġpar am
Ġin fection
ĠA venue
ĠSt ore
Ġinter act
ĠAri zona
Ġqu ote
Ġ3 9
oun ter
Ġgener ated
Ġequ ival
Ġsu ffered
Ġal t
Ġpe pper
Ġexp ansion
Ġwrit es
ĠT al
Ġbeh alf
Ġforg ot
ĠP S
Ġob st
5 1
Ġsy nt
Ġcompar ison
ĠH oly
ĠTe ch
Ġch annels
ow ers
Ġar my
co in
Ġeng agement
Ġelect ed
Ġprepar ation
ĠD un
ĠQu est
ĠDemocr atic
L ike
if er
Ġsh ops
Ġwhe never
Ġprodu cing
Ġtit les
Ġsupp lement
amb ling
friend ly
Ġmere ly
ĠJose ph
ic ious
ĠBro ad
ĠLear n
ĠD rive
ain e
ĠJ enn
Ã ¢
ĠB a
ĠB ru
Ġass ume
Ġcare ful
Ġfil ter
Ġconne ctions
ĠSm all
b oy
Ġunder stood
Ġmark s
Ġsam ples
Ġmat ches
Ġenter prise
ĠF red
qu ality
b ury
Ġis ol
Ġput s
b ell
P art
] .
Ġscen es
y es
Ġl au
Ġevery body
Ġext ension
O ct
Ġl atter
ĠO p
Ġmanag ers
iam i
Ġn aturally
Ġcon vin
d ays
e pend
iss ions
20 12
Ġencoura ged
ĠG reek
be ing
ĠM A
Ġch arm
Ġc oc
ist ed
Ġres ume
Ġfac ed
Ġwat ers
ĠRad io
ir ts
ĠF act
Ġhand ling
Ġcolle agues
ĠA ction
ĠW ales
Ġf ishing
Ġgot ten
Ġsche me
ĠRet rieved
ar on
all as
ĠU lt
Ġfund amental
Ġdest ination
ig ation
Ġv essel
Ġsp ots
Ġcons ists
Ġarri ve
Ġsudden ly
H is
Ġm ac
ĠM obile
ate ll
Ġk illing
adelph ia
Ġv ice
ru ption
Ġdoll ar
w ar
Ġt ie
Ġbut t
ĠSp ace
Ġesc ape
6 9
Ġb ills
Ġp ul
Ġpro hib
ĠW i
Ġconsequ ences
ĠC R
Ġref und
ĠMed icine
Ġiniti ative
____ ____
is a
ĠT erm
Ġcomp are
Ġinst ant
Ġindust ries
ĠA wards
oc ated
Ġobject ive
Ġframe work
ĠDemocr ats
Ġz ero
ĠT aylor
ĠP en
Ġse ats
al ysis
Ġph ones
Ġ6 5
Ġjo ining
Ġhy per
ur ities
Ġfin ance
Ġdem ands
ĠHen ry
Ġsm oke
ĠSh ould
) |
Ġl ens
ĠSaf ety
Ġb oss
ĠS av
ĠW H
Ġcomp at
Ġrec on
che ster
Ġst unning
il a
Ġcommun icate
Ġinj ured
Ġlog o
Ġopp osition
Ġc am
ĠS uch
ĠP o
ĠN on
ens us
Ġrem oval
Ġsuper ior
m akers
ĠP ak
Ġbl ank
Ġperson ality
Ġ199 6
Ġsac r
or ous
Ġg entle
ri ers
Ġtravel ing
ĠPerson al
B ack
Ġins ight
c ar
th rough
Ġind icate
Ġmaintain ing
t ail
us al
Ġqu e
Ġst ored
Ġ5 5
ok ed
ĠBr ad
Ġcontro vers
ĠN orthern
Ġl ists
Ġcrit eria
as hes
ĠS S
Ġocc urs
f all
ĠSp ain
8 5
Ġg od
Ġad equ
he ast
ĠD ub
Ġpo cket
Ġair port
Ġto mat
ot ed
Ġra w
ik i
st s
Ġatt itude
ĠCar l
Ġf ib
Ġplan e
b ration
ĠD O
erv ing
Ġcover ing
Ġcomput ers
ĠT reat
Ġh ung
ĠC ON
ĠD aniel
ĠR oll
Ġpres ents
Ġess entially
Ġpub l
W he
m al
re ction
ĠA p
Ġdis pos
Ġcent ers
AN D
Ġsold iers
d is
st ra
ĠSt ill
Ġshould er
Ġmist ake
Ġt one
Ġra cing
Ġ199 7
Ġspeak er
Ġg iant
Ġun com
Ġdra g
at ers
Ġle ct
ĠF un
um a
ĠSt ory
ĠII I
d s
ĠF all
8 9
Ġw ave
Ġconcer ning
Ġfra ud
ent h
Ġl ady
ĠE nt
ĠRe qu
book s
Ġune x
ĠC ru
Ġarchitect ure
Ġben ch
ĠC N
Ġnews paper
Ġdepress ion
Ġt ape
en ess
Ġl oud
ĠOr der
d a
Ġr iding
erv ations
ĠAs ian
Ġse ctions
Ġsc an
el ing
ick ing
ha ust
Ste p
4 00
ĠG M
roll er
ĠHar ry
Ġbasket ball
Ġac celer
ili pp
W ill
w an
Ġy ard
ĠD am
Ġconc rete
c ular
Ġbox es
Ġattempt s
it i
Ġm a
ĠF REE
Ġ( $
Ġr ice
ĠT ry
Ġtra ve
Ġrequest ed
ĠTy pe
O O
V ER
w ords
Ġw arning
Ġm ixture
Ġst om
Ġcal endar
Ġaward ed
c ut
ĠT able
um m
Ġcr ash
Ġsent ence
Ġblock s
Ġattract ive
A ug
ing ton
ll er
Ġhe aven
Ġres idential
ial s
Ġequ ally
Ġtrack ing
Ð µ
Ġs ought
Ġas ks
Ġle gend
Ġmor al
ĠKore a
T ra
Ġ âĢĻ
Ġin ch
Ġu pload
ĠL y
ĠL atin
ĠE ric
ĠK at
Ġ4 9
Ġdef ensive
Â ·
ac her
Ġtrans action
Ġstrong ly
Ġb orrow
Ġcol on
Ġstay ed
Don ald
ĠDie go
U D
Ġle ts
Ġvolunte ers
ol is
Ġcompl icated
ĠH old
Ġsh ower
Ġapplic able
Ġerr ors
G E
ĠL ew
ĠAg ency
Ġgrant ed
n ce
Ġun known
Ġstay ing
6 7
ĠL LC
ĠN ick
b ro
p ed
ĠS ir
el ry
Ġme ets
Ġretire ment
ĠAn th
Ġunus ual
Ġchild hood
Ġclos ing
Ġcheck ing
Ġparticip ation
ĠPer haps
clus ive
Ġentit led
Ġl oyal
Ġr ural
Ġadop ted
ĠF oot
Ġcompl iance
z ed
Ġg ap
il ty
Ġinit ially
Ġent ering
Ġleg it
ĠKe vin
b ow
Ġus age
ĠAf ghan
Ġpow ers
Ġt ired
ort ion
Ġact or
Ġfr ustr
ĠPr ime
Ã ¼
Ġt ied
Ġgreat ly
Ġop ens
pend ing
Ġ198 0
Ġopin ions
Ġju ice
t ics
Ġch ronic
Ġperson nel
Ġmed ication
Ġpoint ed
ĠAr m
ĠÂ »
ĠEngine ering
S ec
swe red
ĠM iller
L ear
ic ide
Ġsuff er
nes ota
D P
E X
Ġfall s
Ġp ig
ul um
Ġad mit
ĠIll inois
W or
Ġpl ain
E F
ir a
ĠB rian
Ġperform ances
yl van
B est
v as
Ġw ake
omet hing
ik ing
Ġstru ck
bur gh
Ġh am
Ġg aming
Ġcert ified
ul pt
Ġim per
Ġret urning
Ġcharacter istics
Ġs ke
Ġd iversity
Ġnight s
IL L
F ind
ĠS ales
ĠH as
Ġappro aches
Ġsuggest ions
Ġassoci ation
ĠKing dom
Ġelectric ity
c m
r itten
Ġre ly
ĠOr ig
Ġble nd
rit er
Ġrepresent ed
Ġrespect ively
Ġcas ual
Ġp and
ĠC ivil
ĠP sych
orge ous
ĠD ream
are t
be red
A F
Ġf lying
um er
Ġsp ark
Ġhead ing
' .
ĠA ge
ad or
ĠM ah
ĠE astern
erm an
ĠArt icle
Ġdisplay ed
Ġs orry
Ġg ained
Ġprep aring
ĠDav is
ĠSen ior
Ġrapid ly
g ov
Ġv ibr
Ġassist ant
Ġmanufacture rs
B M
an es
ĠI M
et ies
ĠD ark
int age
Ġrequire ment
â Ĥ¬
Ġrecip es
it o
Ġad j
Ġun iverse
% ,
A ut
ĠP ut
ĠPr in
Ġaddress es
h our
Ġd ental
Ġconc ert
Ġsm oking
Ġre aching
az a
h igh
ĠSe ction
G ood
Ġb one
Ġst able
Ġj ur
Ġens uring
E ach
ĠE th
Ġoff ensive
ĠEl izabeth
Ġfarm ers
ĠFil m
Ġt ill
ĠP rom
Ġair craft
ĠÂ ©
ĠSum mer
Ġdr ama
ĠCur rent
i our
Ġh ip
Ġab and
Ġaccess ories
U M
Ġ4 2
Ġ199 5
i pt
Ġm ob
Ġcomp rom
up id
Ġphilosoph y
ĠHou ston
ĠD NA
ĠN FL
Ġsing les
Ġcontrib utions
ĠRepublic ans
ch ild
ate ful
Ġen ables
R em
Ġo cean
il er
Ġcon ventional
ĠO x
ĠC redit
ĠG arden
ĠE sc
Ġdo se
In st
Ġpurch asing
Ġha z
ck er
ER E
Ġclass room
Ar t
Ġwire less
ph ones
Ġpri ze
st ract
and y
ĠRe f
Ġra ising
our se
Ġl oose
Ġenjoy ing
re r
Ġb aking
Ġl es
st ep
Ġless on
nd ers
Ġpack ed
, âĢĻ
Ġst ations
Ġpo ker
ĠUn fortunately
ĠSe attle
Ġinst ruction
Ġco at
Ġprogram ming
S im
Ġex ists
Ġcou p
ĠColumb ia
Ġn ations
et ers
ĠE mer
Ġfew er
h ire
i ag
Ġs outhern
Ġo kay
ĠB ern
Ġan swered
Ġde eper
Ġtem porary
ĠG i
Ġfl ower
Ġunc ertain
ylvan ia
ig en
Ġar r
Ġoffic ially
wh o
Ġconcept s
ĠMag azine
ĠWebs ite
st al
ce nd
ak a
Ġcal m
ĠQue en
S E
Ġupgr ade
Ġw ise
Ġcon clusion
Ġrem em
Pe ople
Ã ³
ĠU r
og y
ĠM ember
Ġor ange
mon th
ĠCap ital
Ġst ir
Ġcomb at
Ġport folio
Ġdang er
ugh t
H L
ĠN ame
in ating
Ġstud ied
AR T
reg on
re ts
Ġl ip
Ġst ages
ĠM ir
Ġmin ister
Ġadv ent
Ġexhib ition
ĠH aving
ia h
ĠSt one
Ġhad n
Ġmin imal
Ġfr anch
Ġhost ed
im er
Ġcry pt
Ġsubstant ial
ir us
ĠM D
ĠM iami
Ġwor ried
ord an
Ġimm igr
Ġequival ent
c or
Ġvis its
Ġcerem ony
w ich
Ġun em
angu age
Ġcontract s
ĠN ation
od ing
htt p
j i
Ġinterview s
Ġcamer as
Ġpregn ancy
6 3
Ġequ ipped
Ġheav ily
f a
j e
p any
Ġp ushed
Ġbrill iant
F eb
Ġl in
Ġlist ing
Ġun ion
Ġind icated
ĠComm on
ĠLear ning
al o
if fe
ĠL ocal
ac on
Ġcont aining
Ġinter action
Ġdis pl
8 7
v ol
Ġt ub
Ġd owntown
s ite
le ctions
ch ar
ĠG ro
Ġcour ts
ĠN O
ron ics
al i
Ġbl ow
ke l
ter y
Ġhigh lights
Ġfound er
ĠEx press
Ġsubs id
Ġworksh op
Ġor ient
oc key
Ġphen omen
ĠT ool
Ġad mitted
Ġar ray
j a
or ic
Ġl ung
Ġde ploy
Ġass igned
ĠL as
Ġapply ing
itution al
Ġrestrict ions
ĠP u
Ġmus cles
Ġjud gment
Ġlif etime
il ton
ĠE st
os a
Ġemploy er
Ġrepresent ative
ĠTe le
Ġm old
Ġinter active
Ġdi abetes
ĠWith out
Ġrat io
Ġswim ming
he mat
od ge
ag an
Ġout comes
Ġsome body
ile y
Ġl y
pl ed
Ġdam aged
Ġcompens ation
Ġauthent ic
C omm
i ary
Ġ ~
ĠC ase
Ġwe ird
cc er
ĠSte el
Ġdecl ine
Ġthe r
ur se
ge l
ond er
Ġfocus ing
R C
ĠI ce
ck ets
Ġmy th
ĠPro per
Ġroad s
Ġenem y
ĠC apt
ĠB it
ĠMem bers
se x
j ection
Ġb ass
Ġacc used
li ers
Ġsh irt
Ġprov ed
Ġcons ent
Ġgra ce
Ġscore s
Ġrespons es
ow ed
Ġbu ff
k o
s ylvania
ĠCh all
ĠPhil adelphia
Ġrare ly
a fter
Ġintegr ation
ĠL at
clud es
Ġloss es
Ġaccur acy
Ġvolunte er
Ġveget ables
ĠB ase
Ġde ck
Ġk it
ĠAll en
Ġ199 4
ĠSw ed
ĠB and
ps on
Ġf ru
in tend
or gan
ĠW as
Ġex haust
ep ing
ĠMin nesota
ĠBu y
Ġstrugg ling
Ġgraph ics
u ana
z es
ĠT R
ut ies
Ġwant ing
rodu ction
Ġimprove ments
at hered
ick et
Ġint ention
d f
Ġc ul
ĠC P
ĠN atural
Ġsur ve
Ġmind s
Ġgovern ments
F l
a ver
im p
ach us
ĠPro cess
Ġexpl os
Ġcontrib ution
Ġenthus i
Ġopp osed
Ġl ift
Ġse vent
Ġr um
ĠWil son
C o
a ud
T ake
v iously
Ð °
Ġs ed
Ġemot ions
O b
Ġhe aling
os c
ar ly
Ġem ails
Ġele ctions
ĠBar b
Ġspeak ers
look ing
w ear
Ġm ole
Ġout s
ors es
Ġsc oring
Ġprov ision
ĠCh ampionship
Ġins ert
Ġtrad em
g or
Ġin fect
Ġsome how
Ġdeath s
Ġlapt op
Ġb old
crib ed
Ġtemper atures
ĠN ic
clud e
ĠGu ard
ĠiP ad
Ġc m
ĠO ak
ĠK h
ĠP ur
ĠD allas
op her
Ġreve al
Ġsurv ival
ĠFore st
Ġdivid ed
R L
Ġne ut
ĠO K
isc al
ot he
ĠIns urance
p ower
ch arge
ra ine
Ġpro port
ĠUS B
Ġsing er
isc ons
Ġpregn ant
G A
ĠM s
Ġ4 4
St ud
Ġsurv ive
Ġtro ops
Ġh ide
Ġheart s
Ġm g
ĠP A
ĠBe ing
iscons in
Ġdes per
Ġwh ilst
if ting
Ġatt ach
20 11
Ġter rible
ĠM oon
ĠN AS
ap ore
Ġorgan is
uck s
Ġview ing
br id
Ġwond ering
ĠBro ok
Ġstom ach
H T
s is
ĠS em
Ġdrink s
ĠVe gas
Ġg orgeous
ĠH art
Ġstr ing
ĠPh ilipp
Ġlangu ages
Ġ !
Ġch ampion
ĠV ery
ĠSe lect
Ġcir cle
Ġto ler
ĠI de
Ġcon vey
ĠL ine
Ġoff ense
f ers
ĠR en
ĠO l
Ġsc reens
Ġtrans actions
Ġtre m
ĠSto ck
ĠB ad
Ġgu ilty
Ġpriv ile
r us
Ġw isdom
Ġm ad
av al
ĠSm art
Ġdescrib es
Ġcup s
ĠTor onto
Ġpil ot
C ons
ĠB ang
ĠE vent
ĠProfess ional
k ed
ĠI mm
Ġtele phone
ra pe
ĠR ub
en cing
Ġor al
Ġeng aging
Ġconst it
se ct
Ġse gment
ĠL A
ĠBr idge
Ġemer ging
Ġconserv ative
on ic
Ġb id
Ġtr im
ĠBe aut
un es
ĠK ansas
Ġal ign
ffect ive
Ġmeas ured
ĠJ osh
Ġdis hes
Ġinvest ments
Ġbreak s
Ġimm une
Ġpand emic
ĠS C
Ġsign ing
Ġcomb ine
Ġdiv or
ĠB arn
Ġann iversary
Ġcompl aint
Ġacqu is
ĠSar ah
ĠC amer
ĠJ ay
Ġsk i
ĠTr ade
Ġclub s
h op
r ary
x x
Ġun iform
Ġgall ery
Ġ ]
Ġf est
ĠF a
Ġpr ime
ĠDe an
Ġal ter
Ġspecial ist
Ġattend ing
m ates
Ġthe rap
Ġf its
Ġex port
Ġdis aster
Ġdistrib uted
Ġtarget s
Ġbur ning
ug s
Ġmain tained
Ġexcept ional
Ġintellect ual
' ,
ab il
Ġtarget ed
m o
âĢ ³
Ġcom edy
Ġg ate
ĠTh ink
Ġchar ity
the less
ĠFin ally
Ġowners hip
ĠM other
man n
Ġbrother s
ĠMus lim
6 1
Ġrel ation
Ġintrodu ce
i ro
Ġf iction
Ġest imate
Ġc otton
ĠC L
ĠC ro
Ġfocus es
Ġsumm ary
ou ri
Ġg ym
et ts
ĠD ave
p ers
ed ge
an th
duct ive
Ġmass age
S C
Ġ1 20
Ġres ident
Ġfact ory
fe ctions
Ġsign ature
Ġwithd raw
v als
Ġt ort
ĠH T
Ġcheck ed
wor ld
Ġm ask
Ġcon vert
ag raph
enn es
d ney
Ġsp ray
ĠCh apter
Ġshe ll
Ġemploy ers
6 00
r at
in st
ĠN umber
ap se
ang ers
Ġvot es
Ġt ap
Ġs od
ĠPal est
Ġsatisf action
Ġcop ies
Ġ ðŁ
Ġb es
ĠRead ing
Ġacknow led
Ġd ual
st yle
Ġset up
Ġtri ps
ĠDes pite
Ġconsist ently
ĠPenn sylvania
Ġaccord ance
D is
Â ©
ra ctions
Ġemploy ed
Ġpric ing
Ġimplement ed
Ġcontain er
Ġh itting
ard ens
Ġsc ope
Ġcomple tion
Ġstudy ing
ĠStud ent
D ay
M ark
Ġlet ting
Ġcele bration
Ġunex pected
9 7
ĠR og
Ġpack aging
AL L
ĠO regon
Ġprodu cer
Ġstat istics
Ġprint ing
Ġper mit
Ġreg ulation
off s
Ġhor iz
Ġcorrect ly
Ġsatisf ied
Ġflex ibility
Ġ vert
ress ed
row se
ĠPro du
ĠStep hen
Ġsp ir
Ġrec re
Ġpur sue
Ġperiod s
ĠScot land
A V
U nder
in th
om ed
Ġg ig
ust ration
Ġcompet e
Ġpray er
Ġf ur
ri x
ĠE X
Ġtrans mission
Ġmove ments
ĠEd ition
Ġdecl ared
Ġneigh b
Ġpromot ing
b reak
Ġd il
Ġst ability
Ġ4 1
Ġant ib
Ġf illing
ro it
ĠG reg
ink s
Ġlaw su
Ġlay ers
ĠRom ney
ĠGold en
ĠProte ction
Ġlicens ed
ĠT alk
ĠD ri
Ġform ula
ij uana
Ġch a
oun ce
sc reen
Ġmist akes
Ġphotograph s
ur g
ĠC ut
ĠC OM
Ġk iss
hes is
ĠNe ed
om atic
ĠA C
ĠF R
Ġpack ages
Ġse eds
Ġinn oc
Ġdemonstr ate
Ġc odes
is d
ĠM ess
Ġsecond ary
Ġarri val
Ã ¶
ot es
ter ior
aw a
Ġbuy ers
Ġacqu ired
Ġn ose
ag ers
Ġres ort
Ġguarant eed
Ġk il
Ġpass es
Ġm it
Ġdevelop er
Ġparticip ating
Ġdifficult y
Ġvot ing
ĠM ade
Ġrec all
a un
Ġcan n
M ake
Ġh unt
ĠS ep
Ġpre ced
Ġact ors
Ġpr ide
% )
9 8
E l
Ġt ons
ay er
the y
ĠStand ard
ver ty
Ġpe ak
ĠSte ven
ĠMat thew
g ener
re ll
Ġm ild
ĠS ab
ric ulum
u ating
ĠSoft ware
c est
av or
ĠLe vel
Ġsol o
hy th
ĠMic hel
achus etts
D R
l ow
m od
ĠC reek
Ġsp a
Ġrec ruit
ĠCont ent
Ġhe ating
ib l
cript ions
ĠJud ge
ĠAtl anta
ien ces
Ġground s
ĠBook s
H igh
in ated
ĠSe x
Ġsing ing
Ġemot ion
Ġp ushing
Ġth y
ĠT ony
Ġse ar
Ġ( âĢľ
ĠO wn
ĠSt aff
Ġprin cipal
le e
Ġappoint ed
U se
ut en
20 10
Ġexpl o
Ġpen alty
m ble
Ġab road
Ġ19 70
Ġ: )
.... ....
Ġpublish ing
Q L
W elcome
Ġw estern
Ġh iring
Ġj ail
col n
Ġvirt ually
Cont act
Ġven ue
Ġin du
Ġre nov
Ġpro tocol
Ġdis miss
Ġdiv ide
Ġregul atory
Ġn erv
ĠCons ult
ĠIndian a
Ġt err
ĠB at
Ġnarr ative
onym ous
C opyright
Ġto oth
Ġhe s
un ate
em ed
ass ion
Ġhol idays
ĠOffic er
Ġto ile
ord inary
ĠCh ange
ific ial
ĠCan cer
Ġord inary
ow a
im a
ĠB ul
Ġcom pe
ick ed
Ġl iability
ĠE T
Ġgr ateful
Ġdef ine
ĠC ooper
ĠJ am
ĠJ ane
Ġpo verty
Ġbr anch
ĠRem ember
ĠIsl am
. ;
j o
Ġd ent
Ġst upid
Ġsur ge
Ġser vers
Ġaddress ed
Ġrespond ed
ĠProduct s
ĠB BC
Ġover come
Ġrough ly
G oogle
ow ered
ch ing
ĠM ov
ast ed
Ġte asp
Ġresult ed
Ġdiscuss ions
Ġut ility
Ġdeliver ing
ĠExper ience
Ġdram atic
ĠM ajor
Ġ4 3
Ġdist ingu
Ġsequ ence
M on
à ¨
ĠEx am
Ġwin ners
Ġelse where
g ame
ĠSh op
Ġfunction ality
n ie
Ġh oney
ĠA B
ĠM om
ist ent
erv ice
Ġsc ream
Ġentr ance
er k
ĠB ull
ab ama
so le
ĠHe ll
Ġkne e
Ġl ake
ĠF L
Ġv enture
Ġal arm
ĠInd epend
cu se
OR E
Ġgro cer
Ġsubsequ ent
ol t
ol id
ĠV ice
Ġro ots
Ġaccount ing
Ġsem i
Ġprinci ple
Ġmir ror
id ers
ĠM un
Ġimportant ly
Ġpain ted
viron ments
ĠBro ther
Ġpresident ial
Ġvot ed
M C
Ġsy nd
Ġdesign ers
Ġn orthern
ud es
Ġhot els
p ing
on ly
ĠL iving
ĠV en
ĠCl oud
Ġview ed
Ġautom atic
Ġden ied
i el
ĠRes ources
Ch rist
Ġenc ounter
Ġcert ification
ĠLew is
Ġf ingers
op t
ac ular
Ġsc rew
Ġ4 6
ĠHaw ai
es y
ĠB ud
Ġsw ing
Ġconvers ations
ut ter
ix ed
Ġess ays
Ġrele ases
Ġdemonstr ated
d on
o cc
u is
ci ence
Ġstreng then
Ġinspe ction
if ier
Ġ2 50
Ġclick ing
Ġcampaign s
atell ite
K E
ĠW isconsin
ĠLe on
Ġdri ves
Ġblog s
Ġhy dro
Ġcontrib uted
Ġpan els
Ġp orn
Ġth ro
zz le
Ġannounce ment
G l
im ental
ck ed
ond s
air y
co pe
Ġbenef icial
Des pite
7 2
Ġan gle
ĠH ay
Ġke ys
Ġcreat ivity
Ġhol es
Ġf ed
ĠP itt
ater n
Ġ6 4
Ġadvant ages
g iving
Ġs orts
ĠM u
Ġres id
the re
Ġpar alle
Ġphys ician
ĠAtt orney
Ġang ry
ar at
Ġh anging
Ġre fe
ĠC ome
im m
Ġins ights
ĠDe ad
Ġass et
ĠSh ort
Ġvers us
ain less
we ek
Ġfin ishing
ĠAd vis
Ġarg ue
c hers
Ġle af
Ġdo zen
pt on
arr ing
pro of
Ġdesk top
J oin
ĠPart ners
Ġnurs ing
ĠD oc
Ġsh ips
Ġin hib
Ġv oc
Ġrel ating
Ġoper ational
Ġgold en
Ġdecre ase
F e
ĠI C
igh th
Ġsett lement
Ġdestroy ed
ult ane
Ġover se
Ġtri es
ĠPr int
Ġpick ing
ĠCustom er
iat ric
ĠP ers
rou s
Ġexpand ed
Ġrepe at
Ġaim ed
Ġestim ates
he rent
om er
oo f
Ġdire ctions
ĠIsl amic
ur ches
Ġse am
c alled
Ġc ow
ĠB ody
ish ment
ĠSer ver
Ġsubs cription
Ġgar lic
G reat
P L
ock s
min ute
Ġmatt ress
f ire
ĠSt ation
Ġage nda
Ġsafe ly
Ġconsult ation
ol s
Ġdis order
ĠAd vent
ĠQ uality
Ġlow est
Ġimm igration
Ġsoph ist
Ġtut orial
. -
T ime
ĠThe atre
Ġab ilities
ĠK ind
ĠAn g
Ġiniti atives
? )
T op
un a
ree ment
gr ade
O ut
ĠH IV
Ġ8 00
Ġhard ly
Ġsure ly
H D
p ost
Ġman if
ĠDe b
ĠAnn ual
ĠI V
ĠB uff
ĠJ ason
Ġper m
Ġref used
ĠMass achusetts
p ool
Ġe lder
ĠR ick
Ġrank ed
Ġexplan ation
ĠPak istan
Ġb ands
Ġsc ulpt
7 3
Ġgener ations
ĠMar c
Ġmechan ism
D own
Ġm aps
Ġd uties
ĠH ur
Ġbo ot
Ġtal ented
ĠMod ern
Ġindic ates
1 50
Ġch ampionship
Ġreview ed
ĠAnt on
N et
St art
Ġinfl amm
ĠViet nam
ĠC S
Ġbehav iour
Ġwarrant y
ĠVill age
M et
g ments
Ġcon j
aw s
ĠCl ark
lim ited
Ġdiagn osis
Ġunlike ly
Ġlad ies
Ġf ool
ir k
ĠB ry
qu arters
Ġab und
IT Y
ĠAir port
Ġaccom pan
Ġm oon
ĠF ac
ĠTh ings
Ġins pect
ams ung
Ġabs ence
asc ular
Ġtrail er
t ical
w ill
Ġcon ce
Ġen orm
Ġcert ificate
Fr iday
v ation
ĠC ry
ĠE asy
Ġstock s
Ġjew elry
re p
ig ious
ie ve
Ġhapp iness
Ġ199 3
8 4
it ate
ĠS ound
Ġyour s
Ġ199 2
Ġsubst ance
h o
Ġbo ards
Ġunivers ities
ĠM it
Ġrepresent atives
f ound
re nd
Ġ5 2
Ġtext ure
ĠW ould
Ġact ively
ĠEx change
ĠDon ald
Ġobject ives
ĠSci ences
ĠAv ailable
Ne xt
Ġelimin ate
ist ing
Ġfant asy
ĠGovern or
f unction
Ġa ims
o en
w alk
ing ham
Ġwe igh
ers ion
Ġinv ite
Ġ9 9
Ġfrequ ency
el ve
Ġbr ush
Ġdisc overy
Ġspec ified
Ġconcent ration
h ist
Ġto ys
cy cle
ĠAust in
ast y
ĠK ids
Ġimpress ion
Ġemphas is
Ġadministr ative
M I
Ġy oga
Ġg athered
ot te
Ġposs ibilities
ĠRec ords
Ä ģ
Ġf ired
Ġn it
Ġte nder
Ġspe ll
Ġacc um
Ġ19 60
Ġvulner able
v ity
ĠB h
Ġcomp osition
Ġtri als
ĠC li
Ġst ops
ĠM L
Ġle mon
ous es
Ġsc ar
gg ed
Ġviol ent
ĠIsrael i
umin um
Ġdial ogue
Ġterrit ory
ĠJ ordan
Ġrep ly
Ġexpl oring
Ġcou ples
Ġcapt ured
orne ys
R el
p ire
Ġprodu ces
ĠSy dney
Ġb ene
Ġres idence
ath on
ĠAnd erson
ent er
ist a
old s
Ġpres cription
Ġcheck s
Ġchemical s
G ener
Ġb ub
ĠE D
os pel
ric ted
Ġra ces
Ġ9 5
Ġposs ession
ĠChrist ians
ĠStud y
Ġphr ase
Ġo ught
Ġf ert
Ġp atch
ĠD om
ab out
Ġch ips
Ġwor ship
ĠK elly
ĠAut o
Ġgar age
Ġbare ly
Ġvend ors
al m
Ġto xic
Ġre ferences
Ġbank ing
Ġg onna
ĠC ore
am i
Ġed iting
Ġsal ary
ĠComp uter
EC T
d ep
v i
est ed
Ġde fect
Ġnob ody
at ile
Ġin ev
Ġn omin
Ġg ambling
Ġwor n
fe e
Ġag ed
200 9
Ġsix th
Ġexc ite
Ġwood en
ĠSqu are
W ork
Ġs lic
Ġal ert
ĠMem orial
Ġathlet es
2 50
D id
t ains
Ġthem es
Ġro y
Ġconven ience
gor ith
ĠT en
ĠS U
ĠS ize
Ġret ired
ĠMc Donald
Ġpassion ate
ĠMot or
c r
Ġw ider
se ction
ĠP ast
Ġhope fully
Ġsleep ing
mark et
Ġa x
it ches
Ġal leg
ĠO cean
Ġres erve
Ġsk illed
Ġsupp liers
Ġliber al
Ġin quir
Ġh orses
et he
Ġle an
Ġprom inent
Ġgun s
6 2
G e
S ub
w all
ĠD og
Ġra c
ĠSy ria
Ġexperien cing
ĠEvery one
ĠEnvironment al
Ġfranch ise
7 4
v ia
Ġl aser
ĠB ed
Ġwork out
Ġrom antic
ennes see
o z
ul ator
Ġr uling
Ġmin istry
Ġsupport ers
Ġgl obe
ĠMet hod
u ates
Ġweap on
Ġremark able
O G
s ized
il ation
ind u
Ġcons ervation
Ġra b
ĠEvery thing
Ġhun ting
ĠAfghan istan
ĠD or
Ġcompl aints
Ġappl ies
ĠSing apore
Ġen vironments
Ġprodu cers
Ġbel t
Ġsl ide
sh ire
AN T
Ġepis odes
Ġoverwhel ming
Ġbact eria
d r
l ined
ĠJ erry
Ġreg ime
ĠSe ason
Ġnetwork ing
Ġeval uate
ĠAL L
F OR
p iece
Ġscen ario
a ire
Ġdefe at
Ġadvert ise
Ġtrem end
Ġc ig
ĠF A
ĠG ive
ĠE ag
Ġret ain
Ġthreat s
ĠMod el
itz er
bour ne
ĠFr ont
back s
ĠMin istry
Ġrad ical
Ġlay out
ĠUs er
a a
Ġd ies
ĠÂ ·
Ġdocument ation
Ġdro ve
ĠWord Press
Ġnerv ous
B L
Ġy e
Ġbe ef
ĠP ict
Ġha bits
Ġman ip
av ed
Ġhospit als
Whe ther
h r
ĠB reak
ĠCh ampions
Ġpre cious
Ġfollow ers
Ġimm un
Ġsurround ed
Ġcontinu ous
Ġgraph ic
Ġsole ly
Ġinvent ory
Ġjun ior
o ons
ĠS ov
ĠM aterial
Ġear s
ĠCol lection
Ġresol ve
ĠKent ucky
s uch
or se
Ġsens or
ĠCh amber
ors hip
Ġunder lying
Ġexp ense
Ġball s
Ġtrust ed
Ġbeg un
Ġn ail
Ġcom ic
ĠL yn
ĠâĢ Ŀ
ag en
ax y
at al
Ġre ven
Ġbl ame
aw are
Ġrespect ive
Ġfrequ ent
D av
ro ph
ĠC ell
em an
ĠN orm
ĠE ver
Ġdis ag
Ġform ation
Ġbelief s
Ġfulf ill
7 1
om ic
ĠTh ird
Ġro lling
Ġbook ing
IT H
T y
Ġc her
ĠG row
Ġwhe els
Ġtest im
Ġexam ine
Ġconvers ion
Ġwal ks
b at
s ome
if ted
Ġover night
ĠPat rick
F A
H er
ĠE N
Ġprov isions
Ġsl ots
Ġpar agraph
C al
Ġs li
et ics
Ġinv ention
Ġpromot ion
TH E
Ġjur isd
r ine
Ġv ine
ick ets
Ġequ ity
Ġmount ains
M onday
b led
Ġprom ised
Ġtable t
M arch
g i
Ġf iscal
Ġem issions
Ġhost s
ĠLin ux
ĠGirl s
c ore
ot ion
am el
ol en
ĠP ain
ac les
Ġcar pet
ĠAl abama
ĠLin coln
ĠB alt
Ġdevelop ments
ĠEd ward
Ġexam ination
Ġearn ings
nt il
Ġfl ights
Ġhor ror
Ġaccompl ished
Ġre verse
ĠN ature
Ġcont ents
ĠPa per
ĠReg ist
Ġexerc ises
Ġa er
Ġc rown
Ġre cept
ĠR oss
ĠL i
Ġun cle
arent s
sc ale
ĠSol utions
Ġadequ ate
Ġmy stery
Ġdes erve
Ġcol ours
Ġorgan isation
Ġmeaning ful
Ġnut rition
ĠDef ense
se a
ĠH um
ĠH ills
Ġ1 000
op er
20 17
ĠBl ood
Ġann oy
Ġrepresent ing
ĠReview s
F R
ow een
Ġâ Ĩ
x id
ĠL es
ĠG ene
Ġwork place
Ġfund ra
ĠCor p
win ning
A v
ĠR os
Ġr anging
Ġrec ru
olog ists
Ġref uge
V P
ĠT am
eng ers
J u
itt y
Ġrest ore
Ġnews letter
Ġkey board
Ġgen etic
Ġsett led
ĠVictor ia
on i
Ġd uration
Ġan ger
Ġaggress ive
Ġst ack
ĠF re
ĠBl u
Ġsle e
ĠMiss ouri
g ood
Ġt ong
ĠA h
ĠD ays
ĠO cc
Ġshort ly
AS T
ĠMary land
ĠMex ican
ish op
ian ces
ĠFor um
Ġref ers
rop ri
ĠKore an
ig ence
iff s
Ġeleg ant
8 2
g ain
im ore
Ġcomp act
ĠPr ince
Ġamong st
9 6
Ġa est
Ġg ang
Ġam pl
Ġsim ultane
Ġpain ful
Ġcollect ive
Ġp ic
ar th
ĠK ong
Ġdump ster
a o
Ġl ibr
ĠSh are
Ġoper ated
200 8
ĠBu ild
Ġcab in
grad uate
8 3
Ġb ite
Ġco aching
Ġassoci ate
O B
Ġs ons
Ġc inem
Ġh ired
ĠB ureau
ĠL ady
Ġbal anced
ĠMore over
achel or
S aturday
Ġm igr
Ġad mission
IV E
iffe rent
c al
Ġproduct ivity
Ġfa ult
Ġnut ri
Ġh orm
ch o
ĠR ome
ĠReg ional
Ġs ne
and al
Ġbuy er
Ġrespons ibilities
ĠLim ited
ĠMach ine
e y
Ġ Î
ĠA z
ound ing
Ġgather ing
W H
Ġg ross
ĠD rug
us her
ĠR us
de f
ĠAdd itionally
itar ian
ĠCas ino
ĠUt ah
ĠS aint
ĠE state
Ġcl ip
Ġbr an
Ġpurch ases
Ġstim ul
d ale
Ġt ube
at oes
ĠS EO
ĠH ong
Ġfall en
Ġprotect ing
Ġaffect s
P at
Ġbe ans
ĠS M
Ġinter actions
ĠAm ong
Ġrepresent ation
Ġimpress ed
Ġacqu ire
Ġrid ic
ĠGall ery
Ġpod cast
Ġas semb
if ully
ĠW ik
ĠPat ri
] ,
f irst
Ġdis rupt
Ġche f
Ġed it
ĠBe h
Ġengine ers
ocr atic
Ġdispl ays
ĠT oy
Ġwork er
Ġdes ert
Ġextra ordinary
ĠSci ent
Ġeth nic
ĠOlymp ic
Ġthorough ly
ĠT rib
ĠAn aly
Ġsex y
ĠChe m
Ġbott les
i ology
Ð ¸
Ġc ats
Ġp izza
Ġd ys
ĠM oo
Ġmin ing
Ġeng ines
ĠStud io
Ġbreat hing
ol i
att an
els on
Ġhy p
Ġrub ber
O rig
Ġf ake
un n
Ġcomp os
Ġtax pay
ĠElect ric
ĠDen ver
Ġtack le
Ġcooper ation
Ġup set
Ġres cue
Ġpass age
ĠSim on
ĠT ro
ĠC T
Ġinvest ing
he art
Ġe ager
am ics
ĠB E
Ġsp oken
Ġmod ified
Ġcomple ment
Ġlaw yers
Ġmar ijuana
Ġident ification
Ġmatch ing
w a
Ġt ears
ĠN ations
Ġmed ications
pro f
Ġphys ically
Ġep ic
Ġutil ize
b age
ĠF ive
ĠV in
irl ines
ĠWork ing
Ġhar vest
Ġoccasion ally
Ġ rib
or i
id en
ĠN avy
ĠPh one
Ġtown s
l ah
Ġg rey
ru p
Ġdem ocracy
Ġencoura ging
ĠDet roit
Ġweak ness
d ri
Ġind oor
Ġac res
Ġinst antly
f ish
ĠM arsh
Ġcur riculum
Ġimpact s
Ġp our
Ġth rown
Ġcon secut
ĠWe ight
ell o
ĠEn joy
Ġdam ages
ĠClass ic
Ġquant ity
Ġcompat ible
y o
Ġmy ster
ft en
Ġsmart phone
rag on
Ġworksh ops
on ut
er a
ĠN ob
ĠO s
ĠU RL
act er
ĠNC AA
Ġc ogn
Ġas sembly
ĠR oy
ĠDe ath
Ġview ers
ĠEm ail
O s
h ome
re tt
Ġf iber
Ġd ancing
id al
ĠE ve
Ġdi pl
ĠPh arm
Ġpopular ity
Ġdocument ary
E ng
it ivity
ĠS ix
op en
Ġsub tle
rop ical
Ġ* ||
Ġbab ies
B N
k ers
Ġl ips
ĠM ap
el le
ang le
Ġsign als
Ġdef ic
ĠIm pro
ĠTrans port
Ġstream ing
Ġtim ing
A ct
ah a
Ġqual ify
ĠM ust
ab ling
ĠG ree
Ġprocess ed
ĠEd itor
ĠHarr is
ĠS elf
Ġprom ises
ĠGl ass
ĠAtl antic
8 1
v o
et ch
Ġal gorith
ĠJ ess
ĠU C
ict ions
Ġmed ic
Ġre hab
ĠD ick
Ġar med
Ġref rig
Ġsus pend
Ġorganis ations
F inally
in als
ay ing
Ġtem plate
Ġcred its
or ious
ĠS D
Ġdon ations
Ġche aper
Ġcur ious
Ġcur rency
Ġveter an
d em
Ġthe ater
ĠP ick
ĠL uc
ĠPh ill
Ġleg acy
Ġinn ings
Ġentreprene urs
ĠI owa
ĠW ars
Ġconf ront
for ward
Ġdeli vers
ĠInte rest
a ul
c ard
v it
ĠS ale
Ġinstru ments
Ġflu id
ĠContin ue
S U
Ġcon cluded
Ġch airs
Ġrem oving
Ġ6 00
Ġfil ing
fl ow
Ġodd s
Ġexcite ment
H P
Ã ¨
on ing
ĠB ab
Th ose
ird s
Ġfasc inating
D ate
qu is
oun ced
Ġconnect ing
Ġrob ust
W atch
ĠS ure
Ġsu p
per t
ĠUn ivers
Ġgirl friend
P G
a us
ĠW riting
un ct
cy cl
Ġ8 5
Ġcor on
Ġw aves
is an
ĠT ennessee
apt ers
Ġgovern or
Ġquot es
i ar
Ġd ough
as ion
Ġre ception
ĠB aby
Ġfin est
Ġinter vention
Ġbar rel
Ġconfig uration
ĠA li
Ġst em
ous ing
Ġstri king
ĠMon th
c s
e z
u ros
Ġw ishes
Ġtrans formation
ĠPh oto
Ġcelebr ated
Ġenh anced
ĠAssist ant
B oth
p apers
er ior
Ġcan cell
Ġgen re
ht ml
I ES
P res
Ġp ets
Ġst roke
ĠB an
ĠSc he
Ġpar ad
Ġste am
re c
ĠS ony
ĠF inal
ĠR out
Ġbu g
Ġexclus ively
Ġprospect s
ĠOx ford
H z
ĠC ub
ĠL ess
Ġwhere as
Ġpark s
ĠIndust ry
ĠAnth ony
a is
m ind
m outh
w he
Ġa ver
Ġm ath
Ġin fections
ĠF ast
ĠG ulf
Ġsh apes
Ġany body
Ġhome own
Ġdead line
f r
Ġher itage
Ġpublic ly
Ġ0 8
ĠAlex ander
Ġinvolve ment
ĠA st
Ġal ike
ĠAs sembly
Ġchar ging
St ar
rim ination
Ġunivers al
Ġvacc ine
o a
t own
ĠT ell
os it
IS T
Ġchair man
P T
ĠM ind
Ġsqu ad
Ġbank rupt
Ġexpand ing
Ġestablish ment
Ġspect acular
Ġconstruct ed
ol ph
qu est
ĠO nt
ĠCh annel
co very
Ġcult ures
b et
20 14
Ġaff airs
Ġintegr ity
Ġcru ise
A pril
m other
ot ive
Ġse min
pl us
Ġinc ent
ĠWh it
Ġarrange ments
he ld
Ġwas hing
Ġv intage
Ġpublic ations
ĠEconom ic
ĠBow l
inte rest
Ġunem ployment
Ġab stract
lect ed
Ġdra in
Ġadop tion
ĠP y
if ice
ĠL aur
ĠN E
Ġper mitted
itt ers
Ġbutt ons
Ġconsecut ive
ĠA ve
Ġdifferent ly
ĠOr ange
Ġhuman ity
b ra
i very
nd ry
ĠD ise
ne cess
ond a
Ġhand ful
ĠVis it
S ource
ing e
ab is
Ġlock ed
S ign
it ative
Ġb io
ĠW W
Ġ4 7
Ġcr imes
Ġenc ount
xy gen
ĠUk raine
Ġw age
Ġo z
ĠD J
be an
arr ass
ĠJe an
ĠDu ke
Ġd ying
ĠI L
ĠM ove
ĠH R
IC E
Ġspeak s
Se pt
ĠApplic ation
N Y
o vers
ĠC over
ĠL ic
Ġ7 2
m g
Ġo live
ĠS ant
ĠSt ra
Ġprof its
ok er
Ġcolle ctions
ĠTur key
Ġaccommod ation
Ġfro zen
ĠAff airs
in f
ric ts
Ġbed s
k ind
z ens
Ġm ature
Ġsh it
Ġrepl ied
9 2
N S
is hers
ĠIn nov
I O
m n
ĠR ace
au x
Ġmain stream
Ġcou rage
Ġens ures
Ġcy ber
Ġmechan ical
ĠConst itution
Ġphotograp her
ĠFurther more
Ġparalle l
u um
Ġpr on
ĠAn alysis
ĠAll iance
Ġ0 1
Ġgen es
Ġtransfer red
U C
i y
r idge
t age
ĠH P
Ġmake up
Ġtem pt
Ġdepart ments
Ġbene ath
C all
h ol
h ard
Ġse ctors
ĠN ut
ĠN ig
ĠCon vention
Ph oto
ĠCommun ications
Ġfacilit ate
n ut
part y
ĠYear s
Ġvit amin
Ġconvin ced
Ġsophist icated
u z
Ġin ex
Ġd urable
ĠA lp
Ġconsider able
ĠPer formance
Ġreve als
um mer
Ġke en
Ġi OS
Ġce iling
Ġinvestig ate
ĠJew s
Ġassign ment
Ġacquis ition
H i
s l
t w
w ed
Ġd irty
ur ious
ĠM oney
Ġex ch
Ġr ush
US T
Ġple asant
R ed
Ġc osm
ĠHigh way
Ġbatter ies
Ġspect rum
Ġb ot
Ġm ouse
ĠS ong
Ġtr ash
Ġdon ation
Ġrece ipt
Ġpolit icians
Ġoccas ions
ĠChall enge
Ġenorm ous
Ġt ies
Ġt ours
ut ical
un s
ĠSt adium
Ġimag ination
ĠCle an
V is
g ly
Ġst er
os ystem
ap olis
Ġcompl iment
Ġdisappoint ed
Ġt ire
ri or
ist ical
Ġcomp assion
ou st
ĠAl aska
ĠMay or
ĠPe ace
Ġdro ps
Ġâ Ĥ¬
? !
at ar
ou ver
ure r
ĠAl bert
Ġprof iles
ĠCo ach
Ġinfl ation
Ġult ra
Ġc ous
Ġp ants
st op
ĠR h
mm a
reed om
Ġscr atch
ĠAuthor ity
g ra
ĠG re
ĠAn ne
Ġint ensity
ĠMor gan
Ġwild life
Ġlimit ations
Ã ¤
Ġs our
ost ic
Th rough
Ġthrow ing
I B
M c
M od
Ġc ord
am on
Ġloc ally
Ġdef ence
Ġign ore
ĠPalest in
N C
c ure
Ġse al
iv a
c ul
ic ut
Ġpl acing
Ġbet ting
Ġ0 7
fort able
ĠHar vard
b est
an ke
ĠH ad
ĠH appy
Ġch ip
ĠTe xt
Ġdev ast
Ġelect ro
ĠCour se
ĠRel ations
Ġp or
ĠF ab
Ġco aches
Ġev ident
Ġoffer ings
ĠCreat ive
Ġneighb ors
hyth m
F F
Ġre n
th ur
Ġso ccer
ph an
Ġint rig
ĠMan chester
lah oma
Ġ ..
ĠS port
Ġch opped
ak i
ĠV eter
Th ursday
ĠAnd y
Ġread s
Pro f
ĠSing le
Ġin hab
ĠI ron
ĠD I
Ġass ists
Ġint im
ĠRep resent
Ġcook ed
Ġviol ation
Ġt une
Ġn urse
Ġnot ion
Ġass ert
Ġass ured
Ġrequ iring
ĠRes erve
Ġoil s
Ġrat ings
Ġth rew
Ġover view
Ġart istic
Ġgr at
Ġsal ad
Ġsell er
Ġenem ies
oen ix
ro t
ĠG ab
Ġmet ers
Ġprev ention
Ġmusic ians
Ġfig ured
Ġsett le
Ġclim b
Ġarg ued
J une
ĠM ail
ĠB rew
ah oo
Ġmat hemat
Lear n
D irect
D ec
Ġde leg
ac ent
ĠNot hing
ĠRev olution
Ġwarn ed
ĠPriv ate
in ction
Ġd ess
Ġl iver
Ġbe ings
ĠD iam
ĠL ib
Ġr ou
Ġ3 60
Ġold est
ĠE mb
Ġsh ipped
Ġgr an
Ġpract ition
ĠSt yle
Ġfin ancing
ĠHow ard
ĠQu ick
Ġdest ruction
Ġattempt ed
Bl ack
Ġtrig ger
Ġf t
as m
ĠF uture
Ġdis orders
Ġscreen ing
ĠS E
ĠS now
ĠC opyright
em ail
ĠG R
Ġ5 1
ĠAs k
O ff
ĠM ars
Ġdesign ing
ĠMc G
Ġload ed
Ġconscious ness
M ich
l og
ĠT oo
Ġun lock
Ġdifficult ies
anc ouver
Ġpsych ological
Ġcritic ism
Ġacknow ledge
L D
Ġt ale
Ġbe aring
ĠS ave
Ġteasp oon
H ome
h ave
Ġh ill
Ġg ains
ĠV P
Ġemb race
ĠPar liament
New s
Ġreb u
Ġh al
Ġpro pri
ess ed
au c
Ġ0 9
Ġfab ulous
ĠEnter tain
m ate
ĠG olf
are st
Ġdis ability
rit is
Ġgener ic
Ġcent uries
Ġp iano
Ġto ss
ut or
ĠP ow
Ġed ited
Ch ar
AC K
Ġcool ing
ĠSov iet
f ather
us hes
Ġproduct ive
Ġprocess or
Ġpet ition
. ]
P ol
b ie
ord on
Ġgl ory
Ġgener ous
Ġ199 1
Ġaccept able
Ġbur den
Ġbul k
Ġt ent
âĢĿ )
ĠHall oween
Ġspons ored
Ġneut ral
Ġg al
ĠS amsung
ĠR ail
ru b
Ġnew est
Ġend less
Ġrep airs
ĠAg reement
l an
ĠS O
ĠS ac
Ġr ally
Ġinc om
Ġcollect ing
Ġinterpret ation
a fe
ace utical
be at
enn y
Ġport ra
Ġadop t
ct ic
ĠP L
Ġemb arrass
Ġsurf aces
rape ut
Ġs its
ĠM oh
ĠPl ant
add y
Ġir rit
Ġstead y
T uesday
Ġst opping
ab s
ĠO sc
He y
Ġhy d
ĠFriend s
T P
a ft
Ġdirect ors
ĠApp ro
Ġsn ap
ĠEar ly
Ġargu ments
tr ans
D oes
F orm
Ġa uction
ĠW y
ĠG P
Ġdesign ated
Ġann ually
ĠMed ic
Ġdeli ber
ĠJust in
Ġcat alog
w ind
Ġt ension
ic ity
ro ductive
ĠH ig
ĠL anguage
Ġcap ability
Ġstra w
ĠFin ance
Ġemp ower
Ġmoist ure
F igure
ay a
edd ed
p y
u an
Ġw ing
Ġb its
ĠR s
Ġapp le
Ġback up
Ġmet ab
Ġaud iences
ĠGr ad
Ġpull ing
Ġfem in
9 4
ĠS ide
Ġrel ate
Ġcar ries
200 7
ĠGr ant
Ġappreci ated
Ġc ust
iz ations
ov a
Ġattempt ing
Ġlabor atory
W ednesday
st ore
ĠH al
Ġpo etry
Ġoper ators
Ġtouch down
ĠId ent
ĠA k
im b
Ġch urches
Ġcult iv
Ġdiscipl ine
re ated
Ġl obby
Ġg reet
Ġst olen
ĠB B
Ġlast ing
ĠDo ctor
ĠTra il
Ġgrad uated
Ġindepend ence
do ors
Ġtremend ous
" )
Ġs oup
Ġw ines
Ġl oop
se mble
ation ally
ĠH ost
pl ant
Ġinst ances
aut hor
ĠTit le
Ġd ict
Ġsil ence
bo ards
ĠBer lin
Ġfru its
B en
ĠH oll
Ġpres erve
Ġreal istic
ĠMan ufact
AR D
Ġtem por
ĠWin ter
h ill
Ġt ear
ĠA th
Ġhand ed
ĠD ur
Ġcount s
Ġhum or
Ġspecial ized
9 3
L ife
Ġqu it
Ġwind s
Ġdecl ined
ĠAP I
Ġforgot ten
iag ra
Ġth irty
Ġr ated
ĠN BA
ĠE P
ber ries
end ed
Ġatt orneys
ĠAg ric
gu ard
ĠCB D
ĠR and
pl ing
Ġseem ingly
Ġdeterm ination
ĠInt ell
Ġglass es
ĠRober ts
Ġintellig ent
comm un
ĠCra ig
l ie
ĠC ape
sec ution
Ġsty lish
he alth
Ġbro ker
Ġmar gin
Ġauthor ized
ĠLa ure
Ġclin ic
spe cific
ol k
ĠB urn
Ġan ch
ate ur
Ġsl ip
con f
Ġpass engers
H aving
g ie
Ġl ying
aught ers
G M
p res
se lling
ĠM ort
Ġ( "
20 15
Ġfeed ing
Ġroll ed
Ġpow ered
Ġbran ches
ĠR ound
ĠIn n
|| $
Ġremind ed
L ove
Ġn an
ĠC ou
ac co
Ġcomp osed
Ġact ress
Ġveter ans
ĠCharl ie
Ġprecise ly
Ġlawsu it
m ont
Ġs atellite
cent ly
Ġste re
ĠLaw rence
Ġaltern atives
ĠCre ate
igen ous
ĠA I
ĠD utch
ag a
Ġsp an
ĠLu ke
ethe less
ĠT an
Ġsh orter
ip es
Ġeffect iveness
ĠInd ex
ret ion
Ġfast est
Ġparam eters
Ġtoile t
S M
Ñ ģ
Ġback ed
Ġconf used
Ġpers u
Ġreflect s
Ġaccommod ate
Ġvert ical
n ormal
Ġw rap
Ġsp are
Ġdress ed
ĠRet urn
Ġexhib it
d i
h ot
à ¸
Ġd irt
le nd
le ans
ĠB ron
Ġhand y
Re view
ĠCam bridge
Ġagric ulture
g ins
Ġto y
ut ers
Ġex pend
ĠAr k
Ġconf idential
Ġoper ates
Ġexpect ing
Ġri val
b ian
id ity
Ġhe m
ĠUn it
Ġbel oved
Ġcomple ting
Ġhonest ly
Look ing
B et
Ġd ash
im mer
ant e
Ġj ury
cl osure
Ġinsp ire
Ġexcess ive
> >
im ens
ĠP ear
ast ing
ater al
uss ion
ĠComp an
ĠEm ploy
ĠBet ter
Ġaccompan ied
I AL
u h
ic ular
ut her
ĠM uch
Ġde ar
oc y
Ġsee ks
Ġhy brid
Ġretail ers
ĠBalt imore
Ġw ides
Ġf ancy
ĠT ai
ĠR ain
ak h
Ġ5 6
Ġcar ing
ĠSy m
Ġdiscuss ing
Ġworth y
Ġthreat ened
Ġf ought
ust ain
ap h
Ġfold er
w hen
Ġan cest
ĠG h
Ġen abled
Ġref res
Ġport ray
Ġtong ue
A c
re ach
ol as
ĠN ort
art s
Ġtime ly
Ġshe ets
Ġdefend ant
ĠMoo re
ĠL iter
Ġsu icide
ĠC hen
el and
Ġ5 4
Ġconsult ing
ĠPri or
b ound
ĠB M
Ġoper ator
Ġcontact s
AC T
ĠYOU R
B R
m ers
Ġo h
Ġc ited
ĠB ased
Ġsh out
Ġsh ame
Ġmechan isms
Ġsuppl ied
Ġrom ance
e re
ĠH an
ĠCom plete
Ġcompet itors
Ġengine er
ym ph
R et
l ims
w riting
Ġw are
Ġg rain
ĠK itchen
vel and
20 16
Ġpat ent
Ġtreat ing
Ġemer ged
Ġkn ife
bl og
ĠFranc is
ĠNY C
Ġexec ution
Ġdivor ce
M in
e ven
id th
az ed
Ġpop ulations
ĠKenn edy
ĠAnton io
f und
Ġwhere ver
Ġed ges
ier ce
Ġtit led
Ġpropos als
Ġder ived
Ġtwe et
Ġh ub
ĠC and
ĠR ap
Ġv ocal
Ġcar rier
ĠBe at
alt ies
ĠConnect icut
Ġlegit imate
child ren
Ġhe nce
ĠB attle
Ġmod erate
Ġ0 2
of fee
Ġpersonal ized
Ġess ence
Ġteac hes
S W
ĠD yn
Ġsh ade
Ġadv ised
Ġbi ological
ĠSim ply
ĠS EC
ĠB C
ud ge
Ġexpl icit
ĠComp et
ĠSchool s
Ġcorpor ations
ĠChair man
S unday
Ġt ang
ĠC M
ĠH om
Ġsh adow
cc a
Ġart ificial
Ġbeaut ifully
Ġland ing
Me anwhile
, '
ĠB R
ip edia
Ġsupp lier
ĠSc ript
ĠEv ents
ĠOrgan ization
ĠExpl ore
Ġpre view
ĠIm p
Ġtransl ation
ĠWalk er
Ġshel ter
t est
Ġw ard
Ġp ione
ĠA BC
Ġst amp
ĠW E
us er
ie re
ry ing
Ġ19 50
ather ine
Ġagric ultural
b urn
n ote
ar ia
ĠC ow
ĠW ITH
Ġentertain ing
9 1
Ġc ater
ĠF ant
ĠN a
get s
Ġrece ives
Ġsustain ability
Ġsynd rome
v ada
ĠB L
Th ough
Ġgu ides
ĠCom pl
Ġredu ces
Ġachie ving
Ġo xygen
Ġb other
ro gen
Ġapp et
ful ness
Ġdri ed
Ġanal ys
Ġagree ments
Ġir re
P D
Ġsh aped
Ġmeasure ment
ĠSpr ings
Ġbound aries
ud i
Ġper pet
ob b
ell ing
Ġint ake
Ġhop ed
umn i
Ġvibr ant
ar ation
ĠH it
ĠEx cell
IN E
Ġjud ges
Ġfear s
Q U
Ġsh oe
ag ine
Ġgr ay
Ġ198 9
Ġcitiz en
ĠJo in
p read
Ġc it
Ġm un
ut ors
ĠC C
Ġun necess
Ġ0 6
Ġtru cks
Ġefficient ly
Ġcompe lling
C ra
or ical
Ġp el
form ed
ik a
Ġla wn
vent ions
Ġincorpor ate
Ġconver ted
Ġg ently
ĠP oly
ĠF ile
ĠF ish
Ġtra ged
Ġent ries
Wh ich
ĠBl oom
ĠTr ad
On ly
ID S
ĠVal ent
G od
S earch
ig e
am ous
ĠD R
Ġr uled
Ġad verse
ĠYou th
Ġvessel s
Ġimmigr ants
Ñ Ĥ
st orm
Ġout er
Ġprof ound
Ġvari ations
Ġfoot age
ĠPer fect
ugg ed
Ġpoll ution
ĠInte gr
B el
n atural
ĠH ERE
pl ates
In tern
Ġsupp ose
Ġcond em
Ġcomput ing
Ġgrad ually
ĠPract ice
Ġgrocer y
S L
Ġal uminum
au g
Ġdev oted
Ġfund ed
Ġec osystem
F T
Ġn a
ĠL ane
Ġun p
Ġlog ic
C urrent
E m
ĠM E
qu er
Ġdo zens
ĠK y
Ġ6 6
Ġdet ection
Ġdirect ory
lish ing
ĠFl ash
ĠSpe ed
Ġquarter back
icip al
Ġentreprene ur
Down load
M us
c ount
Ġt ires
Ġst rain
Ġworld s
Ġcare ers
ĠInd eed
Ġsil ent
Ġinflu enced
Ġqual ities
ĠPort land
ĠFore ign
c at
Ġp up
Ġd rew
Ġg am
Ġall erg
ĠV A
Ġplace ment
Ġaddress ing
Ġcal ories
Ġdig est
Ġcab inet
ĠLind a
Ġ %
ĠP ath
oun ge
Ġconf usion
Ġimplement ing
Ġimpl ications
ipp i
ĠMain e
Ġanticip ated
Ġb ust
il itation
ĠR ow
ĠCh oose
ĠBar ack
ĠOnt ario
Ġt u
it ual
ou b
ĠG il
os ph
Ġident ifying
Ġexcell ence
ĠLead ership
h as
Ñ Ģ
à ª
ic ating
Ġfl ags
Ġlight weight
Ġprogress ive
g ic
r ison
Ġb ones
ĠP il
ĠW ire
ĠAl an
Ġemb ra
Ġdepend ent
Ġpaint ings
ĠOk lahoma
ĠBru ce
Ġremem bered
Ġthe sis
Ġh oly
ĠC ann
est one
th od
ĠN EW
Ġpre tend
Ġ5 3
li hood
ĠMan h
am ine
Ġcont roller
Ġover s
Ġbu nd
Ġmem orable
Ġsupp lements
Ġpick s
AS E
OU N
ĠCle veland
Ġspokes man
ĠW ine
ĠG ary
Ġdis abled
Ġadv ise
Ġsepar ated
Ġmotiv ation
ĠDou ble
um my
ĠV ancouver
li est
Ġarrange ment
Tr ans
g ence
it ched
Ġend e
pr ises
ĠSte wart
Ġrad iation
Cont in
Ġcalc ulated
ĠTem ple
ĠEntertain ment
m atic
Ġre vers
ir able
ĠAnd re
Ġgr ants
Ġrece iver
Ġrock s
Ġpeace ful
Ġoppon ent
ĠE ffect
iss a
Ġsec ured
ty pe
Ġbre w
Ġsignific ance
OU R
Ġrelax ed
Ġcontrovers ial
Ġaband oned
d ers
es is
ĠC orn
ĠBl ock
Ġlab els
Ġaccom pany
ĠPlan ning
ĠMel bourne
Ġdisp ute
ĠP ed
Ġv oices
Ġappro ached
Ġfavor ites
ĠEm pire
O K
T om
Ġex empt
Ġv ib
Ġr anks
ĠN ear
Ġoblig ation
Ġproport ion
Ġelder ly
Ġg ut
ĠT ree
ĠC art
Ġwh oles
ĠV it
av irus
Ġtw ist
Ġart work
ĠCon c
ĠOr leans
Ġsimultane ously
V I
Ġp add
ĠD ak
ĠBe ck
Ġterm inal
let te
ĠAm b
Ġanaly ze
ĠArch itect
Ġwra pped
Ju ly
w l
Ġt a
Ġm akers
ĠA qu
Ġsy mp
medi ate
Ġdiscount s
g on
g ree
ĠS ource
ĠC rit
ĠN ich
Ġout fit
Ġun fortunately
Ġenjoy able
Ġconfirm ation
ĠG ov
Ġshould ers
Ġac ute
Ġhand led
Ġexpl oration
Ġrout es
Ġtrou bles
Ġmerch and
k g
ĠK ate
form ing
iss ippi
Ġloc ate
ĠMag ic
Ġcorrespond ing
ĠMit che
he w
Ġc ub
Ġh ockey
ĠE V
um ble
Ġper ception
Ġag ing
Ġpre ferences
Ġmed itation
Ġinter pre
ĠAr gent
Ġcustom ized
Ġicon ic
ĠSus an
L a
W S
or ient
Ġin sect
ĠL ad
ĠJ ob
Ġref lection
Ġint u
Ġflo ors
Ġsusp ension
Ġsevent h
w oman
Ġp ound
Ġag greg
ell a
omm y
Ġautom ated
ĠAN Y
Ġsurv ived
ĠBit coin
2 000
G S
Ġo k
ĠE C
Ġent ity
Ġdr unk
ĠX box
IC K
ĠLook ing
Ġtomat oes
iv als
Ġcomp ly
Ġ5 7
Ġdec iding
ĠEx p
Ġreflect ed
Ġterror ist
Ke ep
Ġnavig ate
oty pe
Ġcl oth
Ġspecial ty
Ġmag ical
Ġprotect ive
Ġachieve ment
Ġwh is
Ġen roll
Ġreg ards
Ġpresent ations
ĠAut om
ĠSim ilar
Ġjump ed
ĠAud io
B ig
Ġs ake
ĠA pr
spe ed
ĠTur k
ĠPrem ier
at tered
Ġc ure
Ġin her
Ġh arsh
ol ves
ĠSt ars
Ġmarket place
Ġcourt esy
Ġtour ism
Ġwarm ing
Ġsecret ary
Ġreject ed
Ġt ennis
on ies
Ġwe lf
Ġover t
Ġ0 3
Ġassum ed
ĠAdv anced
ĠProper ty
ĠHT ML
Ġs isters
ĠC her
Ġr ational
pl an
We b
Ġel ite
ane ous
Ġport able
Ġarr anged
Ġw rest
Ġab ortion
od ed
Ġhigh way
Ġfol k
Ġjack et
Ġwelf are
b es
ol ine
ĠG as
ĠE aster
Ġmod ule
iction ary
Ġcomplex ity
Ġap olog
Ġaffili ate
b d
f ight
y our
Ġg re
ĠA F
ĠM as
est y
ĠF le
Ġen abling
Ġpe er
ĠLe gal
ĠCo le
Ġcontract or
ĠPitt s
Ġthe atre
Ġd ot
ĠC ould
Ġde emed
ĠR at
Ġsu ite
op les
Ġpl ates
now ned
rib ution
ĠIs lands
Ġbur ied
EL L
Ġharm ful
olit an
l ink
Ġm aker
Ġres il
ail ing
ail and
In ter
Ġvar ied
sh ot
Ġste ep
ĠSch olar
Ġflav ors
Ġinnoc ent
Dav id
C or
C ustom
Ġv ig
ĠN ik
Ġsc rap
Ġshow case
Ġvari able
Ġparticip ated
Ġstri p
Ġobs erve
Ġsepar ately
Ġconsult ant
Ġoverse as
S en
Ġc ents
Ġp y
ic he
as ures
Ġav o
Ġopt imal
Ġ0 4
Ġhy pot
Ġcelebr ating
Aug ust
H el
M D
d og
t able
Ġa rom
ĠT otal
ill ance
Ġsu its
ib bean
Ġprov ince
Ġbul let
ĠFollow ing
ĠTerm s
Ġsacr ifice
T E
m itting
Ġin k
ĠP ant
Ġbu zz
Th ree
Ġfr ames
Ġbre ed
Ġste pped
ĠTH IS
Ġrob ot
Ġstake holders
Ġ ||
in ate
Ġto ll
ar ound
Ġn est
ĠL am
Ġdisc rimination
Ġinvest ed
ĠPh oenix
Ġprote ins
ĠSu ccess
Ġident ical
Ġdiscl osure
ĠFoot ball
Ġhe al
ĠB irth
ĠF at
ĠF alls
ĠN urs
te ch
Ġte nds
Ġown s
Ġwa ist
Ġtable ts
Ġwood s
Ġdemand ing
Ġload s
Ġinstruct or
Ġf ut
el a
Ġclaim ing
Ġround s
str ong
ĠSen ator
Ġsatisf y
gl as
u ke
Ġb inary
Ġl ately
ĠC ool
Ġsh ield
Ġte ens
amp a
Ġgr id
ug ar
As s
Ġanaly tics
tra ck
Ġnavig ation
Ġwides pread
ir ates
ĠD ue
ĠG ordon
Ġam en
ĠAd ams
ĠPr im
Ġswe at
Ġbroad er
Ġoppon ents
Ġo d
ul in
ĠF DA
ĠL ater
Ġsc al
Ġpo ison
Ġexpl aining
ĠMar ine
ĠAm y
ĠMin i
Ġclos est
ĠHam ilton
i per
on ia
ĠS weet
ur u
Ġex it
Ġthere by
az i
els h
Ġtrad itions
Ġelect ronics
IT E
ĠScott ish
Ġhaz ard
Ġd ont
ĠL arge
Ġr ust
pr ing
Ġtechn ological
Ġnove ls
Ġlegisl ative
Ġrank ing
Ġdiagn osed
Ġathlet ic
G r
Ġc rop
Ġf ails
ĠR aj
Ġche er
ĠAl tern
ĠPh D
Ġmar ine
Ġdeal er
Ġcompet ing
Ġjo ke
Ġmother s
Ġreported ly
ĠNet her
ĠConst ruction
Ð ½
Ġy eah
Ġst ays
qu et
OR T
ĠMc K
) (
in ar
Ġst adium
Ġst ainless
Ġspecial ists
Ġeth ical
Ġrepeated ly
l ar
m ay
le ading
Ġpres um
Ġrep orter
Ġrest ricted
Ġline up
200 6
Ġdark ness
Ġsubs crib
Ġbless ed
Ġpharm ac
Wor ld
e rest
ĠK ings
ĠInd ones
He alth
ĠCont ract
Ġfail ing
vis or
Ġwid th
Ġmanif est
P al
Ġd ive
Ġany time
az ines
ĠWith in
Ġpric ed
ĠSur vey
Ġpra ise
l ies
op es
ĠAn imal
ĠMe et
Ġnation wide
ĠPort ug
D el
ĠH air
Ġcontact ed
Ġsuper b
Ġvol unt
Ġrecommend ation
Ġaccept ance
ĠInc re
Ġcas inos
ĠQuest ions
g ical
w riter
is ers
ail ed
Ġcur ve
Ġgrow s
IG HT
Ġalbum s
ĠRec ord
ĠIndust rial
Ġisol ated
er ver
Ġcont rary
ĠSe veral
ĠAn na
Ġdist ricts
Ġaud it
g ate
Ġshe lf
ĠMe anwhile
Ġinsp iring
Ġcand y
Ġestablish ing
w ick
ĠH us
ĠD ra
all ing
Ġret reat
Ġgl ob
Ġbad ly
Ġdescrib ing
J ul
Ġt orn
Ġc um
st ock
umb ing
hold er
Ġver ify
Us ing
Ġhung ry
Ġbankrupt cy
or ia
en ged
Ġb in
ĠS W
ur d
ĠC ele
Ġ1 10
ort ed
ivid ually
Ġleg ally
Ġcy cl
Ġ vel
Ġp ix
Ġin cl
ment ed
Ġsh r
ĠY eah
Ġsp o
Ġadd iction
ĠAl ways
ĠUS D
Ġprom ising
ĠIm age
Ġscholars hip
it udes
ĠM ission
Ġj azz
Ġexper iments
Ġref erring
Ġm art
Ġcount less
Ġorgan ize
ĠGr ay
Ġcontrib uting
Ġtour ist
Ġpros per
d ing
l u
ing le
Ġg est
ĠD iet
ĠG PS
Ġfl esh
Ġmin im
Ġcook ie
Ġsens ors
ĠInt el
Ġmotiv ated
Ġinstitution al
Ġre ct
Ġg host
ch ain
Ġval ley
âĢ¦ ]
Ġtransp arent
ĠPhilipp ines
Ġrefrig er
L ist
b ably
Ġd aughters
ĠT ob
ĠK r
Ġpo ckets
oth y
Ġexper imental
Ġhead quarters
Ġviol ations
ari os
ĠBel g
Ġvan illa
Jan uary
U K
a ired
ĠM aking
Ġdo ct
Ġover look
Ġfree ly
Ġ0 5
Ġ18 0
Ġdress es
ĠQue ens
ĠCharl otte
Ġfo am
C le
O X
ĠS om
ĠB us
ĠW at
pro du
Ġlog in
fl ix
Ġb oring
qu es
Ġrep rodu
Ġpass enger
sh ore
St ate
Ġut ter
ci ples
iz ard
Ġar bit
Ġdif f
ĠDe ep
Ġpot atoes
ĠHer itage
ĠMus lims
Ġt ags
ll y
ĠT arget
Ġha ck
ĠG ay
ric ane
Ġgu ided
Ġcoll apse
Ġlegend ary
W ant
ĠB uck
qu al
ĠK it
Ġear ning
irt ual
Ġmount ed
itzer land
i ov
Ġc ush
Ġf itting
Ġre wards
Ġcon vention
Ġsa il
Ġwork force
ĠRe lease
Ġdif fer
ĠCom b
Ġattack ed
Ġur ine
ĠMal ays
ĠManh attan
f ly
Ġre aches
Ġn aked
ĠR ather
Ġshe d
E V
P P
S H
Ġm ice
Ġh orn
Ġl bs
Ġre nder
ĠL iver
Ġmix ing
Ġliter ary
Ġc ree
Ġre de
ĠS ud
ĠB enef
ĠF resh
Ġ( @
Ġne at
iv ities
Ġco ins
Ġclass ified
Ġhold er
ĠJohn ny
Ġtem ple
ĠTreat ment
M s
Ġw ore
Ġth umb
ĠH op
are r
Ġbr ut
Ġreport ers
Ġca ution
Ġtre asure
Ġ198 8
ĠPri ze
Ġtradem ark
Ġb icy
ĠT ok
Ġbr on
Ġadv ances
eral d
Ġinflu ences
Ġmeasure ments
Ġjournal ist
Ġoblig ations
ĠRest aur
m aster
Ġl ap
ĠS alt
ĠC F
ĠG a
oy d
St ill
ĠMe eting
Ġlo vers
Ġaffect ing
Ġstrugg led
Ġjournal ists
7 00
O OD
Ġw ings
Ġad min
Ġpart ly
Ġam id
ĠCar ter
Ġpsych ology
ĠDet ails
Ġdim ensions
Ġly rics
ĠNig eria
D C
ass es
Ġsec urities
Ġcle ver
Ġtransform ed
ĠDise ase
D I
k ward
s chool
in ery
ĠC e
Ġdis abilities
Ġtra uma
ĠPer ry
Ġtou ched
Ġdefe ated
Ġtow er
ĠHun ter
ĠJenn ifer
M B
h ou
Ġb ay
Ġp ays
Ġpre st
Ġshe ep
Ġcontract ors
ĠStr ateg
Ġexecut ives
g un
m aker
Ġread ily
Ġ198 7
ĠCast le
ĠBroad way
Ġuncom fortable
ĠBrook lyn
B ay
it ants
ad ows
ol ester
Ġrel iability
ĠSh ipping
Ġbo ots
Ġsubs cribe
Ġcolle ges
Ġclim bing
Ġcoal ition
Ġadvent ures
Ġb ikes
ĠA V
ce ive
oo ps
Ġde put
ple x
Ġmeas uring
Ġprior ities
Ġep id
Ġtestim ony
Ġp ant
Ġd ia
Ġg rip
ĠC ash
Ġex terior
Ġr ug
Ġdisc retion
Ġcor rel
Ġunt o
ĠSc reen
Ġprint s
Ġdraw s
aren cy
ĠWay ne
e ffective
is ons
Ġr itual
ĠN HL
Ġeas tern
Ġbo ats
ĠJac ob
P oint
Ġ `
ar ious
am ins
ĠM agn
Ġal ien
Ġim aging
Ġpe ers
ern and
Ġmanufact ured
Ġminor ity
ropri ate
g reen
i ated
er als
st ick
ĠP ric
Ġat e
ĠN ash
Ġout doors
Ġdis k
Ġcrit ics
Ġrelax ing
Ġp itc
ĠR ot
ĠSp ot
G R
Ġst ones
Ġsa ves
Ġutil izing
Ġa qu
Ġl ighter
Ġg aining
ĠM atch
ĠN BC
Ġdist ract
Ġpresent ing
ĠTechn ologies
S ometimes
k m
p ur
Ġf ate
Ġre actions
ne ath
Ġlist ings
sh ine
ĠAm end
Ġfle et
Ġrecy cl
Ġjurisd iction
rapeut ic
Ø §
Ġp unch
Ġd airy
st ruct
ĠF igure
ĠR oc
out heast
iz able
ĠY anke
be y
Ġfil mm
Ġapplic ants
Ġstri ve
Ġfra gr
Ġalleged ly
ĠGree ce
c ap
s ub
ĠC old
ĠE le
Ġres erves
Ġinv al
Ġdef icit
Ġopt ional
Ġign ored
J e
Ġs ink
ĠC itiz
ĠB esides
20 18
ĠSo x
ĠNe vada
Ġselect ing
Ġboy friend
Ġconcent r
Ġnegoti ations
Ġbe aches
am med
Ġpro st
ape l
ĠAdd itional
ĠOper ations
Oct ober
Ġs ized
Ġre nd
ĠW ant
ĠW elsh
ĠF reedom
Ġpl aint
ĠK rist
ĠAr thur
oot ing
ĠCent ury
Ġsqu ee
ĠCons erv
ĠCons ider
ĠMiss issippi
B ar
v ious
Ġw ars
Ġr ings
Ġinc idents
Ġend orse
Ġdeterm ining
Ġstraight forward
Ġattract ed
Qu est
ĠCapt ain
ĠRus sell
e ared
Ġw ax
Ġf er
Ġb ol
Ġb out
Ġbe ating
ĠF er
Ġcons olid
Ġrest oration
Ġconst ra
ĠMar ia
Ġdepart ure
Ġsurv iv
Ġcoc onut
Ġm arch
Ġin herent
Ġd ivers
st age
ĠT ogether
Ġfor ums
ĠB Y
pt ic
ond e
Ġpur ple
ĠRob inson
d am
u ations
Ġde lete
ĠR u
ĠG OP
ass ador
Ġform ats
Ġexp ed
Ġint imate
pos ed
ĠAnge l
ĠJon athan
Ġpubl isher
j u
ĠD omin
Ġfriends hip
Ġnice ly
Ġprop ag
M art
o ks
w atch
w estern
ĠW right
ĠSt op
Ġaddition ally
Ġactiv ists
umb led
Ġtarget ing
ĠThom pson
---- ----
ĠMedic are
Ġl one
Ġch ampions
Ġso ap
ren a
Ġtreat s
ĠAss ess
Ġhom eless
ĠDub ai
Ġkil omet
Ġlibr aries
z o
Ġw ound
ĠT el
ĠS au
ne ys
Ġmus h
Ġseason al
ĠCar ibbean
anc ers
ĠMor ning
Ġappreci ation
D ep
j ud
ĠS ad
um ing
act s
Ġtw elve
Ġsec rets
Ġ6 3
Ġhon ored
Ġdiam eter
Follow ing
Ġunnecess ary
Ġt ar
ur red
ĠC offee
Ġst reak
ĠR ice
ĠR ules
ĠL ock
Ġun pre
row ing
Ġpat ience
Ġtext s
DA Y
Pub lished
h ar
Ġf oster
ĠH em
Ġex cuse
land o
Ġsuggest ing
ask et
ĠNether lands
ĠI BM
ĠB apt
ĠW olf
ĠH ub
el ed
Ġle ase
Ġfl aw
Ġret ro
Ġext rem
ĠSa fe
ĠGra ham
Ġrenew able
! ).
B ased
Ġf ence
Ġp aste
ch air
em ade
ĠG ib
ĠG iven
Ġcol ored
Ġent ities
Ġser ial
Ġref use
Ġremind er
Ġadvoc ate
ĠD ating
Ġr ic
ĠJ oy
ink le
Ġregard ed
Ġappe aling
Ġsitu ated
ĠThanks giving
ĠMov ie
t ic
ĠR S
ĠJ en
iz on
Ġcount ies
ĠInd ians
che stra
Ġstruct ural
Ġvac uum
Ġpu pp
Ġfuck ing
P ay
t wo
ic ts
ad vant
ĠB ath
ru e
az y
Ġcor ruption
Ġlab our
Ġstrugg les
ĠUr ban
ĠSwed en
ĠHawai i
r ons
ĠS A
am ents
ip her
rol og
Ġcross ing
Ġconv ince
Ġsurprising ly
Ġsuspend ed
O pen
Ġb ases
Ġar th
Ġpo le
ĠUn like
Ġvari ables
new s
is ure
Ġf et
Ġh int
ig ue
Ġpro l
ist ically
ĠHe at
ĠTe a
Ġpar liament
Ġcomb ines
Ġfre el
Ġprevent ing
ĠTru e
Ã ±
Ġg ardens
Ġcon sole
ist ance
Ġsc ared
Ġmin imize
elt a
Ġexist ed
Ġsens itivity
Ġspeed s
Ġpros pective
ĠGal axy
m ad
Ġh ike
Ġon ion
ĠH E
em et
own ed
ĠDe al
Ġaccept ing
Ġfa cial
Ġcapt ain
Ġtur b
Ġmut ual
Ġh ills
ĠB aker
ĠH o
ĠR idge
Ġk iller
Ġbl ast
ĠAl ong
Ġnut s
Ġbatt les
N ov
Ġt ropical
Ġd imin
as ma
ĠA le
Ġco pper
Ġrel atives
gg ing
ĠChrist opher
Ġ[ âĢ¦]
Ġmoment um
Ġincorpor ated
ĠEnter prise
bre aking
ĠMichel le
R P
Ġdram atically
Ġvend or
Ġinflamm ation
olester ol
Ġch apters
Ġdes ires
oll ar
EN D
ĠAssoci ated
Ġfarm ing
ĠPre p
Ġconj unction
Ġtraged y
D et
Ġ 00
ĠW ard
ĠD im
ĠD ance
ĠG T
oc ur
Ġro ster
Ġshow c
ĠAr c
Ġattend ance
Ġur ge
Ġcorpor ation
Ġcontain ers
Ġmort ality
ĠPrem ium
Ġdelight ed
st ration
Ġis lands
Ġcap s
200 5
Ġindepend ently
Ġgovern ance
ĠMil itary
ĠMcC ain
. :
Ġg au
ĠY ellow
Ġtr icks
Ġfl ip
Ġtrans it
ĠFr an
ĠZ e
Ġphys ics
Ġobs ervation
Ġblock ed
Ġsuspect ed
usal em
Ġperm its
ĠA G
ĠF ra
ĠE SP
iv ic
ĠTh ailand
oc a
Ġ5 8
Ġland ed
Ð¾ Ð
P ublic
ve t
Ġal ph
ap or
Ġher bs
Ġtra ils
Ġinf ant
Ġcolor ful
Ġbase ment
Ġsen iors
ĠOver all
Ġlau ndry
Ġcomprom ise
a ci
al so
Ġse w
ĠF ro
ĠG race
ĠE M
ac hers
Ġcons ume
ĠShe l
ĠUp date
ĠOther s
Ġlaunch ing
Ġm ales
Ġenjoy s
Ġaw kward
ĠTy ler
Ġkick ed
Ġtrave lling
ĠNAS A
s ur
ĠL ot
ĠSt ay
Ġdes erves
Ġinvest or
ĠRes ults
Ġnon profit
clus ions
Ġ198 6
ĠDou glas
dep th
Mich ael
th a
Ġwhe at
ass y
ĠCom ments
Ġvol tage
En ter
Ġthro at
Ġalleg ations
G H
ĠT X
ot ing
ĠW edding
ĠU V
Ġ3 50
Ġcreat ures
Ġden y
Ġsumm it
Ġthr illed
Sept ember
Ġb esides
ĠT ips
ĠF an
ie v
ci um
Ġinte nd
Ġcost ly
yl on
Sec ond
Ġphenomen on
G en
Ġth resh
ĠB ol
Ġan th
ĠF ine
Ġle verage
Ġno on
AS H
Ġdro pping
ĠCamp bell
Ġbrief ly
P erson
Ġm amm
ĠP ad
Ġsh ake
ĠO w
Ġdes p
Ġmod ify
be cause
ĠChe l
Ġnutri ents
om ore
Ġas h
us ive
ĠL ower
Ġsh ine
Ġinter rupt
Ġpri est
Ġappear ances
Ġport al
Ġinstall ing
ĠSw itzerland
Ġoccas ional
Ġburn ed
Ġw ages
Ġin clusion
Ġ5 9
Ġdon ated
uss y
arent ly
Ġcompl ications
Ġbed rooms
ĠBen j
po ons
je ctions
ĠIndepend ent
ĠCompan ies
d ered
Ġo un
Ġsh o
Ġper ceived
Ġacc idents
Ġind ividually
cept ions
Ġgr ades
Ġbo oth
Ġeduc ate
Ġemb edded
Ġcross ed
Ġdress ing
OV E
Ġven ues
Ġmyster ious
F S
h u
h is
s k
Ġre nowned
ĠR ab
Ġsu ited
Ġr hythm
ĠPro p
Ġval ued
Ġpress ing
ĠMet al
Su per
= "
Ġp ose
Ġst abil
ĠL isa
ĠN elson
ĠK ay
Ġgener ating
Ġrepl acing
ĠGr iff
ĠIm port
Ġobs ervations
May be
ias m
ĠMur ray
P E
r ors
u it
as ive
ĠP in
ĠE S
ĠE lement
Ġatt ractions
ĠCol lect
Ġ198 5
ĠEv ans
Ġdelic ate
T ON
f are
s or
s ize
Ġthe ft
ĠM ix
ĠB ear
Ġcan cel
ag ger
Ġrec overed
Ġnow here
ĠMar g
Ġexam ined
Ġsubst itute
ĠFe atures
Ġattrib utes
Ġorient ation
Ġreven ues
ĠPitts burgh
à ¥
Ġt sp
ol ars
Ġprev al
ateg ory
200 4
Ġcondition ing
ĠTechn ical
Ġhero es
Feb ruary
T able
b rew
w ritten
Ġw and
Ġm aj
Ġunder ground
com pass
Ġcontin ually
Ġcamp ing
AR E
Un fortunately
ĠIS O
Ġtact ics
ĠOsc ar
emet ery
Ġt att
re k
re ate
Ġn erve
ĠI RS
ard less
ĠV ision
Ġsp ouse
Ġunder neath
ows hip
Ġcou pled
Ġcompan ion
Ġphys icians
Ġanaly sts
Ġcitizens hip
ĠFrank lin
Ġcorn ers
Ġinquir y
ĠâĨ Ĵ
M ENT
V C
Y eah
v ised
st airs
ĠS ens
ĠH ug
Ġde le
Ġsh ore
Ġsc ary
Ġcomm od
Ġmag azines
Ġrespect ed
Ġpath s
Ġaccur ately
Ġsem ester
Ġcontro lling
ĠColl ins
Ġsubsequ ently
Ġprivile ge
Ġd ign
Ġth ou
id ges
ĠC ulture
Ġfe ver
Ġrem ed
Ġlong est
Ġhome work
ĠCor ps
Ġconv icted
n i
Ġh o
Ġar c
rit ers
Ġ6 2
Ġ7 00
Ġdesper ate
uis ine
he imer
Ġf itted
et ooth
ont al
ĠCom ment
20 19
uck er
Ġequ ality
Ġspecific ations
Ġpress ed
Ġchall enged
G reen
es ity
ur ring
ĠD al
pt ions
be c
Ġcap ac
sh irt
Ġintern ationally
Ġdr um
br is
idd ing
Ġwond ered
Sh are
== ==
Ġcogn itive
is p
ĠP ent
ĠP oll
ĠB ond
ĠB io
Ġco inc
Ġcar b
Ġpost er
Ġbur st
Ġdiv ine
Ġadjust ed
Ġeditor ial
Ġdys function
Ġamen ities
O H
Ġm i
Ġh iking
ĠS kin
Ġle ak
ĠRes ort
Ġvol umes
Ġaw ful
W est
ĠA part
Ġcon ferences
ĠF IG
Ġloc als
Ġpartic les
Ġdist ur
Ġdem ocratic
Ġreason ably
Ġdownload ed
sec urity
Ġdecre ased
Ġdistinct ive
ĠLaur a
f our
Ġd ensity
Ġre ass
ĠC ass
ĠC raft
Ġcon gress
Ġres on
Ġsub mission
cu its
Ġsend s
ĠReg ion
Ġdisapp ear
Ġdomin ant
m ary
st art
Ġst arter
Ġsa fer
du e
Ġ6 7
Ġbr ick
ON E
Ġquot ed
Ġhabit at
Ġmedic ines
N ational
e ous
o ven
Ġc os
Ġb om
um ph
red ited
ac o
oc ate
Ġun ve
ĠHe nd
pos ition
ĠBill y
Ġpredict ed
claim ed
Aut hor
l ay
Ġf are
ĠP resent
Ġ10 1
ograph ical
Ġdig it
ĠUp dated
ĠChristian ity
c ode
j ack
ĠF ashion
ĠAl ice
Ġint ensive
Ġunderstand s
Ġappear ing
AS S
ĠReg ister
Ġroll s
ĠPlay er
worth y
Ġsear ches
f i
Ġre vel
ĠT odd
ĠC ars
ential s
Ġtour ists
Ġconduct ing
Ġpen et
Ġproceed ings
sen al
Ġdisag ree
u ity
in yl
on ge
Ġb er
an ne
ol o
ĠL ux
Ġsh y
Ġdon ate
Ġvers atile
Ġblog ging
Ġstri kes
ĠMet ro
ĠGet ting
Ġhar ass
Gener al
ĠS ett
ĠH u
pe red
op ic
ĠJ obs
Ġun limited
Ġfl ows
Ġra ck
ĠSe an
Ġeconom ics
Ġgrand mother
ĠJer usalem
Ġglob ally
ĠM B
ĠD ad
ment ation
Ġtra ins
Ġprogram mes
Ġair line
for ced
Ġencoura ges
R ight
Ġh ood
Ġout lets
ry pt
Ġi T
mark s
Ġridic ulous
J un
Ġb ree
Ġg el
ĠB ah
Ġco in
com merce
Ġtrans cript
cent ury
Ġorder ing
Ġdeal ers
Ġscen arios
M em
Ġ ic
Ġthe ore
ar o
ĠR io
Ġj unk
Ġbet a
Ġind ication
Ġbre ach
Ġnews papers
Ġvari ation
Ġchem istry
Rem ember
U E
f old
ul u
ĠD er
ĠG ate
com ed
ĠBar ry
ĠWood s
ĠClin ical
Ġloyal ty
Ġm os
ll ers
ro lling
ĠS end
ure rs
Ġrun ner
work ing
Ġsn ack
Ġconsist ency
Ġpoll s
Ġmerchand ise
he lp
ĠB oo
Ġar ise
Ġcle ared
Ġfun eral
oster one
Ġspir its
T O
Ġe ighth
ĠA aron
Ġne uro
Ġr amp
Ġafter wards
ĠLe ft
Ġclass ical
Ġste al
Ġaff air
Ġtravel ed
ĠCons umer
ĠPal m
Ġresist ant
Ġchart s
Ġcann abis
L P
er gy
Ġst airs
Ġcamp s
Ġvisit or
ĠInst all
Ġsuggest ion
Ġcomment ary
ĠIS BN
Ġbell y
Ġstrict ly
N ovember
S an
Ġun re
wh ite
Ġdead ly
Ġhighlight ed
Ġmand atory
Ġre un
pect ives
Ġsupport ive
Ġexpect s
ĠBr ing
Ġsoon er
Ġflo ating
Ġclar ity
ĠDak ota
. ).
Ġs illy
st ruction
Ġre ign
ĠN J
Ġpart ial
ĠAd obe
Ġdam n
Ġorganiz ational
inn amon
ibl ical
M at
N EW
g roup
Ġcon tend
Ġr anges
ĠV ersion
Ġra cial
ah o
che ck
Be ing
Ġrecy cling
Ġsurve illance
F in
U RE
f ive
r in
Ġv iagra
Ġnot able
ne red
Ġlike wise
Ġpart ially
Ġback ing
Ġspread ing
orient ed
F ull
b one
d ig
p ub
Ġb ureau
ĠM ason
omet er
OR K
Ġneigh bour
Ġpromot ed
ĠAnt i
Ġmagn ific
Ġcro ps
ĠOlymp ics
Ġtail ored
Ġb ail
ll o
ĠT ouch
ĠO bs
ag ne
Ġres ur
Ġro d
arch y
Ġconst itutional
Ġclos et
Ġhor rible
Ġcounter part
H appy
h h
Ġr ides
Ġcons ensus
Ġmon etary
ĠNet flix
Ġbehav iors
Ġanaly st
Ġincor rect
Ġsport ing
ĠAdminist r
Ġhousehold s
ĠCN N
S outh
ĠN AT
ĠK a
Ġconf using
Ġingred ient
Ġdetect ed
ĠWik ipedia
A K
S et
b in
h al
Ġp ad
ĠA y
th an
un ge
Ġman ages
li ver
Ġret rie
Ġpoint ing
Ġcle ans
Ġfr idge
ĠCap it
Ġproceed s
g hed
i w
Ġpri zes
uff y
Ġconsist ing
Ġspons or
I E
i ological
ĠP ink
ĠB eth
ord ination
Ġbuild s
ann ah
200 3
Ġemb od
ĠWar ren
bu ilding
N orth
ol ved
ĠH unt
ĠR ule
ĠL en
ĠG ot
Ġout let
Ġ- >
Ġtw in
Ġdem o
Ġintegr ate
Ġavoid ing
Ġadj acent
b ase
ar ity
ir atory
ĠM and
ĠG un
os ures
ard o
Ġback s
ĠAl t
Ġrecip ient
ĠCurrent ly
ĠGi ants
h uman
x ide
Ġl ined
ad er
ĠV erm
Ġpack ing
Ġaw a
Ġarch ive
Ġtrain er
Ġprec ision
Ġmail ing
Ke y
ĠOcc up
Â £
ĠH ung
us cript
ĠR F
Ġ19 59
ĠCom merce
arm a
Ġmod est
Ġexecut ed
ĠCond itions
dri ven
Ġp orts
al ia
ĠT ig
ĠS QL
Ġ9 00
Ġimm ense
ĠDemocr at
Ġveget able
Pres ident
ion ed
ch ron
ĠF em
Ġsub t
Pl ay
ĠAth let
Cra ig
P aul
b ling
p df
s ervice
Ġb ored
Ġb rowse
Ġl over
Ġsur gical
Ġeas iest
Ġfr ight
Ġvari eties
OU T
ĠCamp aign
Ġcraft s
Ġbond s
Ġmagn etic
an cer
ĠS oul
ĠM C
ĠF u
bs p
ĠCl imate
Ġbar riers
Ġcy cling
ĠMor ris
Ġresol ved
Ġenthus iasm
ĠCli ent
r imin
Ġpro x
ĠO tt
b ath
m us
Ġl enses
ĠP as
ĠF ight
vers ion
gg y
irm ingham
Ġeval uated
Ġoccup ied
ĠEmer gency
Ġp ile
ĠF BI
Ġtri ple
Ġeduc ated
Ġinj ection
Ġ198 4
Ġcry stal
Ġcollabor ative
ra h
if le
ĠR acing
Ġcont rad
Ġac ids
ĠBr ight
Ġtal ents
ĠBel ow
Ġremind s
Ġutil ized
Ġacknowled ged
ĠDiam ond
ĠTai wan
P s
R ich
Â »
Ġt iles
Ġin ject
ro e
ĠK aren
Ġra pe
ock et
Ġform ing
ze ch
Pro duct
Ġpromot ional
ĠDel hi
icon duct
!!!! !!!!
M ax
Y et
p ace
Ġw ool
ĠG B
ĠN ative
ĠSt orm
Ġind irect
ced ented
Ġrel ie
ĠWh atever
Ġrese mb
Ġking dom
ĠA id
ĠB ird
Ġan ge
ĠO ri
ĠY oga
ble m
ĠAn sw
ĠAd vert
Ġopt ical
ĠIs a
Ġbi as
Cl ass
ĠLeg isl
ĠBeaut y
e xt
l on
Ġf ires
Ġl ymph
ĠS leep
ĠS omething
ra ham
ĠB ag
ĠH ousing
Ġj am
Ġmay or
Ġbu gs
Ġ8 8
cer pt
Ġrest ra
Ġpast a
ĠRes ource
Ġs ore
Ġto b
Ġout break
ans hip
iz ers
Ġqu ery
Ġra ises
Ġhealth ier
con nect
OR D
Ġsell s
OM E
Ġachieve ments
ĠRob in
cipl inary
ĠLead er
Ġshel ves
U I
or ig
ĠI R
ĠH amp
Ġne u
Ġgr asp
ĠTr uth
AN S
Ġknowledge able
Ġfresh man
Ġappl iances
Ġwel comed
ĠPal ace
Ġamend ment
ĠLiber ty
ĠTransport ation
h ole
it le
Ġd ub
ĠA RE
ĠB art
Ġde bris
ĠR AM
ist ant
Ġj er
ĠU ntil
ĠY ahoo
ĠComm and
Ġdeal t
Ġcompl ain
Ġnecess ity
Ġmid st
Ġbra ve
IM E
Ġterror ism
ĠInvest ment
Ġnic he
C ent
v ance
Ġb orders
ig ma
Ġnot ing
all ow
ie ces
urch ase
Ġassoci ations
Ġdraw ings
Ġcy cles
ĠSim ple
ĠCle ar
ĠTool s
ĠAmend ment
Ġd ur
ĠP ap
akes pe
Ġdist ant
ĠBr un
Ġpen cil
Ġpen alties
Ġsust ained
Ġcry ing
ĠLab our
Ġrecruit ment
p in
ro be
ĠP D
ard ed
Ġj ar
Ġ' '
Ġtravel s
Ġstrength s
Ġrid ers
ĠMarsh all
mind ed
p op
ĠT a
id o
am an
Ġ1 30
ĠCh i
ĠZ one
Ġclean ed
Ġcir cles
ĠLiver pool
A tt
S un
Ġt anks
ĠB ou
qu ire
Ġch amber
iv an
ĠLe ave
ĠCol on
Ġwitness ed
Ġevol ved
Ġcoup on
ĠIntell igence
Ġsubscrib ers
. ),
Ġp ork
ot hing
ĠS in
ul ent
Ġlog ical
Ġvir uses
ĠSum mit
Ġobtain ing
Ġbes ide
Ġh iding
um bers
ĠK el
Ġun h
Ġpre ference
Ġprov in
Ġmod ules
Ġprof itable
âĢ¦ âĢĿ
Ġel abor
ĠOr lando
Ġfunction ing
OS T
Ġscient ist
** **
Ġadapt ed
Ġforest s
Ġelev ated
Ġtomat o
Ġaest hetic
P ar
l ad
Ã §
ĠM all
ĠL E
ĠG rey
cl ick
hes s
Ġarri ves
ĠRem ove
Ġtables poons
Ġpursu ing
F urther
x ual
Ġ verse
le tt
ĠT ed
ĠR ange
ĠE c
Ġspe cially
Ġmiss ions
ĠAct ive
Ġbra ce
Ġvary ing
ĠBenj amin
th ink
ĠL arry
ĠN ap
Ġpe oples
Ġhand les
Ġfound ing
ĠUS DA
ĠCo al
Ġbar rier
Ġfem ales
Ġsequ ences
Ġmic ros
W A
g ro
he im
Ġp ills
ĠL uck
Ġsub ur
ĠCl ay
Ġanim ation
Ġdiet ary
Ġconcent rate
ĠHol iday
Ġcharm ing
ĠFa ith
Ġroy al
K now
T w
X X
k le
Ġm igration
ve ment
ĠS L
Ġappro aching
Ġrest ored
ĠBas ic
Ġdelay ed
Ġlin ear
Ġw re
Ġp ale
Ġd read
ig s
Ġu gly
ĠB ott
Ġsh ades
Ġcomp ound
ress ing
olog ically
Ġatt raction
Ġprin ter
Ġweekend s
Ġtast y
Ġavo ided
N ever
i op
Ī Ĵ
ĠT erry
ĠM osc
ĠL ex
Ġch olesterol
og an
Ġdes cend
Ġdon ors
Ġbook ed
Ġpract icing
Ġcomment ed
ĠPost ed
Ġfat al
Ġmax imize
ĠWal ter
akespe are
ri ors
ĠE ye
Ġsl ides
Ġfil ters
Ġwa ited
On line
Ġpartners hips
Ġded ication
Ġcontinu ously
ĠCert ified
Ġje ans
Ġuncertain ty
Ġinfect ed
d irect
Ġd iving
Ġl un
ĠP ra
ĠW ords
ĠD E
Ġle ver
ĠCh ase
Ġ6 8
Ġint r
ron es
ĠÂ §
ĠDel ivery
Ġprot ests
. (
ĠW ol
ĠD at
ĠD est
Ġbl ade
ĠAd ult
atter y
app ro
Ġdefe nding
Ġfirm ly
ĠWhe el
Ġshock ed
ĠColumb us
Ġabsor b
ĠiT unes
9 00
B O
ĠS ay
ĠS ER
Ġde ce
ĠN one
Ġbu ck
ĠCom mercial
ĠSh aw
Ġbreak down
ĠUp on
Ġtransl ated
Ġhomeown ers
1 20
S ur
m are
or ph
ĠT N
ĠW a
.. ...
Ġunder graduate
ling ton
itch ing
ades h
Ġautom ation
Ġjoint s
Ġdess ert
ĠValent ine
J o
d ed
Ġc ant
Ġb anned
ĠS ustain
ĠA er
ĠR ent
ĠPro gress
arm s
Wh ite
atur ated
Ch ild
ĠRock y
ĠSol ar
Ġin ning
ke e
Ġam p
Ġed itors
Ġcreat or
ĠEd ge
Ġhun ger
Per haps
Ġsurve ys
in fl
Ġin clusive
ĠT ar
ĠH ans
ĠH omes
ĠF al
ĠF ocus
ĠR d
Ġsp am
Ġtra ce
Ġpo em
Ġ9 7
che m
Ġcelebr ity
Ġstress ed
Ġrot ation
Ġb atch
ĠF isher
Ġdec ides
Ġmet h
ĠIs s
app ropriate
Ġstream s
Ġfif ty
Ġspons ors
Ġremark s
Ġfort unate
Ġdispos al
ĠPalestin ian
iov ascular
1 000
o ft
ro se
br aska
ĠCamp us
Ġarg ues
ĠOffic ial
ĠCorpor ate
Ġlit igation
Ġmob ility
u v
Ġm ock
ic ting
Ġe rect
Ġe ternal
ĠT ower
id el
ch i
Ġse ating
ĠG er
ĠK al
Ġfin an
ĠBl ues
Ġve gan
Ġca f
Ġpract ically
Ġpack s
Ġgrad uates
Ġassess ed
ĠSam uel
Ġjump ing
Ġtransp arency
Ġprohib ited
Ġinev itable
Ġfundra ising
Ġcust ody
Ġunpre cedented
P H
Ġp ine
om as
ĠC it
ĠG ill
end ing
Ġpat io
play er
Ġplant ed
Ġlack ing
Ġconsequ ence
l arge
ed a
as is
ĠC BS
ĠF ly
Ġneed ing
ank ed
Ġ7 8
Ġinvestig ating
Ġpal m
Ġtast es
ĠOrig inal
Ġl iable
ig o
Ġan onymous
ĠIn iti
Ġaut on
Ġfr ustration
Ġvill ages
Ġdatab ases
Ġplug in
Ġb ump
Ġp ond
ar se
ke ys
Ġse ver
Ġch ill
Ġbl oom
ĠAr n
Ġinvestig ations
Ġmid night
Ġfloor ing
Ġtrib ute
B usiness
b n
d rop
g ans
p her
Ġb inding
ĠC ov
ĠP H
ĠP ic
ĠD ragon
ĠF urn
ĠO d
rop olitan
ĠGu y
ĠSpe aker
ett le
ĠCommission er
ĠSa udi
Ġgrab bed
A nt
g irl
i em
re f
ĠR isk
Ġour s
Ġsk ip
Ġtrad ed
Ġrespons ive
Ġmodel ing
Ġbon uses
ĠJun ior
Ġhe ated
pl ess
Ġ6 1
Ġ7 7
Ġorgan izing
ION S
ĠLouis iana
ĠESP N
Ġf u
Ġy arn
ĠS el
ĠF ell
Ġdis advant
Ġbo il
Ġmet er
Ġdistrib ute
Ġprem ier
Ġswitch ing
AG E
Ġkne es
Ġdiam ond
Ġfrustr ated
Ob ama
ĠTok yo
T ech
V al
r ant
Ġp airs
Ġm elt
ist le
ĠG round
ac re
ange l
Ġcor rupt
ĠSu ite
erc ury
Ġbi ology
ĠMad ison
GB T
e lect
ed u
ad ays
Ġres ign
ĠMan ual
Ġsun ny
Ġsepar ation
Com p
Ġlaugh ing
S am
se arch
Ġpro secut
Ġde ployment
ĠL ang
ust ed
our t
The ir
ens ed
Ġlist ened
ĠMon te
Ġthank ful
ĠAv oid
ĠBet ween
ĠMult i
i pper
Ġthe ories
Ġf ame
Ġst ating
op edia
Ġmain tains
Ġstat istical
ĠMon itor
Ġsold ier
Spe cial
Pol ice
R ec
Ġf oss
an ut
Ġn ails
ĠT u
ess ional
em en
Ġshe er
Ġvis a
ĠFr ame
Ġaccess ed
ĠSp a
Ġimpro ves
Ġsci ences
yl an
AC E
ĠStud ios
Ġpan ic
Ġdocument ed
Ġsubst ances
ĠRich ards
ĠVis ual
C ome
D ata
H ope
M icro
ĠS und
ĠC V
ĠB or
ĠH orn
ĠL oss
Ġun ions
ĠWe e
Ġsc andal
Ġstart up
ps y
Ġener g
ĠTra ck
Ġapart ments
Ġwealth y
Ġassign ments
ubs cribe
oub ted
/ .
C are
L ocation
m ir
Ġthe rapeutic
Ġc attle
Ġf ond
Ġst iff
Ġse gments
Ġcom ed
Ġman ually
Ġ9 6
Ġconst itution
Ġcell ular
Ġconnect ivity
Ġanim ated
Ġ198 2
Ġdest inations
ĠAssoci ate
Ġsn acks
ĠCommun ication
Ġadjust ment
Ġbeat en
Ġindic ating
ĠJim my
Ġalt ogether
Ġpropri etary
Ġc od
en cer
ĠM ath
ĠH ud
ie val
ĠHe aven
Ġ6 9
ix on
Ġrun ners
Ġhold ers
Ġcatch ing
Ġindic ator
ĠOpt ions
ĠBarb ara
Ġanalys es
I Z
S w
T Y
ed ed
ar re
Ġd ated
Ġl iv
id elines
ĠC ream
ĠP ope
art en
Ġch ains
ĠO ften
ĠRe ally
Ġfin ishes
Ġmon ster
Ġmed al
ĠInd ividual
ĠNe il
ourn als
ĠDes k
Ġprior it
Ġwel coming
ĠWild life
Ġspa cious
Ġfert il
Ġprest igious
H ar
H ello
g ot
Ġso y
ĠK ath
Ġgood ness
chn ology
Ġinvestig ated
Ġroll er
Bl ue
ĠSher iff
ĠBase ball
P ort
ĠT on
ĠW oman
ĠG ard
ĠK night
Ġtem plates
ĠStr ong
Ġpun ishment
Ġsubstant ially
Ġhes itate
ĠRout e
Ġmun icipal
ĠMitche ll
F ort
Ġc ave
em pl
Ġ9 8
Ġtou g
Ġlic enses
Ġfarm s
Ġthreat ening
Ġpromot es
Ġsumm ar
Ġtun ed
Ġunf air
Ã³ n
C ard
on z
fe ld
Ġpre lim
Ġam bit
Ġind ul
Ġprev ents
Ġbit ter
Ġfore x
Ġfund ament
ĠSy rian
Ġarri ving
Ġped est
Ġdim ension
ĠPub lishing
D ig
a que
c in
ch a
Ġnot ification
um atic
ag u
Ġinv itation
Ġear liest
Ġsk irt
Ġint ro
ats on
Ġconsum ed
oura ge
Ġrev ised
Ph ot
Ġinflu ential
Ġaltern ate
Ġath lete
Over all
ĠAgain st
Ġrefres hing
N eed
in is
Ġv inyl
Ġout look
Ġplay off
ĠPro s
Ġ7 6
Ġmod er
Ġmet ap
Ġlight ly
Ġabs ent
bor ne
Ġeth ics
Ġcompar able
othe rapy
L ong
S ep
h ma
al g
Ġre ck
ĠT ampa
ol ism
ĠP ier
ĠB irmingham
ĠL if
ĠE li
ĠK l
ount ain
Ġnew er
Ġ7 3
ows ki
ios ity
ĠPet e
Ġsoul s
atin um
Am ong
arat us
ĠAgric ulture
D em
Ġb aked
ĠW onder
ĠH at
ĠF el
un ks
ĠL an
Ġgl uc
Ġdist inction
Ġsol ving
Ġinf ring
ĠQu arter
ĠPark er
ĠSub s
ĠBrother s
ĠBuff alo
c ost
n ames
Ġh ilar
Ġn u
ĠT rain
ul ates
ĠThe ater
ĠV oice
ont in
Ġpres cribed
ĠAn im
20 20
Ġcount ing
ai ro
Ġcomb inations
Ġport ions
bor ough
Ġpen is
ĠTor res
Ġpure ly
Ġcha os
atern ity
D B
W ind
d el
Ġg em
ĠB iden
ĠJ ava
ĠK u
Ġam ateur
ĠBe gin
ane an
Ġqual ifying
Ġbless ing
ĠPot ter
Ġfrustr ating
ĠRog er
ĠR ing
ĠL ie
ĠWe ather
we alth
Ġrel uct
oot s
Ġz ones
umb ai
ĠUs ers
Ġemer ge
Ġoccur ring
Ġload ing
Ġreb ounds
Ġquiet ly
Ġfort une
ĠArk ansas
Ġprelim inary
ĠA w
Ġst icks
ĠW ash
ĠW elcome
ĠH alf
op ard
ĠJ oh
ĠJ oint
Ġj et
ĠU P
Ġcl uster
Ġinst inct
... "
Ġstruct ured
Ġmeant ime
Ġsymbol s
r itional
Ġe uro
ĠD elta
ĠF if
Ġall ies
ĠVal ue
Ġfaith ful
Ġtend ency
Ġign or
Ġcock tail
Ġreward ing
ĠInnov ation
Ġthresh old
E s
d et
f its
ĠG DP
ĠE PA
ific ates
Ġrele asing
ĠCir cuit
Ġsoci eties
in ers
Ġcan vas
Ġmem orial
Ġart ic
ĠBe yond
by e
sec ond
De cember
OW N
Ġcloud s
Ġwitness es
? âĢĻ
F our
in come
Ġc uisine
ar ians
ir s
Ġpro long
ĠK il
Ġ16 0
Ġrad i
ĠIm ages
Ġcraft ed
Ġalgorith m
ust ral
ĠV ent
Ġag rees
Ġchar ter
Ġwr ist
Ġbas ics
Ġgar bage
Ġhom emade
?? ?
Ġillustr ated
Ġannoy ing
ĠRestaur ant
e em
u ments
w y
Ġa ug
Ġst ew
ĠL ocation
ĠJ ar
Ġen compass
Ġcost ume
ĠCan on
Ġsw ord
Ġaccording ly
Ġgrad uation
Ġintrodu cing
Ġexcept ions
Ġnation ally
ĠProgram s
Ġearth qu
intend o
Ġdevast ating
ĠMosc ow
S l
S ch
at ility
Ġm ud
ĠT rip
Ġfor ty
Ġcon greg
ri ving
ĠL em
ĠJ azz
ind i
Ġsp ine
Ġcomm ands
sel s
ĠSh an
Ġgl oss
Ġdel ays
pa id
Ġkid ney
ĠPan el
Ġnurs es
Ġsacr ific
oust ic
Ġas pir
ĠF am
ĠL ost
ag g
cl osed
Ġper f
ĠSe ven
Ġcreat ure
af ood
Ġcharacter istic
Ġclos ure
Ġspot ted
Ġsurround ings
Ġdu o
ĠResp onse
ĠPolit ical
Ġtob acco
T M
ĠR y
Ġpe nding
Ġneed le
Ġtra ff
Ġconst itute
ĠOrgan ic
Ġcoast al
oubted ly
N G
Ġc ort
Ġc yl
ine e
Ġacc l
Ġur ged
ĠSw iss
ĠCare er
Ġdu pl
Ġelement ary
Ġsac red
ĠLabor atory
ĠChampions hips
ĠPatri ots
B ER
ã ģ
Ġg ospel
ill o
ĠW rite
Ġun ited
Ġreg ret
Ġvis ibility
ĠGl en
Ġri vers
Ġmat ched
Ġextend s
Ġextend ing
ĠAny one
Pl us
Ġperman ently
A ir
H ist
v ate
w idth
am ination
ĠR achel
pe ople
op ter
Ġle ar
Ġrec alled
Ġdes criptions
ph ony
Ġimp osed
Ġtop s
ott age
ĠApp ly
Ġdomin ated
Ġast ron
Bu y
Ġcous in
M en
V ery
at ched
st ory
ĠS ri
ĠS pect
id ency
am as
ĠM M
ĠM O
ĠF C
ĠL ay
Ġso cks
ĠSt ories
Ġz ip
ĠTH AT
Ġinvestig ators
ĠSch olars
Ġimag ined
Ġpray ers
Ġadapt ation
Ġbrows ing
Ġfle e
ĠPsych ology
ĠBlu etooth
Ġambit ious
P O
p ired
p ensive
Ġhe lic
our cing
Ġbl ues
Ġob esity
ĠRep roductive
Ġdisapp eared
point s
ĠJeff erson
Ġelimin ated
Ġbelong s
ĠLink s
Ġphr ases
Ġabund ance
T otal
Ġf el
Ġhe els
Ġas leep
Ġhas s
Ġun su
Ġsl a
ok ia
ĠId aho
Ġadvoc acy
V ol
d iv
al ph
Ġbe ars
Ġbe ats
ĠL ar
cl ock
ĠLe ban
ĠQ ual
AC H
ĠMur phy
pat ient
cons cious
ĠResp ons
ĠStan ley
Ġcrypt ocur
Ġcinem a
j an
Ã Ĺ
Ġf isher
Ġm ph
Ġd ip
ĠN G
Ġgl uten
ĠRes erved
pro v
ĠKe ith
Ġprem ises
Ġdemonstr ates
Ġwal let
Ġtum or
Ġware house
A h
f aces
h alf
er b
ed e
ĠC E
ĠC zech
ge red
Ġsh ifts
ĠO liver
ĠK id
row ave
Ġmod es
ĠSo on
ffic ial
An n
Ġaff irm
ĠPart icip
Ġneg lig
cel ona
ĠStr ategy
Ġdiscl ose
ĠEqu ipment
ĠFed eration
Ġdent ist
Ġuncle ar
Ġintim id
ĠChel sea
B r
T alk
le ased
Ġplay offs
Ġgr ill
Ġpat ri
Ġdi ver
anc ies
ij ing
Ġconv iction
Ġpursu it
Ġpipe line
Ġarth ritis
S D
c ourse
n or
as ury
ke ep
Ġv o
ĠG raph
ĠSt orage
ruct ive
ĠComm ons
Ġclean er
umb ling
Ġadjust ments
Ġarchitect ural
Ġoccup ation
ĠCamer on
J ack
Â ´
Ġw ounded
Ġc er
im edia
if iers
ĠH ab
Ġsp ite
Ġproject ed
Ġsent ences
ĠDep uty
place ment
Ġsan ctions
Ġalign ment
Ġcoron avirus
d oc
an as
Ġn urt
Ġwas hed
Ġout line
ener y
Ġmem br
rol ogy
ĠHis pan
Ġbackground s
Ġassum ing
Ġlect ure
Ġtaxpay ers
ĠUnivers al
g ary
h aw
re z
Ġc akes
Ġad hes
Ġcont amin
Ġoff set
Ġdis g
ĠCh rome
Ġsince re
Ġcou ch
Ġgra ve
Ġattack ing
Ġrevolution ary
Ġcompr ised
ĠEs pecially
Ġportra it
N OT
R ober
z heimer
Ġd a
ĠP red
ain ted
Ġnot ified
Ġun ity
Ġsk etch
yl um
Ġassist ed
ugg ing
Every one
ĠProte ct
ĠBoy s
ĠClin ic
Ġlau ghed
aret te
ĠRegist ration
Orig inally
Ġintu itive
Ġmagnific ent
Ġg room
ĠK irk
Ġrec ession
Ġwell ness
Ġbu cket
Ġbo asts
Ġinf in
IN K
Ġblog gers
Ġhon ors
Ġ198 3
Ġsell ers
Ġprogress ion
Ġsmart phones
Ġble eding
rim p
Ġpharm aceutical
ĠDI Y
ĠBapt ist
W ould
Ġa ffe
or us
Ġg ast
Ġr ul
Ġch ick
ĠBut ter
Ġret ention
19 16
ox y
tain ing
ĠPol and
ĠGreat er
Ġbreat he
Ġappoint ments
Ġpu zz
ĠBud get
Ġbub ble
ĠBeh av
ĠIndones ia
M E
o is
ã Ģ
le en
ro ck
Ġman uscript
ank ing
Ġreal m
Ġval ve
ĠRep orts
Ġadjust able
Ġadvis or
Ġtast ing
ogen ic
ĠHor se
Stud ents
ĠJess ica
L ight
R ob
r int
Ġp ics
Ġin equ
Ġe co
st ud
ĠA CC
Ġwh isk
ĠL uther
ĠN OW
um ns
Ġch ron
Ġdis charge
ell ed
omet ric
Ġdevelop s
ĠSh ore
Ġappro ve
Ġint ra
Ġtouch ing
Ġflow ing
Ġcru el
ĠMad rid
Ġobst acles
Ġdeploy ed
c amp
Ġde er
ĠCh ocolate
Ġsl ice
ĠSpe cific
Ġattend ees
Ġur gent
Ġpoor ly
Ġcast ing
Ġcris p
Ġconsid ers
Ġconflic ts
Ġdyn amics
ĠHamp shire
ĠT iger
Ġfor cing
ĠA irlines
ĠD a
Ġen act
Ġper ipher
Ġgener ator
Ġcomb ining
Ġlif ted
Ġterror ists
ĠPhys ical
Comm un
ĠToy ota
Ġg ri
ĠT C
ĠC ertain
un ny
ĠV iol
Ġmin eral
Ġbo om
Ġlaw makers
Ġcool er
Ġmis con
ĠFe el
Ġwat ches
Su pport
ĠTurk ish
- )
1 10
P age
is ode
Ġb iz
Ġto dd
Ġn inth
Ġare na
ge nds
ĠW A
Ġsy rup
cess or
Ġatt ain
Ġvar ies
ĠCon ne
Ġname ly
Ġmusic ian
pro te
force ment
Ġthick ness
Ġpu zzle
ĠEag les
W E
o pp
y on
ĠA CT
Ġst rand
ĠM os
ul ative
ri k
Ġback yard
ĠRe be
Ġmed i
ĠNe braska
Un iversity
Ġfra ction
Ġcrowd s
ĠVol ume
Ġreform s
Ġencount ered
ĠSud an
F ood
on al
Ġd rought
ĠP ul
ĠH onda
Ġmed ian
conom ic
Ġprob ability
Ġrecommend s
Ã© s
** *
Ġsoph omore
Inst ead
ĠMalays ia
it utes
ĠA bs
io xid
Ġtechn ically
ĠUs ed
Ġ197 9
L ink
en h
Ġg rief
ut o
ĠD ry
Ġne arest
Ġro pe
Ġfree ze
Ġspec ify
Ġmar ry
Ġgreen house
ĠCr ime
Ġadvoc ates
umm ies
Ġconstit u
Ġnomin ated
S il
c am
Ġt ales
he ro
Ġp anc
ab ul
ĠG ift
te lling
ĠJ ake
Ġper fection
Ġph osph
ĠAl b
ĠSy n
Ġtravel ers
ili ation
Ġswe ep
ĠArt ist
ĠBro oks
Ġund ers
ĠPlan et
Ġtrick y
ĠWi Fi
ĠFant asy
J ames
ĠS K
ig hed
Ġha un
ĠL l
Ġle isure
ĠO pportun
Ġcomp aring
com fort
any on
Ġgu ilt
ator ies
ĠSc ar
Ġsent iment
ĠEm ily
Ġtur key
ĠDoc ument
ĠVeter ans
G L
m em
p ically
s ign
ing ing
Ġin aug
Ġat he
ĠL GBT
Ġup s
rit os
Ġactiv ation
fort unate
IS H
Ġdemon stration
Ġinform ative
Ġsand wich
b id
c hen
at ics
is ible
ĠP od
if iable
ĠE gg
Ġnot ify
Ġres ervation
Ġmet rics
ĠCons ervation
Ġtun nel
ĠPub lished
Ġcontrovers y
m i
r ise
Ġcon clusions
ĠR ES
ue z
Ġbl own
Ġ8 2
Ġgl oves
Ġreview ing
Ġprotect s
Ġdecl are
ero ids
ograp her
Im age
ĠPhot os
m ap
o i
Ġg ad
ĠN at
ang o
Ġact ed
Ġsal mon
Ġconsider ably
Ex per
Ġsatisf ying
Ġjournal ism
Ġlux urious
Ġcoordin ator
Ġmole cular
Ġp ear
le ton
ĠS oph
ĠL P
Ġexpl ores
ĠCo ordin
Ġ14 0
Ġdemand ed
Ġprison ers
Ġcounsel ing
ĠArgent ina
Ġrecycl ed
H y
an ic
âĢ ²
ĠI an
ĠM es
Ġso fa
Ġcl ue
ial is
Ġjust ify
ĠCl ar
Ġformer ly
Ġautom otive
Ġfat igue
Ġiniti ated
Ġresearc her
Ġfle w
Ġsod a
Ġvine gar
Ġstimul us
Ġtempor arily
ĠVerm ont
ĠC raw
Ġst yl
are l
Ġcl ips
ĠSt u
Ġqu eries
Ġro ok
Ġtou ches
Ġlay ing
ĠHar per
Ġdoub les
ĠCert ification
ĠNever theless
Ġles bian
Ġaccl aim
S orry
Ġa meric
Ġd ense
et o
ĠC oc
ĠH i
Ġref resh
Ġkey words
US A
ĠHealth care
Ġanaly zed
ĠOF F
Ġassemb led
Ġpractition ers
N E
r ong
Ġm asc
et on
Ġfor k
se en
ĠL ag
Ġcomp iled
ĠIn side
ber y
Ġdisc on
Ġsomet ime
Ġresp iratory
Ġtri umph
Ġanal og
Ġenter prises
m art
n on
Ġw oke
om o
ĠH ence
Ġse aled
ĠU A
AR K
Ġcoll aps
Des ign
ĠBrand on
I X
Ġf iring
Ġl ining
ĠT her
ut t
ould er
Ġpo et
ĠZ en
Ġposition ed
Ġsun light
Ġupgr ades
ĠUlt ra
ĠWire less
E lect
I d
L ead
m ill
m ile
Ġt ens
Ġb ully
Ġe Bay
ri el
ĠThe ory
Ġtra pped
Ġless er
ĠTe acher
ĠNot es
edd ings
Ġinterview ed
ĠPre vention
ĠPhil ip
Ġelig ibility
Ġemotion ally
H R
Ġs ins
nd ant
an ium
ĠC isco
im en
ĠB achelor
ĠR O
ĠR ou
Ġch ase
Ġab normal
Ġpl asma
au kee
Ġins ane
Ġbr ide
Ġ9 2
Ġhapp ily
Ġca res
ĠMar vel
Ġpot ent
Ġland l
Ġconnect s
Ġball ot
ĠFin n
ĠAdd ress
amm ar
ĠPhot ography
Spe aking
ĠEss ay
gi ene
G old
T or
b ig
r ust
re my
Ġthe e
it err
Ġl ane
ĠA ub
Ġu pt
ĠM asters
Ġv ague
os ity
Ġen rolled
ĠTh ai
ĠV ac
ĠV irtual
av an
Ġass ure
Ġcr imin
ĠEx hib
ĠGr an
Ġrespond ing
ĠPlay ers
Ġhar ness
Ġment or
ĠHope fully
pir acy
Ġfest ivals
f illed
Ġd amp
le vant
ĠS ugar
ĠIn sp
Ġtra gic
Ġrem od
Ġfr ank
Ġhum ble
Ġmess aging
Ġblog ger
Ġadministr ator
Ġvit amins
in ance
er ness
em porary
um per
hed ral
Ġbus es
ah l
Ġpick up
Ġpers pectives
Ġassess ments
Ġlength y
Ġsmooth ly
Ġpredict ions
Ġtherap ist
ĠðŁ Ļ
ĠSac r
ĠYanke es
H ot
h ad
o qu
Ġl id
Ġl amp
Ġg aps
ĠC arm
ĠP el
ĠB ever
ĠN ice
Ġsc ent
Ġtra p
Ġsim ulated
Ġcor rection
Ġcal cium
ĠMin or
Ġjud icial
Ġfair y
ĠDirect ors
Ġvir al
Ġsurge on
b ot
en z
Ġg inger
il m
ĠR ush
Ġal umni
ide os
Ġqu art
Ġco pe
Ġunder go
Ġgl ance
ĠPl atform
Ġfar mer
Ġtrad es
Ġdest ro
Ġgrand children
Un ited
Ġment ally
Ġtradition ally
ĠEgypt ian
Ġknock ed
Ġsynt hetic
Ġblank et
Ġcompliment ary
f ood
p oon
ĠC AN
Ġover time
Ġ9 4
sh aped
Ġpot ato
Ġlim iting
Ġbenef ic
Ġste ering
ĠChe f
Ġcirc ulation
Ġlicens ing
it ations
Ġf ights
ll i
ĠB ot
ĠB enn
ĠF itz
ĠG A
ĠTh or
ign ment
Ġins isted
atter ing
AR S
de velop
Ġsens es
Ġfabric s
Ġupgr aded
ĠStan ford
ĠBM W
Contin ue
S ever
Ġf oul
ĠT un
Ġal tered
Ġk g
Ġres ervations
Ġacc ent
Ġ7 1
Ġ7 9
ĠAl zheimer
Ġsl im
Ġstr anger
ret ty
ĠEd wards
ĠUs ually
Ġsche mes
ĠInter ior
Ġfif teen
Ġexec ute
Ġfinan cially
est on
ĠF err
ĠN ancy
ĠE ither
out ube
ac cess
Ġpa ired
pro duct
inc inn
ĠExper t
Ġsan ct
ĠHarr ison
Ġunw anted
Ġther mal
ĠJam ie
ĠNurs ing
C ount
P ower
p al
ing o
ĠT ournament
ĠP ages
Ġj aw
ĠCh icken
ob i
Ġtra its
ced es
Ġsub mitting
Ġstrong est
Ġcharacter ized
Ġimpact ed
ĠLet ter
ĠStand ards
ĠEconom ics
iot ics
W omen
ur dy
Ġsh irts
Ġrem edy
Ġ8 4
ĠPart ner
Ġrecogn ised
âĢ¢ âĢ¢
Ġwarm th
ixt ures
Ġmotor cycle
Ġprompt ed
ĠHig her
iterr anean
c ond
ĠA rena
Ġst atic
ip h
Ġqu arters
Ġlike lihood
ov able
ert ation
Ġsl ower
Ġeng lish
eng u
Ġz oom
Ġ198 1
ĠPost s
Ġesc al
Ġrecru iting
C OM
Ġf ract
im ity
ĠM t
ke eper
ĠK le
ĠK han
In formation
ĠCol omb
ee k
AR Y
Ġcard iovascular
Ġconsum ing
Ġintegr al
Ġeat en
Ġmer cy
ĠDou g
Ġintent ions
Ġexplos ion
Ġdismiss ed
ĠAssess ment
incinn ati
R N
ĠS ent
ĠW alt
ĠG host
Ġqu een
Ġsp at
ĠBe ijing
uck ed
Ġdr ill
bor o
Ġcolle ague
ĠTurn er
ĠGrow th
C ong
b ank
ï ¼
Ġt ones
Ġs add
es pecially
Ġp ension
Ġd umb
ĠF M
Ġen zy
Ġmin erals
Ġext ensions
ier ra
ĠNot ice
Ġfail ures
ĠTest ing
ĠCapit ol
O kay
er to
Ġto e
om i
