{"<|endoftext|>":0,"<|im_start|>":1,"<|im_end|>":2,"!":3,"\"":4,"#":5,"$":6,"%":7,"&":8,"'":9,"(":10,")":11,"*":12,"+":13,",":14,"-":15,".":16,"/":17,"0":18,"1":19,"2":20,"3":21,"4":22,"5":23,"6":24,"7":25,"8":26,"9":27,":":28,";":29,"<":30,"=":31,">":32,"?":33,"@":34,"A":35,"B":36,"C":37,"D":38,"E":39,"F":40,"G":41,"H":42,"I":43,"J":44,"K":45,"L":46,"M":47,"N":48,"O":49,"P":50,"Q":51,"R":52,"S":53,"T":54,"U":55,"V":56,"W":57,"X":58,"Y":59,"Z":60,"[":61,"\\":62,"]":63,"^":64,"_":65,"`":66,"a":67,"b":68,"c":69,"d":70,"e":71,"f":72,"g":73,"h":74,"i":75,"j":76,"k":77,"l":78,"m":79,"n":80,"o":81,"p":82,"q":83,"r":84,"s":85,"t":86,"u":87,"v":88,"w":89,"x":90,"y":91,"z":92,"{":93,"|":94,"}":95,"~":96,"¡":97,"¢":98,"£":99,"¤":100,"¥":101,"¦":102,"§":103,"¨":104,"©":105,"ª":106,"«":107,"¬":108,"®":109,"¯":110,"°":111,"±":112,"²":113,"³":114,"´":115,"µ":116,"¶":117,"·":118,"¸":119,"¹":120,"º":121,"»":122,"¼":123,"½":124,"¾":125,"¿":126,"À":127,"Á":128,"Â":129,"Ã":130,"Ä":131,"Å":132,"Æ":133,"Ç":134,"È":135,"É":136,"Ê":137,"Ë":138,"Ì":139,"Í":140,"Î":141,"Ï":142,"Ð":143,"Ñ":144,"Ò":145,"Ó":146,"Ô":147,"Õ":148,"Ö":149,"×":150,"Ø":151,"Ù":152,"Ú":153,"Û":154,"Ü":155,"Ý":156,"Þ":157,"ß":158,"à":159,"á":160,"â":161,"ã":162,"ä":163,"å":164,"æ":165,"ç":166,"è":167,"é":168,"ê":169,"ë":170,"ì":171,"í":172,"î":173,"ï":174,"ð":175,"ñ":176,"ò":177,"ó":178,"ô":179,"õ":180,"ö":181,"÷":182,"ø":183,"ù":184,"ú":185,"û":186,"ü":187,"ý":188,"þ":189,"ÿ":190,"Ā":191,"ā":192,"Ă":193,"ă":194,"Ą":195,"ą":196,"Ć":197,"ć":198,"Ĉ":199,"ĉ":200,"Ċ":201,"ċ":202,"Č":203,"č":204,"Ď":205,"ď":206,"Đ":207,"đ":208,"Ē":209,"ē":210,"Ĕ":211,"ĕ":212,"Ė":213,"ė":214,"Ę":215,"ę":216,"Ě":217,"ě":218,"Ĝ":219,"ĝ":220,"Ğ":221,"ğ":222,"Ġ":223,"ġ":224,"Ģ":225,"ģ":226,"Ĥ":227,"ĥ":228,"Ħ":229,"ħ":230,"Ĩ":231,"ĩ":232,"Ī":233,"ī":234,"Ĭ":235,"ĭ":236,"Į":237,"į":238,"İ":239,"ı":240,"Ĳ":241,"ĳ":242,"Ĵ":243,"ĵ":244,"Ķ":245,"ķ":246,"ĸ":247,"Ĺ":248,"ĺ":249,"Ļ":250,"ļ":251,"Ľ":252,"ľ":253,"Ŀ":254,"ŀ":255,"Ł":256,"ł":257,"Ń":258,"Ġt":259,"Ġa":260,"in":261,"he":262,"re":263,"on":264,"Ġthe":265,"er":266,"Ġs":267,"Ġw":268,"at":269,"Ġo":270,"nd":271,"Ġc":272,"it":273,"or":274,"es":275,"is":276,"en":277,"ou":278,"Ġf":279,"Ġb":280,"ing":281,"Ġp":282,"ed":283,"an":284,"al":285,"Ġto":286,"Ġm":287,"ar":288,"Ġand":289,"Ġof":290,"Ġin":291,"Ġd":292,"ic":293,"le":294,"Ġh":295,"as":296,"om":297,"ion":298,"Ġth":299,"ll":300,"âĢ":301,"ent":302,"Ġl":303,"ve":304,"Ġe":305,"st":306,"Ġre":307,"Ġn":308,"ro":309,"Ġy":310,"Ġg":311,"ly":312,"ĠI":313,"ct":314,"Ġbe":315,"ĠT":316,"ut":317,"et":318,"ot":319,"Ġis":320,"ĠS":321,"id":322,"Ġyou":323,"Ġon":324,"ay":325,"Ġfor":326,"ow":327,"ĠA":328,"ur":329,"ĠC":330,"se":331,"im":332,"ad":333,"ce":334,"ig":335,"am":336,"ver":337,"Ġthat":338,"Ġu":339,"ch":340,"il":341,"ith":342,"ation":343,"Ġst":344,"ol":345,"ir":346,"Ġwith":347,"âĢĻ":348,"ĠM":349,"Ġit":350,"Ġhe":351,"Ġwe":352,"ra":353,"Ġwh":354,"ĠP":355,"ĠB":356,"Ġan":357,"Ġas":358,"ill":359,"ers":360,"if":361,"ke":362,"Ġpro":363,"ter":364,"Ġare":365,"Ġha":366,"ge":367,"ĠW":368,"Ġcon":369,"ld":370,"oo":371,"her":372,"Ġor":373,"ul":374,"ate":375,"ĠH":376,"ess":377,"ĠD":378,"pp":379,"ck":380,"Ġat":381,"Ġse":382,"Ġcom":383,"ore":384,"ri":385,"ment":386,"ĠThe":387,"est":388,"Ġde":389,"ĠF":390,"Ġ1":391,"us":392,"ĠR":393,"igh":394,"th":395,"ab":396,"Ġwas":397,"Ġ(":398,"rom":399,"ist":400,"Ġ2":401,"Ġne":402,"pe":403,"Ġex":404,"un":405,"ĠL":406,"ant":407,"res":408,"ity":409,"Ġsu":410,"qu":411,"Ġv":412,"ive":413,"op":414,"em":415,"Ġhave":416,"Ġr":417,"ĠG":418,"ort":419,"ĠâĢ":420,"ĠN":421,"ain":422,"art":423,"Ġyour":424,"Ġthis":425,"ĠE":426,"Ġnot":427,"ust":428,"Ġfrom":429,"nt":430,"um":431,"Ġsh":432,"os":433,"el":434,"ies":435,"and":436,"Ġby":437,"Ġal":438,"ight":439,"Ġch":440,"Ġcan":441,"all":442,"ie":443,"Ġle":444,"ome":445,"ard":446,"ĠO":447,"out":448,"Ġwill":449,"ould":450,"ud":451,"our":452,"red":453,"Ġab":454,"Ġdo":455,"iv":456,"Ġwor":457,"gh":458,"ally":459,"00":460,"ost":461,"te":462,"od":463,"Ġpl":464,"'s":465,"Ġall":466,"ĠJ":467,"rou":468,"ast":469,"ci":470,"ear":471,"Ġj":472,"ide":473,"ak":474,"The":475,"ine":476,"Ġk":477,"ure":478,"ag":479,"fe":480,"per":481,"Ġso":482,"Ġhas":483,"pt":484,"Ġme":485,"Ġwhe":486,"Ġbut":487,"ack":488,"âĢĿ":489,"ice":490,"Ġus":491,"age":492,"ction":493,"ich":494,"ac":495,"ther":496,"Ġad":497,"Ġout":498,"pl":499,"ĠU":500,"ake":501,"Ġup":502,"Ġthey":503,"ook":504,"one":505,"ind":506,"og":507,"Ġtheir":508,"so":509,"Ġmore":510,"are":511,"ry":512,"ong":513,"very":514,"Ġcomp":515,"Ġen":516,"able":517,"ime":518,"Ġmy":519,"ated":520,"ood":521,"Ġte":522,"cc":523,"ous":524,"Ġhis":525,"Ġone":526,"ame":527,"ite":528,"ans":529,"iz":530,"Ġcl":531,"ike":532,"ip":533,"Ġsa":534,"orm":535,"Ġwho":536,"Ġabout":537,"Ġim":538,"ĠTh":539,"ĠIn":540,"Ġour":541,"ĠâĢľ":542,"ber":543,"Ġcont":544,"Ġgo":545,"ions":546,"ru":547,"Ġman":548,"cl":549,"Ġwhich":550,"ne":551,"du":552,"Ġfe":553,"act":554,"ance":555,"ĠK":556,"Ġ20":557,"to":558,"ia":559,"ase":560,"ib":561,"Ġres":562,"ail":563,"Ġwork":564,"ire":565,"ign":566,"ĠY":567,"ff":568,"ree":569,"oc":570,"Ġapp":571,"ach":572,"reat":573,"ap":574,"ays":575,"ary":576,"ations":577,"Ġper":578,"ace":579,"ick":580,"Ġother":581,"ult":582,"ven":583,"ep":584,"au":585,"ĠSt":586,"Ġoff":587,"..":588,"ass":589,"Ġyear":590,"Ġtime":591,"ub":592,"Ġqu":593,"ical":594,"Ġsome":595,"Ġlike":596,"ue":597,"Ġalso":598,"Ġany":599,"Ġdis":600,"ile":601,"ount":602,"now":603,"Ġ\"":604,"ence":605,"ove":606,"ark":607,"Ġget":608,"Ġun":609,"form":610,"ĠV":611,"Ġhad":612,"ord":613,"ĠIt":614,"ress":615,"Ġthem":616,"Ġnew":617,"Ġsp":618,"ings":619,"erv":620,"ĠCh":621,"Ġwere":622,"Ġbeen":623,"Ġpart":624,"ond":625,"Ġ3":626,"Ġag":627,"Ġthere":628,"ose":629,"Ġpe":630,"vel":631,"Ġover":632,"Ġwhen":633,"Ġher":634,"ough":635,"Ġwould":636,"Ġwhat":637,"av":638,"ition":639,"Ġar":640,"ial":641,"ents":642,"Ġif":643,"ink":644,"ors":645,"Ġ-":646,"Ġthan":647,"ens":648,"Ġtr":649,"Ġjust":650,"ound":651,"Ġ201":652,"Ġro":653,"Ġpre":654,"irst":655,"port":656,"Ġspe":657,"int":658,"ish":659,"ild":660,"Ġbec":661,"mer":662,"ob":663,"Ġknow":664,"Ġrec":665,"ople":666,"wn":667,"Ġinto":668,"ĠWe":669,"own":670,"Ġneed":671,"ory":672,"Ġsaid":673,"ren":674,"ov":675,"fter":676,"nder":677,"ĠHe":678,"Ġhow":679,"oy":680,"ater":681,"Ġsc":682,"Ġacc":683,"rough":684,"Ġam":685,"ade":686,"Ġtw":687,"Ġco":688,"itt":689,"Ġits":690,"vers":691,"Ġpeople":692,"ang":693,"old":694,"ning":695,"lic":696,"Ġdes":697,"Ġfirst":698,"ons":699,"Ġmay":700,"clud":701,"Ġshe":702,"Ġbl":703,"ces":704,"we":705,"Ġno":706,"ual":707,"ĠâĢĵ":708,"cial":709,"Ġcomm":710,"ause":711,"ian":712,"amp":713,"hed":714,"'t":715,"ates":716,"Ġonly":717,"lp":718,"ull":719,"Ġmake":720,"Ġ19":721,"ft":722,"rent":723,"Ġmost":724,"ric":725,"Ġtra":726,"Ġpo":727,"Ġbet":728,"ments":729,"Ġ4":730,"Ġadd":731,"day":732,"Ġback":733,"end":734,"Ġlook":735,"Ġprov":736,"Ġhelp":737,"Ġind":738,"ating":739,"ĠThis":740,"tern":741,"Ġevery":742,"ily":743,"round":744,"Ġfl":745,"Ġem":746,"Ġthrough":747,"Ġinclud":748,"Ġwant":749,"hing":750,"Ġ5":751,"ise":752,"ĠRe":753,"Ġtwo":754,"Ġcons":755,"ious":756,"Ġsee":757,"iew":758,").":759,"Ġact":760,"Ġuse":761,"les":762,"Ġwell":763,"Ġthese":764,"gr":765,"Ġprodu":766,"Ġbu":767,"Ġunder":768,"sel":769,"Ġafter":770,"Ġph":771,"ect":772,"ph":773,"ks":774,"fect":775,"ew":776,"ities":777,"ife":778,"Ġcould":779,"oll":780,"iss":781,"xt":782,"fore":783,"ced":784,"Ġserv":785,"rit":786,"Th":787,"ific":788,"hen":789,"urn":790,"pport":791,"Ġdif":792,"row":793,"aw":794,"Ġvery":795,"ting":796,"Ġyears":797,"uch":798,"Ġrel":799,"Ġsy":800,"lect":801,"Ġplay":802,"Ġeven":803,"Ġway":804,"ts":805,"Ġinc":806,"Ġgood":807,"Ġmany":808,"erson":809,"Ġreg":810,"Ġinv":811,"Ġhim":812,"als":813,"ange":814,"Ġra":815,"ject":816,"Ġnow":817,"Ġrem":818,"ful":819,"Ġimp":820,"Ġpr":821,"pect":822,"cess":823,"ont":824,"oss":825,"Ġ200":826,"Ġcol":827,"Ġstud":828,"Ġthen":829,"Ġev":830,"||":831,"Ġwhere":832,"aking":833,"iness":834,"ational":835,"ĠYou":836,"Ġshould":837,"ool":838,"Ġke":839,"ock":840,"Ġsm":841,"oth":842,"com":843,"ert":844,"Ġdid":845,"olog":846,"ible":847,"bs":848,"ased":849,"Ġright":850,"ility":851,"Ġbecause":852,"Ġdon":853,"Ġexper":854,"ident":855,"get":856,"Ġstart":857,"ward":858,"ular":859,"Ġsec":860,"ĠUn":861,"ath":862,"any":863,"Ġdown":864,"ty":865,"ied":866,"ower":867,"Ġown":868,"ures":869,"erm":870,"ĠWh":871,".âĢĿ":872,"uring":873,"ble":874,"),":875,"ĠSe":876,"Ġac":877,"Ġgreat":878,"Ġfin":879,"ĠAs":880,"Ġgu":881,"Ġthink":882,"formation":883,"Ġbus":884,"Ġmuch":885,"ices":886,"Ġatt":887,"Ġ$":888,"hip":889,"Ġtoo":890,"ys":891,"ĠAnd":892,"hes":893,"ative":894,"other":895,"stem":896,"Ġent":897,"Ġsuch":898,"up":899,"Ġday":900,"ell":901,"ict":902,"its":903,"Ġlong":904,"ited":905,"Ġagain":906,"ork":907,"Ġhigh":908,"omet":909,"ract":910,"Ġ6":911,"arch":912,"Ġdec":913,"In":914,"air":915,"Ġinst":916,"ics":917,"ĠCom":918,"Ġtake":919,"Ġset":920,"velop":921,"Ġfind":922,"alth":923,"Ġthose":924,"Ġread":925,"gan":926,"Ġhere":927,"ener":928,"rib":929,"Ġbeing":930,"Ġbefore":931,"Ġdoes":932,"Ġins":933,"und":934,"Ġbel":935,"Ġend":936,"Ġwee":937,"Ġshow":938,"Ġmade":939,"Ġcall":940,"Ġinte":941,"Ġ&":942,"Ġmon":943,"Ġdiffe":944,"cy":945,"Ġpres":946,"ĠPro":947,"Ġperson":948,"ner":949,"Ġbest":950,"ix":951,"Ġworld":952,"ason":953,"ĠAn":954,"ĠDe":955,"ually":956,"âĢľ":957,"Ġcar":958,"Ġmin":959,"Ġass":960,"chool":961,"alk":962,"ollow":963,"Ġrequ":964,"Ġsur":965,"ues":966,"Ġloc":967,"ĠIf":968,"Ġinformation":969,"Ġfam":970,"Ġbr":971,"Ġlast":972,"Ġhome":973,"way":974,"line":975,"Ġlife":976,"rest":977,"li":978,"ax":979,"ank":980,"Ġche":981,"Ġav":982,"Ġsim":983,"20":984,"Ġbusiness":985,"io":986,"ĠNew":987,"self":988,"ng":989,"Ġmed":990,"ving":991,"Ġ10":992,"We":993,"Ġhand":994,"...":995,"Ġmark":996,"Ġ7":997,"gram":998,"ffect":999,"Ġop":1000,"ince":1001,"Ġsystem":1002,"ins":1003,"Ġear":1004,"Ġtrans":1005,"ather":1006,"ave":1007,"ublic":1008,"Ġmem":1009,"Ġpol":1010,"Ġused":1011,"Ġdevelop":1012,"Ġwhile":1013,"ĠBut":1014,"ros":1015,"Ġlead":1016,"Ġinter":1017,"atch":1018,"led":1019,"Ġsub":1020,"ouse":1021,"chn":1022,"Ġart":1023,"ives":1024,".\"":1025,"Ġcount":1026,"ness":1027,"arm":1028,"pr":1029,"Ġreally":1030,"Ġcre":1031,"az":1032,"cept":1033,"Ġgoing":1034,"Ġthough":1035,"Ġeach":1036,"akes":1037,"Ġdet":1038,"Ġmod":1039,"ple":1040,"land":1041,"Ġnum":1042,"Ġaround":1043,"Ġret":1044,"imes":1045,",âĢĿ":1046,"Ġ8":1047,"ience":1048,"Ġvis":1049,"read":1050,"view":1051,"Ġdisc":1052,"ĠAl":1053,"Ġdesign":1054,"Ġsupport":1055,"Ġproduct":1056,"ale":1057,"Ġsomet":1058,"Ġfollow":1059,"ween":1060,"meric":1061,"Ġcour":1062,"ines":1063,"Ġform":1064,"ality":1065,"Ġstill":1066,"ctions":1067,"ever":1068,"Ġcur":1069,"ĠSh":1070,"ets":1071,"irect":1072,"ene":1073,"Ġsay":1074,"ved":1075,"Ġcare":1076,"ution":1077,"Ġser":1078,"gg":1079,"Ġcomple":1080,"Ġteam":1081,"riend":1082,"Ġadv":1083,"ash":1084,"Ġprovid":1085,"ize":1086,"Ġchar":1087,"roup":1088,"ĠFor":1089,"Ġpoint":1090,"Ġdifferent":1091,"Ġfound":1092,"Ġsign":1093,"der":1094,"Ġbook":1095,"Ġsame":1096,"ĠAr":1097,"oun":1098,"ivers":1099,"Ġsl":1100,"ages":1101,"Ġed":1102,"Ġbetween":1103,"Ġgr":1104,"Ġchild":1105,"lease":1106,"man":1107,"This":1108,"ah":1109,"Ġaut":1110,"ata":1111,"Ġstr":1112,"Ġexp":1113,"Ġrun":1114,"Ġfeel":1115,"ĠSo":1116,"Ġsk":1117,"ittle":1118,"ute":1119,"Ġcommun":1120,"Ġthree":1121,"ĠThey":1122,"Ġboth":1123,"ustom":1124,"Ġplace":1125,"ars":1126,"Wh":1127,"Ġ9":1128,"Ġcle":1129,"It":1130,"ĠBe":1131,"ways":1132,"ĠCl":1133,"Ġfew":1134,"Ġeas":1135,"Ġbo":1136,"000":1137,"Ġgl":1138,"Ġstate":1139,"ex":1140,"the":1141,"ional":1142,"Ġlot":1143,"Ġhapp":1144,"Ġprogram":1145,"ists":1146,"Ġfree":1147,"ĠAmeric":1148,"Ġmet":1149,"Ġpost":1150,"ton":1151,"less":1152,"Ġlove":1153,"ten":1154,"Ġrep":1155,"ĠLe":1156,"Ġpur":1157,"ized":1158,"Ġthings":1159,"Ġimport":1160,"ody":1161,"ames":1162,"ient":1163,"Ġprocess":1164,"Ġprof":1165,"ired":1166,"Ġfun":1167,"cer":1168,"ves":1169,"orn":1170,"be":1171,"Ġfull":1172,"Ġtop":1173,"Ġext":1174,"ology":1175,"vern":1176,"Ġlar":1177,"thing":1178,"ĠAd":1179,"Ġmonth":1180,"ety":1181,"Ġgener":1182,"Ġlittle":1183,"Ġfact":1184,"Ġreal":1185,"oh":1186,"ants":1187,"ital":1188,"ailable":1189,"ature":1190,"ross":1191,"Ġreport":1192,"Ġlist":1193,"Ġhealth":1194,"Ġduring":1195,"cent":1196,"arn":1197,"Ġplan":1198,"Ġappro":1199,"Ġtechn":1200,"Ġkeep":1201,"oad":1202,"Ġopen":1203,"Ġcome":1204,"bers":1205,"Ġdef":1206,"ug":1207,"uc":1208,"Ġfr":1209,"Ġref":1210,"Ġfil":1211,"Ġpat":1212,"Ġposs":1213,"Ġob":1214,"ering":1215,"ield":1216,",\"":1217,"con":1218,"Ġusing":1219,"Ġint":1220,"ically":1221,"Ġcent":1222,"Ġpartic":1223,"ms":1224,"ished":1225,"att":1226,"Ġsomething":1227,"10":1228,"iving":1229,"Ġrest":1230,"Ġiss":1231,"Ġresp":1232,"Ġcontin":1233,"Ġwithout":1234,"ined":1235,"rand":1236,"Ġgame":1237,"Ġcustom":1238,"gy":1239,"Ġput":1240,"oot":1241,"Ġresult":1242,"Ġty":1243,"Ġmust":1244,"Ġschool":1245,"ĠThere":1246,"ining":1247,"tt":1248,"Ġinterest":1249,"Ġcor":1250,"ared":1251,"ger":1252,"Ġanother":1253,"Ġincluding":1254,"Ġgot":1255,"Ġallow":1256,"Ġbetter":1257,"atur":1258,"Ġnext":1259,"Ġpri":1260,"ĠBl":1261,"Ġbig":1262,"Ġmight":1263,"ention":1264,"Ġvar":1265,"Ġdist":1266,"Ġavailable":1267,"Ġfriend":1268,"Ġsol":1269,"Ġalways":1270,"Ġpass":1271,"Ġsmall":1272,"Ġquest":1273,"Ġcompany":1274,"Ġconf":1275,"Ġtry":1276,"Ġhead":1277,"Ġgroup":1278,"uss":1279,"Ġwr":1280,"Ġide":1281,"ĠShe":1282,"ĠHow":1283,"Ġsince":1284,"Ġsecond":1285,"Ġstand":1286,"ense":1287,"Ġmain":1288,"Ġmarket":1289,"ik":1290,"iqu":1291,"Ġnever":1292,"Ġweek":1293,"Ġeffect":1294,"Ġval":1295,"reen":1296,"ĠâĢĺ":1297,"Ġfamily":1298,"Ġwater":1299,"Ġorgan":1300,"ploy":1301,"Ġtri":1302,"stand":1303,"Ġbuild":1304,"Ġpay":1305,"Ġopt":1306,"âĢ¦":1307,"Ġdata":1308,"Ġdri":1309,"Ġmus":1310,"Ġhard":1311,"ertain":1312,"Ġwom":1313,"Ġnumber":1314,"ier":1315,"ision":1316,"ism":1317,"Ġmov":1318,"ately":1319,"Ġrece":1320,"aj":1321,"ample":1322,"Ġincre":1323,"ĠIs":1324,"Ġimportant":1325,"Ġask":1326,"illion":1327,"ĠOn":1328,"Ġcr":1329,"ĠAll":1330,"Ġproble":1331,"ĠFr":1332,"ĠPl":1333,"Ġexperience":1334,"ware":1335,"Ġpublic":1336,"Ġsure":1337,"Ġpower":1338,"ling":1339,"ĠEx":1340,"Ġold":1341,"Ġi":1342,"rol":1343,"rist":1344,"els":1345,"Ġdirect":1346,"Ġexpl":1347,"Ġinf":1348,"me":1349,"Ġbro":1350,"Ġperform":1351,"Ġlevel":1352,"oney":1353,"iversity":1354,"ĠâĢĶ":1355,"Ġdays":1356,"ER":1357,"rence":1358,"19":1359,"ted":1360,"ĠInd":1361,"âĢĶ":1362,"If":1363,"Ġservice":1364,"Ġproject":1365,"Ġagainst":1366,"ccess":1367,"Ġclass":1368,"ior":1369,"Ġspec":1370,"ird":1371,"ĠQ":1372,"Ġgive":1373,"Ġlaw":1374,"Ġ'":1375,"Ġel":1376,"ral":1377,"Ġless":1378,"Ġ12":1379,"Ġbre":1380,"Ġwin":1381,"Ġgrow":1382,"Ġlet":1383,"ps":1384,"ok":1385,"Ġcost":1386,"Ġseem":1387,"Ġbelie":1388,"Ġinvest":1389,"pend":1390,"Ġonline":1391,"Ġable":1392,"co":1393,"work":1394,"ases":1395,"Ġ0":1396,"uck":1397,"Ġtest":1398,"inal":1399,"Ġve":1400,"ards":1401,"Ġlight":1402,"Ġca":1403,"Ġfour":1404,"Ġhum":1405,"Ġpos":1406,"Ġrese":1407,"Ġcurrent":1408,"Ġdi":1409,"raph":1410,"ote":1411,"ats":1412,"ĠPh":1413,"Ġsays":1414,"Ġunt":1415,"ivid":1416,"ered":1417,"Ġprovide":1418,"ients":1419,"ĠTe":1420,"ĠZ":1421,"Ġsit":1422,"here":1423,"ours":1424,"Ġorder":1425,"ĠCon":1426,"Ġ18":1427,"Ġleg":1428,"Ġturn":1429,"ien":1430,"Ġwithin":1431,"Ġmeet":1432,"gin":1433,"He":1434,"cing":1435,"outh":1436,"vernment":1437,"ably":1438,"ruct":1439,"ration":1440,"ember":1441,"ann":1442,"ĠCol":1443,"pped":1444,"ope":1445,"Ġ.":1446,"ron":1447,"ently":1448,"ĠUS":1449,"ffic":1450,"ĠThat":1451,"Ġpop":1452,"Ġtoday":1453,"ator":1454,"Ġjob":1455,"50":1456,"med":1457,"pos":1458,".,":1459,"Ġoper":1460,"Ġproper":1461,"ised":1462,"Ġprote":1463,"aut":1464,"Ġfood":1465,"Ġprev":1466,"ret":1467,"Ġaway":1468,"ission":1469,"ec":1470,"ott":1471,"Ġbeh":1472,"Ġann":1473,"pping":1474,"oint":1475,"Ġest":1476,"Ġview":1477,"ium":1478,"Ġmaking":1479,"ider":1480,"Ġhist":1481,"Ġaccess":1482,"atter":1483,"Ġworking":1484,"Ġdem":1485,"ains":1486,"Ġsupp":1487,"Ġcourse":1488,"Ġservices":1489,"Ġprom":1490,"Ġsing":1491,"Ġcase":1492,"of":1493,"ged":1494,"hor":1495,"Ġaddition":1496,"ĠSp":1497,"Ġarea":1498,"Ġtru":1499,"You":1500,"ĠMan":1501,"Ġsal":1502,"Ġphot":1503,"Ġequ":1504,"Ġeng":1505,"ney":1506,"Ġcap":1507,"As":1508,"Ġnight":1509,"ured":1510,"lish":1511,"ified":1512,"ĠOr":1513,"Ġspecial":1514,"ead":1515,"ording":1516,"Ġchange":1517,"Ġthing":1518,"ream":1519,"ids":1520,"Ġwebs":1521,"iron":1522,"orth":1523,"tend":1524,"ww":1525,"ley":1526,"Ġchang":1527,"Ġuntil":1528,"Ġwrit":1529,"ĠComm":1530,"Ġpast":1531,"ories":1532,"por":1533,"ĠTo":1534,"Ġchildren":1535,"ina":1536,"ify":1537,"Ġpresent":1538,"Ġwhy":1539,"ury":1540,"Ġword":1541,"IN":1542,"omm":1543,"Ġlooking":1544,"iting":1545,"Ġfac":1546,"ĠTr":1547,"Ġkind":1548,"Ġconst":1549,"ĠSc":1550,"'re":1551,"eng":1552,"Ġbas":1553,"lection":1554,"min":1555,"Ġmoney":1556,"itions":1557,"ĠRes":1558,"Ġpract":1559,"cu":1560,"ĠCent":1561,"Ġstudents":1562,"augh":1563,"ump":1564,"aring":1565,"Ġlocal":1566,"joy":1567,"Ġlarge":1568,"Ġseason":1569,"30":1570,"ability":1571,"Ġunderstand":1572,"Ġleft":1573,"Ġprofess":1574,"sh":1575,"Ġterm":1576,"ĠChrist":1577,"Ġname":1578,"Ġintern":1579,"soci":1580,"Ġemploy":1581,"Ġoften":1582,"Ġevent":1583,"gether":1584,"Ġtogether":1585,"Ġsite":1586,"ohn":1587,"irl":1588,"Ġdev":1589,"ization":1590,"Ġvide":1591,"Ġactiv":1592,"ising":1593,"Ġsuccess":1594,"conom":1595,"Ġtimes":1596,"ĠMar":1597,"Ġroom":1598,"icle":1599,"arent":1600,"agement":1601,"ries":1602,"ential":1603,"iven":1604,"12":1605,"Ġexpect":1606,"Ġdidn":1607,"let":1608,"Ġdr":1609,"ĠCan":1610,"Ġtell":1611,"by":1612,"Ġcond":1613,"Ġtalk":1614,"Ġimpro":1615,"Ġapplic":1616,"utes":1617,"Ġ15":1618,"ĠGod":1619,"Ġhaving":1620,"Ġes":1621,"Ġcomplete":1622,"Ġindust":1623,"ee":1624,"Ġdra":1625,"ajor":1626,"Ġcheck":1627,"Ġalong":1628,"Ġnear":1629,"ills":1630,"ived":1631,"ĠNo":1632,"part":1633,"Ġenough":1634,"ode":1635,"ready":1636,"Ġcreat":1637,"Ġlearn":1638,"Ġ[":1639,"Ġmove":1640,"ĠWhen":1641,"ox":1642,"Ġsw":1643,"Ġside":1644,"ividual":1645,"urs":1646,"Ġshort":1647,"Ġpain":1648,"ane":1649,"veral":1650,"ocus":1651,"itive":1652,"Ġever":1653,"ination":1654,"Ġtreat":1655,"ĠWhat":1656,"aster":1657,"Ġproducts":1658,"Ġbecome":1659,"alf":1660,"br":1661,"Ġair":1662,"Ġcountry":1663,"Ġ11":1664,"Ġcommunity":1665,"ON":1666,"ĠUniversity":1667,"Ġinclude":1668,"ots":1669,"Ġdone":1670,"ency":1671,"Ġcalled":1672,"Ġrecord":1673,"une":1674,"Ġ199":1675,"Ġmen":1676,"side":1677,"enn":1678,"Ġhouse":1679,"Ġstory":1680,"aim":1681,"Ġaccount":1682,"Ġoffic":1683,"Ġoffer":1684,"aterial":1685,"ĠMay":1686,"Ġpa":1687,"Ġmembers":1688,"ery":1689,"Ġline":1690,"enef":1691,"Ġalready":1692,"Ġconne":1693,"Ġbit":1694,"Ġmar":1695,"Ġ30":1696,"Ġfar":1697,"ĠWith":1698,"Ġbuy":1699,"Ġcertain":1700,"Ġmil":1701,"'m":1702,"ern":1703,"What":1704,"ĠEng":1705,"Ġpersonal":1706,"ained":1707,"Ġpossible":1708,"Ġenjoy":1709,"Ġtrad":1710,"Ġresearch":1711,"ĠAt":1712,"Ġbody":1713,"ows":1714,"Ġfollowing":1715,"Ġcame":1716,"Ġindividual":1717,"Ġlive":1718,"St":1719,"err":1720,"Ġfeat":1721,"Ġocc":1722,"ored":1723,"ails":1724,"Ġmakes":1725,"Ġseveral":1726,"11":1727,"son":1728,"Ġothers":1729,"Ġmean":1730,"For":1731,"rap":1732,"!!":1733,"Ġneeds":1734,"viron":1735,"ither":1736,"Ġgovernment":1737,"ĠFl":1738,"Ġnews":1739,"Ġgetting":1740,"Ġcamp":1741,"ĠAmerican":1742,"Ġcontrol":1743,"Ġpot":1744,"Ġcou":1745,"Ġreview":1746,"over":1747,"Ġmeans":1748,"ush":1749,"Ġdoing":1750,"Ġwomen":1751,"ES":1752,"Ġsocial":1753,"Ġfore":1754,"pportun":1755,"Ġeasy":1756,"uture":1757,"ances":1758,"Ġhold":1759,"ĠCar":1760,"ands":1761,"rop":1762,"Ġtre":1763,"fort":1764,"Ġwebsite":1765,"Ġmusic":1766,"Ġquality":1767,"Ġlim":1768,"ique":1769,"Ġmajor":1770,"oice":1771,"Ġbased":1772,"Ġreturn":1773,"Ġleast":1774,"Ġwent":1775,"Ġnon":1776,"Ġmillion":1777,"oor":1778,"AT":1779,"Ġelect":1780,"Ġthought":1781,"atic":1782,"Ġactually":1783,"duct":1784,"Ġfocus":1785,"Ġmind":1786,"aff":1787,"osed":1788,"Ġeduc":1789,"ĠAm":1790,"Ġvisit":1791,"orts":1792,"ript":1793,"ĠJohn":1794,"fer":1795,"Ġ|":1796,"Ġbenef":1797,"Ġcomes":1798,"Ġtook":1799,"Ġdoesn":1800,"'ve":1801,"Ġfav":1802,"for":1803,"cially":1804,"ians":1805,"ĠMy":1806,"AR":1807,"Ġacross":1808,"most":1809,"Ġyoung":1810,"wh":1811,"Ġey":1812,"ĠSu":1813,"Ġcharact":1814,"lement":1815,"idd":1816,"Ġopportun":1817,"ones":1818,"Ġcreate":1819,"Ġpercent":1820,"Ġla":1821,"Ġmom":1822,"aps":1823,"not":1824,"mber":1825,"Ġanal":1826,"ched":1827,"ides":1828,"Ġclear":1829,"ully":1830,"Ġparticular":1831,"ches":1832,"uro":1833,"Ġfund":1834,"Ġonce":1835,"Ġdeal":1836,"wards":1837,"Ġlow":1838,"Ġorig":1839,"ĠRep":1840,"Ġquick":1841,"ama":1842,"ĠApp":1843,"OR":1844,"ĠSte":1845,"Ġstarted":1846,"Ġ--":1847,"Ġwon":1848,"app":1849,"There":1850,"Ġmult":1851,"Ġinvol":1852,"Ġmaterial":1853,"crib":1854,"ape":1855,"vironment":1856,"Ġcontact":1857,"yle":1858,"mm":1859,"Ġeconom":1860,"Ġhappen":1861,"Ġyet":1862,"book":1863,"ony":1864,"aken":1865,"Ġsoft":1866,"urther":1867,"Ġce":1868,"AN":1869,"isk":1870,"Ġnet":1871,"âĢĵ":1872,"Ġdevelopment":1873,"Ġreason":1874,"Ġcity":1875,"Ġfuture":1876,"Ġexample":1877,"Ġlater":1878,"ference":1879,"uff":1880,"arr":1881,"Ġlink":1882,"Ġess":1883,"Ġearly":1884,"Ġcut":1885,"Ġtold":1886,"room":1887,"lf":1888,"Ġhours":1889,"Ġspecific":1890,"ai":1891,"Ġtem":1892,"lished":1893,"ulation":1894,"Ġbring":1895,"Ġvers":1896,"Ġfriends":1897,"ograph":1898,"Ġmonths":1899,"Ġstudy":1900,"ĠÂ":1901,"Ġredu":1902,"Ġident":1903,"ĠMed":1904,"ips":1905,"Ġstrong":1906,"load":1907,"ĠUnited":1908,"Ġfive":1909,"pro":1910,"Ġpar":1911,"Ġperfect":1912,"Ġhuman":1913,"ĠCo":1914,"ister":1915,"Ġheart":1916,"Ġbeaut":1917,"ĠThese":1918,"use":1919,"Ġshare":1920,"Ġtyp":1921,"Ġhig":1922,"ges":1923,"Ġkey":1924,"Ġcomb":1925,"ource":1926,"che":1927,"iday":1928,"And":1929,"Ġknown":1930,"An":1931,"Ġwa":1932,"ĠSy":1933,"Ġclose":1934,"ift":1935,"Ġbegin":1936,"eb":1937,"Ġ14":1938,"Ġappear":1939,"Ġcover":1940,"Ġvideo":1941,"lling":1942,"Ġtax":1943,"Ġpress":1944,"Ġrequire":1945,"cle":1946,"Ġstep":1947,"ateg":1948,"Ġ16":1949,"Ġproblem":1950,"Ġbelow":1951,"Ġitem":1952,"resent":1953,"Ġhot":1954,"ĠBr":1955,"ĠState":1956,"ster":1957,"ĠPr":1958,"Ġauthor":1959,"Ġpolit":1960,"ober":1961,"ights":1962,"Ġemail":1963,"ino":1964,"ĠIntern":1965,"Ġcompan":1966,"oon":1967,"Ġrele":1968,"ĠOne":1969,"sw":1970,"Ġfield":1971,"Ġdeli":1972,"Ġet":1973,"Ġpage":1974,"par":1975,"ources":1976,"icy":1977,"reet":1978,"oose":1979,"urity":1980,"ĠWor":1981,"utions":1982,"osp":1983,"'ll":1984,"Ġpack":1985,"oard":1986,"de":1987,"ĠX":1988,"But":1989,"Ġdiscuss":1990,"Ġcompet":1991,"ĠNe":1992,"Ġeverything":1993,"Ġchall":1994,"Ġener":1995,"Ġvari":1996,"iod":1997,"lege":1998,"illed":1999,"Ġant":2000,"ĠEn":2001,"hod":2002,"idence":2003,"itor":2004,"unch":2005,"ilities":2006,"Ġpriv":2007,"Ġprob":2008,"How":2009,"acy":2010,"Ġsound":2011,"Ġgiven":2012,"Ġhistory":2013,"Ġface":2014,"ned":2015,"Ġwalk":2016,"though":2017,"15":2018,"eral":2019,"Ġrelations":2020,"ĠHowever":2021,"Ġpurch":2022,"ĠCont":2023,"Ġwhole":2024,"ĠInst":2025,"Ġindustry":2026,"ĠDo":2027,"ball":2028,"ler":2029,"ourn":2030,"Ġminutes":2031,"Ġgames":2032,"Ġcult":2033,"Ġquestion":2034,"Ġpie":2035,"Ġrespons":2036,"When":2037,"Ġpick":2038,"ilar":2039,"Ġseen":2040,"Ġtot":2041,"--":2042,"Ġens":2043,"Ġspace":2044,"Ġwhether":2045,"rew":2046,"ĠYork":2047,"Ġsingle":2048,"On":2049,"Ġ/":2050,"Ġamong":2051,"Ġsomeone":2052,"Ġage":2053,"ilt":2054,"Ġbelieve":2055,"ural":2056,"Ġwind":2057,"Ġstay":2058,"aces":2059,"Ġaddress":2060,"ensive":2061,"ners":2062,"Ġago":2063,"ply":2064,"Ġtaking":2065,"Ġsci":2066,"Ġmor":2067,"go":2068,"pecially":2069,"atural":2070,"Ġcontent":2071,"selves":2072,"Ġsuper":2073,"Ġbreak":2074,"ĠNot":2075,"Ch":2076,"new":2077,"Ġhalf":2078,"Ġmess":2079,"hers":2080,"tain":2081,"Ġ2012":2082,"Ġhope":2083,"rain":2084,"So":2085,"ided":2086,"rict":2087,"Ġste":2088,"ibility":2089,"ued":2090,"ison":2091,"ĠServ":2092,"Ġenc":2093,"Ġamount":2094,"Ġ100":2095,"Ġvol":2096,"Ġclaim":2097,"mb":2098,"ĠMc":2099,"ĠMe":2100,"Ġmedia":2101,"ctor":2102,"ging":2103,"ggest":2104,"abor":2105,"play":2106,"AS":2107,"Ġseries":2108,"Ġanything":2109,"fic":2110,"Ġ13":2111,"Ġpub":2112,"ĠCount":2113,"ogn":2114,"Ġprice":2115,"imate":2116,"Ġenvironment":2117,"af":2118,"Ġcommon":2119,"iously":2120,"Ġissues":2121,"Ġphys":2122,"irm":2123,"Ġgirl":2124,"fully":2125,"Ġjo":2126,"Ġfre":2127,"ental":2128,"Ġdue":2129,"Ġclean":2130,"Ġconcer":2131,"Ġabove":2132,"Ġfall":2133,"ĠCal":2134,"ledge":2135,"iver":2136,"Ġstore":2137,"Ġcompanies":2138,"Ġtool":2139,"Ġ17":2140,"Ġcred":2141,"Ġmanag":2142,"Ġcra":2143,"Ġmot":2144,"Ġrecomm":2145,"IS":2146,"rown":2147,"EN":2148,"13":2149,"18":2150,"dd":2151,"Ġquestions":2152,"Ġrecommend":2153,"Ġsex":2154,"Ġplease":2155,"Ġfront":2156,"ĠComp":2157,"Ġbad":2158,"ĠGu":2159,"Ġresults":2160,"urch":2161,"Ġenergy":2162,"irt":2163,"Ġeff":2164,"ancial":2165,"Ġidea":2166,"gle":2167,"Ġtechnology":2168,"Ġconsider":2169,"Ġaud":2170,"Ġport":2171,"ille":2172,"Ġmeas":2173,"Ġrange":2174,"Ġperiod":2175,"Ġblog":2176,"16":2177,"Ġwatch":2178,"Ġcrit":2179,"Ġalmost":2180,"Re":2181,"Ġ24":2182,"Ġz":2183,"Ġwond":2184,"Ġeither":2185,"ĠEuro":2186,"AL":2187,"Ġsuggest":2188,"back":2189,"asing":2190,"Ġbuilding":2191,"vent":2192,"ED":2193,"come":2194,"ĠCity":2195,"cript":2196,"Ġworks":2197,"uation":2198,"Ġsearch":2199,"Ġbar":2200,"200":2201,"ators":2202,"Ġthird":2203,"Ġsix":2204,"//":2205,"Ġfurther":2206,"Ġblack":2207,"Ġaff":2208,"ĠStates":2209,"Ġ25":2210,"itted":2211,"Ġtravel":2212,"ĠPres":2213,"elt":2214,"ĠOur":2215,"Ġcompl":2216,"Ġentire":2217,"ams":2218,"ried":2219,"used":2220,"Ġcomput":2221,"org":2222,"anks":2223,"Ġeveryone":2224,"Ġcal":2225,"Ġpoints":2226,"Ġtaken":2227,"ĠGo":2228,"Ġcir":2229,"yl":2230,"ask":2231,"14":2232,"Ġland":2233,"Ġnecess":2234,"ĠYour":2235,"Ġtrying":2236,"rodu":2237,"Ġfilm":2238,"://":2239,"Ġbrand":2240,"ples":2241,"Ġdeb":2242,"Ġdou":2243,"ĠMin":2244,"lex":2245,"IT":2246,"ĠChe":2247,"Ġlikely":2248,"ites":2249,"ung":2250,"ively":2251,"cell":2252,"Ġpict":2253,"Ġtype":2254,"Ġrelationship":2255,"Ġtrack":2256,"Ġmiss":2257,"vert":2258,"Ġself":2259,".)":2260,"Ġdocu":2261,"Ġ#":2262,"rie":2263,"ĠNational":2264,"oid":2265,"omes":2266,"chie":2267,"obal":2268,"Ġespecially":2269,"ili":2270,"Ġtraining":2271,"Ġwriting":2272,"Ġfavor":2273,"Ġrepl":2274,"Ġfeatures":2275,"Ġdel":2276,"Ġwanted":2277,"Ġvalue":2278,"umb":2279,"ficult":2280,"time":2281,"Ġmag":2282,"Ġneeded":2283,"Ġareas":2284,"resh":2285,"ĠJan":2286,"Ġcustomers":2287,"oved":2288,"gest":2289,"my":2290,"ops":2291,"ires":2292,"Ġsimple":2293,"ume":2294,"Ġ:":2295,"iol":2296,"Ġcard":2297,"Ġdig":2298,"ĠTw":2299,"Ġsent":2300,"opy":2301,"Ġpret":2302,"ially":2303,"aur":2304,"Ġ50":2305,"ĠAfter":2306,"Ġele":2307,"Ġprotect":2308,"Ġspend":2309,"Ġoffers":2310,"arning":2311,"Ġrather":2312,"Ġquite":2313,"Ġmanagement":2314,"Ġ2013":2315,"Ġhowever":2316,"itch":2317,"ĠSchool":2318,"Ġimprove":2319,"25":2320,"Ġvarious":2321,"Ġweb":2322,"Ġsignific":2323,"ĠGr":2324,"year":2325,"Ġcell":2326,"Ġexc":2327,"Ġissue":2328,"Ġoffice":2329,"yn":2330,"Ġcoming":2331,"ĠEurope":2332,"Ġrisk":2333,"gress":2334,"Ġmethod":2335,"ication":2336,"Ġparticip":2337,"ification":2338,"ĠWorld":2339,"Ġasked":2340,"ruction":2341,"IC":2342,"ĠMr":2343,"Ġdifficult":2344,"Ġelse":2345,"Ġoil":2346,"itting":2347,"Ġperformance":2348,"Ġhost":2349,"Ġred":2350,"ĠNorth":2351,"Ġinstall":2352,"To":2353,"Ġabs":2354,"Ġexist":2355,"fact":2356,"Ġparent":2357,"Ġtext":2358,"Ġsimply":2359,"Ġprobably":2360,"ises":2361,"ĠSec":2362,"ĠPe":2363,"ĠGe":2364,"ĠEd":2365,"Ġways":2366,"iful":2367,"ĠSouth":2368,"Ġrequired":2369,"Ġevents":2370,"US":2371,"Ġfoot":2372,"Ġadded":2373,"Ġpretty":2374,"Ġliving":2375,"angu":2376,"Ġbehind":2377,"17":2378,"ze":2379,"roll":2380,"Ġansw":2381,"ĠHis":2382,"Ġaccording":2383,"Ġprovides":2384,"Ġcontinue":2385,"where":2386,"Ġsoon":2387,"icated":2388,"Ġinfl":2389,"minist":2390,"Ġwhite":2391,"Ġwords":2392,"rug":2393,"Ġgra":2394,"Ġproblems":2395,"Ġexperien":2396,"ĠDep":2397,"Ġstaff":2398,"empt":2399,"Ġnothing":2400,"aching":2401,"__":2402,"apt":2403,"Ġcharacter":2404,"eth":2405,"val":2406,"ĠWill":2407,"Ġprofessional":2408,"Ġdeath":2409,"itten":2410,"Ġposition":2411,"ole":2412,"Ġdam":2413,"Ġisn":2414,"Ġinit":2415,"Ġupd":2416,"ibr":2417,"Ġmatter":2418,"Ġaction":2419,"head":2420,"itional":2421,"ables":2422,"Ġbed":2423,"Ġhy":2424,"Ġrepresent":2425,"reme":2426,"ĠPart":2427,"Ġprep":2428,"Ġhon":2429,"ĠGl":2430,"ĠQu":2431,"Ġdeterm":2432,"Ġprovided":2433,"Ġfail":2434,"ules":2435,"Ġassist":2436,"lt":2437,"Ġsize":2438,"ĠSm":2439,"Ġrole":2440,"oe":2441,"Ġground":2442,"Ġfinal":2443,"olution":2444,"ĠPer":2445,"pper":2446,"amer":2447,"ief":2448,"Ġconsum":2449,"Ġsimilar":2450,"nes":2451,"pril":2452,"Ġweeks":2453,"Ġsubject":2454,"ĠTra":2455,"Ġpopular":2456,"obile":2457,"clus":2458,"ĠAmerica":2459,"ĠDr":2460,"Ġimpact":2461,"ival":2462,"ĠAust":2463,"ĠPark":2464,"urance":2465,"Ġproperty":2466,"ĠCenter":2467,"Ġaccept":2468,"Ġroad":2469,"Ġinj":2470,"Ġphone":2471,"Ġswe":2472,"Ġtou":2473,"Ġupon":2474,"Ġconnect":2475,"Ġforward":2476,"Ġannoun":2477,"ĠMark":2478,"ĠDes":2479,"Ġyourself":2480,"Ġtakes":2481,"anc":2482,"ĠOct":2483,"ĠBar":2484,"AC":2485,"Ġsignificant":2486,"ĠAf":2487,"ades":2488,"ĠJust":2489,"Ġnatural":2490,"Ġincludes":2491,"Ġtrue":2492,"ĠAb":2493,"ĠPol":2494,"ees":2495,"ĠTH":2496,"Ġinn":2497,"Ġrecent":2498,"ĠJu":2499,"Ġstat":2500,"Ġlog":2501,"verage":2502,"Al":2503,"RE":2504,"Ġparty":2505,"aily":2506,"oph":2507,"icro":2508,"Ġdate":2509,"iet":2510,"reg":2511,"ĠCor":2512,"Ġselect":2513,"Ġrad":2514,"Ġcook":2515,"uge":2516,"Ġfire":2517,"Ġ2011":2518,"medi":2519,"Ġanim":2520,"Ġoutside":2521,"Ġgeneral":2522,"Ġincrease":2523,"Ġunique":2524,"Ġchanges":2525,"Ġseems":2526,"na":2527,"Ġachie":2528,"Ġrequest":2529,"ĠKe":2530,"Ġassoci":2531,"arget":2532,"Ġgen":2533,"Ġsend":2534,"Ġextra":2535,"overed":2536,"Ġcannot":2537,"Ġsong":2538,"Ġkids":2539,"Ġwide":2540,"Ġknowledge":2541,"ĠDis":2542,"Ġregard":2543,"Ġshows":2544,"astic":2545,"Ġrecogn":2546,"Ġfinancial":2547,"ada":2548,"ĠSome":2549,"Ġlonger":2550,"Ġheld":2551,"Ġofficial":2552,"Ġfig":2553,"Ġeducation":2554,"arter":2555,"Ġrespect":2556,"Ġcreated":2557,"Ġstop":2558,"Ġtit":2559,"Ġarticle":2560,"Ġmodel":2561,"ufact":2562,"Ġsum":2563,"Ġestab":2564,"ĠAug":2565,"Ġattack":2566,"put":2567,"ring":2568,"Ġhtt":2569,"Ġmember":2570,"Ġsafe":2571,"Ġloss":2572,"22":2573,"ĠMarch":2574,"Ġfunction":2575,"Ġcouple":2576,"Ġopp":2577,"ĠAg":2578,"aving":2579,"Ġsystems":2580,"Ġ2010":2581,"Ã©":2582,"idge":2583,"ID":2584,"Ġrunning":2585,"ude":2586,"ĠCounty":2587,"Ġinde":2588,"eter":2589,"Ġspeak":2590,"Ġexam":2591,"60":2592,"Ġleave":2593,"atory":2594,"Ġagree":2595,"Ġtreatment":2596,"Ġdog":2597,"Ġmoment":2598,"ĠAct":2599,"Ġsaw":2600,"Ġcoll":2601,"oura":2602,"anced":2603,"Ġusually":2604,"Ġhit":2605,"Ġfa":2606,"Ġstri":2607,"sc":2608,"ĠPresident":2609,"Ġhigher":2610,"Ġsecurity":2611,"Ġ198":2612,"Ġrate":2613,"Ġcollect":2614,"Ġdesigned":2615,"face":2616,"ana":2617,"Ġsoftware":2618,"Ġplayers":2619,"iter":2620,"Ġskin":2621,"Ġcontrib":2622,"Ġcolor":2623,"ales":2624,"Ġanyone":2625,"amed":2626,"Ġbott":2627,"uary":2628,"Ġbase":2629,"Ġdetails":2630,"Ġopportunity":2631,"ĠJune":2632,"Ġsens":2633,"Ġoptions":2634,"Ġoriginal":2635,"ĠDav":2636,"Ġreading":2637,"Ġill":2638,"hib":2639,"oud":2640,"Ġready":2641,"gu":2642,"Ġdescrib":2643,"aign":2644,"Ġlo":2645,"Ġnorm":2646,"Ġsle":2647,"Ġworth":2648,"erc":2649,"Ġdefin":2650,"Ġwar":2651,"sy":2652,"Ġbox":2653,"Ġthroughout":2654,"ffe":2655,"Ġbeautiful":2656,"Ġgrowth":2657,"fl":2658,"izing":2659,"earch":2660,"ĠOb":2661,"Ġleaders":2662,"Ġpotential":2663,"ĠIm":2664,"ĠHouse":2665,"Ġpaper":2666,"irit":2667,"aced":2668,"Ġlat":2669,"Ġinside":2670,"Ġx":2671,"Ġtable":2672,"Ġreceive":2673,"Ġengine":2674,"Ġnational":2675,"Ġreceived":2676,"ĠStud":2677,"Ġsense":2678,"Ġnetwork":2679,"rem":2680,"ĠDay":2681,"Ġlay":2682,"ĠBy":2683,"Ġneg":2684,"Ġpatients":2685,"ĠWest":2686,"Ġregular":2687,"Ġbooks":2688,"oogle":2689,"rect":2690,"Ġcause":2691,"Ġmedical":2692,"based":2693,"Ġfast":2694,"Ġprint":2695,"iddle":2696,"Ġtotal":2697,"Ġlate":2698,"Ġchoose":2699,"Ġlives":2700,"Ġblood":2701,"Ġexpress":2702,"ese":2703,"Ġemb":2704,"ederal":2705,"Ġdom":2706,"ĠPa":2707,"Ġensure":2708,"Ġetc":2709,"mit":2710,"Ġsales":2711,"Ġrecently":2712,"Ġball":2713,"Ġthemselves":2714,"Ġgoal":2715,"right":2716,"ashing":2717,"Ġprior":2718,"Ġmach":2719,"ĠNow":2720,"Ġcoun":2721,"Ġpark":2722,"Ġlost":2723,"off":2724,"iff":2725,"Ġstra":2726,"ĠSpe":2727,"Ġusers":2728,"Ġapplication":2729,"Ġcomfort":2730,"âĢ¢":2731,"ciety":2732,"ĠApril":2733,"ening":2734,"aining":2735,"Ġhappy":2736,"Ġ,":2737,"Ġformer":2738,"Ġdest":2739,"Ġstruct":2740,"Ġclick":2741,"Ġfit":2742,"Ġdownload":2743,"Ġversion":2744,"iber":2745,"ĠSept":2746,"Ġcourt":2747,"Ġwonder":2748,"bor":2749,"ysis":2750,"Ġ...":2751,"ament":2752,"cast":2753,"Ġpric":2754,"ĠInc":2755,"oes":2756,"like":2757,"cil":2758,"Ġcurrently":2759,"Ġpolicy":2760,"aging":2761,"oke":2762,"Ġimm":2763,"Ġaffect":2764,"Ġcontract":2765,"Ġdeep":2766,"ague":2767,"Ġtown":2768,"Ġep":2769,"Ġdepend":2770,"Ġmass":2771,"istic":2772,"Ġviol":2773,"Ġcareer":2774,"ĠEl":2775,"Ġitself":2776,"Ġnice":2777,"Ġitems":2778,"Ġattend":2779,"Ġhands":2780,"ĠDon":2781,"Ġpolitical":2782,"Ġmorning":2783,"ached":2784,"pri":2785,"Ġpers":2786,"Ġdecision":2787,"ceed":2788,"aturday":2789,"ĠReg":2790,"ham":2791,"artment":2792,"Ġdise":2793,"Ġterms":2794,"Ġobject":2795,"Ġboard":2796,"Ġprivate":2797,"icles":2798,"Ġple":2799,"With":2800,"Ġpractice":2801,"Ġhair":2802,"Ġobs":2803,"ĠHigh":2804,"Ġexact":2805,"adem":2806,"ha":2807,"40":2808,"ournal":2809,"inary":2810,"Ġvia":2811,"ĠArt":2812,"uth":2813,"Ġdeg":2814,"lier":2815,"Ġgoes":2816,"ological":2817,"Ġworked":2818,"Ġadditional":2819,"ground":2820,"21":2821,"Ġut":2822,"ĠHar":2823,"Ġmeeting":2824,"Ġbal":2825,"Ġrights":2826,"ences":2827,"Ġcredit":2828,"Ġprograms":2829,"Ġdrive":2830,"Ġcases":2831,"ek":2832,"hel":2833,"Ġlearning":2834,"Ġquickly":2835,"Ġmother":2836,"irth":2837,"Ġproduction":2838,"atform":2839,"action":2840,"OT":2841,"ĠMore":2842,"Ġblock":2843,"ett":2844,"Ġability":2845,"My":2846,"aby":2847,"Ġincluded":2848,"ĠMich":2849,"Ġstyle":2850,"Ġteac":2851,"Ġprim":2852,"Ġlevels":2853,"ux":2854,"Ġri":2855,"Ġtarget":2856,"Ġcustomer":2857,"Ġcele":2858,"Ġlangu":2859,"Ġcomputer":2860,"OU":2861,"imum":2862,"Ġwall":2863,"Our":2864,"Ġ21":2865,"Ġsat":2866,"Ġplaying":2867,"Ġremember":2868,"oring":2869,"Ġwasn":2870,"ĠJuly":2871,"ession":2872,"Ġ40":2873,"Ġbegan":2874,"Ġ2014":2875,"haps":2876,"airs":2877,"erve":2878,"Ġactivities":2879,"All":2880,"Ġappe":2881,"AM":2882,"ĠWar":2883,"Ġpan":2884,"Ġwoman":2885,"ĠHealth":2886,"rel":2887,"Ġclos":2888,"Ġbecame":2889,"Ġconditions":2890,"Ġcool":2891,"Ġchance":2892,"ny":2893,"wood":2894,"ming":2895,"Ġapproach":2896,"hood":2897,"Ġinvolved":2898,"azing":2899,"Ġcampaign":2900,"itary":2901,"Ġautom":2902,"Ġmyself":2903,"Ġcountries":2904,"ecut":2905,"asons":2906,"ĠPar":2907,"iction":2908,"ĠUs":2909,"Ġsqu":2910,"Ġlegal":2911,"Ġmix":2912,"Ġwritten":2913,"Ġur":2914,"rought":2915,"Ġfight":2916,"ĠWhile":2917,"light":2918,"Ġshall":2919,"ĠFeb":2920,"Ġvict":2921,"Ġsummer":2922,"Ġgrad":2923,"unday":2924,"Ġinstead":2925,"Ġintrodu":2926,"OS":2927,"Ġinsp":2928,"ĠOff":2929,"uses":2930,"ĠChar":2931,"Ġarri":2932,"Ġmanufact":2933,"24":2934,"Ġround":2935,"Ġjud":2936,"Ġlatest":2937,"Ġbuilt":2938,"Ġskills":2939,"Ġ2009":2940,"Ġwrite":2941,"....":2942,"Ġnecessary":2943,"su":2944,"ĠSan":2945,"Ġmatch":2946,"edd":2947,"attle":2948,"ications":2949,"ondon":2950,"Ġeasily":2951,"Ġbur":2952,"ĠAssoci":2953,"atives":2954,"Ġimmedi":2955,"ipment":2956,"ĠEm":2957,"onse":2958,"ĠEnglish":2959,"pose":2960,"Ġcand":2961,"Ġinvestig":2962,"Ġdraw":2963,"str":2964,"ĠFin":2965,"ĠBu":2966,"ĠBro":2967,"'d":2968,"At":2969,"Ġlooks":2970,"ĠSw":2971,"illing":2972,"ĠCour":2973,"Ġdecided":2974,"amb":2975,"ING":2976,"Ġdrug":2977,"ĠTV":2978,"reng":2979,"Ġscreen":2980,"Ġrelease":2981,"Ġ2016":2982,"Ġsurpr":2983,"Ġwrong":2984,"Ġgave":2985,"Ġpresident":2986,"ovember":2987,"Ġones":2988,"Ġrev":2989,"unt":2990,"Ġord":2991,"Ġcas":2992,"ĠOf":2993,"ray":2994,"just":2995,"ĠBrit":2996,"itter":2997,"Ġmention":2998,"Ġemer":2999,"Ġsell":3000,"Ġveh":3001,"Ġstandard":3002,"Ġfresh":3003,"That":3004,"Ġinternational":3005,"fficient":3006,"Ġpred":3007,"Ġweight":3008,"ĠDepartment":3009,"ĠVal":3010,"Ġattention":3011,"itc":3012,"hern":3013,"Ġcy":3014,"ĠInt":3015,"Ġpropos":3016,"ĠHere":3017,"Ġsaf":3018,"Ġbank":3019,"Ġlab":3020,"ought":3021,"Ġsil":3022,"Ġstock":3023,"Ġattempt":3024,"iam":3025,"Ġfelt":3026,"Ġgroups":3027,"Ġlower":3028,"Ġbi":3029,"ĠHer":3030,"Ġexcept":3031,"Ġglobal":3032,"Ġsett":3033,"Sh":3034,"Ġtour":3035,"ĠCalif":3036,"Ġrelated":3037,"Ġsun":3038,"oom":3039,"Ġsus":3040,"Ġhol":3041,"Ġuser":3042,"Ġideas":3043,"itte":3044,"aught":3045,"Ġleading":3046,"Ġapply":3047,"Ġeyes":3048,"ĠMon":3049,"iple":3050,"onday":3051,"ester":3052,"Ġfavorite":3053,"Ġmovie":3054,"ĠAustral":3055,"Ph":3056,"erous":3057,"mon":3058,"Ġstudent":3059,"kend":3060,"ĠFriday":3061,"Ġhear":3062,"alt":3063,"ĠMus":3064,"ĠRed":3065,"Ġencoura":3066,"Ġsaying":3067,"Ġprojects":3068,"Ġchoice":3069,"rote":3070,"ĠPat":3071,"ald":3072,"ris":3073,"Ġhuge":3074,"Ġclients":3075,"Ġaverage":3076,"ests":3077,"ĠAfric":3078,"Ġimage":3079,"bit":3080,"Ġfile":3081,"Ġhor":3082,"Ġsn":3083,"ĠAugust":3084,"Ġintegr":3085,"Ġcosts":3086,"Ġallows":3087,"ivity":3088,"Ġhimself":3089,"23":3090,"Ġaw":3091,"Ġtouch":3092,"Ġdocument":3093,"oul":3094,"ĠBlack":3095,"Ġeffective":3096,"Ġ23":3097,"Ġplatform":3098,"Ġresources":3099,"Ġ2008":3100,"Ġdefe":3101,"Ġmodern":3102,"ĠGerm":3103,"Ġdisplay":3104,"ĠFace":3105,"Ġstru":3106,"Ġpolice":3107,"press":3108,"idered":3109,"Be":3110,"aves":3111,"Ġreported":3112,"avy":3113,"ĠSci":3114,"Ġsold":3115,"Ġgets":3116,"Ġsepar":3117,"verse":3118,"Ġparts":3119,"cription":3120,"Ġmid":3121,"Ġtrust":3122,"Ġboy":3123,"ule":3124,"EC":3125,"Ġmarketing":3126,"Ġparents":3127,"Ġbud":3128,"enty":3129,"cious":3130,"Ġcross":3131,"ky":3132,"Ġfair":3133,"aly":3134,"ornia":3135,"Cl":3136,"Ġadminist":3137,"70":3138,"Ġdiv":3139,"Ġvariety":3140,"Ġrout":3141,"\".":3142,"Ġ2015":3143,"Ġplayed":3144,"One":3145,"Ġplans":3146,"Ġpull":3147,"key":3148,"Ġfeed":3149,"vey":3150,"aste":3151,"80":3152,"Ġanswer":3153,"Ġnature":3154,"ĠJanuary":3155,"hold":3156,"ĠSen":3157,"ĠOctober":3158,"Ġled":3159,"Ġknew":3160,"Ġthinking":3161,"Ġcenter":3162,"ville":3163,"sec":3164,"aged":3165,"ĠSaturday":3166,"Ġdead":3167,"ĠAdd":3168,"Ġdaily":3169,"Ġexpected":3170,"cip":3171,"ĠNews":3172,"Ġpiece":3173,"ĠSch":3174,"iring":3175,"ĠFrom":3176,"Ġdrink":3177,"wise":3178,"ns":3179,"Ġgives":3180,"Ġ22":3181,"Ġcomment":3182,"usiness":3183,"ĠThen":3184,"Ġinteresting":3185,"Ġgiving":3186,"ĠLondon":3187,"Ġdark":3188,"Ġheard":3189,"aker":3190,"OM":3191,"Ġdepart":3192,"apan":3193,"ĠAc":3194,"ĠSer":3195,"ET":3196,"ension":3197,"enge":3198,"ĠSeptember":3199,"Ġcompletely":3200,"cember":3201,"Ġsource":3202,"Ġsafety":3203,"Ġoption":3204,"ĠUK":3205,"No":3206,"Ġtele":3207,"Ġconduct":3208,"Ġpurchase":3209,"Ġprevent":3210,"pite":3211,"isc":3212,"iding":3213,"Ġexcell":3214,"Ġdigital":3215,"Ġpositive":3216,"itute":3217,"Ġ2017":3218,"Ġenter":3219,"uel":3220,"Ġtal":3221,"Ġstreng":3222,"mission":3223,"Ġdecl":3224,"Ġgreen":3225,"Ġdoor":3226,"ĠInternational":3227,"Ġpath":3228,"Ġsection":3229,"error":3230,"Ġbenefits":3231,"itution":3232,"Ġarch":3233,"ĠDem":3234,"Ġcat":3235,"ishing":3236,"ocr":3237,"Ġchalleng":3238,"Ġpublished":3239,"ĠNet":3240,"Ġtypes":3241,"After":3242,"Ġstarting":3243,"aries":3244,"ĠAut":3245,"iles":3246,"Ġinflu":3247,"Ġsave":3248,"Ġlif":3249,"Ġdetail":3250,"isions":3251,"ption":3252,"ashington":3253,"ilies":3254,"Ġstates":3255,"king":3256,"ĠSunday":3257,"Ġlocated":3258,"Ġvac":3259,"ma":3260,"Ġnation":3261,"gar":3262,"mercial":3263,"Ġspeed":3264,"Ġconsidered":3265,"omen":3266,"IL":3267,"itation":3268,"Ġslow":3269,"Ġbrought":3270,"ĠGoogle":3271,"ĠCons":3272,"AP":3273,"ĠNovember":3274,"ĠJe":3275,"ospital":3276,"Ġsites":3277,"ened":3278,"sp":3279,"Ġsometimes":3280,"Ġnote":3281,"Ġvot":3282,"ĠDirect":3283,"zy":3284,"yond":3285,"imately":3286,"Ġflow":3287,"Ġprin":3288,"Ġdirectly":3289,"Ġproviding":3290,"Ġorganization":3291,"ael":3292,"orge":3293,"www":3294,"Ġamazing":3295,"Ġinterview":3296,"Ġsche":3297,"board":3298,"Ġlocation":3299,"Ġwood":3300,"Ġfell":3301,"Ġsituation":3302,"Ġdevice":3303,"Ġreleased":3304,"rs":3305,"Ġlic":3306,"ivil":3307,"Ġplant":3308,"Ġbehav":3309,"Ġsubs":3310,"ĠCalifornia":3311,"99":3312,"Ġcollection":3313,"Ġrock":3314,"Ġinsurance":3315,"urt":3316,"Ġcopy":3317,"Ġeconomic":3318,"Ġavoid":3319,"cies":3320,"Ġstuff":3321,"Ġextreme":3322,"pre":3323,"band":3324,"idents":3325,"Ġmessage":3326,"Ġcamer":3327,"Ġmultiple":3328,"Ġconsist":3329,"ĠâĢ¦":3330,"ĠRead":3331,"ica":3332,"Ġbroad":3333,"Ġhighly":3334,"Ġpen":3335,"ĠGener":3336,"Ġcondition":3337,"Ġfeature":3338,"Ġstories":3339,"Ġ28":3340,"ength":3341,"ford":3342,"Ġconvers":3343,"ibly":3344,"ĠStreet":3345,"aint":3346,"ĠAcc":3347,"erved":3348,"agn":3349,"Ġqual":3350,"Ġoffe":3351,"Ġplayer":3352,"Ġresponse":3353,"Ġfather":3354,"ĠAre":3355,"Ġlooked":3356,"Ġturned":3357,"ĠCommun":3358,"EL":3359,"ursday":3360,"aches":3361,"Ġtowards":3362,"ari":3363,"ruary":3364,"name":3365,"Ġreach":3366,"Ġimplement":3367,"Ġanalysis":3368,"Ġweekend":3369,"arily":3370,"ĠSim":3371,"Ġwarm":3372,"Ġcup":3373,"ĠFacebook":3374,"Ġlimited":3375,"Ġcelebr":3376,"Ġhour":3377,"add":3378,"Ġrestaur":3379,"Ġindividuals":3380,"Ġson":3381,"ĠFirst":3382,"Ġfine":3383,"sych":3384,"ĠPlease":3385,"ancy":3386,"ĠPost":3387,"ĠWind":3388,"Ġprogress":3389,"Ġphysical":3390,"Ġequipment":3391,"Ġfloor":3392,"Ġlanguage":3393,"Ġlack":3394,"ara":3395,"ĠUp":3396,"Ġeffects":3397,"Ġadult":3398,"Ġspent":3399,"Ġeffort":3400,"Ġtools":3401,"):":3402,"Ġconcept":3403,"uesday":3404,"col":3405,"Ġreve":3406,"Ġ26":3407,"ednes":3408,"ĠAir":3409,"rences":3410,"Ġdream":3411,"ĠLa":3412,"ĠAN":3413,"Ġadvant":3414,"ĠKing":3415,"Ġcapt":3416,"Ġdisease":3417,"Ġwrote":3418,"Ġfix":3419,"Ġfarm":3420,"Ġmobile":3421,"Ġimag":3422,"Ġband":3423,"Ġregul":3424,"Ġfirm":3425,"more":3426,"Ġhelps":3427,"Ġ*":3428,"Ġnearly":3429,"raft":3430,"aughter":3431,"Ġaware":3432,"ida":3433,"ography":3434,"ĠObama":3435,"rast":3436,"ram":3437,"field":3438,"Ġorganiz":3439,"Ġ60":3440,"Ġhttp":3441,"Ġplaces":3442,"Ġcomplex":3443,"Ġpartners":3444,"Ġregist":3445,"ĠWashington":3446,"âĢĿ.":3447,"Ġclub":3448,"Ġrace":3449,"Ġmaterials":3450,"Ġbirth":3451,"unk":3452,"They":3453,"Ġcertainly":3454,"Ġneigh":3455,"Ġdress":3456,"itely":3457,"Pro":3458,"ĠChina":3459,"Ġthreat":3460,"ĠPre":3461,"Ġsubst":3462,"uate":3463,"Ġsen":3464,"Ġfat":3465,"Ġ+":3466,"nds":3467,"Ġmount":3468,"Ġcollege":3469,"Ġdro":3470,"Ġmis":3471,"Ġgrowing":3472,"Ġtick":3473,"Ġemployees":3474,"uted":3475,"Ġhistor":3476,"Ġevidence":3477,"ittee":3478,"Ġphotos":3479,"ĠJapan":3480,"Ġdistrib":3481,"Ġcode":3482,"ĠService":3483,"zz":3484,"ĠCollege":3485,"ĠDecember":3486,"Ġcarry":3487,"bur":3488,"Ġge":3489,"Ġten":3490,"iment":3491,"Ġscore":3492,"Ġsolution":3493,"vin":3494,"ĠEvery":3495,"Ġcorrect":3496,"izes":3497,"Ġinnov":3498,"opping":3499,"Ġexerc":3500,"EO":3501,"olute":3502,"Ġult":3503,"sequ":3504,"antly":3505,"Ġbusinesses":3506,"ran":3507,"Ġtried":3508,"Ġgold":3509,"Ġfinally":3510,"Ġeye":3511,"Ġbeginning":3512,"ednesday":3513,"Ġdating":3514,"Ġkn":3515,"Ġtrip":3516,"ault":3517,"Ġcirc":3518,"ION":3519,"Ġeat":3520,"Ġded":3521,"ĠWell":3522,"Ġactivity":3523,"itchen":3524,"Ġrespond":3525,"Ġsuccessful":3526,"ĠDavid":3527,"ĠIndia":3528,"Ġtemper":3529,"Ġ27":3530,"ĠRepublic":3531,"Ġfully":3532,"ĠCoun":3533,"ĠLaw":3534,"Ġsort":3535,"Ġparticularly":3536,"ĠOut":3537,"Ġdemand":3538,"ares":3539,"Ġexpert":3540,"ipping":3541,"Ġwants":3542,"Ġachieve":3543,"bl":3544,"Ġdeveloped":3545,"bum":3546,"uk":3547,"Ex":3548,"BC":3549,"ĠMonday":3550,"Ġshot":3551,"Ġfeeling":3552,"ĠEast":3553,"Ġspot":3554,"Ġculture":3555,"Ġdifference":3556,"Ġtraditional":3557,"Ġdry":3558,"ruit":3559,"Ġaltern":3560,"Ġoccur":3561,"Ġbra":3562,"ĠII":3563,"oday":3564,"itable":3565,"Ġprevious":3566,"Ġindepend":3567,"Ġwife":3568,"body":3569,"Ġmat":3570,"Ġthous":3571,"arden":3572,"ĠGroup":3573,"ĠFree":3574,"Ġspirit":3575,"ords":3576,"Ġinterested":3577,"vant":3578,"?âĢĿ":3579,"oms":3580,"Ġwish":3581,"down":3582,"Ġwhose":3583,"Ġassess":3584,"ĠJes":3585,"wide":3586,"Ġdirector":3587,"Ġexactly":3588,"Ġpromot":3589,"Ġstress":3590,"het":3591,"Ġsleep":3592,"Ġshoot":3593,"ags":3594,"Ġfamilies":3595,"mitted":3596,"omb":3597,"Ġmaintain":3598,"Ġpaid":3599,"ĠMost":3600,"Ġstage":3601,"Ġimages":3602,"vest":3603,"reed":3604,"Ġaccom":3605,"Ġfeet":3606,"ĠWhite":3607,"rench":3608,"Ġstraight":3609,"aling":3610,"Ġgoals":3611,"ĠCourt":3612,"ls":3613,"arant":3614,"oming":3615,"Ġappl":3616,"ims":3617,"Ġplanning":3618,"Ġ2007":3619,"Ġmoving":3620,"PS":3621,"Ġ2018":3622,"Ġalone":3623,"Ġreports":3624,"Ġheat":3625,"wor":3626,"45":3627,"ĠWeb":3628,"Ġmaybe":3629,"Ġmilitary":3630,"mark":3631,"Ġtalking":3632,"ani":3633,"Ġfear":3634,"itiz":3635,"asc":3636,"ying":3637,"vis":3638,"Ġpurpose":3639,"ounds":3640,"Ġter":3641,"hest":3642,"ronic":3643,"ĠIN":3644,"rows":3645,"Ġbaby":3646,"Ġearlier":3647,"Ġanaly":3648,"ĠTechn":3649,"atever":3650,"Ġdemon":3651,"mas":3652,"Ġcreating":3653,"lin":3654,"Ġprices":3655,"35":3656,"ager":3657,"Ġpressure":3658,"oly":3659,"Ġprem":3660,"Ġteams":3661,"ĠTHE":3662,"duc":3663,"Ġseven":3664,"Ġhop":3665,"Ġappropri":3666,"Ġwait":3667,"Ġopportunities":3668,"Ġtitle":3669,"Ġver":3670,"Ġfans":3671,"Ġregion":3672,"ĠPaul":3673,"Ġscient":3674,"Ġwel":3675,"Ġdeliver":3676,"Ġannounced":3677,"Ġinform":3678,"venue":3679,"Ġconsult":3680,"rig":3681,"Ġcancer":3682,"Ġcharge":3683,"ĠPM":3684,"estern":3685,"ibrary":3686,"undred":3687,"ĠMor":3688,"Ġdoub":3689,"imin":3690,"Ġhous":3691,"ĠRuss":3692,"ĠEven":3693,"Ġschools":3694,"rial":3695,"chan":3696,"ategy":3697,"Ġ=":3698,"Ġdire":3699,"Ġdoll":3700,"ĠProf":3701,"Ġpicture":3702,"Ġrent":3703,"ĠAM":3704,"Ġuses":3705,"Ġincreased":3706,"Ġtur":3707,"rael":3708,"amm":3709,"Ġimpress":3710,"Ġeight":3711,"example":3712,"Ġshown":3713,"ĠEar":3714,"Ġexcellent":3715,"Ġhealthy":3716,"Ġroll":3717,"Ġstatement":3718,"Ġrules":3719,"orage":3720,"Ġmeaning":3721,"Here":3722,"Ġunderstanding":3723,"ils":3724,"Ġserious":3725,"OL":3726,"Ġbillion":3727,"ashion":3728,"set":3729,"Ġquarter":3730,"Ġsolutions":3731,"Ġer":3732,"Ġrelig":3733,"Ġremain":3734,"AD":3735,"Ġcorpor":3736,"She":3737,"ĠPal":3738,"Ġinstru":3739,"Ġproced":3740,"Ġtrade":3741,"By":3742,"pm":3743,"order":3744,"ancing":3745,"Ġnormal":3746,"cks":3747,"aled":3748,"ĠGreat":3749,"Ġcert":3750,"ĠFebruary":3751,"Ġemot":3752,"inner":3753,"Ġvoice":3754,"inger":3755,"ĠMet":3756,"ĠRom":3757,"Ġbeyond":3758,"ĠProgram":3759,"Ġpattern":3760,"Ġallowed":3761,"Ġsmart":3762,"Ġserve":3763,"Ġscience":3764,"Ġcateg":3765,"Ġopin":3766,"Ġnumbers":3767,"ĠBusiness":3768,"Ġacqu":3769,"Ġrequirements":3770,"Ġfrequ":3771,"Ġoverall":3772,"Ġgrand":3773,"Ġalthough":3774,"Ġapplications":3775,"Ġglass":3776,"iant":3777,"pen":3778,"Ġbenefit":3779,"que":3780,"isl":3781,"Ġstrugg":3782,"place":3783,"Ġchanged":3784,"ĠAlso":3785,"Ġcouldn":3786,"Ġcapital":3787,"Ġgas":3788,"dom":3789,"Ġextend":3790,"Ġund":3791,"ĠGreen":3792,"Ġloved":3793,"ube":3794,"Ġmiddle":3795,"Ġfederal":3796,"Ġstudies":3797,"Ġsurv":3798,"ĠSystem":3799,"Ġincreasing":3800,"Ġdevices":3801,"Ġbudget":3802,"Ġcomments":3803,"olf":3804,"Ġbill":3805,"anch":3806,"gen":3807,"New":3808,"Ġfem":3809,"ech":3810,"change":3811,"force":3812,"27":3813,"vision":3814,"isf":3815,"Ġpoor":3816,"Ġapart":3817,"icate":3818,"etic":3819,"ĠJack":3820,"Ġliter":3821,"Ġhappened":3822,"Ġrates":3823,"Is":3824,"well":3825,"Ġinvestment":3826,"mp":3827,"ĠInternet":3828,"ban":3829,"ĠTrans":3830,"Ġ197":3831,"Ġcandid":3832,"nded":3833,"ecutive":3834,"cause":3835,"Ġload":3836,"Ġden":3837,"Ġmax":3838,"Ġaward":3839,"ĠAssociation":3840,"Ġreduce":3841,"Ġforce":3842,"ĠÂ£":3843,"Ġmeasure":3844,"Ġ29":3845,"Ġadvice":3846,"Ġcommercial":3847,"Ġimmediately":3848,"ĠServices":3849,"ĠCanada":3850,"Ġble":3851,"ously":3852,"ĠIndian":3853,"Un":3854,"Ġmachine":3855,"arc":3856,"Ġpatient":3857,"Ġresponsible":3858,"IG":3859,"Ġlik":3860,"26":3861,"Ġjobs":3862,"iance":3863,"Ġadvert":3864,"ago":3865,"ooth":3866,"Ġmiles":3867,"iable":3868,"Ġconstruction":3869,"Ġchurch":3870,"DA":3871,"Ġreasons":3872,"ĠThursday":3873,"Ġcold":3874,"Ġstrateg":3875,"De":3876,"erry":3877,"Ġgone":3878,"Ġshop":3879,"Ġcontain":3880,"Ġowners":3881,"Ġoffered":3882,"ĠHome":3883,"Ġpet":3884,"ĠLet":3885,"Ġenh":3886,"Now":3887,"ĠIS":3888,"Ġalbum":3889,"28":3890,"Ġwww":3891,"Ġperhaps":3892,"lying":3893,"Ġtruly":3894,"Ġahead":3895,"ĠAss":3896,"Ġabsolute":3897,"reci":3898,"Ġclin":3899,"Ġcru":3900,"see":3901,"iling":3902,"Ġchallenge":3903,"While":3904,"Ġdefinitely":3905,"ĠOther":3906,"ĠBoard":3907,"ĠCong":3908,"house":3909,"Ġaspect":3910,"ĠTuesday":3911,"Ġgreater":3912,"Ġsale":3913,"Ġassociated":3914,"Ġdegree":3915,"ĠTex":3916,"Ġhelped":3917,"ĠIsrael":3918,"ĠInter":3919,"Ġbasis":3920,"Ġletter":3921,"ĠJesus":3922,"Ġnut":3923,"ĠGet":3924,"Ġreflect":3925,"ĠFe":3926,"rief":3927,"Ġactive":3928,"Ġhundred":3929,"Ġannual":3930,"ties":3931,"Ġtrou":3932,"Ġnamed":3933,"Ġguide":3934,"Ġdamage":3935,"iny":3936,"Ġfra":3937,"Ġessential":3938,"Ġ2019":3939,"ĠBook":3940,"apter":3941,"Ġspread":3942,"Ġfollowed":3943,"Ġprefer":3944,"Ġsociety":3945,"Don":3946,"akers":3947,"care":3948,"Ġmoved":3949,"Ġdang":3950,"Ġhus":3951,"Ġ2006":3952,"Ġproduce":3953,"100":3954,"Ġsust":3955,"Ġguy":3956,"Ġpages":3957,"Ġblue":3958,"Ġpowerful":3959,"Ġlargest":3960,"ĠResearch":3961,"Ġwild":3962,"Ġchem":3963,"ĠMod":3964,"ĠAnge":3965,"Ġpow":3966,"istics":3967,"olic":3968,"Ġdelivery":3969,"ico":3970,"ĠDist":3971,"Ġstar":3972,"bed":3973,"rey":3974,"Ġjoin":3975,"ampions":3976,"LE":3977,"ĠHall":3978,"Ġgirls":3979,"orrow":3980,"Ġmer":3981,"Ġslight":3982,"Ġphoto":3983,"Ġpopulation":3984,"ĠEuropean":3985,"leg":3986,"Ġbottom":3987,"coming":3988,"Ġing":3989,"ĠAnt":3990,"Ġaren":3991,"Ġbrother":3992,"Ġorigin":3993,"ulated":3994,"osing":3995,"Ġdouble":3996,"Com":3997,"Ġlines":3998,"Ġefforts":3999,"Ġsurround":4000,"Ġeconomy":4001,"ffee":4002,"Ġnove":4003,"ĠSl":4004,"useum":4005,"Ġprofession":4006,"Ġaccur":4007,"ĠSuper":4008,"Ġnotice":4009,"ĠWednesday":4010,"icks":4011,"ĠDel":4012,"Ġopening":4013,"Ġfaith":4014,"ulf":4015,"Ġeval":4016,"Ġsports":4017,"ĠPort":4018,"ses":4019,"Ġborn":4020,"Ġbrain":4021,"Ġcompared":4022,"ĠGold":4023,"Ġgar":4024,"ado":4025,"ĠJames":4026,"Ġeasier":4027,"itude":4028,"ĠCouncil":4029,"Ġweather":4030,"Ġoffering":4031,"ĠYear":4032,"ĠBritish":4033,"Ġbreat":4034,"amic":4035,"Ġfinished":4036,"ĠFlor":4037,"pa":4038,"istry":4039,"IP":4040,"Ġbasic":4041,"Ġfinish":4042,"ĠMichael":4043,"ĠBra":4044,"Ġpros":4045,"ĠRet":4046,"rupt":4047,"ST":4048,"Ġserved":4049,"29":4050,"Ġclient":4051,"Ġadvantage":4052,"Ġstrategy":4053,"Ġcry":4054,"ĠCle":4055,"Ġdoctor":4056,"hips":4057,"ĠPlay":4058,"Ġ2020":4059,"Ġsteps":4060,"ĠMany":4061,"Ġclot":4062,"mat":4063,"Ġadjust":4064,"Ġmovement":4065,"Ġwonderful":4066,"ĠChristian":4067,"Ġwat":4068,"ĠEduc":4069,"Ġguys":4070,"Ġpartner":4071,"ĠOffice":4072,"Ġfab":4073,"atively":4074,"Ġstructure":4075,"OW":4076,"These":4077,"Ġoccas":4078,"ĠRich":4079,"Ġsetting":4080,"Ġcamera":4081,"Ġlots":4082,"ĠChristmas":4083,"Ġcash":4084,"ustr":4085,"Ġcoffee":4086,"ĠMac":4087,"ĠLord":4088,"ĠAny":4089,"Ġworkers":4090,"Ġkept":4091,"Ġobv":4092,"Ġlength":4093,"Ġsweet":4094,"ker":4095,"33":4096,"Ġtruth":4097,"Ġregarding":4098,"IV":4099,"ĠGood":4100,"ĠSpr":4101,"bon":4102,"ĠReview":4103,"amin":4104,"Ġappreci":4105,"Ġcontinued":4106,"ourney":4107,"Ġframe":4108,"ĠBill":4109,"Ġreb":4110,"term":4111,"Ġbeg":4112,"Ġcast":4113,"Ġleader":4114,"Ġhelping":4115,"Ġpeace":4116,"udd":4117,"Ġincome":4118,"Ġstrength":4119,"Ġpassed":4120,"Ġsurface":4121,"Ġreality":4122,"Ġwouldn":4123,"Ġtransfer":4124,"ifying":4125,"ĠOver":4126,"Ġexisting":4127,"ken":4128,"Ġsuff":4129,"Ġruns":4130,"Ġconc":4131,"Ġexpand":4132,"ĠPC":4133,"icip":4134,"ĠTexas":4135,"ports":4136,"Ġpictures":4137,"Ġsupply":4138,"Ġcompon":4139,"ĠRem":4140,"Ġlearned":4141,"ĠRock":4142,"ĠBest":4143,"Ġappropriate":4144,"unte":4145,"Ġcharacters":4146,"Ġreplace":4147,"Ġfigure":4148,"ero":4149,"Ġwear":4150,"ĠOF":4151,"edding":4152,"Ġattract":4153,"Ġdied":4154,"90":4155,"ologies":4156,"ander":4157,"Se":4158,"Ġrepe":4159,"ĠPri":4160,"Ġanti":4161,"Ġiniti":4162,"Ġtrain":4163,"hens":4164,"rapy":4165,"ĠIT":4166,"Ġgun":4167,"Ġesc":4168,"Ġlarger":4169,"asy":4170,"igned":4171,"Ġinternet":4172,"Ġvehicle":4173,"Ġprotection":4174,"icine":4175,"Ġcritical":4176,"using":4177,"Ġcalls":4178,"Ġkitchen":4179,"itect":4180,"Ġcompleted":4181,"OV":4182,"Ġhom":4183,"Ġcreative":4184,"ĠMarket":4185,"oving":4186,"anging":4187,"Ġir":4188,"ĠSur":4189,"ĠBel":4190,"ĠRec":4191,"ipped":4192,"Ġfan":4193,"Ġtend":4194,"ĠGeneral":4195,"ĠWhy":4196,"TH":4197,"soft":4198,"Ġcentury":4199,"Ġplus":4200,"Ġseeing":4201,"imal":4202,"Ġaudience":4203,"Ġappoint":4204,"lands":4205,"Ġvirt":4206,"friend":4207,"ĠTy":4208,"ĠBig":4209,"Ġgenerally":4210,"Ġessay":4211,"Ġgift":4212,"ĠWork":4213,"ĠFrench":4214,"65":4215,"Ġhusband":4216,"Ġbackground":4217,"ĠAnn":4218,"Ġdisapp":4219,"eria":4220,"?\"":4221,"Ġfant":4222,"Ġsatisf":4223,"Ġcivil":4224,"ston":4225,"eds":4226,"acity":4227,"Ġgovern":4228,"Ġentertain":4229,"ij":4230,"Ġcells":4231,"Ġmechan":4232,"Ġhaven":4233,"range":4234,"Please":4235,"ĠEv":4236,"Ġorganizations":4237,"gl":4238,"ĠMicro":4239,"Ġâ":4240,"Ġhomes":4241,"vere":4242,"ĠFound":4243,"Ġexperienced":4244,"text":4245,"Ġhotel":4246,"odes":4247,"Ġstatus":4248,"Ġdriving":4249,"Ġpieces":4250,"ae":4251,"Ġafford":4252,"Ġknows":4253,"Ġguarant":4254,"IM":4255,"dule":4256,"Ġharm":4257,"Ġextremely":4258,"ĠDevelop":4259,"iced":4260,"pective":4261,"Ġtoward":4262,"Ġcitiz":4263,"sey":4264,"opped":4265,"ady":4266,"ores":4267,"Ġprot":4268,"ervation":4269,"Ġconference":4270,"ĠRoad":4271,"Ġcontinu":4272,"Ġreviews":4273,"ĠWindows":4274,"Ġlock":4275,"ĠCr":4276,"Ġpsych":4277,"Ġtransport":4278,"Ar":4279,"ĠChurch":4280,"Ġdemonstr":4281,"ĠPress":4282,"Ġthank":4283,"ĠAustralia":4284,"raw":4285,"Ġincred":4286,"know":4287,"ym":4288,"Ġstream":4289,"Not":4290,"gn":4291,"Ġconnection":4292,"rees":4293,"porary":4294,"ĠSun":4295,"Ġhighest":4296,"ĠMart":4297,"Ġ@":4298,"ĠAv":4299,"Ġelectric":4300,"oves":4301,"Ġmist":4302,"Ġactual":4303,"lim":4304,"ĠRober":4305,"Ġestablished":4306,"Ġrequires":4307,"Ġcollabor":4308,"Ġbiggest":4309,"Ġonto":4310,"75":4311,"Ġ80":4312,"AA":4313,"Some":4314,"ss":4315,"azine":4316,"umn":4317,"aven":4318,"itar":4319,"uman":4320,"Ġdiet":4321,"ĠMem":4322,"unately":4323,"Do":4324,"ios":4325,"Ġwine":4326,"Ġwhatever":4327,"EM":4328,"aming":4329,"ĠBen":4330,"gency":4331,"Ġtherefore":4332,"rian":4333,"Ġcommit":4334,"Ġheavy":4335,"za":4336,"Ġstorage":4337,"Ġsecret":4338,"ĠTwitter":4339,"iller":4340,"ĠSee":4341,"Ġadop":4342,"Ġprimary":4343,"Ġdaughter":4344,"ĠSam":4345,"ĠMary":4346,"âĢĿ,":4347,"iled":4348,"ĠInstitute":4349,"ĠOh":4350,"Ġacadem":4351,"Ġmeant":4352,"ĠThom":4353,"Ġmission":4354,"Ġvill":4355,"Ġcolle":4356,"Ġmaster":4357,"rowd":4358,"Ġestablish":4359,"entially":4360,"ĠPublic":4361,"ĠST":4362,"ĠHot":4363,"Ġrefer":4364,"with":4365,"asure":4366,"iers":4367,"Ġrich":4368,"men":4369,"Con":4370,"Ġhospital":4371,"Ġuseful":4372,"ĠBank":4373,"ĠSol":4374,"Ġnames":4375,"ĠPhil":4376,"annel":4377,"ĠCompany":4378,"oos":4379,"ĠCamp":4380,"estival":4381,"Ġolder":4382,"Ġseemed":4383,"500":4384,"ĠManagement":4385,"ĠPeople":4386,"nding":4387,"ĠClub":4388,"ĠMag":4389,"ocal":4390,"____":4391,"ĠFlorida":4392,"icon":4393,"box":4394,"Ġresist":4395,"ĠRiver":4396,"Ġremains":4397,"Ġcards":4398,"Ġstation":4399,"Ġvision":4400,"Ġfactors":4401,"Ġmodels":4402,"Ġunit":4403,"Ġbecomes":4404,"ĠClass":4405,"acing":4406,"Ġparties":4407,"Ġlimit":4408,"Ġmemory":4409,"ĠEngland":4410,"Ġbath":4411,"Ġbatter":4412,"Ġexhib":4413,"la":4414,"Ġstreet":4415,"Ġmanager":4416,"oices":4417,"Ġproduced":4418,"UR":4419,"Ġton":4420,"Ġcovered":4421,"ĠTime":4422,"ĠLife":4423,"enses":4424,"phone":4425,"ĠDemocr":4426,"Ġdrop":4427,"Ġrare":4428,"Ġdeveloping":4429,"Ġmonitor":4430,"Ġmill":4431,"Ġ2005":4432,"Ġchallenges":4433,"Ġpayment":4434,"Ġfiles":4435,"Ġplaced":4436,"ĠRob":4437,"osure":4438,"ucky":4439,"orial":4440,"ona":4441,"OP":4442,"Ġpaint":4443,"ĠOnce":4444,"Ġargu":4445,"Ġguid":4446,"Ġbalance":4447,"Ġearth":4448,"**":4449,"Ġaim":4450,"vention":4451,"ĠCongress":4452,"encies":4453,"Ġrob":4454,"Ġ90":4455,"kin":4456,"itors":4457,"Ġ31":4458,"Ġlinks":4459,"itness":4460,"Ġfinding":4461,"ĠMex":4462,"Ġlegisl":4463,"Ġmatt":4464,"Ġremind":4465,"Ġstick":4466,"Ġcomfortable":4467,"Pl":4468,"Ġhappens":4469,"Ġscen":4470,"ĠApple":4471,"Ġtim":4472,"ĠMiss":4473,"Ġ35":4474,"Ġmethods":4475,"ĠDirector":4476,"Ġexperiences":4477,");":4478,"ĠBay":4479,"look":4480,"Ġguess":4481,"Ġforms":4482,"reak":4483,"Ġbow":4484,"gal":4485,"isco":4486,"standing":4487,"Ġmanufacture":4488,"ki":4489,"Ġcentral":4490,"Ġepis":4491,"atically":4492,"olly":4493,"CH":4494,"ENT":4495,"Ġtesting":4496,"ror":4497,"roy":4498,"\",":4499,"ĠBecause":4500,"Ġdescribed":4501,"roud":4502,"Â®":4503,"Ġscene":4504,"ula":4505,"Ġvote":4506,"Ġbeat":4507,"ĠSub":4508,"ĠPlan":4509,"Ġsenior":4510,"Ġsym":4511,"Ġjourney":4512,"ĠWhe":4513,"Ġflav":4514,"iation":4515,"inn":4516,"Ġshared":4517,"Ġevening":4518,"ĠDesign":4519,"gers":4520,"mail":4521,"Ġclaims":4522,"ĠCap":4523,"ĠHist":4524,"Ġdat":4525,"ulate":4526,"Ġtraffic":4527,"berg":4528,"Ġstandards":4529,"Ġcommunities":4530,"riage":4531,"eed":4532,"enture":4533,"Ġdetermine":4534,"uled":4535,"CC":4536,"ĠEach":4537,"works":4538,"Ġbehavior":4539,"amily":4540,"Ġeth":4541,"ota":4542,"oyal":4543,"Ġshowed":4544,"Ġopened":4545,"Ġretail":4546,"last":4547,"Ġmajority":4548,"44":4549,"ĠJew":4550,"Ġtips":4551,"Ġofficials":4552,"Ġjournal":4553,"oto":4554,"ĠPR":4555,"osition":4556,"Ġwaiting":4557,"Ġspending":4558,"Ġvir":4559,"Ġwatching":4560,"iture":4561,"ĠSince":4562,"ĠCare":4563,"iques":4564,"osis":4565,"Ġviews":4566,"Ġfashion":4567,"Ġkeeping":4568,"Ġwindow":4569,"azon":4570,"Ġrecords":4571,"cles":4572,"Ġthanks":4573,"Ġlands":4574,"semb":4575,"Ġthousands":4576,"Ġexercise":4577,"ĠUSA":4578,"rab":4579,"From":4580,"Ġcaused":4581,"Ġsecure":4582,"Ġsexual":4583,"ĠAP":4584,"Ġselection":4585,"Ġjump":4586,"lig":4587,"ĠHel":4588,"inese":4589,"free":4590,"Ġcontinues":4591,"state":4592,"Ġearn":4593,"ĠScience":4594,"Ġthus":4595,"ĠPet":4596,"Ġexclus":4597,"Ġprec":4598,"ĠInformation":4599,"do":4600,"Ġowner":4601,"Ġcompetition":4602,"Ġsumm":4603,"Ġideal":4604,"Ġfish":4605,"ĠCommission":4606,"Ġposted":4607,"but":4608,"Ġmanage":4609,"Ġpolic":4610,"ternal":4611,"Ġteaching":4612,"ĠLou":4613,"Ġsolid":4614,"Ġgain":4615,"point":4616,"Ġlose":4617,"ooper":4618,"Ġappears":4619,"ĠEducation":4620,"olate":4621,"Ġelements":4622,"Ġforget":4623,"Ġcommunication":4624,"hy":4625,"gment":4626,"edy":4627,"Ġwinter":4628,"lor":4629,"anta":4630,"Ġpray":4631,"Ġdecide":4632,"Ġtechnical":4633,"Ġmentioned":4634,"Ġfurn":4635,"ĠBrown":4636,"Ġpresented":4637,"Ġanimals":4638,"ipe":4639,"Ġdirection":4640,"Ġdep":4641,"RA":4642,"Ġlabor":4643,"Ġbag":4644,"ĠTom":4645,"ĠGeorge":4646,"Ab":4647,"spe":4648,"Ġprepared":4649,"ĠUse":4650,"Ġcoach":4651,"Ġclearly":4652,"Ġmulti":4653,"icago":4654,"Ġplenty":4655,"âĢĺ":4656,"ented":4657,"Ġimpl":4658,"Ġutil":4659,"Ġotherwise":4660,"itz":4661,"iency":4662,"overy":4663,"Ġrule":4664,"orney":4665,"asp":4666,"Ġoperations":4667,"pan":4668,"Ġrap":4669,"95":4670,"Ġestim":4671,"ette":4672,"Ġ70":4673,"ĠSmith":4674,"Ġmail":4675,"fast":4676,"NA":4677,"Ġlaunch":4678,"Ġhar":4679,"Ġlaws":4680,"miss":4681,"Ġice":4682,"Ġtrial":4683,"inct":4684,"Ġneighbor":4685,"nect":4686,"Ġwaste":4687,"Ġsem":4688,"ellow":4689,"night":4690,"Ġadvance":4691,"Ġbutton":4692,"Post":4693,"Ġsources":4694,"Ġcris":4695,"Cont":4696,"bo":4697,"Ġradio":4698,"yer":4699,"Ġship":4700,"apers":4701,"Ġgrant":4702,"Ġtemperature":4703,"Ġsustain":4704,"ĠChild":4705,"ĠAlthough":4706,"osh":4707,"ĠPower":4708,"34":4709,"ĠMake":4710,"ipp":4711,"roid":4712,"ĠRel":4713,"Ġended":4714,"ĠAlex":4715,"ĠCD":4716,"ste":4717,"Ġpassion":4718,"Ġagency":4719,"Ġdepartment":4720,"Ġrank":4721,"actions":4722,"alls":4723,"Ġleaving":4724,"Ġsand":4725,"Ġsnow":4726,"Ġefficient":4727,"Ġvideos":4728,"Ġremove":4729,"Ġcrowd":4730,"Ġwilling":4731,"Ġspring":4732,"Ġindependent":4733,"Ġleadership":4734,"Ġcounter":4735,"water":4736,"omin":4737,"ĠLake":4738,"ĠDec":4739,"Ġadding":4740,"Ġactions":4741,"ĠMat":4742,"antic":4743,"pet":4744,"Ġcatch":4745,"outhern":4746,"Ġdiscover":4747,"Bl":4748,"Ġmort":4749,"Ġingred":4750,"inc":4751,"Ġwhom":4752,"ads":4753,"ĠMount":4754,"Ġbird":4755,"Ġbecoming":4756,"estic":4757,"ordin":4758,"Ġapprox":4759,"ĠStar":4760,"Ġshowing":4761,"ception":4762,"Ġspecies":4763,"Ġdespite":4764,"Ġflex":4765,"Ġstarts":4766,"ading":4767,"Ġvalues":4768,"active":4769,"Ġartist":4770,"Ġforeign":4771,"Ġkid":4772,"Ġsession":4773,"unction":4774,"Me":4775,"bing":4776,"ĠFore":4777,"Ġexcited":4778,"Ġraised":4779,"Ġfamous":4780,"Ġdedicated":4781,"Ġnovel":4782,"Ġ196":4783,"Ġopinion":4784,"Ġlisted":4785,"Ġfol":4786,"Ġtrail":4787,"Ġbul":4788,"Ġsugar":4789,"ĠOnline":4790,"Ġfill":4791,"36":4792,"ĠSil":4793,"Ġupdate":4794,"Ġcontains":4795,"Ġpool":4796,"Ġtask":4797,"ĠTop":4798,"Ġhonest":4799,"Ġign":4800,"ĠTor":4801,"ĠBur":4802,"Ġschedule":4803,"More":4804,"Ġpair":4805,"Ġclosed":4806,"ugg":4807,"Ġinjury":4808,"fit":4809,"ferences":4810,"Ġrelax":4811,"Ġtransl":4812,"ĠAmericans":4813,"Ġfootball":4814,"Ġsty":4815,"gery":4816,"ĠCur":4817,"Ġthrow":4818,"37":4819,"38":4820,"Ġshopping":4821,"Ġcraft":4822,"Ġcore":4823,"Ġbrief":4824,"Ġgraph":4825,"Ġkilled":4826,"Ġboo":4827,"Ġincor":4828,"ĠBlue":4829,"no":4830,"PA":4831,"ĠSal":4832,"Ġpractices":4833,"55":4834,"door":4835,"Ġegg":4836,"Ġclasses":4837,"Ġwelcome":4838,"Ġrat":4839,"reek":4840,"Ġunc":4841,"Ġsympt":4842,"Ġcapacity":4843,"Ġvolunte":4844,"ĠGovernment":4845,"Why":4846,"ctors":4847,"abilities":4848,"rd":4849,"Ġpoll":4850,"ĠAfrica":4851,"Ġcoverage":4852,"Ġshape":4853,"ĠTO":4854,"Ġdecisions":4855,"ishes":4856,"cel":4857,"ĠDet":4858,"32":4859,"DF":4860,"Ġmur":4861,"Ġmostly":4862,"Ġvs":4863,"word":4864,"Ġagreement":4865,"Ġrestaurant":4866,"ĠVir":4867,"ĠSa":4868,"Ġnor":4869,"ĠSing":4870,"arge":4871,"Ġexperts":4872,"craft":4873,"Ġresidents":4874,"Ġconven":4875,"Ġfacilities":4876,"tained":4877,"aked":4878,"ĠUnder":4879,"Ġflu":4880,"Ġfunds":4881,"esterday":4882,"iliar":4883,"Ġbought":4884,"Ġbright":4885,"ĠWood":4886,"Ġmanaged":4887,"Ad":4888,"ĠMil":4889,"Ġsmaller":4890,"Ġhandle":4891,"Ġcorner":4892,"Ġsched":4893,"Ġadministration":4894,"ĠBer":4895,"Ġconnected":4896,"Ġdocuments":4897,"Ġnotes":4898,"Ġsch":4899,"ĠLike":4900,"ĠCommittee":4901,"ĠCentral":4902,"Ġidentify":4903,"Ġap":4904,"Ġdriver":4905,"Ġsoul":4906,"Ġseparate":4907,"Ġproud":4908,"Ġleads":4909,"ĠLear":4910,"Ġcasino":4911,"Ġnumerous":4912,"ucle":4913,"going":4914,"Ġbuying":4915,"Ġselected":4916,"Ġsouth":4917,"oles":4918,"Ġshut":4919,"Ġrelevant":4920,"how":4921,"ĠAtt":4922,"Ġminute":4923,"Ġpresence":4924,"Ġenvironmental":4925,"Ġreturned":4926,"ĠCarol":4927,"Ġdiscussion":4928,"Ġbon":4929,"Ġchair":4930,"ulations":4931,"Ġchanging":4932,"Ġ>":4933,"oop":4934,"Ġcircum":4935,"rad":4936,"Ġplants":4937,"Ġtaste":4938,"Ġdiagn":4939,"ĠAND":4940,"cient":4941,"Ġmicro":4942,"Ġbattle":4943,"Your":4944,"MS":4945,"Ġthoughts":4946,"Ġrelationships":4947,"ĠWater":4948,"Ġcombination":4949,"Ġtree":4950,"cket":4951,"which":4952,"Ġwinning":4953,"Ġsequ":4954,"BS":4955,"ĠMal":4956,"Ġposts":4957,"Ġcontext":4958,"Ġcloud":4959,"Ġslightly":4960,"BA":4961,"Ġmental":4962,"while":4963,"uries":4964,"Ġkick":4965,"icken":4966,"Ġabsolutely":4967,"Ġpreviously":4968,"Ġconcerns":4969,"Ġpolicies":4970,"Ġleaves":4971,"ĠChinese":4972,"Ġfreed":4973,"win":4974,"Ġarticles":4975,"Ġasking":4976,"ĠVol":4977,"Ġ2000":4978,"ĠScott":4979,"Ġarm":4980,"outs":4981,"usion":4982,"Ġvisual":4983,"atures":4984,"Ġholiday":4985,"life":4986,"ĠLove":4987,"ĠJo":4988,"igr":4989,"Ġjoint":4990,"Ġadvanced":4991,"Ġalternative":4992,"ĠFood":4993,"Ġ2004":4994,"Ġinitial":4995,"known":4996,"fin":4997,"48":4998,"hab":4999,"Ġindic":5000,"Ġcars":5001,"Ġhearing":5002,"umber":5003,"Acc":5004,"tenance":5005,"Ġpal":5006,"ĠChicago":5007,"Ġcab":5008,"Ġrain":5009,"Ġreached":5010,"Ġnorth":5011,"Ġconsid":5012,"ĠIns":5013,"Ġwalking":5014,"ĠDown":5015,"Ġclassic":5016,"Ġmap":5017,"ĠStr":5018,"Ġworry":5019,"ka":5020,"Ġoperating":5021,"Ġbrings":5022,"Ġadapt":5023,"Ġcolors":5024,"CT":5025,"ront":5026,"ĠÃ":5027,"47":5028,"Ġlisten":5029,"Ġrid":5030,"what":5031,"Ġexplore":5032,"ĠCheck":5033,"ĠSum":5034,"Ġfourth":5035,"Ġgarden":5036,"ĠMain":5037,"Ġgeneration":5038,"Ġprinci":5039,"ĠDiv":5040,"ĠTimes":5041,"ĠFranc":5042,"top":5043,"ixt":5044,"tion":5045,"Ġeating":5046,"illa":5047,"ĠOpen":5048,"Ġflat":5049,"Ġcitizens":5050,"IR":5051,"Ġdoubt":5052,"ini":5053,"ĠGrand":5054,"Ġestate":5055,"Ġdinner":5056,"Ġride":5057,"Ġsounds":5058,"IA":5059,"Last":5060,"ĠLeague":5061,"Ġconcent":5062,"Ġspl":5063,"Ġpackage":5064,"Ġmotor":5065,"ĠMad":5066,"Ġeventually":5067,"ocolate":5068,"Ġsongs":5069,"ya":5070,"igan":5071,"ĠIsland":5072,"ĠTur":5073,"Ġunless":5074,"ĠVis":5075,"Ġminor":5076,"Ġcorporate":5077,"Ġlaun":5078,"OD":5079,"Ġloan":5080,"Ġfeels":5081,"Ġteacher":5082,"Ġputting":5083,"orter":5084,"Ġdefense":5085,"Ġsharing":5086,"osen":5087,"ga":5088,"ĠClick":5089,"Ġsitu":5090,"ĠProfess":5091,"Ġallowing":5092,"Ġdelic":5093,"Ġveget":5094,"Ġcart":5095,"uty":5096,"Ġencourage":5097,"Get":5098,"Ġnegative":5099,"Ġappeared":5100,"Ġaccompl":5101,"race":5102,"ĠWin":5103,"Ġarchitect":5104,"Ġfocused":5105,"isation":5106,"Ġspect":5107,"Ġcalc":5108,"ĠColor":5109,"Ġsea":5110,"ĠVe":5111,"ĠMicrosoft":5112,"Ġmarkets":5113,"ĠFire":5114,"Ġfabric":5115,"Ġclimate":5116,"Ġsigned":5117,"Ġobtain":5118,"Ġwedding":5119,"ĠHill":5120,"Ġrise":5121,"Ġdecor":5122,"ĠTheir":5123,"Ġmouth":5124,"Ġsmooth":5125,"ograp":5126,"ĠTwo":5127,"Ġarrest":5128,"Ġresponsibility":5129,"ĠEarth":5130,"Le":5131,"noon":5132,"Ġfunding":5133,"Ġcompar":5134,"Ġdesk":5135,"Ġbeauty":5136,"Ġanimal":5137,"esome":5138,"ection":5139,"Ġforces":5140,"Ġnoted":5141,"Ġformat":5142,"May":5143,"ears":5144,"zen":5145,"ructure":5146,"Ġdebt":5147,"Ġcommitted":5148,"Ġexpensive":5149,"coh":5150,"rehens":5151,"ĠBet":5152,"cipe":5153,"rolled":5154,"!âĢĿ":5155,"resp":5156,"ĠYes":5157,"Ġdogs":5158,"rim":5159,"Ġfee":5160,"Ġseek":5161,"PR":5162,"Ġmo":5163,"Ġfilled":5164,"ĠLu":5165,"Ġartists":5166,"llig":5167,"cont":5168,"ii":5169,"net":5170,"ĠProject":5171,"fortunately":5172,"ĠFrank":5173,"rive":5174,"anda":5175,"icians":5176,"Ġteachers":5177,"ĠJournal":5178,"ĠGerman":5179,"ĠJer":5180,"Ġoperation":5181,"ait":5182,"Ġthr":5183,"ushed":5184,"eal":5185,"ĠIr":5186,"Ġsector":5187,"Ġfif":5188,"Ġelection":5189,"Ġdatab":5190,"Ġselling":5191,"ushing":5192,"Ġdistance":5193,"ĠArch":5194,"ĠDevelopment":5195,"umin":5196,"SP":5197,"Ġpredict":5198,"po":5199,"Ġfriendly":5200,"Ġfacility":5201,"ĠSocial":5202,"oma":5203,"Ġinfluence":5204,"ĠBack":5205,"idential":5206,"ĠLin":5207,"Ġreaders":5208,"Ġprofessionals":5209,"tered":5210,"Ġfemale":5211,"unning":5212,"Ġcommand":5213,"Ġperformed":5214,"ifts":5215,"ulture":5216,"Ġholding":5217,"Ġalle":5218,"!\"":5219,"Ġbrows":5220,"ĠWomen":5221,"Ġapparent":5222,"Ġgall":5223,"Ste":5224,"Ġshipping":5225,"ĠUnion":5226,"rag":5227,"Ġclim":5228,"Ġphil":5229,"Ġplays":5230,"ĠWho":5231,"Ġraise":5232,"Ġcream":5233,"Ġmanner":5234,"ĠNY":5235,"Ġguests":5236,"Ġassistance":5237,"that":5238,"ĠJud":5239,"Des":5240,"ĠReal":5241,"Ġconversation":5242,"Ġnine":5243,"ĠHy":5244,"Ġyouth":5245,"Ġdu":5246,"Ġproceed":5247,"Ġconv":5248,"Ġchief":5249,"ĠConst":5250,"ĠDistrict":5251,"Ġban":5252,"obe":5253,"Ġsurvey":5254,"Ġstated":5255,"Ġ45":5256,"Ġexplain":5257,"ano":5258,"cher":5259,"ius":5260,"Ġprocesses":5261,"Ġreference":5262,"essions":5263,"nel":5264,"Ġwriter":5265,"Ġexciting":5266,"ĠToday":5267,"ĠCall":5268,"ĠForm":5269,"Ġjoined":5270,"Ġproperties":5271,"Ġapplied":5272,"ĠFoundation":5273,"rical":5274,"ĠUN":5275,"Ġserver":5276,"Ġseconds":5277,"Ġentry":5278,"Ġmeasures":5279,"Ġweap":5280,"ĠHol":5281,"Ġroof":5282,"ĠParty":5283,"Ġourselves":5284,"kins":5285,"TS":5286,"Ġspeech":5287,"ĠSociety":5288,"Ġsets":5289,"Ġmedium":5290,"Ġsigns":5291,"poses":5292,"ĠMedia":5293,"ĠMass":5294,"Ġedge":5295,"Ġforg":5296,"ĠTeam":5297,"arrant":5298,"Ġtransform":5299,"Add":5300,"ommod":5301,"Ġdie":5302,"Ġminimum":5303,"Ġterror":5304,"ĠMel":5305,"Ġimportance":5306,"Ġoptim":5307,"Ġtypically":5308,"Ġcities":5309,"Just":5310,"ĠCustom":5311,"ĠCommunity":5312,"ĠGen":5313,"Read":5314,"Ġsymptoms":5315,"Every":5316,"49":5317,"uce":5318,"Ġquiet":5319,"Ġenjoyed":5320,"Ġremoved":5321,"Ġswitch":5322,"ĠEngine":5323,"ye":5324,"ĠQue":5325,"atin":5326,"ĠFrance":5327,"However":5328,"Ġresearc":5329,"Ġtells":5330,"ilding":5331,"ship":5332,"ĠMer":5333,"Ġsav":5334,"Ġdisp":5335,"Ġmetal":5336,"App":5337,"uts":5338,"ĠElect":5339,"Ġcultural":5340,"orthern":5341,"Ġchemical":5342,"ĠSpecial":5343,"otic":5344,"den":5345,"Ġran":5346,"Ġarg":5347,"Ġinternal":5348,"Ġdistrict":5349,"Ġsitting":5350,"ician":5351,"Ġtechniques":5352,"Ġdiscount":5353,"ĠRad":5354,"ĠAmazon":5355,"Ġaccident":5356,"Ġinstance":5357,"tra":5358,"Ġstret":5359,"Ġmarried":5360,"Ġproposed":5361,"ĠLong":5362,"ĠLos":5363,"Ġinterests":5364,"ĠTest":5365,"Ġhero":5366,"Ġju":5367,"Ġsupposed":5368,"ĠRobert":5369,"Ġteach":5370,"ups":5371,"Ġwire":5372,"Ġtopic":5373,"Ne":5374,"Ġcharges":5375,"Ġupgr":5376,"Ġacademic":5377,"39":5378,"you":5379,"88":5380,"Ġder":5381,"Ġdetect":5382,"isher":5383,"ĠThanks":5384,"ĠWil":5385,"Ġlived":5386,"Ġpossibly":5387,"Ġcalling":5388,"Ġafternoon":5389,"oses":5390,"ĠCanad":5391,"Ġmissing":5392,"Ġrepair":5393,"Ġsuppl":5394,"rooms":5395,"Ġrooms":5396,"Ġliber":5397,"Ġtotally":5398,"Ġath":5399,"Ġhelpful":5400,"ĠTim":5401,"ĠDi":5402,"okes":5403,"ĠValley":5404,"Phone":5405,"ĠAfrican":5406,"Ġfactor":5407,"31":5408,"Ġfruit":5409,"yan":5410,"uration":5411,"Ġcheap":5412,"aser":5413,"Ġpregn":5414,"ĠJones":5415,"Ġmarriage":5416,"LA":5417,"Ġtough":5418,"bert":5419,"Ġdecades":5420,"ĠAcadem":5421,"ria":5422,"ĠData":5423,"ogue":5424,"edia":5425,"ĠIts":5426,"Ġrecommended":5427,"Ġmale":5428,"ĠDuring":5429,"idden":5430,"Ġadults":5431,"Ġintellig":5432,"Ġsport":5433,"ĠWestern":5434,"SA":5435,"Ġtrees":5436,"Ġfailed":5437,"ĠMusic":5438,"46":5439,"ĠWall":5440,"Ġtheme":5441,"Ġfuel":5442,"ivered":5443,"Ġthick":5444,"ĠIll":5445,"Ġemp":5446,"Ġscale":5447,"Ġconcerned":5448,"ums":5449,"Ġwebsites":5450,"Ġspons":5451,"Ġpurposes":5452,"Ġfees":5453,"Ġserving":5454,"Ġmovies":5455,"ĠCEO":5456,"ĠNov":5457,"met":5458,"ĠPeter":5459,"Ġsteel":5460,"ĠMcC":5461,"istan":5462,"odies":5463,"ĠVirgin":5464,"uable":5465,"Ġvan":5466,"Ġuns":5467,"Ġfamiliar":5468,"Ġgreatest":5469,"Ġprofile":5470,"Ġvalid":5471,"Ġsalt":5472,"01":5473,"ĠThomas":5474,"Ġdepos":5475,"raq":5476,"ĠLight":5477,"ĠJeff":5478,"Ġcaught":5479,"Ġpush":5480,"ĠTre":5481,"phas":5482,"Ġunits":5483,"arsh":5484,"Ġshock":5485,"Ġcontem":5486,"Ġproperly":5487,"ĠID":5488,"cluding":5489,"ometimes":5490,"Ġstores":5491,"rip":5492,"ĠExper":5493,"lets":5494,"ĠCard":5495,"ĠKore":5496,"Ġconsumers":5497,"Ġveter":5498,"ĠGermany":5499,"Ġweak":5500,"Ġinstit":5501,"Ġjudge":5502,"Ġingredients":5503,"Ġforced":5504,"cipl":5505,"Ġtight":5506,"ena":5507,"LC":5508,"Ġbeach":5509,"ĠJoe":5510,"Well":5511,"Ġquant":5512,"Ġintended":5513,"ĠSecret":5514,"fection":5515,"erg":5516,"Ġment":5517,"iration":5518,"Ġsuit":5519,"avig":5520,"Ġcombined":5521,"ĠLook":5522,"Ġris":5523,"Ġcourses":5524,"bour":5525,"Ġbusy":5526,"mes":5527,"Ġorders":5528,"Ġassum":5529,"Ġdollars":5530,"Ġmir":5531,"ensions":5532,"Ġmaximum":5533,"Ġaccounts":5534,"Ġapproximately":5535,"??":5536,"ket":5537,"ĠPay":5538,"Ġcircumst":5539,"Ġwitness":5540,"Ġpun":5541,"Ġrapid":5542,"Ġrevenue":5543,"Ġamb":5544,"Ġviolence":5545,"cuit":5546,"Te":5547,"alled":5548,"Ġoccup":5549,"Ġconsequ":5550,"Ġ2003":5551,"ĠAtl":5552,"Ġfailure":5553,"reens":5554,"ĠOnly":5555,"Ġfreedom":5556,"Ġtow":5557,"Ġconflic":5558,"Ġdetailed":5559,"ĠMot":5560,"ĠDig":5561,"ĠOld":5562,"Ġ500":5563,"ĠShow":5564,"equ":5565,"road":5566,"Ġexchange":5567,"Ġdiscovered":5568,"hand":5569,"Ġsuspect":5570,"ĠId":5571,"Ġworse":5572,"ĠTrump":5573,"ario":5574,"Ġtro":5575,"ĠMike":5576,"Ġprison":5577,"ĠFamily":5578,"Ġrealize":5579,"According":5580,"Ġburn":5581,"Ġpu":5582,"Ġplastic":5583,"ĠLouis":5584,"Ġintroduced":5585,"Ġeffic":5586,"Ġspecifically":5587,"Ġpure":5588,"iminal":5589,"rier":5590,"Ġtwice":5591,"nergy":5592,"Ġaid":5593,"Ġyes":5594,"Ġkill":5595,"Ġdrugs":5596,"ĠTake":5597,"cean":5598,"dden":5599,"Ġsupported":5600,"Ġconfidence":5601,"Let":5602,"Ġyesterday":5603,"Ġquot":5604,"Ġcop":5605,"agram":5606,"Ġbound":5607,"Ġaccommod":5608,".âĢĻ":5609,"EW":5610,"ĠJim":5611,"wo":5612,"Ġstanding":5613,"ĠIP":5614,"Ġdyn":5615,"Ġseat":5616,"ĠFind":5617,"Ġenhance":5618,"Ġprocessing":5619,"Ġapproved":5620,"orry":5621,"ĠFil":5622,"oston":5623,"Ġbelief":5624,"Ġpm":5625,"cohol":5626,"ĠFort":5627,"list":5628,"Ġapps":5629,"Ġtrouble":5630,"under":5631,"Ġswim":5632,"Ġaffected":5633,"Ġsurgery":5634,"Ġeditor":5635,"Ġmenu":5636,"Ġmotiv":5637,"ĠStand":5638,"Ġtelevision":5639,"Ġexecutive":5640,"prise":5641,"arian":5642,"Ġcauses":5643,"Ġking":5644,"Ġdraft":5645,"Ġuniversity":5646,"Ġvisitors":5647,"ĠMont":5648,"Che":5649,"asks":5650,"Ġlocations":5651,"Ġeducational":5652,"Can":5653,"Ġagreed":5654,"05":5655,"ĠRE":5656,"Yes":5657,"Ġemployee":5658,"van":5659,"ĠOrgan":5660,"Ġpanel":5661,"ita":5662,"ĠIraq":5663,"ĠBeach":5664,"Ġextensive":5665,"Ġpromote":5666,"ĠHam":5667,"Ġdesire":5668,"uclear":5669,"Ġaspects":5670,"ĠBo":5671,"Ġgather":5672,"ĠAccording":5673,"ĠSand":5674,"irty":5675,"ĠWord":5676,"ĠAngeles":5677,"ingly":5678,"ĠJul":5679,"Ġmaintenance":5680,"Ġprovider":5681,"Ġannounce":5682,"ĠTechnology":5683,"Ġturns":5684,"Ġprop":5685,"ĠChris":5686,"Ġremark":5687,"Ġdial":5688,"Ġdance":5689,"ĠAward":5690,"Ġarrange":5691,"Ġlabel":5692,"Ġtechnologies":5693,"related":5694,"ulty":5695,"Ġelimin":5696,"ĠMedical":5697,"Ġincorpor":5698,"Ġcarried":5699,"Ġbreast":5700,"ocation":5701,"Ġlicense":5702,"Ġcrisis":5703,"Ġdesigns":5704,"Ġtests":5705,"Ġrecipe":5706,"Ġsudden":5707,"Ġrub":5708,"Ġfold":5709,"Ġdepending":5710,"Ġadvertising":5711,"Ġparking":5712,"Ġbegins":5713,"Ġemergency":5714,"Ġseeking":5715,"Ġlandsc":5716,"ĠReport":5717,"Ġbringing":5718,"Ġarrived":5719,"rastructure":5720,"Americ":5721,"UN":5722,"tters":5723,"iest":5724,"osoph":5725,"Ġsymb":5726,"Ġstopped":5727,"ĠGame":5728,"59":5729,"Ġbroken":5730,"77":5731,"Ġtables":5732,"Ġmine":5733,"Ġcomprehens":5734,"Ġsides":5735,"Ġdelivered":5736,"ht":5737,"Ġang":5738,"nov":5739,"Ġneck":5740,"ideo":5741,"Ġimproved":5742,"Ġlunch":5743,"ĠBob":5744,"ossible":5745,"ĠProduct":5746,"Ġflight":5747,"ĠDou":5748,"aren":5749,"ems":5750,"ĠVict":5751,"Ġanywhere":5752,"Ġfavour":5753,"Ġdecre":5754,"Ġvolume":5755,"Ġbutter":5756,"Ġschol":5757,"Ġconsidering":5758,"bu":5759,"arp":5760,"Ġune":5761,"Ġsevere":5762,"Ġreligious":5763,"Ġdetermined":5764,"Sc":5765,"Ġconsumer":5766,"Ġhttps":5767,"Res":5768,"oking":5769,"Ġoccasion":5770,"Ġrom":5771,"Ġprepare":5772,"Ġepisode":5773,"Ġtreated":5774,"FL":5775,"Ġrecip":5776,"ĠAL":5777,"Ġtun":5778,"Ġwealth":5779,"ultural":5780,"anged":5781,"Ġtelling":5782,"Ġdiscl":5783,"lock":5784,"âĦ":5785,"alian":5786,"Ġcategory":5787,"ĠYOU":5788,"Ġ2002":5789,"Ġappearance":5790,"Ġbrown":5791,"Ġlaunched":5792,"ĠHave":5793,"Ġlibrary":5794,"UT":5795,"Ġteen":5796,"Ġhundreds":5797,"Ġinput":5798,"Ġunivers":5799,"Ġ2001":5800,"ĠAS":5801,"ĠEnter":5802,"Ġinvestigation":5803,"ĠNetwork":5804,"Ġfaster":5805,"Ġbuildings":5806,"Ġpaying":5807,"Ġaudio":5808,"clusion":5809,"Su":5810,"Ġerror":5811,"Ġpicked":5812,"kes":5813,"Ġstars":5814,"irmed":5815,"ĠFederal":5816,"ampionship":5817,"Ġresource":5818,"Ġsupporting":5819,"Ġliqu":5820,"erves":5821,"Ġreduced":5822,"Ġperspective":5823,"ias":5824,"Ġtheory":5825,"Ġends":5826,"ĠSecurity":5827,"igration":5828,"een":5829,"rick":5830,"Ġvary":5831,"Ġbond":5832,"Ġinspired":5833,"ĠJapanese":5834,"Ġcommitment":5835,"ĠPan":5836,"ĠDan":5837,"Ġbigger":5838,"Ġforest":5839,"kay":5840,"ĠLead":5841,"ĠWilliam":5842,"iat":5843,"ĠGar":5844,"CS":5845,"ĠMexico":5846,"Ġhistorical":5847,"ĠCy":5848,"ĠDen":5849,"Ġprocedure":5850,"Ġbelong":5851,"Ġdefend":5852,"Ġawesome":5853,"Ġmilk":5854,"Ġclinical":5855,"Ġfantastic":5856,"Ġhun":5857,"ola":5858,"IF":5859,"ĠBoth":5860,"Ġfle":5861,"Ġmeat":5862,"!!!!":5863,"En":5864,"Ġmere":5865,"Ġcleaning":5866,"Ġec":5867,"burg":5868,"icit":5869,"Ġtruck":5870,"Most":5871,"ĠON":5872,"Ġscientific":5873,"ulous":5874,"Ġexplained":5875,"ibilities":5876,"Ġpoly":5877,"Ġindustrial":5878,"Ġmode":5879,"iveness":5880,"ev":5881,"ĠBre":5882,"!)":5883,"Ġelement":5884,"ĠLab":5885,"Ġspeaking":5886,"Any":5887,"ĠConference":5888,"hetic":5889,"Ġsac":5890,"Ġcloser":5891,"Ġimagine":5892,"ĠInvest":5893,"Ġofficer":5894,"ĠWay":5895,"Ġsam":5896,"Ġsole":5897,"Ġadvis":5898,"ĠSenate":5899,"Ġresol":5900,"Ġcomponents":5901,"orough":5902,"ifications":5903,"ĠJohnson":5904,"Ġtickets":5905,"ĠLast":5906,"Ġtradition":5907,"Ġstim":5908,"ĠPerson":5909,"elines":5910,"âĦ¢":5911,"Ġcrime":5912,".|":5913,"Us":5914,"ĠSeries":5915,"iability":5916,"ĠHuman":5917,"Ġfunctions":5918,"Ġlights":5919,"Ġupdated":5920,"Ġsquare":5921,"Ġentirely":5922,"eper":5923,"Ġrot":5924,"Ġfoods":5925,"Ġphotograph":5926,"Ġfort":5927,"Ġexamples":5928,"Ġwearing":5929,"See":5930,"ĠFund":5931,"About":5932,"aded":5933,"Ġdomin":5934,"First":5935,"Ġbike":5936,"ownt":5937,"ĠMa":5938,"Ġidentified":5939,"Ġfly":5940,"Ġjoy":5941,"fol":5942,"Ġsister":5943,"Ġconcern":5944,"Ġagent":5945,"Ġemphas":5946,"86":5947,"rate":5948,"ĠNOT":5949,"ĠJose":5950,"Ġaccepted":5951,"Ĥ¬":5952,"Ġmut":5953,"Ġmotion":5954,"Qu":5955,"Ġregistered":5956,"ĠHaw":5957,"Ġchosen":5958,"Ġsad":5959,"Ġkinds":5960,"ĠNor":5961,"Ġhighlight":5962,"ĠAdminist":5963,"Ġtast":5964,"Ġcoast":5965,"ployment":5966,"ĠOffic":5967,"Ġboost":5968,"mosp":5969,"Ġsan":5970,"DS":5971,"Ġremaining":5972,"Ġmeal":5973,"Ġworksh":5974,"Ġrelatively":5975,"Ġodd":5976,"Ġvictory":5977,"ĠNC":5978,"Ġinstitutions":5979,"Ġlux":5980,"aped":5981,"Ġhousing":5982,"Ġagencies":5983,"ĠIsl":5984,"II":5985,"Ġprotein":5986,"OC":5987,"oration":5988,"Ġregister":5989,"Ġconfig":5990,"Ġparticipate":5991,"ĠHistory":5992,"Ġtherapy":5993,"real":5994,"ĠWild":5995,"Ġparticipants":5996,"ilit":5997,"Ġmedicine":5998,"Ġcounty":5999,"Ġfeedback":6000,"Ġplanned":6001,"Ġsample":6002,"Ġcritic":6003,"Ġhur":6004,"ĠDef":6005,"Ke":6006,"ĠHead":6007,"ĠCharl":6008,"ĠThank":6009,"pret":6010,"ighter":6011,"azz":6012,"Ġeffectively":6013,"ĠAT":6014,"Ġchoices":6015,"Ġgro":6016,"Ġperman":6017,"Ġwal":6018,"Ġupdates":6019,"Ġmagn":6020,"ĠCat":6021,"ĠMuseum":6022,"ĠOper":6023,"pass":6024,"eries":6025,"Ġfilms":6026,"Ġoutput":6027,"Ġspiritual":6028,"hors":6029,"Ġrough":6030,"42":6031,"Ġtom":6032,"Ġbattery":6033,"Ġfields":6034,"ĠAud":6035,"Ġmatters":6036,"Ġchapter":6037,"Ġflo":6038,"Ġremote":6039,"Ġconfirm":6040,"Ġstrategies":6041,"Ġworldwide":6042,"Ġoblig":6043,"ĠStep":6044,"Ġdangerous":6045,"gage":6046,"lastname":6047,"Ġcontrast":6048,"appy":6049,"Ġcolour":6050,"ĠCam":6051,"Ġrecovery":6052,"Ġconstruct":6053,"Ġrecorded":6054,"EE":6055,"iams":6056,"Ġadministr":6057,"VD":6058,"Ġabuse":6059,"Ġherself":6060,"Ġvehicles":6061,"Ġnone":6062,"ĠBoston":6063,"AG":6064,"ĠMic":6065,"Ġchocolate":6066,"ĠView":6067,"Ġcircumstances":6068,"ĠProte":6069,"Ġcreation":6070,"Ġenem":6071,"Ġcrew":6072,"ĠCarolina":6073,"ala":6074,"Ġrestrict":6075,"west":6076,"Up":6077,"never":6078,"ĠMur":6079,"ĠHen":6080,"Ġexcess":6081,"ĠCorpor":6082,"Ġdestroy":6083,"Ġ36":6084,"Ġautomatically":6085,"ĠMartin":6086,"ĠMax":6087,"Ġissued":6088,"Am":6089,"Ġinstallation":6090,"Ġneighborhood":6091,"ĠCath":6092,"rome":6093,"Ġobvious":6094,"ĠVer":6095,"dro":6096,"prene":6097,"ĠStart":6098,"Ġcentre":6099,"Ġauthority":6100,"ĠInstead":6101,"oti":6102,"ĠCup":6103,"Ġfollows":6104,"Ġattacks":6105,"eah":6106,"Ġlit":6107,"Ġunf":6108,"Ġchain":6109,"Ġusual":6110,"Ġtrend":6111,"Ġdatabase":6112,"ĠBi":6113,":||":6114,"ĠAD":6115,"rics":6116,"Ġfellow":6117,"Fr":6118,"ĠSk":6119,"Ġdistribution":6120,"Ġ32":6121,"ĠMatt":6122,"ĠGra":6123,"Ġequal":6124,"ĠAbout":6125,"ĠSecond":6126,"Ġsignificantly":6127,"Ġknowing":6128,"Ġinstalled":6129,".'":6130,"Man":6131,"07":6132,"hi":6133,"estyle":6134,"Ġhonor":6135,"Ġmassive":6136,"ĠMaster":6137,"ĠCanadian":6138,"Ġscr":6139,"Ġ<":6140,"Ġpump":6141,"Ġstorm":6142,"Ġtrib":6143,"ollywood":6144,"08":6145,"56":6146,"Ġanx":6147,"Ġproviders":6148,"Ġofficers":6149,"Ġvit":6150,"ĠParis":6151,"Ġtrading":6152,"Ġrevealed":6153,"ĠDu":6154,"cknow":6155,"reprene":6156,"abet":6157,"Ġhousehold":6158,"Ġunlike":6159,"ĠMen":6160,"Ġchat":6161,"Ġcharged":6162,"Ġwarrant":6163,"Ġfurniture":6164,"CE":6165,"Over":6166,"gend":6167,"hus":6168,"Ġmoments":6169,"Ġpublish":6170,"Ind":6171,"lla":6172,"Ġreceiving":6173,"Ġpositions":6174,"hent":6175,"ĠEnergy":6176,"Ġkeeps":6177,"Ġsubstant":6178,"ĠArts":6179,"Ġemployment":6180,"ĠMinister":6181,"arrow":6182,"Ġfixed":6183,"ĠiPhone":6184,"Ġresearchers":6185,"Ġpractical":6186,"uated":6187,"Ġmel":6188,"ĠOR":6189,"apes":6190,"Ġanswers":6191,"Ġpurchased":6192,"Ġreput":6193,"Ġholds":6194,"ĠWhere":6195,"Ġcomprehensive":6196,"Ġleague":6197,"Im":6198,"Ġmissed":6199,"ĠRussian":6200,"Ġaccurate":6201,"Ġlaugh":6202,"Ġinvestors":6203,"ĠLim":6204,"Ġsuggested":6205,"pot":6206,"Ġtaught":6207,"Ġdepress":6208,"Ġreform":6209,"lymp":6210,"Ġformed":6211,"Ġadvoc":6212,"Ġbelieved":6213,"ĠBas":6214,"ĠProv":6215,"ĠLand":6216,"comm":6217,"Ġidentity":6218,"ĠGlobal":6219,"Since":6220,"can":6221,"tr":6222,"Ġconstantly":6223,"Ġcutting":6224,"Ġtea":6225,"Ġshares":6226,"Ġsurprise":6227,"Ġbread":6228,"gent":6229,"Ġcro":6230,"Ġfro":6231,"Ġreturns":6232,"Ġprotected":6233,"Ġgrab":6234,"esh":6235,"Ġworst":6236,"ĠKnow":6237,"ĠPolice":6238,"CA":6239,"Ġrow":6240,"Ġring":6241,"Ġarms":6242,"ĠVirginia":6243,"ĠPenn":6244,"ĠList":6245,"och":6246,"ĠPac":6247,"Ġinfrastructure":6248,"Ġforth":6249,"aks":6250,"Ġshooting":6251,"acks":6252,"ĠSteve":6253,"paper":6254,"78":6255,"eless":6256,"Click":6257,"respond":6258,"Ġfulf":6259,"ĠWeek":6260,"Ġinvolve":6261,"Ġjustice":6262,"Ġbasket":6263,"sm":6264,"Ġmal":6265,"ĠRev":6266,"ĠMP":6267,"Ġsuitable":6268,"Ġelig":6269,"Ġhappening":6270,"Ġcooking":6271,"Ġcriminal":6272,"oster":6273,"Ġatmosp":6274,"Ġven":6275,"Ġcontro":6276,"Ġsin":6277,"ĠThose":6278,"Ġtopics":6279,"Ġexpertise":6280,"enced":6281,"Ġoutdoor":6282,"iors":6283,"ĠAndroid":6284,"Or":6285,"Ġped":6286,"reets":6287,"ĠâĢ¢":6288,"weight":6289,"Ġwindows":6290,"Ġincredible":6291,"ef":6292,"inch":6293,"ĠSupport":6294,"Ġcompetitive":6295,"Ġrestaurants":6296,"ĠRepublican":6297,"abled":6298,"Ġdram":6299,"Ġillustr":6300,"Ġemotional":6301,"Ġboys":6302,"atre":6303,"ĠDev":6304,"Ġwinner":6305,"ournament":6306,"Oh":6307,"alog":6308,"Ġindeed":6309,"Ġrenew":6310,"Dr":6311,"Ġincreases":6312,"Ġwid":6313,"oga":6314,"ĠSto":6315,"Ġguest":6316,"Ġvaluable":6317,"TC":6318,"Ġgoods":6319,"Another":6320,"Ġscript":6321,"Ġexpression":6322,"Ġchart":6323,"Ġscored":6324,"Ġmagazine":6325,"Ġsettings":6326,"Ġentertainment":6327,"Ġnurs":6328,"ĠCas":6329,"Ġgrown":6330,"opyright":6331,"Ġturning":6332,"Ġgrade":6333,"Ġengineering":6334,"Ġroute":6335,"inet":6336,"Ġshoes":6337,"Ġ48":6338,"Ġappeal":6339,"hered":6340,"Ġcommission":6341,"ĠIndust":6342,"Ġelectronic":6343,"cers":6344,"owing":6345,"Ġearned":6346,"Ġcycle":6347,"Ġassessment":6348,"Ġhurt":6349,"Ġexternal":6350,"Ġsimpl":6351,"Ġfolks":6352,"xy":6353,"ato":6354,"Ġsyn":6355,"Ġinnovative":6356,"Ġalcohol":6357,"Ġtiss":6358,"uting":6359,"Ġenable":6360,"Ġregularly":6361,"Ġacknow":6362,"ĠRussia":6363,"Ġcandidates":6364,"Ġsick":6365,"Ġrand":6366,"Ġdomestic":6367,"Ġguarantee":6368,"ingu":6369,"ĠTown":6370,"illy":6371,"ĠHD":6372,"ĠExt":6373,"Then":6374,"ĠIran":6375,"Ġconver":6376,"Ġlovely":6377,"Ġrecognized":6378,"ache":6379,"Ġstudio":6380,"TA":6381,"Ġchannel":6382,"Ġdisappoint":6383,"43":6384,"ĠKeep":6385,"Ġplate":6386,"Ġpresentation":6387,"aid":6388,"Ġ2021":6389,"agon":6390,"Ġ300":6391,"Ġassign":6392,"Ġfrequently":6393,"lo":6394,"Ġaf":6395,"ĠGirl":6396,"Ġspr":6397,"cribe":6398,"Ġiron":6399,"06":6400,"Other":6401,"Ġguard":6402,"ATION":6403,"Ġvacc":6404,"Ġperfectly":6405,"ĠLibrary":6406,"Ġreasonable":6407,"Ġfighting":6408,"Ġboat":6409,"Ġprocedures":6410,"Ġcrazy":6411,"ĠMichigan":6412,"Ġenforce":6413,"anger":6414,"Ġextended":6415,"ĠColumb":6416,"Ġcandidate":6417,"Mar":6418,"ĠTem":6419,"Ġwheel":6420,"ĠMaybe":6421,"irms":6422,"Ġlosing":6423,"odd":6424,"Ġdish":6425,"09":6426,"ĠFull":6427,"ĠEnd":6428,"Ġnoticed":6429,"oosing":6430,"LY":6431,"ĠWal":6432,"vy":6433,"Ġfeatured":6434,"Ġinches":6435,"Ġcampus":6436,"Ġpolitics":6437,"ĠControl":6438,"Ġriver":6439,"Ġreliable":6440,"ĠAri":6441,"eline":6442,"199":6443,"ĠPhot":6444,"Are":6445,"Many":6446,"sembly":6447,"Ġattorney":6448,"ĠCA":6449,"Ġcarefully":6450,"Ġnative":6451,"ora":6452,"Ġscheduled":6453,"Ġinstructions":6454,"rible":6455,"Ġcheese":6456,"Ġtypical":6457,"Ġupper":6458,"Ġfacts":6459,"Ġmonthly":6460,"Ġdebate":6461,"zer":6462,"Ġ?":6463,"inations":6464,"ĠMiddle":6465,"ras":6466,"Ġportion":6467,"ĠAsia":6468,"iverse":6469,"Ġbrands":6470,"Ġregulations":6471,"Ġrandom":6472,"Ġchicken":6473,"ĠPlus":6474,"Ġsymbol":6475,"ĠMS":6476,"ĠRichard":6477,"Ġnavig":6478,"ensity":6479,"Ġdistinct":6480,"lights":6481,"Ġinstitution":6482,"Ġmessages":6483,"ĠSar":6484,"Ġcovers":6485,"ĠArmy":6486,"Ġclothes":6487,"wing":6488,"Ġmusical":6489,"rete":6490,"ĠSqu":6491,"ĠManager":6492,"58":6493,"Ġregional":6494,"Ġsupports":6495,"Ġdim":6496,"Once":6497,"à¤":6498,"Today":6499,"Ġspoke":6500,"Ġathlet":6501,"gas":6502,"ĠPub":6503,"Ġhouses":6504,"Ġrisks":6505,"02":6506,"Ġimpossible":6507,"Ġauthorities":6508,"Ġdiss":6509,"Posted":6510,"41":6511,"Ġconserv":6512,"ĠSpirit":6513,"ĠCentre":6514,"inding":6515,"va":6516,"Ġdoors":6517,"Ġdegrees":6518,"osite":6519,"Spe":6520,"host":6521,"ĠAustralian":6522,"Pe":6523,"oral":6524,"Ġhabit":6525,"ansas":6526,"ansion":6527,"riting":6528,"Ġille":6529,"Ġfigures":6530,"Ġwalls":6531,"Ġowned":6532,"Ġtaxes":6533,"date":6534,"Ġdump":6535,"astern":6536,"Ġlayer":6537,"ĠAcademy":6538,"ĠMo":6539,"Ġvast":6540,"Ġkne":6541,"Ġdeals":6542,"oman":6543,"ĠEconom":6544,"Ġsurf":6545,"ĠBoy":6546,"Ġvisiting":6547,"yard":6548,"ĠOlymp":6549,"Ã¡":6550,"Ġbless":6551,"Ġdecade":6552,"MA":6553,"Ġgrew":6554,"Ġentered":6555,"Ġhorse":6556,"rid":6557,"ĠBow":6558,"ĠFair":6559,"ĠChief":6560,"gypt":6561,"Ġpil":6562,"alse":6563,"ĠItalian":6564,"cluded":6565,"Ġappreciate":6566,"Ġtail":6567,"ĠAR":6568,"Ġcontest":6569,"ĠChildren":6570,"ua":6571,"âĢĻ.":6572,"Tr":6573,"iety":6574,"Ġsituations":6575,"ĠGal":6576,"Ġupcoming":6577,"Ġticket":6578,"HS":6579,"ĠSports":6580,"Ġmillions":6581,"lines":6582,"ĠTit":6583,"Ġdescription":6584,"Ġphase":6585,"Ġconducted":6586,"long":6587,"Ġyards":6588,"ĠLee":6589,"Ġroutine":6590,"Ġedition":6591,"Ġrealized":6592,"Ġconfirmed":6593,"Ġfacing":6594,"Mr":6595,"anges":6596,"Ġsmell":6597,"ĠWilliams":6598,"Ġoriginally":6599,"icial":6600,"Ġinfo":6601,"Ġhealthcare":6602,"orders":6603,"Ġinterior":6604,"Ġsusp":6605,"57":6606,"Ġfirstname":6607,"ĠAnother":6608,"----":6609,"Ġbreath":6610,"inder":6611,"ĠAdv":6612,"Ġmuscle":6613,"Ġdelay":6614,"Ġprospect":6615,"eration":6616,"Ġhate":6617,"Ġhook":6618,"ether":6619,"lete":6620,"Ġmeetings":6621,"born":6622,"Ġsessions":6623,"Ġsky":6624,"ĠKen":6625,"GB":6626,"merce":6627,"Ġinnovation":6628,"ml":6629,"inem":6630,"ĠCir":6631,"pat":6632,"ĠLog":6633,"Ġbirthday":6634,"ĠÐ":6635,"bal":6636,"Ġdiscussed":6637,"Ġpulled":6638,"Ġdefined":6639,"04":6640,"Ġsuccessfully":6641,"Ġtalent":6642,"Ġawareness":6643,"ĠSign":6644,"ĠAuthor":6645,"ĠSpring":6646,"ĠSP":6647,"ĠVictor":6648,"person":6649,"uling":6650,"bi":6651,"ĠFOR":6652,"Ġsilver":6653,"aniel":6654,"Ġadm":6655,"Ġchallenging":6656,"Of":6657,"Ġassets":6658,"ints":6659,"!!!":6660,"ican":6661,"emic":6662,"Ġhardware":6663,"Ġbeer":6664,"Ġfoundation":6665,"Go":6666,"Ġloves":6667,"ĠFollow":6668,"Ġtrig":6669,"Ġtack":6670,"Ġteeth":6671,"Ġretire":6672,"Ġunable":6673,"Ġtwe":6674,"Ġcoordin":6675,"ERS":6676,"agues":6677,"ĠThrough":6678,"Ġisland":6679,"Ġprompt":6680,"Although":6681,"Ġregistration":6682,"from":6683,"gs":6684,"Ġdrivers":6685,"Ġaffordable":6686,"ĠJon":6687,"ĠYoung":6688,"Ġacid":6689,"Ġrecognize":6690,"earing":6691,"rum":6692,"Ġseriously":6693,"Ġsurprised":6694,"âĢĻ,":6695,"cking":6696,"Ġdifferences":6697,"ĠBefore":6698,"Ġaffili":6699,"ĠOhio":6700,"Ġbonus":6701,"Ġbear":6702,"Ġfairly":6703,"alle":6704,"ĠFestival":6705,"Ġcapable":6706,"elf":6707,"Ġsurrounding":6708,"ĠAff":6709,"ĠLive":6710,"Ġstands":6711,"Ġmountain":6712,"ĠBrand":6713,"Ġdropped":6714,"Ġben":6715,"Ġletters":6716,"ĠLt":6717,"Ġmanufacturing":6718,"Ġvirtual":6719,"Ġcake":6720,"Ġrein":6721,"ĠBible":6722,"Ġvul":6723,"Ġserves":6724,"Ġplanet":6725,"ĠTour":6726,"Ġprove":6727,"ĠScot":6728,"Ġbreakfast":6729,"Also":6730,"Ġefficiency":6731,"ih":6732,"Ġancient":6733,"Ġsuc":6734,"elly":6735,"ĠPass":6736,"nam":6737,"ÃŃ":6738,"Ġcommittee":6739,"ugh":6740,"ĠBush":6741,"Ġinvent":6742,"Ġwarn":6743,"ĠAccess":6744,"Ġjack":6745,"ĠiP":6746,"ĠEr":6747,"ĠContact":6748,"OVID":6749,".||":6750,"Ġdates":6751,"Ġsubmit":6752,"Ġfunny":6753,"Ġmixed":6754,"mond":6755,"Ġcorn":6756,"Ġcompens":6757,"REE":6758,"Ed":6759,"awn":6760,"Ġauthors":6761,"ĠGeorg":6762,"Ġgraduate":6763,"Ġdiverse":6764,"Ġclosely":6765,"Ġtomorrow":6766,"Ġincident":6767,"Ġpremium":6768,"Ġlistening":6769,"Ġwalked":6770,"nic":6771,"inally":6772,"Ġexclusive":6773,"Ġcounsel":6774,"Ġresolution":6775,"Ġengage":6776,"ĠWalk":6777,"Ġtiny":6778,"omy":6779,"ĠEp":6780,"ĠCoast":6781,"Ġprivacy":6782,"FC":6783,"Ġpossibility":6784,"Ġobjects":6785,"66":6786,"Ġheight":6787,"tle":6788,"igure":6789,"ĠItaly":6790,"ĠCreat":6791,"umes":6792,"Ġroot":6793,"Ġorganic":6794,"ĠCharles":6795,"icing":6796,"Ġpayments":6797,"Ġslowly":6798,"Sp":6799,"Ġcommunications":6800,"law":6801,"ĠIre":6802,"ĠColl":6803,"ĠHand":6804,"ĠEqu":6805,"ta":6806,"Ġnegoti":6807,"Ġdelicious":6808,"Ġenthus":6809,"Ġpatterns":6810,"ĠWhether":6811,"PC":6812,"Ġshift":6813,"Ġdepth":6814,"Ġyounger":6815,"Ġvillage":6816,"Ġphilosoph":6817,"Ġstretch":6818,"Ġhang":6819,"ĠEU":6820,"Ġliked":6821,"iner":6822,"Ġcooper":6823,"Ġages":6824,"Ġadventure":6825,"Ġmachines":6826,"Ġexpectations":6827,"Ġsuggests":6828,"TR":6829,"Ġid":6830,"Ġyellow":6831,"Ġongoing":6832,"Ġpharm":6833,"Ġpainting":6834,"cling":6835,"Ġprofit":6836,"Ġrevolution":6837,"ĠDigital":6838,"Ġnuclear":6839,"oty":6840,"Ġhumans":6841,"AY":6842,"ML":6843,"ĠPage":6844,"Ġreporting":6845,"ĠFrancisco":6846,"03":6847,"Ġtank":6848,"Ġplug":6849,"Ġconsistent":6850,"ĠCast":6851,"Ġvital":6852,"eding":6853,"Ġcorrespond":6854,"she":6855,"esides":6856,"Ġpassing":6857,"ĠContin":6858,"Ġempt":6859,"Where":6860,"ĠLo":6861,"Ġmini":6862,"ĠArab":6863,"away":6864,"aturally":6865,"ĠJustice":6866,"Int":6867,"Ġnarr":6868,"class":6869,"ailability":6870,"ĠPrem":6871,"Ġattrib":6872,"uster":6873,"pay":6874,"Ġtalked":6875,"cons":6876,"Ġarts":6877,"Ġrail":6878,"Ġflowers":6879,"Free":6880,"otal":6881,"ĠSaf":6882,"ĠColorado":6883,"Ġsucceed":6884,"Ġlegislation":6885,"ĠRights":6886,"achel":6887,"inton":6888,"Ġcock":6889,"secut":6890,"Ġdelight":6891,"amber":6892,"ĠLink":6893,"ĠFarm":6894,"Ġevil":6895,"Ġtransition":6896,"endar":6897,"Ġfuck":6898,"Ġnecessarily":6899,"Ġprepar":6900,"Ġcollected":6901,"greg":6902,"stream":6903,"uls":6904,"ubs":6905,"ĠJackson":6906,"resents":6907,"ĠSet":6908,"ĠCode":6909,"ĠDie":6910,"Ġnormally":6911,"Per":6912,"ĠLittle":6913,"Ġlegs":6914,"Ġvictims":6915,"Ġthin":6916,"comes":6917,"Ġtested":6918,"Ġicon":6919,"Ġlicens":6920,"Ġtag":6921,"Ġrelief":6922,"ĠNight":6923,"Ġsauce":6924,"ca":6925,"elcome":6926,"Ġpersonally":6927,"Ġphotograp":6928,"Ġultimately":6929,"iser":6930,"ĠNext":6931,"Ġgay":6932,"Ġurban":6933,"Ġhall":6934,"aints":6935,"Ġshots":6936,"oval":6937,"Ġcarbon":6938,"Ġoperate":6939,"SS":6940,"Ġsight":6941,"ĠSup":6942,"zil":6943,"52":6944,"Ġast":6945,"ghan":6946,"isms":6947,"ĠDivision":6948,"Ġsizes":6949,"Even":6950,"Ġimmediate":6951,"Ġbare":6952,"Ġflood":6953,"ĠMid":6954,"ĠJun":6955,"orne":6956,"ĠSon":6957,"Ġfeaturing":6958,"utch":6959,"anish":6960,"ĠCre":6961,"ĠRest":6962,"Ġinstruct":6963,"ographic":6964,"Ġsolar":6965,"Ġbelieves":6966,"ĠCook":6967,"Ġguitar":6968,"Ġtasks":6969,"Ġconscious":6970,"Ġapproval":6971,"Ġalleged":6972,"Ġhits":6973,"Ġdescribe":6974,"Ġpartnership":6975,"Ġstone":6976,"Ġhell":6977,"ĠPack":6978,"lder":6979,"ĠEgypt":6980,"ĠTherefore":6981,"Ġeveryday":6982,"EST":6983,"ĠRight":6984,"ospit":6985,"View":6986,"ĠGall":6987,"Ġfeelings":6988,"Ġliquid":6989,"urning":6990,"pected":6991,"Ġvend":6992,"Ġaccessible":6993,"Ġtonight":6994,"hem":6995,"adium":6996,"Ġsomewhere":6997,"uality":6998,"Ġobtained":6999,"Ġbrowser":7000,"Ġstreets":7001,"ĠInte":7002,"ppers":7003,"itage":7004,"Ġconfident":7005,"Ġborder":7006,"redit":7007,"ression":7008,"Ġslot":7009,"Thanks":7010,"Ġstatements":7011,"Ġstruggle":7012,"ĠHotel":7013,"Ġsubsequ":7014,"ĠSecretary":7015,"aper":7016,"ĠDC":7017,"Ġhoping":7018,"whel":7019,"Ġerr":7020,"Ġorganized":7021,"ĠDoes":7022,"ĠSite":7023,"Ġsustainable":7024,"mar":7025,"ĠCert":7026,"Ġhasn":7027,"Ġrose":7028,"Ġgolf":7029,"ashed":7030,"Ġlie":7031,"claim":7032,"plete":7033,"oin":7034,"sters":7035,"han":7036,"pes":7037,"pel":7038,"Ġadds":7039,"Ġimprovement":7040,"Ġlikes":7041,"ĠYet":7042,"Ġskill":7043,"weet":7044,"Ġreward":7045,"HA":7046,"Ġpersons":7047,"Ġtrained":7048,"Ġdealing":7049,"Col":7050,"Ġpapers":7051,"ellect":7052,"Ġloans":7053,"Ġlinked":7054,"Ġintegrated":7055,"Ġguidance":7056,"Look":7057,"Ġbanks":7058,"Ġpitch":7059,"ĠWatch":7060,"Ġintent":7061,"Ġthorough":7062,"ogen":7063,"Ġcontemporary":7064,"Ġrepresents":7065,"profit":7066,"Ġanticip":7067,"Ġprotest":7068,"foot":7069,"Ġsufficient":7070,"ĠEll":7071,"Ġappointment":7072,"isters":7073,"cue":7074,"berry":7075,"Ġfinds":7076,"Ġexposure":7077,"Ġsoci":7078,"RS":7079,"Ġproof":7080,"ĠUt":7081,"Ġheav":7082,"During":7083,"Ġlessons":7084,"Ġentreprene":7085,"Ġillness":7086,"Ġargument":7087,"ĠCross":7088,"UL":7089,"ĠCost":7090,"Ġchose":7091,"yers":7092,"orable":7093,"Ġimpressive":7094,"lements":7095,"Ġpromise":7096,"Ġinformed":7097,"Ġcable":7098,"pload":7099,"ĠAndrew":7100,"ĠOS":7101,"Ġanyway":7102,"Ġbowl":7103,"ĠSher":7104,"ĠHard":7105,"ults":7106,"Ġindex":7107,"Ġsuffering":7108,"John":7109,"owntown":7110,"ĠFour":7111,"Ġremained":7112,"Ġtalks":7113,"stein":7114,"Ġacts":7115,"Ġglad":7116,"bles":7117,"grad":7118,"ĠMrs":7119,"Ġestimated":7120,"uine":7121,"asters":7122,"Ġshel":7123,"Ġextent":7124,"Ġscientists":7125,"ĠJewish":7126,"Ġbedroom":7127,"Ġbodies":7128,"ĠPot":7129,"Ġsmile":7130,"Ġauto":7131,"Ġtechnique":7132,"Ġfiled":7133,"Ġtut":7134,"Ġbat":7135,"entle":7136,"Ġnetworks":7137,"Ġclothing":7138,"Ġthread":7139,"Ġagents":7140,"Ġmonitoring":7141,"des":7142,"Ġmic":7143,"ĠLind":7144,"Ġpercentage":7145,"Ġabsor":7146,"Ġinjuries":7147,"etime":7148,"Who":7149,"Ġbasically":7150,"ĠGuide":7151,"76":7152,"Ġpod":7153,"Ġnob":7154,"Ġgrass":7155,"Ġauthent":7156,"oned":7157,"Ġrecording":7158,"American":7159,"ĠBal":7160,"Ġtrick":7161,"Ġ1999":7162,"ĠOil":7163,"ĠAgain":7164,"Ġdining":7165,"rage":7166,"Ġattached":7167,"ĠExecutive":7168,"Ġwet":7169,"ĠHospital":7170,"ĠGames":7171,"Ġprinciples":7172,"Ġexecut":7173,"Ġatmosphere":7174,"Ġtall":7175,"ĠRoman":7176,"made":7177,"ĠHor":7178,"ĠTrust":7179,"Ġelev":7180,"Ġreferred":7181,"stone":7182,"ĠPlace":7183,"Ġexpressed":7184,"star":7185,"izz":7186,"ampion":7187,"ĠPrice":7188,"Ġreligion":7189,"sue":7190,"otton":7191,"obs":7192,"Ġresulting":7193,"Ġ75":7194,"Ġ1990":7195,"case":7196,"ouch":7197,"Ġwriters":7198,"Ġnarrow":7199,"ĠOpt":7200,"Ġ38":7201,"ĠUsing":7202,"Ġpursu":7203,"Ġsearching":7204,"uction":7205,"iana":7206,"Ġreplacement":7207,"oup":7208,"Ġcreates":7209,"ixture":7210,"ĠCB":7211,"Ġinterpret":7212,"Ġwatched":7213,"rieved":7214,"Ġhat":7215,"quir":7216,"ĠKn":7217,"Ġdefault":7218,"Ġrear":7219,"ĠSouthern":7220,"Ġaside":7221,"asts":7222,"obby":7223,"Ġmand":7224,"racy":7225,"Ġexplains":7226,"Ġnearby":7227,"Ġcerem":7228,"ĠHollywood":7229,"umps":7230,"Â°":7231,"Ġcompr":7232,"onym":7233,"Ġreader":7234,"Ġfacilit":7235,"Ġdomain":7236,"Ġpounds":7237,"Ġbottle":7238,"Ġordered":7239,"ba":7240,"stood":7241,"Ġtech":7242,"Ġamend":7243,"Ġtwenty":7244,"Ġentr":7245,"Ġdiam":7246,"Ġforum":7247,"adel":7248,"Ġdirected":7249,"lyn":7250,"Ġconstant":7251,"Ġprecise":7252,"bel":7253,"acc":7254,"Ġobviously":7255,"Ġflash":7256,"celer":7257,"ĠMult":7258,"Ġneither":7259,"Ġlifestyle":7260,"Ġbroadcast":7261,")||":7262,"Ġpit":7263,"ĠTri":7264,"Ġimproving":7265,"arters":7266,"rition":7267,"Ġsoph":7268,"Ġsomewhat":7269,"Ġforever":7270,"ventional":7271,"PM":7272,"aning":7273,"Ġmuseum":7274,"ĠCH":7275,"Ġconvenient":7276,"aylor":7277,"Ġheads":7278,"ĠEnvironment":7279,"ĠIrish":7280,"ĠBox":7281,"Ġdiscipl":7282,"Ġvulner":7283,"Ġnoise":7284,"Ġmoves":7285,"iac":7286,"ĠCra":7287,"raid":7288,"Ġphr":7289,"Ġcircuit":7290,"rich":7291,"nell":7292,"Ġcuts":7293,"Ġpleasure":7294,"Ġrepeated":7295,"level":7296,"Ġversions":7297,"sell":7298,"Ġweren":7299,"ĠSoft":7300,"300":7301,"ĠTru":7302,"ĠFurther":7303,"ĠVan":7304,"Ġcontribute":7305,"Ġlighting":7306,"Ġcategories":7307,"Ġsupplies":7308,"Ġsurprising":7309,"Ġmurder":7310,"eting":7311,"ĠHim":7312,"ĠStat":7313,"AB":7314,"Ġlad":7315,"ĠPDF":7316,"ĠFriend":7317,"athy":7318,"Ġevol":7319,"ĠHelp":7320,"Ġscholars":7321,"Ġagric":7322,"Ġfo":7323,"ĠEs":7324,"Ġacting":7325,"Ġtrends":7326,"Ġvirus":7327,"ĠIreland":7328,"arry":7329,"Ġinterface":7330,"Ġoccurred":7331,"abetes":7332,"ument":7333,"zing":7334,"Ġje":7335,"ĠPoint":7336,"Ġweekly":7337,"Ġsignal":7338,"htt":7339,"Ġsoil":7340,"Ġoutstanding":7341,"Ġresistance":7342,"aska":7343,"ele":7344,"ĠRyan":7345,"Ġpleased":7346,"including":7347,"Ġwest":7348,"==":7349,"Ġjun":7350,"Ġblind":7351,"Ġproposal":7352,"Ġweapons":7353,"Ġreputation":7354,"ifies":7355,"Ġstrike":7356,"ĠKim":7357,"roke":7358,"Ġgear":7359,"CR":7360,"rog":7361,"ureau":7362,"Ġapartment":7363,"Ġcrucial":7364,"Tube":7365,"ĠField":7366,"Ġspin":7367,"enger":7368,"ĠBlog":7369,"Ġcolumn":7370,"Ġlargely":7371,"Ġamounts":7372,"Ġconsumption":7373,"asant":7374,"ĠMach":7375,"ĠBon":7376,"ĠArea":7377,"Ġspaces":7378,"ĠSystems":7379,"Ġincreasingly":7380,"Ġfalse":7381,"ulating":7382,"Ġrig":7383,"Ġterrit":7384,"ĠLeg":7385,"Ġapparently":7386,"Ġduty":7387,"ounded":7388,"Ġprofessor":7389,"Ġcelebrate":7390,"Ġconflict":7391,"ĠRon":7392,"ĠLiber":7393,"ogether":7394,"UP":7395,"ĠDVD":7396,"Ġbridge":7397,"anna":7398,"Ġmoist":7399,"Med":7400,"inter":7401,"nda":7402,"Ġpin":7403,"ĠExpl":7404,"ĠBell":7405,"arks":7406,"Ġfasc":7407,"ura":7408,"Ġ)":7409,"Ġoverwhel":7410,"ĠInstagram":7411,"Ġdrinking":7412,"ĠAssist":7413,"ĠCatholic":7414,"Bu":7415,"iot":7416,"Ġphen":7417,"ĠResp":7418,"oir":7419,"Bec":7420,"ĠRay":7421,"abeth":7422,"Ġrental":7423,"ĠZeal":7424,"ĠMountain":7425,"ĠHarr":7426,"Ġ150":7427,"Ġclar":7428,"Ġreserved":7429,"live":7430,"ĠRoom":7431,"ĠRoyal":7432,"Ġbrill":7433,"Ġbroke":7434,"ĠSpanish":7435,"MP":7436,"ĠSearch":7437,"ĠKent":7438,"Ġdefinition":7439,"ĠStudies":7440,"ĠDownload":7441,"Pr":7442,"Ġinner":7443,"Ġalive":7444,"Ġentit":7445,"Ġinspiration":7446,"then":7447,"olit":7448,"Ġsheet":7449,"Ġluck":7450,"ĠLow":7451,"Ġwidely":7452,"Ġstyles":7453,"teen":7454,"Ġplot":7455,"Ġclaimed":7456,"idays":7457,"2013":7458,"Check":7459,"Ġdivid":7460,"Ġexperiment":7461,"Ġstrange":7462,"Ġsaved":7463,"Ġmembership":7464,"ĠApplic":7465,"cipal":7466,"dy":7467,"Ġease":7468,"ĠHon":7469,"CD":7470,"worth":7471,"Ġ37":7472,"ffered":7473,"Ġlandscape":7474,"Ġpermanent":7475,"plate":7476,"Ġmanual":7477,"Ġ33":7478,"Ġcopyright":7479,"Ġknock":7480,"ĠSn":7481,"Ġperforming":7482,"Ġplatforms":7483,"Ġtab":7484,"ĠJac":7485,"Ġmainly":7486,"Ġsending":7487,"Ġfaculty":7488,"TER":7489,"front":7490,"Sm":7491,"Ġunus":7492,"Ġtracks":7493,"Ġachieved":7494,"EP":7495,"ĠFar":7496,"ĠRam":7497,"Ġmagic":7498,"Ġimplementation":7499,"Ġchoosing":7500,"Ġpotentially":7501,"ĠPacific":7502,"Ġsensitive":7503,"ĠSometimes":7504,"Ġroles":7505,"Thank":7506,"ĠCOVID":7507,"Ġprimarily":7508,"Ġpace":7509,"Ġexceed":7510,"ificate":7511,"Ġdesigner":7512,"ĠFox":7513,"Ġcoal":7514,"ĠLtd":7515,"Ġ1998":7516,"Ġexistence":7517,"zona":7518,"Ġcapture":7519,"Ġcontrols":7520,"Ġmanaging":7521,"Ġobserved":7522,"Ġfavourite":7523,"iments":7524,"Ġexec":7525,"inos":7526,"ĠInf":7527,"Ġfaces":7528,"ĠKey":7529,"Ġera":7530,"inson":7531,"ĠGeorgia":7532,"%.":7533,"urb":7534,"Ġregions":7535,"liament":7536,"ĠZealand":7537,"Pre":7538,"cific":7539,"dated":7540,"Ġpra":7541,"ĠDate":7542,"Ġrecy":7543,"Ġpossess":7544,"making":7545,"ĠChair":7546,"Ġinvited":7547,"ikes":7548,"Ġcollaboration":7549,"ilst":7550,"Ġflour":7551,"bridge":7552,"ĠHa":7553,"BI":7554,"ĠRun":7555,"essel":7556,"Ġinvolves":7557,"Ġlucky":7558,"Ġreaction":7559,"ĠHope":7560,"Ġdivision":7561,"54":7562,"ĠFinancial":7563,"Ġexception":7564,"Ġstrategic":7565,"swe":7566,"ĠSanta":7567,"amental":7568,"xic":7569,"ĠAdministration":7570,"tes":7571,"Ġwithd":7572,"Ġmarked":7573,"Ġfounded":7574,"ĠThus":7575,"Ġflexible":7576,"ĠRose":7577,"tense":7578,"Ġtreatments":7579,"ennis":7580,"ĠSupreme":7581,"page":7582,"erate":7583,"ĠDid":7584,"Ġrequests":7585,"Ġbathroom":7586,"Ġaccomplish":7587,"Jan":7588,"Ġvacation":7589,"ðŁ":7590,"Ġsees":7591,"annels":7592,"Ġgenuine":7593,"Ġgender":7594,"Ġstood":7595,"Ð¾":7596,"Ġdust":7597,"Ġproven":7598,"ĠDisney":7599,"Ġultimate":7600,"Ġvent":7601,"Ġzone":7602,"ĠPolicy":7603,"Ġinstrument":7604,"Ġafraid":7605,"CO":7606,"Ġsavings":7607,"Have":7608,"urrent":7609,"anned":7610,"ĠJersey":7611,"Ġaggress":7612,"Ġlapt":7613,"Ġpriority":7614,"ĠRo":7615,"Ġpermission":7616,"Ġhopes":7617,"Ġkm":7618,"53":7619,"uous":7620,"Ġtip":7621,"Ġfinger":7622,"Ġformal":7623,"ystem":7624,"Ġlies":7625,"ĠDaily":7626,"Ġintelligence":7627,"inent":7628,"anwhile":7629,"ĠCa":7630,"ĠVideo":7631,"Ġcontinuing":7632,"Ġeast":7633,"ĠSky":7634,"urable":7635,"itionally":7636,"oken":7637,"ĠConnect":7638,"Ġlimits":7639,"holders":7640,"Gu":7641,"iger":7642,"Ġstuck":7643,"Ġfindings":7644,"Ġqualified":7645,"bar":7646,"Ġhole":7647,"Ġcomponent":7648,"Ġfifth":7649,"Ġeligible":7650,"rated":7651,"osm":7652,"Ġoffices":7653,"Ġflavor":7654,"Ġbirds":7655,"Ġhire":7656,"Ġgifts":7657,"Ġmanufacturer":7658,"EA":7659,"Ġnic":7660,"TV":7661,"Ġbab":7662,"Ġpink":7663,"Ġmile":7664,"Ġhidden":7665,"ava":7666,"ĠWebs":7667,"rency":7668,"lessly":7669,"Ġtissue":7670,"alty":7671,"iano":7672,"Ġvisited":7673,"Ġillegal":7674,"icted":7675,"Ġopposite":7676,"adow":7677,"tocol":7678,"Ġrelative":7679,"EG":7680,"Pub":7681,"Ġwins":7682,"ĠUk":7683,"Ġengaged":7684,"Ġpowder":7685,"ĠFed":7686,"Ġstronger":7687,"ters":7688,"uing":7689,"Ġbatt":7690,"Ġunw":7691,"ĠDisc":7692,"Ġdoctors":7693,"Ġ400":7694,"ĠAsh":7695,"800":7696,"ĠNote":7697,"Ġtransp":7698,"iversary":7699,"Ġstake":7700,"raction":7701,"acle":7702,"ĠThree":7703,"Ġspokes":7704,"Ġdevelopers":7705,"Car":7706,"Note":7707,"ĠKenn":7708,"Ġeverywhere":7709,"aze":7710,"Ġpassword":7711,"onto":7712,"Ġwash":7713,"Ġcrack":7714,"Ġoppon":7715,"Ġdrawing":7716,"ĠProfessor":7717,"Ġfestival":7718,"Ġdad":7719,"Ġrating":7720,"Ġsubmitted":7721,"this":7722,"ĠLabor":7723,"Ġdriven":7724,"Ġsaving":7725,"Ġcapabilities":7726,"lled":7727,"olar":7728,"ione":7729,"ppy":7730,"Ġhistoric":7731,"iece":7732,"ĠPolit":7733,"Ġattended":7734,"Ġtum":7735,"Ġjew":7736,"anny":7737,"ĠBritain":7738,"ĠGovern":7739,"ĠTax":7740,"Ġgenerate":7741,"ingers":7742,"Ġmm":7743,"uter":7744,"Ġvictim":7745,"ĠMarketing":7746,"Book":7747,"Ġmeals":7748,"Ġguidelines":7749,"ologist":7750,"Ġassault":7751,"Ġrecommendations":7752,"Ġdiseases":7753,"inte":7754,"ĠCO":7755,"Ġincredibly":7756,"Reg":7757,"ĠBrazil":7758,"Ġwra":7759,"ĠViet":7760,"Ġshouldn":7761,"rite":7762,"oured":7763,"ership":7764,"Rep":7765,"Ġintroduction":7766,"Ġevaluation":7767,"onna":7768,"ati":7769,"Ġpill":7770,"Ġeleg":7771,"Ġinvolving":7772,"Ġfitness":7773,"Ġliterature":7774,"Ġevolution":7775,"Ġheaded":7776,"Ġads":7777,"izabeth":7778,"ĠPhys":7779,"Ġintense":7780,"etry":7781,"iform":7782,"ĠVill":7783,"cover":7784,"Ġreplaced":7785,"Ġempty":7786,"Ġexpenses":7787,"Ġeggs":7788,"Ġchances":7789,"Ġclock":7790,"Ġcommonly":7791,"run":7792,"ĠHun":7793,"Ġdebut":7794,"Ġdreams":7795,"79":7796,"Ġseed":7797,"ĠNever":7798,"Ġanymore":7799,"ĠSupp":7800,"bre":7801,"ĠTer":7802,"Ġnewly":7803,"Ġprogramme":7804,"vard":7805,"Ġextract":7806,"Ġstructures":7807,"print":7808,"Ġforecast":7809,"Ġmortgage":7810,"Ġfirms":7811,"aping":7812,"''":7813,"Ġtournament":7814,"Ġcontrolled":7815,"Ġmemories":7816,"ĠAdam":7817,"sen":7818,"Ġpublication":7819,"Ġconsideration":7820,"Ġ34":7821,"Ġcausing":7822,"Ġluxury":7823,"formance":7824,"Ġflag":7825,"ĠHeart":7826,"Ġdesired":7827,"ĠSus":7828,"ĠBudd":7829,"âĢ¦.":7830,"erts":7831,"Ġvoters":7832,"Ġbomb":7833,"Ġdeposit":7834,"Ġoutcome":7835,"isdom":7836,"ĠFather":7837,"Two":7838,"Ġpipe":7839,"ĠBall":7840,"Press":7841,"Ġloving":7842,"ĠMill":7843,"cia":7844,"bits":7845,"Ġawards":7846,"Ġfalling":7847,"requ":7848,"Ġseasons":7849,"inking":7850,"ESS":7851,"Ġanxiety":7852,"Ġenforcement":7853,"Fi":7854,"ĠStan":7855,"Ġaccord":7856,"ĠConf":7857,"phy":7858,"Ġdrawn":7859,"Ġdepends":7860,"pir":7861,"Ġoven":7862,"ormal":7863,"Ġhosting":7864,"Ġrecover":7865,"Ġliterally":7866,"pack":7867,"Ġ;":7868,"ĠSat":7869,"Ġleather":7870,"Ġcarrying":7871,"Ġrising":7872,"ĠJr":7873,"Ġphotography":7874,"ĠForce":7875,"Ġcute":7876,"Ġyield":7877,"season":7878,"Ġ2022":7879,"ĠStudents":7880,"ĠTurn":7881,"amps":7882,"Ġelectrical":7883,"Ġbull":7884,"Ġexplan":7885,"Ġreduction":7886,"Ġfunctional":7887,"RI":7888,"Ġnom":7889,"Ġarrested":7890,"lers":7891,"ĠKar":7892,"Ġbell":7893,"Ġthinks":7894,"Ġdecent":7895,"Ġsolve":7896,"ĠWorks":7897,"Ġregardless":7898,"Ġbags":7899,"stery":7900,"etary":7901,"Ġsharp":7902,"izer":7903,"athan":7904,"ĠTraining":7905,"ĠSH":7906,"ĠCond":7907,"letter":7908,"Ġpreferred":7909,"ĠPriv":7910,"ĠDar":7911,"ocracy":7912,"Ġbreaking":7913,"ĠCountry":7914,"missions":7915,"ĠThough":7916,"ĠWhich":7917,"Ġcookies":7918,"folio":7919,"CL":7920,"Ġstead":7921,"Ġsplit":7922,"Ġhospit":7923,"imize":7924,"ĠPop":7925,"thew":7926,"Ġreducing":7927,"Ġalongside":7928,"Ġsubjects":7929,"Ġtact":7930,"Ġreject":7931,"izza":7932,"Before":7933,"Ġmerch":7934,"ĠRa":7935,"ĠLED":7936,"Ġmood":7937,"ceived":7938,"Ġchest":7939,"Ġcouncil":7940,"Because":7941,"68":7942,"Ġgene":7943,"ĠYouTube":7944,"Ġavailability":7945,"was":7946,"Ġtor":7947,"Ġinspe":7948,"Ġdeeply":7949,"ĠCorporation":7950,"wart":7951,"Ġlaid":7952,"Ġtransportation":7953,"ĠOk":7954,"Ġintellect":7955,"Ġharder":7956,"Ġlawyer":7957,"ĠAccount":7958,"Ġstrict":7959,"ĠEss":7960,"ogs":7961,"Ġvisible":7962,"Ġposting":7963,"ĠBuilding":7964,"ĠClin":7965,"inois":7966,"Ġthousand":7967,"Ġdynamic":7968,"adelph":7969,"Ġbact":7970,"Ġbunch":7971,"Ġundert":7972,"ĠSea":7973,"Follow":7974,"leep":7975,"ĠPract":7976,"64":7977,"uct":7978,"Ġpp":7979,"anted":7980,"Ġru":7981,"Ġbaseball":7982,"Ġprinted":7983,"ĠSilver":7984,"ĠCab":7985,"ĠRod":7986,"Ġcontained":7987,"Ġending":7988,"iate":7989,"itis":7990,"Ġreact":7991,"Ġexposed":7992,"erring":7993,"Ġrecognition":7994,"Ġhel":7995,"ĠClinton":7996,"ATE":7997,"ĠTravel":7998,"inity":7999,"Ġbars":8000,"ĠHou":8001,"ĠFord":8002,"Ġparam":8003,"Ġinfection":8004,"ĠAvenue":8005,"ĠStore":8006,"Ġinteract":8007,"ĠArizona":8008,"Ġquote":8009,"Ġ39":8010,"ounter":8011,"Ġgenerated":8012,"Ġequival":8013,"Ġsuffered":8014,"Ġalt":8015,"Ġpepper":8016,"Ġexpansion":8017,"Ġwrites":8018,"ĠTal":8019,"Ġbehalf":8020,"Ġforgot":8021,"ĠPS":8022,"Ġobst":8023,"51":8024,"Ġsynt":8025,"Ġcomparison":8026,"ĠHoly":8027,"ĠTech":8028,"Ġchannels":8029,"owers":8030,"Ġarmy":8031,"coin":8032,"Ġengagement":8033,"Ġelected":8034,"Ġpreparation":8035,"ĠDun":8036,"ĠQuest":8037,"ĠDemocratic":8038,"Like":8039,"ifer":8040,"Ġshops":8041,"Ġwhenever":8042,"Ġproducing":8043,"Ġtitles":8044,"Ġsupplement":8045,"ambling":8046,"friendly":8047,"Ġmerely":8048,"ĠJoseph":8049,"icious":8050,"ĠBroad":8051,"ĠLearn":8052,"ĠDrive":8053,"aine":8054,"ĠJenn":8055,"Ã¢":8056,"ĠBa":8057,"ĠBru":8058,"Ġassume":8059,"Ġcareful":8060,"Ġfilter":8061,"Ġconnections":8062,"ĠSmall":8063,"boy":8064,"Ġunderstood":8065,"Ġmarks":8066,"Ġsamples":8067,"Ġmatches":8068,"Ġenterprise":8069,"ĠFred":8070,"quality":8071,"bury":8072,"Ġisol":8073,"Ġputs":8074,"bell":8075,"Part":8076,"].":8077,"Ġscenes":8078,"yes":8079,"Ġlau":8080,"Ġeverybody":8081,"Ġextension":8082,"Oct":8083,"Ġlatter":8084,"ĠOp":8085,"Ġmanagers":8086,"iami":8087,"Ġnaturally":8088,"Ġconvin":8089,"days":8090,"epend":8091,"issions":8092,"2012":8093,"Ġencouraged":8094,"ĠGreek":8095,"being":8096,"ĠMA":8097,"Ġcharm":8098,"Ġcoc":8099,"isted":8100,"Ġresume":8101,"Ġfaced":8102,"Ġwaters":8103,"ĠRadio":8104,"irts":8105,"ĠFact":8106,"Ġhandling":8107,"Ġcolleagues":8108,"ĠAction":8109,"ĠWales":8110,"Ġfishing":8111,"Ġgotten":8112,"Ġscheme":8113,"ĠRetrieved":8114,"aron":8115,"allas":8116,"ĠUlt":8117,"Ġfundamental":8118,"Ġdestination":8119,"igation":8120,"Ġvessel":8121,"Ġspots":8122,"Ġconsists":8123,"Ġarrive":8124,"Ġsuddenly":8125,"His":8126,"Ġmac":8127,"ĠMobile":8128,"atell":8129,"Ġkilling":8130,"adelphia":8131,"Ġvice":8132,"ruption":8133,"Ġdollar":8134,"war":8135,"Ġtie":8136,"Ġbutt":8137,"ĠSpace":8138,"Ġescape":8139,"69":8140,"Ġbills":8141,"Ġpul":8142,"Ġprohib":8143,"ĠWi":8144,"Ġconsequences":8145,"ĠCR":8146,"Ġrefund":8147,"ĠMedicine":8148,"Ġinitiative":8149,"________":8150,"isa":8151,"ĠTerm":8152,"Ġcompare":8153,"Ġinstant":8154,"Ġindustries":8155,"ĠAwards":8156,"ocated":8157,"Ġobjective":8158,"Ġframework":8159,"ĠDemocrats":8160,"Ġzero":8161,"ĠTaylor":8162,"ĠPen":8163,"Ġseats":8164,"alysis":8165,"Ġphones":8166,"Ġ65":8167,"Ġjoining":8168,"Ġhyper":8169,"urities":8170,"Ġfinance":8171,"Ġdemands":8172,"ĠHenry":8173,"Ġsmoke":8174,"ĠShould":8175,")|":8176,"Ġlens":8177,"ĠSafety":8178,"Ġboss":8179,"ĠSav":8180,"ĠWH":8181,"Ġcompat":8182,"Ġrecon":8183,"chester":8184,"Ġstunning":8185,"ila":8186,"Ġcommunicate":8187,"Ġinjured":8188,"Ġlogo":8189,"Ġopposition":8190,"Ġcam":8191,"ĠSuch":8192,"ĠPo":8193,"ĠNon":8194,"ensus":8195,"Ġremoval":8196,"Ġsuperior":8197,"makers":8198,"ĠPak":8199,"Ġblank":8200,"Ġpersonality":8201,"Ġ1996":8202,"Ġsacr":8203,"orous":8204,"Ġgentle":8205,"riers":8206,"Ġtraveling":8207,"ĠPersonal":8208,"Back":8209,"Ġinsight":8210,"car":8211,"through":8212,"Ġindicate":8213,"Ġmaintaining":8214,"tail":8215,"usal":8216,"Ġque":8217,"Ġstored":8218,"Ġ55":8219,"oked":8220,"ĠBrad":8221,"Ġcontrovers":8222,"ĠNorthern":8223,"Ġlists":8224,"Ġcriteria":8225,"ashes":8226,"ĠSS":8227,"Ġoccurs":8228,"fall":8229,"ĠSpain":8230,"85":8231,"Ġgod":8232,"Ġadequ":8233,"heast":8234,"ĠDub":8235,"Ġpocket":8236,"Ġairport":8237,"Ġtomat":8238,"oted":8239,"Ġraw":8240,"iki":8241,"sts":8242,"Ġattitude":8243,"ĠCarl":8244,"Ġfib":8245,"Ġplane":8246,"bration":8247,"ĠDO":8248,"erving":8249,"Ġcovering":8250,"Ġcomputers":8251,"ĠTreat":8252,"Ġhung":8253,"ĠCON":8254,"ĠDaniel":8255,"ĠRoll":8256,"Ġpresents":8257,"Ġessentially":8258,"Ġpubl":8259,"Whe":8260,"mal":8261,"rection":8262,"ĠAp":8263,"Ġdispos":8264,"Ġcenters":8265,"AND":8266,"Ġsoldiers":8267,"dis":8268,"stra":8269,"ĠStill":8270,"Ġshoulder":8271,"Ġmistake":8272,"Ġtone":8273,"Ġracing":8274,"Ġ1997":8275,"Ġspeaker":8276,"Ġgiant":8277,"Ġuncom":8278,"Ġdrag":8279,"aters":8280,"Ġlect":8281,"ĠFun":8282,"uma":8283,"ĠStory":8284,"ĠIII":8285,"ds":8286,"ĠFall":8287,"89":8288,"Ġwave":8289,"Ġconcerning":8290,"Ġfraud":8291,"enth":8292,"Ġlady":8293,"ĠEnt":8294,"ĠRequ":8295,"books":8296,"Ġunex":8297,"ĠCru":8298,"Ġarchitecture":8299,"Ġbench":8300,"ĠCN":8301,"Ġnewspaper":8302,"Ġdepression":8303,"Ġtape":8304,"eness":8305,"Ġloud":8306,"ĠOrder":8307,"da":8308,"Ġriding":8309,"ervations":8310,"ĠAsian":8311,"Ġsections":8312,"Ġscan":8313,"eling":8314,"icking":8315,"haust":8316,"Step":8317,"400":8318,"ĠGM":8319,"roller":8320,"ĠHarry":8321,"Ġbasketball":8322,"Ġacceler":8323,"ilipp":8324,"Will":8325,"wan":8326,"Ġyard":8327,"ĠDam":8328,"Ġconcrete":8329,"cular":8330,"Ġboxes":8331,"Ġattempts":8332,"iti":8333,"Ġma":8334,"ĠFREE":8335,"Ġ($":8336,"Ġrice":8337,"ĠTry":8338,"Ġtrave":8339,"Ġrequested":8340,"ĠType":8341,"OO":8342,"VER":8343,"words":8344,"Ġwarning":8345,"Ġmixture":8346,"Ġstom":8347,"Ġcalendar":8348,"Ġawarded":8349,"cut":8350,"ĠTable":8351,"umm":8352,"Ġcrash":8353,"Ġsentence":8354,"Ġblocks":8355,"Ġattractive":8356,"Aug":8357,"ington":8358,"ller":8359,"Ġheaven":8360,"Ġresidential":8361,"ials":8362,"Ġequally":8363,"Ġtracking":8364,"Ðµ":8365,"Ġsought":8366,"Ġasks":8367,"Ġlegend":8368,"Ġmoral":8369,"ĠKorea":8370,"Tra":8371,"ĠâĢĻ":8372,"Ġinch":8373,"Ġupload":8374,"ĠLy":8375,"ĠLatin":8376,"ĠEric":8377,"ĠKat":8378,"Ġ49":8379,"Ġdefensive":8380,"Â·":8381,"acher":8382,"Ġtransaction":8383,"Ġstrongly":8384,"Ġborrow":8385,"Ġcolon":8386,"Ġstayed":8387,"Donald":8388,"ĠDiego":8389,"UD":8390,"Ġlets":8391,"Ġvolunteers":8392,"olis":8393,"Ġcomplicated":8394,"ĠHold":8395,"Ġshower":8396,"Ġapplicable":8397,"Ġerrors":8398,"GE":8399,"ĠLew":8400,"ĠAgency":8401,"Ġgranted":8402,"nce":8403,"Ġunknown":8404,"Ġstaying":8405,"67":8406,"ĠLLC":8407,"ĠNick":8408,"bro":8409,"ped":8410,"ĠSir":8411,"elry":8412,"Ġmeets":8413,"Ġretirement":8414,"ĠAnth":8415,"Ġunusual":8416,"Ġchildhood":8417,"Ġclosing":8418,"Ġchecking":8419,"Ġparticipation":8420,"ĠPerhaps":8421,"clusive":8422,"Ġentitled":8423,"Ġloyal":8424,"Ġrural":8425,"Ġadopted":8426,"ĠFoot":8427,"Ġcompliance":8428,"zed":8429,"Ġgap":8430,"ilty":8431,"Ġinitially":8432,"Ġentering":8433,"Ġlegit":8434,"ĠKevin":8435,"bow":8436,"Ġusage":8437,"ĠAfghan":8438,"Ġpowers":8439,"Ġtired":8440,"ortion":8441,"Ġactor":8442,"Ġfrustr":8443,"ĠPrime":8444,"Ã¼":8445,"Ġtied":8446,"Ġgreatly":8447,"Ġopens":8448,"pending":8449,"Ġ1980":8450,"Ġopinions":8451,"Ġjuice":8452,"tics":8453,"Ġchronic":8454,"Ġpersonnel":8455,"Ġmedication":8456,"Ġpointed":8457,"ĠArm":8458,"ĠÂ»":8459,"ĠEngineering":8460,"Sec":8461,"swered":8462,"ĠMiller":8463,"Lear":8464,"icide":8465,"Ġsuffer":8466,"nesota":8467,"DP":8468,"EX":8469,"Ġfalls":8470,"Ġpig":8471,"ulum":8472,"Ġadmit":8473,"ĠIllinois":8474,"Wor":8475,"Ġplain":8476,"EF":8477,"ira":8478,"ĠBrian":8479,"Ġperformances":8480,"ylvan":8481,"Best":8482,"vas":8483,"Ġwake":8484,"omething":8485,"iking":8486,"Ġstruck":8487,"burgh":8488,"Ġham":8489,"Ġgaming":8490,"Ġcertified":8491,"ulpt":8492,"Ġimper":8493,"Ġreturning":8494,"Ġcharacteristics":8495,"Ġske":8496,"Ġdiversity":8497,"Ġnights":8498,"ILL":8499,"Find":8500,"ĠSales":8501,"ĠHas":8502,"Ġapproaches":8503,"Ġsuggestions":8504,"Ġassociation":8505,"ĠKingdom":8506,"Ġelectricity":8507,"cm":8508,"ritten":8509,"Ġrely":8510,"ĠOrig":8511,"Ġblend":8512,"riter":8513,"Ġrepresented":8514,"Ġrespectively":8515,"Ġcasual":8516,"Ġpand":8517,"ĠCivil":8518,"ĠPsych":8519,"orgeous":8520,"ĠDream":8521,"aret":8522,"bered":8523,"AF":8524,"Ġflying":8525,"umer":8526,"Ġspark":8527,"Ġheading":8528,"'.":8529,"ĠAge":8530,"ador":8531,"ĠMah":8532,"ĠEastern":8533,"erman":8534,"ĠArticle":8535,"Ġdisplayed":8536,"Ġsorry":8537,"Ġgained":8538,"Ġpreparing":8539,"ĠDavis":8540,"ĠSenior":8541,"Ġrapidly":8542,"gov":8543,"Ġvibr":8544,"Ġassistant":8545,"Ġmanufacturers":8546,"BM":8547,"anes":8548,"ĠIM":8549,"eties":8550,"ĠDark":8551,"intage":8552,"Ġrequirement":8553,"âĤ¬":8554,"Ġrecipes":8555,"ito":8556,"Ġadj":8557,"Ġuniverse":8558,"%,":8559,"Aut":8560,"ĠPut":8561,"ĠPrin":8562,"Ġaddresses":8563,"hour":8564,"Ġdental":8565,"Ġconcert":8566,"Ġsmoking":8567,"Ġreaching":8568,"aza":8569,"high":8570,"ĠSection":8571,"Good":8572,"Ġbone":8573,"Ġstable":8574,"Ġjur":8575,"Ġensuring":8576,"Each":8577,"ĠEth":8578,"Ġoffensive":8579,"ĠElizabeth":8580,"Ġfarmers":8581,"ĠFilm":8582,"Ġtill":8583,"ĠProm":8584,"Ġaircraft":8585,"ĠÂ©":8586,"ĠSummer":8587,"Ġdrama":8588,"ĠCurrent":8589,"iour":8590,"Ġhip":8591,"Ġaband":8592,"Ġaccessories":8593,"UM":8594,"Ġ42":8595,"Ġ1995":8596,"ipt":8597,"Ġmob":8598,"Ġcomprom":8599,"upid":8600,"Ġphilosophy":8601,"ĠHouston":8602,"ĠDNA":8603,"ĠNFL":8604,"Ġsingles":8605,"Ġcontributions":8606,"ĠRepublicans":8607,"child":8608,"ateful":8609,"Ġenables":8610,"Rem":8611,"Ġocean":8612,"iler":8613,"Ġconventional":8614,"ĠOx":8615,"ĠCredit":8616,"ĠGarden":8617,"ĠEsc":8618,"Ġdose":8619,"Inst":8620,"Ġpurchasing":8621,"Ġhaz":8622,"cker":8623,"ERE":8624,"Ġclassroom":8625,"Art":8626,"Ġwireless":8627,"phones":8628,"Ġprize":8629,"stract":8630,"andy":8631,"ĠRef":8632,"Ġraising":8633,"ourse":8634,"Ġloose":8635,"Ġenjoying":8636,"rer":8637,"Ġbaking":8638,"Ġles":8639,"step":8640,"Ġlesson":8641,"nders":8642,"Ġpacked":8643,",âĢĻ":8644,"Ġstations":8645,"Ġpoker":8646,"ĠUnfortunately":8647,"ĠSeattle":8648,"Ġinstruction":8649,"Ġcoat":8650,"Ġprogramming":8651,"Sim":8652,"Ġexists":8653,"Ġcoup":8654,"ĠColumbia":8655,"Ġnations":8656,"eters":8657,"ĠEmer":8658,"Ġfewer":8659,"hire":8660,"iag":8661,"Ġsouthern":8662,"Ġokay":8663,"ĠBern":8664,"Ġanswered":8665,"Ġdeeper":8666,"Ġtemporary":8667,"ĠGi":8668,"Ġflower":8669,"Ġuncertain":8670,"ylvania":8671,"igen":8672,"Ġarr":8673,"Ġofficially":8674,"who":8675,"Ġconcepts":8676,"ĠMagazine":8677,"ĠWebsite":8678,"stal":8679,"cend":8680,"aka":8681,"Ġcalm":8682,"ĠQueen":8683,"SE":8684,"Ġupgrade":8685,"Ġwise":8686,"Ġconclusion":8687,"Ġremem":8688,"People":8689,"Ã³":8690,"ĠUr":8691,"ogy":8692,"ĠMember":8693,"Ġorange":8694,"month":8695,"ĠCapital":8696,"Ġstir":8697,"Ġcombat":8698,"Ġportfolio":8699,"Ġdanger":8700,"ught":8701,"HL":8702,"ĠName":8703,"inating":8704,"Ġstudied":8705,"ART":8706,"regon":8707,"rets":8708,"Ġlip":8709,"Ġstages":8710,"ĠMir":8711,"Ġminister":8712,"Ġadvent":8713,"Ġexhibition":8714,"ĠHaving":8715,"iah":8716,"ĠStone":8717,"Ġhadn":8718,"Ġminimal":8719,"Ġfranch":8720,"Ġhosted":8721,"imer":8722,"Ġcrypt":8723,"Ġsubstantial":8724,"irus":8725,"ĠMD":8726,"ĠMiami":8727,"Ġworried":8728,"ordan":8729,"Ġimmigr":8730,"Ġequivalent":8731,"cor":8732,"Ġvisits":8733,"Ġceremony":8734,"wich":8735,"Ġunem":8736,"anguage":8737,"Ġcontracts":8738,"ĠNation":8739,"oding":8740,"http":8741,"ji":8742,"Ġinterviews":8743,"Ġcameras":8744,"Ġpregnancy":8745,"63":8746,"Ġequipped":8747,"Ġheavily":8748,"fa":8749,"je":8750,"pany":8751,"Ġpushed":8752,"Ġbrilliant":8753,"Feb":8754,"Ġlin":8755,"Ġlisting":8756,"Ġunion":8757,"Ġindicated":8758,"ĠCommon":8759,"ĠLearning":8760,"alo":8761,"iffe":8762,"ĠLocal":8763,"acon":8764,"Ġcontaining":8765,"Ġinteraction":8766,"Ġdispl":8767,"87":8768,"vol":8769,"Ġtub":8770,"Ġdowntown":8771,"site":8772,"lections":8773,"char":8774,"ĠGro":8775,"Ġcourts":8776,"ĠNO":8777,"ronics":8778,"ali":8779,"Ġblow":8780,"kel":8781,"tery":8782,"Ġhighlights":8783,"Ġfounder":8784,"ĠExpress":8785,"Ġsubsid":8786,"Ġworkshop":8787,"Ġorient":8788,"ockey":8789,"Ġphenomen":8790,"ĠTool":8791,"Ġadmitted":8792,"Ġarray":8793,"ja":8794,"oric":8795,"Ġlung":8796,"Ġdeploy":8797,"Ġassigned":8798,"ĠLas":8799,"Ġapplying":8800,"itutional":8801,"Ġrestrictions":8802,"ĠPu":8803,"Ġmuscles":8804,"Ġjudgment":8805,"Ġlifetime":8806,"ilton":8807,"ĠEst":8808,"osa":8809,"Ġemployer":8810,"Ġrepresentative":8811,"ĠTele":8812,"Ġmold":8813,"Ġinteractive":8814,"Ġdiabetes":8815,"ĠWithout":8816,"Ġratio":8817,"Ġswimming":8818,"hemat":8819,"odge":8820,"agan":8821,"Ġoutcomes":8822,"Ġsomebody":8823,"iley":8824,"Ġly":8825,"pled":8826,"Ġdamaged":8827,"Ġcompensation":8828,"Ġauthentic":8829,"Comm":8830,"iary":8831,"Ġ~":8832,"ĠCase":8833,"Ġweird":8834,"ccer":8835,"ĠSteel":8836,"Ġdecline":8837,"Ġther":8838,"urse":8839,"gel":8840,"onder":8841,"Ġfocusing":8842,"RC":8843,"ĠIce":8844,"ckets":8845,"Ġmyth":8846,"ĠProper":8847,"Ġroads":8848,"Ġenemy":8849,"ĠCapt":8850,"ĠBit":8851,"ĠMembers":8852,"sex":8853,"jection":8854,"Ġbass":8855,"Ġaccused":8856,"liers":8857,"Ġshirt":8858,"Ġproved":8859,"Ġconsent":8860,"Ġgrace":8861,"Ġscores":8862,"Ġresponses":8863,"owed":8864,"Ġbuff":8865,"ko":8866,"sylvania":8867,"ĠChall":8868,"ĠPhiladelphia":8869,"Ġrarely":8870,"after":8871,"Ġintegration":8872,"ĠLat":8873,"cludes":8874,"Ġlosses":8875,"Ġaccuracy":8876,"Ġvolunteer":8877,"Ġvegetables":8878,"ĠBase":8879,"Ġdeck":8880,"Ġkit":8881,"ĠAllen":8882,"Ġ1994":8883,"ĠSwed":8884,"ĠBand":8885,"pson":8886,"Ġfru":8887,"intend":8888,"organ":8889,"ĠWas":8890,"Ġexhaust":8891,"eping":8892,"ĠMinnesota":8893,"ĠBuy":8894,"Ġstruggling":8895,"Ġgraphics":8896,"uana":8897,"zes":8898,"ĠTR":8899,"uties":8900,"Ġwanting":8901,"roduction":8902,"Ġimprovements":8903,"athered":8904,"icket":8905,"Ġintention":8906,"df":8907,"Ġcul":8908,"ĠCP":8909,"ĠNatural":8910,"Ġsurve":8911,"Ġminds":8912,"Ġgovernments":8913,"Fl":8914,"aver":8915,"imp":8916,"achus":8917,"ĠProcess":8918,"Ġexplos":8919,"Ġcontribution":8920,"Ġenthusi":8921,"Ġopposed":8922,"Ġlift":8923,"Ġsevent":8924,"Ġrum":8925,"ĠWilson":8926,"Co":8927,"aud":8928,"Take":8929,"viously":8930,"Ð°":8931,"Ġsed":8932,"Ġemotions":8933,"Ob":8934,"Ġhealing":8935,"osc":8936,"arly":8937,"Ġemails":8938,"Ġelections":8939,"ĠBarb":8940,"Ġspeakers":8941,"looking":8942,"wear":8943,"Ġmole":8944,"Ġouts":8945,"orses":8946,"Ġscoring":8947,"Ġprovision":8948,"ĠChampionship":8949,"Ġinsert":8950,"Ġtradem":8951,"gor":8952,"Ġinfect":8953,"Ġsomehow":8954,"Ġdeaths":8955,"Ġlaptop":8956,"Ġbold":8957,"cribed":8958,"Ġtemperatures":8959,"ĠNic":8960,"clude":8961,"ĠGuard":8962,"ĠiPad":8963,"Ġcm":8964,"ĠOak":8965,"ĠKh":8966,"ĠPur":8967,"ĠDallas":8968,"opher":8969,"Ġreveal":8970,"Ġsurvival":8971,"ĠForest":8972,"Ġdivided":8973,"RL":8974,"Ġneut":8975,"ĠOK":8976,"iscal":8977,"othe":8978,"ĠInsurance":8979,"power":8980,"charge":8981,"raine":8982,"Ġproport":8983,"ĠUSB":8984,"Ġsinger":8985,"iscons":8986,"Ġpregnant":8987,"GA":8988,"ĠMs":8989,"Ġ44":8990,"Stud":8991,"Ġsurvive":8992,"Ġtroops":8993,"Ġhide":8994,"Ġhearts":8995,"Ġmg":8996,"ĠPA":8997,"ĠBeing":8998,"isconsin":8999,"Ġdesper":9000,"Ġwhilst":9001,"ifting":9002,"Ġattach":9003,"2011":9004,"Ġterrible":9005,"ĠMoon":9006,"ĠNAS":9007,"apore":9008,"Ġorganis":9009,"ucks":9010,"Ġviewing":9011,"brid":9012,"Ġwondering":9013,"ĠBrook":9014,"Ġstomach":9015,"HT":9016,"sis":9017,"ĠSem":9018,"Ġdrinks":9019,"ĠVegas":9020,"Ġgorgeous":9021,"ĠHart":9022,"Ġstring":9023,"ĠPhilipp":9024,"Ġlanguages":9025,"Ġ!":9026,"Ġchampion":9027,"ĠVery":9028,"ĠSelect":9029,"Ġcircle":9030,"Ġtoler":9031,"ĠIde":9032,"Ġconvey":9033,"ĠLine":9034,"Ġoffense":9035,"fers":9036,"ĠRen":9037,"ĠOl":9038,"Ġscreens":9039,"Ġtransactions":9040,"Ġtrem":9041,"ĠStock":9042,"ĠBad":9043,"Ġguilty":9044,"Ġprivile":9045,"rus":9046,"Ġwisdom":9047,"Ġmad":9048,"aval":9049,"ĠSmart":9050,"Ġdescribes":9051,"Ġcups":9052,"ĠToronto":9053,"Ġpilot":9054,"Cons":9055,"ĠBang":9056,"ĠEvent":9057,"ĠProfessional":9058,"ked":9059,"ĠImm":9060,"Ġtelephone":9061,"rape":9062,"ĠRub":9063,"encing":9064,"Ġoral":9065,"Ġengaging":9066,"Ġconstit":9067,"sect":9068,"Ġsegment":9069,"ĠLA":9070,"ĠBridge":9071,"Ġemerging":9072,"Ġconservative":9073,"onic":9074,"Ġbid":9075,"Ġtrim":9076,"ĠBeaut":9077,"unes":9078,"ĠKansas":9079,"Ġalign":9080,"ffective":9081,"Ġmeasured":9082,"ĠJosh":9083,"Ġdishes":9084,"Ġinvestments":9085,"Ġbreaks":9086,"Ġimmune":9087,"Ġpandemic":9088,"ĠSC":9089,"Ġsigning":9090,"Ġcombine":9091,"Ġdivor":9092,"ĠBarn":9093,"Ġanniversary":9094,"Ġcomplaint":9095,"Ġacquis":9096,"ĠSarah":9097,"ĠCamer":9098,"ĠJay":9099,"Ġski":9100,"ĠTrade":9101,"Ġclubs":9102,"hop":9103,"rary":9104,"xx":9105,"Ġuniform":9106,"Ġgallery":9107,"Ġ]":9108,"Ġfest":9109,"ĠFa":9110,"Ġprime":9111,"ĠDean":9112,"Ġalter":9113,"Ġspecialist":9114,"Ġattending":9115,"mates":9116,"Ġtherap":9117,"Ġfits":9118,"Ġexport":9119,"Ġdisaster":9120,"Ġdistributed":9121,"Ġtargets":9122,"Ġburning":9123,"ugs":9124,"Ġmaintained":9125,"Ġexceptional":9126,"Ġintellectual":9127,"',":9128,"abil":9129,"Ġtargeted":9130,"mo":9131,"âĢ³":9132,"Ġcomedy":9133,"Ġgate":9134,"ĠThink":9135,"Ġcharity":9136,"theless":9137,"ĠFinally":9138,"Ġownership":9139,"ĠMother":9140,"mann":9141,"Ġbrothers":9142,"ĠMuslim":9143,"61":9144,"Ġrelation":9145,"Ġintroduce":9146,"iro":9147,"Ġfiction":9148,"Ġestimate":9149,"Ġcotton":9150,"ĠCL":9151,"ĠCro":9152,"Ġfocuses":9153,"Ġsummary":9154,"ouri":9155,"Ġgym":9156,"etts":9157,"ĠDave":9158,"pers":9159,"edge":9160,"anth":9161,"ductive":9162,"Ġmassage":9163,"SC":9164,"Ġ120":9165,"Ġresident":9166,"Ġfactory":9167,"fections":9168,"Ġsignature":9169,"Ġwithdraw":9170,"vals":9171,"Ġtort":9172,"ĠHT":9173,"Ġchecked":9174,"world":9175,"Ġmask":9176,"Ġconvert":9177,"agraph":9178,"ennes":9179,"dney":9180,"Ġspray":9181,"ĠChapter":9182,"Ġshell":9183,"Ġemployers":9184,"600":9185,"rat":9186,"inst":9187,"ĠNumber":9188,"apse":9189,"angers":9190,"Ġvotes":9191,"Ġtap":9192,"Ġsod":9193,"ĠPalest":9194,"Ġsatisfaction":9195,"Ġcopies":9196,"ĠðŁ":9197,"Ġbes":9198,"ĠReading":9199,"Ġacknowled":9200,"Ġdual":9201,"style":9202,"Ġsetup":9203,"Ġtrips":9204,"ĠDespite":9205,"Ġconsistently":9206,"ĠPennsylvania":9207,"Ġaccordance":9208,"Dis":9209,"Â©":9210,"ractions":9211,"Ġemployed":9212,"Ġpricing":9213,"Ġimplemented":9214,"Ġcontainer":9215,"Ġhitting":9216,"ardens":9217,"Ġscope":9218,"Ġcompletion":9219,"Ġstudying":9220,"ĠStudent":9221,"Day":9222,"Mark":9223,"Ġletting":9224,"Ġcelebration":9225,"Ġunexpected":9226,"97":9227,"ĠRog":9228,"Ġpackaging":9229,"ALL":9230,"ĠOregon":9231,"Ġproducer":9232,"Ġstatistics":9233,"Ġprinting":9234,"Ġpermit":9235,"Ġregulation":9236,"offs":9237,"Ġhoriz":9238,"Ġcorrectly":9239,"Ġsatisfied":9240,"Ġflexibility":9241,"Ġvert":9242,"ressed":9243,"rowse":9244,"ĠProdu":9245,"ĠStephen":9246,"Ġspir":9247,"Ġrecre":9248,"Ġpursue":9249,"Ġperiods":9250,"ĠScotland":9251,"AV":9252,"Under":9253,"inth":9254,"omed":9255,"Ġgig":9256,"ustration":9257,"Ġcompete":9258,"Ġprayer":9259,"Ġfur":9260,"rix":9261,"ĠEX":9262,"Ġtransmission":9263,"Ġmovements":9264,"ĠEdition":9265,"Ġdeclared":9266,"Ġneighb":9267,"Ġpromoting":9268,"break":9269,"Ġdil":9270,"Ġstability":9271,"Ġ41":9272,"Ġantib":9273,"Ġfilling":9274,"roit":9275,"ĠGreg":9276,"inks":9277,"Ġlawsu":9278,"Ġlayers":9279,"ĠRomney":9280,"ĠGolden":9281,"ĠProtection":9282,"Ġlicensed":9283,"ĠTalk":9284,"ĠDri":9285,"Ġformula":9286,"ijuana":9287,"Ġcha":9288,"ounce":9289,"screen":9290,"Ġmistakes":9291,"Ġphotographs":9292,"urg":9293,"ĠCut":9294,"ĠCOM":9295,"Ġkiss":9296,"hesis":9297,"ĠNeed":9298,"omatic":9299,"ĠAC":9300,"ĠFR":9301,"Ġpackages":9302,"Ġseeds":9303,"Ġinnoc":9304,"Ġdemonstrate":9305,"Ġcodes":9306,"isd":9307,"ĠMess":9308,"Ġsecondary":9309,"Ġarrival":9310,"Ã¶":9311,"otes":9312,"terior":9313,"awa":9314,"Ġbuyers":9315,"Ġacquired":9316,"Ġnose":9317,"agers":9318,"Ġresort":9319,"Ġguaranteed":9320,"Ġkil":9321,"Ġpasses":9322,"Ġmit":9323,"Ġdeveloper":9324,"Ġparticipating":9325,"Ġdifficulty":9326,"Ġvoting":9327,"ĠMade":9328,"Ġrecall":9329,"aun":9330,"Ġcann":9331,"Make":9332,"Ġhunt":9333,"ĠSep":9334,"Ġpreced":9335,"Ġactors":9336,"Ġpride":9337,"%)":9338,"98":9339,"El":9340,"Ġtons":9341,"ayer":9342,"they":9343,"ĠStandard":9344,"verty":9345,"Ġpeak":9346,"ĠSteven":9347,"ĠMatthew":9348,"gener":9349,"rell":9350,"Ġmild":9351,"ĠSab":9352,"riculum":9353,"uating":9354,"ĠSoftware":9355,"cest":9356,"avor":9357,"ĠLevel":9358,"Ġsolo":9359,"hyth":9360,"ĠMichel":9361,"achusetts":9362,"DR":9363,"low":9364,"mod":9365,"ĠCreek":9366,"Ġspa":9367,"Ġrecruit":9368,"ĠContent":9369,"Ġheating":9370,"ibl":9371,"criptions":9372,"ĠJudge":9373,"ĠAtlanta":9374,"iences":9375,"Ġgrounds":9376,"ĠBooks":9377,"High":9378,"inated":9379,"ĠSex":9380,"Ġsinging":9381,"Ġemotion":9382,"Ġpushing":9383,"Ġthy":9384,"ĠTony":9385,"Ġsear":9386,"Ġ(âĢľ":9387,"ĠOwn":9388,"ĠStaff":9389,"Ġprincipal":9390,"lee":9391,"Ġappointed":9392,"Use":9393,"uten":9394,"2010":9395,"Ġexplo":9396,"Ġpenalty":9397,"mble":9398,"Ġabroad":9399,"Ġ1970":9400,"Ġ:)":9401,"........":9402,"Ġpublishing":9403,"QL":9404,"Welcome":9405,"Ġwestern":9406,"Ġhiring":9407,"Ġjail":9408,"coln":9409,"Ġvirtually":9410,"Contact":9411,"Ġvenue":9412,"Ġindu":9413,"Ġrenov":9414,"Ġprotocol":9415,"Ġdismiss":9416,"Ġdivide":9417,"Ġregulatory":9418,"Ġnerv":9419,"ĠConsult":9420,"ĠIndiana":9421,"Ġterr":9422,"ĠBat":9423,"Ġnarrative":9424,"onymous":9425,"Copyright":9426,"Ġtooth":9427,"Ġhes":9428,"unate":9429,"emed":9430,"assion":9431,"Ġholidays":9432,"ĠOfficer":9433,"Ġtoile":9434,"ordinary":9435,"ĠChange":9436,"ificial":9437,"ĠCancer":9438,"Ġordinary":9439,"owa":9440,"ima":9441,"ĠBul":9442,"Ġcompe":9443,"icked":9444,"Ġliability":9445,"ĠET":9446,"Ġgrateful":9447,"Ġdefine":9448,"ĠCooper":9449,"ĠJam":9450,"ĠJane":9451,"Ġpoverty":9452,"Ġbranch":9453,"ĠRemember":9454,"ĠIslam":9455,".;":9456,"jo":9457,"Ġdent":9458,"Ġstupid":9459,"Ġsurge":9460,"Ġservers":9461,"Ġaddressed":9462,"Ġresponded":9463,"ĠProducts":9464,"ĠBBC":9465,"Ġovercome":9466,"Ġroughly":9467,"Google":9468,"owered":9469,"ching":9470,"ĠMov":9471,"asted":9472,"Ġteasp":9473,"Ġresulted":9474,"Ġdiscussions":9475,"Ġutility":9476,"Ġdelivering":9477,"ĠExperience":9478,"Ġdramatic":9479,"ĠMajor":9480,"Ġ43":9481,"Ġdistingu":9482,"Ġsequence":9483,"Mon":9484,"à¨":9485,"ĠExam":9486,"Ġwinners":9487,"Ġelsewhere":9488,"game":9489,"ĠShop":9490,"Ġfunctionality":9491,"nie":9492,"Ġhoney":9493,"ĠAB":9494,"ĠMom":9495,"istent":9496,"ervice":9497,"Ġscream":9498,"Ġentrance":9499,"erk":9500,"ĠBull":9501,"abama":9502,"sole":9503,"ĠHell":9504,"Ġknee":9505,"Ġlake":9506,"ĠFL":9507,"Ġventure":9508,"Ġalarm":9509,"ĠIndepend":9510,"cuse":9511,"ORE":9512,"Ġgrocer":9513,"Ġsubsequent":9514,"olt":9515,"olid":9516,"ĠVice":9517,"Ġroots":9518,"Ġaccounting":9519,"Ġsemi":9520,"Ġprinciple":9521,"Ġmirror":9522,"iders":9523,"ĠMun":9524,"Ġimportantly":9525,"Ġpainted":9526,"vironments":9527,"ĠBrother":9528,"Ġpresidential":9529,"Ġvoted":9530,"MC":9531,"Ġsynd":9532,"Ġdesigners":9533,"Ġnorthern":9534,"udes":9535,"Ġhotels":9536,"ping":9537,"only":9538,"ĠLiving":9539,"ĠVen":9540,"ĠCloud":9541,"Ġviewed":9542,"Ġautomatic":9543,"Ġdenied":9544,"iel":9545,"ĠResources":9546,"Christ":9547,"Ġencounter":9548,"Ġcertification":9549,"ĠLewis":9550,"Ġfingers":9551,"opt":9552,"acular":9553,"Ġscrew":9554,"Ġ46":9555,"ĠHawai":9556,"esy":9557,"ĠBud":9558,"Ġswing":9559,"Ġconversations":9560,"utter":9561,"ixed":9562,"Ġessays":9563,"Ġreleases":9564,"Ġdemonstrated":9565,"don":9566,"occ":9567,"uis":9568,"cience":9569,"Ġstrengthen":9570,"Ġinspection":9571,"ifier":9572,"Ġ250":9573,"Ġclicking":9574,"Ġcampaigns":9575,"atellite":9576,"KE":9577,"ĠWisconsin":9578,"ĠLeon":9579,"Ġdrives":9580,"Ġblogs":9581,"Ġhydro":9582,"Ġcontributed":9583,"Ġpanels":9584,"Ġporn":9585,"Ġthro":9586,"zzle":9587,"Ġannouncement":9588,"Gl":9589,"imental":9590,"cked":9591,"onds":9592,"airy":9593,"cope":9594,"Ġbeneficial":9595,"Despite":9596,"72":9597,"Ġangle":9598,"ĠHay":9599,"Ġkeys":9600,"Ġcreativity":9601,"Ġholes":9602,"Ġfed":9603,"ĠPitt":9604,"atern":9605,"Ġ64":9606,"Ġadvantages":9607,"giving":9608,"Ġsorts":9609,"ĠMu":9610,"Ġresid":9611,"there":9612,"Ġparalle":9613,"Ġphysician":9614,"ĠAttorney":9615,"Ġangry":9616,"arat":9617,"Ġhanging":9618,"Ġrefe":9619,"ĠCome":9620,"imm":9621,"Ġinsights":9622,"ĠDead":9623,"Ġasset":9624,"ĠShort":9625,"Ġversus":9626,"ainless":9627,"week":9628,"Ġfinishing":9629,"ĠAdvis":9630,"Ġargue":9631,"chers":9632,"Ġleaf":9633,"Ġdozen":9634,"pton":9635,"arring":9636,"proof":9637,"Ġdesktop":9638,"Join":9639,"ĠPartners":9640,"Ġnursing":9641,"ĠDoc":9642,"Ġships":9643,"Ġinhib":9644,"Ġvoc":9645,"Ġrelating":9646,"Ġoperational":9647,"Ġgolden":9648,"Ġdecrease":9649,"Fe":9650,"ĠIC":9651,"ighth":9652,"Ġsettlement":9653,"Ġdestroyed":9654,"ultane":9655,"Ġoverse":9656,"Ġtries":9657,"ĠPrint":9658,"Ġpicking":9659,"ĠCustomer":9660,"iatric":9661,"ĠPers":9662,"rous":9663,"Ġexpanded":9664,"Ġrepeat":9665,"Ġaimed":9666,"Ġestimates":9667,"herent":9668,"omer":9669,"oof":9670,"Ġdirections":9671,"ĠIslamic":9672,"urches":9673,"Ġseam":9674,"called":9675,"Ġcow":9676,"ĠBody":9677,"ishment":9678,"ĠServer":9679,"Ġsubscription":9680,"Ġgarlic":9681,"Great":9682,"PL":9683,"ocks":9684,"minute":9685,"Ġmattress":9686,"fire":9687,"ĠStation":9688,"Ġagenda":9689,"Ġsafely":9690,"Ġconsultation":9691,"ols":9692,"Ġdisorder":9693,"ĠAdvent":9694,"ĠQuality":9695,"Ġlowest":9696,"Ġimmigration":9697,"Ġsophist":9698,"Ġtutorial":9699,".-":9700,"Time":9701,"ĠTheatre":9702,"Ġabilities":9703,"ĠKind":9704,"ĠAng":9705,"Ġinitiatives":9706,"?)":9707,"Top":9708,"una":9709,"reement":9710,"grade":9711,"Out":9712,"ĠHIV":9713,"Ġ800":9714,"Ġhardly":9715,"Ġsurely":9716,"HD":9717,"post":9718,"Ġmanif":9719,"ĠDeb":9720,"ĠAnnual":9721,"ĠIV":9722,"ĠBuff":9723,"ĠJason":9724,"Ġperm":9725,"Ġrefused":9726,"ĠMassachusetts":9727,"pool":9728,"Ġelder":9729,"ĠRick":9730,"Ġranked":9731,"Ġexplanation":9732,"ĠPakistan":9733,"Ġbands":9734,"Ġsculpt":9735,"73":9736,"Ġgenerations":9737,"ĠMarc":9738,"Ġmechanism":9739,"Down":9740,"Ġmaps":9741,"Ġduties":9742,"ĠHur":9743,"Ġboot":9744,"Ġtalented":9745,"ĠModern":9746,"Ġindicates":9747,"150":9748,"Ġchampionship":9749,"Ġreviewed":9750,"ĠAnton":9751,"Net":9752,"Start":9753,"Ġinflamm":9754,"ĠVietnam":9755,"ĠCS":9756,"Ġbehaviour":9757,"Ġwarranty":9758,"ĠVillage":9759,"Met":9760,"gments":9761,"Ġconj":9762,"aws":9763,"ĠClark":9764,"limited":9765,"Ġdiagnosis":9766,"Ġunlikely":9767,"Ġladies":9768,"Ġfool":9769,"irk":9770,"ĠBry":9771,"quarters":9772,"Ġabund":9773,"ITY":9774,"ĠAirport":9775,"Ġaccompan":9776,"Ġmoon":9777,"ĠFac":9778,"ĠThings":9779,"Ġinspect":9780,"amsung":9781,"Ġabsence":9782,"ascular":9783,"Ġtrailer":9784,"tical":9785,"will":9786,"Ġconce":9787,"Ġenorm":9788,"Ġcertificate":9789,"Friday":9790,"vation":9791,"ĠCry":9792,"ĠEasy":9793,"Ġstocks":9794,"Ġjewelry":9795,"rep":9796,"igious":9797,"ieve":9798,"Ġhappiness":9799,"Ġ1993":9800,"84":9801,"itate":9802,"ĠSound":9803,"Ġyours":9804,"Ġ1992":9805,"Ġsubstance":9806,"ho":9807,"Ġboards":9808,"Ġuniversities":9809,"ĠMit":9810,"Ġrepresentatives":9811,"found":9812,"rend":9813,"Ġ52":9814,"Ġtexture":9815,"ĠWould":9816,"Ġactively":9817,"ĠExchange":9818,"ĠDonald":9819,"Ġobjectives":9820,"ĠSciences":9821,"ĠAvailable":9822,"Next":9823,"Ġeliminate":9824,"isting":9825,"Ġfantasy":9826,"ĠGovernor":9827,"function":9828,"Ġaims":9829,"oen":9830,"walk":9831,"ingham":9832,"Ġweigh":9833,"ersion":9834,"Ġinvite":9835,"Ġ99":9836,"Ġfrequency":9837,"elve":9838,"Ġbrush":9839,"Ġdiscovery":9840,"Ġspecified":9841,"Ġconcentration":9842,"hist":9843,"Ġtoys":9844,"cycle":9845,"ĠAustin":9846,"asty":9847,"ĠKids":9848,"Ġimpression":9849,"Ġemphasis":9850,"Ġadministrative":9851,"MI":9852,"Ġyoga":9853,"Ġgathered":9854,"otte":9855,"Ġpossibilities":9856,"ĠRecords":9857,"Äģ":9858,"Ġfired":9859,"Ġnit":9860,"Ġtender":9861,"Ġspell":9862,"Ġaccum":9863,"Ġ1960":9864,"Ġvulnerable":9865,"vity":9866,"ĠBh":9867,"Ġcomposition":9868,"Ġtrials":9869,"ĠCli":9870,"Ġstops":9871,"ĠML":9872,"Ġlemon":9873,"ouses":9874,"Ġscar":9875,"gged":9876,"Ġviolent":9877,"ĠIsraeli":9878,"uminum":9879,"Ġdialogue":9880,"Ġterritory":9881,"ĠJordan":9882,"Ġreply":9883,"Ġexploring":9884,"Ġcouples":9885,"Ġcaptured":9886,"orneys":9887,"Rel":9888,"pire":9889,"Ġproduces":9890,"ĠSydney":9891,"Ġbene":9892,"Ġresidence":9893,"athon":9894,"ĠAnderson":9895,"enter":9896,"ista":9897,"olds":9898,"Ġprescription":9899,"Ġchecks":9900,"Ġchemicals":9901,"Gener":9902,"Ġbub":9903,"ĠED":9904,"ospel":9905,"ricted":9906,"Ġraces":9907,"Ġ95":9908,"Ġpossession":9909,"ĠChristians":9910,"ĠStudy":9911,"Ġphrase":9912,"Ġought":9913,"Ġfert":9914,"Ġpatch":9915,"ĠDom":9916,"about":9917,"Ġchips":9918,"Ġworship":9919,"ĠKelly":9920,"ĠAuto":9921,"Ġgarage":9922,"Ġbarely":9923,"Ġvendors":9924,"alm":9925,"Ġtoxic":9926,"Ġreferences":9927,"Ġbanking":9928,"Ġgonna":9929,"ĠCore":9930,"ami":9931,"Ġediting":9932,"Ġsalary":9933,"ĠComputer":9934,"ECT":9935,"dep":9936,"vi":9937,"ested":9938,"Ġdefect":9939,"Ġnobody":9940,"atile":9941,"Ġinev":9942,"Ġnomin":9943,"Ġgambling":9944,"Ġworn":9945,"fee":9946,"Ġaged":9947,"2009":9948,"Ġsixth":9949,"Ġexcite":9950,"Ġwooden":9951,"ĠSquare":9952,"Work":9953,"Ġslic":9954,"Ġalert":9955,"ĠMemorial":9956,"Ġathletes":9957,"250":9958,"Did":9959,"tains":9960,"Ġthemes":9961,"Ġroy":9962,"Ġconvenience":9963,"gorith":9964,"ĠTen":9965,"ĠSU":9966,"ĠSize":9967,"Ġretired":9968,"ĠMcDonald":9969,"Ġpassionate":9970,"ĠMotor":9971,"cr":9972,"Ġwider":9973,"section":9974,"ĠPast":9975,"Ġhopefully":9976,"Ġsleeping":9977,"market":9978,"Ġax":9979,"itches":9980,"Ġalleg":9981,"ĠOcean":9982,"Ġreserve":9983,"Ġskilled":9984,"Ġsuppliers":9985,"Ġliberal":9986,"Ġinquir":9987,"Ġhorses":9988,"ethe":9989,"Ġlean":9990,"Ġprominent":9991,"Ġguns":9992,"62":9993,"Ge":9994,"Sub":9995,"wall":9996,"ĠDog":9997,"Ġrac":9998,"ĠSyria":9999,"Ġexperiencing":10000,"ĠEveryone":10001,"ĠEnvironmental":10002,"Ġfranchise":10003,"74":10004,"via":10005,"Ġlaser":10006,"ĠBed":10007,"Ġworkout":10008,"Ġromantic":10009,"ennessee":10010,"oz":10011,"ulator":10012,"Ġruling":10013,"Ġministry":10014,"Ġsupporters":10015,"Ġglobe":10016,"ĠMethod":10017,"uates":10018,"Ġweapon":10019,"Ġremarkable":10020,"OG":10021,"sized":10022,"ilation":10023,"indu":10024,"Ġconservation":10025,"Ġrab":10026,"ĠEverything":10027,"Ġhunting":10028,"ĠAfghanistan":10029,"ĠDor":10030,"Ġcomplaints":10031,"Ġapplies":10032,"ĠSingapore":10033,"Ġenvironments":10034,"Ġproducers":10035,"Ġbelt":10036,"Ġslide":10037,"shire":10038,"ANT":10039,"Ġepisodes":10040,"Ġoverwhelming":10041,"Ġbacteria":10042,"dr":10043,"lined":10044,"ĠJerry":10045,"Ġregime":10046,"ĠSeason":10047,"Ġnetworking":10048,"Ġevaluate":10049,"ĠALL":10050,"FOR":10051,"piece":10052,"Ġscenario":10053,"aire":10054,"Ġdefeat":10055,"Ġadvertise":10056,"Ġtremend":10057,"Ġcig":10058,"ĠFA":10059,"ĠGive":10060,"ĠEag":10061,"Ġretain":10062,"Ġthreats":10063,"ĠModel":10064,"itzer":10065,"bourne":10066,"ĠFront":10067,"backs":10068,"ĠMinistry":10069,"Ġradical":10070,"Ġlayout":10071,"ĠUser":10072,"aa":10073,"Ġdies":10074,"ĠÂ·":10075,"Ġdocumentation":10076,"Ġdrove":10077,"ĠWordPress":10078,"Ġnervous":10079,"BL":10080,"Ġye":10081,"Ġbeef":10082,"ĠPict":10083,"Ġhabits":10084,"Ġmanip":10085,"aved":10086,"Ġhospitals":10087,"Whether":10088,"hr":10089,"ĠBreak":10090,"ĠChampions":10091,"Ġprecious":10092,"Ġfollowers":10093,"Ġimmun":10094,"Ġsurrounded":10095,"Ġcontinuous":10096,"Ġgraphic":10097,"Ġsolely":10098,"Ġinventory":10099,"Ġjunior":10100,"oons":10101,"ĠSov":10102,"ĠMaterial":10103,"Ġears":10104,"ĠCollection":10105,"Ġresolve":10106,"ĠKentucky":10107,"such":10108,"orse":10109,"Ġsensor":10110,"ĠChamber":10111,"orship":10112,"Ġunderlying":10113,"Ġexpense":10114,"Ġballs":10115,"Ġtrusted":10116,"Ġbegun":10117,"Ġnail":10118,"Ġcomic":10119,"ĠLyn":10120,"ĠâĢĿ":10121,"agen":10122,"axy":10123,"atal":10124,"Ġreven":10125,"Ġblame":10126,"aware":10127,"Ġrespective":10128,"Ġfrequent":10129,"Dav":10130,"roph":10131,"ĠCell":10132,"eman":10133,"ĠNorm":10134,"ĠEver":10135,"Ġdisag":10136,"Ġformation":10137,"Ġbeliefs":10138,"Ġfulfill":10139,"71":10140,"omic":10141,"ĠThird":10142,"Ġrolling":10143,"Ġbooking":10144,"ITH":10145,"Ty":10146,"Ġcher":10147,"ĠGrow":10148,"Ġwheels":10149,"Ġtestim":10150,"Ġexamine":10151,"Ġconversion":10152,"Ġwalks":10153,"bat":10154,"some":10155,"ifted":10156,"Ġovernight":10157,"ĠPatrick":10158,"FA":10159,"Her":10160,"ĠEN":10161,"Ġprovisions":10162,"Ġslots":10163,"Ġparagraph":10164,"Cal":10165,"Ġsli":10166,"etics":10167,"Ġinvention":10168,"Ġpromotion":10169,"THE":10170,"Ġjurisd":10171,"rine":10172,"Ġvine":10173,"ickets":10174,"Ġequity":10175,"Ġmountains":10176,"Monday":10177,"bled":10178,"Ġpromised":10179,"Ġtablet":10180,"March":10181,"gi":10182,"Ġfiscal":10183,"Ġemissions":10184,"Ġhosts":10185,"ĠLinux":10186,"ĠGirls":10187,"core":10188,"otion":10189,"amel":10190,"olen":10191,"ĠPain":10192,"acles":10193,"Ġcarpet":10194,"ĠAlabama":10195,"ĠLincoln":10196,"ĠBalt":10197,"Ġdevelopments":10198,"ĠEdward":10199,"Ġexamination":10200,"Ġearnings":10201,"ntil":10202,"Ġflights":10203,"Ġhorror":10204,"Ġaccomplished":10205,"Ġreverse":10206,"ĠNature":10207,"Ġcontents":10208,"ĠPaper":10209,"ĠRegist":10210,"Ġexercises":10211,"Ġaer":10212,"Ġcrown":10213,"Ġrecept":10214,"ĠRoss":10215,"ĠLi":10216,"Ġuncle":10217,"arents":10218,"scale":10219,"ĠSolutions":10220,"Ġadequate":10221,"Ġmystery":10222,"Ġdeserve":10223,"Ġcolours":10224,"Ġorganisation":10225,"Ġmeaningful":10226,"Ġnutrition":10227,"ĠDefense":10228,"sea":10229,"ĠHum":10230,"ĠHills":10231,"Ġ1000":10232,"oper":10233,"2017":10234,"ĠBlood":10235,"Ġannoy":10236,"Ġrepresenting":10237,"ĠReviews":10238,"FR":10239,"oween":10240,"ĠâĨ":10241,"xid":10242,"ĠLes":10243,"ĠGene":10244,"Ġworkplace":10245,"Ġfundra":10246,"ĠCorp":10247,"winning":10248,"Av":10249,"ĠRos":10250,"Ġranging":10251,"Ġrecru":10252,"ologists":10253,"Ġrefuge":10254,"VP":10255,"ĠTam":10256,"engers":10257,"Ju":10258,"itty":10259,"Ġrestore":10260,"Ġnewsletter":10261,"Ġkeyboard":10262,"Ġgenetic":10263,"Ġsettled":10264,"ĠVictoria":10265,"oni":10266,"Ġduration":10267,"Ġanger":10268,"Ġaggressive":10269,"Ġstack":10270,"ĠFre":10271,"ĠBlu":10272,"Ġslee":10273,"ĠMissouri":10274,"good":10275,"Ġtong":10276,"ĠAh":10277,"ĠDays":10278,"ĠOcc":10279,"Ġshortly":10280,"AST":10281,"ĠMaryland":10282,"ĠMexican":10283,"ishop":10284,"iances":10285,"ĠForum":10286,"Ġrefers":10287,"ropri":10288,"ĠKorean":10289,"igence":10290,"iffs":10291,"Ġelegant":10292,"82":10293,"gain":10294,"imore":10295,"Ġcompact":10296,"ĠPrince":10297,"Ġamongst":10298,"96":10299,"Ġaest":10300,"Ġgang":10301,"Ġampl":10302,"Ġsimultane":10303,"Ġpainful":10304,"Ġcollective":10305,"Ġpic":10306,"arth":10307,"ĠKong":10308,"Ġdumpster":10309,"ao":10310,"Ġlibr":10311,"ĠShare":10312,"Ġoperated":10313,"2008":10314,"ĠBuild":10315,"Ġcabin":10316,"graduate":10317,"83":10318,"Ġbite":10319,"Ġcoaching":10320,"Ġassociate":10321,"OB":10322,"Ġsons":10323,"Ġcinem":10324,"Ġhired":10325,"ĠBureau":10326,"ĠLady":10327,"Ġbalanced":10328,"ĠMoreover":10329,"achelor":10330,"Saturday":10331,"Ġmigr":10332,"Ġadmission":10333,"IVE":10334,"ifferent":10335,"cal":10336,"Ġproductivity":10337,"Ġfault":10338,"Ġnutri":10339,"Ġhorm":10340,"cho":10341,"ĠRome":10342,"ĠRegional":10343,"Ġsne":10344,"andal":10345,"Ġbuyer":10346,"Ġresponsibilities":10347,"ĠLimited":10348,"ĠMachine":10349,"ey":10350,"ĠÎ":10351,"ĠAz":10352,"ounding":10353,"Ġgathering":10354,"WH":10355,"Ġgross":10356,"ĠDrug":10357,"usher":10358,"ĠRus":10359,"def":10360,"ĠAdditionally":10361,"itarian":10362,"ĠCasino":10363,"ĠUtah":10364,"ĠSaint":10365,"ĠEstate":10366,"Ġclip":10367,"Ġbran":10368,"Ġpurchases":10369,"Ġstimul":10370,"dale":10371,"Ġtube":10372,"atoes":10373,"ĠSEO":10374,"ĠHong":10375,"Ġfallen":10376,"Ġprotecting":10377,"Ġaffects":10378,"Pat":10379,"Ġbeans":10380,"ĠSM":10381,"Ġinteractions":10382,"ĠAmong":10383,"Ġrepresentation":10384,"Ġimpressed":10385,"Ġacquire":10386,"Ġridic":10387,"ĠGallery":10388,"Ġpodcast":10389,"Ġassemb":10390,"ifully":10391,"ĠWik":10392,"ĠPatri":10393,"],":10394,"first":10395,"Ġdisrupt":10396,"Ġchef":10397,"Ġedit":10398,"ĠBeh":10399,"Ġengineers":10400,"ocratic":10401,"Ġdisplays":10402,"ĠToy":10403,"Ġworker":10404,"Ġdesert":10405,"Ġextraordinary":10406,"ĠScient":10407,"Ġethnic":10408,"ĠOlympic":10409,"Ġthoroughly":10410,"ĠTrib":10411,"ĠAnaly":10412,"Ġsexy":10413,"ĠChem":10414,"Ġbottles":10415,"iology":10416,"Ð¸":10417,"Ġcats":10418,"Ġpizza":10419,"Ġdys":10420,"ĠMoo":10421,"Ġmining":10422,"Ġengines":10423,"ĠStudio":10424,"Ġbreathing":10425,"oli":10426,"attan":10427,"elson":10428,"Ġhyp":10429,"Ġrubber":10430,"Orig":10431,"Ġfake":10432,"unn":10433,"Ġcompos":10434,"Ġtaxpay":10435,"ĠElectric":10436,"ĠDenver":10437,"Ġtackle":10438,"Ġcooperation":10439,"Ġupset":10440,"Ġrescue":10441,"Ġpassage":10442,"ĠSimon":10443,"ĠTro":10444,"ĠCT":10445,"Ġinvesting":10446,"heart":10447,"Ġeager":10448,"amics":10449,"ĠBE":10450,"Ġspoken":10451,"Ġmodified":10452,"Ġcomplement":10453,"Ġlawyers":10454,"Ġmarijuana":10455,"Ġidentification":10456,"Ġmatching":10457,"wa":10458,"Ġtears":10459,"ĠNations":10460,"Ġmedications":10461,"prof":10462,"Ġphysically":10463,"Ġepic":10464,"Ġutilize":10465,"bage":10466,"ĠFive":10467,"ĠVin":10468,"irlines":10469,"ĠWorking":10470,"Ġharvest":10471,"Ġoccasionally":10472,"Ġrib":10473,"ori":10474,"iden":10475,"ĠNavy":10476,"ĠPhone":10477,"Ġtowns":10478,"lah":10479,"Ġgrey":10480,"rup":10481,"Ġdemocracy":10482,"Ġencouraging":10483,"ĠDetroit":10484,"Ġweakness":10485,"dri":10486,"Ġindoor":10487,"Ġacres":10488,"Ġinstantly":10489,"fish":10490,"ĠMarsh":10491,"Ġcurriculum":10492,"Ġimpacts":10493,"Ġpour":10494,"Ġthrown":10495,"Ġconsecut":10496,"ĠWeight":10497,"ello":10498,"ĠEnjoy":10499,"Ġdamages":10500,"ĠClassic":10501,"Ġquantity":10502,"Ġcompatible":10503,"yo":10504,"Ġmyster":10505,"ften":10506,"Ġsmartphone":10507,"ragon":10508,"Ġworkshops":10509,"onut":10510,"era":10511,"ĠNob":10512,"ĠOs":10513,"ĠURL":10514,"acter":10515,"ĠNCAA":10516,"Ġcogn":10517,"Ġassembly":10518,"ĠRoy":10519,"ĠDeath":10520,"Ġviewers":10521,"ĠEmail":10522,"Os":10523,"home":10524,"rett":10525,"Ġfiber":10526,"Ġdancing":10527,"idal":10528,"ĠEve":10529,"Ġdipl":10530,"ĠPharm":10531,"Ġpopularity":10532,"Ġdocumentary":10533,"Eng":10534,"itivity":10535,"ĠSix":10536,"open":10537,"Ġsubtle":10538,"ropical":10539,"Ġ*||":10540,"Ġbabies":10541,"BN":10542,"kers":10543,"Ġlips":10544,"ĠMap":10545,"elle":10546,"angle":10547,"Ġsignals":10548,"Ġdefic":10549,"ĠImpro":10550,"ĠTransport":10551,"Ġstreaming":10552,"Ġtiming":10553,"Act":10554,"aha":10555,"Ġqualify":10556,"ĠMust":10557,"abling":10558,"ĠGree":10559,"Ġprocessed":10560,"ĠEditor":10561,"ĠHarris":10562,"ĠSelf":10563,"Ġpromises":10564,"ĠGlass":10565,"ĠAtlantic":10566,"81":10567,"vo":10568,"etch":10569,"Ġalgorith":10570,"ĠJess":10571,"ĠUC":10572,"ictions":10573,"Ġmedic":10574,"Ġrehab":10575,"ĠDick":10576,"Ġarmed":10577,"Ġrefrig":10578,"Ġsuspend":10579,"Ġorganisations":10580,"Finally":10581,"inals":10582,"aying":10583,"Ġtemplate":10584,"Ġcredits":10585,"orious":10586,"ĠSD":10587,"Ġdonations":10588,"Ġcheaper":10589,"Ġcurious":10590,"Ġcurrency":10591,"Ġveteran":10592,"dem":10593,"Ġtheater":10594,"ĠPick":10595,"ĠLuc":10596,"ĠPhill":10597,"Ġlegacy":10598,"Ġinnings":10599,"Ġentrepreneurs":10600,"ĠIowa":10601,"ĠWars":10602,"Ġconfront":10603,"forward":10604,"Ġdelivers":10605,"ĠInterest":10606,"aul":10607,"card":10608,"vit":10609,"ĠSale":10610,"Ġinstruments":10611,"Ġfluid":10612,"ĠContinue":10613,"SU":10614,"Ġconcluded":10615,"Ġchairs":10616,"Ġremoving":10617,"Ġ600":10618,"Ġfiling":10619,"flow":10620,"Ġodds":10621,"Ġexcitement":10622,"HP":10623,"Ã¨":10624,"oning":10625,"ĠBab":10626,"Those":10627,"irds":10628,"Ġfascinating":10629,"Date":10630,"quis":10631,"ounced":10632,"Ġconnecting":10633,"Ġrobust":10634,"Watch":10635,"ĠSure":10636,"Ġsup":10637,"pert":10638,"ĠUnivers":10639,"Ġgirlfriend":10640,"PG":10641,"aus":10642,"ĠWriting":10643,"unct":10644,"cycl":10645,"Ġ85":10646,"Ġcoron":10647,"Ġwaves":10648,"isan":10649,"ĠTennessee":10650,"apters":10651,"Ġgovernor":10652,"Ġquotes":10653,"iar":10654,"Ġdough":10655,"asion":10656,"Ġreception":10657,"ĠBaby":10658,"Ġfinest":10659,"Ġintervention":10660,"Ġbarrel":10661,"Ġconfiguration":10662,"ĠAli":10663,"Ġstem":10664,"ousing":10665,"Ġstriking":10666,"ĠMonth":10667,"cs":10668,"ez":10669,"uros":10670,"Ġwishes":10671,"Ġtransformation":10672,"ĠPhoto":10673,"Ġcelebrated":10674,"Ġenhanced":10675,"ĠAssistant":10676,"Both":10677,"papers":10678,"erior":10679,"Ġcancell":10680,"Ġgenre":10681,"html":10682,"IES":10683,"Pres":10684,"Ġpets":10685,"Ġstroke":10686,"ĠBan":10687,"ĠSche":10688,"Ġparad":10689,"Ġsteam":10690,"rec":10691,"ĠSony":10692,"ĠFinal":10693,"ĠRout":10694,"Ġbug":10695,"Ġexclusively":10696,"Ġprospects":10697,"ĠOxford":10698,"Hz":10699,"ĠCub":10700,"ĠLess":10701,"Ġwhereas":10702,"Ġparks":10703,"ĠIndustry":10704,"ĠAnthony":10705,"ais":10706,"mind":10707,"mouth":10708,"whe":10709,"Ġaver":10710,"Ġmath":10711,"Ġinfections":10712,"ĠFast":10713,"ĠGulf":10714,"Ġshapes":10715,"Ġanybody":10716,"Ġhomeown":10717,"Ġdeadline":10718,"fr":10719,"Ġheritage":10720,"Ġpublicly":10721,"Ġ08":10722,"ĠAlexander":10723,"Ġinvolvement":10724,"ĠAst":10725,"Ġalike":10726,"ĠAssembly":10727,"Ġcharging":10728,"Star":10729,"rimination":10730,"Ġuniversal":10731,"Ġvaccine":10732,"oa":10733,"town":10734,"ĠTell":10735,"osit":10736,"IST":10737,"Ġchairman":10738,"PT":10739,"ĠMind":10740,"Ġsquad":10741,"Ġbankrupt":10742,"Ġexpanding":10743,"Ġestablishment":10744,"Ġspectacular":10745,"Ġconstructed":10746,"olph":10747,"quest":10748,"ĠOnt":10749,"ĠChannel":10750,"covery":10751,"Ġcultures":10752,"bet":10753,"2014":10754,"Ġaffairs":10755,"Ġintegrity":10756,"Ġcruise":10757,"April":10758,"mother":10759,"otive":10760,"Ġsemin":10761,"plus":10762,"Ġincent":10763,"ĠWhit":10764,"Ġarrangements":10765,"held":10766,"Ġwashing":10767,"Ġvintage":10768,"Ġpublications":10769,"ĠEconomic":10770,"ĠBowl":10771,"interest":10772,"Ġunemployment":10773,"Ġabstract":10774,"lected":10775,"Ġdrain":10776,"Ġadoption":10777,"ĠPy":10778,"ifice":10779,"ĠLaur":10780,"ĠNE":10781,"Ġpermitted":10782,"itters":10783,"Ġbuttons":10784,"Ġconsecutive":10785,"ĠAve":10786,"Ġdifferently":10787,"ĠOrange":10788,"Ġhumanity":10789,"bra":10790,"ivery":10791,"ndry":10792,"ĠDise":10793,"necess":10794,"onda":10795,"Ġhandful":10796,"ĠVisit":10797,"Source":10798,"inge":10799,"abis":10800,"Ġlocked":10801,"Sign":10802,"itative":10803,"Ġbio":10804,"ĠWW":10805,"Ġ47":10806,"Ġcrimes":10807,"Ġencount":10808,"xygen":10809,"ĠUkraine":10810,"Ġwage":10811,"Ġoz":10812,"ĠDJ":10813,"bean":10814,"arrass":10815,"ĠJean":10816,"ĠDuke":10817,"Ġdying":10818,"ĠIL":10819,"ĠMove":10820,"ĠHR":10821,"ICE":10822,"Ġspeaks":10823,"Sept":10824,"ĠApplication":10825,"NY":10826,"overs":10827,"ĠCover":10828,"ĠLic":10829,"Ġ72":10830,"mg":10831,"Ġolive":10832,"ĠSant":10833,"ĠStra":10834,"Ġprofits":10835,"oker":10836,"Ġcollections":10837,"ĠTurkey":10838,"Ġaccommodation":10839,"Ġfrozen":10840,"ĠAffairs":10841,"inf":10842,"ricts":10843,"Ġbeds":10844,"kind":10845,"zens":10846,"Ġmature":10847,"Ġshit":10848,"Ġreplied":10849,"92":10850,"NS":10851,"ishers":10852,"ĠInnov":10853,"IO":10854,"mn":10855,"ĠRace":10856,"aux":10857,"Ġmainstream":10858,"Ġcourage":10859,"Ġensures":10860,"Ġcyber":10861,"Ġmechanical":10862,"ĠConstitution":10863,"Ġphotographer":10864,"ĠFurthermore":10865,"Ġparallel":10866,"uum":10867,"Ġpron":10868,"ĠAnalysis":10869,"ĠAlliance":10870,"Ġ01":10871,"Ġgenes":10872,"Ġtransferred":10873,"UC":10874,"iy":10875,"ridge":10876,"tage":10877,"ĠHP":10878,"Ġmakeup":10879,"Ġtempt":10880,"Ġdepartments":10881,"Ġbeneath":10882,"Call":10883,"hol":10884,"hard":10885,"Ġsectors":10886,"ĠNut":10887,"ĠNig":10888,"ĠConvention":10889,"Photo":10890,"ĠCommunications":10891,"Ġfacilitate":10892,"nut":10893,"party":10894,"ĠYears":10895,"Ġvitamin":10896,"Ġconvinced":10897,"Ġsophisticated":10898,"uz":10899,"Ġinex":10900,"Ġdurable":10901,"ĠAlp":10902,"Ġconsiderable":10903,"ĠPerformance":10904,"Ġreveals":10905,"ummer":10906,"Ġkeen":10907,"ĠiOS":10908,"Ġceiling":10909,"Ġinvestigate":10910,"ĠJews":10911,"Ġassignment":10912,"Ġacquisition":10913,"Hi":10914,"sl":10915,"tw":10916,"wed":10917,"Ġdirty":10918,"urious":10919,"ĠMoney":10920,"Ġexch":10921,"Ġrush":10922,"UST":10923,"Ġpleasant":10924,"Red":10925,"Ġcosm":10926,"ĠHighway":10927,"Ġbatteries":10928,"Ġspectrum":10929,"Ġbot":10930,"Ġmouse":10931,"ĠSong":10932,"Ġtrash":10933,"Ġdonation":10934,"Ġreceipt":10935,"Ġpoliticians":10936,"Ġoccasions":10937,"ĠChallenge":10938,"Ġenormous":10939,"Ġties":10940,"Ġtours":10941,"utical":10942,"uns":10943,"ĠStadium":10944,"Ġimagination":10945,"ĠClean":10946,"Vis":10947,"gly":10948,"Ġster":10949,"osystem":10950,"apolis":10951,"Ġcompliment":10952,"Ġdisappointed":10953,"Ġtire":10954,"rior":10955,"istical":10956,"Ġcompassion":10957,"oust":10958,"ĠAlaska":10959,"ĠMayor":10960,"ĠPeace":10961,"Ġdrops":10962,"ĠâĤ¬":10963,"?!":10964,"atar":10965,"ouver":10966,"urer":10967,"ĠAlbert":10968,"Ġprofiles":10969,"ĠCoach":10970,"Ġinflation":10971,"Ġultra":10972,"Ġcous":10973,"Ġpants":10974,"stop":10975,"ĠRh":10976,"mma":10977,"reedom":10978,"Ġscratch":10979,"ĠAuthority":10980,"gra":10981,"ĠGre":10982,"ĠAnne":10983,"Ġintensity":10984,"ĠMorgan":10985,"Ġwildlife":10986,"Ġlimitations":10987,"Ã¤":10988,"Ġsour":10989,"ostic":10990,"Through":10991,"Ġthrowing":10992,"IB":10993,"Mc":10994,"Mod":10995,"Ġcord":10996,"amon":10997,"Ġlocally":10998,"Ġdefence":10999,"Ġignore":11000,"ĠPalestin":11001,"NC":11002,"cure":11003,"Ġseal":11004,"iva":11005,"cul":11006,"icut":11007,"Ġplacing":11008,"Ġbetting":11009,"Ġ07":11010,"fortable":11011,"ĠHarvard":11012,"best":11013,"anke":11014,"ĠHad":11015,"ĠHappy":11016,"Ġchip":11017,"ĠText":11018,"Ġdevast":11019,"Ġelectro":11020,"ĠCourse":11021,"ĠRelations":11022,"Ġpor":11023,"ĠFab":11024,"Ġcoaches":11025,"Ġevident":11026,"Ġofferings":11027,"ĠCreative":11028,"Ġneighbors":11029,"hythm":11030,"FF":11031,"Ġren":11032,"thur":11033,"Ġsoccer":11034,"phan":11035,"Ġintrig":11036,"ĠManchester":11037,"lahoma":11038,"Ġ..":11039,"ĠSport":11040,"Ġchopped":11041,"aki":11042,"ĠVeter":11043,"Thursday":11044,"ĠAndy":11045,"Ġreads":11046,"Prof":11047,"ĠSingle":11048,"Ġinhab":11049,"ĠIron":11050,"ĠDI":11051,"Ġassists":11052,"Ġintim":11053,"ĠRepresent":11054,"Ġcooked":11055,"Ġviolation":11056,"Ġtune":11057,"Ġnurse":11058,"Ġnotion":11059,"Ġassert":11060,"Ġassured":11061,"Ġrequiring":11062,"ĠReserve":11063,"Ġoils":11064,"Ġratings":11065,"Ġthrew":11066,"Ġoverview":11067,"Ġartistic":11068,"Ġgrat":11069,"Ġsalad":11070,"Ġseller":11071,"Ġenemies":11072,"oenix":11073,"rot":11074,"ĠGab":11075,"Ġmeters":11076,"Ġprevention":11077,"Ġmusicians":11078,"Ġfigured":11079,"Ġsettle":11080,"Ġclimb":11081,"Ġargued":11082,"June":11083,"ĠMail":11084,"ĠBrew":11085,"ahoo":11086,"Ġmathemat":11087,"Learn":11088,"Direct":11089,"Dec":11090,"Ġdeleg":11091,"acent":11092,"ĠNothing":11093,"ĠRevolution":11094,"Ġwarned":11095,"ĠPrivate":11096,"inction":11097,"Ġdess":11098,"Ġliver":11099,"Ġbeings":11100,"ĠDiam":11101,"ĠLib":11102,"Ġrou":11103,"Ġ360":11104,"Ġoldest":11105,"ĠEmb":11106,"Ġshipped":11107,"Ġgran":11108,"Ġpractition":11109,"ĠStyle":11110,"Ġfinancing":11111,"ĠHoward":11112,"ĠQuick":11113,"Ġdestruction":11114,"Ġattempted":11115,"Black":11116,"Ġtrigger":11117,"Ġft":11118,"asm":11119,"ĠFuture":11120,"Ġdisorders":11121,"Ġscreening":11122,"ĠSE":11123,"ĠSnow":11124,"ĠCopyright":11125,"email":11126,"ĠGR":11127,"Ġ51":11128,"ĠAsk":11129,"Off":11130,"ĠMars":11131,"Ġdesigning":11132,"ĠMcG":11133,"Ġloaded":11134,"Ġconsciousness":11135,"Mich":11136,"log":11137,"ĠToo":11138,"Ġunlock":11139,"Ġdifficulties":11140,"ancouver":11141,"Ġpsychological":11142,"Ġcriticism":11143,"Ġacknowledge":11144,"LD":11145,"Ġtale":11146,"Ġbearing":11147,"ĠSave":11148,"Ġteaspoon":11149,"Home":11150,"have":11151,"Ġhill":11152,"Ġgains":11153,"ĠVP":11154,"Ġembrace":11155,"ĠParliament":11156,"News":11157,"Ġrebu":11158,"Ġhal":11159,"Ġpropri":11160,"essed":11161,"auc":11162,"Ġ09":11163,"Ġfabulous":11164,"ĠEntertain":11165,"mate":11166,"ĠGolf":11167,"arest":11168,"Ġdisability":11169,"ritis":11170,"Ġgeneric":11171,"Ġcenturies":11172,"Ġpiano":11173,"Ġtoss":11174,"utor":11175,"ĠPow":11176,"Ġedited":11177,"Char":11178,"ACK":11179,"Ġcooling":11180,"ĠSoviet":11181,"father":11182,"ushes":11183,"Ġproductive":11184,"Ġprocessor":11185,"Ġpetition":11186,".]":11187,"Pol":11188,"bie":11189,"ordon":11190,"Ġglory":11191,"Ġgenerous":11192,"Ġ1991":11193,"Ġacceptable":11194,"Ġburden":11195,"Ġbulk":11196,"Ġtent":11197,"âĢĿ)":11198,"ĠHalloween":11199,"Ġsponsored":11200,"Ġneutral":11201,"Ġgal":11202,"ĠSamsung":11203,"ĠRail":11204,"rub":11205,"Ġnewest":11206,"Ġendless":11207,"Ġrepairs":11208,"ĠAgreement":11209,"lan":11210,"ĠSO":11211,"ĠSac":11212,"Ġrally":11213,"Ġincom":11214,"Ġcollecting":11215,"Ġinterpretation":11216,"afe":11217,"aceutical":11218,"beat":11219,"enny":11220,"Ġportra":11221,"Ġadopt":11222,"ctic":11223,"ĠPL":11224,"Ġembarrass":11225,"Ġsurfaces":11226,"rapeut":11227,"Ġsits":11228,"ĠMoh":11229,"ĠPlant":11230,"addy":11231,"Ġirrit":11232,"Ġsteady":11233,"Tuesday":11234,"Ġstopping":11235,"abs":11236,"ĠOsc":11237,"Hey":11238,"Ġhyd":11239,"ĠFriends":11240,"TP":11241,"aft":11242,"Ġdirectors":11243,"ĠAppro":11244,"Ġsnap":11245,"ĠEarly":11246,"Ġarguments":11247,"trans":11248,"Does":11249,"Form":11250,"Ġauction":11251,"ĠWy":11252,"ĠGP":11253,"Ġdesignated":11254,"Ġannually":11255,"ĠMedic":11256,"Ġdeliber":11257,"ĠJustin":11258,"Ġcatalog":11259,"wind":11260,"Ġtension":11261,"icity":11262,"roductive":11263,"ĠHig":11264,"ĠLanguage":11265,"Ġcapability":11266,"Ġstraw":11267,"ĠFinance":11268,"Ġempower":11269,"Ġmoisture":11270,"Figure":11271,"aya":11272,"edded":11273,"py":11274,"uan":11275,"Ġwing":11276,"Ġbits":11277,"ĠRs":11278,"Ġapple":11279,"Ġbackup":11280,"Ġmetab":11281,"Ġaudiences":11282,"ĠGrad":11283,"Ġpulling":11284,"Ġfemin":11285,"94":11286,"ĠSide":11287,"Ġrelate":11288,"Ġcarries":11289,"2007":11290,"ĠGrant":11291,"Ġappreciated":11292,"Ġcust":11293,"izations":11294,"ova":11295,"Ġattempting":11296,"Ġlaboratory":11297,"Wednesday":11298,"store":11299,"ĠHal":11300,"Ġpoetry":11301,"Ġoperators":11302,"Ġtouchdown":11303,"ĠIdent":11304,"ĠAk":11305,"imb":11306,"Ġchurches":11307,"Ġcultiv":11308,"Ġdiscipline":11309,"reated":11310,"Ġlobby":11311,"Ġgreet":11312,"Ġstolen":11313,"ĠBB":11314,"Ġlasting":11315,"ĠDoctor":11316,"ĠTrail":11317,"Ġgraduated":11318,"Ġindependence":11319,"doors":11320,"Ġtremendous":11321,"\")":11322,"Ġsoup":11323,"Ġwines":11324,"Ġloop":11325,"semble":11326,"ationally":11327,"ĠHost":11328,"plant":11329,"Ġinstances":11330,"author":11331,"ĠTitle":11332,"Ġdict":11333,"Ġsilence":11334,"boards":11335,"ĠBerlin":11336,"Ġfruits":11337,"Ben":11338,"ĠHoll":11339,"Ġpreserve":11340,"Ġrealistic":11341,"ĠManufact":11342,"ARD":11343,"Ġtempor":11344,"ĠWinter":11345,"hill":11346,"Ġtear":11347,"ĠAth":11348,"Ġhanded":11349,"ĠDur":11350,"Ġcounts":11351,"Ġhumor":11352,"Ġspecialized":11353,"93":11354,"Life":11355,"Ġquit":11356,"Ġwinds":11357,"Ġdeclined":11358,"ĠAPI":11359,"Ġforgotten":11360,"iagra":11361,"Ġthirty":11362,"Ġrated":11363,"ĠNBA":11364,"ĠEP":11365,"berries":11366,"ended":11367,"Ġattorneys":11368,"ĠAgric":11369,"guard":11370,"ĠCBD":11371,"ĠRand":11372,"pling":11373,"Ġseemingly":11374,"Ġdetermination":11375,"ĠIntell":11376,"Ġglasses":11377,"ĠRoberts":11378,"Ġintelligent":11379,"commun":11380,"ĠCraig":11381,"lie":11382,"ĠCape":11383,"secution":11384,"Ġstylish":11385,"health":11386,"Ġbroker":11387,"Ġmargin":11388,"Ġauthorized":11389,"ĠLaure":11390,"Ġclinic":11391,"specific":11392,"olk":11393,"ĠBurn":11394,"Ġanch":11395,"ateur":11396,"Ġslip":11397,"conf":11398,"Ġpassengers":11399,"Having":11400,"gie":11401,"Ġlying":11402,"aughters":11403,"GM":11404,"pres":11405,"selling":11406,"ĠMort":11407,"Ġ(\"":11408,"2015":11409,"Ġfeeding":11410,"Ġrolled":11411,"Ġpowered":11412,"Ġbranches":11413,"ĠRound":11414,"ĠInn":11415,"||$":11416,"Ġreminded":11417,"Love":11418,"Ġnan":11419,"ĠCou":11420,"acco":11421,"Ġcomposed":11422,"Ġactress":11423,"Ġveterans":11424,"ĠCharlie":11425,"Ġprecisely":11426,"Ġlawsuit":11427,"mont":11428,"Ġsatellite":11429,"cently":11430,"Ġstere":11431,"ĠLawrence":11432,"Ġalternatives":11433,"ĠCreate":11434,"igenous":11435,"ĠAI":11436,"ĠDutch":11437,"aga":11438,"Ġspan":11439,"ĠLuke":11440,"etheless":11441,"ĠTan":11442,"Ġshorter":11443,"ipes":11444,"Ġeffectiveness":11445,"ĠIndex":11446,"retion":11447,"Ġfastest":11448,"Ġparameters":11449,"Ġtoilet":11450,"SM":11451,"Ñģ":11452,"Ġbacked":11453,"Ġconfused":11454,"Ġpersu":11455,"Ġreflects":11456,"Ġaccommodate":11457,"Ġvertical":11458,"normal":11459,"Ġwrap":11460,"Ġspare":11461,"Ġdressed":11462,"ĠReturn":11463,"Ġexhibit":11464,"di":11465,"hot":11466,"à¸":11467,"Ġdirt":11468,"lend":11469,"leans":11470,"ĠBron":11471,"Ġhandy":11472,"Review":11473,"ĠCambridge":11474,"Ġagriculture":11475,"gins":11476,"Ġtoy":11477,"uters":11478,"Ġexpend":11479,"ĠArk":11480,"Ġconfidential":11481,"Ġoperates":11482,"Ġexpecting":11483,"Ġrival":11484,"bian":11485,"idity":11486,"Ġhem":11487,"ĠUnit":11488,"Ġbeloved":11489,"Ġcompleting":11490,"Ġhonestly":11491,"Looking":11492,"Bet":11493,"Ġdash":11494,"immer":11495,"ante":11496,"Ġjury":11497,"closure":11498,"Ġinspire":11499,"Ġexcessive":11500,">>":11501,"imens":11502,"ĠPear":11503,"asting":11504,"ateral":11505,"ussion":11506,"ĠCompan":11507,"ĠEmploy":11508,"ĠBetter":11509,"Ġaccompanied":11510,"IAL":11511,"uh":11512,"icular":11513,"uther":11514,"ĠMuch":11515,"Ġdear":11516,"ocy":11517,"Ġseeks":11518,"Ġhybrid":11519,"Ġretailers":11520,"ĠBaltimore":11521,"Ġwides":11522,"Ġfancy":11523,"ĠTai":11524,"ĠRain":11525,"akh":11526,"Ġ56":11527,"Ġcaring":11528,"ĠSym":11529,"Ġdiscussing":11530,"Ġworthy":11531,"Ġthreatened":11532,"Ġfought":11533,"ustain":11534,"aph":11535,"Ġfolder":11536,"when":11537,"Ġancest":11538,"ĠGh":11539,"Ġenabled":11540,"Ġrefres":11541,"Ġportray":11542,"Ġtongue":11543,"Ac":11544,"reach":11545,"olas":11546,"ĠNort":11547,"arts":11548,"Ġtimely":11549,"Ġsheets":11550,"Ġdefendant":11551,"ĠMoore":11552,"ĠLiter":11553,"Ġsuicide":11554,"ĠChen":11555,"eland":11556,"Ġ54":11557,"Ġconsulting":11558,"ĠPrior":11559,"bound":11560,"ĠBM":11561,"Ġoperator":11562,"Ġcontacts":11563,"ACT":11564,"ĠYOUR":11565,"BR":11566,"mers":11567,"Ġoh":11568,"Ġcited":11569,"ĠBased":11570,"Ġshout":11571,"Ġshame":11572,"Ġmechanisms":11573,"Ġsupplied":11574,"Ġromance":11575,"ere":11576,"ĠHan":11577,"ĠComplete":11578,"Ġcompetitors":11579,"Ġengineer":11580,"ymph":11581,"Ret":11582,"lims":11583,"writing":11584,"Ġware":11585,"Ġgrain":11586,"ĠKitchen":11587,"veland":11588,"2016":11589,"Ġpatent":11590,"Ġtreating":11591,"Ġemerged":11592,"Ġknife":11593,"blog":11594,"ĠFrancis":11595,"ĠNYC":11596,"Ġexecution":11597,"Ġdivorce":11598,"Min":11599,"even":11600,"idth":11601,"azed":11602,"Ġpopulations":11603,"ĠKennedy":11604,"ĠAntonio":11605,"fund":11606,"Ġwherever":11607,"Ġedges":11608,"ierce":11609,"Ġtitled":11610,"Ġproposals":11611,"Ġderived":11612,"Ġtweet":11613,"Ġhub":11614,"ĠCand":11615,"ĠRap":11616,"Ġvocal":11617,"Ġcarrier":11618,"ĠBeat":11619,"alties":11620,"ĠConnecticut":11621,"Ġlegitimate":11622,"children":11623,"Ġhence":11624,"ĠBattle":11625,"Ġmoderate":11626,"Ġ02":11627,"offee":11628,"Ġpersonalized":11629,"Ġessence":11630,"Ġteaches":11631,"SW":11632,"ĠDyn":11633,"Ġshade":11634,"Ġadvised":11635,"Ġbiological":11636,"ĠSimply":11637,"ĠSEC":11638,"ĠBC":11639,"udge":11640,"Ġexplicit":11641,"ĠCompet":11642,"ĠSchools":11643,"Ġcorporations":11644,"ĠChairman":11645,"Sunday":11646,"Ġtang":11647,"ĠCM":11648,"ĠHom":11649,"Ġshadow":11650,"cca":11651,"Ġartificial":11652,"Ġbeautifully":11653,"Ġlanding":11654,"Meanwhile":11655,",'":11656,"ĠBR":11657,"ipedia":11658,"Ġsupplier":11659,"ĠScript":11660,"ĠEvents":11661,"ĠOrganization":11662,"ĠExplore":11663,"Ġpreview":11664,"ĠImp":11665,"Ġtranslation":11666,"ĠWalker":11667,"Ġshelter":11668,"test":11669,"Ġward":11670,"Ġpione":11671,"ĠABC":11672,"Ġstamp":11673,"ĠWE":11674,"user":11675,"iere":11676,"rying":11677,"Ġ1950":11678,"atherine":11679,"Ġagricultural":11680,"burn":11681,"note":11682,"aria":11683,"ĠCow":11684,"ĠWITH":11685,"Ġentertaining":11686,"91":11687,"Ġcater":11688,"ĠFant":11689,"ĠNa":11690,"gets":11691,"Ġreceives":11692,"Ġsustainability":11693,"Ġsyndrome":11694,"vada":11695,"ĠBL":11696,"Though":11697,"Ġguides":11698,"ĠCompl":11699,"Ġreduces":11700,"Ġachieving":11701,"Ġoxygen":11702,"Ġbother":11703,"rogen":11704,"Ġappet":11705,"fulness":11706,"Ġdried":11707,"Ġanalys":11708,"Ġagreements":11709,"Ġirre":11710,"PD":11711,"Ġshaped":11712,"Ġmeasurement":11713,"ĠSprings":11714,"Ġboundaries":11715,"udi":11716,"Ġperpet":11717,"obb":11718,"elling":11719,"Ġintake":11720,"Ġhoped":11721,"umni":11722,"Ġvibrant":11723,"aration":11724,"ĠHit":11725,"ĠExcell":11726,"INE":11727,"Ġjudges":11728,"Ġfears":11729,"QU":11730,"Ġshoe":11731,"agine":11732,"Ġgray":11733,"Ġ1989":11734,"Ġcitizen":11735,"ĠJoin":11736,"pread":11737,"Ġcit":11738,"Ġmun":11739,"utors":11740,"ĠCC":11741,"Ġunnecess":11742,"Ġ06":11743,"Ġtrucks":11744,"Ġefficiently":11745,"Ġcompelling":11746,"Cra":11747,"orical":11748,"Ġpel":11749,"formed":11750,"ika":11751,"Ġlawn":11752,"ventions":11753,"Ġincorporate":11754,"Ġconverted":11755,"Ġgently":11756,"ĠPoly":11757,"ĠFile":11758,"ĠFish":11759,"Ġtraged":11760,"Ġentries":11761,"Which":11762,"ĠBloom":11763,"ĠTrad":11764,"Only":11765,"IDS":11766,"ĠValent":11767,"God":11768,"Search":11769,"ige":11770,"amous":11771,"ĠDR":11772,"Ġruled":11773,"Ġadverse":11774,"ĠYouth":11775,"Ġvessels":11776,"Ġimmigrants":11777,"ÑĤ":11778,"storm":11779,"Ġouter":11780,"Ġprofound":11781,"Ġvariations":11782,"Ġfootage":11783,"ĠPerfect":11784,"ugged":11785,"Ġpollution":11786,"ĠIntegr":11787,"Bel":11788,"natural":11789,"ĠHERE":11790,"plates":11791,"Intern":11792,"Ġsuppose":11793,"Ġcondem":11794,"Ġcomputing":11795,"Ġgradually":11796,"ĠPractice":11797,"Ġgrocery":11798,"SL":11799,"Ġaluminum":11800,"aug":11801,"Ġdevoted":11802,"Ġfunded":11803,"Ġecosystem":11804,"FT":11805,"Ġna":11806,"ĠLane":11807,"Ġunp":11808,"Ġlogic":11809,"Current":11810,"Em":11811,"ĠME":11812,"quer":11813,"Ġdozens":11814,"ĠKy":11815,"Ġ66":11816,"Ġdetection":11817,"Ġdirectory":11818,"lishing":11819,"ĠFlash":11820,"ĠSpeed":11821,"Ġquarterback":11822,"icipal":11823,"Ġentrepreneur":11824,"Download":11825,"Mus":11826,"count":11827,"Ġtires":11828,"Ġstrain":11829,"Ġworlds":11830,"Ġcareers":11831,"ĠIndeed":11832,"Ġsilent":11833,"Ġinfluenced":11834,"Ġqualities":11835,"ĠPortland":11836,"ĠForeign":11837,"cat":11838,"Ġpup":11839,"Ġdrew":11840,"Ġgam":11841,"Ġallerg":11842,"ĠVA":11843,"Ġplacement":11844,"Ġaddressing":11845,"Ġcalories":11846,"Ġdigest":11847,"Ġcabinet":11848,"ĠLinda":11849,"Ġ%":11850,"ĠPath":11851,"ounge":11852,"Ġconfusion":11853,"Ġimplementing":11854,"Ġimplications":11855,"ippi":11856,"ĠMaine":11857,"Ġanticipated":11858,"Ġbust":11859,"ilitation":11860,"ĠRow":11861,"ĠChoose":11862,"ĠBarack":11863,"ĠOntario":11864,"Ġtu":11865,"itual":11866,"oub":11867,"ĠGil":11868,"osph":11869,"Ġidentifying":11870,"Ġexcellence":11871,"ĠLeadership":11872,"has":11873,"ÑĢ":11874,"àª":11875,"icating":11876,"Ġflags":11877,"Ġlightweight":11878,"Ġprogressive":11879,"gic":11880,"rison":11881,"Ġbones":11882,"ĠPil":11883,"ĠWire":11884,"ĠAlan":11885,"Ġembra":11886,"Ġdependent":11887,"Ġpaintings":11888,"ĠOklahoma":11889,"ĠBruce":11890,"Ġremembered":11891,"Ġthesis":11892,"Ġholy":11893,"ĠCann":11894,"estone":11895,"thod":11896,"ĠNEW":11897,"Ġpretend":11898,"Ġ53":11899,"lihood":11900,"ĠManh":11901,"amine":11902,"Ġcontroller":11903,"Ġovers":11904,"Ġbund":11905,"Ġmemorable":11906,"Ġsupplements":11907,"Ġpicks":11908,"ASE":11909,"OUN":11910,"ĠCleveland":11911,"Ġspokesman":11912,"ĠWine":11913,"ĠGary":11914,"Ġdisabled":11915,"Ġadvise":11916,"Ġseparated":11917,"Ġmotivation":11918,"ĠDouble":11919,"ummy":11920,"ĠVancouver":11921,"liest":11922,"Ġarrangement":11923,"Trans":11924,"gence":11925,"itched":11926,"Ġende":11927,"prises":11928,"ĠStewart":11929,"Ġradiation":11930,"Contin":11931,"Ġcalculated":11932,"ĠTemple":11933,"ĠEntertainment":11934,"matic":11935,"Ġrevers":11936,"irable":11937,"ĠAndre":11938,"Ġgrants":11939,"Ġreceiver":11940,"Ġrocks":11941,"Ġpeaceful":11942,"Ġopponent":11943,"ĠEffect":11944,"issa":11945,"Ġsecured":11946,"type":11947,"Ġbrew":11948,"Ġsignificance":11949,"OUR":11950,"Ġrelaxed":11951,"Ġcontroversial":11952,"Ġabandoned":11953,"ders":11954,"esis":11955,"ĠCorn":11956,"ĠBlock":11957,"Ġlabels":11958,"Ġaccompany":11959,"ĠPlanning":11960,"ĠMelbourne":11961,"Ġdispute":11962,"ĠPed":11963,"Ġvoices":11964,"Ġapproached":11965,"Ġfavorites":11966,"ĠEmpire":11967,"OK":11968,"Tom":11969,"Ġexempt":11970,"Ġvib":11971,"Ġranks":11972,"ĠNear":11973,"Ġobligation":11974,"Ġproportion":11975,"Ġelderly":11976,"Ġgut":11977,"ĠTree":11978,"ĠCart":11979,"Ġwholes":11980,"ĠVit":11981,"avirus":11982,"Ġtwist":11983,"Ġartwork":11984,"ĠConc":11985,"ĠOrleans":11986,"Ġsimultaneously":11987,"VI":11988,"Ġpadd":11989,"ĠDak":11990,"ĠBeck":11991,"Ġterminal":11992,"lette":11993,"ĠAmb":11994,"Ġanalyze":11995,"ĠArchitect":11996,"Ġwrapped":11997,"July":11998,"wl":11999,"Ġta":12000,"Ġmakers":12001,"ĠAqu":12002,"Ġsymp":12003,"mediate":12004,"Ġdiscounts":12005,"gon":12006,"gree":12007,"ĠSource":12008,"ĠCrit":12009,"ĠNich":12010,"Ġoutfit":12011,"Ġunfortunately":12012,"Ġenjoyable":12013,"Ġconfirmation":12014,"ĠGov":12015,"Ġshoulders":12016,"Ġacute":12017,"Ġhandled":12018,"Ġexploration":12019,"Ġroutes":12020,"Ġtroubles":12021,"Ġmerchand":12022,"kg":12023,"ĠKate":12024,"forming":12025,"issippi":12026,"Ġlocate":12027,"ĠMagic":12028,"Ġcorresponding":12029,"ĠMitche":12030,"hew":12031,"Ġcub":12032,"Ġhockey":12033,"ĠEV":12034,"umble":12035,"Ġperception":12036,"Ġaging":12037,"Ġpreferences":12038,"Ġmeditation":12039,"Ġinterpre":12040,"ĠArgent":12041,"Ġcustomized":12042,"Ġiconic":12043,"ĠSusan":12044,"La":12045,"WS":12046,"orient":12047,"Ġinsect":12048,"ĠLad":12049,"ĠJob":12050,"Ġreflection":12051,"Ġintu":12052,"Ġfloors":12053,"Ġsuspension":12054,"Ġseventh":12055,"woman":12056,"Ġpound":12057,"Ġaggreg":12058,"ella":12059,"ommy":12060,"Ġautomated":12061,"ĠANY":12062,"Ġsurvived":12063,"ĠBitcoin":12064,"2000":12065,"GS":12066,"Ġok":12067,"ĠEC":12068,"Ġentity":12069,"Ġdrunk":12070,"ĠXbox":12071,"ICK":12072,"ĠLooking":12073,"Ġtomatoes":12074,"ivals":12075,"Ġcomply":12076,"Ġ57":12077,"Ġdeciding":12078,"ĠExp":12079,"Ġreflected":12080,"Ġterrorist":12081,"Keep":12082,"Ġnavigate":12083,"otype":12084,"Ġcloth":12085,"Ġspecialty":12086,"Ġmagical":12087,"Ġprotective":12088,"Ġachievement":12089,"Ġwhis":12090,"Ġenroll":12091,"Ġregards":12092,"Ġpresentations":12093,"ĠAutom":12094,"ĠSimilar":12095,"Ġjumped":12096,"ĠAudio":12097,"Big":12098,"Ġsake":12099,"ĠApr":12100,"speed":12101,"ĠTurk":12102,"ĠPremier":12103,"attered":12104,"Ġcure":12105,"Ġinher":12106,"Ġharsh":12107,"olves":12108,"ĠStars":12109,"Ġmarketplace":12110,"Ġcourtesy":12111,"Ġtourism":12112,"Ġwarming":12113,"Ġsecretary":12114,"Ġrejected":12115,"Ġtennis":12116,"onies":12117,"Ġwelf":12118,"Ġovert":12119,"Ġ03":12120,"Ġassumed":12121,"ĠAdvanced":12122,"ĠProperty":12123,"ĠHTML":12124,"Ġsisters":12125,"ĠCher":12126,"Ġrational":12127,"plan":12128,"Web":12129,"Ġelite":12130,"aneous":12131,"Ġportable":12132,"Ġarranged":12133,"Ġwrest":12134,"Ġabortion":12135,"oded":12136,"Ġhighway":12137,"Ġfolk":12138,"Ġjacket":12139,"Ġwelfare":12140,"bes":12141,"oline":12142,"ĠGas":12143,"ĠEaster":12144,"Ġmodule":12145,"ictionary":12146,"Ġcomplexity":12147,"Ġapolog":12148,"Ġaffiliate":12149,"bd":12150,"fight":12151,"your":12152,"Ġgre":12153,"ĠAF":12154,"ĠMas":12155,"esty":12156,"ĠFle":12157,"Ġenabling":12158,"Ġpeer":12159,"ĠLegal":12160,"ĠCole":12161,"Ġcontractor":12162,"ĠPitts":12163,"Ġtheatre":12164,"Ġdot":12165,"ĠCould":12166,"Ġdeemed":12167,"ĠRat":12168,"Ġsuite":12169,"oples":12170,"Ġplates":12171,"nowned":12172,"ribution":12173,"ĠIslands":12174,"Ġburied":12175,"ELL":12176,"Ġharmful":12177,"olitan":12178,"link":12179,"Ġmaker":12180,"Ġresil":12181,"ailing":12182,"ailand":12183,"Inter":12184,"Ġvaried":12185,"shot":12186,"Ġsteep":12187,"ĠScholar":12188,"Ġflavors":12189,"Ġinnocent":12190,"David":12191,"Cor":12192,"Custom":12193,"Ġvig":12194,"ĠNik":12195,"Ġscrap":12196,"Ġshowcase":12197,"Ġvariable":12198,"Ġparticipated":12199,"Ġstrip":12200,"Ġobserve":12201,"Ġseparately":12202,"Ġconsultant":12203,"Ġoverseas":12204,"Sen":12205,"Ġcents":12206,"Ġpy":12207,"iche":12208,"asures":12209,"Ġavo":12210,"Ġoptimal":12211,"Ġ04":12212,"Ġhypot":12213,"Ġcelebrating":12214,"August":12215,"Hel":12216,"MD":12217,"dog":12218,"table":12219,"Ġarom":12220,"ĠTotal":12221,"illance":12222,"Ġsuits":12223,"ibbean":12224,"Ġprovince":12225,"Ġbullet":12226,"ĠFollowing":12227,"ĠTerms":12228,"Ġsacrifice":12229,"TE":12230,"mitting":12231,"Ġink":12232,"ĠPant":12233,"Ġbuzz":12234,"Three":12235,"Ġframes":12236,"Ġbreed":12237,"Ġstepped":12238,"ĠTHIS":12239,"Ġrobot":12240,"Ġstakeholders":12241,"Ġ||":12242,"inate":12243,"Ġtoll":12244,"around":12245,"Ġnest":12246,"ĠLam":12247,"Ġdiscrimination":12248,"Ġinvested":12249,"ĠPhoenix":12250,"Ġproteins":12251,"ĠSuccess":12252,"Ġidentical":12253,"Ġdisclosure":12254,"ĠFootball":12255,"Ġheal":12256,"ĠBirth":12257,"ĠFat":12258,"ĠFalls":12259,"ĠNurs":12260,"tech":12261,"Ġtends":12262,"Ġowns":12263,"Ġwaist":12264,"Ġtablets":12265,"Ġwoods":12266,"Ġdemanding":12267,"Ġloads":12268,"Ġinstructor":12269,"Ġfut":12270,"ela":12271,"Ġclaiming":12272,"Ġrounds":12273,"strong":12274,"ĠSenator":12275,"Ġsatisfy":12276,"glas":12277,"uke":12278,"Ġbinary":12279,"Ġlately":12280,"ĠCool":12281,"Ġshield":12282,"Ġteens":12283,"ampa":12284,"Ġgrid":12285,"ugar":12286,"Ass":12287,"Ġanalytics":12288,"track":12289,"Ġnavigation":12290,"Ġwidespread":12291,"irates":12292,"ĠDue":12293,"ĠGordon":12294,"Ġamen":12295,"ĠAdams":12296,"ĠPrim":12297,"Ġsweat":12298,"Ġbroader":12299,"Ġopponents":12300,"Ġod":12301,"ulin":12302,"ĠFDA":12303,"ĠLater":12304,"Ġscal":12305,"Ġpoison":12306,"Ġexplaining":12307,"ĠMarine":12308,"ĠAmy":12309,"ĠMini":12310,"Ġclosest":12311,"ĠHamilton":12312,"iper":12313,"onia":12314,"ĠSweet":12315,"uru":12316,"Ġexit":12317,"Ġthereby":12318,"azi":12319,"elsh":12320,"Ġtraditions":12321,"Ġelectronics":12322,"ITE":12323,"ĠScottish":12324,"Ġhazard":12325,"Ġdont":12326,"ĠLarge":12327,"Ġrust":12328,"pring":12329,"Ġtechnological":12330,"Ġnovels":12331,"Ġlegislative":12332,"Ġranking":12333,"Ġdiagnosed":12334,"Ġathletic":12335,"Gr":12336,"Ġcrop":12337,"Ġfails":12338,"ĠRaj":12339,"Ġcheer":12340,"ĠAltern":12341,"ĠPhD":12342,"Ġmarine":12343,"Ġdealer":12344,"Ġcompeting":12345,"Ġjoke":12346,"Ġmothers":12347,"Ġreportedly":12348,"ĠNether":12349,"ĠConstruction":12350,"Ð½":12351,"Ġyeah":12352,"Ġstays":12353,"quet":12354,"ORT":12355,"ĠMcK":12356,")(":12357,"inar":12358,"Ġstadium":12359,"Ġstainless":12360,"Ġspecialists":12361,"Ġethical":12362,"Ġrepeatedly":12363,"lar":12364,"may":12365,"leading":12366,"Ġpresum":12367,"Ġreporter":12368,"Ġrestricted":12369,"Ġlineup":12370,"2006":12371,"Ġdarkness":12372,"Ġsubscrib":12373,"Ġblessed":12374,"Ġpharmac":12375,"World":12376,"erest":12377,"ĠKings":12378,"ĠIndones":12379,"Health":12380,"ĠContract":12381,"Ġfailing":12382,"visor":12383,"Ġwidth":12384,"Ġmanifest":12385,"Pal":12386,"Ġdive":12387,"Ġanytime":12388,"azines":12389,"ĠWithin":12390,"Ġpriced":12391,"ĠSurvey":12392,"Ġpraise":12393,"lies":12394,"opes":12395,"ĠAnimal":12396,"ĠMeet":12397,"Ġnationwide":12398,"ĠPortug":12399,"Del":12400,"ĠHair":12401,"Ġcontacted":12402,"Ġsuperb":12403,"Ġvolunt":12404,"Ġrecommendation":12405,"Ġacceptance":12406,"ĠIncre":12407,"Ġcasinos":12408,"ĠQuestions":12409,"gical":12410,"writer":12411,"isers":12412,"ailed":12413,"Ġcurve":12414,"Ġgrows":12415,"IGHT":12416,"Ġalbums":12417,"ĠRecord":12418,"ĠIndustrial":12419,"Ġisolated":12420,"erver":12421,"Ġcontrary":12422,"ĠSeveral":12423,"ĠAnna":12424,"Ġdistricts":12425,"Ġaudit":12426,"gate":12427,"Ġshelf":12428,"ĠMeanwhile":12429,"Ġinspiring":12430,"Ġcandy":12431,"Ġestablishing":12432,"wick":12433,"ĠHus":12434,"ĠDra":12435,"alling":12436,"Ġretreat":12437,"Ġglob":12438,"Ġbadly":12439,"Ġdescribing":12440,"Jul":12441,"Ġtorn":12442,"Ġcum":12443,"stock":12444,"umbing":12445,"holder":12446,"Ġverify":12447,"Using":12448,"Ġhungry":12449,"Ġbankruptcy":12450,"oria":12451,"enged":12452,"Ġbin":12453,"ĠSW":12454,"urd":12455,"ĠCele":12456,"Ġ110":12457,"orted":12458,"ividually":12459,"Ġlegally":12460,"Ġcycl":12461,"Ġvel":12462,"Ġpix":12463,"Ġincl":12464,"mented":12465,"Ġshr":12466,"ĠYeah":12467,"Ġspo":12468,"Ġaddiction":12469,"ĠAlways":12470,"ĠUSD":12471,"Ġpromising":12472,"ĠImage":12473,"Ġscholarship":12474,"itudes":12475,"ĠMission":12476,"Ġjazz":12477,"Ġexperiments":12478,"Ġreferring":12479,"Ġmart":12480,"Ġcountless":12481,"Ġorganize":12482,"ĠGray":12483,"Ġcontributing":12484,"Ġtourist":12485,"Ġprosper":12486,"ding":12487,"lu":12488,"ingle":12489,"Ġgest":12490,"ĠDiet":12491,"ĠGPS":12492,"Ġflesh":12493,"Ġminim":12494,"Ġcookie":12495,"Ġsensors":12496,"ĠIntel":12497,"Ġmotivated":12498,"Ġinstitutional":12499,"Ġrect":12500,"Ġghost":12501,"chain":12502,"Ġvalley":12503,"âĢ¦]":12504,"Ġtransparent":12505,"ĠPhilippines":12506,"Ġrefriger":12507,"List":12508,"bably":12509,"Ġdaughters":12510,"ĠTob":12511,"ĠKr":12512,"Ġpockets":12513,"othy":12514,"Ġexperimental":12515,"Ġheadquarters":12516,"Ġviolations":12517,"arios":12518,"ĠBelg":12519,"Ġvanilla":12520,"January":12521,"UK":12522,"aired":12523,"ĠMaking":12524,"Ġdoct":12525,"Ġoverlook":12526,"Ġfreely":12527,"Ġ05":12528,"Ġ180":12529,"Ġdresses":12530,"ĠQueens":12531,"ĠCharlotte":12532,"Ġfoam":12533,"Cle":12534,"OX":12535,"ĠSom":12536,"ĠBus":12537,"ĠWat":12538,"produ":12539,"Ġlogin":12540,"flix":12541,"Ġboring":12542,"ques":12543,"Ġreprodu":12544,"Ġpassenger":12545,"shore":12546,"State":12547,"Ġutter":12548,"ciples":12549,"izard":12550,"Ġarbit":12551,"Ġdiff":12552,"ĠDeep":12553,"Ġpotatoes":12554,"ĠHeritage":12555,"ĠMuslims":12556,"Ġtags":12557,"lly":12558,"ĠTarget":12559,"Ġhack":12560,"ĠGay":12561,"ricane":12562,"Ġguided":12563,"Ġcollapse":12564,"Ġlegendary":12565,"Want":12566,"ĠBuck":12567,"qual":12568,"ĠKit":12569,"Ġearning":12570,"irtual":12571,"Ġmounted":12572,"itzerland":12573,"iov":12574,"Ġcush":12575,"Ġfitting":12576,"Ġrewards":12577,"Ġconvention":12578,"Ġsail":12579,"Ġworkforce":12580,"ĠRelease":12581,"Ġdiffer":12582,"ĠComb":12583,"Ġattacked":12584,"Ġurine":12585,"ĠMalays":12586,"ĠManhattan":12587,"fly":12588,"Ġreaches":12589,"Ġnaked":12590,"ĠRather":12591,"Ġshed":12592,"EV":12593,"PP":12594,"SH":12595,"Ġmice":12596,"Ġhorn":12597,"Ġlbs":12598,"Ġrender":12599,"ĠLiver":12600,"Ġmixing":12601,"Ġliterary":12602,"Ġcree":12603,"Ġrede":12604,"ĠSud":12605,"ĠBenef":12606,"ĠFresh":12607,"Ġ(@":12608,"Ġneat":12609,"ivities":12610,"Ġcoins":12611,"Ġclassified":12612,"Ġholder":12613,"ĠJohnny":12614,"Ġtemple":12615,"ĠTreatment":12616,"Ms":12617,"Ġwore":12618,"Ġthumb":12619,"ĠHop":12620,"arer":12621,"Ġbrut":12622,"Ġreporters":12623,"Ġcaution":12624,"Ġtreasure":12625,"Ġ1988":12626,"ĠPrize":12627,"Ġtrademark":12628,"Ġbicy":12629,"ĠTok":12630,"Ġbron":12631,"Ġadvances":12632,"erald":12633,"Ġinfluences":12634,"Ġmeasurements":12635,"Ġjournalist":12636,"Ġobligations":12637,"ĠRestaur":12638,"master":12639,"Ġlap":12640,"ĠSalt":12641,"ĠCF":12642,"ĠGa":12643,"oyd":12644,"Still":12645,"ĠMeeting":12646,"Ġlovers":12647,"Ġaffecting":12648,"Ġstruggled":12649,"Ġjournalists":12650,"700":12651,"OOD":12652,"Ġwings":12653,"Ġadmin":12654,"Ġpartly":12655,"Ġamid":12656,"ĠCarter":12657,"Ġpsychology":12658,"ĠDetails":12659,"Ġdimensions":12660,"Ġlyrics":12661,"ĠNigeria":12662,"DC":12663,"asses":12664,"Ġsecurities":12665,"Ġclever":12666,"Ġtransformed":12667,"ĠDisease":12668,"DI":12669,"kward":12670,"school":12671,"inery":12672,"ĠCe":12673,"Ġdisabilities":12674,"Ġtrauma":12675,"ĠPerry":12676,"Ġtouched":12677,"Ġdefeated":12678,"Ġtower":12679,"ĠHunter":12680,"ĠJennifer":12681,"MB":12682,"hou":12683,"Ġbay":12684,"Ġpays":12685,"Ġprest":12686,"Ġsheep":12687,"Ġcontractors":12688,"ĠStrateg":12689,"Ġexecutives":12690,"gun":12691,"maker":12692,"Ġreadily":12693,"Ġ1987":12694,"ĠCastle":12695,"ĠBroadway":12696,"Ġuncomfortable":12697,"ĠBrooklyn":12698,"Bay":12699,"itants":12700,"adows":12701,"olester":12702,"Ġreliability":12703,"ĠShipping":12704,"Ġboots":12705,"Ġsubscribe":12706,"Ġcolleges":12707,"Ġclimbing":12708,"Ġcoalition":12709,"Ġadventures":12710,"Ġbikes":12711,"ĠAV":12712,"ceive":12713,"oops":12714,"Ġdeput":12715,"plex":12716,"Ġmeasuring":12717,"Ġpriorities":12718,"Ġepid":12719,"Ġtestimony":12720,"Ġpant":12721,"Ġdia":12722,"Ġgrip":12723,"ĠCash":12724,"Ġexterior":12725,"Ġrug":12726,"Ġdiscretion":12727,"Ġcorrel":12728,"Ġunto":12729,"ĠScreen":12730,"Ġprints":12731,"Ġdraws":12732,"arency":12733,"ĠWayne":12734,"effective":12735,"isons":12736,"Ġritual":12737,"ĠNHL":12738,"Ġeastern":12739,"Ġboats":12740,"ĠJacob":12741,"Point":12742,"Ġ`":12743,"arious":12744,"amins":12745,"ĠMagn":12746,"Ġalien":12747,"Ġimaging":12748,"Ġpeers":12749,"ernand":12750,"Ġmanufactured":12751,"Ġminority":12752,"ropriate":12753,"green":12754,"iated":12755,"erals":12756,"stick":12757,"ĠPric":12758,"Ġate":12759,"ĠNash":12760,"Ġoutdoors":12761,"Ġdisk":12762,"Ġcritics":12763,"Ġrelaxing":12764,"Ġpitc":12765,"ĠRot":12766,"ĠSpot":12767,"GR":12768,"Ġstones":12769,"Ġsaves":12770,"Ġutilizing":12771,"Ġaqu":12772,"Ġlighter":12773,"Ġgaining":12774,"ĠMatch":12775,"ĠNBC":12776,"Ġdistract":12777,"Ġpresenting":12778,"ĠTechnologies":12779,"Sometimes":12780,"km":12781,"pur":12782,"Ġfate":12783,"Ġreactions":12784,"neath":12785,"Ġlistings":12786,"shine":12787,"ĠAmend":12788,"Ġfleet":12789,"Ġrecycl":12790,"Ġjurisdiction":12791,"rapeutic":12792,"Ø§":12793,"Ġpunch":12794,"Ġdairy":12795,"struct":12796,"ĠFigure":12797,"ĠRoc":12798,"outheast":12799,"izable":12800,"ĠYanke":12801,"bey":12802,"Ġfilmm":12803,"Ġapplicants":12804,"Ġstrive":12805,"Ġfragr":12806,"Ġallegedly":12807,"ĠGreece":12808,"cap":12809,"sub":12810,"ĠCold":12811,"ĠEle":12812,"Ġreserves":12813,"Ġinval":12814,"Ġdeficit":12815,"Ġoptional":12816,"Ġignored":12817,"Je":12818,"Ġsink":12819,"ĠCitiz":12820,"ĠBesides":12821,"2018":12822,"ĠSox":12823,"ĠNevada":12824,"Ġselecting":12825,"Ġboyfriend":12826,"Ġconcentr":12827,"Ġnegotiations":12828,"Ġbeaches":12829,"ammed":12830,"Ġprost":12831,"apel":12832,"ĠAdditional":12833,"ĠOperations":12834,"October":12835,"Ġsized":12836,"Ġrend":12837,"ĠWant":12838,"ĠWelsh":12839,"ĠFreedom":12840,"Ġplaint":12841,"ĠKrist":12842,"ĠArthur":12843,"ooting":12844,"ĠCentury":12845,"Ġsquee":12846,"ĠConserv":12847,"ĠConsider":12848,"ĠMississippi":12849,"Bar":12850,"vious":12851,"Ġwars":12852,"Ġrings":12853,"Ġincidents":12854,"Ġendorse":12855,"Ġdetermining":12856,"Ġstraightforward":12857,"Ġattracted":12858,"Quest":12859,"ĠCaptain":12860,"ĠRussell":12861,"eared":12862,"Ġwax":12863,"Ġfer":12864,"Ġbol":12865,"Ġbout":12866,"Ġbeating":12867,"ĠFer":12868,"Ġconsolid":12869,"Ġrestoration":12870,"Ġconstra":12871,"ĠMaria":12872,"Ġdeparture":12873,"Ġsurviv":12874,"Ġcoconut":12875,"Ġmarch":12876,"Ġinherent":12877,"Ġdivers":12878,"stage":12879,"ĠTogether":12880,"Ġforums":12881,"ĠBY":12882,"ptic":12883,"onde":12884,"Ġpurple":12885,"ĠRobinson":12886,"dam":12887,"uations":12888,"Ġdelete":12889,"ĠRu":12890,"ĠGOP":12891,"assador":12892,"Ġformats":12893,"Ġexped":12894,"Ġintimate":12895,"posed":12896,"ĠAngel":12897,"ĠJonathan":12898,"Ġpublisher":12899,"ju":12900,"ĠDomin":12901,"Ġfriendship":12902,"Ġnicely":12903,"Ġpropag":12904,"Mart":12905,"oks":12906,"watch":12907,"western":12908,"ĠWright":12909,"ĠStop":12910,"Ġadditionally":12911,"Ġactivists":12912,"umbled":12913,"Ġtargeting":12914,"ĠThompson":12915,"--------":12916,"ĠMedicare":12917,"Ġlone":12918,"Ġchampions":12919,"Ġsoap":12920,"rena":12921,"Ġtreats":12922,"ĠAssess":12923,"Ġhomeless":12924,"ĠDubai":12925,"Ġkilomet":12926,"Ġlibraries":12927,"zo":12928,"Ġwound":12929,"ĠTel":12930,"ĠSau":12931,"neys":12932,"Ġmush":12933,"Ġseasonal":12934,"ĠCaribbean":12935,"ancers":12936,"ĠMorning":12937,"Ġappreciation":12938,"Dep":12939,"jud":12940,"ĠSad":12941,"uming":12942,"acts":12943,"Ġtwelve":12944,"Ġsecrets":12945,"Ġ63":12946,"Ġhonored":12947,"Ġdiameter":12948,"Following":12949,"Ġunnecessary":12950,"Ġtar":12951,"urred":12952,"ĠCoffee":12953,"Ġstreak":12954,"ĠRice":12955,"ĠRules":12956,"ĠLock":12957,"Ġunpre":12958,"rowing":12959,"Ġpatience":12960,"Ġtexts":12961,"DAY":12962,"Published":12963,"har":12964,"Ġfoster":12965,"ĠHem":12966,"Ġexcuse":12967,"lando":12968,"Ġsuggesting":12969,"asket":12970,"ĠNetherlands":12971,"ĠIBM":12972,"ĠBapt":12973,"ĠWolf":12974,"ĠHub":12975,"eled":12976,"Ġlease":12977,"Ġflaw":12978,"Ġretro":12979,"Ġextrem":12980,"ĠSafe":12981,"ĠGraham":12982,"Ġrenewable":12983,"!).":12984,"Based":12985,"Ġfence":12986,"Ġpaste":12987,"chair":12988,"emade":12989,"ĠGib":12990,"ĠGiven":12991,"Ġcolored":12992,"Ġentities":12993,"Ġserial":12994,"Ġrefuse":12995,"Ġreminder":12996,"Ġadvocate":12997,"ĠDating":12998,"Ġric":12999,"ĠJoy":13000,"inkle":13001,"Ġregarded":13002,"Ġappealing":13003,"Ġsituated":13004,"ĠThanksgiving":13005,"ĠMovie":13006,"tic":13007,"ĠRS":13008,"ĠJen":13009,"izon":13010,"Ġcounties":13011,"ĠIndians":13012,"chestra":13013,"Ġstructural":13014,"Ġvacuum":13015,"Ġpupp":13016,"Ġfucking":13017,"Pay":13018,"two":13019,"icts":13020,"advant":13021,"ĠBath":13022,"rue":13023,"azy":13024,"Ġcorruption":13025,"Ġlabour":13026,"Ġstruggles":13027,"ĠUrban":13028,"ĠSweden":13029,"ĠHawaii":13030,"rons":13031,"ĠSA":13032,"aments":13033,"ipher":13034,"rolog":13035,"Ġcrossing":13036,"Ġconvince":13037,"Ġsurprisingly":13038,"Ġsuspended":13039,"Open":13040,"Ġbases":13041,"Ġarth":13042,"Ġpole":13043,"ĠUnlike":13044,"Ġvariables":13045,"news":13046,"isure":13047,"Ġfet":13048,"Ġhint":13049,"igue":13050,"Ġprol":13051,"istically":13052,"ĠHeat":13053,"ĠTea":13054,"Ġparliament":13055,"Ġcombines":13056,"Ġfreel":13057,"Ġpreventing":13058,"ĠTrue":13059,"Ã±":13060,"Ġgardens":13061,"Ġconsole":13062,"istance":13063,"Ġscared":13064,"Ġminimize":13065,"elta":13066,"Ġexisted":13067,"Ġsensitivity":13068,"Ġspeeds":13069,"Ġprospective":13070,"ĠGalaxy":13071,"mad":13072,"Ġhike":13073,"Ġonion":13074,"ĠHE":13075,"emet":13076,"owned":13077,"ĠDeal":13078,"Ġaccepting":13079,"Ġfacial":13080,"Ġcaptain":13081,"Ġturb":13082,"Ġmutual":13083,"Ġhills":13084,"ĠBaker":13085,"ĠHo":13086,"ĠRidge":13087,"Ġkiller":13088,"Ġblast":13089,"ĠAlong":13090,"Ġnuts":13091,"Ġbattles":13092,"Nov":13093,"Ġtropical":13094,"Ġdimin":13095,"asma":13096,"ĠAle":13097,"Ġcopper":13098,"Ġrelatives":13099,"gging":13100,"ĠChristopher":13101,"Ġ[âĢ¦]":13102,"Ġmomentum":13103,"Ġincorporated":13104,"ĠEnterprise":13105,"breaking":13106,"ĠMichelle":13107,"RP":13108,"Ġdramatically":13109,"Ġvendor":13110,"Ġinflammation":13111,"olesterol":13112,"Ġchapters":13113,"Ġdesires":13114,"ollar":13115,"END":13116,"ĠAssociated":13117,"Ġfarming":13118,"ĠPrep":13119,"Ġconjunction":13120,"Ġtragedy":13121,"Det":13122,"Ġ00":13123,"ĠWard":13124,"ĠDim":13125,"ĠDance":13126,"ĠGT":13127,"ocur":13128,"Ġroster":13129,"Ġshowc":13130,"ĠArc":13131,"Ġattendance":13132,"Ġurge":13133,"Ġcorporation":13134,"Ġcontainers":13135,"Ġmortality":13136,"ĠPremium":13137,"Ġdelighted":13138,"stration":13139,"Ġislands":13140,"Ġcaps":13141,"2005":13142,"Ġindependently":13143,"Ġgovernance":13144,"ĠMilitary":13145,"ĠMcCain":13146,".:":13147,"Ġgau":13148,"ĠYellow":13149,"Ġtricks":13150,"Ġflip":13151,"Ġtransit":13152,"ĠFran":13153,"ĠZe":13154,"Ġphysics":13155,"Ġobservation":13156,"Ġblocked":13157,"Ġsuspected":13158,"usalem":13159,"Ġpermits":13160,"ĠAG":13161,"ĠFra":13162,"ĠESP":13163,"ivic":13164,"ĠThailand":13165,"oca":13166,"Ġ58":13167,"Ġlanded":13168,"Ð¾Ð":13169,"Public":13170,"vet":13171,"Ġalph":13172,"apor":13173,"Ġherbs":13174,"Ġtrails":13175,"Ġinfant":13176,"Ġcolorful":13177,"Ġbasement":13178,"Ġseniors":13179,"ĠOverall":13180,"Ġlaundry":13181,"Ġcompromise":13182,"aci":13183,"also":13184,"Ġsew":13185,"ĠFro":13186,"ĠGrace":13187,"ĠEM":13188,"achers":13189,"Ġconsume":13190,"ĠShel":13191,"ĠUpdate":13192,"ĠOthers":13193,"Ġlaunching":13194,"Ġmales":13195,"Ġenjoys":13196,"Ġawkward":13197,"ĠTyler":13198,"Ġkicked":13199,"Ġtravelling":13200,"ĠNASA":13201,"sur":13202,"ĠLot":13203,"ĠStay":13204,"Ġdeserves":13205,"Ġinvestor":13206,"ĠResults":13207,"Ġnonprofit":13208,"clusions":13209,"Ġ1986":13210,"ĠDouglas":13211,"depth":13212,"Michael":13213,"tha":13214,"Ġwheat":13215,"assy":13216,"ĠComments":13217,"Ġvoltage":13218,"Enter":13219,"Ġthroat":13220,"Ġallegations":13221,"GH":13222,"ĠTX":13223,"oting":13224,"ĠWedding":13225,"ĠUV":13226,"Ġ350":13227,"Ġcreatures":13228,"Ġdeny":13229,"Ġsummit":13230,"Ġthrilled":13231,"September":13232,"Ġbesides":13233,"ĠTips":13234,"ĠFan":13235,"iev":13236,"cium":13237,"Ġintend":13238,"Ġcostly":13239,"ylon":13240,"Second":13241,"Ġphenomenon":13242,"Gen":13243,"Ġthresh":13244,"ĠBol":13245,"Ġanth":13246,"ĠFine":13247,"Ġleverage":13248,"Ġnoon":13249,"ASH":13250,"Ġdropping":13251,"ĠCampbell":13252,"Ġbriefly":13253,"Person":13254,"Ġmamm":13255,"ĠPad":13256,"Ġshake":13257,"ĠOw":13258,"Ġdesp":13259,"Ġmodify":13260,"because":13261,"ĠChel":13262,"Ġnutrients":13263,"omore":13264,"Ġash":13265,"usive":13266,"ĠLower":13267,"Ġshine":13268,"Ġinterrupt":13269,"Ġpriest":13270,"Ġappearances":13271,"Ġportal":13272,"Ġinstalling":13273,"ĠSwitzerland":13274,"Ġoccasional":13275,"Ġburned":13276,"Ġwages":13277,"Ġinclusion":13278,"Ġ59":13279,"Ġdonated":13280,"ussy":13281,"arently":13282,"Ġcomplications":13283,"Ġbedrooms":13284,"ĠBenj":13285,"poons":13286,"jections":13287,"ĠIndependent":13288,"ĠCompanies":13289,"dered":13290,"Ġoun":13291,"Ġsho":13292,"Ġperceived":13293,"Ġaccidents":13294,"Ġindividually":13295,"ceptions":13296,"Ġgrades":13297,"Ġbooth":13298,"Ġeducate":13299,"Ġembedded":13300,"Ġcrossed":13301,"Ġdressing":13302,"OVE":13303,"Ġvenues":13304,"Ġmysterious":13305,"FS":13306,"hu":13307,"his":13308,"sk":13309,"Ġrenowned":13310,"ĠRab":13311,"Ġsuited":13312,"Ġrhythm":13313,"ĠProp":13314,"Ġvalued":13315,"Ġpressing":13316,"ĠMetal":13317,"Super":13318,"=\"":13319,"Ġpose":13320,"Ġstabil":13321,"ĠLisa":13322,"ĠNelson":13323,"ĠKay":13324,"Ġgenerating":13325,"Ġreplacing":13326,"ĠGriff":13327,"ĠImport":13328,"Ġobservations":13329,"Maybe":13330,"iasm":13331,"ĠMurray":13332,"PE":13333,"rors":13334,"uit":13335,"asive":13336,"ĠPin":13337,"ĠES":13338,"ĠElement":13339,"Ġattractions":13340,"ĠCollect":13341,"Ġ1985":13342,"ĠEvans":13343,"Ġdelicate":13344,"TON":13345,"fare":13346,"sor":13347,"size":13348,"Ġtheft":13349,"ĠMix":13350,"ĠBear":13351,"Ġcancel":13352,"agger":13353,"Ġrecovered":13354,"Ġnowhere":13355,"ĠMarg":13356,"Ġexamined":13357,"Ġsubstitute":13358,"ĠFeatures":13359,"Ġattributes":13360,"Ġorientation":13361,"Ġrevenues":13362,"ĠPittsburgh":13363,"à¥":13364,"Ġtsp":13365,"olars":13366,"Ġpreval":13367,"ategory":13368,"2004":13369,"Ġconditioning":13370,"ĠTechnical":13371,"Ġheroes":13372,"February":13373,"Table":13374,"brew":13375,"written":13376,"Ġwand":13377,"Ġmaj":13378,"Ġunderground":13379,"compass":13380,"Ġcontinually":13381,"Ġcamping":13382,"ARE":13383,"Unfortunately":13384,"ĠISO":13385,"Ġtactics":13386,"ĠOscar":13387,"emetery":13388,"Ġtatt":13389,"rek":13390,"reate":13391,"Ġnerve":13392,"ĠIRS":13393,"ardless":13394,"ĠVision":13395,"Ġspouse":13396,"Ġunderneath":13397,"owship":13398,"Ġcoupled":13399,"Ġcompanion":13400,"Ġphysicians":13401,"Ġanalysts":13402,"Ġcitizenship":13403,"ĠFranklin":13404,"Ġcorners":13405,"Ġinquiry":13406,"ĠâĨĴ":13407,"MENT":13408,"VC":13409,"Yeah":13410,"vised":13411,"stairs":13412,"ĠSens":13413,"ĠHug":13414,"Ġdele":13415,"Ġshore":13416,"Ġscary":13417,"Ġcommod":13418,"Ġmagazines":13419,"Ġrespected":13420,"Ġpaths":13421,"Ġaccurately":13422,"Ġsemester":13423,"Ġcontrolling":13424,"ĠCollins":13425,"Ġsubsequently":13426,"Ġprivilege":13427,"Ġdign":13428,"Ġthou":13429,"idges":13430,"ĠCulture":13431,"Ġfever":13432,"Ġremed":13433,"Ġlongest":13434,"Ġhomework":13435,"ĠCorps":13436,"Ġconvicted":13437,"ni":13438,"Ġho":13439,"Ġarc":13440,"riters":13441,"Ġ62":13442,"Ġ700":13443,"Ġdesperate":13444,"uisine":13445,"heimer":13446,"Ġfitted":13447,"etooth":13448,"ontal":13449,"ĠComment":13450,"2019":13451,"ucker":13452,"Ġequality":13453,"Ġspecifications":13454,"Ġpressed":13455,"Ġchallenged":13456,"Green":13457,"esity":13458,"urring":13459,"ĠDal":13460,"ptions":13461,"bec":13462,"Ġcapac":13463,"shirt":13464,"Ġinternationally":13465,"Ġdrum":13466,"bris":13467,"idding":13468,"Ġwondered":13469,"Share":13470,"====":13471,"Ġcognitive":13472,"isp":13473,"ĠPent":13474,"ĠPoll":13475,"ĠBond":13476,"ĠBio":13477,"Ġcoinc":13478,"Ġcarb":13479,"Ġposter":13480,"Ġburst":13481,"Ġdivine":13482,"Ġadjusted":13483,"Ġeditorial":13484,"Ġdysfunction":13485,"Ġamenities":13486,"OH":13487,"Ġmi":13488,"Ġhiking":13489,"ĠSkin":13490,"Ġleak":13491,"ĠResort":13492,"Ġvolumes":13493,"Ġawful":13494,"West":13495,"ĠApart":13496,"Ġconferences":13497,"ĠFIG":13498,"Ġlocals":13499,"Ġparticles":13500,"Ġdistur":13501,"Ġdemocratic":13502,"Ġreasonably":13503,"Ġdownloaded":13504,"security":13505,"Ġdecreased":13506,"Ġdistinctive":13507,"ĠLaura":13508,"four":13509,"Ġdensity":13510,"Ġreass":13511,"ĠCass":13512,"ĠCraft":13513,"Ġcongress":13514,"Ġreson":13515,"Ġsubmission":13516,"cuits":13517,"Ġsends":13518,"ĠRegion":13519,"Ġdisappear":13520,"Ġdominant":13521,"mary":13522,"start":13523,"Ġstarter":13524,"Ġsafer":13525,"due":13526,"Ġ67":13527,"Ġbrick":13528,"ONE":13529,"Ġquoted":13530,"Ġhabitat":13531,"Ġmedicines":13532,"National":13533,"eous":13534,"oven":13535,"Ġcos":13536,"Ġbom":13537,"umph":13538,"redited":13539,"aco":13540,"ocate":13541,"Ġunve":13542,"ĠHend":13543,"position":13544,"ĠBilly":13545,"Ġpredicted":13546,"claimed":13547,"Author":13548,"lay":13549,"Ġfare":13550,"ĠPresent":13551,"Ġ101":13552,"ographical":13553,"Ġdigit":13554,"ĠUpdated":13555,"ĠChristianity":13556,"code":13557,"jack":13558,"ĠFashion":13559,"ĠAlice":13560,"Ġintensive":13561,"Ġunderstands":13562,"Ġappearing":13563,"ASS":13564,"ĠRegister":13565,"Ġrolls":13566,"ĠPlayer":13567,"worthy":13568,"Ġsearches":13569,"fi":13570,"Ġrevel":13571,"ĠTodd":13572,"ĠCars":13573,"entials":13574,"Ġtourists":13575,"Ġconducting":13576,"Ġpenet":13577,"Ġproceedings":13578,"senal":13579,"Ġdisagree":13580,"uity":13581,"inyl":13582,"onge":13583,"Ġber":13584,"anne":13585,"olo":13586,"ĠLux":13587,"Ġshy":13588,"Ġdonate":13589,"Ġversatile":13590,"Ġblogging":13591,"Ġstrikes":13592,"ĠMetro":13593,"ĠGetting":13594,"Ġharass":13595,"General":13596,"ĠSett":13597,"ĠHu":13598,"pered":13599,"opic":13600,"ĠJobs":13601,"Ġunlimited":13602,"Ġflows":13603,"Ġrack":13604,"ĠSean":13605,"Ġeconomics":13606,"Ġgrandmother":13607,"ĠJerusalem":13608,"Ġglobally":13609,"ĠMB":13610,"ĠDad":13611,"mentation":13612,"Ġtrains":13613,"Ġprogrammes":13614,"Ġairline":13615,"forced":13616,"Ġencourages":13617,"Right":13618,"Ġhood":13619,"Ġoutlets":13620,"rypt":13621,"ĠiT":13622,"marks":13623,"Ġridiculous":13624,"Jun":13625,"Ġbree":13626,"Ġgel":13627,"ĠBah":13628,"Ġcoin":13629,"commerce":13630,"Ġtranscript":13631,"century":13632,"Ġordering":13633,"Ġdealers":13634,"Ġscenarios":13635,"Mem":13636,"Ġic":13637,"Ġtheore":13638,"aro":13639,"ĠRio":13640,"Ġjunk":13641,"Ġbeta":13642,"Ġindication":13643,"Ġbreach":13644,"Ġnewspapers":13645,"Ġvariation":13646,"Ġchemistry":13647,"Remember":13648,"UE":13649,"fold":13650,"ulu":13651,"ĠDer":13652,"ĠGate":13653,"comed":13654,"ĠBarry":13655,"ĠWoods":13656,"ĠClinical":13657,"Ġloyalty":13658,"Ġmos":13659,"llers":13660,"rolling":13661,"ĠSend":13662,"urers":13663,"Ġrunner":13664,"working":13665,"Ġsnack":13666,"Ġconsistency":13667,"Ġpolls":13668,"Ġmerchandise":13669,"help":13670,"ĠBoo":13671,"Ġarise":13672,"Ġcleared":13673,"Ġfuneral":13674,"osterone":13675,"Ġspirits":13676,"TO":13677,"Ġeighth":13678,"ĠAaron":13679,"Ġneuro":13680,"Ġramp":13681,"Ġafterwards":13682,"ĠLeft":13683,"Ġclassical":13684,"Ġsteal":13685,"Ġaffair":13686,"Ġtraveled":13687,"ĠConsumer":13688,"ĠPalm":13689,"Ġresistant":13690,"Ġcharts":13691,"Ġcannabis":13692,"LP":13693,"ergy":13694,"Ġstairs":13695,"Ġcamps":13696,"Ġvisitor":13697,"ĠInstall":13698,"Ġsuggestion":13699,"Ġcommentary":13700,"ĠISBN":13701,"Ġbelly":13702,"Ġstrictly":13703,"November":13704,"San":13705,"Ġunre":13706,"white":13707,"Ġdeadly":13708,"Ġhighlighted":13709,"Ġmandatory":13710,"Ġreun":13711,"pectives":13712,"Ġsupportive":13713,"Ġexpects":13714,"ĠBring":13715,"Ġsooner":13716,"Ġfloating":13717,"Ġclarity":13718,"ĠDakota":13719,".).":13720,"Ġsilly":13721,"struction":13722,"Ġreign":13723,"ĠNJ":13724,"Ġpartial":13725,"ĠAdobe":13726,"Ġdamn":13727,"Ġorganizational":13728,"innamon":13729,"iblical":13730,"Mat":13731,"NEW":13732,"group":13733,"Ġcontend":13734,"Ġranges":13735,"ĠVersion":13736,"Ġracial":13737,"aho":13738,"check":13739,"Being":13740,"Ġrecycling":13741,"Ġsurveillance":13742,"Fin":13743,"URE":13744,"five":13745,"rin":13746,"Ġviagra":13747,"Ġnotable":13748,"nered":13749,"Ġlikewise":13750,"Ġpartially":13751,"Ġbacking":13752,"Ġspreading":13753,"oriented":13754,"Full":13755,"bone":13756,"dig":13757,"pub":13758,"Ġbureau":13759,"ĠMason":13760,"ometer":13761,"ORK":13762,"Ġneighbour":13763,"Ġpromoted":13764,"ĠAnti":13765,"Ġmagnific":13766,"Ġcrops":13767,"ĠOlympics":13768,"Ġtailored":13769,"Ġbail":13770,"llo":13771,"ĠTouch":13772,"ĠObs":13773,"agne":13774,"Ġresur":13775,"Ġrod":13776,"archy":13777,"Ġconstitutional":13778,"Ġcloset":13779,"Ġhorrible":13780,"Ġcounterpart":13781,"Happy":13782,"hh":13783,"Ġrides":13784,"Ġconsensus":13785,"Ġmonetary":13786,"ĠNetflix":13787,"Ġbehaviors":13788,"Ġanalyst":13789,"Ġincorrect":13790,"Ġsporting":13791,"ĠAdministr":13792,"Ġhouseholds":13793,"ĠCNN":13794,"South":13795,"ĠNAT":13796,"ĠKa":13797,"Ġconfusing":13798,"Ġingredient":13799,"Ġdetected":13800,"ĠWikipedia":13801,"AK":13802,"Set":13803,"bin":13804,"hal":13805,"Ġpad":13806,"ĠAy":13807,"than":13808,"unge":13809,"Ġmanages":13810,"liver":13811,"Ġretrie":13812,"Ġpointing":13813,"Ġcleans":13814,"Ġfridge":13815,"ĠCapit":13816,"Ġproceeds":13817,"ghed":13818,"iw":13819,"Ġprizes":13820,"uffy":13821,"Ġconsisting":13822,"Ġsponsor":13823,"IE":13824,"iological":13825,"ĠPink":13826,"ĠBeth":13827,"ordination":13828,"Ġbuilds":13829,"annah":13830,"2003":13831,"Ġembod":13832,"ĠWarren":13833,"building":13834,"North":13835,"olved":13836,"ĠHunt":13837,"ĠRule":13838,"ĠLen":13839,"ĠGot":13840,"Ġoutlet":13841,"Ġ->":13842,"Ġtwin":13843,"Ġdemo":13844,"Ġintegrate":13845,"Ġavoiding":13846,"Ġadjacent":13847,"base":13848,"arity":13849,"iratory":13850,"ĠMand":13851,"ĠGun":13852,"osures":13853,"ardo":13854,"Ġbacks":13855,"ĠAlt":13856,"Ġrecipient":13857,"ĠCurrently":13858,"ĠGiants":13859,"human":13860,"xide":13861,"Ġlined":13862,"ader":13863,"ĠVerm":13864,"Ġpacking":13865,"Ġawa":13866,"Ġarchive":13867,"Ġtrainer":13868,"Ġprecision":13869,"Ġmailing":13870,"Key":13871,"ĠOccup":13872,"Â£":13873,"ĠHung":13874,"uscript":13875,"ĠRF":13876,"Ġ1959":13877,"ĠCommerce":13878,"arma":13879,"Ġmodest":13880,"Ġexecuted":13881,"ĠConditions":13882,"driven":13883,"Ġports":13884,"alia":13885,"ĠTig":13886,"ĠSQL":13887,"Ġ900":13888,"Ġimmense":13889,"ĠDemocrat":13890,"Ġvegetable":13891,"President":13892,"ioned":13893,"chron":13894,"ĠFem":13895,"Ġsubt":13896,"Play":13897,"ĠAthlet":13898,"Craig":13899,"Paul":13900,"bling":13901,"pdf":13902,"service":13903,"Ġbored":13904,"Ġbrowse":13905,"Ġlover":13906,"Ġsurgical":13907,"Ġeasiest":13908,"Ġfright":13909,"Ġvarieties":13910,"OUT":13911,"ĠCampaign":13912,"Ġcrafts":13913,"Ġbonds":13914,"Ġmagnetic":13915,"ancer":13916,"ĠSoul":13917,"ĠMC":13918,"ĠFu":13919,"bsp":13920,"ĠClimate":13921,"Ġbarriers":13922,"Ġcycling":13923,"ĠMorris":13924,"Ġresolved":13925,"Ġenthusiasm":13926,"ĠClient":13927,"rimin":13928,"Ġprox":13929,"ĠOtt":13930,"bath":13931,"mus":13932,"Ġlenses":13933,"ĠPas":13934,"ĠFight":13935,"version":13936,"ggy":13937,"irmingham":13938,"Ġevaluated":13939,"Ġoccupied":13940,"ĠEmergency":13941,"Ġpile":13942,"ĠFBI":13943,"Ġtriple":13944,"Ġeducated":13945,"Ġinjection":13946,"Ġ1984":13947,"Ġcrystal":13948,"Ġcollaborative":13949,"rah":13950,"ifle":13951,"ĠRacing":13952,"Ġcontrad":13953,"Ġacids":13954,"ĠBright":13955,"Ġtalents":13956,"ĠBelow":13957,"Ġreminds":13958,"Ġutilized":13959,"Ġacknowledged":13960,"ĠDiamond":13961,"ĠTaiwan":13962,"Ps":13963,"Rich":13964,"Â»":13965,"Ġtiles":13966,"Ġinject":13967,"roe":13968,"ĠKaren":13969,"Ġrape":13970,"ocket":13971,"Ġforming":13972,"zech":13973,"Product":13974,"Ġpromotional":13975,"ĠDelhi":13976,"iconduct":13977,"!!!!!!!!":13978,"Max":13979,"Yet":13980,"pace":13981,"Ġwool":13982,"ĠGB":13983,"ĠNative":13984,"ĠStorm":13985,"Ġindirect":13986,"cedented":13987,"Ġrelie":13988,"ĠWhatever":13989,"Ġresemb":13990,"Ġkingdom":13991,"ĠAid":13992,"ĠBird":13993,"Ġange":13994,"ĠOri":13995,"ĠYoga":13996,"blem":13997,"ĠAnsw":13998,"ĠAdvert":13999,"Ġoptical":14000,"ĠIsa":14001,"Ġbias":14002,"Class":14003,"ĠLegisl":14004,"ĠBeauty":14005,"ext":14006,"lon":14007,"Ġfires":14008,"Ġlymph":14009,"ĠSleep":14010,"ĠSomething":14011,"raham":14012,"ĠBag":14013,"ĠHousing":14014,"Ġjam":14015,"Ġmayor":14016,"Ġbugs":14017,"Ġ88":14018,"cerpt":14019,"Ġrestra":14020,"Ġpasta":14021,"ĠResource":14022,"Ġsore":14023,"Ġtob":14024,"Ġoutbreak":14025,"anship":14026,"izers":14027,"Ġquery":14028,"Ġraises":14029,"Ġhealthier":14030,"connect":14031,"ORD":14032,"Ġsells":14033,"OME":14034,"Ġachievements":14035,"ĠRobin":14036,"ciplinary":14037,"ĠLeader":14038,"Ġshelves":14039,"UI":14040,"orig":14041,"ĠIR":14042,"ĠHamp":14043,"Ġneu":14044,"Ġgrasp":14045,"ĠTruth":14046,"ANS":14047,"Ġknowledgeable":14048,"Ġfreshman":14049,"Ġappliances":14050,"Ġwelcomed":14051,"ĠPalace":14052,"Ġamendment":14053,"ĠLiberty":14054,"ĠTransportation":14055,"hole":14056,"itle":14057,"Ġdub":14058,"ĠARE":14059,"ĠBart":14060,"Ġdebris":14061,"ĠRAM":14062,"istant":14063,"Ġjer":14064,"ĠUntil":14065,"ĠYahoo":14066,"ĠCommand":14067,"Ġdealt":14068,"Ġcomplain":14069,"Ġnecessity":14070,"Ġmidst":14071,"Ġbrave":14072,"IME":14073,"Ġterrorism":14074,"ĠInvestment":14075,"Ġniche":14076,"Cent":14077,"vance":14078,"Ġborders":14079,"igma":14080,"Ġnoting":14081,"allow":14082,"ieces":14083,"urchase":14084,"Ġassociations":14085,"Ġdrawings":14086,"Ġcycles":14087,"ĠSimple":14088,"ĠClear":14089,"ĠTools":14090,"ĠAmendment":14091,"Ġdur":14092,"ĠPap":14093,"akespe":14094,"Ġdistant":14095,"ĠBrun":14096,"Ġpencil":14097,"Ġpenalties":14098,"Ġsustained":14099,"Ġcrying":14100,"ĠLabour":14101,"Ġrecruitment":14102,"pin":14103,"robe":14104,"ĠPD":14105,"arded":14106,"Ġjar":14107,"Ġ''":14108,"Ġtravels":14109,"Ġstrengths":14110,"Ġriders":14111,"ĠMarshall":14112,"minded":14113,"pop":14114,"ĠTa":14115,"ido":14116,"aman":14117,"Ġ130":14118,"ĠChi":14119,"ĠZone":14120,"Ġcleaned":14121,"Ġcircles":14122,"ĠLiverpool":14123,"Att":14124,"Sun":14125,"Ġtanks":14126,"ĠBou":14127,"quire":14128,"Ġchamber":14129,"ivan":14130,"ĠLeave":14131,"ĠColon":14132,"Ġwitnessed":14133,"Ġevolved":14134,"Ġcoupon":14135,"ĠIntelligence":14136,"Ġsubscribers":14137,".),":14138,"Ġpork":14139,"othing":14140,"ĠSin":14141,"ulent":14142,"Ġlogical":14143,"Ġviruses":14144,"ĠSummit":14145,"Ġobtaining":14146,"Ġbeside":14147,"Ġhiding":14148,"umbers":14149,"ĠKel":14150,"Ġunh":14151,"Ġpreference":14152,"Ġprovin":14153,"Ġmodules":14154,"Ġprofitable":14155,"âĢ¦âĢĿ":14156,"Ġelabor":14157,"ĠOrlando":14158,"Ġfunctioning":14159,"OST":14160,"Ġscientist":14161,"****":14162,"Ġadapted":14163,"Ġforests":14164,"Ġelevated":14165,"Ġtomato":14166,"Ġaesthetic":14167,"Par":14168,"lad":14169,"Ã§":14170,"ĠMall":14171,"ĠLE":14172,"ĠGrey":14173,"click":14174,"hess":14175,"Ġarrives":14176,"ĠRemove":14177,"Ġtablespoons":14178,"Ġpursuing":14179,"Further":14180,"xual":14181,"Ġverse":14182,"lett":14183,"ĠTed":14184,"ĠRange":14185,"ĠEc":14186,"Ġspecially":14187,"Ġmissions":14188,"ĠActive":14189,"Ġbrace":14190,"Ġvarying":14191,"ĠBenjamin":14192,"think":14193,"ĠLarry":14194,"ĠNap":14195,"Ġpeoples":14196,"Ġhandles":14197,"Ġfounding":14198,"ĠUSDA":14199,"ĠCoal":14200,"Ġbarrier":14201,"Ġfemales":14202,"Ġsequences":14203,"Ġmicros":14204,"WA":14205,"gro":14206,"heim":14207,"Ġpills":14208,"ĠLuck":14209,"Ġsubur":14210,"ĠClay":14211,"Ġanimation":14212,"Ġdietary":14213,"Ġconcentrate":14214,"ĠHoliday":14215,"Ġcharming":14216,"ĠFaith":14217,"Ġroyal":14218,"Know":14219,"Tw":14220,"XX":14221,"kle":14222,"Ġmigration":14223,"vement":14224,"ĠSL":14225,"Ġapproaching":14226,"Ġrestored":14227,"ĠBasic":14228,"Ġdelayed":14229,"Ġlinear":14230,"Ġwre":14231,"Ġpale":14232,"Ġdread":14233,"igs":14234,"Ġugly":14235,"ĠBott":14236,"Ġshades":14237,"Ġcompound":14238,"ressing":14239,"ologically":14240,"Ġattraction":14241,"Ġprinter":14242,"Ġweekends":14243,"Ġtasty":14244,"Ġavoided":14245,
[...]
