#version: 0.2
Ġ t
Ġ a
i n
h e
r e
o n
Ġt he
e r
Ġ s
Ġ w
a t
Ġ o
n d
Ġ c
i t
o r
e s
i s
o u
e n
Ġ f
in g
Ġ b
Ġ p
e d
a n
a l
Ġt o
Ġ m
a r
Ġa nd
Ġo f
Ġ in
Ġ d
i c
l e
Ġ h
a s
o m
i on
Ġt h
l l
â Ģ
en t
Ġ l
v e
Ġ e
s t
Ġ re
r o
Ġ n
Ġ y
Ġ g
l y
Ġ I
c t
e t
Ġ T
Ġy ou
Ġb e
u t
Ġ is
o t
Ġ S
i d
Ġ on
Ġf or
a y
o w
u r
Ġ C
Ġ A
s e
i m
c e
a d
i g
a m
Ġth at
v er
Ġ u
c h
i l
it h
Ġs t
at ion
o l
âĢ Ļ
i r
Ġw ith
Ġ M
Ġ it
Ġ he
Ġw e
r a
Ġa n
Ġ P
Ġ B
Ġa s
Ġw h
i ll
er s
i f
k e
Ġp ro
Ġa re
t er
Ġh a
g e
Ġ W
Ġc on
o o
l d
he r
u l
Ġo r
Ġ H
at e
es s
p p
Ġ D
c k
Ġc om
Ġa t
Ġs e
m ent
ĠT he
o re
es t
r i
Ġd e
u s
Ġ F
Ġ 1
a b
ig h
t h
Ġ R
r om
Ġw as
is t
Ġn e
Ġ 2
Ġ (
p e
Ġe x
u n
an t
it y
q u
Ġ L
Ġs u
Ġ v
re s
i ve
Ġha ve
or t
o p
Ġyou r
Ġ G
e m
Ġ r
Ġ âĢ
a in
ar t
Ġ N
Ġth is
u st
Ġ E
Ġf rom
n t
Ġn ot
e l
Ġs h
u m
o s
Ġa l
i es
a nd
Ġb y
Ġc h
igh t
Ġc an
om e
i e
Ġ le
al l
ar d
Ġw ill
ou t
Ġ O
ou ld
u d
Ġa b
re d
ou r
Ġd o
Ġw or
i v
al ly
g h
o st
t e
Ġp l
o d
0 0
Ġa ll
r ou
Ġ J
id e
c i
as t
Ġ j
a k
e ar
in e
' s
T he
Ġ k
u re
a g
p er
f e
Ġs o
Ġh as
p t
Ġm e
Ġw he
Ġb ut
âĢ Ŀ
ic e
a ck
a ge
Ġu s
ct ion
a c
Ġa d
t her
Ġo ut
p l
ic h
oo k
a ke
on e
Ġu p
Ġthe y
in d
Ġ U
Ġthe ir
s o
a re
Ġm ore
Ġ en
ver y
o g
r y
Ġcom p
on g
ab le
Ġm y
im e
at ed
oo d
Ġt e
c c
it e
ou s
Ġon e
Ġc l
i z
Ġh is
am e
i ke
an s
i p
Ġab out
Ġ im
f or
ĠT h
Ġo ur
Ġs a
Ġwh o
ĠI n
ĠâĢ ľ
b er
Ġcon t
ion s
r u
Ġm an
Ġg o
Ġf e
an ce
d u
a ct
c l
Ġwh ich
n e
Ġ K
Ġwor k
Ġ2 0
t o
i re
i a
Ġre s
i b
Ġ Y
a il
ig n
Ġa pp
as e
o c
a ch
re e
re at
ation s
a p
ay s
a ce
ic k
ar y
Ġp er
v en
Ġo ther
ul t
Ġ qu
e p
Ġof f
a u
Ġt ime
as s
Ġl ike
f f
Ġy ear
Ġs ome
u b
ic al
ĠS t
Ġal so
Ġan y
u e
i le
Ġd is
. .
Ġg et
ar k
n ow
en ce
ou nt
ve l
Ġ V
Ġs p
Ġu n
for m
ĠI t
Ġthe m
ing s
Ġne w
Ġp art
Ġh ad
er v
res s
ĠC h
Ġbe en
Ġwe re
Ġhe r
on d
Ġthe re
Ġa g
Ġp e
Ġ 3
o ve
o se
Ġo ver
Ġwhe n
Ġ "
it ion
Ġwh at
Ġw ould
ou gh
ent s
a v
Ġa r
i al
in k
Ġ if
or s
Ġ -
Ġt r
Ġj ust
en s
Ġth an
il d
Ġp re
p ort
Ġ ro
ou nd
or d
Ġs pe
Ġ20 1
Ġbe c
is h
m er
Ġk now
in t
ir st
w n
Ġne ed
o b
op le
ĠW e
Ġre c
Ġin to
ow n
re n
o v
ĠH e
nd er
o y
Ġh ow
or y
f ter
at er
Ġs c
Ġsa id
Ġa m
Ġa cc
rou gh
ad e
Ġc o
Ġn o
it t
Ġpe ople
ver s
an g
Ġt w
Ġit s
n ing
ol d
l ic
Ġd es
Ġs he
ci al
on s
u al
Ġf irst
cl ud
c es
Ġm ay
ĠâĢ ĵ
Ġb l
w e
Ġcom m
au se
l p
i an
he d
Ġm ake
at es
am p
Ġon ly
u ll
ment s
Ġm ost
r ic
Ġt ra
at ing
Ġhe lp
e nd
Ġl ook
re nt
Ġb et
Ġad d
f t
ĠTh is
Ġp o
Ġpro v
' t
Ġ 4
Ġb ack
i ly
Ġin d
Ġe m
Ġe very
Ġw ant
ter n
Ġth rough
rou nd
Ġf l
d ay
Ġ1 9
Ġin clud
is e
i ous
h ing
Ġse e
Ġcon s
Ġ 5
Ġa ct
Ġwe ll
Ġu se
ie w
ĠR e
Ġtw o
Ġb u
Ġpro du
g r
Ġthe se
l es
se l
e ct
Ġu nder
) .
k s
it ies
p h
is s
if e
Ġp h
fe ct
Ġc ould
Ġs erv
Ġa fter
f ore
e w
o ll
x t
he n
if ic
c ed
Ġ very
pp ort
Ġd if
a w
ro w
ur n
T h
t ing
Ġre l
u ch
Ġpl ay
Ġg ood
Ġw ay
Ġyear s
Ġman y
Ġe ven
f ul
Ġin c
le ct
r it
t s
Ġin v
j ect
Ġs y
Ġre g
Ġp r
ĠY ou
Ġim p
ers on
Ġst ud
in ess
Ġ ra
al s
an ge
Ġh im
Ġsh ould
Ġthe n
os s
Ġwhe re
ak ing
c ess
Ġn ow
pe ct
Ġre m
Ġ ke
o ol
ot h
Ġc ol
on t
Ġe v
b s
ation al
er t
Ġs m
Ġex per
c om
Ġd id
il ity
o ck
ib le
Ġr ight
as ed
w ard
Ġbec ause
an y
ol og
Ġst art
Ġ2 00
g et
Ġd on
Ġo wn
Ġd own
. âĢĿ
| |
ul ar
u res
Ġg u
Ġse c
id ent
er m
at h
Ġg reat
t y
ic es
i ed
Ġb us
ur ing
ow er
ĠU n
Ġa c
ĠW h
Ġf in
b le
Ġm uch
ĠA s
Ġth ink
ĠS e
Ġat t
h ip
Ġ ent
it s
ra ct
Ġto o
at ive
y s
he s
form ation
ot her
ĠA nd
u p
Ġsu ch
) ,
Ġ $
st em
Ġd ay
e ll
Ġl ong
om et
it ed
al th
ĠC om
Ġf ind
Ġh igh
vel op
Ġag ain
Ġde c
ic t
or k
ic s
a ir
I n
Ġt ake
Ġin st
Ġ 6
Ġs et
Ġre ad
g an
Ġhe re
ar ch
u nd
en er
Ġb est
Ġbe ing
Ġbe fore
Ġin te
Ġ &
Ġth ose
Ġm ade
Ġc ar
ri b
Ġdo es
Ġwe e
Ġin s
Ġdif fe
c y
Ġm on
âĢ ľ
Ġsh ow
ĠP ro
Ġbe l
Ġe nd
Ġp res
Ġp erson
Ġm in
l ine
u ally
ĠD e
n er
Ġc all
Ġl oc
ch ool
ĠI f
Ġwor ld
i x
as on
Ġas s
ĠA n
Ġs ur
Ġh ome
Ġre qu
Ġb r
al k
Ġf am
an k
u es
Ġc he
oll ow
Ġm ark
Ġbus iness
Ġl ife
l i
re st
w ay
sel f
2 0
Ġin formation
Ġl ast
a x
Ġs im
v ing
Ġa v
i o
n g
Ġha nd
gr am
W e
Ġ1 0
Ġm ed
Ġus ed
Ġde velop
f fect
Ġo p
in s
Ġ 7
a ve
Ġe ar
in ce
Ġwh ile
Ġsy stem
ĠN ew
Ġm em
at her
Ġtr ans
at ch
Ġre ally
Ġsu b
Ġar t
Ġp ol
ub lic
ou se
ch n
l ed
Ġc re
m s
ro s
ĠF or
iv es
a z
ĠB ut
Ġin ter
Ġm od
Ġgo ing
p le
ak es
Ġexper i
n ess
Ġa round
.. .
al e
Ġe ach
im es
Ġle ad
Ġth ough
l and
ce pt
Ġdes ign
Ġn um
Ġd et
Ġv is
p r
Ġprodu ct
v iew
Ġdis c
Ġc ount
Ġs omet
Ġc our
Ġch ar
Ġsu pport
ĠA l
in es
Ġre t
en e
re ad
ĠS h
Ġ 8
, âĢĿ
e ver
Ġst ill
al ity
ou n
et s
ri end
Ġf ollow
Ġch ild
Ġte am
Ġc ur
we en
Ġprov id
Ġfe el
g g
iz e
Ġcomp le
ire ct
Ġg r
Ġc are
ction s
ag es
rou p
v ed
Ġdiffe rent
Ġs l
as h
d er
ion al
Ġb ook
Ġs ay
Ġad v
. "
Ġst r
Ġ ed
ĠS o
Ġs ign
Ġs ame
i vers
itt le
Ġs er
m an
Ġpo int
Ġcomm un
a h
Ġf ound
Ġs k
mer ic
Th is
Ġex p
le ase
Ġb oth
Ġa ut
Ġbet ween
ust om
Ġe as
Ġpl ace
Ġc le
ut e
ar s
Ġm et
ĠThe y
ĠA r
W h
Ġb o
at a
Ġfe w
w ays
ĠB e
Ġl ot
Ġr un
ar m
ĠC l
Ġf ree
Ġ 9
Ġg l
Ġha pp
Ġpro gram
Ġth ree
ut ion
I t
t en
l ess
00 0
ĠL e
Ġl ove
Ġim port
Ġth ings
Ġpro f
Ġp ur
od y
iz ed
Ġre p
Ġpro cess
Ġl ist
Ġp ost
Ġex t
i ent
Ġfor m
Ġto p
t on
am es
Ġst ate
Ġre al
i red
b e
ant s
Ġf un
Ġl ittle
t he
Ġf ull
e x
Ġl ar
Ġmon th
o ad
th ing
c er
v es
Ġhe alth
it al
Ġpl an
et y
Ġg ener
ĠA meric
ĠA d
or n
olog y
ail able
Ġke ep
o h
ver n
Ġf act
u g
ar n
u c
Ġte chn
Ġd uring
ros s
Ġcom e
at ure
Ġapp ro
Ġre port
ist s
Ġf il
b ers
Ġre f
Ġop en
Ġp oss
Ġpart ic
Ġs chool
in ing
Ġde f
er ing
Ġo b
Ġf r
Ġt y
Ġus ing
ic ally
ra nd
Ġc ustom
Ġsomet hing
Ġmark et
Ġin t
ĠThe re
Ġis s
Ġs ol
in ed
Ġp ut
c on
Ġcont in
iv ing
Ġp at
Ġm ust
Ġres ult
c ent
Ġbet ter
Ġv ar
Ġres p
Ġinte rest
Ġc ent
Ġf riend
Ġall ow
Ġwith out
is hed
Ġal ways
Ġb ig
Ġre st
Ġqu est
Ġd ist
Ġg ame
1 0
at t
ent ion
g y
ie ld
ĠS he
Ġsm all
Ġinclud ing
o ot
Ġan other
Ġcomp any
Ġm ain
a red
Ġo pt
us s
Ġv al
Ġg ot
i qu
Ġne xt
t t
Ġw ater
Ġp ass
Ġp ri
Ġc or
ur al
g er
ĠH ow
Ġav ailable
Ġt ry
âĢ ¦
Ġm ight
Ġw om
Ġcon f
Ġhe ad
Ġg roup
Ġ ide
Ġst and
ĠB l
st and
Ġp ay
Ġbu ild
Ġfam ily
i k
pl oy
Ġor gan
Ġt ri
Ġe ffect
i er
Ġwee k
Ġne ver
Ġw r
en se
re en
Ġh ard
Ġm ov
ĠP l
Ġs ince
Ġd ri
Ġexperi ence
Ġm us
Ġc r
ert ain
Ġsec ond
Ġre ce
ĠâĢ ĺ
Ġimport ant
ate ly
m e
one y
Ġas k
Ġsu re
Ġ i
is ion
Ġnum ber
l ing
is m
, "
Ġpro ject
Ġinc re
Ġpro ble
a j
ĠO n
Ġd ata
ĠI s
Ġon line
w are
ill ion
Ġo ld
Ġp ublic
r ist
el s
ĠF r
Ġper form
amp le
Ġb ro
Ġex pl
ro l
Ġcl ass
Ġin f
ĠE x
Ġserv ice
Ġle vel
Ġd ays
Ġd irect
E R
p s
ĠA ll
cc ess
ivers ity
I f
Ġg ive
Ġab le
Ġc ost
Ġ Q
Ġp ower
t ed
ĠI nd
ĠâĢ Ķ
Ġinv est
Ġagain st
Ġl aw
Ġspe c
c o
Ġb re
Ġe l
Ġl ess
Ġg row
Ġ ve
pe nd
ard s
ren ce
r al
w ork
Ġs it
Ġt est
i or
Ġ 0
Ġp os
Ġw in
Ġle t
âĢ Ķ
Ġ '
Ġbel ie
Ġc a
or m
Ġre se
1 9
in al
o k
u ck
Ġse em
Ġu nt
our s
as es
iv id
Ġd i
e red
Ġor der
Ġprov ide
at s
Ġ1 2
i ents
Ġwith in
ra ph
ir d
Ġ Z
Ġme et
ot e
en cy
Ġt urn
Ġ1 8
ĠP h
a ut
Ġcur rent
he re
Ġl ight
Ġh um
ĠT e
an n
c ing
ab ly
Ġle g
ff ic
pp ed
ru ct
iss ion
H e
g in
ĠC on
ou th
Ġpro per
Ġo per
Ġ .
ent ly
Ġf our
Ġserv ices
em ber
Ġto day
Ġ est
Ġwork ing
is ed
5 0
Ġpre v
Ġsu pp
Ġs ays
vern ment
r on
o pe
Ġp op
r ation
Ġacc ess
Ġen g
e c
p os
Ġa way
Ġp rom
pp ing
ĠC ol
Ġan n
Ġf ood
en g
ĠTh at
Ġare a
Ġm aking
id er
Ġpro te
ot t
at or
Ġv iew
ĠU S
m ed
Ġchild ren
Ġs ing
ain s
Ġj ob
o int
Ġadd ition
i um
Ġwe bs
Y ou
re t
ĠS p
Ġspe cial
at ter
Ġde m
Ġc ase
Ġph ot
if ied
Ġbe h
Ġe qu
j oy
te nd
. ,
Ġc ap
ĠT r
Ġth ing
Ġt ru
Ġcour se
ĠCom m
Ġlook ing
ĠT o
id s
om m
Ġs al
it ing
Ġn ight
le y
Ġm oney
in a
u red
Ġch ange
ĠO r
Ġp ract
h or
e ad
Ġunt il
A s
Ġloc al
ir on
Ġv ide
Ġch ang
re am
Ġstud ents
Ġs ite
Ġh ist
Ġp ast
o f
Ġwh y
Ġpres ent
Ġb as
Ġin tern
ord ing
or ies
ill s
ur y
are nt
p or
Ġunder stand
ab ility
Ġf ac
um p
ar ing
if y
ne y
Ġro om
Ġk ind
or th
Ġlar ge
Ġcon st
Ġprof ess
ĠM an
ent ial
I N
Ġw rit
Ġwor d
ic le
Ġimp ro
Ġem ploy
w w
iz ation
s h
au gh
Ġd r
le ction
g ed
Ġof ten
iv en
Ġsu ccess
m in
Ġev ent
Ġt imes
it ions
ĠCh rist
Ġto get
b y
l ish
Ġtoget her
Ġact iv
ut es
is ing
age ment
ĠC ent
ĠR es
so ci
Ġex pect
ĠG od
Ġn ame
Ġha ving
Ġa ir
Ġdid n
ĠM ar
Ġche ck
Ġle arn
ĠS c
oc us
Ġt erm
3 0
Ġind ust
Ġd ra
Ġapp lic
iv ed
e e
Ġal ong
ri es
Ġcomple te
ĠW hen
Ġte ll
con om
en n
Ġc reat
p art
Ġse ason
Ġle ft
ene f
Ġcon d
1 2
ivid ual
Ġm ove
Ġ es
Ġde v
Ġt alk
' re
c u
oh n
le t
Ġne ar
Ġs ide
Ġbu y
Ġp a
o x
an e
read y
b r
Ġen ough
Ġt reat
Ġcommun ity
Ġh ouse
ĠN o
Ġen joy
Ġs w
od e
ir l
ver al
in ation
Ġe ver
aj or
Ġst ory
as ter
it ive
Ġsh ort
Ġbec ome
ĠWh at
Ġm ar
Ġ1 5
Ġ [
ĠC an
Ġf ar
s ide
Ġoff er
Ġproduct s
Ġb ody
ur s
a im
t ain
ot s
Ġacc ount
Ġinclud e
Ġneed s
al f
Ġd one
er y
Ġwom en
O N
ĠW ith
ater ial
Ġp ain
Ġm en
ĠUn iversity
Ġfe at
Ġb it
Ġmem bers
Ġcon ne
Wh at
ĠA t
Ġoff ic
Ġc ertain
Ġrese arch
s on
Ġm akes
F or
ra p
Ġal ready
Ġtr ad
ĠM ay
Ġposs ible
Ġp ot
Ġ3 0
Ġcount ry
Ġcall ed
Ġ1 1
Ġind ividual
er n
Ġl ine
ow s
pport un
Ġwebs ite
Ġre view
Ġqu ality
ail s
Ġl ive
Ġrec ord
Ġeas y
un e
Ġme ans
Ġperson al
Ġother s
Ġget ting
Ġse veral
f ort
Ġo cc
Ġc ou
Ġme an
Ġb ased
Ġb enef
o ice
Ġf ocus
' m
Ġfollow ing
Ġso cial
iqu e
Ġcont rol
Ġdo ing
Ġmus ic
Ġc ame
f er
ut ure
ĠE ng
o or
it her
v iron
Ġf ore
and s
Ġn on
u ro
us h
Ġc amp
Ġ19 9
A T
Ġgo vernment
ĠF l
Ġm il
o ver
Ġnew s
Ġact ually
ore d
an ces
S t
Ġvis it
E S
ĠS u
Ġf und
Ġm ind
ĠC ar
Ġl im
1 1
ĠM y
Ġcom es
ĠA m
Ġt re
Ġed uc
Ġm ajor
Ġo pportun
Ġle ast
Ġl a
os ed
id es
ri pt
Ġm illion
Ġe lect
Ġh old
Ġf av
Ġyou ng
Ġqu ick
ĠAmeric an
Ġthough t
m ost
ort s
ci ally
a ff
le ment
Ġcre ate
Ġret urn
id d
Ġm om
ward s
Ġdoes n
ro p
y le
a pp
a pe
Ġchar act
Ġac ross
Ġde al
Ġcont act
at ic
l oad
Ġtoo k
The re
Ġpartic ular
Ġcle ar
ĠA pp
Ġe y
A R
Ġ |
Ġon ce
ro du
ĠJ ohn
Ġn et
Ġstart ed
c hed
Ġc e
ull y
c hes
Ġm aterial
Ġw ent
Ġm ult
w h
er r
Ġan al
m ber
' ve
Ġinv ol
n ot
Ġbe aut
Ġhapp en
i ans
on y
Ġl ow
Ġc ity
ĠS te
Ġso ft
A N
Ġdevelop ment
ro om
Ġfriend s
on es
ap s
ur ther
ur ity
Ġf uture
Ġw on
b ook
Ġvide o
ĠC o
Ġor ig
viron ment
in o
is ter
O R
m m
c rib
Ġh ot
Ġre ason
Ġ Â
u ff
Ġbr ing
Ġspec ific
Ġre du
ak en
Ġmonth s
Ġper fect
Ġh ours
Ġear ly
l f
Ġl ater
ip s
Ġy et
Ġ vers
Ġw a
Ġr is
âĢ ĵ
Ġstr ong
Ġty p
Ġl ink
Ġex ample
Ġc ut
Ġper cent
Ġe conom
ĠThe se
og raph
oo se
ĠM ed
Ġstud y
Ġ ident
l ished
h od
en ces
Ġsh are
g es
Ġke y
Ġrequ ire
Ġcomp et
Ġh ig
ĠP r
Ġhe art
Ġ ess
Ġt em
ate g
if t
u se
ll ing
Ġto ld
Ġcomp an
Ġst ep
res ent
Ġp age
fe rence
Ġcom b
Ġem ail
Ġf ive
ar r
c le
Ġbe gin
ĠF e
s w
Ġhum an
Ġproble m
Ġe t
Ġp ar
ul ation
Ġcl ose
ĠB r
Ġde li
Ġ /
ĠUn ited
id ay
Ġ- -
A n
Ġp ress
Ġdisc uss
ut ions
st er
ĠE n
Ġvar i
Ġw alk
Ġknow n
Ġco ver
re et
Ġapp ear
our ce
Ġbel ow
a i
os p
p ar
Ġch all
H ow
d e
le v
ĠS y
Ġrel ations
ĠR ep
1 5
un ch
our ces
o ber
Ġevery thing
Ġan t
Ġmin utes
i od
Ġ1 6
il ities
Ġg iven
id ence
ĠW or
o on
! !
c he
Ġit em
ct or
ĠIn tern
Ġaut hor
Ġpri v
Ġsp ace
ĠHow ever
ĠO ne
ic y
Ġp ack
Ġ X
Ġindust ry
ac y
Ġ1 4
Ġpur ch
ight s
le ge
re w
Ġs ound
Ġf ace
Ġt ax
ĠN e
for d
A nd
Ġquest ion
n ers
it or
ĠIn st
Ġse en
ĠSt ate
Ġen er
ill ed
Ġg ames
ĠD o
Ġsome one
at ural
th ough
Ġst ay
Ġpro b
Ġsing le
O n
Ġen s
Ġwho le
Ġwhe ther
Ġp ick
her s
l er
b all
Ġresp ons
Ġsu per
ĠC ont
ur ch
p ly
Ġp ie
W hen
n ed
il ar
o ard
Ġst e
Ġam ong
Ġpol it
ric t
ac es
' ll
Ġcont ent
il t
er al
Ġto t
pe cially
Ġcle an
Ġf ield
Ġpr ice
Ġbre ak
Ġv ol
Ġbelie ve
Ġc ult
Ġen c
am a
Ġag o
ib ility
Ġam ount
Ġw ind
B ut
Ġto ol
Ġt aking
sel ves
ens ive
Ġm or
id ed
Ġf re
Ġ1 00
Ġcompan ies
our n
Ġj o
ne w
is on
Ġa ge
ra in
Ġcl aim
S o
Ġse x
ĠS erv
Ġadd ress
Ġiss ues
u ed
Ġh ope
Ġhist ory
Ġmed ia
ain ed
Ġany thing
p ro
a f
g ing
Ġab ove
Ġh alf
at ur
ent al
ĠN ot
ĠM e
Ġm ess
ious ly
Ġm ot
m b
Ġcon cer
Ġrec omm
Ġbl og
Ġp ort
E N
f ic
ĠCom p
Ġg irl
Ġf all
ĠG u
an cial
Ġrecomm end
ĠC ount
Ġd ue
og n
Ġc ra
Ġc red
ĠE uro
Ġcons ider
il i
d d
ab or
ĠY ork
R e
Ġ1 7
Ġquest ions
Ġresult s
ir m
f ully
Ġ1 3
Ġph ys
g o
gg est
C h
Ġman ag
im ate
Ġser ies
Ġp lease
Ġst ore
ir t
Ġs ci
u ation
Ġen vironment
Ġ z
A S
Ġwork s
Ġcomm on
Ġp ub
el t
as ing
Ġw ond
pl ay
g le
Ġbuild ing
Ġper iod
Ġtechn ology
il le
Ġw atch
i ver
Ġal most
Ġide a
Ġb rand
c ript
led ge
Ġe ff
Ġb ar
Ġtra vel
ĠC al
ro wn
Ġa ud
ĠC ity
ĠC he
Ġe ither
ĠO ur
am s
Ġfr ont
Ġc al
c ome
1 8
Ġener gy
Ġent ire
ĠY our
- -
ri ed
Ġb ad
b ack
Ġr ange
an ks
Ġp ict
pl es
Ġcom pl
A L
Ġevery one
itt ed
I S
Ġf urther
Ġc rit
ct ed
1 6
Ġsu ggest
ĠM in
Ġrelations hip
at ors
Ġ2 4
/ /
Ġfeat ures
1 3
Ġtra ining
Ġqu ite
Ġ2 5
Ġty pe
Ġimpro ve
Ġval ue
Ġmet hod
Ġl and
it es
ce ll
Ġse lf
Ġp arent
ch ie
ĠM c
Ġm iss
y l
if ul
Ġoff ers
Ġ201 2
Ġse arch
Ġde b
Ġtra ck
Ġme as
v ent
Ġfil m
Ġcustom ers
as k
Ġde l
us ed
Ġbl ack
1 4
Ġwant ed
ar ning
Ġd ig
: //
ver t
Ġtry ing
Ġt aken
Ġre pl
ĠA fter
un g
E D
ive ly
Ġsign ific
Ġfav or
Ġm ag
Ġwe b
fic ult
f act
Ġes pecially
ĠP res
Ġlike ly
Ġne cess
le x
Ġhow ever
Ġvar ious
Ġare as
Ġpartic ip
g est
om es
y n
Ġs ix
Ġs ent
Ġex c
or g
a ur
Ġsim ple
2 00
Ġth ird
ĠT w
Ġneed ed
ĠEuro pe
Ġd ou
o id
Ġman agement
ĠG o
Ġpre t
Ġcons um
Ġask ed
Ġpoint s
ob al
ĠG r
Ġo il
ĠSt ates
Ġw ays
res h
g ress
Ġcom ing
Ġspe nd
Ġc ir
um b
ic ation
Ġdif ficult
op s
Ġperform ance
I T
Ġel se
Ġcomp ut
Ġc ard
Ġoff ice
i ol
ov ed
ĠJ an
Ġsim ply
Ġiss ue
Ġ5 0
i res
ĠN ational
Ġst aff
ri e
t ime
Ġdo cu
ĠH is
ach ing
i ally
Ġprob ably
Ġwrit ing
Ġrequ ired
ru ction
Ġinst all
ĠS outh
Ġr ather
Ġan sw
T o
it ch
Ġh ost
Ġprovid es
ĠP e
Ġ :
m y
Ġte xt
Ġso on
Ġadd ed
Ġ #
Ġl iving
Ġab s
ic ated
y ear
Ġb ed
Ġprofess ional
Ġpret ty
Ġf oot
ang u
Ġex ist
em pt
ĠS chool
Ġis n
Ġpos ition
o le
ĠM r
op y
ĠE d
ĠN orth
Ġd am
ĠWor ld
Ġass ist
ĠSe c
ific ation
Ġup d
ro ll
Ġcontin ue
Ġbeh ind
Ġris k
w here
ĠD r
2 5
Ġc ell
I C
ur ance
Ġh y
Ġrep resent
re me
Ġyour self
itt ing
is es
Ġm atter
Ġproble ms
. )
ru g
z e
Ġcharact er
a pt
ĠW ill
Ġpre p
et h
Ġword s
ob ile
ib r
Ġin it
Ġev ents
o e
r ing
ition al
l t
Ġdet erm
Ġwh ite
1 7
ĠA f
Ġa ction
ĠA ust
Ġ201 3
i ence
ĠD es
Ġnot hing
Ġre d
min ist
Ġsignific ant
Ġprovid ed
Ġs ize
v al
Ġfor ward
U S
itt en
Ġinf l
ĠQ u
Ġacc ording
Ġproper ty
Ġann oun
ab les
Ġn atural
pp er
he ad
Ġpop ular
ĠP ark
Ġg ra
u ge
Ġac cept
ĠG e
cl us
Ġsim ilar
ĠP er
Ġimp act
Ġro le
ast ic
Ġwee ks
Ġh on
ĠD ep
ĠS m
Ġc ook
Ġf ail
Ġt ou
ĠA b
Ġsub ject
Ġt akes
Ġext ra
ie f
Ġfin al
Ġd ate
er a
Ġro ad
Ġl og
ĠM ark
re g
A C
u fact
Ġph one
ĠP art
um e
Ġun ique
Ġa chie
Ġst at
ĠJ u
Ġfin ancial
2 2
Ġg round
e es
R E
Ġout side
an c
ĠT ra
ĠG l
Ġin j
Ġsu m
Ġde ath
iv al
Ġpart y
ĠC or
ul es
Ġas soci
Ġinclud es
Ġse lect
Ġtru e
Ġgener al
Ġbeaut iful
_ _
Ġw ide
Ġf ire
Ġs le
Ġopt ions
ĠK e
Ġreg ard
Ġincre ase
Ġl o
med i
n es
Ġpa per
pr il
Ġup on
Ġs we
Ġex am
Ġhe ld
Ġchang es
a ily
ĠCent er
Ġse nd
Ġco ll
Ġeduc ation
ĠD is
ĠA ug
n a
Ġres pect
ĠB ar
Ġk ids
ĠT H
Ġrec ent
Ġsa fe
ol ution
Ġrec ogn
ĠS ome
ĠJ ust
Ġmod el
Ġest ab
Ġart icle
an a
Ġsec urity
ad es
Ġcou ple
Ġopportun ity
Ġt it
ĠO ct
Ġtreat ment
Ġs ong
A l
Ġsystem s
ĠA g
Ġt able
Ġcan not
ove red
Ġag ree
Ġseem s
ic ro
est s
Ġcre ated
av ing
ou ra
Ġh tt
et er
Ġsk in
Ġl oss
iz ing
Ġdef in
Ġlong er
Ġmem ber
n ov
Ġ x
ver age
le ased
Ġle ave
Ġrun ning
ad a
Ġpot ential
Ġhig her
op h
ĠCount y
an ced
ar get
Ġc oun
or ing
ĠP ol
Ġus ually
ou d
Ġo pp
Ġoffic ial
ĠAmeric a
Ġst op
Ġshow s
ud e
Ġeng ine
Ġrece ived
Ġf ig
Ġdesign ed
Ġf a
Ġdown load
Ġan im
Ġsoft ware
er c
Ġch oose
Ġg en
Ġread ing
it er
Ġknow ledge
Ġl at
Ġind e
f l
Ġmom ent
Ġins ide
f ace
Ġthrough out
Ġb ott
Ġf ast
Ġread y
es e
Ġdo g
Ġcont rib
m ing
Ġdet ails
Ġcour t
Ġcom fort
6 0
Ġnet work
Ġ19 8
Ġr ad
Ġrece ive
I D
oo gle
Ġreg ular
Ġne g
Ġwor th
c il
Ġspe ak
Ġ201 1
Ġst ri
Ġany one
ĠB y
Ġfun ction
Ġpr int
ac ed
Ã ©
Ġatt ack
Ġat tend
m it
Ġet c
Ġcont ract
Ġto wn
ĠA ct
Ġens ure
h ib
u ary
Ġplay ers
ar ter
Ġb all
ĠM arch
ĠSt ud
Ġsa w
Ġm ach
Ġbo x
Ġr ate
Ġ ill
Ġlead ers
ĠN ow
Ġl ives
Ġcol lect
Ġorig inal
s y
Ġ ,
Ġde pend
Ġhapp y
idd le
Ġmed ical
Ġf it
ĠI m
ĠW est
Ġw ar
Ġp ric
Ġd om
at ory
id ge
Ġs ense
Ġm ass
Ġtot al
ĠP a
Ġp ark
ĠP re
i et
Ġgrow th
ĠPres ident
Ġapplic ation
Ġn ice
g u
Ġwond er
am ed
Ġsal es
Ġexp ress
Ġcl ick
Ġe le
ain ing
Ġ ut
Ġpract ice
Ġbook s
ĠJ une
Ġdes crib
Ġl ate
Ġus ers
Ġdec ision
Ġl ay
Ġthem selves
Ġle arning
Ġst ra
b ased
Ġn ational
ĠD av
Ġcol or
ĠD on
Ġrec ently
Ġde ep
Ġem b
en ing
ear ch
ag ing
f fe
Ġd est
Ġde p
Ġvers ion
at form
ce ed
Ġmor ning
ĠS pe
Ġc ause
Ġh it
a ign
Ġgo al
Ġst ruct
ic les
Ġpri or
4 0
Ġquick ly
Ġb ase
ed d
am b
ys is
Ġex act
o es
ĠM ore
Ġce le
Ġ201 0
Ġp ers
Ġhand s
ir it
l ike
Ġn orm
Ġv ia
Ġcurrent ly
c ast
ac hed
ĠA pril
ĠH ouse
Ġs ens
Ġfor mer
Ġpriv ate
ĠSe pt
e k
Ġst yle
Ġte ac
2 1
ĠHe alth
in ary
Ġwork ed
Ġbo ard
i ber
as hing
Ġl ost
ĠAr t
if f
ut h
Ġaddition al
ci ety
Ġve h
Ġde g
az ing
Ġpol icy
ad em
Ġitem s
W ith
ĠD ay
ĠRe g
ist ic
Ġplay ing
Ġright s
Ġpat ients
Ġs at
Ġcred it
Ġprodu ction
s c
O ur
am ent
Ġmy self
ed eral
Ġterm s
o ke
Ġint rodu
Ġit self
Ġmeet ing
r ight
Ġv iol
o ff
Ġactiv ities
Ġdri ve
Ġha ir
Ġa ffect
a ction
ĠE m
Ġl angu
Ġwom an
Ġbl ock
Ġc as
ĠH igh
Ġab ility
u x
Ġman ufact
Ġim m
du ct
ĠIn c
li er
Ġm other
ess ion
Ġs qu
ĠE l
Ġcor re
Ġo bs
Ġcustom er
M y
Ġpr im
ĠH ar
Ġprote ct
Ġe p
Ġsum mer
Ġ4 0
Ġinclud ed
Ġc ases
Ġw all
g round
Ġsk ills
Ġcare er
he l
h a
ag ue
Ġbe gan
Ġaut om
Ġ ri
Ġbl ood
ir th
ab y
Ġp an
Ġsc reen
Ġob ject
olog ical
er ve
ourn al
Ġf ight
Ġprogram s
art ment
ec ut
Ġins p
Ġgo es
O U
Ġb al
Ġwas n
Ġwe ight
âĢ ¢
Ġch ance
m on
ĠWh ile
Ġar ri
Ġdis e
Ġc am
ĠJu ly
Ġco ol
ĠO ff
b or
air s
as ons
Ġpolit ical
ĠC our
Ġt our
Ġrem ember
Ġlat est
im um
Ġstud ent
Ġeas ily
al es
ĠB u
p ose
Ġdra w
A ll
Ġc and
Ġm ix
Ġj ud
Ġappro ach
h am
h ood
Ġt arget
Ġcl os
ĠH er
.. ..
Ġbec ame
atur day
Ġgr ad
Ġinvol ved
Ġ ...
Ġim medi
Ġleg al
Ġparent s
Ġdec ided
Ġlevel s
p ri
ren g
Ġm atch
h aps
Ġapp e
Ġchall eng
O T
Ġintern ational
Ġst ock
P h
Ġr ound
Ġinst ead
Ġs un
ur b
Ġa f
it c
ĠHe re
Ġbu ilt
A M
ill ing
r ay
et t
en ced
ĠS w
Ġcond itions
Ġlook s
Ġsh all
Ġf elt
ĠF in
Ġl ower
Ġd ating
ĠB ro
Ġch oice
ĠM ich
s u
ĠFe b
Ġsa f
ĠW ar
ffic ient
Ġcomm it
Ġcl ients
ict ion
Ġwr itten
Ġ2 1
O S
Ġd rug
Ġsur pr
ĠV al
ĠU s
r is
Ġh ol
ip ment
l ight
Ġcount ries
i am
Ġapp ly
Ġse ll
ur g
Ġmarket ing
n y
Ġnecess ary
A t
Ġb ud
Ġ201 7
Ġor d
Ġwr ite
Ġb ank
Ġatt empt
Ġide as
Ġ201 6
p ut
Ġatt ention
Ġon es
Ġ201 4
Ġm ention
ĠP ar
Ġpl atform
it ter
Ġcomput er
ĠAs soci
Ġset t
at ives
her n
Ġproject s
j ust
ĠAust ral
Ġmain tain
Ġcamp aign
rough t
und ay
us es
S h
Ġstand ard
k y
Ġfavor ite
Ġbenef its
Ġcost s
IN G
ĠI nt
Ġrel ated
ĠM on
ke nd
Ġb oy
Ġey es
ĠBl ack
Ġhe ar
Ġf resh
Ġfe ed
Ġre lease
st r
Ġc y
Ġinte gr
att le
Ġenc oura
er ous
augh t
av es
Ġb i
Ġh uge
Ġallow s
ĠAug ust
Ġs n
Ġ2 2
on se
un t
ĠAd d
ĠAf ric
Ġvari ety
w ood
Ġmov ie
Ġinvest ig
Ġe mer
ough t
ĠT V
ip le
iv ity
Ġgroup s
Ġtr ust
Ġg ave
Ġv ict
Ġwr ong
ĠFr iday
u el
ĠS an
Ġlead ing
Ġget s
Ġs il
Ġgl obal
o om
ĠB rit
ĠCh ar
ove mber
cript ion
ic ations
Ġeffect ive
Ġdr ink
Ġdo or
Ġex cept
Ġpol ice
Ġpl ans
Ġd iv
ĠO b
es ter
Ġrequ est
Ġtou ch
Ġus er
Ġopt ion
ond on
Ġ201 5
O ne
Ġa w
ĠU K
Ġde fe
Ġpro pos
h old
Ġl ab
Ġt al
ĠThe n
Ġ200 9
it ary
av y
ĠEng lish
b it
Ġse par
ĠF ace
ĠM us
ĠDep artment
Ġh or
Ġs us
ens ion
n s
Ġs old
Ġres ources
ĠO f
Ġp ull
Th at
Ġre v
Ġmod ern
us iness
Ġsay ing
Ġansw er
u le
ci p
ag ed
ond ay
ir ing
Ġreport ed
as te
Ġf air
7 0
ent y
Ġg ives
Ġpart s
Ġim age
al t
C l
Ġthink ing
Ġhim self
Ġspe ed
s p
ide red
Ġsit es
' d
Ġl if
mer cial
Ġp red
Ġst ru
w ise
O M
k ing
Ġex cell
ĠCal if
Ġplay ed
Ġ201 8
Ġk new
ĠR ed
Ġsaf ety
Ġdis play
Ġr out
Ġent er
Ġcomplete ly
B e
Ġad minist
Ġpres ident
ce mber
Ġinterest ing
Ġst reng
Ġdig ital
2 4
ve y
ver se
Ġpurch ase
Ġd aily
v ille
ĠJan uary
Ġexpect ed
Ġam azing
Ġhe ard
Ġ2 3
Ġtyp es
Ġpl ant
ish ing
Ġg iving
Ġloc ated
Ġpr in
Ġpie ce
Ġcent er
Ġs ource
m ission
Ġfl ow
ci ous
Ġpos itive
ĠF rom
ĠA c
8 0
ĠS ch
ĠSept ember
Ġsc he
ĠOct ober
Ġsit uation
Ġa verage
E C
ĠA cc
y ond
Ġprev ent
Ġc at
id ing
ĠD irect
p ite
ĠG erm
ap an
Ġloc ation
en ge
te e
Ġsl ow
Ġf ile
Ġins urance
ĠIntern ational
Ġdocu ment
p re
is ions
ar a
Ġext reme
ur t
Ġn ature
it ation
Ġc ross
z y
9 9
Ġprovid ing
Ġsomet imes
Ġcom ment
pt ion
Ġsa ve
ĠP at
Ġd ark
b and
m a
ĠS ci
2 3
A fter
Ġinter view
ic a
Ġm id
Ġb ur
orn ia
r s
Ġdet ail
Ġde part
Ġl ed
ĠG oogle
Ġv ac
se c
Ġp ath
Ġ200 8
g ar
Ġcele br
Ġorgan ization
Ġnot e
l s
ak er
Ġinfl u
Ġde ad
ĠC ons
ke y
ite ly
Ġhigh ly
E T
il ies
Ġqu al
im ately
Ġfl oor
Ġar ch
Ġw ood
ro te
ck s
Ġpub lished
al y
Ġse ction
Ġtool s
Ġbro ad
Ġg reen
ĠS er
osp ital
ĠA ut
Ġdirect ly
Ġstart ing
Ġm obile
il es
ĠS aturday
Ġst uff
ac hes
Ġwee kend
it ute
Ġcons idered
ĠComm un
Ġturn ed
al d
Ġphys ical
Ġa ff
ib ly
Ġde cl
Ġof fe
id ents
Ġst ories
Ġf ather
Ġb rought
is c
N o
ad d
Ġpart ners
Ġre ach
ĠN et
ag n
Ġhelp s
Ġto wards
ĠL ondon
Ġcon vers
Ġfe ature
Ġre ve
Ġsu bs
Ġmult iple
ain t
Ġsle ep
E L
Ġindividual s
Ġcond ition
ĠSt reet
Ġlangu age
ar i
en ed
Ġf ine
sy ch
Ġt en
c ies
om en
ĠS unday
" .
Ġlook ed
ĠC oun
ar ies
Ġav oid
Ġsol ution
Ġc up
Ġfe ll
Ġ +
Ġd ream
ĠâĢ ¦
Ġplay er
or ge
Ġpro gress
a el
E O
ĠA ir
Ġcol lection
n ame
Ġp en
Ġre leased
c ol
ĠS en
ww w
Ġanal ysis
ĠN ovember
Ġcons ist
Ġeconom ic
Ġa ware
iv il
Ġlim ited
âĢĿ .
b oard
ashing ton
ĠK ing
Ġca pt
Ġs on
Ġcertain ly
Ġg e
Ġmaterial s
Ġst ates
Ġcon cept
Ġm at
Ġl ack
Ġdev ice
ru ary
Ġey e
Ġw arm
Ġh our
I L
ore s
u k
Ġrest aur
Ġsub st
an cy
Ġcar ry
ĠFace book
ĠRe ad
ĠS im
al ing
ĠG ener
Ġresp onse
eng th
Ġcomple x
ar ily
Ġc opy
Ġf irm
Ġn ation
Ġequ ipment
Ġ2 8
Ġf ix
itc hen
Ġemploy ees
Ġb and
ĠL aw
Ġfeel ing
Ġd ro
w or
iz es
Ġcir c
Ġg old
Ġp le
ĠCalif ornia
Ġsuccess ful
Ġcl ub
Ġm ount
Ġad ult
Ġreg ul
he t
Ġimp lement
Ġsp ent
ĠP lease
Ġv ot
ĠJ e
Ġinterest ed
? âĢĿ
ĠA re
ĠCh ina
u ate
Ġmess age
r am
Ġcol lege
ant ly
Ġtri p
Ġbeh av
Ġc ode
Ġgrow ing
Ġresp ond
Ġfin ally
Ġphot os
Ġeffect s
Ġdist rib
ra ft
err or
Ġachie ve
Ġ2 6
Ġra ce
ĠF irst
an i
ĠG roup
ograph y
ĠCour t
id a
Ġex erc
r ast
Ġpl aces
Ġadv ant
Ġprom ot
Ġexper t
Ġeff ort
l im
Ġreg ist
Ġne igh
ĠD em
Ġd ed
Ġl ic
ĠDe cember
ĠW ind
v in
ĠE very
Ġb ag
Ġhtt p
ĠJ es
Ġdevelop ed
l in
augh ter
o pping
im ent
ĠNew s
Ġfull y
Ġplan ning
Ġprev ious
ĠF ree
ren ces
Ġtri ed
A P
Ġb irth
Ġb ra
Ġsp ot
Ġin nov
ĠA N
z z
nd s
Ġconne ct
) :
m ore
Ġim ag
Ġe at
se qu
oc r
m ark
Ġwant s
Ġtrad itional
Ġexact ly
Ġapp l
Ġst age
Ġfe et
ĠCol lege
Ġev idence
Ġdem and
Ġm is
m as
ard en
Ġmov ing
Ġst ress
Ġt ick
Ġ2 7
erv ed
Ġimp ress
Ġbusiness es
Ġpre m
Ġbegin ning
ĠJ apan
un k
ol ute
Ġactiv ity
ĠU p
od ay
urs day
Ġnear ly
Ġorgan iz
m itted
Ġhealth y
Ġw ife
Ġcult ure
Ġd ress
Ġ6 0
b l
Ġu lt
Ġdiffe rence
Ġh ous
Ġal tern
ĠL a
Ġs en
f ield
Ġ *
b ody
it able
Ġob tain
Ġth reat
Ġdise ase
b um
I ON
Ġgo als
Ġk n
ues day
Ġwe l
ĠInd ia
Ġem ot
Ġdeli ver
Ġacc om
Ġpur pose
Ġcreat ing
Ġin form
ut ed
i pping
ar ant
Ġhist or
v is
Ġw ish
Ġfam ilies
ed nes
Ġpa id
The y
ate gy
Ġpress ure
ĠW ashington
ibr ary
Ġpict ure
Ġf at
B y
om ing
y ing
Ġmay be
ĠServ ice
Ġexcell ent
ĠM ost
w ide
an ch
Ġpric es
Ġs ort
ĠWe ll
ĠM onday
Ġinde pend
Ġstra ight
d own
Ġsh oot
p m
Ġcons ult
ĠP ost
Ġac qu
Ġinst ru
Ġbud get
es tern
Ġd ry
ĠE ven
Ġunderstand ing
Ġre nt
ĠO ut
ĠDav id
o ly
Ġschool s
ag er
Ġd ire
Ġopportun ities
ub e
Ġsp irit
Ġparticular ly
Ġfre qu
a res
Ġappro pri
ren ch
ch an
Ġrel ig
Ġtalk ing
E x
Ġdem on
Ġim ages
ra el
s et
ĠR uss
ĠTH E
Ġsh ot
A D
Ġteam s
ven ue
Ġbe yond
re ed
Ġh op
Ġass ess
Ġcorre ct
Ġw rote
ate ver
Ġocc ur
ru it
Ġt er
Ġreg ion
Ġal one
ĠPa ul
v est
as c
Ġth ous
Ġhe at
ĠTe chn
4 5
row s
Ġtit le
ĠB usiness
om s
Ġwa it
Ġa im
he st
Ġc ert
ĠE ast
ednes day
Ġs ale
Ġsol utions
Ġanal y
Ġb aby
ĠPro f
ĠM et
Ġreport s
Ġstr ateg
or age
O L
Ġannoun ced
Ġrequire ments
Ġtem per
du c
B C
r ig
He re
ĠI I
Ġinvest ment
Ġa ward
ol f
und red
Ġen h
in ner
Ġdefin itely
Ġwho se
Ġg as
ĠJ ack
Ġro ck
ash ion
i ant
Ġdirect or
Ġear lier
Ġa part
Ġb illion
om b
ĠÂ £
an cing
Ġro ll
Ġapplic ations
Ġbenef it
ĠI r
Ġ201 9
Ġdo ll
ord s
il s
Ġcom mercial
ear s
Ġincre ased
ĠServ ices
am m
re ci
Ġchar ge
Ġincre asing
Ġcand id
ĠFeb ruary
Ġover all
re l
im in
ĠI N
ron ic
is f
D e
Ġop in
ch ange
ĠWh ite
ĠAl so
Ġmean ing
Ġf em
pl ace
Ġ ver
ĠTr ans
P ro
Ġdou b
Ġus es
ĠP al
ĠB ook
ĠWe b
Ġser ious
ex ample
S he
Ġcap ital
ous ly
Ġgl ass
Ġal though
Ġg rand
ĠM or
d om
ou l
Ġstate ment
ecut ive
Ġf ans
Ġtr ade
P S
7 5
Ġn ut
Ġimmedi ately
ĠH ome
Ġallow ed
a ult
o oth
al ed
Ġcould n
it iz
Ġm iddle
Ġp et
Ġser ve
Ġ200 7
Ġchang ed
Ġad vert
Ġch urch
Ġex tend
Ġadv ice
Ġl oad
Ġnum bers
ĠE ar
ound s
Ġv oice
Ġstru gg
g en
ic ate
Ġsur v
Ġsm art
is l
Ġl iter
Ġr ates
p en
Ġse ven
Ġu nd
ĠPro gram
Ġf arm
edd ing
ĠT ex
Ġsupp ly
Ġe ight
Ġnorm al
Ġpat tern
Ġrem ain
S T
3 5
for ce
Ġoffe red
ĠJes us
Ġpro ced
Ġre asons
ĠD ist
ri al
Ġl oved
ĠG reen
Ġtru ly
m p
Ġsh own
i ance
Ġown ers
Ġd en
Ġfor ce
Ġcom ments
Ġbas is
Ġmach ine
Ġc ateg
ĠA M
ĠSy stem
ĠP M
Ġsci ent
por ate
Ġhappen ed
Ġinst it
Ġr ules
Ġact ive
i able
Ġredu ce
et ic
Ġc old
N ew
ar c
Ġas pect
Ġ20 20
ur ning
ord er
ĠL et
ing er
ĠG reat
ĠRep ublic
Ġm ax
Ġdam age
Ġsci ence
2 6
I s
Ġess ential
N ow
ĠAssoci ation
t ies
Ġl ik
Ġmov ed
Ġmil itary
ĠG et
Ġgu ide
Ġintern et
we ll
Ġc ash
nd ed
Ġdeg ree
Ġjo in
Ġphot o
Ġconst ruction
Ġqu arter
Ġref lect
Ġstud ies
c ause
Ġpre fer
h ouse
Ġchall enge
Wh ile
Ġp ow
Ġg ar
qu e
Ġcl in
Ġassoci ated
il ing
Ġh us
Ġal bum
Ġrespons ible
ĠIs rael
ĠIntern et
ĠInd ian
Ġm er
Ġc ru
Ġeas ier
ĠPl ay
le g
Ġf ederal
Ġcont ain
Ġl ines
m at
Ġ2 9
b on
1 00
ag o
ĠCan ada
Ġhelp ed
ic ip
Ġveh icle
ĠEurope an
Ġcan cer
ol ic
Ġbas ic
Ġprofess ion
Ġgu y
ĠC le
Ġf ra
Ġpat ient
Ġb le
or row
ist ry
Ġdev ices
ĠCoun cil
ĠD el
se e
ĠAs s
Ġabs olute
in y
ĠM od
use um
Ġper haps
Ġa head
Ġ ing
Ġh undred
Ġg one
Ġgreat er
Ġw ild
Ġare n
Ġwonder ful
am ic
Ġp ages
rie f
Ġsp read
U n
Ġpart ner
Ġsu st
2 8
ĠSu per
ĠO ther
ĠG old
ist ics
Ġd ang
s es
Ġmeas ure
Ġcl ient
Ġb ill
rap y
Ġatt ract
re m
Ġcon c
Ġlar gest
Ġnot ice
Ġstr ategy
Ġpower ful
Ġoff ering
ĠP ort
I G
Ġw ww
ĠG ood
Ġprodu ce
Ġgirl s
Ġgu ys
Ġpo or
os ing
ĠS l
Ġjob s
ĠRes earch
Ġann ual
com ing
Ġsur round
st on
ĠM ac
Ġbro ther
ĠChrist mas
Ġeff orts
2 7
Ġbott om
p a
Ġsp orts
Ġdeli very
c ul
Ġfollow ed
hip s
ĠAn ge
ĠCh urch
Ġst ick
ĠJ ames
Ġmil es
ic o
Ġn amed
L E
ĠB oard
Ġlot s
Ġcl ot
Ġpe ace
Ġdou ble
Ġapp reci
Ġst ar
our ney
C om
ĠH all
Ġhot el
Ġtrans fer
Ġk itchen
Ġche m
Ġfr ame
ter m
Ġsh op
Ġacc ur
2 9
Ġaf ford
ite ct
ĠTh ursday
Ġpict ures
ru pt
ed s
Ġtrans port
ĠOff ice
Ġf ab
Ġad just
ĠI S
Ġserv ed
ĠDe velop
ap ter
ĠB est
Ġlet ter
ĠW ork
Ġstep s
ĠF ound
Ġtr uth
ative ly
e ch
ĠTex as
Ġstreng th
ĠT uesday
Ġocc as
c are
Ġ =
Ġfa ith
Ġregard ing
ĠM any
Ġt rou
Ġc ry
Ġexp and
ĠComp any
Ġb orn
Ġob v
it ude
ĠC ong
Ġl ock
k er
Ġbl ue
hen s
Ġsl ight
Ġset ting
Ġso ciety
ĠAn y
ĠIn ter
k en
ak ers
Ġev al
Ġcomp on
ĠA nt
O V
Ġhelp ing
ĠE duc
Ġsur face
Ġswe et
ust r
I V
Ġb rain
ang ing
Ġextreme ly
Ġke pt
Ġapp oint
ĠBrit ish
ul f
f riend
Ġlearn ed
Ġfin ished
in ated
Ġwe ather
Ġc ast
ĠMark et
ac ity
Ġv irt
ĠB el
ĠFl or
Ġfin ish
ify ing
Ġl ength
ĠC r
Ġcoll abor
Ġappropri ate
Ġcomp ared
im b
ĠR em
ĠS pr
ĠR ich
Ġmove ment
ĠDes ign
Ġtra in
en cies
Ġopen ing
er o
port s
Ġhus band
Ġpop ulation
ĠChrist ian
Ġcontin ued
ic ed
Ġsee ing
Ġexist ing
Ġb reat
re y
as y
Ġsat isf
Ġcharact ers
i pped
in ally
Ġcam era
Ġrepl ace
Ġf ant
ĠR om
un te
Ġprote ction
ly ing
The se
am ing
Ġsu ff
Ġwork ers
Ġstruct ure
ra w
Ġpro s
Ġgener ally
ad y
ov ing
9 0
Ġpie ces
ĠW ednesday
Ġinc ome
Ġexperi enced
ĠP ri
Ġw at
Ġcontin u
Ġ19 7
Ġes c
Ġg ift
Ġpl us
I P
du le
Ġgu arant
Ġbe g
o ices
Ġre pe
Ġadvant age
Ġcreat ive
P lease
im al
y m
Ġeconom y
Ġad op
ĠMich ael
Ġar r
Ġre b
olog ies
Ġdis app
Ġwe ar
land s
Ġlar ger
C C
ĠB ra
Ġon to
Ġcrit ical
ĠH ot
Ġh omes
er ia
ĠM em
us ing
ĠT y
ĠAustral ia
Ġfig ure
ph one
Ġant i
ĠR et
Ġpay ment
pect ive
Ġent ertain
3 3
ĠWh y
Ġknow s
Ġre ality
Ġ200 6
Ġthan k
il ed
ffe e
oc al
o pped
Ġprim ary
ĠS ol
Ġaud ience
Ġinc red
Ġha ven
Ġback ground
Ġb ath
Ġm ission
Ġbig gest
Ġpass ed
T S
ĠO ver
Ġwould n
er ry
Ġp sych
Ġreview s
ĠF rench
Ġno vel
ĠOb ama
Ġuse ful
amp ions
Ġinit i
ĠGener al
Ġestab lished
k i
ĠB ill
Ġh om
ĠS ur
Ġ ir
Ġcomfort able
E M
ĠO F
Ġme chan
D A
Ġdemon str
ve re
ĠR oad
6 5
ri age
Ġact ual
Ġte nd
Ġorganiz ations
ov es
ud d
ĠO h
ĠP ublic
ĠAn n
Ġv ill
N ot
D o
Ġrequ ires
Ġlead er
Ġst orage
Ġelect ric
Ġmethod s
Ġconne ction
a ven
ĠL ord
D on
Ġcomple ted
a e
Ġhe avy
Ġfind ing
Ġf ear
Ġcall s
Ġdri ving
Ġstat us
ĠB ig
ic ine
Ġb ow
ĠM art
ĠB ank
Ġgo vern
I M
Ġto ward
Ġhig hest
ĠTw itter
Ġh arm
iqu es
ĠM ag
Ġg un
O W
Ġold er
Ġun it
ad o
l a
S e
Ġut il
Ġgu id
Ġm ill
ĠE v
Ġex hib
i j
oo s
por ary
row d
Ġthere fore
un ately
ĠCl ub
ĠR ober
ĠWind ows
Ġcol le
Ġmod els
re es
Ġco ffee
ĠM ary
Ġm ist
se y
est ival
Ġd ied
Ġc ivil
Ġcent ury
Ġn ames
Ġestab lish
ĠA v
Ġst ream
A r
Ġ8 0
? "
Ġchalleng es
it ar
rou d
Ġpro t
Ġfact ors
Ġwh atever
ĠP C
Ġmanufact ure
Ġj ourney
ĠOn ce
wor ks
Ġsec ret
i os
ĠSe e
lev ant
nd ing
Ġsh ared
Ġf an
Ġme ant
ook ing
Ġcon ference
Ġd aughter
as ure
S ome
Ġres ist
Ġsc ene
ĠDirect or
Ġdo ctor
ĠJ ew
Ġprodu ced
z a
ĠRe view
T H
m en
ĠRe c
g n
Ġcommun ities
Ġref er
Ġexperi ences
te xt
Ġt ips
ĠS am
um an
Ġview s
Ġac adem
C on
Ġsc en
Ġh ar
od es
Ġpr ay
Ġpo ol
Ġm aster
s s
ĠL ife
it ors
Ġrem ind
Ġown er
ĠTh om
it ness
Ġdi et
Ġess ay
ress ion
erv ation
Ġstand ards
g ment
ines e
Ġpart ies
Ġrun s
Ġhapp ens
ĠApp le
Ġch ann
ĠS T
and er
Ġret ail
5 00
Ġsec ure
or ial
Ġlim it
Ġro b
ĠS ince
so ft
Ġ @
b ox
Ġpl aced
Ġeven ing
ri an
g al
âĢĿ ,
ĠCl ass
ĠPl an
Ġc ards
in n
R A
os ure
Ġsol id
Ġmanag er
ra b
ut y
Ġman age
P l
ill er
Ġsc ore
Ġwa iting
ro id
ac ing
ent ially
ĠBe cause
Ġrem ains
Ġd rop
ĠS ub
stand ing
k now
Ġc overed
Ġcas ino
ens es
ĠFlor ida
Ġear th
ĠM icro
ĠI T
Ġte aching
um n
ĠC are
oy al
w ith
ĠB ay
Ġwind ow
on a
i pe
Ġl ands
Ġ3 1
ĠMan agement
am ily
Ġtra ffic
Ġc itiz
Ġt on
Ġb atter
ĠR ob
Ġra re
Ġfil es
ick s
ĠInst itute
Ġh ospital
v ention
ĠPe ople
Ġ â
l or
Ġf ashion
at ically
ot a
f ree
Ġleg isl
ant a
Ġbec omes
m ail
Ġmem ory
Ġcell s
ĠB re
Ġst reet
Ġfor ms
Ġclaim s
Ġele ments
ĠS un
Ġcompet ition
ul a
Ġar gu
Ġm att
l ig
Ġgr ant
Ġgu ess
Ġl ose
Ġ9 0
Ġthan ks
Ġshow ed
Ġmult i
Ġf ish
Ġlink s
Ġbal ance
ĠC am
Ġmon itor
ĠPh il
Ġexerc ise
Ġt im
ĠW he
Ġse lection
m iss
Ġf urn
Ġfore ign
i ation
ĠComm ission
Ġear n
Ġpre c
Ġdevelop ing
Ġkeep ing
az on
Ġr ich
Ġw edding
Ġpass ion
ĠR el
F rom
Ġdeterm ine
ap ers
ĠM iss
ĠR ock
Ġmention ed
Ġsp ring
Ġcommun ication
Ġst ation
Ġout d
Ġseem ed
az ine
Ġcontin ues
Ġsen ior
Ġide al
C H
U R
se mb
ĠP ress
ĠUS A
Â ®
o very
e ed
Ġep is
l ast
Ġfl av
Ġvide os
ĠT ime
f ast
Ġrel ax
Ġw ine
Ġprep ared
ign ed
ĠE ach
__ __
Ġe th
ĠEng land
Ġsy m
Ġopen ed
Ġs ession
A b
ĠC amp
9 5
Ġg ain
uck y
* *
Ġfund s
Ġtest ing
ĠH el
Ġf ol
i ers
ĠR iver
Ġdescrib ed
ĠCh ild
Ġex clus
Ġoper ations
Ġdire ction
Ġra p
Ġco ach
Ġla unch
k in
ĠS al
ĠP et
Ġmajor ity
Ġpain t
Ġim pl
y er
Ġbe at
Ġfor get
os is
Ġclear ly
Ġpresent ed
ĠM ake
Ġcent ral
g ency
ĠComm it
Ġtechn ical
ĠB en
Ġwatch ing
or ney
Ġthous ands
Ġpl enty
os ition
ul ed
b ed
ber g
am in
Ġcoun ter
P A
4 4
ĠL ou
p an
Ġj ump
Ġing red
Ġc atch
h y
b ut
ent ed
Ġfl u
Ġj ournal
ad s
Ġb oo
ĠH ist
Ġbec oming
Ġca used
Ġest ate
ĠCong ress
ot o
Ġ200 5
it ure
Ġ ice
os h
Ġd at
Ġ7 0
in ct
et te
Ġvis ion
ĠEduc ation
Ġofficial s
Ġsex ual
i pp
Ġwin ter
Ġclass es
Ġt ask
n ight
Ġf ill
oo per
Ġle aving
ic ago
Ġexc ited
Ġg raph
Ġrecord s
k a
Ġpol ic
Ġdisc over
ĠIn s
Ġ >
Ġbut ton
is co
Ġe fficient
Ġc rowd
oll y
Ġsh ape
Ġcr is
Ġspend ing
Ġother wise
ĠP R
Ġlo an
Ġcon ven
ĠT om
ic on
ct ors
ĠSm ith
Ġtri al
Ġwill ing
M ore
r or
Ġdec ide
ĠS a
Ġval ues
ent ure
Ġf lex
Ġappro x
Ġs ources
Ġcap acity
ĠAfric a
it z
Ġhand le
Ġindepend ent
ĠU se
Ġadd ing
Ġrem ove
Ġr ank
Ġn or
O P
cept ion
Ġv ote
Ġlaw s
ol ate
ell ow
Ġsust ain
ĠY ear
ed y
Ġth us
a ctions
ĠM ex
ĠAl though
Ġs and
ĠF ore
Ġ3 5
Ġappear s
ĠC ap
st ate
Ġtrans l
Ġp roud
Ġfoot ball
in c
Ġfam ous
Ġsu mm
Ġstart s
Ġart ist
Ġag ency
g l
Ġvict im
Ġcra ft
ĠS ing
cl es
Ġs ch
Ġpl ants
Ġadv ance
ili ar
Ġcl osed
Ġcon duct
ĠT op
Ġdes pite
B S
ant ic
Ġwel come
Ġsche dule
Ġra ised
ar ge
ir gin
Ġe gg
oo p
Ġinc or
Ġend ed
i ency
out hern
3 6
ĠSt r
ĠSt ar
" ,
ĠCh inese
Ġhon est
ad ing
Ġest im
ĠW ater
Ġp air
Ġun c
Ġa ctions
ag s
ick en
u gg
ĠIn formation
ten ance
est ic
Ġagree ment
ĠOn line
C A
ĠV e
Ġsu gar
f it
) ;
es ome
Ġvol unte
Ġshow ing
ce l
h ow
as p
ĠL ike
Ġleaders hip
M S
Ġpract ices
ĠP ower
ak ed
Ġk id
Ġmin ute
ĠSci ence
Ġdec isions
Ġc ab
Ġsh opping
tern al
Wh y
Ġthough ts
ro y
ĠDem ocr
C ont
er g
Ġded icated
ger y
ĠM ount
ĠL ake
all s
Ġrelationship s
Ġpost ed
ĠM al
p oint
w in
Ġre levant
Ġm ort
Ġcont ains
ab ilities
Ġanim als
Ġm icro
Ġopin ion
Ġt aste
Ġnum erous
Ġt ree
ĠM at
B l
Ġsh ip
3 8
Ġv s
st e
ĠD own
ĠD et
Ġcar s
Ġ ign
Ġres idents
Ġbehav ior
is hes
um ber
Ġexper ts
Ġcl oud
Ġ19 6
Ġpres ence
Ġbuy ing
i xt
Ġfocus ed
ĠM il
Ġdiscuss ion
go ing
n o
ĠChe ck
Ġsmall er
ĠS il
Ġdepart ment
Ġr at
Y our
g a
Ġle aves
us ion
act ive
Ġb rief
Ġm ail
Ġdri ver
r d
Ġsepar ate
I A
ĠCommit tee
A d
ĠB rown
M e
Ġmot or
Ġs now
ĠDe c
ĠGo vernment
Ġm ental
Ġchang ing
Ġfac ilities
Ġar m
Ġwas te
Ġlist ed
Ġupd ate
Ġse ctor
Ġr ule
Ġst y
Ġbr ight
Ġsc hed
N A
Ġc ore
Ġdi agn
Ġre ached
Ġ ur
p ress
Ġcirc um
om a
Ġrestaur ant
ĠProf ess
Ġident ify
ĠU nder
Ġch air
Ġse m
Ġb on
ĠC ur
Ġg arden
ĠA lex
L e
ĠGe orge
c raft
Ġwh om
ur ies
Ġinit ial
Ġinj ury
is ation
Ġmanag ed
Ġteac hers
Ġselect ed
Ġwor ry
Ġb ought
Ġprin ci
l ife
Ġprev iously
Ġd inner
ĠV is
Ġth row
Ġconcer ns
Ġnot es
Ġcor ner
Ġdocu ments
B A
Ġarch itect
Ġspe ct
ĠS um
3 4
ĠL ear
Ġmark ets
ĠDevelop ment
Ġdec or
Ġvis ual
Ġb ul
r ad
out s
Ġfund ing
ĠCl ick
ree k
Ġput ting
Ġexpl ore
Ġa p
Ġoper ating
Ġe ating
p et
Ġtemper ature
Ġsym pt
Ġfl at
re hens
ĠAN D
ĠPro ject
A cc
fe rences
Ġcre am
ester day
c oh
wh at
Ġsm ooth
Ġteac her
3 2
ĠV ol
Ġtra il
Ġmost ly
ĠW in
ĠA P
Ġlist en
Ġr id
ĠA tt
Ġabsolute ly
Ġsit u
Ġbeaut y
Ġde lic
5 5
un ction
Ġadv anced
Ġcover age
Ġwalk ing
Ġb attle
Ġdef ense
Ġfre ed
Ġsh aring
ul ated
Ġevent ually
Ġbr ings
ur d
Ġse a
G et
! âĢĿ
Ġs pl
Ġask ing
Ġ200 0
Ġencoura ge
ĠT O
us hing
Ġart ists
Ġcon cent
ĠIs land
Ġspec ies
Ġcomp ar
Ġpo ll
Ġwin ning
Ġk ick
ill a
Ġra in
P ost
EN T
Ġaltern ative
s pe
Ġsong s
Ph one
wh ile
Ġad apt
ĠDist rict
Ġrespons ibility
te red
Ġpost s
ĠH ill
Ġart icles
Ġsh ut
Ġslight ly
Ġhol iday
3 7
ĠCh icago
Ġrad io
Ġs outh
Ġr ide
Ġth r
Ġfeel s
Ġdoub t
ĠFound ation
lev ision
Ġl abor
Ġb ird
Ġconne cted
ĠThe ir
Ġhe aring
ĠCent ral
ĠJ o
Ġla un
ĠJ er
Ġclass ic
ci ent
Ġmed ium
Ġf illed
Ġsound s
ir us
Ġfab ric
in i
ĠSo cial
Ġneigh bor
ĠCar ol
ĠB et
Ġcomb ination
Ġmet al
ĠF ood
Ġenvironment al
ĠO pen
ra ce
r im
Ġexp ensive
ĠT imes
ĠCommun ity
ĠW ood
4 8
ci pe
âĢ ĺ
ident ial
Ġreturn ed
Ġadminist ration
Ġfriend ly
Ġprofession als
Ġpolic ies
ll ig
Ġcol ors
ĠAmeric ans
Ġsur vey
Ġtechn iques
Ġfe e
ĠSc ott
w ord
Ġent ry
wh ich
Ġsee k
ri ve
Ġm outh
y a
Ġun less
Ġve get
Ġind ic
ruct ure
know n
ul ate
Ġexc iting
Ġpro ceed
e ction
Ġ200 4
t ion
Ġdeb t
Ġd u
uc le
f r
Ġfem ale
ck et
og rap
Ġallow ing
Ġse lling
an o
ĠH y
ic ians
ĠD iv
ĠL ove
Ġcons id
Ġm ap
I R
roll ed
Ġgener ation
Ġroom s
A pp
ig r
Ġk illed
ĠY es
Ġm o
Ġaccom pl
Ġgu ests
at ures
Ġopt im
ĠAr ch
Ġproper ties
f in
un ning
Ġmar riage
Ġdis p
ess ions
ĠBl ue
Ġ er
Ġar rest
Ġneg ative
Ġpack age
ĠL u
i us
ĠFr anc
Ġn orth
fort unately
Ġdist ance
ĠC D
Ġche ap
Ġde pos
Ġcl imate
res p
Ġj oint
n oon
ĠLe ague
ol es
Ġlead s
Ġmar ried
is her
t op
N e
R ead
Ġassist ance
ĠT or
or ter
Ġb an
ĠL in
ĠTr ump
us hed
ĠCon st
w ater
Ġpl ays
g ers
n et
Ġj u
Ġc art
Ġhelp ful
Ġoper ation
Ġcon text
omm od
c ont
Ġf uel
Ġtyp ically
ber t
Ġp al
S te
Ġcomm itted
Ġr ise
Ġste el
Ġinflu ence
Ġthem e
O D
ĠT oday
Ġsign ed
ĠF ire
os en
ult ure
oc olate
ĠM ass
Ġjo ined
Ġappl ied
Ġread ers
Ġt ight
ĠTw o
Ġte le
Ġb rows
ig an
ort hern
Ġc ities
ĠN or
4 9
ĠM ad
ĠM ain
h ab
Ġyou th
ĠJ ournal
3 9
ĠG rand
i i
Ġdist rict
up s
u ce
Ġmin or
Ġ4 5
ĠAm azon
Ġfe es
ĠJ ud
ĠB er
Ġconvers ation
D es
P R
Ġprocess es
n el
Ġwe ap
Ġdisc ount
How ever
ĠEng ine
Ġperform ed
Ġed ge
Ġmeas ures
8 8
z en
Ġour selves
Ġe lection
ĠWh o
Ġnot ed
Ġimport ance
Ġbe ach
4 7
Ġse qu
Ġs itting
ĠD i
A dd
and a
Ġcor porate
Ġw ire
Ġfor ces
od ies
J ust
b o
Ġhold ing
ĠUn ion
Ġsp ort
Ġacc ident
Ĥ ¬
D F
ot ic
Ġth ick
s hip
a it
Ġra ise
Ġbus y
c her
Ġpl astic
Ġsupp l
ĠEar th
Ġenjoy ed
ĠP ay
Ġmin imum
Ġenh ance
L ast
Ġwrit er
ĠQ ue
ord in
ĠTh anks
Ġfam iliar
u able
ĠM ot
Ġconsum ers
Ġset s
Ġfor g
Ġinte llig
Ġrep air
ive red
Ġsa v
if ts
Ġprof ile
ĠE lect
pos es
Ġsc ale
b re
Ġex change
Ġst ated
Ġposs ibly
Ġappe ared
Ġtell s
Ġl ived
e al
Ġte ach
Ġfour th
Ġcour ses
Ġval id
arr ant
Ġexpl ain
ĠSo ciety
ĠFr ank
ist an
Ġvisit ors
Ġwebs ites
Ġp ush
Ġtrans form
ĠC EO
Ġtop ic
ri er
Ġman ner
S A
M ay
ĠB ack
Ġingred ients
Ġpred ict
ĠTe am
ĠMus ic
Ġem p
Ġun its
E very
ild ing
ĠRe al
ob e
L C
y ou
Ġpre gn
an ia
ĠCol or
3 1
Ġd er
ĠAc adem
ĠSpe cial
Ġt ough
Ġmov ies
y e
Ġd yn
Ġse at
b u
Ġconf lic
Ġp un
Ġmain tenance
ĠW omen
Ġm ale
ĠRober t
Ġsee king
Ġto w
Ġsw itch
Ġrecommend ed
ĠP eter
Ġm ent
Ġchem ical
Ġfac ility
ol ars
Ġsympt oms
ĠBe ach
Ġform at
Ġanim al
Ġtre es
room s
Ġcitiz ens
ĠGerm an
ĠAt l
Ġdes ire
Ġstore s
Ġmiss ing
Ġdat ab
idd en
Ġannoun ce
Ġf if
Ġ5 00
ri p
ĠJ im
th at
ĠF ort
L A
ph as
Ġsp ons
ĠSh ow
Ġcircum st
f ol
Ġsh ipping
Ġar g
Ġmot iv
Ġtot ally
Ġst re
ĠW estern
ĠW il
ĠT im
as ks
Ġproper ly
Ġapp arent
im inal
Ġpan el
Ġst ret
ĠMed ia
C T
Ġconf idence
Ġcall ing
Ġg all
Ġcon v
ĠVal ley
Ġn ine
ci pl
Ġdet ect
ĠH ol
ĠU N
W ell
r ical
Ġcult ural
at in
ĠC ustom
ra g
pr ise
y an
ĠD uring
Ġd ie
ult y
Ġsupp osed
Ġdes k
Ġserv ing
Ġr an
Ġacadem ic
omet imes
Ġrese arc
Ġcont em
Ġinterest s
l ist
coh ol
Ġchar ges
Ġafter noon
Ġocc up
Ġintern al
Ġsecond s
en a
ĠIt s
Ġfail ed
os es
Ġd ur
Ġprom ote
Ġclean ing
Ġre ference
Ġcomb ined
Ġup gr
4 6
ĠFr ance
m es
ĠM el
Ġinte nded
ide o
ĠPart y
Ġspecific ally
Ġviol ence
ĠAfric an
Ġpur poses
ĠR ad
Ġe ffic
Ġqu ant
Ġv an
ĠV irgin
Ġloc ations
d en
k et
Ġat h
Ġ200 3
Ġser ver
Ġadult s
Ġrem oved
Ġacc ommod
ĠF amily
ĠSec urity
ĠC ard
Ġb ond
Ġemploy ee
Ġqu iet
Ġlands c
Ġc aught
Ġqu ot
ir ation
Ġreal ize
Ġsign s
S P
ok es
Ġr ub
Ġsal t
ĠD ata
Ġarr ange
ĠN Y
k ins
dd en
Ġph il
Ġinst ance
C an
ag ram
ĠI D
as er
i at
ĠT re
ĠL os
um s
ce an
Ġm ir
Ġcomm and
Ġrap id
Ġapprox imately
Ġun s
Ġre cip
ĠAcc ording
Ġfor ced
Ġcomp rehens
ĠW all
ĠT est
in ations
ĠGerm any
ut s
Ġdog s
ĠEn ter
ĠL ong
m et
Ġd ance
Ġpropos ed
ĠD ig
Ġfreed om
Ġdetail ed
Ġb urn
Ġrelig ious
Ġaspect s
ĠH am
ĠM er
Ġex ecutive
Ġdefe nd
ak s
ĠF ind
it a
Ġstand ing
ĠSt and
Ġdoll ars
all ed
Ġcon du
ens ions
Ġsw im
Ġintrodu ced
ĠMicro soft
Ġconsum er
Ġdisc overed
Acc ording
Ġsupport ed
ĠPro duct
ol a
Ġch ief
Ġl iber
Ġam b
ĠT ake
t ra
Ġcon sequ
Ġmen u
Ġ rom
b our
Ġdepend ing
Ġbring ing
Ġed itor
ars h
p o
ĠO ld
fe ction
Ġvol ume
Ġt un
ne ct
Ġappro ved
Ġl ibrary
Ġass um
Ġmax imum
ĠW ord
um in
Ġw itness
Ġconcer ned
Ġfact or
Ġext ensive
Ġadvert ising
ific ations
ĠA ward
ĠMed ical
ad ian
ĠL ight
L et
O C
Ġsu dden
Ġro of
Ġk ill
Ġdel ivered
Ġpr ison
Ġf ruit
Ġaccount s
Ġstrateg ies
ĠLou is
Ġprocess ing
ĠOr gan
ĠI ll
Ġord ers
Ġy es
Ġg ather
Ġsu it
ar io
ic ian
Ġany where
Ġappear ance
av ig
ĠM ont
i est
og ue
Ġgreat est
Ġupd ated
ul ations
ro ad
Ġl unch
ĠB ur
Ġdrug s
Ġdec ades
Ġst opped
ĠA L
Ġn om
ĠF il
Ġu ne
ĠThom as
oc ation
I F
Ġb ound
Ġbut ter
Ġbeg ins
Ġe lement
Ġre cipe
por ation
l ines
0 1
Ġaw esome
Ġf old
Ġfav our
Ġspe ech
Ġun iversity
Ġj oy
Ġre venue
Ġch at
C he
Ġca uses
ĠN ov
pect ed
Ġhous ing
iven ess
Ġfail ure
Ġconst it
Ġimpro ved
e qu
Ġhtt ps
Ġr ing
Ġjud ge
Ġte levision
Ġwor se
Ġs ides
Ġveh icles
Ġemer gency
ĠJ ul
Ġdeterm ined
ĠR E
Ġs ister
Ġt error
rast ructure
Ġpro p
Ġturn s
Ġfant astic
oss ible
Ġarri ved
e en
urb an
F r
Ġapp s
Ġa id
u nder
b urg
h and
Ġtest s
ĠEx per
Ġprep are
el ines
ing ly
Ġm ine
ĠJ oe
ĠM a
ĠM ike
ĠS and
Ġdec re
Ġwe ak
ĠAd v
or ry
Ġeduc ational
c an
Ġdra ft
az z
ĠY OU
ĠTechn ology
Ġhe ro
Ġcommit ment
ar p
Ġd ial
Ġoccas ion
Ġsur gery
k es
Ġf aster
Ġthe rapy
Ġdesign s
Ġprovid er
k ay
em s
Ġboo st
Ġfl ight
. âĢĻ
Ġy esterday
Ġmil k
Ġst ars
Ġ Ã
! "
Y es
clus ion
Ġcal cul
ĠO ffic
ĠSec ret
0 5
Ġbro ken
Ġ Ð
Ġpay ing
Ġag reed
Ġin n
Ġlaun ched
Ġhundred s
Ġres ol
U N
h t
Ġpers pective
i en
e per
Ġparticip ants
Ġp ure
w o
Ġcar ried
re ens
? ?
i ability
het ic
ĠRep ort
Ġsqu are
Ġp u
ĠWill iam
ĠL ast
Ġsy mb
Ġag ent
ner gy
ed ia
Ġf le
K e
7 7
Ġkind s
Ġcompon ents
Ġbro wn
Ġsh ock
Ġcris is
Ġbelie f
! )
â Ħ
Ġwork sh
Ġtrad ing
ĠC all
ow nt
Ġhy d
clud ing
Ġc op
S S
Ġmod e
ĠOn ly
Ġt ables
ĠTh ank
S u
ĠB oth
Ġt ro
Ġtell ing
Ġte en
ĠK ore
ĠD en
Ġs ac
ĠC as
Ġne ck
Ġbre ast
Ġinsp ired
Ġbig ger
Ġch oices
Ġpo ly
Ġco ast
Ġi Phone
ĠJ ose
F L
ĠCh ris
d o
R es
Ġrem ark
Ġtechn ologies
ĠB o
ost on
Ġclin ical
Ġthe ory
ĠNet work
Ġtw ice
or ation
ĠAnge les
ĠG ame
le ts
I I
ult ural
Ġoffic er
Ġconcer n
U T
ĠC y
C E
Ġf ly
ĠJohn son
Ġpark ing
Ġan g
ir ty
Ġel imin
Ġme at
g age
Ġsupport ing
Ġredu ced
Ġher self
Ġp m
Ġhigh light
Ġl iqu
ĠA T
ĠD ou
ĠH ave
Ġlab el
ĠM useum
ib ilities
: ||
ri a
Ġepis ode
ĠT ur
Ġt ast
e ah
Ġconsid ering
ĠB ob
Ġbel ong
ĠI d
Ġexam ples
ĠC up
ĠC ath
ĠV ict
or ough
Ġl ux
Ġaffect ed
Ġtrou ble
Ġun ivers
Ġspe aking
en cing
ĠS k
Ġwe aring
Ġexpl ained
Ġme al
Ġmatt ers
re al
i as
Ġsc r
an ish
Ġte a
Ġfil ms
Ġve ter
Ġindust rial
Ġro t
Ġv ary
Ġrem ote
Ġl it
ĠH uman
Ġend s
Ġfeed back
T e
ne ver
ĠJapan ese
ĠG en
Ġem phas
Ġtre ated
âĦ ¢
Ġgood s
ition ally
Ġaud io
ĠMin ister
ap ed
ĠM aster
Ġident ified
Ġb ike
Ġpract ical
Ġcre ation
Ġfood s
Ġcateg ory
al a
tt ers
ir med
at o
F irst
Ġfun ctions
ĠRe v
are n
M ost
g as
Ġal le
al ian
os oph
ĠHe ad
Ġclos er
Ġe c
ul ous
7 8
Ġadminist r
Ġrem aining
ig ration
Ġan x
il it
Ġfl o
Ġs am
Ġrec overy
Ġs ad
ĠT own
ĠI P
Ġcomm ission
Ġcircumst ances
Ġse vere
Ġfollow s
Ġeffect ively
Ġphot ograph
Ġentire ly
Ġo dd
e v
ar ian
Ġiss ued
Ġupd ates
E W
E n
Q u
h i
ĠW ay
ot i
Ġemot ional
Ġsignificant ly
Ġbatter y
F e
A G
Ġso le
ĠPro te
ra q
Ġme re
ĠSer ies
erv es
ĠMc C
r ick
at re
Ġplan ned
Ġtru ck
Ġadv oc
Ġauthor ity
Ġmass ive
Ġknow ing
S ee
r ate
Ġcrit ic
igh ter
rel ated
re te
Ġag encies
is er
Ġdis cl
ĠO per
0 8
est yle
ĠF und
Ġcol our
Ġcr ime
Ġfore st
6 6
Ġr ough
Ġimag ine
Ab out
Ġm ur
Ġpick ed
An y
ĠW here
Ġscient ific
Ġmom ents
ĠLe ad
i ams
Ġneighbor hood
Ġdistrib ution
Ġparticip ate
Ġboy s
Ġob lig
Ġdang erous
Ġreg ister
Ġ3 2
ĠB i
Ġinvestig ation
Ġ200 2
Ġregist ered
Ġprote in
ĠH aw
ĠAnd roid
ucle ar
Ġcent re
Ġ20 21
Ġg ro
s m
l ook
Ġ200 1
Ġdis s
ĠG ar
Ġbrand s
Ġprovid ers
O r
Ġch art
Ġk ing
Ġconst ruct
pre ne
Ġus ual
Ġrel atively
Ġper man
com m
Ġmag n
Ġbuild ings
app y
ual ity
ĠV iew
Ġinvol ve
l ock
ĠJ ones
Ġtop ics
Ġen em
Ġrece iving
Ġtick ets
last name
ĠP erson
Ġcomprehens ive
Ġval uable
Ġch ain
ll a
ĠO N
S E
o ch
Ġfor t
ĠN OT
Ġ error
Ġm ut
Ġaccept ed
Ġansw ers
x y
ck now
A meric
ĠJe ff
Ġex cess
Ġfurn iture
Ġn urs
w est
ĠInst ead
ĠAb out
Ġsurpr ise
m osp
Ġcre w
Ġh un
Ġch osen
Ġcompet itive
ĠS to
re prene
Ġres ource
ĠPro v
ĠM en
Ġs oul
Ġv en
p ret
rom e
ĠSt art
ĠL ab
Ġfield s
ĠWe ek
Ġautom atically
Ġb read
Ġoffic ers
Ġt aught
Ġreve aled
U s
Ġun f
Ġinnov ative
Ġcount y
Ġhouse hold
ap es
el ess
Ġwind ows
Ġbo at
Ġinstall ation
Ġobv ious
mer ce
ĠSu pport
S p
Ġperfect ly
Ġn one
Ġcandid ates
m ond
Ġinstall ed
cu it
ad ed
Ġ iron
ack s
Ġchar ged
Ġto m
. '
Ġcr iminal
ang ed
og a
Ġwe alth
Ġident ity
Ġw al
Ġexpert ise
Ġconf irm
ĠMart in
Ġsubst ant
ĠL ist
Ġhappen ing
S ince
Ġis land
ol ar
Ġoutd oor
Ġgu est
Ġequ al
Ġmiss ed
i ors
D r
or a
Ġinvest ors
Ġst one
Ġpurch ased
Ġmot ion
Ġv it
h us
ĠAr ts
Ġfix ed
Ġs an
ĠC ir
Ġt rib
Ġdo ors
ĠIn vest
ill y
ĠMex ico
ĠF ederal
Ġc ro
ĠI raq
ic it
he nt
Ġcut ting
ric s
Ġcook ing
Ġworld wide
ĠAd minist
Ġkeep s
Ġlic ense
Ġs ample
ĠE conom
p ass
Ġvict ory
ĠCon ference
Ġelect ronic
ĠRuss ian
Ġm el
Ġhistor ical
Ġrecord ed
Ġregular ly
ĠP an
h ors
ĠTh ose
ir ms
Ġpl ate
T r
ĠInd ust
Ġal cohol
ĠB as
pa per
Ġproced ure
ĠCh ief
Ġar ms
Ġra nd
ĠH D
ĠW ild
ost er
ĠâĢ ¢
resp ond
es h
ĠB ow
Ġdisapp oint
u ated
ind ing
An other
Ġch icken
Ġconst antly
Ġill ustr
Ġemploy ment
Ġd im
ĠG al
Ġun like
Ġp ump
Ġaccur ate
S c
. |
Ġche ese
ĠDe v
ploy ment
Ġw arrant
Ġm al
ĠRuss ia
Ġinstit utions
Ġf ulf
ĠH en
e f
0 6
G B
Ġcont ro
Ġg rown
Ġpos itions
Ġass ets
Ġen able
Ġgr ade
ĠP ac
Ġsh ares
u a
in ch
Ġport ion
Ġfol ks
Ġinf rastructure
A m
ĠS qu
Ġtre nd
Ġsim pl
Ġde als
Ġsu itable
Ġclot hes
Ġlove ly
b ur
t r
Ġhon or
I m
M any
Ġmess ages
ĠB oston
Ġcont rast
ĠMay be
Ġl augh
Ġmonth ly
Ġfrequ ently
Ġincred ible
Ġs ick
Ġsh oes
in et
U p
Ġwin ner
Ġlight s
Ġab use
Ġrest rict
ĠF ull
ĠK now
ĠM att
Ġbreak fast
Ġch ocolate
Ġafford able
ĠC A
ĠS ar
ĠIs l
a id
od d
ani el
Ġhold s
Ġg rew
Ġstud io
Ġa cknow
Ġt urning
Ġsc ript
Ġ3 00
w ing
ĠPl us
ĠIr an
Ġrep ut
Ġdatab ase
M an
Ġre form
ĠCent re
er ies
Ġattack s
ĠHist ory
Ġt ail
M A
ind er
Ġfor th
Ġbas ket
ĠP enn
Ġel ig
Ġrestaur ants
l o
Ġb en
ar row
Cl ick
O ver
Ġrout e
semb ly
I nd
Ġgu ard
Ġcamp us
Ġre new
Ġatt orney
os ite
Ġresearc hers
Ġinf o
4 2
S pe
Ġrand om
Ġprote cted
Ġmanufact uring
ĠMan ager
ĠA ud
Ġguarant ee
ĠGl obal
!! !
ĠT em
Ġshoot ing
Ġhor se
ĠSte p
Ġsett ings
ĠL im
ĠPol ice
Ġl osing
ĠG ra
On ce
ĠL and
we ight
Ġass ign
Ġris ks
Ġcondu cted
ĠVirgin ia
Ġc orn
Ġfell ow
ow ing
Ġ3 6
Ġsp r
ac hel
ic ial
ge nd
Ġchann el
ĠChar l
Ġcommit tee
Ġf ro
A re
Ġmeet ings
âĢĻ .
ĠLe e
Ġgra b
ab et
Ġentertain ment
Ġwor st
crib e
Ġdom estic
Ġdr am
Ġengine ering
8 5
Ġnot iced
Ġcy cle
ĠKe ep
Ġfeat ured
ĠCan adian
u gh
Ġconf ig
Ġhous es
ly mp
w rit
Ġco vers
ĠM o
ac he
Ġcandid ate
Ġreg ional
Ġdis h
Ġch apter
Ġvirt ual
Ġout put
oos ing
Ġin put
ĠSec ond
ĠM ic
ĠL ibrary
Ġbl ess
ĠCarol ina
Ġproced ures
Ġbelie ved
Ġappe al
ang es
Ġs in
Ġwall s
c ers
ĠPh ot
V D
ord ers
ĠC at
Ġtal ent
Ġrel iable
ĠAustral ian
Ġrecogn ized
Ġdest roy
Ġinde ed
ĠE xt
r um
Ġjust ice
Ġri ver
Ġappreci ate
ĠV er
Ġtyp ical
Ġreason able
The n
Ġh urt
S C
ĠS et
O h
P e
ok ing
Ġsuggest ed
er ation
Ġac id
Ġat mosp
Ġdri vers
Ġt ack
ĠE nergy
ell y
ĠP age
Ġdeg rees
ab led
Ġmed icine
com es
clud ed
ĠM iddle
Ġeng age
ans ion
Ġd ump
Ġear ned
Ġf uck
T A
Ġsched uled
M ar
Ġrout ine
Ġent ered
Ġwalk ed
he red
em ic
ang er
Ġsitu ations
Ġi P
ck ing
Ġinc hes
Ġinstru ctions
Ġextend ed
Ġvis iting
ampions hip
Ġn ative
r as
Ġown ed
Ġfight ing
ic ing
v y
Ġle ague
Ġbirth day
Ġfact s
4 3
Ġpresent ation
Ġaff ili
Ġw id
ĠPar is
Ġs essions
Ġpay ments
Ġsur f
Ġexpress ion
Ġy ards
Ġu pper
Ġpl ug
Ġmus ical
ĠAcadem y
Ġup coming
Ġdist inct
Ġstand s
ĠE nd
Ġcare fully
4 1
Ġimp ossible
ĠM ax
Ġdef ined
ĠB oy
as tern
Ġaware ness
Ġfirst name
Ġreturn s
Ġeffic iency
Ġcomp ens
Ġregul ations
Ġsupport s
M r
Ġret ire
h ost
Ġsurround ing
0 9
c a
Ġp il
Ġbe ar
ĠAs ia
Ġsy n
Ġmag azine
Ġdeb ate
ĠJ un
ĠChild ren
ĠSen ate
Ġh ook
Ġassess ment
Ġcar bon
ĠO R
ĠJ on
Ġ19 5
Ġen force
Ġath let
Ã Ń
Ġp ed
Ġprom pt
ĠW al
Ġorgan ic
Ġro w
Ġreal ized
Ġfac ing
ĠB rand
ĠHot el
ut ing
ot y
Ġk ne
ĠRich ard
g s
el ine
Ġcoun sel
ans as
ĠWill iams
Ġsymb ol
Ġh ate
E E
Ġpull ed
Ġcont est
Ġj ack
i ety
AT ION
Ġvill age
Ġst im
Ġcl imb
ĠSte ve
ĠSpr ing
OV ID
om an
ĠC H
O ther
p es
ĠF air
Ġa st
T oday
b al
0 7
ens ity
ing u
p erson
ĠF estival
ĠD u
ĠA ri
Ġun able
ĠL ink
Ġchalleng ing
ĠAut hor
al se
Ġprem ium
ut ional
Ġdel ight
Ġro ot
ĠA rab
Ġslow ly
Ġsp oke
Ġregist ration
Ġdelic ious
ĠG irl
Ġdes cription
Ġlo ans
Ġn avig
Ġwhe el
Ġcra zy
Ġ <
ĠS ports
ĠT our
ag on
d ate
ĠM ur
Ġres olution
Ġ ille
ĠAn other
ĠH and
ĠJack son
Ġ4 8
p at
Ġform ed
Ġmill ions
Ġincre ases
Ġprof it
ri ble
Ġad m
ĠMich igan
ĠDe f
Ġdep th
Ġauthor ities
Ġb anks
in er
Ġcap able
Ġsus p
ear ing
Ġpub lish
ĠG all
ĠYou ng
Ġfig ures
ĠL t
Ġpolit ics
Ġyoung er
Ġdel ay
Ġ icon
E d
Ġdec ade
Ġexpect ations
Ġt iss
osp it
ĠCol umb
Ġco ck
atur ally
Ġv ast
ĠP ack
Ġdiscuss ed
Ġfair ly
Ġposs ibility
Ġpattern s
ĠM P
Ġspirit ual
ĠD an
ag ues
Ġsurpr ised
ĠS ign
A Y
RE E
ourn ament
Ġte eth
ĠB ible
ĠIt alian
ĠR est
Ġbon us
Ġre ward
Ġon going
T C
Ġsk ill
or al
Ġimpress ive
Ġpro ve
Ġbe er
Ġt asks
Ġflow ers
Ġed ition
Ġfun ny
ĠGe org
ĠBe fore
Ġtw e
he m
Al though
ĠP ub
Ġsc ored
Ġtick et
Ġsa uce
Ġs ou
aw ay
ĠA ccess
ĠCont rol
Ġdi verse
Ġneg oti
ĠWhe ther
Ġser iously
om y
Ġtr ig
Ġsl ot
ĠO lymp
Ġdro pped
ĠL og
et her
b an
ĠC reat
Ġsub mit
Ġs ight
ĠOh io
ĠM id
Ġv ul
Ġtom orrow
Ġre in
Ġdiffe rences
Ġexclus ive
Ġl oves
Ġmount ain
m l
Ġex ternal
19 9
Ġpre par
ĠW alk
Ġ id
Ġtax es
ĠVict or
Ġadd s
Ġconf irmed
O f
ĠL ittle
Ġrecogn ize
l ong
Ġv ital
l ights
Ġsch olars
ĠE qu
el f
ĠTr ust
Ġplan et
Ġinv ent
ĠCont in
Ġrel ief
Ġag ents
int s
Ġadv is
Ġsm ile
ĠS P
Ġent hus
t a
Ġimprove ment
ĠSo ft
Ġserv es
Ġfound ation
ES T
ot al
Ġb are
Ġra il
Ġb odies
n ic
Ġmix ed
Ġem pt
Ð ¾
Ġbow l
Ġfeel ings
Ġnet works
Ġgu itar
el come
Ġph ase
g reg
ĠK h
Ġsil ver
cl ing
Al so
Ġhy p
Ġreport ing
ĠA R
Ġorig inally
Ġsuccess fully
f rom
Ġcon ver
Ġmach ines
st one
ist ers
Ġinc ident
Ġhealth care
Ġlay er
l aw
ĠK en
Ġinter ior
ĠL ive
ð Ł
ixt ure
Ġphot ograp
Ġsu c
Ġc ooper
ĠC ost
Ġaut hors
ĠA D
Ġsh ift
Ġp od
b i
Ġar ts
olly wood
Ġhe ight
Ġt iny
0 2
pl oad
r id
Ġconsist ent
Ġtalk ed
ER S
Ġcor respond
Ġinnov ation
c ons
ren cy
ed ing
ĠT it
Ġe lev
Ġtrans ition
Ġ7 5
Ġleg s
Ġstate ments
Ġpartners hip
s he
ĠInt e
a per
Ġy ellow
ĠS af
Ġlik ed
Ġag es
Ġnorm ally
E ven
ĠR ights
Ġevery day
ĠF ollow
L Y
Ġult imately
Ġlist ening
Ġw et
in os
in em
ĠCo ast
m ar
ĠJew ish
y ers
ĠRepublic an
ĠC ode
ĠMus lim
v a
8 6
Ġg olf
Ġph arm
Ġvac c
0 4
Ġh ang
Ġtest ed
es ides
ĠW atch
Ġp apers
ĠCont act
Ġan cient
ĠFranc isco
Ġstret ch
t le
Ġlik es
Ġsol ar
ub s
Ġlegisl ation
y ard
ent le
Ġle tters
ĠC B
ĠE p
ĠF OR
Ġh ur
Ġinst ruct
V iew
ĠV an
le ments
Ġd ates
b orn
Ġpriv acy
pp ers
Ġth in
Ġlic ens
a wn
P C
Ġoper ate
Ġclose ly
gy pt
ĠC ross
ul s
ĠThere fore
Ġconven ient
ul ing
iver se
cl ass
ĠC oll
Ġdeal ing
ber ry
Ġdi am
ĠH ospital
ĠS on
Post ed
ĠO pt
ĠAr my
ĠF ar
Ġtra ined
u ction
pe l
Ġconf ident
opy right
ĠM S
Ġperson ally
Ġgrad uate
Ġent r
ain ts
ail ability
ĠT ru
ĠL o
Ġ urban
W here
Ġc ake
ĠD C
ĠS up
z il
I nt
et ime
ĠE r
ĠTh rough
Ġpass ing
0 3
Ġmus cle
Ġh all
Ġfil ed
G o
Ġsk y
ownt own
Ġinj uries
i h
ĠE U
Ġinform ed
al le
Ġbreat h
A A
ĠNe xt
Ġth orough
Ġant icip
u ine
ĠDown load
ov al
ĠR ight
Ġfeat uring
rodu ct
le te
Ġobject s
ograph ic
ĠDo es
Ġp hen
Ġliqu id
st ers
Ġexp osure
H S
Ġimmedi ate
ĠDig ital
om in
int on
ĠPl ace
Ġbas ically
Ġex ecut
Ġd ining
Ġappoint ment
it age
Ġsuggest s
Ġtechn ique
Ġl ad
Ġbelie ves
Ġsuc ceed
Ġord ered
Ġsu fficient
Ġsp aces
Ġobtain ed
Ġstre ets
Ġpro of
an ing
ĠSp anish
ĠL ook
ut ch
ic an
Ġm and
ĠN ight
Ġmov es
is k
et ing
Ġstrugg le
Â °
al og
Ġconflic t
Ġt ut
ĠSp irit
Ġpain ting
Ġguid ance
Ġobv iously
Ġgl ad
Ġtal ks
Ġind ex
Ġprinci ples
Ġnear by
Ð µ
el lect
D uring
Ġn uclear
ĠCh air
Ġbed room
Ġlif estyle
Ġprom ise
Ġdescrib e
Ġfl ood
Ġas ide
Ġapart ment
Ġdis cipl
pro fit
b a
Ġadv enture
Ġcru cial
Ġth read
b el
Ġcelebr ate
ĠI re
ĠSc ot
Ġcontem porary
ĠPr ice
Ġh its
Ġpers ons
D S
b ing
Ġent reprene
sec ut
Ġpros pect
Ġs izes
end ar
ĠH ard
Ġt ag
Ġweek ly
Ġgr ass
Ġphil osoph
U L
Ġaut o
Ġsub sequ
res ents
M L
Ġmain ly
ĠB ell
ĠP oint
Th anks
Ġw arn
B u
as hed
Ġcreat es
r ition
Ġn arr
Ġhop ing
Ġill ness
Ġw est
ĠR oyal
gr ad
Ġalle ged
Ġsign al
c ue
Ġhum ans
um es
Ġcollect ed
Ġcollabor ation
Ġhas n
Ġresist ance
Ġaccess ible
ĠGu ide
Ġbrows er
Ġsome what
Ġwith d
ple te
az e
Ġve nd
ĠS outhern
ĠEx ecutive
Ġimpro ving
Ġatt rib
Ġsuppl ies
Ġsh ots
Ġsm ell
âĢĻ ,
st ream
ĠPre m
Th ank
w hel
ĠK n
P er
red it
Ġbott le
Ġbath room
Ġaut hent
ĠJust ice
ĠP ass
Ġsome where
ĠC ert
ast ers
ĠC re
Ġappro val
se ll
Ġrelig ion
Ġro se
Ġless ons
Ġtr ick
ra ge
Ġhe ll
Ġhard ware
Ġrefer red
w orth
ĠAnd rew
Ġt all
Ġwrit ers
Ġfac ilit
c ar
Ġnecess arily
Ġsuff ering
cl aim
Ġext ent
ĠB al
m ade
Ġc able
ĠA C
ĠM ult
Ġorig in
Ġha bit
ĠIn f
Ġprec ise
T ube
am ental
Ġint ent
Ġsus pect
ce ler
Ġb order
Ġch ose
Ġshe l
ĠG ames
Ġe ase
Ġf o
t ers
ĠChar les
ob s
ay lor
re ct
r ich
ĠD ie
Ġple asure
Ġpur su
ĠT ri
Ġp leased
Ġabs or
Ġlandsc ape
Ġre ar
C ol
ĠSu pp
Ġact s
Ġdom ain
Ġexpl ains
ld er
Ġt ab
Ġhe av
Ġexpress ed
Ġintegr ated
ĠS ite
Ġlink ed
Ġconst ant
Wh o
Ġargu ment
ĠC ast
ĠB ush
P re
ĠH or
Ġcons erv
Ġcontrib ute
it ution
Ġg ay
ly n
Ġinter pret
or able
ĠR oom
st ood
Ġm useum
Ġmin i
Ġcommun ications
Ġmembers hip
Ġz one
B I
Ġm ic
in ter
ĠP ot
F ree
ĠB ox
7 6
en ger
Ġev ol
um ps
ur se
Ã ¡
ra id
Ġsp in
Ġinstru ment
Ġex ec
Ġp ounds
Ġman ual
Ġmonitor ing
ĠA S
is ms
ĠV ideo
ĠF our
ĠE ll
Ġany way
Ġfind s
as ant
fol io
ĠCath olic
Ġlight ing
Ġp ra
ĠO il
Ġsustain able
id ays
ur a
on ed
ian a
Ġwide ly
ĠDiv ision
Ġcl ar
Ġvac ation
ony m
ou ch
ĠU t
Ġorgan ized
in te
Ġfac ulty
Ġso il
Ġatmosp here
Ġd uty
we et
Ġshe et
Ġrep resents
Ġrec ording
og en
Ġresult ing
Ġincreasing ly
Ġb at
b les
Ġestim ated
ob by
Ġ20 22
Ġp itch
Ġre le
s ue
ĠF urther
ĠS her
Ġam end
ĠC OVID
ĠFor m
Ġ err
Ġcoun cil
r an
Ġatt ached
P M
R I
Ġcomp r
le vel
amp ion
ĠLt d
Ġex ceed
Ġread er
Ġstrateg ic
ĠH on
ĠApp lic
Ġl ie
Ġvul ner
y stem
Ġout standing
Ġwat ched
Ġclot hing
= =
Ġn arrow
Ġf asc
ific ate
il st
Ġj un
ann a
Ġmanag ing
Ġdirect ed
Ġintellig ence
ĠC ra
am ber
ĠY et
Ġtre nds
Ġreplace ment
Ġdom in
Ġst orm
ĠUs ing
Ġl uck
Ġstr ange
Ġh at
enn is
Ġte ch
J ohn
ast s
Ġsurpr ising
Ġext ract
Ġpro ven
Ġmo ist
Ġplatform s
Ġdrink ing
F C
Ġhead s
Ġfore ver
Ġinv ited
ĠAss ist
Ġ199 9
Ġattend ed
te en
Ġguid elines
Ġst ood
ust er
Ð °
ĠColor ado
P r
d es
Ġre action
ĠC e
i ot
Ġinsp iration
pl ate
B ook
Ġf alse
on na
Ġcapt ure
if ies
ne ys
Ġexper iment
Ġent it
Ġfavour ite
ot ton
Ġcons cious
ĠIt aly
Ġh ire
ĠL ow
Ġeng agement
ĠE gypt
ĠProfess or
A B
Ġeng aged
Ġprim arily
Ġton ight
Ġact ing
5 9
Ġfit ness
Ġqual ified
5 6
Ġge nder
Ġwere n
à ¤
Ġg ear
c ase
Ġtrad ition
Ġrent al
iz z
qu ir
b ar
Ġrepe ated
Ġfl our
ĠAg ain
Ġachie ved
Ġno ise
u ment
Ġsearch ing
Ġp it
â Ĥ¬
Ġ ?
ĠF ed
ĠS anta
Ġag ric
7 9
ĠAs h
Ġro les
ĠEn vironment
t hen
ĠSecret ary
fr ont
Ġdraw ing
3 00
ĠT erm
Ġclaim ed
Ġn ob
ĠC a
Ġkn ock
ie ce
ra cy
Ġprogram me
ĠM ach
Ġbroad cast
ĠR ay
Ġtw enty
Ġair port
ĠPac ific
Ġfil ter
ĠJ ac
Ġgener ate
ath y
amb ling
T ER
ĠS n
Ġh ole
Ġj e
o ir
ĠD ar
Ġh idden
Ġweap ons
ĠF riend
ĠA ff
% .
ĠH im
Ġfac es
ol it
Ġpercent age
z er
Ġpl ot
Ġl ucky
Ġform al
Ġ3 8
less ly
Ġperform ing
Ġposs ess
Ġperman ent
ĠSt at
Ġf irms
ĠC ook
art ers
Ġgen uine
Ġvis ited
l ive
ĠK im
ĠW rit
ult s
ĠS ky
og ether
im ents
Ġsa ved
Ġt ip
Ġover whel
Ġreput ation
abet es
ĠHel p
ĠGeorg ia
Ġch oosing
Ġdesign er
Ġhop es
Ġp ipe
ĠR yan
Ġmag ic
Ġpropos al
Ġo ven
ĠE s
Ġal ive
cip al
Ġw ra
Ġdiv ision
ĠS ometimes
Ġt ank
h tt
Ġag gress
er ate
Ġlarge ly
Ġe ast
Ġvictim s
ĠTh us
Ġamount s
Ġst uck
ĠU lt
Ġp in
ĠP ak
Ġimplement ation
z ing
H ave
ad ium
Ġs oph
ĠIre land
gh an
Ġca using
B ec
Ġdo ctors
Ġsend ing
in ent
ĠR ose
eal and
Ġdefin ition
Ġelig ible
ĠKe y
Ġbr ill
Ġ1 50
ra ction
Ġd ust
Ġopp osite
ĠB on
hold ers
Ġin ner
Ġprofess or
Ġcateg ories
Ġshould n
p ay
Ġrem ained
ion e
Ġdepos it
Ġrepl aced
Ġredu ction
Ġ199 0
Ġr ig
Ġp ill
et ry
Ġsu ffe
p age
Ġtransport ation
Ġsub mitted
Ġt ur
ad ow
Ġse ed
f oot
Ġ3 3
M P
Ġf ing
ap ing
Ġaccompl ish
Ġb ab
ĠInst agram
ĠS earch
Ġcompon ent
Ġinter face
Ġfound ed
Ġoccur red
Ġd ivid
Ġprot est
ad el
âĢ¦ .
Ġdest ination
Ġsty les
Ġoff ices
Ġvers ions
8 00
Ġsav ings
Ġj ew
Ġne ither
Ġfl ash
Ġhistor ic
Ã ¢
Ġ )
Ġapparent ly
Ġev il
Ġincred ibly
ĠAcc ount
ĠK enn
Ġ4 00
vent ional
Ġaf raid
Ġpow der
Ġbag s
ĠLe g
Ġexp enses
rent ly
ure au
ĠV ill
Ġp ace
ll ed
Ġcontinu ing
ress ed
Ġinvol ves
Ġad s
Ġg ifts
Ġc os
ound ed
li ament
Ġch ances
Ġbro ke
m aking
Ġbe ll
ĠH a
Ġpot entially
ĠN ote
Ġr ating
AT E
r ated
ste in
Ġg od
ian o
ou red
Ġso ci
p ir
ark s
n am
ain e
Ġempt y
Ġh ospit
Ġegg s
Ġmort gage
ĠFin ancial
Ġstri ke
Ġph r
Ġcra ck
Ġflex ible
ink ing
Ġmur der
J o
Ġf ishing
Ġlux ury
T V
ann ed
ac le
Ġexist ence
R S
ĠSup reme
b ury
Ġrecommend ations
ĠSystem s
ĠZ ealand
Re g
Ġtrack s
Ġ era
ĠO k
at i
Ġter rit
Ġanx iety
Ġun us
Ġhost ing
ci a
ĠMarket ing
pp y
Ġult imate
Ġbr idge
ĠCor poration
Ġrev olution
ĠJer sey
st ar
olog ist
ĠP en
Ġdepend s
Ġdef ault
ph y
ĠYou Tube
Ġdream s
C D
ĠAre a
Ġun w
ĠT urn
z ona
Ġexcept ion
ĠK ar
Americ an
8 9
Ġ3 7
Ġconsider ation
Che ck
Ġredu cing
ĠSp ace
Ġmem ories
ĠPol icy
Ġm ile
is a
ĠD VD
Ġphot ography
es sel
Ġsudden ly
Ġre ject
Ġf estival
Ġper mission
Ġprior ity
ĠCon f
co in
Ġsche me
ĠR o
ĠC O
ivers ary
Ġmanufacture r
Ġfin ance
amp s
og s
nd a
ur ation
Ġdevelop ers
Ġa wards
Ġtrans p
co ver
Ġcap abilities
Ġwhe never
Ġlim its
ĠEx pl
Ġrec y
ins on
Ġscient ists
ann y
Ġc oc
ĠH ope
Ġdyn amic
ĠD aniel
S m
ĠSt an
ĠN on
ĠTh ree
ĠBra zil
Ġl ies
Ġsol ve
Ġst ake
ĠJose ph
Ġy ield
Ġspl it
ĠWor ks
Ġwas h
Ġla pt
ro ke
Ġobs erved
C ar
Ġany more
Ġconc rete
Ġinvol ving
let ter
Ġille gal
c ific
ik es
ĠPh ys
Ġalong side
Ġ5 5
iam i
ĠD aily
Ġfind ings
Ġcl ock
av a
Ġcut s
Ġsh ower
Ġd ad
Ġcont rolled
ĠMr s
Ġopp on
Ġintrodu ction
ĠL iber
ĠS H
ĠB all
ĠD id
Ġra w
re qu
Ġsh arp
Ġinter act
ĠF un
ut er
Ġse es
Ġco al
Ġtreat ments
Ġcompar ison
iz er
in cluding
Ġ ;
ĠDis c
E P
ĠF ather
ou ston
G u
Ġprodu cing
ĠO S
ĠM ill
on to
Ġdeb ut
Ġreg ions
ro g
ĠH arr
Ġflav or
Ġevery where
E A
ten se
ĠS U
ĠD ate
ent h
Ġqu ote
ĠN ever
ĠA venue
Ġn aturally
Ġscen es
Ġcontrol s
br idge
ig ure
Ġarri ve
Ġhead ed
u ing
al ty
l ers
le ep
st ery
Ġfor um
Ġme als
Ġlaw yer
ĠFor ce
ĠP ract
ig er
M C
Ġdes ired
Ġcarry ing
Ġco ordin
Ġsupp lement
oun ter
E G
Ġmer ch
Ġ199 8
Ġm ixture
Ġl au
Ġrequ ests
ĠAs ian
th is
-- --
Ġcol umn
Ġpublic ation
ĠF ox
Ġcare ful
Ġg aming
Ġsens itive
Ġbre aking
ri ers
] .
b oy
u ous
Ġliter ally
Ġmark ed
ĠOr der
ĠTh ough
Ġrecogn ition
int age
ĠTra ining
friend ly
iss ions
Ġg entle
ĠH oly
Ġpres ents
ĠWh ich
ĠF arm
ĠF ield
ĠQu est
Ġliter ature
P ub
ik i
Ġdri ven
Ġattract ive
Ġprepar ation
Ġp ink
ne ll
Ġprint ed
Ġt um
ĠHe art
ĠPri v
miss ions
Ġint ellect
an while
ĠE nt
Be fore
Ġdise ases
ĠSe a
Ġst unning
Ġend ing
Ġg iant
ĠAdminist ration
Ġ3 4
Ġconsum ption
ĠStud ents
Ġfall ing
Ġregard less
Ġsp okes
p ack
rodu ction
Ġexpl an
ĠH un
ĠM ir
ant ed
Ġhard er
Ġst ead
T R
ha ust
Ġunder t
Ġ6 5
to col
Ġrec on
ath an
Ġb act
ĠC R
Ġexp ansion
Ġrec over
ac c
Ġm ood
ĠP DF
ict ed
Ġsh ops
Ġres idential
Ġstrong er
b ell
Ġnew ly
Ġal t
Ġevery body
ĠPer form
ĠF ord
Ġincor por
Ġarchitect ure
Ġindust ries
ĠN orthern
ino is
Ġbeh alf
Ġneigh b
iz za
ĠStud ies
Ġconne ctions
ĠT ax
bs ite
P art
Ġforg ot
s we
ĠT er
Ġperson ality
ES S
ce ived
ok en
ĠK ent
Ġunder stood
ĠC ond
qu ality
Ġsa ving
Ġenter prise
b its
er ts
Ġpar am
rem ony
6 4
et ary
P ress
ĠSt ore
Ġle ather
ĠE ss
Ġout come
Ġtit les
Ġport folio
ru ption
Ġt ired
Ġn ic
st ra
ĠDis ney
Ġw ins
an es
ĠCl in
Ġmat ches
Ġf inger
Ġbl ind
Ġenforce ment
Ġla id
M ed
ĠL ind
in ity
ĠL abor
Ġarrest ed
it i
Ġcommon ly
N ote
Ġr ising
Ġre act
Ġl oud
Ġb unch
Ġse ats
Ġlog o
Ġprefer red
w ords
Ġcommun icate
Ġgrant ed
Ġb ars
Ġin tense
W he
Ġk m
Ġsubject s
Ġthink s
Ġc ute
b ration
ĠMed icine
ĠR am
erm an
ĠR on
ir al
ar ry
Ġse asons
oc ated
F ollow
Ġph ones
ab eth
Ġvis ible
Ġcolle agues
C S
) ||
Ġr u
Ġm m
che ster
ĠBrit ain
Ġstruct ures
Ġdra wn
Ġass ume
Ġhe l
ĠT aylor
Ġres erved
Ġaward ed
ĠMount ain
im ize
ĠP o
H is
st s
ĠW H
Ġins ight
Ġst rict
Ġesc ape
Ġpub l
ate ll
Ġdec ent
ĠT ry
ĠHen ry
Ġune x
Ġt or
Ġlist s
un n
Ġy ard
Ġ3 9
t es
ĠTy pe
Ġl oving
Ġav ailability
ĠLear n
Ġsc an
Ġfund amental
Ġben ch
c ular
ĠJ r
Bec ause
Ġjo ining
Ġcert ified
ĠBu y
Ġchann els
Ġt one
Ġwrit es
Ġdis pos
Ġencoura ged
ĠSm all
Ġh ung
Ġun com
Ġl atter
ĠL y
ĠA p
ir ts
Ġcopy right
Ġele g
ĠS us
Ġexp osed
Ġu pload
Ġcomp are
ask a
ĠK at
x ic
R ep
Ġt act
ĠM obile
ĠJ enn
m al
Ġconcer ning
Ġfra ud
ĠR oll
AN D
Ġmanag ers
Ġcontro vers
Ġfif th
Ġsac r
Ġacc ord
ĠBro ad
el ing
ĠCar l
Ġcompl iance
ĠS av
Ġb oss
Ġb att
ĠH ollywood
Ġconsequ ences
i ag
x x
20 12
Ġmanufacture rs
Ġbird s
ĠTra vel
Ġcook ies
L ike
Ġequ ival
Ġis ol
Ġenjoy ing
Ġin fection
r un
ĠAri zona
6 9
um m
ar on
ĠR od
rie ved
Ġext ension
ĠGo vern
Ġb orrow
i ac
Ġmark s
Ġgot ten
Ġstay ing
Ġfac ed
Ġtiss ue
Ġretire ment
Ġv ent
Ġsy nt
Ġrel ative
ĠB a
ĠM A
Ġp and
Ġsuffe red
Ġv irus
Ġhe aling
Ġbut t
ens us
Ġju ice
ĠR un
Ġhand ling
ĠP op
G E
Ġm ob
Ġmere ly
it is
O K
Ġw ave
Ġcont ained
Ġt ournament
Ġassoci ation
Ġshould er
il ty
Ġout comes
ĠRe qu
ing ton
ĠF red
Ġelect ed
Ġbl ank
T wo
h ire
ĠSt ill
Ġsp ark
be ing
er as
Ġtra ve
Ġdra g
Ġopin ions
B est
ik ing
ĠBu ilding
Ġframe work
ow ers
ic ide
nd ers
i ate
Ġpe pper
Ġpow ers
ut ies
Ġblock s
u ct
Ġb ills
ĠSte el
Ġcover ing
Ġr ice
Ġcrit eria
) |
ĠBr ad
Ġcon vin
ĠR a
c m
Ġcompl icated
is dom
Ġrecip es
se ason
Ġsp ots
Ġle ts
Ġsing les
w art
Ġcons ists
Ġinst ant
Ġpoint ed
Ġl ady
Ġput s
F A
H A
C o
as hes
Ġpo ker
Ġdem ands
Ġsam ples
al ysis
T ra
ot ed
ĠP ut
book s
ĠSum mer
Ġun ion
Ġsuper ior
Ġin ch
. ;
ĠA wards
Ġhe aven
orge ous
B ack
Ġdeep ly
Ġair craft
Ġle ct
Ġb ull
ĠD ub
ĠS uch
z ed
ĠIr ish
ĠL ocal
Ġv ice
ĠO p
V ER
ĠSil ver
Ġtravel ing
ist ed
Ġbox es
Ġconc ert
Ġnews paper
f all
Ġk it
w ar
Ġad equ
ul um
ĠSh ould
ĠD rive
d ays
ann el
j a
Ġgener ated
Ġac celer
F i
ĠM D
20 13
st al
ĠT able
the w
pr int
Ġob st
Ġeval uation
Ġprogram ming
ĠE st
ic ious
ĠF REE
y es
ĠEngine ering
ĠB ru
ĠP sych
Ġinj ured
Ġse ctions
Ġz ero
nes ota
Ġiniti ative
Ġparticip ation
ig ation
8 7
ĠP rom
Ġrequire ment
Ġr ural
reg on
S ec
ĠCount ry
6 7
Ġref und
Ġsuggest ions
ĠC ab
Ġfore cast
ers hip
ate ful
Ġs ought
ĠN FL
Ġm ac
Ġind icate
Ġcent ers
Ġt ub
il a
ot he
Ġelect rical
Ste p
um a
g or
Ġret urning
Ġv essel
r ite
Ġst able
Ġnight s
Ġrem oval
ĠSe ction
Ġbasket ball
ĠRes p
ugh t
ard ens
Ġh am
Ġ( $
Ġstrong ly
Ġpro hib
ul ating
Ġsuff er
il er
orm al
adel ph
b ow
Ġcol on
ĠIll inois
ĠAd am
c ut
ĠPr ime
Ġassist ant
Ġst ored
ĠE astern
clus ive
v as
Ġentit led
Â ·
j o
or ous
Ġche st
Ġme ets
br id
ĠL LC
Ġev olution
all as
Ġl oose
Ġcou p
F ind
Ġobject ive
Ġclos ing
Ġen ables
ER E
Ġmaintain ing
Ġequ ally
ĠRad io
Ġwithd raw
erv ing
5 7
J an
ac her
Ġg ained
Ġappro aches
W ill
Ġthous and
Ġv ibr
ĠS at
pend ing
ĠG arden
ph ones
ĠM iami
ĠKing dom
Ġo cean
L ear
Ġvolunte ers
. ||
Ġre ly
ĠF act
Ġplan e
Ġpass word
Ġinit ially
un a
ĠRe f
yl v
Ġrepresent ed
Ġhy per
Ġab and
Ġcomp at
ĠS C
Ġus age
Ġclass room
ili pp
Ġleg it
ĠBl og
Ġless on
Ġfunction al
Ġperson nel
Ġf lying
Ġocc urs
ĠC ase
Ġacqu is
Ġj ur
ĠC ru
Ġcas ual
Ġdoll ar
d f
ĠC N
Ġadop ted
ĠL ine
5 2
Ġhead ing
Ġcharacter istics
Ġdiv or
al o
n ce
Ġpost ing
Ġphen omen
in ating
Ġattempt s
ĠSen ior
ia h
e pend
ĠF all
ĠVe gas
Ġt ill
ĠSaf ety
adelph ia
bur gh
ĠM ess
Ġde ck
ĠU k
Ġas ks
Ġexhib ition
Ġl ift
ĠTe ch
Ġjud gment
Ġunc ertain
Ġapplic able
Ġ198 0
Ġent ering
Ġmin ister
Ġthe r
t ics
oc racy
Ġdep ression
ĠF oot
Ġwant ing
Ġchild hood
Ġt ie
Ġ4 2
ĠW i
Ġpl ain
at ers
Ġprep aring
ĠT al
ĠPr in
Ġb one
ok ed
ĠN ick
ĠII I
4 00
Ġtrack ing
Ġw ake
b ro
Ġpurch asing
Ġass ault
S im
A ut
w as
Ġde eper
Ġdrink s
ord an
ĠS ales
Ġsent ence
Ġmist ake
Ġex haust
ĠQue en
ĠC ivil
Ġcompens ation
Ġst ages
ial s
ĠKe vin
ĠP S
Ġconcept s
Ġk illing
us her
ĠL ew
Ġatt itude
p ed
ĠM iller
____ ____
Ġrapid ly
Ġd iversity
iz abeth
ĠIns urance
Ġb omb
ac on
ol is
Ġto mat
ĠL as
Ġ199 7
Ġ âĢĻ
Ġinst ruction
mon th
Ġt ape
w an
us al
Ġun known
Ġ4 9
ĠH ouston
Ġem ails
Ġopp osition
ĠPro per
ĠSp ain
Ġd owntown
Ġsm oke
6 8
s ite
se x
z es
ĠDav is
ĠCon nect
ĠC ro
Ġcal m
ĠÂ »
Ġstay ed
Ġens uring
ĠDemocr atic
Ġle gend
Ġst ir
cc er
Ġelectric ity
R em
ĠD O
Ġfr ustr
Ġimprove ments
ĠPro du
he mat
Ġcal endar
g ent
ĠN ic
Ġgreat ly
Ġar my
Ġreve al
Ġcour ts
Ġfarm ers
Ġw arning
Ġequ ipped
erv ations
ĠF a
5 8
ĠL ED
j e
Ġg ym
et ies
Ġbase ball
Ġworksh op
d is
ep ing
Ġ199 6
Ġl in
r itten
Ġrepresent ative
l ow
Ġfall s
ĠGu ard
be red
ĠE th
ĠUS B
ad or
Ġm a
ĠAg ency
Ã ¼
ĠOr ig
AR T
ĠC P
Ġvot ers
ĠUn fortunately
Ġr iding
Ġce remony
Ġoff ensive
In st
ĠC ON
Ġl oyal
ll er
A V
Ġdis pl
Ġop ens
Ġess entially
G ood
ĠHar ry
et ers
' .
ĠD am
ĠÂ ©
Ġemploy er
ĠG reek
ro gen
ps on
Ġr um
og y
ĠOffic er
Ġgra ce
ĠM ah
O ct
Ġveget ables
Ġint ention
al i
Ġpray er
G A
Ġpo cket
Ġrequest ed
Ġcon clusion
Ġp ig
ĠT ony
E ach
Ġfl ag
omet hing
i ary
Ġor ient
ak a
Ġn ations
ort ion
Ġbuy ers
Ġcheck ing
Ġp p
Ġcomb at
Ġb aking
il ton
ĠU r
Ġcomput ers
Ġs orry
Ġst om
en ess
ĠH aving
Ġl ip
ĠRom an
ĠS S
Ġsp ray
C L
ĠR os
Ġse eds
Ġo kay
Ġind icated
ĠMem bers
ĠKore a
Ġg ate
od ge
Ġcons ent
Ġunus ual
ru its
if er
if ting
ĠC apt
Ġra cing
ĠM os
j ection
Ġintegr ation
Ġd ental
Ġg ap
Ġres ort
Ġtrans action
ĠA ction
ĠM s
Ġwire less
Ġcont aining
Ġt ied
ĠE vent
Ġopp osed
U M
Ġmass age
Ġcontrib utions
Ġemot ions
ylv ania
Ġsc ores
if fe
Ġroad s
Ġlif etime
Ġsur ve
Ġper mit
ĠB it
Ġad mit
Ġstr ing
ĠCap ital
i our
Ġupgr ade
Ġaccess ories
Ġswim ming
s en
l ooking
Ġpack ed
Ġim per
ĠN ame
ĠE D
Ġsome how
Ġpric ing
Ġinterview s
ĠPerson al
Ġdis miss
ĠT reat
el ry
Ġfr anch
Ġm ole
ĠB rian
ap ore
Ġra ising
he ast
Ġrespect ively
5 3
W or
ĠO K
ĠCl inton
Ġ ðŁ
Ġsubstant ial
Ġst ations
Ġmin imal
ick ing
Ġres ident
ĠSto ck
le e
Ġorgan is
ch ild
Ġoff ense
Ġapply ing
ĠG ro
swe red
Ġeng aging
um er
Ġsp a
ĠG M
v ision
ĠL A
ch ar
ĠSm art
ĠPer haps
Ġstrugg ling
Ġspecial ist
Pe ople
ĠO ak
ge l
ĠiP ad
ĠMin nesota
Ġfew er
Ã ³
Ġperform ances
f a
ĠN atural
ĠL atin
Ġre aching
Ġact or
Ġthe rap
re ts
Ġinstit ution
Ġpand emic
h our
Ġdisplay ed
p any
ĠSoft ware
L S
Ġpregn ancy
' '
i pt
C O
Ġfl ower
Ġdef ensive
ĠH old
ĠV ery
Ġwe ird
Ġw ise
Ġex ists
ĠComm on
wor ld
A ug
ors es
Ġf its
Ġwor ried
Ġatt ach
ond er
Ġadv ent
Ġphilosoph y
ĠSw ed
if orm
roll er
Ġp ushed
li ers
ĠPal est
Ġhad n
ul pt
ĠCas ino
s is
Ġto oth
ĠLear ning
Ġar ray
clud e
Ġg orgeous
C omm
in tend
ol t
Ġgovern ments
Ġequival ent
Ġpr ide
Ġdr ama
Ġprint ing
Ġenem y
Ġl y
ĠM other
Ġinvest ments
ĠE ric
Ġmor al
ĠT ool
le ctions
Ġsurv ive
p ower
Ġdang er
Ġstud ied
Ġsatisf action
a ud
Ġch ronic
Ġcontrib ution
Ġs ke
Ġvolunte er
ĠWil son
Ġrat io
Ġfocus ing
Ġstudy ing
Ġhost ed
Ġcontract s
re r
Ġne ut
Ġspeak er
ĠArt icle
Ġble nd
Ġtri ps
Ġwat ers
Ġbl ow
Ġauthent ic
Ġn ose
Ġsecond ary
ĠWith out
% ,
Ġstru ck
up id
ĠAn th
d a
th rough
Ġp orn
Ġcan n
Ġgraph ics
ĠD ri
Ġrem em
Ġsold iers
Ġcry pt
Ġerr ors
ĠB ang
ĠE mer
Ġad mitted
ick et
on ic
ow a
Ġant ib
w ear
Ġmaintain ed
ĠD ark
ch arge
ĠSt ory
âĢ ³
Ġse gment
ĠProfess ional
5 4
ter y
Ġgar age
m o
ĠS ir
Ġcir cuit
un es
az a
and y
Ġp ul
ĠP u
Ġbrill iant
Ġdescrib es
U D
Ġfound er
ang ers
ĠNe ed
st ep
ĠO regon
the less
ĠR en
ĠAf ghan
Ġor ange
ĠH as
Ġde ploy
Ġdecl ine
ĠBe aut
ĠGold en
our se
Ġcomb ine
Ġt ap
Ġg ene
ĠB ern
ĠN umber
Ġgu ilty
Ġlist ing
Ġwond ering
m ble
ĠColumb ia
Ġvis its
ific ial
ig en
Ġf illing
ĠO x
ĠD NA
ams ung
ĠBro ok
Ar t
Ġwh ilst
ĠS EO
Ġha z
Ġtem porary
ĠC redit
ĠDemocr ats
are t
R L
ck er
ĠN AS
D own
s ylvania
Ġs outhern
Ġsome body
Ġloss es
Ġl ake
m akers
Ġpriv ile
k ed
Ġco at
ĠBe ing
Ġbu ff
Ġcomp rom
Ġfocus es
wh o
Ġl ens
Ġs ed
Ġenthus i
ĠTor onto
Ġdi abetes
C ons
ĠL at
k o
Ġacc used
Ġc m
Ġcompet e
o ors
Ġk iss
Ġinter action
ĠB udd
Ġintrodu ce
Ġmus cles
Ġcheck ed
f ers
Ġpregn ant
Ġqu e
ĠP A
at hered
ain less
Ġsc ope
Ġhot els
Ġshe ll
Ġ ~
se ct
pro of
or gan
Ġlangu ages
Ġtele phone
Ġinter active
ut en
htt p
Ġdis hes
Ġan swered
w ich
Ġ199 5
Ġappoint ed
Ġentr ance
ĠStand ard
oc key
Ġaccur acy
v iously
ke l
ĠV iet
Ġal ter
Ġto ler
Ġpack ages
R C
Ġass igned
ur ities
Ġheav ily
row se
Ġattend ing
Ġprov ed
ink s
Ġmind s
ĠDes pite
Ġprov ision
Ġpr ime
ĠL iving
Ġcele bration
Ġn erv
Ġsubs id
B M
Ġhol idays
Ġins pe
Ġfact ory
a fter
Â ©
ĠWe bsite
ĠStud ent
Ġdam aged
ĠSe attle
Ġannounce ment
clud es
Ġheart s
ĠPhil adelphia
ĠO l
ric ulum
Ġexcept ional
Ġfrequ ency
ĠA ge
Ġcr ash
st yle
Ġbr anch
Ġintellect ual
Ġrec re
Ġin du
im p
Ġaddress es
Ġclub s
ĠDie go
Ġmed ication
ĠB ed
ud es
vis or
cript ions
ut ter
ter ior
E X
Ġprodu cer
ĠP ur
Ġpri ze
Ġemot ion
Ġcam eras
Ġadvant ages
angu age
Ġb ands
isc al
Ġflex ibility
Ġh anging
Ġdes per
ĠSh op
un icip
Ġtr im
d s
Ġass et
Ġtrans actions
Ġb id
ir a
ĠPro cess
t ail
Ġhigh lights
ĠI de
Ġsc rew
Ġh ide
Ġcup s
Ġtal ented
ĠMag azine
ĠPak istan
ile y
Ġrespons es
h igh
Ġrestrict ions
Ġbo ards
ĠD ream
isc ons
Ġdemonstr ate
crib ed
aw a
Ġacqu ired
st ract
Ġrare ly
Ġven ue
Ġunex pected
v als
Ġemploy ed
iscons in
he im
or ic
Ġann iversary
ĠFil m
Ġsing ing
Ġc ul
Ġf est
ĠT enn
ag an
Ġperiod s
ĠCh all
Ġc ow
Ġl iability
ra pe
ron ics
Ġsl ots
i ro
Ġsatisf ied
Ġgr ateful
Ġm g
ĠB ull
Ġcon ventional
Ġf ur
is d
Ð ¸
ĠR og
Ġtarget ed
ĠF re
Ġw estern
ib l
ed ge
ĠB ad
Ġpromot ing
ĠI ce
d ney
Ġphotograph s
ck ets
ĠProte ction
Ġf iction
ffect ive
Ġparticip ating
Ġenc ounter
ĠBar b
St ud
Ġmin ing
Ġlapt op
ĠFin ally
Ġarri val
Ġc odes
Ġform ula
Ġdiscuss ions
7 2
Ġh ip
ĠM ember
Ġemer ging
IL L
Ġmist akes
Ġin fect
Ġsing er
Ġbenef icial
Ġ1 20
m ates
Ġsol o
Cont act
ĠBro ther
ĠM om
, âĢĻ
20 10
H T
Ġowners hip
Ġsw ing
Ġfing ers
Ġex port
ĠCl oud
Ġtre m
Ġstat istics
Ġg ambling
ĠAir port
Ġcorrect ly
Ġview ing
ĠQ uality
Ġm old
Ġoffic ially
ĠB and
ow ed
T ake
Ġmy th
.... ....
gor ith
6 1
Ġprin cipal
ĠC reek
Ġun iverse
ĠÂ ·
Ġemploy ers
Ġele ctions
5 1
ĠFore st
c or
Ġhol es
r at
Ġm ild
Ġd ent
Ġtrans mission
Ġtest im
Ġpass es
Ġover se
F l
Ġguarant eed
6 3
Ġ6 4
Ġv oc
Ġ2 50
ra ine
Ġdeliver ing
Ġgall ery
ro it
ac ular
ist ent
Ġpromot ion
Ġtarget s
i ences
Ġad j
Ġter rible
ĠThe atre
Ġlet ting
Ġdef ine
ĠW as
ĠK ansas
Ġdivid ed
ĠSt one
ast ed
Ġpod cast
lim ited
Ġbrother s
Ñ Ĥ
Ġsc reens
Ġprinci ple
ab il
ĠStep hen
ĠN O
Ġman if
ĠF ac
ĠBook s
Ġaim s
uck s
Ġflu id
Ġhor iz
M ake
M ark
Ġhe s
pl ed
Ġspeak ers
Ġbreak s
Ġg ig
Ġper m
ĠD allas
Ġse vent
Ġout s
AL L
ĠE X
ĠAtl anta
ĠC S
ĠSt ation
ĠSar ah
ug s
Ġres idence
Ġpro port
ol id
ers ion
Ġacknow led
Ġch ampion
Ġtemper atures
Ġlad ies
Ġst ability
Ġdo se
ĠB at
Ġor al
6 2
Ġj ail
Ġins ights
Ġcir cle
ĠF L
ĠD ave
ĠSqu are
ĠCh ange
ĠC ou
Ġest imate
ĠRepublic ans
oun ce
Ġl es
ĠJ ason
viron ments
Ġpil ot
G oogle
ĠScot land
Ġthem es
ĠM ov
Ġb old
Ġconsult ation
av or
Ġb es
Ġsumm ary
Ġro ots
g ener
an th
Ġaddress ed
ĠSte ven
Ġexpl os
Ġimportant ly
Ġchar ity
ĠJ osh
% )
Ġch a
Ġcreat ivity
ĠBr idge
Ġ19 70
os pel
O G
ĠPol it
ĠPenn sylvania
ĠEl izabeth
Ġw isdom
Ġ vert
Ġsign ing
ĠSe lect
ĠAust in
ra ctions
H L
od ing
D P
ĠT en
ĠHaw ai
Ġt ort
Ġsleep ing
ĠG reg
im a
Ġyour s
ord inary
ĠD un
Ġgold en
Ġ( âĢľ
Ġsh irt
ĠSe x
ĠRet rieved
h op
Ġelse where
20 11
Ġimplement ed
G l
Ġres id
Ġy oga
o en
r us
Ã ¶
Ġvirt ually
m od
j i
Ġpack aging
7 3
Ġdifficult y
Ġimm une
Ġcab in
nov ation
Ġcompl aint
Ġlicens ed
ĠDe ad
Ġautom atic
zz le
Ġ: )
Ġd il
Ġreg ulation
Ġlaw su
Ġ4 4
> >
P L
ĠJ am
Ġregul atory
ĠProduct s
T op
et ts
ĠRem ember
Ġrom antic
Ġrec ruit
Ġpe ak
v ol
ĠR ub
Ġlay ers
Ġh oney
Ġp ushing
Ġsem i
ĠLe vel
Ġvot es
Ġexpl o
Ġc otton
r ary
Ġal ign
Ġconvers ations
ĠMin istry
if ted
Ġm ad
ĠPr int
Ġto ile
' ,
Ġf ib
ĠH ay
Ġo ught
Ġcur rency
H er
Ġdire ctions
ĠM u
em ed
D is
onym ous
Ġdis aster
Ġcon vert
W elcome
Ġsur ge
el a
Ġpro tocol
ĠCons ult
Ġrel ation
Ġdist ingu
ĠJ ay
Ġref uge
Ġexpand ed
ĠJ ordan
Ġco aching
Ġdesign ers
Ġover come
Ġaccord ance
Ġt ons
U nder
ĠPh ilipp
ĠS em
Ġresult ed
c hers
ach us
Ġpassion ate
Ġt err
ĠV ice
ĠH IV
ree ment
9 8
Ġg onna
Ġimm igr
Ġk il
Ġdri ves
Ġrespond ed
u ating
ver ty
Ġdecl ared
b ra
Ġconsist ently
Ġaccom pan
ass ion
u is
Ne xt
Ġsk i
aw s
Ġcop ies
Ch rist
Ġs od
ax y
Ġbur ning
Ġsc oring
Ġn orthern
ĠCB D
Ġimpress ion
Ġpur sue
Ġground s
Ġcampaign s
Ġm ask
ĠCan cer
om atic
ĠPart ners
op her
rou s
Ġt ube
mark et
Ġm it
Ġsafe ly
ĠB E
ag ers
Ġaccount ing
ĠAdd itionally
Ġrepe at
Ġexpl oring
Ġmove ments
sh ire
ĠT R
Ġequ ity
Ġstom ach
Ġh iring
Ġal arm
Ġab ilities
ĠG i
ĠStud y
a ver
Ġorgan isation
ĠD oc
ĠCh apter
ĠEx press
Ġvot ing
ĠB ase
Ġp ic
erv ice
Ġh orm
ie ve
Ġpo verty
Ġvers us
ĠSing apore
u ana
Ġcontain er
ĠAv ailable
ĠC L
OR E
Fe b
ĠRes ources
Ġsubst ance
ĠM ade
Ġa x
Ġhe ating
un ate
Ġnurs ing
ĠMot or
Ġdistrib uted
C R
Ġres ume
Ġiniti atives
ay er
Ġsc ream
Ġwe igh
ĠTr ade
Ġeng ines
Ġ199 4
Ġdecre ase
in th
ĠSe ason
Ġstreng then
arent s
ĠC ut
Ġcom pe
eng ers
Ġrec all
ĠO wn
Ġmount ains
Ġnerv ous
atell ite
g ov
ĠSh are
ĠMet hod
Ġdram atic
A F
Ġdevelop er
Ġh itting
ĠV en
Ġcert ificate
Ġdiagn osis
Ġsign ature
Ġb ass
Ġbr ush
Ġset up
ust ration
ck ed
the re
g iving
Ġwood en
7 1
C ur
g ments
Ġcomple tion
Ġview ed
Ġstock s
id ers
hy th
ĠN ation
Ġins ert
Ġord inary
Ġth ro
ĠEx am
Ġsure ly
Ġed iting
re p
ĠL ady
ci ence
6 00
Ġexperi encing
P D
pt on
at ile
man n
the y
ow ered
Ġre fe
Ġf iber
iat ric
ĠW isconsin
Ġen vironments
ĠAnn ual
ur ches
G ener
ĠD og
Ġcou ples
Ġab road
Ġlow est
Ġappl ies
achus etts
Ġcom edy
h o
sc reen
Ġwarrant y
ĠE N
ish ment
. -
m ic
ĠS ound
el ve
col n
Ġhapp iness
Ġbo ot
ist a
Ġref used
Ġmeas ured
ĠB ry
Ġaim ed
Ġden ied
l ined
T E
Ġen orm
im ental
Ġsurv ival
d on
ag en
olog ists
ĠE asy
Ġeval uate
Ġsubsequ ent
t ical
Ġinvest ing
ĠEvery one
ĠM oney
Ġreview ed
Ġm ath
Ġd ual
Ġdisc overy
Ġbare ly
Ġamong st
ĠCont ent
Ġf ert
ors hip
Ġearn ings
Ġb ub
ĠK ong
cy cle
ĠP itt
Ġtri es
Ġbel t
ig ious
ĠMod el
Ġre ven
Ġabs ence
Ġsett lement
O ut
iag ra
ĠDon ald
Ġfunction ality
ĠTh ings
ĠAr m
ĠMat thew
Ġblog s
Ġch ips
cu se
ĠAtt orney
Ġinc ent
Ġpen alty
Ġra c
ĠB ul
ult ane
g ame
Ġhope fully
f ire
Ġwor ship
ĠIsl am
Ġmechan ism
ĠLew is
ater n
Ġgro cer
ĠSh ort
p ire
p ing
Ġweap on
r ine
ĠChrist ians
a un
Ġclick ing
ĠM oon
Ġag ed
Ġro lling
Ġbank ing
Ġm oon
ĠS M
Ġexam ination
ĠM oo
Ġexc ite
Ġproduct ivity
Ġpick ing
d ri
Ġsc ulpt
Ġ1 000
U se
ag raph
Ġpres cription
Ġmir ror
ĠD om
ĠS ep
Ġdis order
av al
ĠE state
ĠCustom er
it ate
h an
Ġunivers ities
ĠPa per
ĠVill age
Ġarg ue
Ġhard ly
Ġdist urb
Des pite
atch ing
Ġs lic
c est
Ġ9 9
ĠC ore
Ġgar lic
Ġal gorith
y o
Ġnarr ative
ĠS ize
Ġcontrib uted
Ġsoph ist
Ġwin ners
Ġvulner able
Ġelimin ate
Ġexplan ation
Ġgener ations
Ġobject ives
ap se
Ġra ces
Ġdemonstr ated
Ġutil ize
D av
Ġess ays
Ġrespect ive
w ill
Ġg am
min ute
Ġinv ite
c alled
v an
es y
Ġ8 00
Ġadministr ative
Ġtrem end
ĠI mm
f ound
Ġtro ops
Ġconven ience
Ġdiv ide
o cc
Ġab und
ĠW ould
at al
Ġd uties
Ġposs ibilities
Ġh orses
ĠT rib
ĠT am
Ġunlike ly
Ġcert ification
om ed
Ġse ar
Ġtrad em
Ġvot ed
Ġw ider
ĠI owa
ond s
ĠG row
a ire
Ġmin istry
ĠAll en
ce nd
aint iff
Ġinv ention
Ġsubs cription
ĠC ry
ĠF R
Ġconserv ative
Ġpan els
es see
Ġkne e
gr ade
Ġact ors
w alk
ĠFr ont
Ġage nda
Ġexerc ises
Ġle mon
Ġrepresent atives
Ġexam ine
Ġd ies
Ġbook ing
Ġcontinu ous
ĠAut o
Ġke ys
ĠE ag
8 4
er k
ĠK ids
7 4
Ġnetwork ing
H z
ĠMar c
it o
ĠHe ll
Ġg athered
igh th
ous es
Ġs orts
ot ion
h ome
Ġrel ating
ir k
Ġhospit als
Ġsett led
Ġcapt ured
p ost
Ġrough ly
ch ing
ĠT oy
Ġsupp liers
ĠJew s
so le
Ġact ively
ĠGall ery
g i
v ation
ish op
we ek
ĠP ast
w all
Ġtrust ed
a o
Ġbehav iour
Ġcomp os
ĠAL L
S ub
Ġrele ases
ou ri
d ep
ĠI M
IS T
Ġut ility
Ġdeath s
ric ted
ĠSy dney
ĠStud io
ick ed
Ġathlet es
ĠJud ge
Ġfant asy
Ġre ception
Ġann oy
Ġc ats
IT Y
ĠTh ink
Ġwork place
ĠBl u
fl ow
ri x
Ġcheck s
Ġst ack
ĠC ooper
ĠA h
Ġst ops
ast y
Ġwork out
ent er
Ġadvert ise
Ġestim ates
Ġinn oc
ĠEx change
ĠLim ited
D ay
Ġimpress ed
Ġwal ks
off s
ĠMem orial
H igh
oo f
op er
Ġinst antly
Ġh unt
Ġ9 5
Ġsc ar
Ġp or
w a
on ut
ac les
D id
hes is
Ġun em
Ġmeaning ful
ĠL yn
aw are
Ġgraph ic
Ġr anging
Ġdra in
ĠH ills
Ġdestroy ed
it ches
est ed
Ġremark able
Ġsole ly
ĠSol utions
ĠSci ences
ar ly
Ġconcent ration
Ġdump ster
l ah
ĠP ers
Ġfrequ ent
on ly
Ġse am
ĠInd epend
Ġlaw yers
on ing
Ġacqu ire
Ġf ed
Ġnut rition
Ġform ation
ĠH T
Ġ4 3
Ġtable t
ĠD J
gg ed
Ġte asp
Ġret ired
re ll
ĠEn joy
ĠH P
G reat
Ġsmart phone
ĠAn aly
Ġ Î
Ġspe ll
Ġsk illed
Ġdi pl
in st
Ġs ne
p iece
el le
Ġang ry
Ġe lder
Ġin hib
Ġtut orial
D R
et he
D ate
ĠC OM
ĠR ick
Ġfranch ise
d y
Ġc her
ĠTrans port
Ġemphas is
Ġto ys
EC T
v ity
Whe ther
ĠBu ild
win ning
ĠEm ail
av ed
Ġtrail er
Ġro y
ft en
ĠG ive
M on
Ġm aps
Ġbe ef
Ġv intage
old s
Ġsm oking
arr ing
Ġacquis ition
n ie
am ics
A v
s ized
T y
om ic
Ġ4 1
Ġdial ogue
Ġdro ve
Ġdesk top
Ġconvers ion
ell o
Ñ Ģ
or neys
Ġfin ishing
Ġi OS
Ġman ip
Ġpain ted
IC E
ij uana
C opyright
Ġtri als
Ġha bits
achel or
ĠMod ern
Ġcon vey
ĠJ ane
Ġcred its
it ative
ab out
Ġcomp osition
ist ing
fe ctions
Ġover night
Ġdes erve
Ġpresident ial
Ġt ong
ĠT alk
ĠChe m
Ġv ine
Ġinstru ments
ĠMass achusetts
ĠK ind
ĠW ars
Ġas sembly
ĠN ob
Ġhar vest
rim ination
Ġworksh ops
ĠD rag
Ġres erve
Ġjur isd
Ġbact eria
Ġfa ult
Ġth y
St art
Ġst upid
Ġrepresent ing
A ct
Ġa er
ĠK elly
ro ph
Jo in
ang le
ĠEvery thing
ĠD I
Ġjew elry
ot es
ĠB uff
Ġan gle
Ġgather ing
u ates
Ġdo zen
Ġthreat s
t ains
Ġinvent ory
ĠAnd erson
Ġs li
Ġprodu ces
Ġgl obe
inte rest
ĠMary land
Ġprov isions
ĠReg ist
c ore
ĠCol lection
Ġacc um
ĠB ud
v ant
ĠR us
ĠContin ue
se ction
Ġrepresent ation
Ġlay out
Ġprom ised
d ated
ch o
T ime
AN T
IV E
y d
Ġimm un
Ġpet ition
ĠB ody
a ul
Ġdis ag
se a
Ġsequ ence
ĠC ome
G e
ĠO s
ab ama
ol s
Ġbab ies
ĠR oss
Ġprof its
Ġvend ors
Ġimm igration
p ool
ĠL ic
p ers
M I
if ully
umin um
Ġf ired
Ġwor n
ĠO cean
bour ne
ĠS ab
Ġhost s
ĠN ations
Ġrest ore
ing ham
Ġpre ced
ĠPr ince
i ar
Ġphys ician
Ġrep ly
Ġgen etic
Ġcollect ive
Ġun cle
Ġscen ario
ĠExper ience
Ġcan cell
Ġpurch ases
Ġpublish ing
ick ets
Ġs our
o z
Ġa est
ĠUn ivers
am i
Ġcont ents
Ġdocument ation
Ġle af
Ġoper ated
Ġpre cious
Ġnews letter
p ot
Ġv enture
Ġenc ount
Ġtext ure
ah a
!! !!
ĠPat rick
R el
Ġw aves
pro f
ĠS ant
Ġte nder
Ġin quir
Ġde fect
Ġphys ically
Ġsex y
Ġsle e
1 50
Ġterrit ory
re tt
Ġrank ed
Ġf ool
Ġoper ational
ĠWord Press
Ġdispl ays
Ġwork er
Ġsign als
ĠEd ition
Ġjun ior
Ġindic ates
ĠSc he
Ġl aser
ĠDet roit
Ġrub ber
N S
x id
v ia
O B
ĠâĢ Ŀ
Ġsy nd
rop ri
ĠH ong
ĠS aint
Ġaggress ive
ĠPh oto
Ġchemical s
Ġbl ame
v ard
Ġem issions
re nd
Ġexp ense
Ġp izza
Ġsupport ers
I B
ĠM aterial
Ġtack le
ĠS amsung
Ġed it
ĠB ab
Ġt ears
Ġinvolve ment
Ġball s
ĠA lp
Ġorganis ations
ĠC ub
Ġfulf ill
ot ive
Ġprodu cers
Ġresol ve
Ġprotect ing
Ġin ev
Ġshort ly
Ġbe aring
c op
p y
? )
ical s
em an
Ġprom inent
co pe
Ġser vers
ĠB arn
Ġ5 2
9 6
Ġcur riculum
Ġeleg ant
ar at
8 2
ĠIsrael i
Ġâ Ĥ¬
Ġex ch
ĠH om
fe e
ian ces
Ġdevelop ments
Ġdivor ce
W ork
8 3
Ġcol ours
Ġdam ages
Ġfollow ers
ĠN ut
ĠS ale
Ġthe ater
as ion
ag a
de f
Ġnob ody
Ã ¤
ĠM ajor
Ġpar alle
Ġentreprene urs
E l
Ġy e
ĠR ome
c r
itar ian
Ġnut ri
Ġm igr
ol i
Ġinter vention
Ġquant ity
Ġref err
Ġ !
grad uate
Ġmet ab
ĠCh ampionship
Ġbet ting
Ġposs ession
Ġextra ordinary
Ġcom ic
Ġfund ra
ĠCle an
Ġche f
K E
F F
Ġsal ary
ĠO nt
Ġal leg
ĠA li
Ġoverwhel ming
Ġle an
ĠF A
Ġsim ultane
Ġret ain
Ġscreen ing
ĠAnt on
Ġg ang
ĠR s
Ġrespons ibilities
Ġbelief s
Ġ6 00
Ġste am
Ġassoci ate
Ġinfl amm
um mer
Ġ199 2
ĠMic hel
qu arters
Ġencoura ging
ĠEconom ic
Ġthorough ly
Ġenh anced
ĠIndian a
Ġsurround ed
ĠAtl antic
ro t
ĠDo ctor
ĠEnvironment al
ĠWork ing
J u
Ġmy stery
Ġspec ified
Ġcon j
Ġcl ip
ĠMore over
Fr iday
ĠRead ing
Ġcook ed
ĠCl ark
itt y
Ġmatt ress
ĠBow l
Ġoccasion ally
B N
ĠDe b
Ġ4 6
T O
Ġcy ber
Ġexcite ment
W H
ĠN ature
ĠVictor ia
ĠMon th
ri or
Ġh ired
F inally
r ont
ut or
nt il
Ġhun ting
ob b
os it
Ġcooper ation
Ġpass age
Ġst em
ĠM arsh
Ġup set
Ġf iscal
Ġch ampionship
Ġrob ust
Ġcar pet
Ġsh ips
Ġ19 60
ĠLin coln
ĠAn g
] ,
id al
Ġbuy er
Ġcr imes
itz er
Ġwhere as
ĠM ind
ĠH art
Ġadop tion
ĠA k
U C
ol en
Ġveter an
ĠGovern or
Ġintegr ity
ĠA st
Ġsh apes
h r
Ġcomple ment
Ġdeli vers
u z
Ġepis odes
Ġwh is
Ġadequ ate
at oes
I O
Ġd ancing
P P
Ġrec ru
Ġr uling
N et
Ġc rown
ĠL uc
back s
Ġspect acular
ict ions
o a
Ġac res
ĠUs er
ĠB alt
f unction
b age
2 50
co very
ĠB ureau
Ġexpand ing
Ġleg acy
200 9
Ġfin ancing
Ġt u
ĠReg ional
ĠBre ak
ĠIm pro
ĠWin ter
Ġquot es
al m
ĠB h
Ġprocess ed
act er
ĠS ure
Ġre verse
ĠReview s
bre ak
Ġaccompl ished
ĠAm ong
Ġdefe at
o ons
Ġal ert
Ġg al
ĠL i
ĠN ig
ric ts
ĠB BC
sc ale
Ġf ake
Ġl ips
Ġsl ide
Ġc ogn
Ġsus pend
xy gen
ĠSt aff
Ġto xic
Ġl ibr
Ġd ough
Ġfasc inating
Ġf ruits
g ain
Ġre ferences
Ġcon cluded
ĠP ict
ĠH R
Ġtem plate
Ġmatch ing
ab ling
ĠFor um
ĠS elf
ot te
ĠAl bert
f ish
il ation
Ġ0 1
iffe rent
Ġcon ce
Down load
Ġmod ified
ay ing
ĠW W
b d
Ġad mission
ĠTur key
Ġspect rum
or se
Ġref ers
Ġbal anced
V is
ĠC over
IT H
Ġarrange ments
ous ing
Ġc inem
u um
Ġmake up
Ġtrans formation
lah oma
Q L
Ġprev ention
ĠB aby
ĠIsl amic
ĠG olf
Ġbank rupt
ĠDef ense
Ġco aches
ath on
Ġmy ster
Ġodd s
ĠPalest in
ĠGr ant
Ġpopular ity
Ġb ene
Ġrem oving
ĠConst itution
Ġo live
is hers
im m
ĠBe h
Ġcor por
a a
Ġviol ent
E ng
d ale
Ġgr at
ĠCh ampions
ĠIndust ry
a fe
ĠI ron
ĠComp uter
v o
Ġsens or
Ġcompet itors
Ġn ail
M et
ĠB B
Ġo z
air y
Ġphr ase
ĠL es
Ġbeg un
Ġm ouse
ĠN C
ĠW ales
Ġreg ime
Ġche aper
Ġphotograp her
Ġres cue
Ġp our
Ġ199 3
for ward
Ñ ģ
ĠE T
ĠS E
itt ers
Ġdro ps
or i
ĠG ree
ĠAd vent
Ġany body
ĠH ur
ĠB an
ound ing
8 1
he art
os ystem
ure r
TH E
H P
m ind
Ġe ager
ace ut
ĠQu ick
Ġgen re
asc ular
op t
Ġc ig
ĠM ail
ĠD rug
Ð ½
Ġwhe els
ĠS ong
Ġun iform
ĠC ell
Ġaffect s
ĠS ix
Ġhome own
Ġm ature
O ff
Ġdur able
Ġspeak s
ĠN avy
Ġtem pt
Ġp ets
20 16
ĠH appy
Ġfl ights
Ġf t
est ion
ĠEd ward
Ġh al
ĠLin ux
ĠHow ard
ĠPh one
ĠCor p
Ġsp oken
Ġtr ash
Ġfall en
Ġse ctors
Ġdifferent ly
Ġg reet
C al
ru p
Ġcompl aints
ĠWe ight
arr ass
d oor
Ġliber al
O b
Ġbe ans
Ġproduct ive
Ġeth nic
ĠVis it
ĠA z
Ġgun s
P N
k ind
Ġdis rupt
Ġd irt
ĠV in
ell ing
ĠFin ance
Ġreve als
ĠA B
unicip al
ĠEm ploy
b at
Ġunder lying
Ġ4 7
Ġin ex
ĠAnth ony
ĠM ust
ĠE ver
ĠJ ess
O rig
u ros
ĠM ap
Ġple asant
Ġcur ious
a ft
Ġher itage
Ġar med
ĠAfghan istan
Ġsal ad
Ġdis orders
Lear n
iv a
ĠA ve
Ġexclus ively
ĠR oy
Ġref rig
Ġcelebr ated
Ġinvestig ate
Ġcomp act
c al
ay a
ĠAff airs
Ġse min
F T
Ġsqu ad
ĠS D
if ier
US T
Ġqual ify
Ġw rap
Ġprom ises
Ġpo etry
Ġpass engers
Ġind oor
Ġt ours
ĠA I
os a
e z
ab is
ĠDe ath
Ġre cept
Ġsix th
ĠRel ations
9 7
Ġback up
Ġfin est
enn y
Ġbutt ons
v i
it ivity
Ġear s
Ġconstruct ed
ig ence
ĠCreat ive
Ġre hab
Ġan ger
Ġcompl iment
Ġc ust
Ġ0 8
b ound
ĠC li
ix ed
Ġimpact s
B oth
b et
ĠF ive
Ġdead line
ĠTenn essee
ĠEd itor
ĠMach ine
Ġenorm ous
ĠAl abama
Ġdisappoint ed
S ign
ĠOlymp ic
Ġwild life
20 15
Ġpat ent
ock s
or ious
fort able
g ood
Th ose
ĠF uture
ĠAssist ant
Ġcou rage
ĠPerform ance
se mble
Ġth rown
ĠMoo re
h ol
Ġal ike
re c
ĠEx p
Ġ rib
els on
Ġl ung
ĠR h
Ġch airs
ĠSpe ed
ĠSim on
Ġgirl friend
Ġaccommod ation
m other
ĠSer ver
ord on
ĠMed ic
m g
att an
Ġloc ally
ĠI V
and al
oun ge
Ġoper ators
ĠF ast
ro x
ĠD ays
Ġoccas ions
Ġp add
Ġens ures
s uch
Ġrep airs
Ġmusic ians
ĠJe an
nd ry
Ġengine ers
Ġpark s
ar th
ow een
Ġ urg
ĠIm p
Ġper mitted
Ġcons ervation
Ġdest ruction
Ġas semb
IN E
Ġport ra
Ġweak ness
Ġj ury
i ology
ĠDe an
oen ix
Ġpublic ly
Ġattempt ed
w he
Ġunivers al
Ġtown s
oun ced
r idge
H ome
Ġrid ic
are st
Ġview ers
ĠFurther more
Ġmet ers
ĠElect ric
Ġce iling
Ġcap ability
i very
Ġdur ation
ĠD E
t own
Ġacknow ledge
ĠBl ood
Ġhor ror
c ure
et ch
pl ant
ht ml
g ree
Ġb io
a is
Ġpract ition
Ġchair man
ĠRec ords
Ġgener ic
ĠDen ver
Ġpain ful
ĠApplic ation
Ġst amp
qu is
P res
Ġcompat ible
if ice
Ġpar agraph
Ġapp le
St ar
z ens
Ġsh o
ph an
Ġbreat hing
p apers
i y
20 14
Ġconnect ing
Ġpl acing
mm a
ĠInte rest
ĠP L
Ġ0 9
B O
ne cess
Ġh ill
ĠAn alysis
Ġident ification
Ġa ver
ĠPl ant
Ġmod ule
rop ical
Ġestablish ment
Ġch urches
Ġshe ets
Ġfro zen
Ġse al
ĠMan chester
est y
C all
be an
ĠD ick
Ġinspe ction
it ations
Ġbur den
ĠMor gan
ĠSci ent
ĠS now
im ore
in ate
Ġgu ides
ĠOr ange
ĠL ess
ip es
M onday
R ed
ap olis
Ġbr an
in ar
ad er
Ġbed s
Ġconsider able
M od
Ġadop t
Ġmechan ical
Ġgovern or
ocr atic
ĠAs sembly
g ra
Ġb inary
ĠPh arm
ĠM ort
Ġold est
in ction
Ġfab ulous
Ġ8 5
comm un
ĠLa ure
Ġconvin ced
ĠC F
P G
ut her
Ġcult iv
Ġcor on
Ġt ent
Ġhuman ity
ĠMex ican
ĠAuthor ity
Ġstream ing
Ġland ing
Ġbott les
L ooking
t w
Ġr ated
Ġart ificial
tain ment
Ġpsych ological
Ġfil ing
Ġinterpret ation
B el
20 17
Ġhand y
ĠD ur
Ġassign ment
ĠS port
ĠMc G
Ġlimit ations
Ġappreci ated
Ġsophist icated
part y
ĠKore an
Ġart istic
Ġcolle ctions
Ġcru ise
or ms
M arch
Ġex it
Ġw ishes
Ġdocument ary
ĠE ve
Ġch opped
l ation
Ġdepart ments
Ġmed ications
ĠPriv ate
Ġneighb ors
ĠAs k
Ġ7 2
Ġconf used
ĠLe on
ĠB urn
Th rough
ĠN E
Ġcar ries
Ġt ension
ĠF inal
Ġdirect ors
ĠYou th
ist ical
Ġdes ert
Ġeffect iveness
ak i
Ġenem ies
Ġpar ad
ĠAg reement
Ġb ot
ĠR ail
Ġreb u
Ġprof iles
Ġdifficult ies
Ġl ying
Ġnew est
m n
? !
ry ing
Ġfacilit ate
ok er
Ġlast ing
Ġs ons
Ġsub tle
Ġthrow ing
Ġend less
Ġinter actions
le ans
Ġdon ations
L ook
Ġcal ories
Ġl oop
Ġtrig ger
Ġadv ised
Ġv oices
st ic
Ġch ip
ĠHarr is
Ġinsp ire
h ist
per t
S U
pl us
Ġh ub
Ġfig ured
ĠL ib
Ġcult ures
Ġdefend ant
f ather
Ph oto
Ġsurf aces
ĠOx ford
c ard
ĠCh annel
Ġstri king
st ore
S aturday
add y
rape ut
ĠD iam
ĠU C
Ġa uction
Ġact ress
f irst
Ġn urse
Ġflo ors
H aving
ĠAr k
Ġso ccer
ĠIn n
op en
ud i
Ġcomp assion
ĠB ased
Ġp up
Ġde leg
Ġdesign ated
b urn
Ġl iver
Ġemp ower
Ġkey board
Ġed ges
r ange
ĠPr im
Ġcritic ism
Ġbul k
c s
Ġemb arrass
lect ed
ĠS O
Ġsupp lier
Ġenjoy able
Ġstead y
ĠPe ace
ĠC ow
ĠL aur
Ġr ush
Ġlock ed
Ġign ore
Ġaccept able
Ġg ross
Ġ3 60
Ġarg ued
ĠPh ill
ic ity
ĠU RL
ĠH um
Ġfund ed
Ġd ying
Ġsett le
or ia
Ġload ed
er ior
un s
Ġroll ed
b ie
Ġo h
Ġconfig uration
Tr ans
Ġaccommod ate
AR D
Ġpr on
ĠM ove
Ġgener ous
ĠTh ird
ru b
Ġneut ral
o vers
âĢĿ )
Ġcomple ting
ĠD utch
Ġbre w
aut hor
ĠMiss ouri
i el
ĠS ide
ĠKent ucky
Ġaud iences
ĠTerm s
ĠPlan ning
Ġdon ation
H i
Ġdis ability
Ġsh ame
Ġv ocal
Ġcent uries
ĠOnt ario
Ġg re
ĠCommun ications
Ġpull ing
Ġp atch
ĠS ac
ĠG il
Ġla wn
Ġ( "
az ed
ĠTe xt
l og
Ġw ing
Ġsp ir
Don ald
Ġcar rier
Ġ ..
Ġmed ic
bo ards
Ġforgot ten
F OR
Ġtransl ation
200 8
Ġfem in
Ġcar ing
T P
Ġauthor ized
au x
Ġult ra
L D
Ġp ants
D ec
th ur
ik a
Ġs its
ĠM it
Ġr hyth
pl ing
ĠMan ufact
ĠSing le
ĠClass ic
ĠSy m
w ind
AC K
J une
iz ations
Ġconf ront
Ġg ains
Ġoper ates
Ġdem ocracy
Ġtim ing
Ġsn ap
Ġhand ful
Ġcontact s
New s
ol ph
ĠRep resent
Ġmar ijuana
in f
ĠR ap
he alth
ĠN BA
reed om
f und
O s
ation ally
Ġaltern atives
Ġtoile t
ĠK itchen
Ġref res
es is
se lling
ac ent
Ġaff airs
ĠP y
Ġtremend ous
Ġbu g
Ġrece ipt
Bl ack
Ġkn ife
S ource
Ġpres erve
ĠInte gr
9 2
Ġover view
m outh
Ġshel ter
Ġthe atre
Ġdress ed
ĠBet ter
Ġaffili ate
Ġst er
ĠEar ly
g ly
ĠS ony
Ġchar ging
Ġgr ants
c ur
Ġrequ iring
ĠTe le
a us
ĠGl ass
Ġd ess
ĠT ro
ĠG ab
ĠBer lin
Ġri val
Ġpolit icians
Ġb ust
Ġgrad uated
Ġentertain ing
Ġg ently
Ġke en
Ġw are
Ġwas hing
P at
Ġf ought
ater al
Ġpublic ations
Ġexec ution
Ġass ured
Ġhy brid
ĠP ear
ĠMay or
S W
Ġoper ator
ret ion
Ġdev ast
Ġaccompan ied
ab s
Ġspons ored
ĠWrit ing
ĠG ene
ĠP ick
writ ing
Ġint rig
Ġretail ers
Ġgl ory
d em
ethe less
ing e
E m
Ġir rit
ĠB C
Ġdepend ent
Ġemb race
em ail
Ġrat ings
Ġst roke
Ġhand ed
Ġvit amin
Ġste re
ĠGirl s
Ġt une
Ġp iano
ĠV eter
Ġjud ges
ĠPar liament
m ate
ĠR and
Ġexpect ing
Ġattempt ing
Ġsupp lements
Ġdeterm ination
D irect
pl ates
Ġprocess or
Ġp ills
Ġapp et
Ġoil s
Ġpow ered
Ġth irty
ĠTra il
ut ers
Ġart work
ĠC ape
Ġstra w
Ġd ys
ĠNot hing
Ġsou p
g ins
ĠAg ric
ĠViet nam
ĠUt ah
Ġb ite
be at
vent ions
u h
ĠF ab
ĠP oly
end ed
ĠWh it
ĠCre ate
Ġthe sis
Ġ* ||
ĠInd ex
Ġ199 1
Ġt urb
AS T
Ġback ed
Ġfeed ing
apt ers
ĠFriend s
is an
Ġefficient ly
ĠR ain
Ġmoist ure
Ġmat hemat
con f
ĠH ind
Ġb its
Ġrepl ied
Ġth rew
Ġ5 1
Ġdiscipl ine
uss ion
ĠD or
ĠG re
ĠAn ne
ĠSy ria
ĠA G
W atch
b est
ĠEx cell
ĠFore ign
ĠH ost
Ġco ord
in als
Ġsh it
Ġcab inet
, '
ĠP ed
ĠSpr ings
est one
A pril
get s
Ġev ident
ĠArch itect
ou ver
us hes
Ġg rain
au g
ĠCour se
Ġsil ence
Pro f
ĠOk lahoma
ĠGr ad
Ġargu ments
m ont
Ġatt orneys
st op
Ġmain stream
Ġreal istic
ĠAll iance
Ġd ict
ov a
Ġsell er
Ġinc om
ĠP ain
as m
er on
cl osure
D oes
Ġent ries
ĠG ulf
Ġar bit
ĠMar ine
ĠC orn
ĠW y
ĠN EW
ĠCh oose
ie re
Ġsec ured
ĠT ree
im s
C P
Ġredu ces
Ġpop ulations
Ġsuppl ied
ĠOr leans
Ġann ually
Ġexhib it
Ġtransfer red
Ġan ch
ĠS ave
Ġ5 4
N Y
cy cl
ird s
Ġdeli ber
Ġd irty
Ġbeaut ifully
Ġsh ipped
tr ans
Ġtong ue
Ã ¨
H D
ĠB rew
Ġpro sec
ĠD ating
Ġsu icide
Ġo xygen
Ġint im
Ġto ss
ac co
ĠC and
Ġbo ots
aught ers
Ġprecise ly
Ġtime ly
Ġachieve ment
Ġoverse as
Ġdesign ing
Ġcount s
Ġto y
Ġass ert
ĠW ire
Ġun p
Ġ0 2
H el
ĠH ig
ond a
Ġfo am
Ġsl ip
g ie
Ġcr usher
Ġconsult ing
ĠRev olution
" )
n ut
Ġcollect ing
ĠJ ob
Ġst opping
M in
ell a
Ġin sect
ĠM uch
Ġimag ination
s l
Ġtour ism
Ġv ib
Ġall erg
Ġseem ingly
ĠB M
or ical
Ġcompet ing
Ġt ale
per form
Ġrelax ed
it ched
Ġoffer ings
Ġdiscuss ing
k ers
Ġwhere ver
cent ly
M ich
ĠChair man
ĠFoot ball
Ġc ater
ĠT an
Ġt ies
Ġec osystem
9 4
ugg ed
e ven
Ġcon secut
Ġrom ance
ï ¿
Ġv iagra
Ġcas inos
Ġam en
Se pt
Ġcomp ly
am on
20 18
ĠN ik
ĠChall enge
ĠY ears
G od
ost ic
Ġreflect s
ĠComp an
Ġprospect s
Ġun lock
Ġsp are
Ġbel oved
pr ises
9 3
OU N
Ġra b
9 1
Ġg ut
Ġreject ed
Ġlegit imate
ier ce
Ġbene ath
Ġl obby
Ġparam eters
ĠE sc
He y
Ġt ear
ut ors
Ġc ord
Ch ar
Ġt ire
M c
ir able
Ġout er
ĠS ov
f ly
ĠCra ig
ĠKenn edy
Ġcitiz en
Ġsh ade
ĠTit le
Ġst ainless
ĠY eah
Ġsp an
Ġspecial ized
Ġnavig ate
h ard
Ġhe m
Ġsu ite
h ave
Ġread s
am ous
ĠCh amber
ĠL ooking
Ġbi ological
Ġhe al
Ġadd iction
Ġmotiv ation
Q U
Ġbro ker
Ġ0 7
Ġagree ments
l ar
ĠB ron
ĠG as
ĠG ary
OU R
Ġsustain ability
ĠB R
ĠO cc
s ome
gu ard
re ction
ĠBru ce
irt ual
Ġmag ical
ĠI L
Ġarrange ment
Ġt att
vel and
ĠBl oom
Ġr ou
Ġtreat ing
anc ouver
Ġf ears
Ġg rey
Ġen abled
oc a
Ġindepend ence
ou b
ĠJo in
e le
Ġelect ro
im mer
Ġfast est
Ġo k
Ġaccept ance
ĠProper ty
id en
|| $
ĠVal ent
ĠRober ts
ĠEnter tainment
Ġbe ings
ĠSchool s
Ġint ake
ĠAdv anced
ĠH al
Ġw ard
Ġmod erate
D C
Ġadv ise
v it
ĠC ool
ĠSt ra
Ġj azz
Ġb other
Ġcool ing
ess ed
Ġfol k
ĠCon vention
Ġdev oted
Ġglass es
Ġremind ed
ĠLe gal
Ġend e
Th ursday
Ġintellig ent
Ġlawsu it
ĠH em
omm y
Ġrel ate
Ġreg ards
Ġwarn ed
Ġwra pped
Ġs atellite
ĠD ra
Ġstruct ural
ĠYOU R
Ġpro pri
Ġincor porate
Ġpropos als
Ġ0 3
ĠB ath
Ġtouch down
ĠE V
ast ing
B L
Ġdisc rimination
Ġcomp osed
oty pe
Ġagric ultural
edd ed
ĠT ell
Ġrece ives
av irus
ĠCapt ain
ĠA qu
ĠHar vard
ĠId ent
c ount
Ġep ic
P al
ĠE C
Ġb ones
ĠUk raine
Ġbound aries
ĠComp et
Ġtit led
Ġw rest
Ġf ancy
Ġsh out
ĠCo le
Ġjack et
Ġste pped
Ġspecial ists
Ġident ifying
y our
ĠR ound
ust ain
te ch
ĠC art
Ġachie ving
ak h
Ġpeace ful
ĠA th
Ġclin ic
P s
ĠCon c
S L
Ġcl im
Ġsty lish
ĠAnd y
ĠPer fect
Ġpaint ings
au c
Ġmar gin
ĠH an
Ġ0 4
Ġent ity
Ġsee ks
ĠT ai
t est
Ġviol ation
ĠB enef
P ol
ĠH ERE
ĠC rit
Ġ( @
Ġlog ic
Ġc ous
Ġround s
2 000
he ld
ĠRet urn
ĠP ow
ĠH ad
Ġsh aped
Ġr ust
Ġhonest ly
ig e
Ġlabor atory
Ġdiscount s
C or
Ø §
Ġc ited
L ove
ĠPort land
Ġgr id
Ġdef ic
ug ar
Ġport ray
Ġharm ful
Ġscholars hip
Ġoblig ation
Ġp ione
R et
ĠN a
Ġvibr ant
ĠE ffect
h ot
u ke
Dav id
spe cific
Ġen roll
Ġpl ates
ĠRes erve
ĠCo ach
Ġicon ic
Ġsurv iv
Ġteasp oon
ĠH oll
Ġex empt
Ġvari able
Ġmeasure ment
Ġun necess
ĠG h
Ġsh orter
ĠI C
ct ic
ud ge
Ġ5 6
ĠSt adium
Ġtwe et
umb ing
Ġhand led
Ġtru cks
l ink
âĢ¦ ]
Ġcare ers
let te
Ġsupp ose
Ġstri p
he rent
ĠPri or
Ġexcess ive
Ġpersonal ized
Ġdo zens
Ġst ays
Ġqual ities
ĠAm end
le nd
Ġsu its
Ġparalle l
ĠD ue
T uesday
Ġde ar
A c
ĠMc K
ĠT ok
Ġsil ent
Ġ198 9
ĠM ission
Ġwind s
Ġinst ances
ĠL anguage
Ġlog in
ipp i
Ġhe nce
Ġdecl ined
ic ating
un ct
Ġimpl ications
Ġcorpor ations
Ġbre ed
Ġstim ul
ple x
Ġc rop
Ġgrocer y
Ġin fections
ah oo
ĠC ash
Ġprof ound
Ġworth y
Ġobs erve
ĠRest aur
Ġmanif est
Ġdet ection
ĠAlex ander
ĠSt yle
ĠE mb
en z
ĠO sc
ĠS ource
Ġst olen
Ġsh adow
writ er
Ġconsecut ive
li hood
ĠSim ply
ĠD ise
Ġass ists
ï¿ ½
Ġport able
Ġr ational
ci ples
Ġnut s
ĠHall oween
Ġt ang
Ġshould ers
bs p
ĠSc ript
Ġy eah
ĠW ik
g ic
Ġsimultane ously
ail ing
Ġs isters
AC T
Ġvert ical
ĠM E
ill ance
er als
ĠPract ice
l ie
ant e
ap h
Ġgr an
Ġagric ulture
now ned
Ġload s
Ġpre view
az ines
Ġexpl oration
p res
Ġover s
Ġnot ion
Ġremem bered
Ġtestim ony
ĠM oh
Ġinflu enced
ĠT el
m ay
ĠBit coin
ĠCom pl
ĠCom plete
Ġfriends hip
ĠInst all
ĠAl aska
child ren
Ġbond s
Ġ5 3
Ġsuper b
Ġt ennis
Ġint ensity
Ġexpl icit
Ġb in
Ġaddition ally
Ġl ately
ĠMag ic
B et
Ġbless ed
ĠK y
Ġc um
Ġder ived
Ġdri ed
Ġro cks
ĠUn it
Ġmem orable
Ġwe lf
it udes
ĠL ock
ĠC hen
iss a
ĠF at
ĠInt ell
Ġloc ate
Ġdist ricts
I ES
ing le
re ach
ĠPh D
Ġcat alog
ĠSch olar
Ġemb ra
ĠOrgan ization
ĠL iter
Ġout fit
ul in
200 7
Ġwelf are
Ġwork force
S unday
igen ous
J e
ĠT otal
Ġsh oe
Ġun fortunately
ic ular
ĠD yn
ĠK ings
Ġparticip ated
Ġbran ches
In tern
Ġpers u
Ġhum or
art s
Ġtw ist
ĠM ars
ber ries
Ġdim ensions
Ġm akers
Ġj er
ĠAd vis
ĠPort ug
ĠPitt s
il itation
Ġrecommend ation
Ġrelax ing
Ġgrad ually
Ġhop ed
Ġap olog
ĠPrem ier
in ery
Ġcontract or
ĠS A
Ġpick s
Ġconsult ant
Ġlab els
Ġr ings
os ph
ĠA F
Ġre nder
Ġc ub
ĠC C
Ġg ardens
Ġengine er
Ġin k
) (
Re view
ĠAl tern
Ġsqu ee
ĠC her
ate ur
alt ies
ĠMal ays
ĠDou ble
Ġ 00
ĠF le
ĠAut om
Ġprogress ive
ĠG ib
Ġab stract
Ġag greg
am ine
ĠBalt imore
ĠL ad
Ġconf idential
ar ms
Ġinfl ation
am el
Ġdisp ute
um my
ĠEm pire
Ġbatter ies
Ġw age
ĠJust in
Ġveter ans
Ġqu it
Ġplace ment
olit an
Ġmotiv ated
ag ine
Ġscr atch
Ġinsp iring
ĠGal axy
ĠN ear
Ġfail ing
are r
Ġaccom pany
u an
Ġdiagn osed
oy d
Ġboy friend
Ġd ash
w hen
ĠB ear
Ġcolle ges
W ednesday
Ġautom ated
n atural
Ġins pect
n ormal
ĠV it
Ġtem por
Ġrece iver
ĠW at
um ble
Ġcl oth
ĠPh oenix
Ġattend ance
Ġrob ot
ĠS W
EL L
Ġte ens
ĠBe at
ĠInd eed
l u
p ur
Ġr ally
Ġsp o
ĠExpl ore
Ġg host
Ġcount less
Ġtour ist
Ġr anks
ĠMe et
ĠWalk er
Ġemer ged
ĠH air
b led
ĠK a
ĠMiss iss
ĠV A
ĠZ e
Ġf ails
e rest
r ison
Ġtable ts
Ju ly
Ġst rain
Ġre vers
ĠH op
Ġoutd oors
ĠAnd re
im ens
ĠR ace
Ġn aked
ĠR aj
ĠE aster
Ġf ut
Ġsignific ance
Me anwhile
id ity
Ġcustom ized
k m
Ġcompe lling
Ġd ivers
Ġed ited
On ly
Ġs ink
o ven
Ġrest ricted
Ġde emed
Ġd rew
Ġre ct
Ġen abling
ĠCont ract
lish ing
it ual
Ġam pl
ĠTem ple
b ian
Ġanaly ze
ĠF ish
Ġex terior
Ġpot atoes
Ġre wards
Ġab ortion
cc a
Ġint u
Ġex pend
m ers
ar ia
Ġdelight ed
of fee
Ġimplement ing
Ġarr anged
ĠEv ents
Ġrad ical
Ġdemand ing
Ġle ase
Ġaband oned
ĠH u
Ġce re
Ġ19 50
ch ain
Ġshe d
Ġhom eless
Ġproport ion
ĠY an
ĠA BC
ĠInd ones
Ġeas tern
ĠCharl ie
Ġaddress ing
ĠFl ash
Ġc ure
Ġso ap
Ġbankrupt cy
Ġp unch
AS E
ĠCam bridge
Ġv ig
Ġal uminum
ĠFollow ing
Ġtax pay
Ġfold er
ĠB attle
Ġoppon ent
Ġfavor ites
Ġpe er
Ġret reat
h as
ĠMel bourne
Ġcelebr ating
iv ities
Ġse w
ĠK it
at tered
Ġt a
B R
Ġche er
ĠJac ob
Ġm aker
Th ough
he w
ĠD ance
Ġrout es
ass es
sh ot
ke e
Ġtem ple
ur ious
ĠL ane
Ġfoot age
Ġreported ly
Ġir re
Ġthreat ened
Ġpre st
rib ution
ĠEnter prise
Ġgrow s
ĠB us
Ġsusp ension
Ġh arsh
Ġpass enger
Ġf itting
uss y
Ġan cest
Ġvar ied
ĠMedic are
ĠHigh way
ĠCe le
ll y
el and
Ġ0 5
Ġtow er
Ġfa cial
Ġcalcul ated
ĠBrook lyn
Ġn a
ĠG ordon
Ġnation wide
Ġw ides
h ou
Ä ģ
Ġsurv ived
Ġcy cl
m atic
Ġopt imal
L ife
ĠAl ways
Ġentreprene ur
ĠAm b
t able
ĠN ash
Ġb oring
Ġg est
ID S
ric ane
Ġprov ince
ĠMe eting
ĠHawai i
Ġs ake
ĠM ix
ĠDel hi
id th
ĠR ather
Ġ0 6
d am
Ġanticip ated
ĠW olf
Ġne at
Ġ6 6
Ġbr ut
che ll
Ġpra ise
Ġident ical
Ġhung ry
M us
Ġconcent r
ĠB L
Ġtrad itions
Ġtrou bles
Wh ich
ĠLu ke
Ġcontrovers ial
Ġint imate
is ure
CA A
ĠAl an
ĠR ow
ather ine
Ġmechan isms
ane ous
Ġconf usion
Ġpoll ution
S H
Ġjump ed
ĠK ate
Ġrad iation
Ð¾ Ð
ĠB irth
Ġr uled
Ġsp ouse
Ġbu nd
ĠL arge
Ġmarket place
ĠC os
Ġref lection
Ġrepeated ly
Ġess ence
I E
Ġnice ly
ĠT oo
Ġthere by
Ġfl ags
Ġtra ils
Ġenjoy s
Ġper ception
Us ing
Ġcons olid
Ġprom ising
Ġliter ary
Ġdr unk
Ġrank ing
ĠG R
ĠDe ep
Ġper pet
d ing
Ġdif f
ĠCle veland
spe ed
c re
ĠTe a
Ġtreat s
Ġexcell ence
ort ed
Ġoblig ations
ress ing
Ġmin im
li est
ĠBel g
Ġutil izing
Ġsitu ated
aren cy
Ġmother s
Ġre actions
ol ine
Ġcoc onut
Ġsatisf y
ĠBl ock
IC K
od ed
Ġselect ing
L a
ar ation
che stra
Ġbe aches
r ons
ĠW ITH
C ustom
Ġb ay
b rew
ĠSe veral
t age
ĠSt ay
Ġwid th
Ġoppon ents
as ures
Ġad min
B ig
ĠCast le
ĠA V
Ġad verse
Ġt sp
ĠW E
Ġany time
Ġvacc ine
ĠN az
pr ing
Ġmar ine
Ġc ree
oo ps
Ġag ing
Ġclaim ing
ĠT X
Ġear ning
Ġl ap
Ġworld s
Ġconscious ness
own ed
on ia
ol k
is ers
ĠMin i
Ġinvest ed
S ometimes
ĠN ort
Ġ %
hold er
Ġtechn ological
ĠO w
ĠS weet
Ġspokes man
ĠP il
Ġexper iments
ĠC T
ĠG P
Ġgen es
Ġteac hes
Ġa qu
Ke ep
C le
Ġuncom fortable
Ġne uro
Ġanal ys
Ġw ines
Ġh ills
Ġsem ester
Ġadvoc ate
p read
Ġunem ployment
P oint
ĠConst ruction
Ġsepar ated
Ġflav ors
ĠNet her
Ġappro ached
ĠSim ilar
ĠSa fe
ĠF DA
Ġread ily
l an
ĠN urs
Ġcook ie
ĠB Y
ĠSov iet
ful ness
w ick
ĠIs a
ĠNe v
Ġcontract ors
== ==
ĠW ine
ty pe
ic he
M s
Ġd ont
ce ive
Ġf oster
hy d
ĠHam ilton
ĠFranc is
Ġperm its
G r
ĠSus an
ĠDu ke
Ġp ays
Ġassum ed
s chool
ad vant
Ġgr ay
Ġprote ins
He alth
ip edia
Ġdis k
Ġcorrespond ing
ĠL ater
Ġreflect ed
ĠD R
Ġmanufact ured
Ġconver ted
Ġbu zz
ĠRus sell
Ġ vel
ĠF ile
ĠFr an
Ġvari ations
ĠInt el
Ġpre tend
Ġlight weight
Ġam id
Ġsub mission
ĠQuest ions
ĠC ould
Ġg rip
ĠF alls
ĠNig eria
Ġc ents
ĠJ oy
h ill
ĠV ancouver
Ġvol unt
umn i
w oman
Ġgu ided
Ġcourt esy
ĠM aking
qu er
Ġpl aintiff
Ġcontact ed
Ġsubs crib
Ġ[ âĢ¦]
ĠR out
Ġel ite
Ġprevent ing
ĠS EC
Ġinv al
ĠR ab
Ġin hab
amp a
Ġcapt ain
Wor ld
ĠM B
Ġinter pre
Ġrep orter
ĠIndust rial
d i
Ġfl aw
Ġg el
Ġstake holders
Ġexecut ives
ĠD er
Ġb icy
Ġdeterm ining
e y
Ġ3 50
ic ut
Ġdis abled
Ġover look
Ġcomplex ity
Ġown s
Ġshow case
à ¸
Ġnegoti ations
ann ah
Ġvac uum
Ġste ep
Ġmerch and
ĠB uck
Ġattack ed
st ick
Ġat e
Ġtransp arent
ĠIs lands
Ġpresent ations
Ġmeas uring
Ġaud it
sh ine
Ġproceed ings
ol as
Ġquarter back
Ġfr ames
Ġdec iding
ĠAP I
We b
Ġsh ield
Ġsacr ifice
Ġapplic ants
Ġelder ly
ĠL isa
pl an
Ġadvent ures
ĠC opyright
Ġav o
Ġreferr ing
S earch
w estern
Ġal ien
ĠWay ne
i per
7 00
ĠL am
ĠF ant
Ġsepar ately
st ruct
Ġdif fer
Ġcap s
S M
Ġfuck ing
Ġm art
Th ree
b es
Ġutil ized
er ator
or ient
Ġfle et
Ġmut ual
Ġp ant
ĠWith in
medi ate
ĠB esides
Ġcle ver
Ġsecret ary
ĠTru e
row ing
ar ound
ĠT ips
ĠUS D
ĠHer itage
Aug ust
ol ves
Ġdisc retion
ĠSu ccess
Ġsur g
Ġ198 8
Ġregard ed
Ġanaly tics
ĠL ot
Ġsh r
Ġtext s
Ġinn ings
ĠAnge l
Ġmed itation
L ist
Ġ ||
Ġjo ke
Ġd ensity
Ġch ampions
work ing
Ġconfirm ation
Ġte nds
er ver
Ġon ion
B ar
Ġly rics
ir ates
Ġco pper
Ġf ence
ĠC ulture
Ġdo ct
Ġjurisd iction
m etic
ĠBe ck
ĠJon athan
Ġsc ared
Ġstri ve
Ġin her
Ġut ter
Ġdiam eter
j ud
Ġp ad
ĠS om
ateg ory
ĠSte wart
Ġbroad er
Ġtw elve
In ter
ail ed
Ġcomput ing
at ar
enn a
is ons
Â £
Ġcond em
Ġpre ferences
Ġn est
Ġsy mp
Ġjournal ists
. :
Ġpric ed
Ġp ix
Ġ5 8
k g
OR T
s ub
ib bean
Ġlo vers
Ġeth ical
Ġcar b
Ġsubs cribe
Ġb out
Ġcamp ing
St ate
Ġswe at
Ġdark ness
Ġdepart ure
Ġbur ied
Ġincorpor ated
Ġwa ist
Ġt ires
ĠÂ §
Ġestablish ing
Ġclass ified
ic ts
ĠM agn
ank ed
st ock
ĠE P
J ul
Ġpo ison
ĠN ich
Ġgr ades
ĠAd ams
Ġ1 10
ĠAnton io
v ious
em et
Ġle ak
Ġtomat oes
ĠC M
ĠB ol
Ġexpl aining
Ġcor ruption
ĠCons ider
Ġhyp ot
Ġnon profit
Ġdeal er
Ġdirect ory
g ence
ru e
Ġbr ick
Ġver ify
Ġre vel
As s
D I
Ġaccept ing
oc ur
ĠR at
ĠMar ia
Ġh oly
Ġmount ed
Ġw ings
em ade
Ġlegisl ative
Ġtour ists
tra ck
Ġminor ity
Ġprior ities
Ġcand y
ivid ually
fl ix
Ġrest oration
Ġclos est
m itting
Ġt ags
Ġd aughters
ĠA pr
ĠP as
Ġattract ed
Ġhaz ard
Ġsynd rome
Ġprotect ive
el ed
ĠF resh
ĠR u
ĠH ug
Ġappe aling
IG HT
ne ath
ĠS i
Ġw ore
oc ate
Ġlike wise
Ġcontrib uting
ĠB or
u ations
Ġappreci ation
Ġgl ob
b ably
iz able
Ġre n
ail and
Ġcreat ures
ĠChe l
h attan
Ġh iking
ĠUn like
Ġprint s
ĠScott ish
rapeut ic
m ad
l ies
ĠThom pson
Ã ±
ĠC ov
Ġent ities
Ġsh ore
Ġpubl isher
ã Ģ
Ġc ush
Ġpresent ing
usal em
Ġmag azines
Ġis lands
am ents
am med
bl og
Ġmeasure ments
ĠCent ury
Ġun limited
Ġacc red
Ġexper imental
Ġl one
Ġbe ating
Ġb inding
Ġn it
g ate
Ġfl esh
f ight
oth y
app ropri
Ġemb od
Ġcolor ful
Ġspecial ty
ĠH it
ĠRom ney
Ġsa il
ĠIm age
Ġtou ched
ĠV ersion
Ġvers atile
Ġbul let
ĠMississ ippi
B ased
Ġan th
ĠG ate
iv als
ĠInc re
Ġclimb ing
t ic
Ġacc idents
Ġre de
ĠD ad
Ġpros pective
ĠM un
ĠD ak
ĠMe anwhile
Ġisol ated
Ġform ats
sh ore
ĠPlay er
Ġdist ract
ĠN ative
Ġover t
ask et
h h
ĠP ant
Ġsuspend ed
c at
h ar
Ġreven ues
Ġpe ers
Ġwarm ing
ur red
ows hip
ĠL iver
I AL
Ġbad ly
c ow
ĠHe at
th od
ve t
Ġbo ats
Ġvessel s
Ġh orn
Ġsupport ive
Ġrep rodu
ar ious
am ins
Ġco ins
ĠCom b
Ġpat ience
ĠCom mercial
Ġcogn itive
ĠGree ce
Ġth umb
ĠPri ze
Ġimmigr ants
ĠUr ban
Ġin e
OS T
Ġremind er
Ġopt ional
lim inary
Ġp y
ig ue
Ġinvest or
Ġpen et
ĠB apt
P T
Ġres erves
Ġsc rap
um ing
Ġh ood
cept ions
Ġlab our
Ġ5 7
Ġmix ing
ĠCle ar
Ġre aches
be y
Ġenc ry
ĠNether lands
ĠH E
Ġsu ited
Ġac ute
Ġexam ined
ĠP ric
ĠSur vey
ĠRes ort
Ġspeed s
Ġpost er
Pub lished
W ant
ĠShe l
ĠPhilipp ines
ĠLaw rence
Ġa rom
Ġsc al
Ġsevent h
ĠDet ails
Ġline up
Ġhar ass
ot ing
com merce
ĠQue ens
Ġwides pread
Ġconst ra
Ġs ized
ĠPro p
Oct ober
ar o
Ġin cl
ĠJenn ifer
le ading
P ublic
Ġlist ings
Ġar ise
ĠA part
Gener al
ange l
Ġ ]
Ġorgan ize
gg ing
com ed
ĠAl ong
Ġfre el
ĠMuslim s
Ġcann abis
Ġdiscl osure
Ġinnoc ent
et ics
ac hers
Ġcross ed
Ġwhe at
Ġsubst itute
ĠAss ess
Ġdes ires
ĠH ub
Ġlegend ary
Ġ6 2
Ġaffect ing
S en
l ay
ĠE R
Ġclass ical
Ġhighlight ed
st age
Ġphys icians
m aster
Ġpur ple
Ġg aining
Ġrel iability
Ġleg ally
ades h
Ġjournal ist
Ġveget able
C re
Ġblock ed
Ġcon vention
Ġunnecess ary
Ġvan illa
Ġamen ities
on i
Ġl ighter
Ke y
Ġref use
W S
Ġ10 1
ĠMov ie
Ġinstruct or
Ġf er
Ġcol ored
land o
Ġre nd
Ġhead quarters
Ġathlet ic
ĠG PS
ĠW ant
Ġdis abilities
oles ale
Ġtrave lling
Ġl bs
ĠCom ments
ĠSen ator
ĠRec ord
Ġo w
ĠB oo
ĠSh ipping
Ġcont roller
ĠC ann
ĠW right
Ġcan cel
Ġdro pping
Ġper ceived
er gy
ĠG iven
Ġalbum s
O O
Ġhon ored
k ward
Ġsh ine
Ġkil omet
ã ĥ
ĠAm y
on z
ĠAn na
Ġmoment um
Ġdress ing
ĠSp ot
Ġcry stal
Ġha ck
Ġvari ation
Ġcrit ics
Ġex cuse
Ġstraight forward
Ġdownload ed
ĠPat ri
ĠCom merce
Ġcorn ers
ink le
ad ows
Ġtra ged
Follow ing
Ġo un
Ġd ive
ĠP ath
Ġra cial
Ġpros per
Ġh int
gl as
D et
200 6
Ġquot ed
emet ery
ĠFe atures
Ġep id
F R
ĠCons erv
ĠTur k
Ġcont rary
. ]
St ill
Ġnovel s
Ġshow c
Ġrepl acing
Ġlau ndry
C OM
Ã Ĥ
Ġst ones
Ġblog ging
Ġt orn
n i
ond e
Ġfree ly
Ġlibr aries
ĠG ov
bre aking
ĠCharl otte
Ġsh ake
Ġresist ant
all ing
Ġunder ground
Ġdiv ine
ari os
ĠJim my
pt ic
Ġar c
ĠTH IS
Ġmus h
Ġ198 7
Ġalleged ly
ag u
Ġfl ip
Ġhigh way
Ġh ike
ĠS alt
dep th
Ġdr um
Ġrem ed
Ġintern ationally
on ge
op les
ĠSt op
ym ph
is p
ĠF reedom
pect ives
ac o
ĠOther s
ĠMar g
Ġterror ist
itzer land
Ġthe ore
Ġf et
Ġb rowse
Ġprin ter
ur u
st airs
Ġsec rets
Ġpast a
ren a
ĠChrist opher
p in
Ġbar riers
ĠStr ateg
Cont in
Ġb ol
Ġinte nd
Ġelect ronics
umb led
ment ed
ĠJ en
Ġdraw s
Ġprev al
Ġcomb ines
F S
ĠLead ership
Ġr amp
Ġign ored
Ġp aste
ĠSt ars
Ġpro l
ĠPitts burgh
j u
r ors
v able
ĠSwed en
Ġstrugg les
ĠT ogether
Ġsuggest ing
P aul
ĠR achel
Ġsc ary
Ġking dom
Ġcomm od
Ġsen iors
ard less
rol og
! ).
ĠG ay
Ġstrugg led
ĠN elson
elt a
20 19
Ġvis a
Ġcur ve
Ġp ound
ĠB aker
Ġ18 0
Ġcollabor ative
ĠC raft
ĠP ink
ĠAnt i
G en
ĠG O
ĠBel ow
Ġnutri ents
m aker
Ġre nowned
ĠM as
Ġsurprising ly
Ġterm inal
Ġthr illed
Ġun ve
g hed
Ġclar ity
Ġr itual
iz on
Ġpath s
ĠCar ter
ĠCompan ies
Ġdef ence
ne red
ĠD iet
Ġdram atically
ĠPre p
Ġb esides
Ġval ve
Ġmil it
M R
ĠC V
Rem ember
ank ing
Ġk iller
Ġco inc
pt ions
Ġ5 9
OV E
out heast
ĠG B
Ġthro at
pe red
ci um
Ġtre asure
May be
ol ester
ĠH o
Ġend orse
ĠC ream
eral d
ĠJer usalem
ĠCir cuit
ĠG race
Ġphenomen on
yl on
j ack
ĠR ot
Ġi T
Ġreason ably
Ġbur st
Ġpri zes
qu et
ĠAmend ment
ad i
Ġsu p
Sec ond
Ġpres um
Ġsn ack
P E
Ġshe lf
F ull
arm a
Ġcor poration
ist ically
for ced
idd ing
K S
ĠAr gent
Ġtr icks
ne cted
Ġpo ckets
ĠDe al
Ġwond ered
Ġvend or
Ġwell ness
t wo
Ġnot able
al ia
ĠD omin
Ġas h
Ġdes p
Ġn erve
Ġhome work
us er
Ġnews papers
c ap
ĠConnect icut
Ġform ing
Ġvari eties
in yl
ĠSc reen
Ġl un
Ġh ockey
ag ger
az y
ias m
Ġchart s
ĠDrag on
ĠM L
anc ers
Ġf itted
Ġden y
st ruction
ON E
Ġto ll
Ġsepar ation
ĠP ra
Ġval ued
Ġaccur ately
ĠMain e
dri ven
Ġsa ves
rit is
Ġret ro
Ġr ic
Ġhealth ier
Ġchalleng ed
ĠN J
worth y
ĠF ine
ĠC old
Ġrecy cl
qu es
Ġvari ables
che ck
Ġrespect ed
ĠK rist
Ġdelic ate
Ġbar rier
ĠB art
ĠJun ior
e ared
g reen
Ġv ir
Ġstri kes
a ired
Ġde lete
ĠRob inson
Ġres on
Ġch amber
Ġdon ated
Ġinstall ing
ĠR oc
ĠJ erry
Ġorder ing
Ġcost ly
P ay
Ġsurg ical
ĠTechn ical
ĠRe lease
ĠTr ad
an ne
Ġpartners hips
l arge
Ġ `
ĠL E
Ġdefe ated
ĠBarb ara
i ov
Ġhyd ro
D el
Ġincor rect
Ġgr asp
Ġinflamm ation
ĠOr d
Ġin clusion
n ote
ch air
Ġ6 8
ĠThanks giving
ing ing
Ġcontinu ously
N C
ĠTechn ologies
Ġtw in
M B
ĠE lement
Sept ember
Ġrecip ient
Ġoccas ional
ĠGra ham
f are
Ġpredict ed
Ġcondition ing
Ġadjust ed
S outh
Ġfloor ing
M art
ĠCar ibbean
ĠReg ion
Ġp ine
Ġcon sole
Ġatt ractions
ĠRes ults
Ġsoon er
ĠMan hattan
Ġpar liament
pos ition
ĠNY C
ĠH ans
ĠHy d
Ġcompan ion
ar ity
Ġinter rupt
c am
Ġj aw
sec urity
Ġst abil
Ġind ividually
ĠCom ment
Ġnavig ation
Ġunt o
Ġtransform ed
Ġconduct ing
m ary
Ġreport ers
Ġdem o
Ġtarget ing
Ġl over
ĠJ obs
iction ary
s ize
id ges
Ġinstit utional
Ġtra uma
GB T
Ġunder neath
ĠY ellow
oll ar
On line
Ġded ication
Ġwel comed
Ġt ar
Ġpo em
qu al
Â »
ĠC offee
ĠS au
ograph ical
ĠHun ter
Ġp ose
ust ral
ist ant
Ġp ork
ĠSe an
Ġuncertain ty
V P
an cer
ĠInd ividual
iz ard
DA Y
ĠTreat ment
u v
Ġcle ans
ĠLouis iana
Ġpri est
ĠO bs
ĠSa udi
Ġsubsequ ently
u it
Ġbuild s
B ay
Ġf ate
Ġexp ed
clus ions
ĠHT ML
Ġwood s
Aut hor
V I
Ġthe ft
or ph
ĠGu y
st it
Ġven ues
port ant
Ġstrength s
Ġappl iances
ĠH us
ĠL uck
Ġcompl ain
Ġconsum e
Ġg au
ĠF u
Ġpoint ing
Ġdeal t
Ġun pre
ĠCol lect
ĠPart icip
Ġorient ation
Ġmetab ol
Ġseason al
Ġsurve illance
Ġm ice
ape l
ĠM and
ĠP ent
Ġwa ited
200 5
ĠAdd itional
Ġdes erves
Ġnow here
Ġst adium
W est
Ġd imin
Ġcon gress
Ġp ension
Ġloyal ty
Ġmob ility
Ġj et
Ġw ound
ĠM all
Ġre nov
ĠAud io
urch ase
c os
ĠC itiz
Y eah
Ġfil ters
S D
Ġland ed
Ã §
ern and
Ġo d
Sh are
ol o
D ep
ĠAn imal
ĠPark er
com pass
ibl ical
U K
S w
al so
ĠS kin
Ġunderstand s
.. ...
ĠP resent
OR D
pos ed
arent ly
Ġinc idents
ĠW a
Ġpsych ology
uis ine
Ġcelebr ity
O pen
st ration
Ġcon ferences
Ġpart ly
Ġre ass
Ġun re
Ġm unicipal
Ġdistinct ive
ĠF ashion
ĠCamp bell
aceut ical
ment ation
Ġb er
Be ing
ĠN BC
Ġfil mm
Ġcontain ers
bu ilding
Ġmod ules
ĠMad ison
Ġmyster ious
ure rs
Ġobs ervation
mark s
ĠF al
Ġra ck
Ġdig est
othe rapy
Ġnurs es
Ġdecre ased
ĠA aron
Ġpart ial
Ġbed rooms
Ġde le
a ci
Un fortunately
Su per
ĠCert ified
Ġ198 6
Ġdress es
Ġspecific ations
g un
Ġbo oth
ĠMet ro
Ġw and
ĠS ens
Ġcontro lling
Ġcontin ually
u i
Ġanim ation
Ġdam n
ig s
Ġch apters
Ġinf ant
Ġfunction ing
Ġpro secut
Ġeas iest
Ġprivile ge
b n
ur ring
Ġconstit utional
Ġair line
Ġbase ment
H ello
Ġt ropical
um ph
ag g
Ġremind s
in ance
ĠWar ren
Ġintegr ate
Ġfl ows
Mich ael
ĠS ett
Ġal ph
Ġout let
Ġinfect ed
ĠT arget
Ġconv ince
Ġca f
Ġvol umes
Ġchem istry
olester ol
Ġw ars
ĠS in
Ġaw kward
ã ģ
Ġno on
IT E
g roup
ĠR idge
Ġrel atives
Ġappear ances
ĠNev ada
Ġsub t
Ġcount ies
ĠSu ite
Ġroll s
ĠH ousing
ĠG un
str ong
ĠInvest ment
Ġindepend ently
ĠB eth
r imin
ĠTh ailand
ĠUp date
Ġb ikes
Ġpre ference
ĠG ift
Ġvisit or
ass ador
Ġsust ained
Ġcust ody
ĠN CAA
ĠE ye
EN D
Ġsens ors
ol ved
Ġemb edded
Ġan k
Ġtact ics
Ġb ump
Ġf are
Ġbr on
Ġbrief ly
ĠL em
Ġeduc ate
Ġcra w
Ġ198 4
Ġlaunch ing
o ks
Ġsens itivity
Ġm arch
Ġdomin ant
ĠT ar
ĠU V
Ġcamp s
Ġchar m
m us
ose x
Ġpro x
Ġmin imize
ĠX box
Ġmand atory
i ated
Ġfor ums
Ġdon ate
ĠS ad
ĠP in
Ġneigh bour
Ġgovern ance
Ġencoura ges
x ide
ĠJ oh
ir s
iff s
Jan uary
ra ham
ĠGet ting
Ġeditor ial
G S
R ight
ĠAN Y
ĠM C
sh irt
U I
Ġtravel ed
Ġmod ify
ĠHol iday
Ġcon tend
Ġshe ep
Ġport al
Ġlit igation
new s
je ctions
ĠT odd
Ġactiv ists
Ġtail ored
us cript
Ġafter wards
ĠAr thur
ĠFa ith
J un
Ġve gan
Ġd ub
Ġam p
Ġtrans it
ĠLeg isl
Ġtal ents
ĠH ung
th an
ans hip
Ġl ined
Ġstress ed
Ġburn ed
Ġeconom ics
ĠBroad way
om as
u ced
Ġpartic les
Ġch ains
ont al
Ġrel ie
Ġ7 00
r in
ĠF ocus
Ġsa fer
Ġman ages
Ġca ution
e ks
ĠC ars
ĠG T
ĠF isher
Ġle ver
Ġprov in
Ġim aging
S et
i op
Ġm aj
Ġalleg ations
ro ck
Ġ6 3
Ġevol ved
Ġj unk
ling ton
qu ire
ĠG round
Ġr ug
Ġpress ing
Ġimm ense
Ġdisapp ear
Ġbre ach
e ous
Ġro ster
Ġb ree
Ġb orders
ĠW edding
end ing
et ooth
Ġanaly sts
ĠG A
ĠK al
Ġanaly st
Ġhousehold s
ĠEmer gency
Ġconsist ency
ist ance
ĠE SP
P erson
Ġsuggest ion
Ġco in
Ġfarm ing
d ig
ap or
Ġobs ervations
Ġexecut ed
ĠTok yo
Ġdraw ings
ĠG a
ard o
ĠR O
Ġtast es
Ġfirm ly
Ġw ages
Ġro d
Ġmin eral
Ġr anges
Ġstart up
Ġobtain ing
Ġadapt ed
Ġrecy cling
Ġtradem ark
e re
Ġs illy
ĠMur ray
Ġdisag ree
Ġdef icit
Ġtast y
Ġenthus iasm
ĠW oman
us ive
Ġclean ed
ip h
Ġaff air
ĠClin ical
Ġp el
br is
ĠFrank lin
Ġd ated
ĠV erm
ĠMet al
ĠL arry
s ervice
ĠAssoci ate
M em
id el
ĠW ard
Spe cial
Ġp ics
ĠA y
Ġinflu ences
Ġprec ision
ĠF BI
Ġr ides
ul ator
bel ie
Ġdiam ond
Ġbes ide
Ġdest inations
Ġpromot ed
F igure
Ġc er
ĠD im
Ġattrib utes
Ġsend s
ĠVal ue
Ġcross ing
Ġw ax
Ġle verage
ĠMult i
ĠT ower
Ġbr ide
ĠComm ons
Ġmagn ific
Ġadj acent
Ġ> >
ĠR ent
N orth
Ġp itc
ĠDel ivery
ĠPer ry
ĠLead er
Ġâ Ĩ
ĠDiam ond
Ġher bs
ĠMor ris
ĠLaur a
Ġbu gs
Ġcoll apse
ĠS L
Ġautom ation
Ġatt raction
Ġloc als
Ġ198 5
ĠB io
Ġoccup ied
Ġlight ly
he lp
b ling
H R
Ġsl a
Pl ay
Ġprop ag
Ġprogram mes
Ġur ge
Ġcomprom ise
Ġcro ps
ĠIndepend ent
Ġfun eral
inn amon
Ġchar ming
ĠNet flix
Ġresol ved
ĠW onder
cent ury
Ġdesper ate
Ġacknowled ged
c ode
Ġexpect s
claim ed
omet ric
20 20
Ġcou ch
Ġspons or
ed u
Ġmod est
uro pe
ĠAdminist r
ri ving
ble m
ĠS ay
ĠBr ight
Ġp ond
C ent
ro se
s k
ĠAl b
Ġaest hetic
AS S
Ġbehav iors
iv ic
ĠRestaur ant
ĠSw itzerland
Ġinquir y
Ġmerchand ise
Ġlog ical
Ġm os
Ġrenew able
Ġfra gr
ps y
Ġapart ments
Ġingred ient
Ġb urg
ch i
Ġhomeown ers
Ġfat al
ĠPalestin ian
ve ment
Ġpract icing
Ġst arter
Ġdis advant
ĠiT unes
ij ing
Ġkick ed
. ).
p ace
En ter
Ġviol ations
ert ation
ĠS leep
qu est
Ġtun ed
Ġrest ored
ĠDI Y
P roduct
Ġm ales
Ġin ject
Ġjump ing
Ġbl ast
r ates
as ive
Ġgrand mother
S ur
Ġrecruit ment
ĠD est
Ġpack ing
ĠS ri
Ġcoup on
ĠBeaut y
ĠS omething
ro lling
ĠT rain
Ġnot ification
Ġcy cling
ĠNAS A
Ġappear ing
n or
Ġdem ocratic
Ġmiss ions
mind ed
ĠT ig
Ġrec overed
Ġbas ics
Ġste al
Ġhand les
Ġaw a
Ġb ored
ĠV oice
Ġh o
Ġhor rible
Ġtransp arency
Ġexist ed
AR E
M M
Ġ6 7
Ġgener ating
Ġd ot
Ġout lets
Ġmay or
ĠG er
AS H
Ġgrad uation
f old
Ġbet a
ĠSim ple
Ġscen arios
N ovember
form ed
ad ays
Ġweekend s
ĠH amp
Ġsh y
Ġadv ances
ĠLe x
ĠCur rently
Ġprof itable
re my
Ġeduc ated
Ġmon ster
c in
Ġth resh
ĠM ath
Ġunder graduate
f i
Ġse ating
ential s
m art
ro e
Ġtri ple
Ġtem plates
Ġbu ck
ĠT a
Ġhe ated
og an
Ġcounter part
Ġext rem
Ġavoid ing
Ġlong est
Ġtravel s
B usiness
Ġac ids
rop olitan
ra cle
ĠD a
ĠMor ning
ĠBar ack
Ġgrab bed
ĠA le
Ġel abor
ĠReg ister
Ġb ases
Ġc ave
Ġcomment ary
w ritten
ubs cribe
ĠUnivers al
Ġhero es
unn els
Ġimpro ves
Ġdelay ed
Ġphys ics
Ġrid ers
h is
ĠD al
Ġser ial
ĠC ass
Ġtra ins
Ġkne es
ĠDise ase
ĠP ad
Ġsus pected
Ġdec ides
Ġshock ed
l on
Ġaw ful
Ġto b
ĠP ic
ĠR ule
Ġcomp ound
ul ent
Ġflo ating
Ġspa cious
F urther
ll ers
Ġfin an
th a
Pres ident
Ġmod es
Ġ6 1
Ġmon etary
Ġsport ing
as ury
ĠComm and
Ġproceed s
Ġc ant
Ġinv itation
Ġbook ed
R ec
Ġre un
fl u
Ġdim ension
st art
Ġj am
ĠGr ay
ĠB ah
Ġequ ality
Ġcir cles
T w
oot ing
ĠEv ans
ĠPal m
Ġsymbol s
Bu y
ĠP od
Ġsurve ys
ĠSch olars
Ġpromot ional
ĠHe nd
Ġbit ter
ĠCor porate
Ġdescrib ing
Ġind ication
Ġdist inction
Ġval ley
ĠOr lando
Ġcle ared
ĠOper ations
ĠA w
ĠF er
Ġst iff
âĢ¦ âĢĿ
Ġje ans
K now
ĠCh i
wh ite
chn ology
ge red
ĠSub s
Ġload ing
en cer
ĠK ay
Ġdeal ers
Ġp ile
ĠCur rent
o ft
on om
ĠB ou
Ġcl ips
O X
roduct ive
W ind
d irect
Ġc yl
p her
Ġm igration
Ġvis ibility
Ġsell s
Ġsol ving
ĠSol ar
+ +
ĠR A
Ġsl ides
Ġsk ip
Ġappro aching
ĠR ules
Ġridic ulous
Ġglob ally
ĠRe ally
Ġdetect ed
re ls
ĠSum mit
G reen
id o
Ġh iding
Ġneed ing
Ġback ing
Ġconj unction
Ġm urd
ĠT rip
ĠJohn ny
Ġtrib ute
Ġbe ars
vers ion
Ġcry ing
Ġd airy
Ġor g
du e
Ġmagn etic
Ġp orts
ĠOsc ar
ass y
ĠWh atever
ĠCor ps
C are
ĠT ouch
ĠV i
Ġind irect
Ġvol tage
Ġun h
Ġra ises
anc ies
Ġsch olar
oc y
Ġknowledge able
ĠUp on
ĠRem ove
w atch
Ġopt ical
Ġpress ed
Ġ ic
Ġbl oom
Ġint ensive
ĠW elcome
uff y
Ġgrad uates
Ġn an
ĠF ro
ĠPost ed
ed ed
ĠH i
Ġcloud s
ĠO ften
Ġpun ishment
ri ors
Ġrese mb
un ge
ĠO d
ĠCo al
tain ing
ĠTransport ation
h u
iz ers
1 20
M ax
ĠEd ge
ĠL ux
Ġsh ades
ĠGr iff
Ġspread ing
Ġpract ically
ra h
ĠMichel le
Ġlif ted
Ġfr idge
Ġpat io
Ġreg ret
ĠK night
Ġh ind
ĠE S
Ġcrypt ocur
Ġpharm ac
Ġ verse
Ġf ires
p ensive
Ġb om
Ġwat ches
P H
A nt
ĠL GBT
Ġmax imize
is ode
ro be
Ġthank ful
Ġconcent rate
Ġwithdraw al
ĠD at
Ġdead ly
ĠJ azz
ĠMarsh all
ĠV irtual
Ġhold er
Ġbra ve
N ever
ĠIS O
M E
arch y
Ġintrodu cing
Ġpart ially
po ons
Ġpursu ing
ĠIS BN
ĠA bs
C ome
be c
Ġclos et
Ġpray ers
Ġde ce
Ġdig it
g irl
ĠP H
ĠAl ice
ĠQ ual
Ġbatt les
ĠArk ansas
Ġback s
Ġcompl ications
ĠCommun ication
Ġtra ce
ĠFr ame
Ġb atch
ĠDou glas
Ġnic he
ĠOlymp ics
ĠM O
Ġne arest
Ġachieve ments
T om
Ġwel coming
Ġf u
Ġdispos al
m i
Feb ruary
U E
ĠF igure
Ġfundra ising
ĠB ond
ĠBet ween
ĠLe ft
ĠC BS
ĠY oga
N ational
f ive
Ġlist ened
ĠFed eration
u ity
ĠF em
Ġen zy
ĠSw iss
Ġtrain er
ĠB ott
if le
r ant
ĠTool s
ĠI R
ĠThe rapy
Ġbra ce
ĠT ob
ĠO tt
ĠGr ade
s ur
ĠG OP
li ver
Ġsw ord
ĠChristian ity
re f
om er
ĠF ly
omet er
Ġrefres hing
Ġch ill
Ġconv icted
ĠN at
Ġassoci ations
Ġthe ories
Ġb anned
ĠF am
ĠApp ro
V C
Ġstrict ly
ĠR ice
Ġfert il
ĠE li
iv an
De cember
Per haps
. ),
Ġf oss
ĠU ntil
Ġtrans cript
act s
Ġed itors
ĠRob in
ĠBr un
Ġprot ests
Ġeth ics
Ġvary ing
ĠCond itions
ĠDak ota
Ġspir its
Ġlaugh ing
h al
ĠL l
ĠJ ava
es ity
ĠB ag
ĠG raph
OU T
Ġcons ensus
ĠH ud
Ġappoint ments
b ase
Ġsac red
R ich
oot s
ĠCons umer
ĠDub ai
Ġdu pl
am an
ĠCommission er
B re
Ġsubst ances
Ġp airs
ĠValent ine
Ġspons ors
ĠEqu ipment
ĠLab our
ĠK aren
ĠCol on
Ġsear ches
ens ed
ott age
AC E
j an
Ġcou pled
Ġprohib ited
G R
Ġch ick
orient ed
ĠR ing
Ġimp osed
ion ed
P ar
ĠAn im
ĠDes k
Ġcoast al
ĠS ou
ĠS el
Ġbo il
Ġpipe line
Ġtraged y
ĠM I
Ġfr ight
ĠMon itor
ĠMalays ia
ĠIn iti
ock et
Ġgar bage
at ility
M D
Ġp df
Ġw re
nd ant
Ġp ist
ip her
ĠRog er
ĠAth let
Ġsec urities
Ġprem ier
Ġast ron
Ġsubscrib ers
9 00
ĠBrother s
ĠW A
Ġle isure
pir acy
Y et
Ġf ond
Ġarri ves
ĠI BM
Ġclean er
Ġautom otive
Ã³ n
Ġeval uated
ĠOpt ions
d og
** *
ĠColl ins
Ph ot
Ġb ail
Ġint r
ĠR V
Ġprest igious
th on
ĠG rey
Ġterror ism
re k
ĠF ell
Ġroll er
ĠV ision
ĠPrem ium
Ġst airs
Ġreward ing
Ġcreat or
Ġfar ms
Ġfound ing
Ġf isher
ĠR acing
Ġrem od
ĠG ill
ĠEconom ics
Ġconv iction
Ġorgan izing
th ink
olog ically
Ġcont rad
Ġcounsel ing
Ġrun ner
Ġrad i
Ġdom inated
ĠMos cow
Ġinvestig ating
Ġtomat o
Ġv inyl
ĠOver all
ĠMil itary
Ġcomment ed
V ery
Ġv o
ĠL if
Ġgl uc
Ġfort unate
h ole
ĠS ud
Ġannoy ing
ab ul
oura ge
ĠP ope
Ġas leep
ĠS ER
Ġdist ant
Ġdyn amics
Ġbi as
Ġsn acks
Ġther mal
ig ma
Ġcon greg
Ġrele asing
1 000
Ġg ospel
cl ick
Ġpen cil
ĠA CC
Ġbl ade
Ġj ar
Ġnecess ity
ĠN ep
G M
Ġcirc ulation
Ġnot ing
and ra
appropri ate
ĠBapt ist
Ġz ip
Ġattend ees
oub ted
Ġ9 7
Ġrespons ive
Ġorganiz ational
Ġs q
d rop
J ames
Ġlau ghed
ĠCN N
Ġfore x
J ack
Ġu gly
ĠBut ter
Ġmet h
te lling
Ġ7 8
AC H
L P
Ġre ign
ĠH omes
ĠV ac
ĠAd obe
Ġcraft s
ĠR F
ĠMit chell
ĠA RE
ĠL uther
Ġun ited
Ġfe ver
ĠK ath
ank a
Ġconsequ ence
Ġmid st
ĠStr ategy
be cause
Ġd ign
ĠF an
Ġcan vas
Ġspe cially
Ġtransl ated
Ġrecru iting
ĠP ap
ĠAd ult
Ġp ale
ĠF ra
m ill
ĠT on
Ġtop s
Ġhom emade
ĠBoy s
ĠSt orage
Ġfem ales
ĠL ie
ĠCl ay
Ġquiet ly
Ġmem br
ĠM ason
Ġso y
Ġcompar able
Ġ9 8
Ġsumm it
= "
S an
um bers
Ġk its
Ġg em
ep s
Ġcor rupt
Ġadjust ment
ĠT N
Ġclos ure
T ON
Ġm erc
Ġse gments
Ġhas s
Ġout line
Ġst ating
Ġkey words
Ġcost ume
Ġam bit
Ġde bris
ĠL ower
Ġstruct ured
B r
he ro
ĠI an
Ġconsider ably
Ġspot ted
Ġadvoc ates
Ġabsor b
Ġcont am
intend o
Ġs ore
ĠF urn
Ġdes criptions
ĠTr uth
cl osed
Ġwitness ed
ard ed
Ġbreak down
Ġsun ny
Ġconsist ing
Ġra pe
ĠH unt
ac re
Ġvill ages
ced ented
j amin
le tt
Ġl iable
ĠCamp aign
ĠT ol
Ġcount ing
Ġearth qu
d ed
r itional
irm ingham
Ġz ones
A K
ch a
ĠMc Donald
ios ity
ĠOrig inal
Ġthe rapeutic
ĠFl oor
Ġware house
ĠBill y
ch ron
ĠDirect ors
Ġroy al
Ġpre liminary
Ġsm iled
Ġamend ment
Ġinev itable
Ġpen is
ĠIntell igence
ĠF el
ĠTh or
Ġadjust ments
te es
Ġaccess ed
ĠIm ages
ĠLiver pool
ĠO ri
ĠAd vert
ĠCh rome
Ġmail ing
H appy
p al
ĠKh an
Ġdess ert
Ġc attle
by e
Ġadvis or
Ġle ar
Ġplug in
Ġ7 6
ĠSp a
Ġf ract
am as
Ġener g
Ġp anc
Ġsubstant ially
ĠStan ley
ĠF if
Ġprem ises
Ġv iral
Ġtravel ers
Ã Ĺ
Ġg ri
ĠC oc
heim er
Ġrot ation
ĠAct ive
Ġmeant ime
ill o
Ġenhance ment
Ġpres cribed
ï ¼
ĠS und
Ġfor cing
ie ces
Ġassess ed
Ġgl uten
Ġfund ament
ĠAl t
Ġsw all
ĠB ird
ĠE le
Ġ9 00
200 4
Ġfaith ful
Ġare na
ĠCl ar
Ġstat istical
Ġbon uses
Ġassign ments
Ġtum or
Ġencount ered
Ġunf air
Ġm asc
ĠVis ual
Ġp ear
Ġconstit u
Ġacc l
ĠR d
Ġsp am
ific ates
P I
ĠBe ijing
ĠB os
ĠF IG
Ġind ul
Ġconflic ts
Ġg ad
ot hing
Ġ1 30
Ġtend ency
ĠLink ed
Ġalgorith m
ĠPro gress
Ġapplic ant
Ġpo le
ĠLet ter
h ma
as is
ĠG ard
ĠIn novation
Ġaccording ly
r ust
ĠN ap
cipl inary
Ġforest s
ĠPan el
Ġtob acco
Ġsacr ific
P ort
ĠEm ily
ĠJess ica
ane an
Ġmat ched
Ġinvestig ations
Ġconf using
Ġcatch ing
ag ne
row ave
Ġhe lic
The ir
Ġfrustr ated
ĠAn sw
Ġcar riers
ul u
Ġfif ty
Ġhes itate
on al
Ġpromot es
p op
ĠS ugar
Ġinflu ential
Ġg ard
Ġshe er
Â ´
ĠR io
ll o
ĠK u
Ġacc ent
it ol
Ġn urt
Ġabs ent
Ġswitch ing
Ġl enses
N ov
Ġcoron avirus
Ġm ud
P age
Ġun ions
ourn als
Ġrhyth m
Ġe ighth
ĠN HL
Ġback yard
Ġ7 7
Ġmain tains
ĠT ampa
US A
hes s
Ġdiet ary
ĠHe aven
ĠBe gin
Ġreview ing
f our
Ġproject ed
Ġrespond ing
Ġstick s
Ġ6 9
Ġscient ist
Ġgr ill
cu its
Ġplant ed
Ġin clusive
Ġfin ishes
Ġwitness es
Ġst rand
ĠInd ians
B ER
Ġgood ness
ats on
U RE
l ord
ess ional
Ġm ock
Ġthreat ening
oubted ly
T able
V al
Ġb ureau
ĠLind a
ĠP ages
Ġbi ology
at on
p ically
ed e
om ore
ri v
Ġst ew
Ġdr ill
Ġcell ular
ĠPol ish
ĠCam eron
b one
um atic
Ġrev ised
ĠY e
ĠPal ace
ĠResp ons
T ech
ener y
ĠS ustain
Ġintegr al
Ġout look
oster one
Ġmet er
ĠR ange
ĠSt ories
Ġbless ing
ĠS end
Ġlin ear
ĠH alf
ĠK l
Ġfr ustration
Ġneg lig
Ġpan ic
Ġconstit ution
Ġpractition ers
Ġavo ided
ur able
Ġnation ally
Ġri vers
Ġarri ving
Ġund ers
Ġinj ection
ĠO t
ount ain
L ong
Ġbell y
ĠChel sea
ĠRich ards
Ġcha os
Ġhe els
ĠP D
uck er
ĠIndones ia
O H
ĠK id
or us
ĠS pect
ĠV iol
ĠProgram s
Ġm es
Ġalt ogether
conom ic
Ġdemonstr ates
ĠSh an
Ġtatt oo
Cl ass
Ġb aked
ĠG ot
Wh ite
Ġexec ute
un ny
ĠL ang
Ġco ating
Ġtouch ing
Ġabund ance
A ir
G H
ĠD ry
z o
Ġpen alties
Ġment or
h alf
Ġpe nding
ĠLe ave
ĠCo ordin
bor ne
Ġt ile
at ched
ĠZ one
Ġpot ato
Ġtherap ist
Ġatt ain
Ġde ployment
pa id
Ġadjust able
Ġbub ble
ĠN one
ell ed
ĠAny one
Ġn ails
ĠThe ater
pl ess
Ġstream s
Ġarchitect ural
T otal
Ġm elt
Ġbelong s
Ġillustr ated
Ġcontrovers y
arat us
Every one
ie val
ĠI RS
Ch ild
M en
ĠSo on
Ġtou g
ĠD elta
Ġbo asts
Ġsumm ar
Ġoccur ring
? âĢĻ
in is
id elines
it le
ĠR isk
ĠAg ent
Ġqu ery
sel s
T M
ĠPro s
ĠTh ai
akes pe
Ġnew er
ĠSy n
Ġassist ed
Ġdocument ed
Ġchar ter
ĠH at
Ġdel ays
ze ch
Ġpu pp
u ments
ION S
Ġd ia
ĠMur phy
ĠL ocation
Ġear liest
Ġconnect ivity
Ġlack ing
Ġso vere
Ġsci ences
ĠTy ler
atin um
Ġmin erals
Ġbeat en
1 10
Ġprev ents
Ġarg ues
ĠCl imate
W A
r int
Ġpers pectives
Am ong
Ġhe d
Ġthick ness
Ġrel uct
Ġc it
com fort
f il
Ġhapp ily
Ġaltern ate
ĠStr ong
Ġambit ious
Ġl amp
ĠW rite
Ġ' '
Com p
Ġd a
Ġre ck
Ġcomb ining
Ġdismiss ed
as ma
io xid
l ad
Ġsent ences
Ġgra ve
Ġremark s
ĠSam uel
ist le
ĠAl f
ĠTai wan
Ġen rolled
C ity
ĠT erry
M icro
ĠR y
ph ony
ĠR ou
Ġindic ator
Ġadvoc acy
Ġappet ite
M at
ĠM R
Ġ198 2
Ġelement ary
Ġf el
ĠLiber ty
Ġsp at
Im age
ĠLic ense
ĠL oss
ĠiP od
Ġparticip ant
H ot
Ġg room
Ġan onymous
Ġdistrib ute
em pl
Ġfrustr ating
Ġman uscript
Ġsurround ings
ll i
Ġsp ine
ĠUs ers
S l
Ġped est
Ġportra it
place ment
ic ting
OM E
Ġshel ves
G O
Ġin ning
Ġdis charge
edd ings
Ġ8 8
Ġfr ank
ig o
Ġrun ners
ĠT u
Ġwr ist
Ġnom inated
w y
ed a
Ġup s
our t
Ġres ign
ĠBar ry
ĠCoun sel
Ġl id
ĠN i
ron es
Ġur ged
ĠM t
ĠY ahoo
Ġmort ality
Pol ice
ĠM atch
Ġbrows ing
Ġch olesterol
gg y
st an
ĠSt orm
Ġbreat he
Ġres ur
st orm
Ġunpre cedented
Ġd amp
ĠRes ource
ĠPol and
ĠKe ith
Ġsl ice
Ġfle e
c ost
st ud
Ġle nders
P ER
Ġlect ure
Ġon ions
Ġmem orial
ĠRep air
ĠUs ed
ĠEag les
Ġlicens ing
Ġign or
Ġsynt hetic
Ġd read
pe ople
o is
Ġt anks
Ġtrad ed
Ġdefe nding
Ġinterview ed
Ġcomp aring
Ġbo om
ĠH orn
Ġen act
s a
Ġc uisine
im edia
ĠR AM
ĠIn sp
c ulation
h uman
op ter
ĠMan ual
ĠT ed
Ġ7 3
Ġport ions
Ġanim ated
Ġen compass
play er
Ġbar rel
Ġsche mes
ĠWe ather
Ġmid night
Ġpursu it
Ġin aug
Ġdevelop s
ĠBe yond
an im
Ġmic ros
Ġenter prises
L ocation
n on
ĠVol ume
ĠPolit ical
Ġmagnific ent
sec ond
Ġaff irm
ĠPhot ography
ĠCh oice
ĠCh icken
Ġconsum ing
e lect
p df
ĠVe h
Ġfe as
ĠE PA
Ġcris p
Ġa ug
or ig
ĠM asters
ain ted
Ġmedic ines
Ġcom ed
Ġrefuge es
Ġy arn
ĠCol omb
Ġindic ating
Ġwas hed
ĠAdd ress
an as
ĠM erc
akespe are
ĠC AN
Ġconsum ed
ĠBas ic
Ġt el
ch ant
Ġman ually
ĠDou g
ĠMar vel
Ġwealth y
ĠKnow ledge
Ġm amm
ĠS N
Ġextend ing
ĠO pportun
Ġdu o
Ġtables poons
st ory
er ness
ĠH ence
Ġv iable
Over all
Ġour s
al g
Ġ198 3
Ù Ħ
port ed
Ġpal m
Ġpu zzle
ĠF ight
ĠL en
Ġoff set
Ġprotect s
Ġt ens
Ġsatisf ying
Ġcharacter ized
Ġret ention
b in
in come
um ns
Ġd ip
ĠP ier
cer pt
Ġdest ro
Ġcl ay
ĠDemocr at
ĠBuff alo
i pper
ĠA id
Ġflow ing
ĠRegist ration
Ġbl ues
ĠGl en
F unnels
e u
Ġl ounge
ĠP ul
ĠP oll
Ġlif ting
Ġfor b
ĠPl atform
eng u
Ġconst itute
ĠWhe el
N eed
Ġinf ring
R ober
Ġdys function
Ġaccl aim
Ġrem edy
ĠNever theless
ĠDoc ument
av ailable
os ures
Ġmess aging
ri k
Ġreal m
Ġmusic ian
Ġoptim ization
ĠPub lishing
Ġintim id
Ġl ining
Ġgu ilt
Ġcru el
Ġsp ite
Ġfat igue
ĠSher iff
omet ry
ĠðŁ Ļ
Ġu k
Ġart ic
ĠColumb us
ĠSt age
M ENT
ig hed
ang o
Ġdepos its
Ġcompliment ary
W ould
ĠCon ne
er to
an ium
ĠDe fe
âĤ¬ âĦ¢
Ġelev ated
Ġp ussy
ĠProdu ction
re z
me ga
Ġbackground s
Ġlux urious
sm ith
T Y
Ġjoint s
ĠExt ra
Ġadministr ator
o pp
Ġg aps
... "
Ġobst acles
sen al
Ġjud icial
Ġmotor cycle
Ġl os
Ġhun ger
i w
Ġqu een
ĠUlt ra
al ph
Ġpack s
Ġvit amins
F ort
Ġout lined
ont in
Ġeat en
Ġcoordin ator
Ġse ver
Ġcraft ed
Ġpoor ly
ou stic
un ks
ĠAv oid
ĠBud get
g ot
OR K
amm ar
ĠIn side
Ġgl oss
f its
Ġkid ney
ial is
200 3
ĠB achelor
Ġsh aft
c ott
ĠCamp us
r ong
Ġste ering
Ġso fa
ĠM ale
ĠFe el
Ġ9 6
H ope
Ġt iles
af ood
Ġprior it
S am
Ġ19 20
Ġl ane
Ġact ed
ĠGr an
Ġqual ifying
ĠBr ing
ĠHamp shire
Ġa ffe
c opy
Ġle nding
ĠPet ers
Ġe co
Ġe ternal
AG E
ĠR ES
Ġhorm one
ĠC rown
Ġad oles
Ġsell ers
D ata
Ġ7 4
Ġfresh man
IM E
ĠW ol
ĠESP N
Ġth rive
cel ona
Ġch rom
L ink
iot ics
Ġinhab it
we alth
r ise
ĠD ress
Ġstre ak
iv est
Ġref resh
ut o
ast ics
Ġwarm th
d el
Ġres ervation
Ġag rees
Ġmar ry
Ġextend s
C ount
Ġphr ases
---- ----
Ġto dd
em en
Ġpe oples
Ġpo et
ix on
ins p
Ġfor ty
ica id
B E
ĠBeaut iful
Ġtrick y
Ġath lete
ĠWik ipedia
N E
cl ock
Ġpromot ions
Ġcomm ands
Ġper fection
Ġpubl ishers
ĠJ ake
com p
Ġfra ction
ĠBl ues
Ġprison ers
Ġsod a
A tt
Ġposition ed
Ġd ense
ĠGreat er
Ġdeploy ed
ĠG host
ĠChe f
ĠGrow th
av an
Ġimag ined
ber y
atter y
A h
d r
Ġsl ave
Ġmole cular
F our
ĠJ oint
Ġemotion ally
Ġp est
ĠR S
Ġfif teen
G old
Ġjournal ism
ĠEs pecially
Ġuncle ar
Ġpl umbing
Ġmodel ing
ĠPhil ip
ĠAgric ulture
ĠK el
Ġcr ust
Ġarch ive
Ġar th
Ġcool er
Ġemer ge
Ġ197 9
ke eping
Ġtu ition
Ġjust ify
Ġro ok
Ġass ure
ĠTra ck
Ġnot ified
ĠPart ner
Ġfort une
Ġcharacter istic
ĠPark s
Ġanx ious
em a
Ġmed ian
Ġconnect s
Ġinf in
ĠOffic ial
oty pes
boy s
Ġh ilar
Ġas pir
ĠUs ually
Ġcoal ition
ĠStan ford
ĠG ospel
Ġg rief
ĠCost a
ĠT un
Ġsh ifts
Ġa meric
Ġsl im
Ġrest ra
Ġpharm acy
ĠTurn er
inc inn
Ġintu itive
ar re
ĠM es
Ġcreat ure
ĠToy ota
ĠSing h
Ġtast ing
ĠTurk ish
ĠTH AT
ach t
Ġcon form
ine e
ĠCh ocolate
ĠMon te
Ġtra p
Ġsal mon
hed ral
ĠSe ven
ĠBlu etooth
Ġex ams
Ġinst inct
Ġname ly
Inst ead
ĠC ertain
Ġcar go
ĠDep uty
ah o
ĠG ardens
Ġtou ches
ĠM aj
Ġlength y
urd y
ograp her
ĠLink s
Ġmed al
ust ers
ĠStud ios
ĠAssoci ated
ĠWood s
Ġperman ently
ĠPot ter
W E
ar se
Ġco pe
Ġgu ards
itch ing
Ð »
Ġcomp ounds
Ġcinem a
Ġapp les
I Z
Ġfle w
cons cious
Ġsmooth ly
ĠLe ban
ĠE L
bor ough
Ġre he
Ġneed le
Ġblog ger
Ġch ron
Ġbe am
Ġmet als
Ġsun light
em porary
Ġaccount ability
F O
Ġcock tail
Pr ice
Ġret rie
Ġdur ability
Ġthresh old
Ġassess ments
ĠWal ter
ĠL oc
iov ascular
es pecially
Ġmet ap
Ã© s
ĠW orth
ier ra
Ġf ame
ut t
Ġr ul
Ġsh ar
Ġcr ushing
An n
s ki
um per
ĠBenef its
Ġan ge
e em
ĠWeek ly
Ġvar ies
ĠPrin cess
Stud ents
Ġpropri etary
Ġcustom ize
Ġattach ment
m are
Ġrep et
incinn ati
Ġdiscuss es
Vis it
ced es
I X
ĠE gg
Ġsched ules
Ġvine gar
ĠBM W
c ourse
Ġdisapp eared
Ġdis g
Ġinv asion
ĠD oor
Ġrec ession
Ġhabit at
Ġg inger
Ġless er
Ġmach inery
Ġrespond ents
Ġcal cium
Ġfinan cially
ĠRes erved
Ġappro ve
Ġst yl
ĠApp ly
Ġrank ings
Ġfabric s
ĠOrgan ic
S ep
Ġn u
Ġdo i
Ġmind set
Ġb od
Ġoccup ation
Ġinex pensive
Ġcoll aps
ĠStand ards
thod ox
ffic ial
are l
Ġun con
Ġsince re
V ideo
Ġbenef ic
Ġball ot
Ġcon clude
Ġne ur
ĠS oph
ĠMar ie
Ġall ies
Ġinc ons
Ġsold ier
Ġw ool
ĠImp act
Ġincent ives
s or
ĠS K
Spe aking
N OT
ann on
D ig
Ġk g
Ġurg ent
ro le
Ġve gg
ĠP red
ĠE c
ixt ures
Ġ14 0
Ġdevast ating
ĠB irmingham
ĠE M
/ .
O kay
ĠT ickets
sh aped
V ol
Ġdiscl ose
ĠClin ic
N EW
d et
ĠK yle
ist ence
v ised
ĠSt ri
Ġsuper vision
Ġz oom
Ġanaly zed
Ġment ally
pat ient
ak y
Ġmax im
Ġde er
Ġdon ors
bl ock
Ġwal let
ĠU P
ogen ic
ĠC it
Ġb acon
ĠF C
Ġterr ific
b ird
de velop
ke eper
ĠPlay ers
it err
Ġunw anted
W ater
Ġca res
ĠJe remy
Ġinform ative
ĠHealth care
ĠGi ants
ĠAr n
ĠInst it
hes ive
Ġisol ation
Ġpro long
ĠFe ed
Ġsh ifting
H ar
op es
rol ogy
ĠS QL
Ġent ers
Ġd os
Ġst ats
Ġformer ly
Ġsmart phones
ĠV ent
Ġm i
Ġinv iting
Ġtrad es
P ower
S ch
Ġf ights
Ġb ang
ĠSo x
AR S
g ro
w al
Ġeduc ators
Ġtempor arily
ĠB ishop
Ġrep ay
Ġ16 0
or ie
ĠW ash
ĠEn h
ĠN ancy
Un iversity
Ġcomb inations
ĠNe il
Ġdent ist
Ġreform s
D E
Ġqu ad
Ġperform s
ĠRep orts
ĠI F
Ġpu zz
Ġdoct rine
Ġ8 4
Ġpoll s
ĠInf o
art en
Ġcomp iled
Ġse aled
Ġdes irable
ĠPhys ical
ĠT es
ĠD ental
ĠD raw
ows ki
M ain
Ġfin ances
Ġsl ower
Ġhold ers
ĠNot es
oh yd
ĠCare er
ĠMont real
ĠCr ime
ĠK irk
Ġblank et
on ts
Ġqu arters
Ġ8 2
Ġdecor ated
ĠSwed ish
M ac
Ġorgan ised
Ġcar p
Ġrecommend s
Ġdiss ertation
Ġrelax ation
Ġcrowd s
ĠKen ya
ĠS we
ĠM Y
ĠH ab
Ġpick up
Ġblog gers
Orig inally
ĠL ost
Ġgl ance
the ning
Ġsan ct
Ġcent res
ĠUp dated
Ġsurviv ors
ed ar
Ġtrad itionally
Bl ue
Ġcr imin
p ub
Ġexpl ores
if iable
Ġgr ams
Ġex otic
Ġhospit ality
Ġgenuine ly
Ġto pped
Ġd in
Ġgl oves
ĠNorth west
ĠTrans fer
Comm un
au kee
D em
Ġlay ing
ĠHud son
Ġsomet ime
ene z
Ġwond ers
ul ative
Ġcast ing
Ġ9 2
ĠT ab
Ġdemon stration
Ġdemand ed
ĠD ifferent
atter ing
Ġun su
ac er
ign ment
Ġmem or
Ġlike lihood
ue z
le ton
Ġmet rics
Ġsc andal
ret ty
âĢ ²
force ment
l it
ator ies
ili ation
Ġanal og
Ġblock ing
Ġprem iere
ic hes
ĠE t
Ġhum ble
Ġso cks
ide os
any on
Ġ7 1
Ġplay offs
Ġst ro
at ics
Ġpa ired
ĠT aking
Ġam ateur
âĢ¦ âĢ¦
uck ed
Ġrevolution ary
Ġth rows
ĠL ands
ĠC arm
ĠF o
ĠSy rian
ĠPub l
ren cies
ĠB rain
Ġcap ac
ĠBen jamin
Su pport
Ġconsid ers
Ġwor ries
Ġsc ent
ab ad
Ġdisc on
Ġtax i
ĠCov id
op ard
ĠE dd
Ġ 000
ĠP T
Ġnot ify
ĠMont ana
U P
ĠM ine
iss ance
Ġph osph
So cial
S ever
p g
Ġquestion ed
ĠPre vention
ĠHope fully
ĠW alt
ĠDes cription
Ġcustom s
Ġdatab ases
iterr anean
g on
Ġplay off
Ġinv is
Ġadapt ation
Ġprob ability
ĠS ent
ren n
Ġsand wich
ĠBrand on
Ġcous in
ĠP le
fort unate
Ġretail er
Ġupgr ades
Ġtrad ers
Ġble eding
os ity
Des ign
an ut
Ġsu cc
Ġfree ze
v d
ĠD anny
Ġbus es
Ġgl ue
ĠHor se
ke ep
Ġ198 1
Ġcom ics
Ġelect ron
B en
g ary
Ġcheck out
Ġp ipes
ĠHe brew
Ġtri umph
Sh ould
Ġplant ing
Ġresearc her
ĠPhot os
ul ates
Ġexpl ored
AN CE
point s
Ġcl uster
ĠInst ru
ĠBeh av
Ġrel ates
che m
Ġphotograp hers
ploy ed
Ġal mond
ĠWild life
Ġassemb led
c amp
fe ld
ov able
Ġprogress ion
ĠL ay
Ġ19 30
H ist
ĠO liver
Ġreve aling
C AR
h aw
ĠA irl
Ġstrong est
pro v
ĠL ag
Ġqu art
pro te
Ġcompr ised
Ġexch anges
Ġvolunt ary
ĠR T
ool s
re he
Re al
Ġneighborhood s
Ġprompt ly
ĠIde as
umb ai
ĠR ivers
ĠHig her
Ġgrand father
Ġo re
id ency
Ġtun nel
ĠGro ve
ĠðŁĻ Ĥ
Ġnever theless
Ġfest ivals
ĠCh ron
ah l
ĠSpe cific
ĠAssoci ates
F in
Ġu pt
Ġtrans fers
Ġrecord ings
Ġpredict ions
atern ity
S k
Ġs ins
Ġha un
ĠRich mond
Ġcy cles
Ġdis comfort
ĠAr c
add le
ĠAcadem ic
Ġanalys es
ĠJam ie
Ġn ude
ĠA CT
Ġtra its
m ile
Ġch rist
ĠB ot
Ġcon clusions
l ied
ĠRe covery
Ġtow el
Ġtiss ues
Ġstr anger
Ġinvestig ated
B D
out ube
Ġprompt ed
umb ling
ĠNash ville
ĠEd wards
Ġstat ute
Ġgod s
br aska
m id
ke ys
Ġcirc ular
se arch
