{"<|endoftext|>":0,"<|im_start|>":1,"<|im_end|>":2,"!":3,"\"":4,"#":5,"$":6,"%":7,"&":8,"'":9,"(":10,")":11,"*":12,"+":13,",":14,"-":15,".":16,"/":17,"0":18,"1":19,"2":20,"3":21,"4":22,"5":23,"6":24,"7":25,"8":26,"9":27,":":28,";":29,"<":30,"=":31,">":32,"?":33,"@":34,"A":35,"B":36,"C":37,"D":38,"E":39,"F":40,"G":41,"H":42,"I":43,"J":44,"K":45,"L":46,"M":47,"N":48,"O":49,"P":50,"Q":51,"R":52,"S":53,"T":54,"U":55,"V":56,"W":57,"X":58,"Y":59,"Z":60,"[":61,"\\":62,"]":63,"^":64,"_":65,"`":66,"a":67,"b":68,"c":69,"d":70,"e":71,"f":72,"g":73,"h":74,"i":75,"j":76,"k":77,"l":78,"m":79,"n":80,"o":81,"p":82,"q":83,"r":84,"s":85,"t":86,"u":87,"v":88,"w":89,"x":90,"y":91,"z":92,"{":93,"|":94,"}":95,"~":96,"¡":97,"¢":98,"£":99,"¤":100,"¥":101,"¦":102,"§":103,"¨":104,"©":105,"ª":106,"«":107,"¬":108,"®":109,"¯":110,"°":111,"±":112,"²":113,"³":114,"´":115,"µ":116,"¶":117,"·":118,"¸":119,"¹":120,"º":121,"»":122,"¼":123,"½":124,"¾":125,"¿":126,"À":127,"Á":128,"Â":129,"Ã":130,"Ä":131,"Å":132,"Æ":133,"Ç":134,"È":135,"É":136,"Ê":137,"Ë":138,"Ì":139,"Í":140,"Î":141,"Ï":142,"Ð":143,"Ñ":144,"Ò":145,"Ó":146,"Ô":147,"Õ":148,"Ö":149,"×":150,"Ø":151,"Ù":152,"Ú":153,"Û":154,"Ü":155,"Ý":156,"Þ":157,"ß":158,"à":159,"á":160,"â":161,"ã":162,"ä":163,"å":164,"æ":165,"ç":166,"è":167,"é":168,"ê":169,"ë":170,"ì":171,"í":172,"î":173,"ï":174,"ð":175,"ñ":176,"ò":177,"ó":178,"ô":179,"õ":180,"ö":181,"÷":182,"ø":183,"ù":184,"ú":185,"û":186,"ü":187,"ý":188,"þ":189,"ÿ":190,"Ā":191,"ā":192,"Ă":193,"ă":194,"Ą":195,"ą":196,"Ć":197,"ć":198,"Ĉ":199,"ĉ":200,"Ċ":201,"ċ":202,"Č":203,"č":204,"Ď":205,"ď":206,"Đ":207,"đ":208,"Ē":209,"ē":210,"Ĕ":211,"ĕ":212,"Ė":213,"ė":214,"Ę":215,"ę":216,"Ě":217,"ě":218,"Ĝ":219,"ĝ":220,"Ğ":221,"ğ":222,"Ġ":223,"ġ":224,"Ģ":225,"ģ":226,"Ĥ":227,"ĥ":228,"Ħ":229,"ħ":230,"Ĩ":231,"ĩ":232,"Ī":233,"ī":234,"Ĭ":235,"ĭ":236,"Į":237,"į":238,"İ":239,"ı":240,"Ĳ":241,"ĳ":242,"Ĵ":243,"ĵ":244,"Ķ":245,"ķ":246,"ĸ":247,"Ĺ":248,"ĺ":249,"Ļ":250,"ļ":251,"Ľ":252,"ľ":253,"Ŀ":254,"ŀ":255,"Ł":256,"ł":257,"Ń":258,"Ġt":259,"Ġa":260,"in":261,"he":262,"re":263,"on":264,"Ġthe":265,"er":266,"Ġs":267,"Ġw":268,"at":269,"Ġo":270,"nd":271,"Ġc":272,"it":273,"or":274,"es":275,"is":276,"ou":277,"en":278,"Ġf":279,"ing":280,"Ġb":281,"Ġp":282,"ed":283,"an":284,"al":285,"Ġto":286,"Ġm":287,"ar":288,"Ġand":289,"Ġof":290,"Ġin":291,"Ġd":292,"ic":293,"le":294,"Ġh":295,"as":296,"om":297,"ion":298,"Ġth":299,"ll":300,"âĢ":301,"ent":302,"Ġl":303,"ve":304,"Ġe":305,"st":306,"Ġre":307,"ro":308,"Ġn":309,"Ġy":310,"Ġg":311,"ly":312,"ĠI":313,"ct":314,"et":315,"ĠT":316,"Ġyou":317,"Ġbe":318,"ut":319,"Ġis":320,"ot":321,"ĠS":322,"id":323,"Ġon":324,"Ġfor":325,"ay":326,"ow":327,"ur":328,"ĠC":329,"ĠA":330,"se":331,"im":332,"ce":333,"ad":334,"ig":335,"am":336,"Ġthat":337,"ver":338,"Ġu":339,"ch":340,"il":341,"ith":342,"Ġst":343,"ation":344,"ol":345,"âĢĻ":346,"ir":347,"Ġwith":348,"ĠM":349,"Ġit":350,"Ġhe":351,"Ġwe":352,"ra":353,"Ġan":354,"ĠP":355,"ĠB":356,"Ġas":357,"Ġwh":358,"ill":359,"ers":360,"if":361,"ke":362,"Ġpro":363,"Ġare":364,"ter":365,"Ġha":366,"ge":367,"ĠW":368,"Ġcon":369,"oo":370,"ld":371,"her":372,"ul":373,"Ġor":374,"ĠH":375,"ate":376,"ess":377,"pp":378,"ĠD":379,"ck":380,"Ġcom":381,"Ġat":382,"Ġse":383,"ment":384,"ĠThe":385,"ore":386,"est":387,"ri":388,"Ġde":389,"us":390,"ĠF":391,"Ġ1":392,"ab":393,"igh":394,"th":395,"ĠR":396,"rom":397,"Ġwas":398,"ist":399,"Ġne":400,"Ġ2":401,"Ġ(":402,"pe":403,"Ġex":404,"un":405,"ant":406,"ity":407,"qu":408,"ĠL":409,"Ġsu":410,"Ġv":411,"res":412,"ive":413,"Ġhave":414,"ort":415,"op":416,"Ġyour":417,"ĠG":418,"em":419,"Ġr":420,"ĠâĢ":421,"ain":422,"art":423,"ĠN":424,"Ġthis":425,"ust":426,"ĠE":427,"Ġfrom":428,"nt":429,"Ġnot":430,"el":431,"Ġsh":432,"um":433,"os":434,"Ġal":435,"ies":436,"and":437,"Ġby":438,"Ġch":439,"ight":440,"Ġcan":441,"ome":442,"ie":443,"Ġle":444,"all":445,"ard":446,"Ġwill":447,"out":448,"ĠO":449,"ould":450,"ud":451,"Ġab":452,"red":453,"our":454,"Ġdo":455,"Ġwor":456,"iv":457,"ally":458,"gh":459,"ost":460,"te":461,"Ġpl":462,"od":463,"00":464,"Ġall":465,"rou":466,"ĠJ":467,"ide":468,"ci":469,"ast":470,"Ġj":471,"ak":472,"ear":473,"ine":474,"'s":475,"The":476,"Ġk":477,"ure":478,"ag":479,"per":480,"fe":481,"Ġso":482,"Ġhas":483,"pt":484,"Ġme":485,"Ġwhe":486,"Ġbut":487,"âĢĿ":488,"ice":489,"ack":490,"age":491,"Ġus":492,"ction":493,"ac":494,"Ġad":495,"ther":496,"Ġout":497,"pl":498,"ich":499,"ook":500,"ake":501,"one":502,"Ġup":503,"Ġthey":504,"ind":505,"ĠU":506,"Ġtheir":507,"so":508,"are":509,"Ġmore":510,"Ġen":511,"very":512,"og":513,"ry":514,"Ġcomp":515,"ong":516,"able":517,"Ġmy":518,"ime":519,"ated":520,"ood":521,"Ġte":522,"cc":523,"ite":524,"ous":525,"Ġone":526,"Ġcl":527,"iz":528,"Ġhis":529,"ame":530,"ike":531,"ans":532,"ip":533,"Ġabout":534,"Ġim":535,"for":536,"ĠTh":537,"Ġour":538,"Ġsa":539,"Ġwho":540,"ĠIn":541,"ĠâĢľ":542,"ber":543,"Ġcont":544,"ions":545,"ru":546,"Ġman":547,"Ġgo":548,"Ġfe":549,"ance":550,"du":551,"act":552,"cl":553,"Ġwhich":554,"ne":555,"ĠK":556,"Ġwork":557,"Ġ20":558,"to":559,"ire":560,"ia":561,"Ġres":562,"ib":563,"ĠY":564,"ail":565,"ign":566,"Ġapp":567,"ase":568,"oc":569,"ach":570,"ree":571,"reat":572,"ations":573,"ap":574,"ays":575,"ace":576,"ick":577,"ary":578,"Ġper":579,"ven":580,"Ġother":581,"ult":582,"Ġqu":583,"ep":584,"Ġoff":585,"au":586,"Ġtime":587,"ass":588,"Ġlike":589,"ff":590,"Ġyear":591,"Ġsome":592,"ub":593,"ical":594,"ĠSt":595,"Ġalso":596,"Ġany":597,"ue":598,"ile":599,"Ġdis":600,"..":601,"Ġget":602,"ark":603,"now":604,"ence":605,"ount":606,"vel":607,"ĠV":608,"Ġsp":609,"Ġun":610,"form":611,"ĠIt":612,"Ġthem":613,"ings":614,"Ġnew":615,"Ġpart":616,"Ġhad":617,"erv":618,"ress":619,"ĠCh":620,"Ġbeen":621,"Ġwere":622,"Ġher":623,"ond":624,"Ġthere":625,"Ġag":626,"Ġpe":627,"Ġ3":628,"ove":629,"ose":630,"Ġover":631,"Ġwhen":632,"Ġ\"":633,"ition":634,"Ġwhat":635,"Ġwould":636,"ough":637,"ents":638,"av":639,"Ġar":640,"ial":641,"ink":642,"Ġif":643,"ors":644,"Ġ-":645,"Ġtr":646,"Ġjust":647,"ens":648,"Ġthan":649,"ild":650,"Ġpre":651,"port":652,"Ġro":653,"ound":654,"ord":655,"Ġspe":656,"Ġ201":657,"Ġbec":658,"ish":659,"mer":660,"Ġknow":661,"int":662,"irst":663,"wn":664,"Ġneed":665,"ob":666,"ople":667,"ĠWe":668,"Ġrec":669,"Ġinto":670,"own":671,"ren":672,"ov":673,"ĠHe":674,"nder":675,"oy":676,"Ġhow":677,"ory":678,"fter":679,"ater":680,"Ġsc":681,"Ġsaid":682,"Ġam":683,"Ġacc":684,"rough":685,"ade":686,"Ġco":687,"Ġno":688,"itt":689,"Ġpeople":690,"vers":691,"ang":692,"Ġtw":693,"Ġits":694,"ning":695,"old":696,"lic":697,"Ġdes":698,"Ġshe":699,"cial":700,"ons":701,"ual":702,"Ġfirst":703,"clud":704,"ces":705,"Ġmay":706,"ĠâĢĵ":707,"Ġbl":708,"we":709,"Ġcomm":710,"ause":711,"lp":712,"ian":713,"hed":714,"Ġmake":715,"ates":716,"amp":717,"Ġonly":718,"ull":719,"ments":720,"Ġmost":721,"ric":722,"Ġtra":723,"ating":724,"Ġhelp":725,"end":726,"Ġlook":727,"rent":728,"Ġbet":729,"Ġadd":730,"ft":731,"ĠThis":732,"Ġpo":733,"Ġprov":734,"'t":735,"Ġ4":736,"Ġback":737,"ily":738,"Ġind":739,"Ġem":740,"Ġevery":741,"Ġwant":742,"tern":743,"Ġthrough":744,"round":745,"Ġfl":746,"day":747,"Ġ19":748,"Ġinclud":749,"ise":750,"ious":751,"hing":752,"Ġsee":753,"Ġcons":754,"Ġ5":755,"Ġact":756,"Ġwell":757,"Ġuse":758,"iew":759,"ĠRe":760,"Ġtwo":761,"Ġbu":762,"Ġprodu":763,"gr":764,"Ġthese":765,"les":766,"sel":767,"ect":768,"Ġunder":769,").":770,"ks":771,"ities":772,"ph":773,"iss":774,"ife":775,"Ġph":776,"fect":777,"Ġcould":778,"Ġserv":779,"Ġafter":780,"fore":781,"ew":782,"oll":783,"xt":784,"hen":785,"ific":786,"ced":787,"Ġvery":788,"pport":789,"Ġdif":790,"aw":791,"row":792,"urn":793,"Th":794,"ting":795,"Ġrel":796,"uch":797,"Ġplay":798,"Ġgood":799,"Ġway":800,"Ġyears":801,"Ġmany":802,"Ġeven":803,"ful":804,"Ġinc":805,"lect":806,"rit":807,"ts":808,"Ġinv":809,"ject":810,"Ġsy":811,"Ġreg":812,"Ġpr":813,"ĠYou":814,"Ġimp":815,"erson":816,"Ġstud":817,"iness":818,"Ġra":819,"als":820,"ange":821,"Ġhim":822,"Ġshould":823,"Ġthen":824,"oss":825,"Ġwhere":826,"aking":827,"cess":828,"Ġnow":829,"pect":830,"Ġrem":831,"Ġke":832,"ool":833,"oth":834,"Ġcol":835,"ont":836,"Ġev":837,"bs":838,"ational":839,"ert":840,"Ġsm":841,"Ġexper":842,"com":843,"Ġdid":844,"ility":845,"ock":846,"ible":847,"Ġright":848,"ased":849,"ward":850,"Ġbecause":851,"any":852,"olog":853,"Ġstart":854,"Ġ200":855,"get":856,"Ġdon":857,"Ġown":858,"Ġdown":859,".âĢĿ":860,"||":861,"ular":862,"ures":863,"Ġgu":864,"Ġsec":865,"ident":866,"erm":867,"ath":868,"Ġgreat":869,"ty":870,"ices":871,"ied":872,"Ġbus":873,"uring":874,"ower":875,"ĠUn":876,"Ġac":877,"ĠWh":878,"Ġfin":879,"ble":880,"Ġmuch":881,"ĠAs":882,"Ġthink":883,"ĠSe":884,"Ġatt":885,"hip":886,"Ġent":887,"its":888,"ract":889,"Ġtoo":890,"ative":891,"ys":892,"hes":893,"formation":894,"other":895,"ĠAnd":896,"up":897,"Ġsuch":898,"),":899,"Ġ$":900,"stem":901,"Ġday":902,"ell":903,"Ġlong":904,"omet":905,"ited":906,"alth":907,"ĠCom":908,"Ġfind":909,"Ġhigh":910,"velop":911,"Ġagain":912,"Ġdec":913,"ict":914,"ork":915,"ics":916,"air":917,"In":918,"Ġtake":919,"Ġinst":920,"Ġ6":921,"Ġset":922,"Ġread":923,"gan":924,"Ġhere":925,"arch":926,"und":927,"ener":928,"Ġbest":929,"Ġbeing":930,"Ġbefore":931,"Ġinte":932,"Ġ&":933,"Ġthose":934,"Ġmade":935,"Ġcar":936,"rib":937,"Ġdoes":938,"Ġwee":939,"Ġins":940,"Ġdiffe":941,"cy":942,"Ġmon":943,"âĢľ":944,"Ġshow":945,"ĠPro":946,"Ġbel":947,"Ġend":948,"Ġpres":949,"Ġperson":950,"Ġmin":951,"line":952,"ually":953,"ĠDe":954,"ner":955,"Ġcall":956,"Ġloc":957,"chool":958,"ĠIf":959,"Ġworld":960,"ix":961,"ason":962,"Ġass":963,"ĠAn":964,"Ġsur":965,"Ġhome":966,"Ġrequ":967,"Ġbr":968,"alk":969,"Ġfam":970,"ank":971,"ues":972,"Ġche":973,"ollow":974,"Ġmark":975,"Ġbusiness":976,"Ġlife":977,"li":978,"rest":979,"way":980,"self":981,"20":982,"Ġinformation":983,"Ġlast":984,"ax":985,"Ġsim":986,"ving":987,"Ġav":988,"io":989,"ng":990,"Ġhand":991,"gram":992,"We":993,"Ġ10":994,"Ġmed":995,"Ġused":996,"Ġdevelop":997,"ffect":998,"Ġop":999,"ins":1000,"Ġ7":1001,"ave":1002,"Ġear":1003,"ince":1004,"Ġwhile":1005,"Ġsystem":1006,"ĠNew":1007,"Ġmem":1008,"ather":1009,"Ġtrans":1010,"atch":1011,"Ġreally":1012,"Ġsub":1013,"Ġart":1014,"Ġpol":1015,"ublic":1016,"ouse":1017,"chn":1018,"led":1019,"Ġcre":1020,"ms":1021,"ros":1022,"ĠFor":1023,"ives":1024,"az":1025,"ĠBut":1026,"Ġinter":1027,"Ġmod":1028,"Ġgoing":1029,"ple":1030,"akes":1031,"Ġexperi":1032,"ness":1033,"Ġaround":1034,"...":1035,"ale":1036,"Ġeach":1037,"imes":1038,"Ġlead":1039,"Ġthough":1040,"land":1041,"cept":1042,"Ġdesign":1043,"Ġnum":1044,"Ġdet":1045,"Ġvis":1046,"pr":1047,"Ġproduct":1048,"view":1049,"Ġdisc":1050,"Ġcount":1051,"Ġsomet":1052,"Ġcour":1053,"Ġchar":1054,"Ġsupport":1055,"ĠAl":1056,"ines":1057,"Ġret":1058,"ene":1059,"read":1060,"ĠSh":1061,"Ġ8":1062,",âĢĿ":1063,"ever":1064,"Ġstill":1065,"ality":1066,"oun":1067,"ets":1068,"riend":1069,"Ġfollow":1070,"Ġchild":1071,"Ġteam":1072,"Ġcur":1073,"ween":1074,"Ġprovid":1075,"Ġfeel":1076,"gg":1077,"ize":1078,"Ġcomple":1079,"irect":1080,"Ġgr":1081,"Ġcare":1082,"ctions":1083,"ages":1084,"roup":1085,"ved":1086,"Ġdifferent":1087,"Ġsl":1088,"ash":1089,"der":1090,"ional":1091,"Ġbook":1092,"Ġsay":1093,"Ġadv":1094,".\"":1095,"Ġstr":1096,"Ġed":1097,"ĠSo":1098,"Ġsign":1099,"Ġsame":1100,"ivers":1101,"ittle":1102,"Ġser":1103,"man":1104,"Ġpoint":1105,"Ġcommun":1106,"ah":1107,"Ġfound":1108,"Ġsk":1109,"meric":1110,"This":1111,"Ġexp":1112,"lease":1113,"Ġboth":1114,"Ġaut":1115,"Ġbetween":1116,"ustom":1117,"Ġeas":1118,"Ġplace":1119,"Ġcle":1120,"ute":1121,"ars":1122,"Ġmet":1123,"ĠThey":1124,"ĠAr":1125,"Wh":1126,"Ġbo":1127,"ata":1128,"Ġfew":1129,"ways":1130,"ĠBe":1131,"Ġlot":1132,"Ġrun":1133,"arm":1134,"ĠCl":1135,"Ġfree":1136,"Ġ9":1137,"Ġgl":1138,"Ġhapp":1139,"Ġprogram":1140,"Ġthree":1141,"ution":1142,"It":1143,"ten":1144,"less":1145,"000":1146,"ĠLe":1147,"Ġlove":1148,"Ġimport":1149,"Ġthings":1150,"Ġprof":1151,"Ġpur":1152,"ody":1153,"ized":1154,"Ġrep":1155,"Ġprocess":1156,"Ġlist":1157,"Ġpost":1158,"Ġext":1159,"ient":1160,"Ġform":1161,"Ġtop":1162,"ton":1163,"ames":1164,"Ġstate":1165,"Ġreal":1166,"ired":1167,"be":1168,"ants":1169,"Ġfun":1170,"Ġlittle":1171,"the":1172,"Ġfull":1173,"ex":1174,"Ġlar":1175,"Ġmonth":1176,"oad":1177,"thing":1178,"cer":1179,"ves":1180,"Ġhealth":1181,"ital":1182,"Ġplan":1183,"ety":1184,"Ġgener":1185,"ĠAmeric":1186,"ĠAd":1187,"orn":1188,"ology":1189,"ailable":1190,"Ġkeep":1191,"oh":1192,"vern":1193,"Ġfact":1194,"ug":1195,"arn":1196,"uc":1197,"Ġtechn":1198,"Ġduring":1199,"ross":1200,"Ġcome":1201,"ature":1202,"Ġappro":1203,"Ġreport":1204,"ists":1205,"Ġfil":1206,"bers":1207,"Ġref":1208,"Ġopen":1209,"Ġposs":1210,"Ġpartic":1211,"Ġschool":1212,"ining":1213,"Ġdef":1214,"ering":1215,"Ġob":1216,"Ġfr":1217,"Ġty":1218,"Ġusing":1219,"ically":1220,"rand":1221,"Ġcustom":1222,"Ġsomething":1223,"Ġmarket":1224,"Ġint":1225,"ĠThere":1226,"Ġiss":1227,"Ġsol":1228,"ined":1229,"Ġput":1230,"con":1231,"Ġcontin":1232,"iving":1233,"Ġpat":1234,"Ġmust":1235,"Ġresult":1236,"cent":1237,"Ġbetter":1238,"Ġvar":1239,"Ġresp":1240,"Ġinterest":1241,"Ġcent":1242,"Ġfriend":1243,"Ġallow":1244,"Ġwithout":1245,"ished":1246,"Ġalways":1247,"Ġbig":1248,"Ġrest":1249,"Ġquest":1250,"Ġdist":1251,"Ġgame":1252,"10":1253,"att":1254,"ention":1255,"gy":1256,"ield":1257,"ĠShe":1258,"Ġsmall":1259,"Ġincluding":1260,"oot":1261,"Ġanother":1262,"Ġcompany":1263,"Ġmain":1264,"ared":1265,"Ġopt":1266,"uss":1267,"Ġval":1268,"Ġgot":1269,"iqu":1270,"Ġnext":1271,"tt":1272,"Ġwater":1273,"Ġpass":1274,"Ġpri":1275,"Ġcor":1276,"ural":1277,"ger":1278,"ĠHow":1279,"Ġavailable":1280,"Ġtry":1281,"âĢ¦":1282,"Ġmight":1283,"Ġwom":1284,"Ġconf":1285,"Ġhead":1286,"Ġgroup":1287,"Ġide":1288,"Ġstand":1289,"ĠBl":1290,"stand":1291,"Ġpay":1292,"Ġbuild":1293,"Ġfamily":1294,"ik":1295,"ploy":1296,"Ġorgan":1297,"Ġtri":1298,"Ġeffect":1299,"ier":1300,"Ġweek":1301,"Ġnever":1302,"Ġwr":1303,"ense":1304,"reen":1305,"Ġhard":1306,"Ġmov":1307,"ĠPl":1308,"Ġsince":1309,"Ġdri":1310,"Ġexperience":1311,"Ġmus":1312,"Ġcr":1313,"ertain":1314,"Ġsecond":1315,"Ġrece":1316,"ĠâĢĺ":1317,"Ġimportant":1318,"ately":1319,"me":1320,"oney":1321,"Ġask":1322,"Ġsure":1323,"Ġi":1324,"ision":1325,"Ġnumber":1326,"ling":1327,"ism":1328,",\"":1329,"Ġproject":1330,"Ġincre":1331,"Ġproble":1332,"aj":1333,"ĠOn":1334,"Ġdata":1335,"ĠIs":1336,"Ġonline":1337,"ware":1338,"illion":1339,"Ġold":1340,"Ġpublic":1341,"rist":1342,"els":1343,"ĠFr":1344,"Ġperform":1345,"ample":1346,"Ġbro":1347,"Ġexpl":1348,"rol":1349,"Ġclass":1350,"Ġinf":1351,"ĠEx":1352,"Ġservice":1353,"Ġlevel":1354,"Ġdays":1355,"Ġdirect":1356,"ER":1357,"ps":1358,"ĠAll":1359,"ccess":1360,"iversity":1361,"If":1362,"Ġgive":1363,"Ġable":1364,"Ġcost":1365,"ĠQ":1366,"Ġpower":1367,"ted":1368,"ĠInd":1369,"ĠâĢĶ":1370,"Ġinvest":1371,"Ġagainst":1372,"Ġlaw":1373,"Ġspec":1374,"co":1375,"Ġbre":1376,"Ġel":1377,"Ġless":1378,"Ġgrow":1379,"Ġve":1380,"pend":1381,"ards":1382,"rence":1383,"ral":1384,"work":1385,"Ġsit":1386,"Ġtest":1387,"ior":1388,"Ġ0":1389,"Ġpos":1390,"Ġwin":1391,"Ġlet":1392,"âĢĶ":1393,"Ġ'":1394,"Ġbelie":1395,"Ġca":1396,"orm":1397,"Ġrese":1398,"19":1399,"inal":1400,"ok":1401,"uck":1402,"Ġseem":1403,"Ġunt":1404,"ours":1405,"ases":1406,"ivid":1407,"Ġdi":1408,"ered":1409,"Ġorder":1410,"Ġprovide":1411,"ats":1412,"Ġ12":1413,"ients":1414,"Ġwithin":1415,"raph":1416,"ird":1417,"ĠZ":1418,"Ġmeet":1419,"ote":1420,"ency":1421,"Ġturn":1422,"Ġ18":1423,"ĠPh":1424,"aut":1425,"Ġcurrent":1426,"here":1427,"Ġlight":1428,"Ġhum":1429,"ĠTe":1430,"ann":1431,"cing":1432,"ably":1433,"Ġleg":1434,"ffic":1435,"pped":1436,"ruct":1437,"ission":1438,"He":1439,"gin":1440,"ĠCon":1441,"outh":1442,"Ġproper":1443,"Ġoper":1444,"Ġ.":1445,"ently":1446,"Ġfour":1447,"Ġservices":1448,"ember":1449,"Ġtoday":1450,"Ġest":1451,"Ġworking":1452,"ised":1453,"50":1454,"Ġprev":1455,"Ġsupp":1456,"Ġsays":1457,"vernment":1458,"ron":1459,"ope":1460,"Ġpop":1461,"ration":1462,"Ġaccess":1463,"Ġeng":1464,"ec":1465,"pos":1466,"Ġaway":1467,"Ġprom":1468,"pping":1469,"ĠCol":1470,"Ġann":1471,"Ġfood":1472,"eng":1473,"ĠThat":1474,"Ġarea":1475,"Ġmaking":1476,"ider":1477,"Ġprote":1478,"ott":1479,"ator":1480,"Ġview":1481,"ĠUS":1482,"med":1483,"Ġchildren":1484,"Ġsing":1485,"ains":1486,"Ġjob":1487,"oint":1488,"Ġaddition":1489,"ium":1490,"Ġwebs":1491,"You":1492,"ret":1493,"ĠSp":1494,"Ġspecial":1495,"atter":1496,"Ġdem":1497,"Ġcase":1498,"Ġphot":1499,"ified":1500,"Ġbeh":1501,"Ġequ":1502,"joy":1503,"tend":1504,".,":1505,"Ġcap":1506,"ĠTr":1507,"Ġthing":1508,"Ġtru":1509,"Ġcourse":1510,"ĠComm":1511,"Ġlooking":1512,"ĠTo":1513,"ids":1514,"omm":1515,"Ġsal":1516,"iting":1517,"Ġnight":1518,"ley":1519,"Ġmoney":1520,"ina":1521,"ured":1522,"Ġchange":1523,"ĠOr":1524,"Ġpract":1525,"hor":1526,"ead":1527,"Ġuntil":1528,"As":1529,"Ġlocal":1530,"iron":1531,"Ġvide":1532,"Ġchang":1533,"ream":1534,"Ġstudents":1535,"Ġsite":1536,"Ġhist":1537,"Ġpast":1538,"of":1539,"Ġwhy":1540,"Ġpresent":1541,"Ġbas":1542,"Ġintern":1543,"ording":1544,"ories":1545,"ills":1546,"ury":1547,"arent":1548,"por":1549,"Ġunderstand":1550,"ability":1551,"Ġfac":1552,"ump":1553,"aring":1554,"ify":1555,"ney":1556,"Ġroom":1557,"Ġkind":1558,"orth":1559,"Ġlarge":1560,"Ġconst":1561,"Ġprofess":1562,"ĠMan":1563,"ential":1564,"IN":1565,"Ġwrit":1566,"Ġword":1567,"icle":1568,"Ġimpro":1569,"Ġemploy":1570,"ww":1571,"ization":1572,"sh":1573,"augh":1574,"Ġdr":1575,"lection":1576,"ged":1577,"Ġoften":1578,"iven":1579,"Ġsuccess":1580,"min":1581,"Ġevent":1582,"Ġtimes":1583,"itions":1584,"ĠChrist":1585,"Ġtoget":1586,"by":1587,"lish":1588,"Ġtogether":1589,"Ġactiv":1590,"utes":1591,"ising":1592,"agement":1593,"ĠCent":1594,"ĠRes":1595,"soci":1596,"Ġexpect":1597,"ĠGod":1598,"Ġname":1599,"Ġhaving":1600,"Ġair":1601,"Ġdidn":1602,"ĠMar":1603,"Ġcheck":1604,"Ġlearn":1605,"ĠSc":1606,"ocus":1607,"Ġterm":1608,"30":1609,"Ġindust":1610,"Ġdra":1611,"Ġapplic":1612,"ived":1613,"ee":1614,"Ġalong":1615,"ries":1616,"Ġcomplete":1617,"ĠWhen":1618,"Ġtell":1619,"conom":1620,"enn":1621,"Ġcreat":1622,"part":1623,"Ġseason":1624,"Ġleft":1625,"enef":1626,"Ġcond":1627,"12":1628,"ividual":1629,"Ġmove":1630,"Ġes":1631,"Ġdev":1632,"Ġtalk":1633,"'re":1634,"cu":1635,"ohn":1636,"let":1637,"Ġnear":1638,"Ġside":1639,"Ġbuy":1640,"Ġpa":1641,"ox":1642,"ane":1643,"ready":1644,"br":1645,"Ġenough":1646,"Ġtreat":1647,"Ġcommunity":1648,"Ġhouse":1649,"ĠNo":1650,"Ġenjoy":1651,"Ġsw":1652,"ode":1653,"irl":1654,"veral":1655,"ination":1656,"Ġever":1657,"ajor":1658,"Ġstory":1659,"aster":1660,"itive":1661,"Ġshort":1662,"Ġbecome":1663,"ĠWhat":1664,"Ġmar":1665,"Ġ15":1666,"Ġ[":1667,"ĠCan":1668,"Ġfar":1669,"side":1670,"Ġoffer":1671,"Ġproducts":1672,"Ġbody":1673,"urs":1674,"aim":1675,"tain":1676,"ots":1677,"Ġaccount":1678,"Ġinclude":1679,"Ġneeds":1680,"alf":1681,"Ġdone":1682,"ery":1683,"Ġwomen":1684,"ON":1685,"ĠWith":1686,"aterial":1687,"Ġpain":1688,"Ġmen":1689,"ĠUniversity":1690,"Ġfeat":1691,"Ġbit":1692,"Ġmembers":1693,"Ġconne":1694,"What":1695,"ĠAt":1696,"Ġoffic":1697,"Ġcertain":1698,"Ġresearch":1699,"son":1700,"Ġmakes":1701,"For":1702,"rap":1703,"Ġalready":1704,"Ġtrad":1705,"ĠMay":1706,"Ġpossible":1707,"Ġpot":1708,"Ġ30":1709,"Ġcountry":1710,"Ġcalled":1711,"Ġ11":1712,"Ġindividual":1713,"ern":1714,"Ġline":1715,"ows":1716,"pportun":1717,"Ġwebsite":1718,"Ġreview":1719,"Ġquality":1720,"ails":1721,"Ġlive":1722,"Ġrecord":1723,"Ġeasy":1724,"une":1725,"Ġmeans":1726,"Ġpersonal":1727,"Ġothers":1728,"Ġgetting":1729,"Ġseveral":1730,"fort":1731,"Ġocc":1732,"Ġcou":1733,"Ġmean":1734,"Ġbased":1735,"Ġbenef":1736,"oice":1737,"Ġfocus":1738,"'m":1739,"Ġfollowing":1740,"Ġsocial":1741,"ique":1742,"Ġcontrol":1743,"Ġdoing":1744,"Ġmusic":1745,"Ġcame":1746,"fer":1747,"uture":1748,"ĠEng":1749,"oor":1750,"ither":1751,"viron":1752,"Ġfore":1753,"ands":1754,"Ġnon":1755,"uro":1756,"ush":1757,"Ġcamp":1758,"Ġ199":1759,"AT":1760,"Ġgovernment":1761,"ĠFl":1762,"Ġmil":1763,"over":1764,"Ġnews":1765,"Ġactually":1766,"ored":1767,"ances":1768,"St":1769,"Ġvisit":1770,"ES":1771,"ĠSu":1772,"Ġfund":1773,"Ġmind":1774,"ĠCar":1775,"Ġlim":1776,"11":1777,"ĠMy":1778,"Ġcomes":1779,"ĠAm":1780,"Ġtre":1781,"Ġeduc":1782,"Ġmajor":1783,"Ġopportun":1784,"Ġleast":1785,"Ġla":1786,"osed":1787,"ides":1788,"ript":1789,"Ġmillion":1790,"Ġelect":1791,"Ġhold":1792,"Ġfav":1793,"Ġyoung":1794,"Ġquick":1795,"ĠAmerican":1796,"Ġthought":1797,"most":1798,"orts":1799,"cially":1800,"aff":1801,"lement":1802,"Ġcreate":1803,"Ġreturn":1804,"idd":1805,"Ġmom":1806,"wards":1807,"Ġdoesn":1808,"rop":1809,"yle":1810,"app":1811,"ape":1812,"Ġcharact":1813,"Ġacross":1814,"Ġdeal":1815,"Ġcontact":1816,"atic":1817,"load":1818,"Ġtook":1819,"There":1820,"Ġparticular":1821,"Ġclear":1822,"ĠApp":1823,"Ġey":1824,"AR":1825,"Ġ|":1826,"Ġonce":1827,"rodu":1828,"ĠJohn":1829,"Ġnet":1830,"Ġstarted":1831,"ched":1832,"Ġce":1833,"ully":1834,"ches":1835,"Ġmaterial":1836,"Ġwent":1837,"Ġmult":1838,"wh":1839,"err":1840,"Ġanal":1841,"mber":1842,"'ve":1843,"Ġinvol":1844,"not":1845,"Ġbeaut":1846,"Ġhappen":1847,"ians":1848,"ony":1849,"Ġlow":1850,"Ġcity":1851,"ĠSte":1852,"Ġsoft":1853,"AN":1854,"Ġdevelopment":1855,"room":1856,"Ġfriends":1857,"ones":1858,"aps":1859,"urther":1860,"urity":1861,"Ġfuture":1862,"Ġwon":1863,"book":1864,"Ġvideo":1865,"ĠCo":1866,"Ġorig":1867,"vironment":1868,"ino":1869,"ister":1870,"OR":1871,"mm":1872,"crib":1873,"Ġhot":1874,"Ġreason":1875,"ĠÂ":1876,"uff":1877,"Ġbring":1878,"Ġspecific":1879,"Ġredu":1880,"aken":1881,"Ġmonths":1882,"Ġperfect":1883,"Ġhours":1884,"Ġearly":1885,"lf":1886,"Ġlater":1887,"ips":1888,"Ġyet":1889,"Ġvers":1890,"Ġwa":1891,"Ġris":1892,"âĢĵ":1893,"Ġstrong":1894,"Ġtyp":1895,"Ġlink":1896,"Ġexample":1897,"Ġcut":1898,"Ġpercent":1899,"Ġeconom":1900,"ĠThese":1901,"ograph":1902,"oose":1903,"ĠMed":1904,"Ġstudy":1905,"Ġident":1906,"lished":1907,"hod":1908,"ences":1909,"Ġshare":1910,"ges":1911,"Ġkey":1912,"Ġrequire":1913,"Ġcompet":1914,"Ġhig":1915,"ĠPr":1916,"Ġheart":1917,"Ġess":1918,"Ġtem":1919,"ateg":1920,"ift":1921,"use":1922,"lling":1923,"Ġtold":1924,"Ġcompan":1925,"Ġstep":1926,"resent":1927,"Ġpage":1928,"ference":1929,"Ġcomb":1930,"Ġemail":1931,"Ġfive":1932,"arr":1933,"cle":1934,"Ġbegin":1935,"ĠFe":1936,"sw":1937,"Ġhuman":1938,"Ġproblem":1939,"Ġet":1940,"Ġpar":1941,"ulation":1942,"Ġclose":1943,"ĠBr":1944,"Ġdeli":1945,"Ġ/":1946,"ĠUnited":1947,"iday":1948,"Ġ--":1949,"An":1950,"Ġpress":1951,"Ġdiscuss":1952,"utions":1953,"ster":1954,"ĠEn":1955,"Ġvari":1956,"Ġwalk":1957,"Ġknown":1958,"Ġcover":1959,"reet":1960,"Ġappear":1961,"ource":1962,"Ġbelow":1963,"ai":1964,"osp":1965,"par":1966,"Ġchall":1967,"How":1968,"de":1969,"lev":1970,"ĠSy":1971,"Ġrelations":1972,"ĠRep":1973,"15":1974,"unch":1975,"ources":1976,"ober":1977,"Ġeverything":1978,"Ġant":1979,"Ġminutes":1980,"iod":1981,"Ġ16":1982,"ilities":1983,"Ġgiven":1984,"idence":1985,"ĠWor":1986,"oon":1987,"!!":1988,"che":1989,"Ġitem":1990,"ctor":1991,"ĠIntern":1992,"Ġauthor":1993,"Ġpriv":1994,"Ġspace":1995,"ĠHowever":1996,"ĠOne":1997,"icy":1998,"Ġpack":1999,"ĠX":2000,"Ġindustry":2001,"acy":2002,"Ġ14":2003,"Ġpurch":2004,"ights":2005,"lege":2006,"rew":2007,"Ġsound":2008,"Ġface":2009,"Ġtax":2010,"ĠNe":2011,"ford":2012,"And":2013,"Ġquestion":2014,"ners":2015,"itor":2016,"ĠInst":2017,"Ġseen":2018,"ĠState":2019,"Ġener":2020,"illed":2021,"Ġgames":2022,"ĠDo":2023,"Ġsomeone":2024,"atural":2025,"though":2026,"Ġstay":2027,"Ġprob":2028,"Ġsingle":2029,"On":2030,"Ġens":2031,"Ġwhole":2032,"Ġwhether":2033,"Ġpick":2034,"hers":2035,"ler":2036,"ball":2037,"Ġrespons":2038,"Ġsuper":2039,"ĠCont":2040,"urch":2041,"ply":2042,"Ġpie":2043,"When":2044,"ned":2045,"ilar":2046,"oard":2047,"Ġste":2048,"Ġamong":2049,"Ġpolit":2050,"rict":2051,"aces":2052,"'ll":2053,"Ġcontent":2054,"ilt":2055,"eral":2056,"Ġtot":2057,"pecially":2058,"Ġclean":2059,"Ġfield":2060,"Ġprice":2061,"Ġbreak":2062,"Ġvol":2063,"Ġbelieve":2064,"Ġcult":2065,"Ġenc":2066,"ama":2067,"Ġago":2068,"ibility":2069,"Ġamount":2070,"Ġwind":2071,"But":2072,"Ġtool":2073,"Ġtaking":2074,"selves":2075,"ensive":2076,"Ġmor":2077,"ided":2078,"Ġfre":2079,"Ġ100":2080,"Ġcompanies":2081,"ourn":2082,"Ġjo":2083,"new":2084,"ison":2085,"Ġage":2086,"rain":2087,"Ġclaim":2088,"So":2089,"Ġsex":2090,"ĠServ":2091,"Ġaddress":2092,"Ġissues":2093,"ued":2094,"Ġhope":2095,"Ġhistory":2096,"Ġmedia":2097,"ained":2098,"Ġanything":2099,"pro":2100,"af":2101,"ging":2102,"Ġabove":2103,"Ġhalf":2104,"atur":2105,"ental":2106,"ĠNot":2107,"ĠMe":2108,"Ġmess":2109,"iously":2110,"Ġmot":2111,"mb":2112,"Ġconcer":2113,"Ġrecomm":2114,"Ġblog":2115,"Ġport":2116,"EN":2117,"fic":2118,"ĠComp":2119,"Ġgirl":2120,"Ġfall":2121,"ĠGu":2122,"ancial":2123,"Ġrecommend":2124,"ĠCount":2125,"Ġdue":2126,"ogn":2127,"Ġcra":2128,"Ġcred":2129,"ĠEuro":2130,"Ġconsider":2131,"ili":2132,"dd":2133,"abor":2134,"ĠYork":2135,"Re":2136,"Ġ17":2137,"Ġquestions":2138,"Ġresults":2139,"irm":2140,"fully":2141,"Ġ13":2142,"Ġphys":2143,"go":2144,"ggest":2145,"Ch":2146,"Ġmanag":2147,"imate":2148,"Ġseries":2149,"Ġplease":2150,"Ġstore":2151,"irt":2152,"Ġsci":2153,"uation":2154,"Ġenvironment":2155,"Ġz":2156,"AS":2157,"Ġworks":2158,"Ġcommon":2159,"Ġpub":2160,"elt":2161,"asing":2162,"Ġwond":2163,"play":2164,"gle":2165,"Ġbuilding":2166,"Ġperiod":2167,"Ġtechnology":2168,"ille":2169,"Ġwatch":2170,"iver":2171,"Ġalmost":2172,"Ġidea":2173,"Ġbrand":2174,"cript":2175,"ledge":2176,"Ġeff":2177,"Ġbar":2178,"Ġtravel":2179,"ĠCal":2180,"rown":2181,"Ġaud":2182,"ĠCity":2183,"ĠChe":2184,"Ġeither":2185,"ĠOur":2186,"ams":2187,"Ġfront":2188,"Ġcal":2189,"come":2190,"18":2191,"Ġenergy":2192,"Ġentire":2193,"ĠYour":2194,"--":2195,"ried":2196,"Ġbad":2197,"back":2198,"Ġrange":2199,"anks":2200,"Ġpict":2201,"ples":2202,"Ġcompl":2203,"AL":2204,"Ġeveryone":2205,"itted":2206,"IS":2207,"Ġfurther":2208,"Ġcrit":2209,"cted":2210,"16":2211,"Ġsuggest":2212,"ĠMin":2213,"Ġrelationship":2214,"ators":2215,"Ġ24":2216,"//":2217,"Ġfeatures":2218,"13":2219,"Ġtraining":2220,"Ġquite":2221,"Ġ25":2222,"Ġtype":2223,"Ġimprove":2224,"Ġvalue":2225,"Ġmethod":2226,"Ġland":2227,"ites":2228,"cell":2229,"Ġself":2230,"Ġparent":2231,"chie":2232,"ĠMc":2233,"Ġmiss":2234,"yl":2235,"iful":2236,"Ġoffers":2237,"Ġ2012":2238,"Ġsearch":2239,"Ġdeb":2240,"Ġtrack":2241,"Ġmeas":2242,"vent":2243,"Ġfilm":2244,"Ġcustomers":2245,"ask":2246,"Ġdel":2247,"used":2248,"Ġblack":2249,"14":2250,"Ġwanted":2251,"arning":2252,"Ġdig":2253,"://":2254,"vert":2255,"Ġtrying":2256,"Ġtaken":2257,"Ġrepl":2258,"ĠAfter":2259,"ung":2260,"ED":2261,"ively":2262,"Ġsignific":2263,"Ġfavor":2264,"Ġmag":2265,"Ġweb":2266,"ficult":2267,"fact":2268,"Ġespecially":2269,"ĠPres":2270,"Ġlikely":2271,"Ġnecess":2272,"lex":2273,"Ġhowever":2274,"Ġvarious":2275,"Ġareas":2276,"Ġparticip":2277,"gest":2278,"omes":2279,"yn":2280,"Ġsix":2281,"Ġsent":2282,"Ġexc":2283,"org":2284,"aur":2285,"Ġsimple":2286,"200":2287,"Ġthird":2288,"ĠTw":2289,"Ġneeded":2290,"ĠEurope":2291,"Ġdou":2292,"oid":2293,"Ġmanagement":2294,"ĠGo":2295,"Ġpret":2296,"Ġconsum":2297,"Ġasked":2298,"Ġpoints":2299,"obal":2300,"ĠGr":2301,"Ġoil":2302,"ĠStates":2303,"Ġways":2304,"resh":2305,"gress":2306,"Ġcoming":2307,"Ġspend":2308,"Ġcir":2309,"umb":2310,"ication":2311,"Ġdifficult":2312,"ops":2313,"Ġperformance":2314,"IT":2315,"Ġelse":2316,"Ġcomput":2317,"Ġcard":2318,"Ġoffice":2319,"iol":2320,"oved":2321,"ĠJan":2322,"Ġsimply":2323,"Ġissue":2324,"Ġ50":2325,"ires":2326,"ĠNational":2327,"Ġstaff":2328,"rie":2329,"time":2330,"Ġdocu":2331,"ĠHis":2332,"aching":2333,"ially":2334,"Ġprobably":2335,"Ġwriting":2336,"Ġrequired":2337,"ruction":2338,"Ġinstall":2339,"ĠSouth":2340,"Ġrather":2341,"Ġansw":2342,"To":2343,"itch":2344,"Ġhost":2345,"Ġprovides":2346,"ĠPe":2347,"Ġ:":2348,"my":2349,"Ġtext":2350,"Ġsoon":2351,"Ġadded":2352,"Ġ#":2353,"Ġliving":2354,"Ġabs":2355,"icated":2356,"year":2357,"Ġbed":2358,"Ġprofessional":2359,"Ġpretty":2360,"Ġfoot":2361,"angu":2362,"Ġexist":2363,"empt":2364,"ĠSchool":2365,"Ġisn":2366,"Ġposition":2367,"ole":2368,"ĠMr":2369,"opy":2370,"ĠEd":2371,"ĠNorth":2372,"Ġdam":2373,"ĠWorld":2374,"Ġassist":2375,"ĠSec":2376,"ification":2377,"Ġupd":2378,"roll":2379,"Ġcontinue":2380,"Ġbehind":2381,"Ġrisk":2382,"where":2383,"ĠDr":2384,"25":2385,"Ġcell":2386,"IC":2387,"urance":2388,"Ġhy":2389,"Ġrepresent":2390,"reme":2391,"Ġyourself":2392,"itting":2393,"ises":2394,"Ġmatter":2395,"Ġproblems":2396,".)":2397,"rug":2398,"ze":2399,"Ġcharacter":2400,"apt":2401,"ĠWill":2402,"Ġprep":2403,"eth":2404,"Ġwords":2405,"obile":2406,"ibr":2407,"Ġinit":2408,"Ġevents":2409,"oe":2410,"ring":2411,"itional":2412,"lt":2413,"Ġdeterm":2414,"Ġwhite":2415,"17":2416,"ĠAf":2417,"Ġaction":2418,"ĠAust":2419,"Ġ2013":2420,"ience":2421,"ĠDes":2422,"Ġnothing":2423,"Ġred":2424,"minist":2425,"Ġsignificant":2426,"Ġprovided":2427,"Ġsize":2428,"val":2429,"Ġforward":2430,"US":2431,"itten":2432,"Ġinfl":2433,"ĠQu":2434,"Ġaccording":2435,"Ġproperty":2436,"Ġannoun":2437,"ables":2438,"Ġnatural":2439,"pper":2440,"head":2441,"Ġpopular":2442,"ĠPark":2443,"Ġgra":2444,"uge":2445,"Ġaccept":2446,"ĠGe":2447,"clus":2448,"Ġsimilar":2449,"ĠPer":2450,"Ġimpact":2451,"Ġrole":2452,"astic":2453,"Ġweeks":2454,"Ġhon":2455,"ĠDep":2456,"ĠSm":2457,"Ġcook":2458,"Ġfail":2459,"Ġtou":2460,"ĠAb":2461,"Ġsubject":2462,"Ġtakes":2463,"Ġextra":2464,"ief":2465,"Ġfinal":2466,"Ġdate":2467,"era":2468,"Ġroad":2469,"Ġlog":2470,"ĠMark":2471,"reg":2472,"AC":2473,"ufact":2474,"Ġphone":2475,"ĠPart":2476,"ume":2477,"Ġunique":2478,"Ġachie":2479,"Ġstat":2480,"ĠJu":2481,"Ġfinancial":2482,"22":2483,"Ġground":2484,"ees":2485,"RE":2486,"Ġoutside":2487,"anc":2488,"ĠTra":2489,"ĠGl":2490,"Ġinj":2491,"Ġsum":2492,"Ġdeath":2493,"ival":2494,"Ġparty":2495,"ĠCor":2496,"ules":2497,"Ġassoci":2498,"Ġincludes":2499,"Ġselect":2500,"Ġtrue":2501,"Ġgeneral":2502,"Ġbeautiful":2503,"__":2504,"Ġwide":2505,"Ġfire":2506,"Ġsle":2507,"Ġoptions":2508,"ĠKe":2509,"Ġregard":2510,"Ġincrease":2511,"Ġlo":2512,"medi":2513,"nes":2514,"Ġpaper":2515,"pril":2516,"Ġupon":2517,"Ġswe":2518,"Ġexam":2519,"Ġheld":2520,"Ġchanges":2521,"aily":2522,"ĠCenter":2523,"Ġsend":2524,"Ġcoll":2525,"Ġeducation":2526,"ĠDis":2527,"ĠAug":2528,"na":2529,"Ġrespect":2530,"ĠBar":2531,"Ġkids":2532,"ĠTH":2533,"Ġrecent":2534,"Ġsafe":2535,"olution":2536,"Ġrecogn":2537,"ĠSome":2538,"ĠJust":2539,"Ġmodel":2540,"Ġestab":2541,"Ġarticle":2542,"ana":2543,"Ġsecurity":2544,"ades":2545,"Ġcouple":2546,"Ġopportunity":2547,"Ġtit":2548,"ĠOct":2549,"Ġtreatment":2550,"Ġsong":2551,"Al":2552,"Ġsystems":2553,"ĠAg":2554,"Ġtable":2555,"Ġcannot":2556,"overed":2557,"Ġagree":2558,"Ġseems":2559,"icro":2560,"ests":2561,"Ġcreated":2562,"aving":2563,"oura":2564,"Ġhtt":2565,"eter":2566,"Ġskin":2567,"Ġloss":2568,"izing":2569,"Ġdefin":2570,"Ġlonger":2571,"Ġmember":2572,"nov":2573,"Ġx":2574,"verage":2575,"leased":2576,"Ġleave":2577,"Ġrunning":2578,"ada":2579,"Ġpotential":2580,"Ġhigher":2581,"oph":2582,"ĠCounty":2583,"anced":2584,"arget":2585,"Ġcoun":2586,"oring":2587,"ĠPol":2588,"Ġusually":2589,"oud":2590,"Ġopp":2591,"Ġofficial":2592,"ĠAmerica":2593,"Ġstop":2594,"Ġshows":2595,"ude":2596,"Ġengine":2597,"Ġreceived":2598,"Ġfig":2599,"Ġdesigned":2600,"Ġfa":2601,"Ġdownload":2602,"Ġanim":2603,"Ġsoftware":2604,"erc":2605,"Ġchoose":2606,"Ġgen":2607,"Ġreading":2608,"iter":2609,"Ġknowledge":2610,"Ġlat":2611,"Ġinde":2612,"fl":2613,"Ġmoment":2614,"Ġinside":2615,"face":2616,"Ġthroughout":2617,"Ġbott":2618,"Ġfast":2619,"Ġready":2620,"ese":2621,"Ġdog":2622,"Ġcontrib":2623,"ming":2624,"Ġdetails":2625,"Ġcourt":2626,"Ġcomfort":2627,"60":2628,"Ġnetwork":2629,"Ġ198":2630,"Ġrad":2631,"Ġreceive":2632,"ID":2633,"oogle":2634,"Ġregular":2635,"Ġneg":2636,"Ġworth":2637,"cil":2638,"Ġspeak":2639,"Ġ2011":2640,"Ġstri":2641,"Ġanyone":2642,"ĠBy":2643,"Ġfunction":2644,"Ġprint":2645,"aced":2646,"Ã©":2647,"Ġattack":2648,"Ġattend":2649,"mit":2650,"Ġetc":2651,"Ġcontract":2652,"Ġtown":2653,"ĠAct":2654,"Ġensure":2655,"hib":2656,"uary":2657,"Ġplayers":2658,"arter":2659,"Ġball":2660,"ĠMarch":2661,"ĠStud":2662,"Ġsaw":2663,"Ġmach":2664,"Ġbox":2665,"Ġrate":2666,"Ġill":2667,"Ġleaders":2668,"ĠNow":2669,"Ġlives":2670,"Ġcollect":2671,"Ġoriginal":2672,"sy":2673,"Ġ,":2674,"Ġdepend":2675,"Ġhappy":2676,"iddle":2677,"Ġmedical":2678,"Ġfit":2679,"ĠIm":2680,"ĠWest":2681,"Ġwar":2682,"Ġpric":2683,"Ġdom":2684,"atory":2685,"idge":2686,"Ġsense":2687,"Ġmass":2688,"Ġtotal":2689,"ĠPa":2690,"Ġpark":2691,"ĠPre":2692,"iet":2693,"Ġgrowth":2694,"ĠPresident":2695,"Ġapplication":2696,"Ġnice":2697,"gu":2698,"Ġwonder":2699,"amed":2700,"Ġsales":2701,"Ġexpress":2702,"Ġclick":2703,"Ġele":2704,"aining":2705,"Ġut":2706,"Ġpractice":2707,"Ġbooks":2708,"ĠJune":2709,"Ġdescrib":2710,"Ġlate":2711,"Ġusers":2712,"Ġdecision":2713,"Ġlay":2714,"Ġthemselves":2715,"Ġlearning":2716,"Ġstra":2717,"based":2718,"Ġnational":2719,"ĠDav":2720,"Ġcolor":2721,"ĠDon":2722,"Ġrecently":2723,"Ġdeep":2724,"Ġemb":2725,"ening":2726,"earch":2727,"aging":2728,"ffe":2729,"Ġdest":2730,"Ġdep":2731,"Ġversion":2732,"atform":2733,"ceed":2734,"Ġmorning":2735,"ĠSpe":2736,"Ġcause":2737,"Ġhit":2738,"aign":2739,"Ġgoal":2740,"Ġstruct":2741,"icles":2742,"Ġprior":2743,"40":2744,"Ġquickly":2745,"Ġbase":2746,"edd":2747,"amb":2748,"ysis":2749,"Ġexact":2750,"oes":2751,"ĠMore":2752,"Ġcele":2753,"Ġ2010":2754,"Ġpers":2755,"Ġhands":2756,"irit":2757,"like":2758,"Ġnorm":2759,"Ġvia":2760,"Ġcurrently":2761,"cast":2762,"ached":2763,"ĠApril":2764,"ĠHouse":2765,"Ġsens":2766,"Ġformer":2767,"Ġprivate":2768,"ĠSept":2769,"ek":2770,"Ġstyle":2771,"Ġteac":2772,"21":2773,"ĠHealth":2774,"inary":2775,"Ġworked":2776,"Ġboard":2777,"iber":2778,"ashing":2779,"Ġlost":2780,"ĠArt":2781,"iff":2782,"uth":2783,"Ġadditional":2784,"ciety":2785,"Ġveh":2786,"Ġdeg":2787,"azing":2788,"Ġpolicy":2789,"adem":2790,"Ġitems":2791,"With":2792,"ĠDay":2793,"ĠReg":2794,"istic":2795,"Ġplaying":2796,"Ġrights":2797,"Ġpatients":2798,"Ġsat":2799,"Ġcredit":2800,"Ġproduction":2801,"sc":2802,"Our":2803,"ament":2804,"Ġmyself":2805,"ederal":2806,"Ġterms":2807,"oke":2808,"Ġintrodu":2809,"Ġitself":2810,"Ġmeeting":2811,"right":2812,"Ġviol":2813,"off":2814,"Ġactivities":2815,"Ġdrive":2816,"Ġhair":2817,"Ġaffect":2818,"action":2819,"ĠEm":2820,"Ġlangu":2821,"Ġwoman":2822,"Ġblock":2823,"Ġcas":2824,"ĠHigh":2825,"Ġability":2826,"ux":2827,"Ġmanufact":2828,"Ġimm":2829,"duct":2830,"ĠInc":2831,"lier":2832,"Ġmother":2833,"ession":2834,"Ġsqu":2835,"ĠEl":2836,"Ġcorre":2837,"Ġobs":2838,"Ġcustomer":2839,"My":2840,"Ġprim":2841,"ĠHar":2842,"Ġprotect":2843,"Ġep":2844,"Ġsummer":2845,"Ġ40":2846,"Ġincluded":2847,"Ġcases":2848,"Ġwall":2849,"ground":2850,"Ġskills":2851,"Ġcareer":2852,"hel":2853,"ha":2854,"ague":2855,"Ġbegan":2856,"Ġautom":2857,"Ġri":2858,"Ġblood":2859,"irth":2860,"aby":2861,"Ġpan":2862,"Ġscreen":2863,"Ġobject":2864,"ological":2865,"erve":2866,"ournal":2867,"Ġfight":2868,"Ġprograms":2869,"artment":2870,"ecut":2871,"Ġinsp":2872,"Ġgoes":2873,"OU":2874,"Ġbal":2875,"Ġwasn":2876,"Ġweight":2877,"âĢ¢":2878,"Ġchance":2879,"mon":2880,"ĠWhile":2881,"Ġarri":2882,"Ġdise":2883,"Ġcam":2884,"ĠJuly":2885,"Ġcool":2886,"ĠOff":2887,"bor":2888,"airs":2889,"asons":2890,"Ġpolitical":2891,"ĠCour":2892,"Ġtour":2893,"Ġremember":2894,"Ġlatest":2895,"imum":2896,"Ġstudent":2897,"Ġeasily":2898,"ales":2899,"ĠBu":2900,"pose":2901,"Ġdraw":2902,"All":2903,"Ġcand":2904,"Ġmix":2905,"Ġjud":2906,"Ġapproach":2907,"ham":2908,"hood":2909,"Ġtarget":2910,"Ġclos":2911,"ĠHer":2912,"....":2913,"Ġbecame":2914,"aturday":2915,"Ġgrad":2916,"Ġinvolved":2917,"Ġ...":2918,"Ġimmedi":2919,"Ġlegal":2920,"Ġparents":2921,"Ġdecided":2922,"Ġlevels":2923,"pri":2924,"reng":2925,"Ġmatch":2926,"haps":2927,"Ġappe":2928,"Ġchalleng":2929,"OT":2930,"Ġinternational":2931,"Ġstock":2932,"Ph":2933,"Ġround":2934,"Ġinstead":2935,"Ġsun":2936,"urb":2937,"Ġaf":2938,"itc":2939,"ĠHere":2940,"Ġbuilt":2941,"AM":2942,"illing":2943,"ray":2944,"ett":2945,"enced":2946,"ĠSw":2947,"Ġconditions":2948,"Ġlooks":2949,"Ġshall":2950,"Ġfelt":2951,"ĠFin":2952,"Ġlower":2953,"Ġdating":2954,"ĠBro":2955,"Ġchoice":2956,"ĠMich":2957,"su":2958,"ĠFeb":2959,"Ġsaf":2960,"ĠWar":2961,"fficient":2962,"Ġcommit":2963,"Ġclients":2964,"iction":2965,"Ġwritten":2966,"Ġ21":2967,"OS":2968,"Ġdrug":2969,"Ġsurpr":2970,"ĠVal":2971,"ĠUs":2972,"ris":2973,"Ġhol":2974,"ipment":2975,"light":2976,"Ġcountries":2977,"iam":2978,"Ġapply":2979,"Ġsell":2980,"urg":2981,"Ġmarketing":2982,"ny":2983,"Ġnecessary":2984,"At":2985,"Ġbud":2986,"Ġ2017":2987,"Ġord":2988,"Ġwrite":2989,"Ġbank":2990,"Ġattempt":2991,"Ġideas":2992,"Ġ2016":2993,"put":2994,"Ġattention":2995,"Ġones":2996,"Ġ2014":2997,"Ġmention":2998,"ĠPar":2999,"Ġplatform":3000,"itter":3001,"Ġcomputer":3002,"ĠAssoci":3003,"Ġsett":3004,"atives":3005,"hern":3006,"Ġprojects":3007,"just":3008,"ĠAustral":3009,"Ġmaintain":3010,"Ġcampaign":3011,"rought":3012,"unday":3013,"uses":3014,"Sh":3015,"Ġstandard":3016,"ky":3017,"Ġfavorite":3018,"Ġbenefits":3019,"Ġcosts":3020,"ING":3021,"ĠInt":3022,"Ġrelated":3023,"ĠMon":3024,"kend":3025,"Ġboy":3026,"Ġeyes":3027,"ĠBlack":3028,"Ġhear":3029,"Ġfresh":3030,"Ġfeed":3031,"Ġrelease":3032,"str":3033,"Ġcy":3034,"Ġintegr":3035,"attle":3036,"Ġencoura":3037,"erous":3038,"aught":3039,"aves":3040,"Ġbi":3041,"Ġhuge":3042,"Ġallows":3043,"ĠAugust":3044,"Ġsn":3045,"Ġ22":3046,"onse":3047,"unt":3048,"ĠAdd":3049,"ĠAfric":3050,"Ġvariety":3051,"wood":3052,"Ġmovie":3053,"Ġinvestig":3054,"Ġemer":3055,"ought":3056,"ĠTV":3057,"iple":3058,"ivity":3059,"Ġgroups":3060,"Ġtrust":3061,"Ġgave":3062,"Ġvict":3063,"Ġwrong":3064,"ĠFriday":3065,"uel":3066,"ĠSan":3067,"Ġleading":3068,"Ġgets":3069,"Ġsil":3070,"Ġglobal":3071,"oom":3072,"ĠBrit":3073,"ĠChar":3074,"ovember":3075,"cription":3076,"ications":3077,"Ġeffective":3078,"Ġdrink":3079,"Ġdoor":3080,"Ġexcept":3081,"Ġpolice":3082,"Ġplans":3083,"Ġdiv":3084,"ĠOb":3085,"ester":3086,"Ġrequest":3087,"Ġtouch":3088,"Ġuser":3089,"Ġoption":3090,"ondon":3091,"Ġ2015":3092,"One":3093,"Ġaw":3094,"ĠUK":3095,"Ġdefe":3096,"Ġpropos":3097,"hold":3098,"Ġlab":3099,"Ġtal":3100,"ĠThen":3101,"Ġ2009":3102,"itary":3103,"avy":3104,"ĠEnglish":3105,"bit":3106,"Ġsepar":3107,"ĠFace":3108,"ĠMus":3109,"ĠDepartment":3110,"Ġhor":3111,"Ġsus":3112,"ension":3113,"ns":3114,"Ġsold":3115,"Ġresources":3116,"ĠOf":3117,"Ġpull":3118,"That":3119,"Ġrev":3120,"Ġmodern":3121,"usiness":3122,"Ġsaying":3123,"Ġanswer":3124,"ule":3125,"cip":3126,"aged":3127,"onday":3128,"iring":3129,"Ġreported":3130,"aste":3131,"Ġfair":3132,"70":3133,"enty":3134,"Ġgives":3135,"Ġparts":3136,"Ġimage":3137,"alt":3138,"Cl":3139,"Ġthinking":3140,"Ġhimself":3141,"Ġspeed":3142,"sp":3143,"idered":3144,"Ġsites":3145,"'d":3146,"Ġlif":3147,"mercial":3148,"Ġpred":3149,"Ġstru":3150,"wise":3151,"OM":3152,"king":3153,"Ġexcell":3154,"ĠCalif":3155,"Ġplayed":3156,"Ġ2018":3157,"Ġknew":3158,"ĠRed":3159,"Ġsafety":3160,"Ġdisplay":3161,"Ġrout":3162,"Ġenter":3163,"Ġcompletely":3164,"Be":3165,"Ġadminist":3166,"Ġpresident":3167,"cember":3168,"Ġinteresting":3169,"Ġstreng":3170,"Ġdigital":3171,"24":3172,"vey":3173,"verse":3174,"Ġpurchase":3175,"Ġdaily":3176,"ville":3177,"ĠJanuary":3178,"Ġexpected":3179,"Ġamazing":3180,"Ġheard":3181,"Ġ23":3182,"Ġtypes":3183,"Ġplant":3184,"ishing":3185,"Ġgiving":3186,"Ġlocated":3187,"Ġprin":3188,"Ġpiece":3189,"Ġcenter":3190,"Ġsource":3191,"mission":3192,"Ġflow":3193,"cious":3194,"Ġpositive":3195,"ĠFrom":3196,"ĠAc":3197,"80":3198,"ĠSch":3199,"ĠSeptember":3200,"Ġsche":3201,"ĠOctober":3202,"Ġsituation":3203,"Ġaverage":3204,"EC":3205,"ĠAcc":3206,"yond":3207,"Ġprevent":3208,"Ġcat":3209,"iding":3210,"ĠDirect":3211,"pite":3212,"ĠGerm":3213,"apan":3214,"Ġlocation":3215,"enge":3216,"tee":3217,"Ġslow":3218,"Ġfile":3219,"Ġinsurance":3220,"ĠInternational":3221,"Ġdocument":3222,"pre":3223,"isions":3224,"ara":3225,"Ġextreme":3226,"urt":3227,"Ġnature":3228,"itation":3229,"Ġcross":3230,"zy":3231,"99":3232,"Ġproviding":3233,"Ġsometimes":3234,"Ġcomment":3235,"ption":3236,"Ġsave":3237,"ĠPat":3238,"Ġdark":3239,"band":3240,"ma":3241,"ĠSci":3242,"23":3243,"After":3244,"Ġinterview":3245,"ica":3246,"Ġmid":3247,"Ġbur":3248,"ornia":3249,"rs":3250,"Ġdetail":3251,"Ġdepart":3252,"Ġled":3253,"ĠGoogle":3254,"Ġvac":3255,"sec":3256,"Ġpath":3257,"Ġ2008":3258,"gar":3259,"Ġcelebr":3260,"Ġorganization":3261,"Ġnote":3262,"ls":3263,"aker":3264,"Ġinflu":3265,"Ġdead":3266,"ĠCons":3267,"key":3268,"itely":3269,"Ġhighly":3270,"ET":3271,"ilies":3272,"Ġqual":3273,"imately":3274,"Ġfloor":3275,"Ġarch":3276,"Ġwood":3277,"rote":3278,"cks":3279,"Ġpublished":3280,"aly":3281,"Ġsection":3282,"Ġtools":3283,"Ġbroad":3284,"Ġgreen":3285,"ĠSer":3286,"ospital":3287,"ĠAut":3288,"Ġdirectly":3289,"Ġstarting":3290,"Ġmobile":3291,"iles":3292,"ĠSaturday":3293,"Ġstuff":3294,"aches":3295,"Ġweekend":3296,"itute":3297,"Ġconsidered":3298,"ĠCommun":3299,"Ġturned":3300,"ald":3301,"Ġphysical":3302,"Ġaff":3303,"ibly":3304,"Ġdecl":3305,"Ġoffe":3306,"idents":3307,"Ġstories":3308,"Ġfather":3309,"Ġbrought":3310,"isc":3311,"No":3312,"add":3313,"Ġpartners":3314,"Ġreach":3315,"ĠNet":3316,"agn":3317,"Ġhelps":3318,"Ġtowards":3319,"ĠLondon":3320,"Ġconvers":3321,"Ġfeature":3322,"Ġreve":3323,"Ġsubs":3324,"Ġmultiple":3325,"aint":3326,"Ġsleep":3327,"EL":3328,"Ġindividuals":3329,"Ġcondition":3330,"ĠStreet":3331,"Ġlanguage":3332,"ari":3333,"ened":3334,"Ġfine":3335,"sych":3336,"Ġten":3337,"cies":3338,"omen":3339,"ĠSunday":3340,"\".":3341,"Ġlooked":3342,"ĠCoun":3343,"aries":3344,"Ġavoid":3345,"Ġsolution":3346,"Ġcup":3347,"Ġfell":3348,"Ġ+":3349,"Ġdream":3350,"ĠâĢ¦":3351,"Ġplayer":3352,"orge":3353,"Ġprogress":3354,"ael":3355,"EO":3356,"ĠAir":3357,"Ġcollection":3358,"name":3359,"Ġpen":3360,"Ġreleased":3361,"col":3362,"ĠSen":3363,"www":3364,"Ġanalysis":3365,"ĠNovember":3366,"Ġconsist":3367,"Ġeconomic":3368,"Ġaware":3369,"ivil":3370,"Ġlimited":3371,"âĢĿ.":3372,"board":3373,"ashington":3374,"ĠKing":3375,"Ġcapt":3376,"Ġson":3377,"Ġcertainly":3378,"Ġge":3379,"Ġmaterials":3380,"Ġstates":3381,"Ġconcept":3382,"Ġmat":3383,"Ġlack":3384,"Ġdevice":3385,"ruary":3386,"Ġeye":3387,"Ġwarm":3388,"Ġhour":3389,"IL":3390,"ores":3391,"uk":3392,"Ġrestaur":3393,"Ġsubst":3394,"ancy":3395,"Ġcarry":3396,"ĠFacebook":3397,"ĠRead":3398,"ĠSim":3399,"aling":3400,"ĠGener":3401,"Ġresponse":3402,"ength":3403,"Ġcomplex":3404,"arily":3405,"Ġcopy":3406,"Ġfirm":3407,"Ġnation":3408,"Ġequipment":3409,"Ġ28":3410,"Ġfix":3411,"itchen":3412,"Ġemployees":3413,"Ġband":3414,"ĠLaw":3415,"Ġfeeling":3416,"Ġdro":3417,"wor":3418,"izes":3419,"Ġcirc":3420,"Ġgold":3421,"Ġple":3422,"ĠCalifornia":3423,"Ġsuccessful":3424,"Ġclub":3425,"Ġmount":3426,"Ġadult":3427,"Ġregul":3428,"het":3429,"Ġimplement":3430,"Ġspent":3431,"ĠPlease":3432,"Ġvot":3433,"ĠJe":3434,"Ġinterested":3435,"?âĢĿ":3436,"ĠAre":3437,"ĠChina":3438,"uate":3439,"Ġmessage":3440,"ram":3441,"Ġcollege":3442,"antly":3443,"Ġtrip":3444,"Ġbehav":3445,"Ġcode":3446,"Ġgrowing":3447,"Ġrespond":3448,"Ġfinally":3449,"Ġphotos":3450,"Ġeffects":3451,"Ġdistrib":3452,"raft":3453,"error":3454,"Ġachieve":3455,"Ġ26":3456,"Ġrace":3457,"ĠFirst":3458,"ani":3459,"ĠGroup":3460,"ography":3461,"ĠCourt":3462,"ida":3463,"Ġexerc":3464,"rast":3465,"Ġplaces":3466,"Ġadvant":3467,"Ġpromot":3468,"Ġexpert":3469,"Ġeffort":3470,"lim":3471,"Ġregist":3472,"Ġneigh":3473,"ĠDem":3474,"Ġded":3475,"Ġlic":3476,"ĠDecember":3477,"ĠWind":3478,"vin":3479,"ĠEvery":3480,"Ġbag":3481,"Ġhttp":3482,"ĠJes":3483,"Ġdeveloped":3484,"lin":3485,"aughter":3486,"opping":3487,"iment":3488,"ĠNews":3489,"Ġfully":3490,"Ġplanning":3491,"Ġprevious":3492,"ĠFree":3493,"rences":3494,"Ġtried":3495,"AP":3496,"Ġbirth":3497,"Ġbra":3498,"Ġspot":3499,"Ġinnov":3500,"ĠAN":3501,"zz":3502,"nds":3503,"Ġconnect":3504,"):":3505,"more":3506,"Ġimag":3507,"Ġeat":3508,"sequ":3509,"ocr":3510,"mark":3511,"Ġwants":3512,"Ġtraditional":3513,"Ġexactly":3514,"Ġappl":3515,"Ġstage":3516,"Ġfeet":3517,"ĠCollege":3518,"Ġevidence":3519,"Ġdemand":3520,"Ġmis":3521,"mas":3522,"arden":3523,"Ġmoving":3524,"Ġstress":3525,"Ġtick":3526,"Ġ27":3527,"erved":3528,"Ġimpress":3529,"Ġbusinesses":3530,"Ġprem":3531,"Ġbeginning":3532,"ĠJapan":3533,"unk":3534,"olute":3535,"Ġactivity":3536,"ĠUp":3537,"oday":3538,"ursday":3539,"Ġnearly":3540,"Ġorganiz":3541,"mitted":3542,"Ġhealthy":3543,"Ġwife":3544,"Ġculture":3545,"Ġdress":3546,"Ġ60":3547,"bl":3548,"Ġult":3549,"Ġdifference":3550,"Ġhous":3551,"Ġaltern":3552,"ĠLa":3553,"Ġsen":3554,"field":3555,"Ġ*":3556,"body":3557,"itable":3558,"Ġobtain":3559,"Ġthreat":3560,"Ġdisease":3561,"bum":3562,"ION":3563,"Ġgoals":3564,"Ġkn":3565,"uesday":3566,"Ġwel":3567,"ĠIndia":3568,"Ġemot":3569,"Ġdeliver":3570,"Ġaccom":3571,"Ġpurpose":3572,"Ġcreating":3573,"Ġinform":3574,"uted":3575,"ipping":3576,"arant":3577,"Ġhistor":3578,"vis":3579,"Ġwish":3580,"Ġfamilies":3581,"ednes":3582,"Ġpaid":3583,"They":3584,"ategy":3585,"Ġpressure":3586,"ĠWashington":3587,"ibrary":3588,"Ġpicture":3589,"Ġfat":3590,"By":3591,"oming":3592,"ying":3593,"Ġmaybe":3594,"ĠService":3595,"Ġexcellent":3596,"ĠMost":3597,"wide":3598,"anch":3599,"Ġprices":3600,"Ġsort":3601,"ĠWell":3602,"ĠMonday":3603,"Ġindepend":3604,"Ġstraight":3605,"down":3606,"Ġshoot":3607,"pm":3608,"Ġconsult":3609,"ĠPost":3610,"Ġacqu":3611,"Ġinstru":3612,"Ġbudget":3613,"estern":3614,"Ġdry":3615,"ĠEven":3616,"Ġunderstanding":3617,"Ġrent":3618,"ĠOut":3619,"ĠDavid":3620,"oly":3621,"Ġschools":3622,"ager":3623,"Ġdire":3624,"Ġopportunities":3625,"ube":3626,"Ġspirit":3627,"Ġparticularly":3628,"Ġfrequ":3629,"ares":3630,"Ġappropri":3631,"rench":3632,"chan":3633,"Ġrelig":3634,"Ġtalking":3635,"Ex":3636,"Ġdemon":3637,"Ġimages":3638,"rael":3639,"set":3640,"ĠRuss":3641,"ĠTHE":3642,"Ġshot":3643,"AD":3644,"Ġteams":3645,"venue":3646,"Ġbeyond":3647,"reed":3648,"Ġhop":3649,"Ġassess":3650,"Ġcorrect":3651,"Ġwrote":3652,"atever":3653,"Ġoccur":3654,"ruit":3655,"Ġter":3656,"Ġregion":3657,"Ġalone":3658,"ĠPaul":3659,"vest":3660,"asc":3661,"Ġthous":3662,"Ġheat":3663,"ĠTechn":3664,"45":3665,"rows":3666,"Ġtitle":3667,"ĠBusiness":3668,"oms":3669,"Ġwait":3670,"Ġaim":3671,"hest":3672,"Ġcert":3673,"ĠEast":3674,"ednesday":3675,"Ġsale":3676,"Ġsolutions":3677,"Ġanaly":3678,"Ġbaby":3679,"ĠProf":3680,"ĠMet":3681,"Ġreports":3682,"Ġstrateg":3683,"orage":3684,"OL":3685,"Ġannounced":3686,"Ġrequirements":3687,"Ġtemper":3688,"duc":3689,"BC":3690,"rig":3691,"Here":3692,"ĠII":3693,"Ġinvestment":3694,"Ġaward":3695,"olf":3696,"undred":3697,"Ġenh":3698,"inner":3699,"Ġdefinitely":3700,"Ġwhose":3701,"Ġgas":3702,"ĠJack":3703,"Ġrock":3704,"ashion":3705,"iant":3706,"Ġdirector":3707,"Ġearlier":3708,"Ġapart":3709,"Ġbillion":3710,"omb":3711,"ĠÂ£":3712,"ancing":3713,"Ġroll":3714,"Ġapplications":3715,"Ġbenefit":3716,"ĠIr":3717,"Ġ2019":3718,"Ġdoll":3719,"ords":3720,"ils":3721,"Ġcommercial":3722,"ears":3723,"Ġincreased":3724,"ĠServices":3725,"amm":3726,"reci":3727,"Ġcharge":3728,"Ġincreasing":3729,"Ġcandid":3730,"ĠFebruary":3731,"Ġoverall":3732,"rel":3733,"imin":3734,"ĠIN":3735,"ronic":3736,"isf":3737,"De":3738,"Ġopin":3739,"change":3740,"ĠWhite":3741,"ĠAlso":3742,"Ġmeaning":3743,"Ġfem":3744,"place":3745,"Ġver":3746,"ĠTrans":3747,"Pro":3748,"Ġdoub":3749,"Ġuses":3750,"ĠPal":3751,"ĠBook":3752,"ĠWeb":3753,"Ġserious":3754,"example":3755,"She":3756,"Ġcapital":3757,"ously":3758,"Ġglass":3759,"Ġalthough":3760,"Ġgrand":3761,"ĠMor":3762,"dom":3763,"oul":3764,"Ġstatement":3765,"ecutive":3766,"Ġfans":3767,"Ġtrade":3768,"PS":3769,"75":3770,"Ġnut":3771,"Ġimmediately":3772,"ĠHome":3773,"Ġallowed":3774,"ault":3775,"ooth":3776,"aled":3777,"Ġcouldn":3778,"itiz":3779,"Ġmiddle":3780,"Ġpet":3781,"Ġserve":3782,"Ġ2007":3783,"Ġchanged":3784,"Ġadvert":3785,"Ġchurch":3786,"Ġextend":3787,"Ġadvice":3788,"Ġload":3789,"Ġnumbers":3790,"ĠEar":3791,"ounds":3792,"Ġvoice":3793,"Ġstrugg":3794,"gen":3795,"icate":3796,"Ġsurv":3797,"Ġsmart":3798,"isl":3799,"Ġliter":3800,"Ġrates":3801,"pen":3802,"Ġseven":3803,"Ġund":3804,"ĠProgram":3805,"Ġfarm":3806,"edding":3807,"ĠTex":3808,"Ġsupply":3809,"Ġeight":3810,"Ġnormal":3811,"Ġpattern":3812,"Ġremain":3813,"ST":3814,"35":3815,"force":3816,"Ġoffered":3817,"ĠJesus":3818,"Ġproced":3819,"Ġreasons":3820,"ĠDist":3821,"rial":3822,"Ġloved":3823,"ĠGreen":3824,"Ġtruly":3825,"mp":3826,"Ġshown":3827,"iance":3828,"Ġowners":3829,"Ġden":3830,"Ġforce":3831,"Ġcomments":3832,"Ġbasis":3833,"Ġmachine":3834,"Ġcateg":3835,"ĠAM":3836,"ĠSystem":3837,"ĠPM":3838,"Ġscient":3839,"porate":3840,"Ġhappened":3841,"Ġinstit":3842,"Ġrules":3843,"Ġactive":3844,"iable":3845,"Ġreduce":3846,"etic":3847,"Ġcold":3848,"New":3849,"arc":3850,"Ġaspect":3851,"Ġ2020":3852,"urning":3853,"order":3854,"ĠLet":3855,"inger":3856,"ĠGreat":3857,"ĠRepublic":3858,"Ġmax":3859,"Ġdamage":3860,"Ġscience":3861,"26":3862,"Is":3863,"Ġessential":3864,"Now":3865,"ĠAssociation":3866,"ties":3867,"Ġlik":3868,"Ġmoved":3869,"Ġmilitary":3870,"ĠGet":3871,"Ġguide":3872,"Ġinternet":3873,"well":3874,"Ġcash":3875,"nded":3876,"Ġdegree":3877,"Ġjoin":3878,"Ġphoto":3879,"Ġconstruction":3880,"Ġquarter":3881,"Ġreflect":3882,"Ġstudies":3883,"cause":3884,"Ġprefer":3885,"house":3886,"Ġchallenge":3887,"While":3888,"Ġpow":3889,"Ġgar":3890,"que":3891,"Ġclin":3892,"Ġassociated":3893,"iling":3894,"Ġhus":3895,"Ġalbum":3896,"Ġresponsible":3897,"ĠIsrael":3898,"ĠInternet":3899,"ĠIndian":3900,"Ġmer":3901,"Ġcru":3902,"Ġeasier":3903,"ĠPlay":3904,"leg":3905,"Ġfederal":3906,"Ġcontain":3907,"Ġlines":3908,"mat":3909,"Ġ29":3910,"bon":3911,"100":3912,"ago":3913,"ĠCanada":3914,"Ġhelped":3915,"icip":3916,"Ġvehicle":3917,"ĠEuropean":3918,"Ġcancer":3919,"olic":3920,"Ġbasic":3921,"Ġprofession":3922,"Ġguy":3923,"ĠCle":3924,"Ġfra":3925,"Ġpatient":3926,"Ġble":3927,"orrow":3928,"istry":3929,"Ġdevices":3930,"ĠCouncil":3931,"ĠDel":3932,"see":3933,"ĠAss":3934,"Ġabsolute":3935,"iny":3936,"ĠMod":3937,"useum":3938,"Ġperhaps":3939,"Ġahead":3940,"Ġing":3941,"Ġhundred":3942,"Ġgone":3943,"Ġgreater":3944,"Ġwild":3945,"Ġaren":3946,"Ġwonderful":3947,"amic":3948,"Ġpages":3949,"rief":3950,"Ġspread":3951,"Un":3952,"Ġpartner":3953,"Ġsust":3954,"28":3955,"ĠSuper":3956,"ĠOther":3957,"ĠGold":3958,"istics":3959,"Ġdang":3960,"ses":3961,"Ġmeasure":3962,"Ġclient":3963,"Ġbill":3964,"rapy":3965,"Ġattract":3966,"rem":3967,"Ġconc":3968,"Ġlargest":3969,"Ġnotice":3970,"Ġstrategy":3971,"Ġpowerful":3972,"Ġoffering":3973,"ĠPort":3974,"IG":3975,"Ġwww":3976,"ĠGood":3977,"Ġproduce":3978,"Ġgirls":3979,"Ġguys":3980,"Ġpoor":3981,"osing":3982,"ĠSl":3983,"Ġjobs":3984,"ĠResearch":3985,"Ġannual":3986,"coming":3987,"Ġsurround":3988,"ston":3989,"ĠMac":3990,"Ġbrother":3991,"ĠChristmas":3992,"Ġefforts":3993,"27":3994,"Ġbottom":3995,"pa":3996,"Ġsports":3997,"Ġdelivery":3998,"cul":3999,"Ġfollowed":4000,"hips":4001,"ĠAnge":4002,"ĠChurch":4003,"Ġstick":4004,"ĠJames":4005,"Ġmiles":4006,"ico":4007,"Ġnamed":4008,"LE":4009,"ĠBoard":4010,"Ġlots":4011,"Ġclot":4012,"Ġpeace":4013,"Ġdouble":4014,"Ġappreci":4015,"Ġstar":4016,"ourney":4017,"Com":4018,"ĠHall":4019,"Ġhotel":4020,"Ġtransfer":4021,"Ġkitchen":4022,"Ġchem":4023,"Ġframe":4024,"term":4025,"Ġshop":4026,"Ġaccur":4027,"29":4028,"Ġafford":4029,"itect":4030,"ĠThursday":4031,"Ġpictures":4032,"rupt":4033,"eds":4034,"Ġtransport":4035,"ĠOffice":4036,"Ġfab":4037,"Ġadjust":4038,"ĠIS":4039,"Ġserved":4040,"ĠDevelop":4041,"apter":4042,"ĠBest":4043,"Ġletter":4044,"ĠWork":4045,"Ġsteps":4046,"ĠFound":4047,"Ġtruth":4048,"atively":4049,"ech":4050,"ĠTexas":4051,"Ġstrength":4052,"ĠTuesday":4053,"Ġoccas":4054,"care":4055,"Ġ=":4056,"Ġfaith":4057,"Ġregarding":4058,"ĠMany":4059,"Ġtrou":4060,"Ġcry":4061,"Ġexpand":4062,"ĠCompany":4063,"Ġborn":4064,"Ġobv":4065,"itude":4066,"ĠCong":4067,"Ġlock":4068,"ker":4069,"Ġblue":4070,"hens":4071,"Ġslight":4072,"Ġsetting":4073,"Ġsociety":4074,"ĠAny":4075,"ĠInter":4076,"ken":4077,"akers":4078,"Ġeval":4079,"Ġcompon":4080,"ĠAnt":4081,"OV":4082,"Ġhelping":4083,"ĠEduc":4084,"Ġsurface":4085,"Ġsweet":4086,"ustr":4087,"IV":4088,"Ġbrain":4089,"anging":4090,"Ġextremely":4091,"Ġkept":4092,"Ġappoint":4093,"ĠBritish":4094,"ulf":4095,"friend":4096,"Ġlearned":4097,"Ġfinished":4098,"inated":4099,"Ġweather":4100,"Ġcast":4101,"ĠMarket":4102,"acity":4103,"Ġvirt":4104,"ĠBel":4105,"ĠFlor":4106,"Ġfinish":4107,"ifying":4108,"Ġlength":4109,"ĠCr":4110,"Ġcollabor":4111,"Ġappropriate":4112,"Ġcompared":4113,"imb":4114,"ĠRem":4115,"ĠSpr":4116,"ĠRich":4117,"Ġmovement":4118,"ĠDesign":4119,"Ġtrain":4120,"encies":4121,"Ġopening":4122,"ero":4123,"ports":4124,"Ġhusband":4125,"Ġpopulation":4126,"ĠChristian":4127,"Ġcontinued":4128,"iced":4129,"Ġseeing":4130,"Ġexisting":4131,"Ġbreat":4132,"rey":4133,"asy":4134,"Ġsatisf":4135,"Ġcharacters":4136,"ipped":4137,"inally":4138,"Ġcamera":4139,"Ġreplace":4140,"Ġfant":4141,"ĠRom":4142,"unte":4143,"Ġprotection":4144,"lying":4145,"These":4146,"aming":4147,"Ġsuff":4148,"Ġworkers":4149,"Ġstructure":4150,"raw":4151,"Ġpros":4152,"Ġgenerally":4153,"ady":4154,"oving":4155,"90":4156,"Ġpieces":4157,"ĠWednesday":4158,"Ġincome":4159,"Ġexperienced":4160,"ĠPri":4161,"Ġwat":4162,"Ġcontinu":4163,"Ġ197":4164,"Ġesc":4165,"Ġgift":4166,"Ġplus":4167,"IP":4168,"dule":4169,"Ġguarant":4170,"Ġbeg":4171,"oices":4172,"Ġrepe":4173,"Ġadvantage":4174,"Ġcreative":4175,"Please":4176,"imal":4177,"ym":4178,"Ġeconomy":4179,"Ġadop":4180,"ĠMichael":4181,"Ġarr":4182,"Ġreb":4183,"ologies":4184,"Ġdisapp":4185,"Ġwear":4186,"lands":4187,"Ġlarger":4188,"CC":4189,"ĠBra":4190,"Ġonto":4191,"Ġcritical":4192,"ĠHot":4193,"Ġhomes":4194,"eria":4195,"ĠMem":4196,"using":4197,"ĠTy":4198,"ĠAustralia":4199,"Ġfigure":4200,"phone":4201,"Ġanti":4202,"ĠRet":4203,"Ġpayment":4204,"pective":4205,"Ġentertain":4206,"33":4207,"ĠWhy":4208,"Ġknows":4209,"Ġreality":4210,"Ġ2006":4211,"Ġthank":4212,"iled":4213,"ffee":4214,"ocal":4215,"opped":4216,"Ġprimary":4217,"ĠSol":4218,"Ġaudience":4219,"Ġincred":4220,"Ġhaven":4221,"Ġbackground":4222,"Ġbath":4223,"Ġmission":4224,"Ġbiggest":4225,"Ġpassed":4226,"TS":4227,"ĠOver":4228,"Ġwouldn":4229,"erry":4230,"Ġpsych":4231,"Ġreviews":4232,"ĠFrench":4233,"Ġnovel":4234,"ĠObama":4235,"Ġuseful":4236,"ampions":4237,"Ġiniti":4238,"ĠGeneral":4239,"Ġestablished":4240,"ki":4241,"ĠBill":4242,"Ġhom":4243,"ĠSur":4244,"Ġir":4245,"Ġcomfortable":4246,"EM":4247,"ĠOF":4248,"Ġmechan":4249,"DA":4250,"Ġdemonstr":4251,"vere":4252,"ĠRoad":4253,"65":4254,"riage":4255,"Ġactual":4256,"Ġtend":4257,"Ġorganizations":4258,"oves":4259,"udd":4260,"ĠOh":4261,"ĠPublic":4262,"ĠAnn":4263,"Ġvill":4264,"Not":4265,"Do":4266,"Ġrequires":4267,"Ġleader":4268,"Ġstorage":4269,"Ġelectric":4270,"Ġmethods":4271,"Ġconnection":4272,"aven":4273,"ĠLord":4274,"Don":4275,"Ġcompleted":4276,"ae":4277,"Ġheavy":4278,"Ġfinding":4279,"Ġfear":4280,"Ġcalls":4281,"Ġdriving":4282,"Ġstatus":4283,"ĠBig":4284,"icine":4285,"Ġbow":4286,"ĠMart":4287,"ĠBank":4288,"Ġgovern":4289,"IM":4290,"Ġtoward":4291,"Ġhighest":4292,"ĠTwitter":4293,"Ġharm":4294,"iques":4295,"ĠMag":4296,"Ġgun":4297,"OW":4298,"Ġolder":4299,"Ġunit":4300,"ado":4301,"la":4302,"Se":4303,"Ġutil":4304,"Ġguid":4305,"Ġmill":4306,"ĠEv":4307,"Ġexhib":4308,"ij":4309,"oos":4310,"porary":4311,"rowd":4312,"Ġtherefore":4313,"unately":4314,"ĠClub":4315,"ĠRober":4316,"ĠWindows":4317,"Ġcolle":4318,"Ġmodels":4319,"rees":4320,"Ġcoffee":4321,"ĠMary":4322,"Ġmist":4323,"sey":4324,"estival":4325,"Ġdied":4326,"Ġcivil":4327,"Ġcentury":4328,"Ġnames":4329,"Ġestablish":4330,"ĠAv":4331,"Ġstream":4332,"Ar":4333,"Ġ80":4334,"?\"":4335,"Ġchallenges":4336,"itar":4337,"roud":4338,"Ġprot":4339,"Ġfactors":4340,"Ġwhatever":4341,"ĠPC":4342,"Ġmanufacture":4343,"Ġjourney":4344,"ĠOnce":4345,"works":4346,"Ġsecret":4347,"ios":4348,"ĠSee":4349,"levant":4350,"nding":4351,"Ġshared":4352,"Ġfan":4353,"Ġmeant":4354,"ooking":4355,"Ġconference":4356,"Ġdaughter":4357,"asure":4358,"Some":4359,"Ġresist":4360,"Ġscene":4361,"ĠDirector":4362,"Ġdoctor":4363,"ĠJew":4364,"Ġproduced":4365,"za":4366,"ĠReview":4367,"TH":4368,"men":4369,"ĠRec":4370,"gn":4371,"Ġcommunities":4372,"Ġrefer":4373,"Ġexperiences":4374,"text":4375,"Ġtips":4376,"ĠSam":4377,"uman":4378,"Ġviews":4379,"Ġacadem":4380,"Con":4381,"Ġscen":4382,"Ġhar":4383,"odes":4384,"Ġpray":4385,"Ġpool":4386,"Ġmaster":4387,"ss":4388,"ĠLife":4389,"itors":4390,"Ġremind":4391,"Ġowner":4392,"ĠThom":4393,"itness":4394,"Ġdiet":4395,"Ġessay":4396,"ression":4397,"ervation":4398,"Ġstandards":4399,"gment":4400,"inese":4401,"Ġparties":4402,"Ġruns":4403,"Ġhappens":4404,"ĠApple":4405,"Ġchann":4406,"ĠST":4407,"ander":4408,"Ġretail":4409,"500":4410,"Ġsecure":4411,"orial":4412,"Ġlimit":4413,"Ġrob":4414,"ĠSince":4415,"soft":4416,"Ġ@":4417,"box":4418,"Ġplaced":4419,"Ġevening":4420,"rian":4421,"gal":4422,"âĢĿ,":4423,"ĠClass":4424,"ĠPlan":4425,"Ġcards":4426,"inn":4427,"RA":4428,"osure":4429,"Ġsolid":4430,"Ġmanager":4431,"rab":4432,"uty":4433,"Ġmanage":4434,"Pl":4435,"iller":4436,"Ġscore":4437,"Ġwaiting":4438,"roid":4439,"acing":4440,"entially":4441,"ĠBecause":4442,"Ġremains":4443,"Ġdrop":4444,"ĠSub":4445,"standing":4446,"know":4447,"Ġcovered":4448,"Ġcasino":4449,"enses":4450,"ĠFlorida":4451,"Ġearth":4452,"ĠMicro":4453,"ĠIT":4454,"Ġteaching":4455,"umn":4456,"ĠCare":4457,"oyal":4458,"with":4459,"ĠBay":4460,"Ġwindow":4461,"ona":4462,"ipe":4463,"Ġlands":4464,"Ġ31":4465,"ĠManagement":4466,"amily":4467,"Ġtraffic":4468,"Ġcitiz":4469,"Ġton":4470,"Ġbatter":4471,"ĠRob":4472,"Ġrare":4473,"Ġfiles":4474,"icks":4475,"ĠInstitute":4476,"Ġhospital":4477,"vention":4478,"ĠPeople":4479,"Ġâ":4480,"lor":4481,"Ġfashion":4482,"atically":4483,"ota":4484,"free":4485,"Ġlegisl":4486,"anta":4487,"Ġbecomes":4488,"mail":4489,"Ġmemory":4490,"Ġcells":4491,"ĠBre":4492,"Ġstreet":4493,"Ġforms":4494,"Ġclaims":4495,"Ġelements":4496,"ĠSun":4497,"Ġcompetition":4498,"ula":4499,"Ġargu":4500,"Ġmatt":4501,"lig":4502,"Ġgrant":4503,"Ġguess":4504,"Ġlose":4505,"Ġ90":4506,"Ġthanks":4507,"Ġshowed":4508,"Ġmulti":4509,"Ġfish":4510,"Ġlinks":4511,"Ġbalance":4512,"ĠCam":4513,"Ġmonitor":4514,"ĠPhil":4515,"Ġexercise":4516,"Ġtim":4517,"ĠWhe":4518,"Ġselection":4519,"miss":4520,"Ġfurn":4521,"Ġforeign":4522,"iation":4523,"ĠCommission":4524,"Ġearn":4525,"Ġprec":4526,"Ġdeveloping":4527,"Ġkeeping":4528,"azon":4529,"Ġrich":4530,"Ġwedding":4531,"Ġpassion":4532,"ĠRel":4533,"From":4534,"Ġdetermine":4535,"apers":4536,"ĠMiss":4537,"ĠRock":4538,"Ġmentioned":4539,"Ġspring":4540,"Ġcommunication":4541,"Ġstation":4542,"Ġoutd":4543,"Ġseemed":4544,"azine":4545,"Ġcontinues":4546,"Ġsenior":4547,"Ġideal":4548,"CH":4549,"UR":4550,"semb":4551,"ĠPress":4552,"ĠUSA":4553,"Â®":4554,"overy":4555,"eed":4556,"Ġepis":4557,"last":4558,"Ġflav":4559,"Ġvideos":4560,"ĠTime":4561,"fast":4562,"Ġrelax":4563,"Ġwine":4564,"Ġprepared":4565,"igned":4566,"ĠEach":4567,"____":4568,"Ġeth":4569,"ĠEngland":4570,"Ġsym":4571,"Ġopened":4572,"Ġsession":4573,"Ab":4574,"ĠCamp":4575,"95":4576,"Ġgain":4577,"ucky":4578,"**":4579,"Ġfunds":4580,"Ġtesting":4581,"ĠHel":4582,"Ġfol":4583,"iers":4584,"ĠRiver":4585,"Ġdescribed":4586,"ĠChild":4587,"Ġexclus":4588,"Ġoperations":4589,"Ġdirection":4590,"Ġrap":4591,"Ġcoach":4592,"Ġlaunch":4593,"kin":4594,"ĠSal":4595,"ĠPet":4596,"Ġmajority":4597,"Ġpaint":4598,"Ġimpl":4599,"yer":4600,"Ġbeat":4601,"Ġforget":4602,"osis":4603,"Ġclearly":4604,"Ġpresented":4605,"ĠMake":4606,"Ġcentral":4607,"gency":4608,"ĠCommit":4609,"Ġtechnical":4610,"ĠBen":4611,"Ġwatching":4612,"orney":4613,"Ġthousands":4614,"Ġplenty":4615,"osition":4616,"uled":4617,"bed":4618,"berg":4619,"amin":4620,"Ġcounter":4621,"PA":4622,"44":4623,"ĠLou":4624,"pan":4625,"Ġjump":4626,"Ġingred":4627,"Ġcatch":4628,"hy":4629,"but":4630,"ented":4631,"Ġflu":4632,"Ġjournal":4633,"ads":4634,"Ġboo":4635,"ĠHist":4636,"Ġbecoming":4637,"Ġcaused":4638,"Ġestate":4639,"ĠCongress":4640,"oto":4641,"Ġ2005":4642,"iture":4643,"Ġice":4644,"osh":4645,"Ġdat":4646,"Ġ70":4647,"inct":4648,"ette":4649,"Ġvision":4650,"ĠEducation":4651,"Ġofficials":4652,"Ġsexual":4653,"ipp":4654,"Ġwinter":4655,"Ġclasses":4656,"Ġtask":4657,"night":4658,"Ġfill":4659,"ooper":4660,"Ġleaving":4661,"icago":4662,"Ġexcited":4663,"Ġgraph":4664,"Ġrecords":4665,"ka":4666,"Ġpolic":4667,"Ġdiscover":4668,"ĠIns":4669,"Ġ>":4670,"Ġbutton":4671,"isco":4672,"Ġefficient":4673,"Ġcrowd":4674,"olly":4675,"Ġshape":4676,"Ġcris":4677,"Ġspending":4678,"Ġotherwise":4679,"ĠPR":4680,"Ġloan":4681,"Ġconven":4682,"ĠTom":4683,"icon":4684,"ctors":4685,"ĠSmith":4686,"Ġtrial":4687,"Ġwilling":4688,"More":4689,"ror":4690,"Ġdecide":4691,"ĠSa":4692,"Ġvalues":4693,"enture":4694,"Ġflex":4695,"Ġapprox":4696,"Ġsources":4697,"Ġcapacity":4698,"ĠAfrica":4699,"itz":4700,"Ġhandle":4701,"Ġindependent":4702,"ĠUse":4703,"Ġadding":4704,"Ġremove":4705,"Ġrank":4706,"Ġnor":4707,"OP":4708,"ception":4709,"Ġvote":4710,"Ġlaws":4711,"olate":4712,"ellow":4713,"Ġsustain":4714,"ĠYear":4715,"edy":4716,"Ġthus":4717,"actions":4718,"ĠMex":4719,"ĠAlthough":4720,"Ġsand":4721,"ĠFore":4722,"Ġ35":4723,"Ġappears":4724,"ĠCap":4725,"state":4726,"Ġtransl":4727,"Ġproud":4728,"Ġfootball":4729,"inc":4730,"Ġfamous":4731,"Ġsumm":4732,"Ġstarts":4733,"Ġartist":4734,"Ġagency":4735,"gl":4736,"Ġvictim":4737,"Ġcraft":4738,"ĠSing":4739,"cles":4740,"Ġsch":4741,"Ġplants":4742,"Ġadvance":4743,"iliar":4744,"Ġclosed":4745,"Ġconduct":4746,"ĠTop":4747,"Ġdespite":4748,"BS":4749,"antic":4750,"Ġwelcome":4751,"Ġschedule":4752,"Ġraised":4753,"arge":4754,"irgin":4755,"Ġegg":4756,"oop":4757,"Ġincor":4758,"Ġended":4759,"iency":4760,"outhern":4761,"36":4762,"ĠStr":4763,"ĠStar":4764,"\",":4765,"ĠChinese":4766,"Ġhonest":4767,"ading":4768,"Ġestim":4769,"ĠWater":4770,"Ġpair":4771,"Ġunc":4772,"Ġactions":4773,"ags":4774,"icken":4775,"ugg":4776,"ĠInformation":4777,"tenance":4778,"estic":4779,"Ġagreement":4780,"ĠOnline":4781,"CA":4782,"ĠVe":4783,"Ġsugar":4784,"fit":4785,");":4786,"esome":4787,"Ġvolunte":4788,"Ġshowing":4789,"cel":4790,"how":4791,"asp":4792,"ĠLike":4793,"Ġleadership":4794,"MS":4795,"Ġpractices":4796,"ĠPower":4797,"aked":4798,"Ġkid":4799,"Ġminute":4800,"ĠScience":4801,"Ġdecisions":4802,"Ġcab":4803,"Ġshopping":4804,"ternal":4805,"Why":4806,"Ġthoughts":4807,"roy":4808,"ĠDemocr":4809,"Cont":4810,"erg":4811,"Ġdedicated":4812,"gery":4813,"ĠMount":4814,"ĠLake":4815,"alls":4816,"Ġrelationships":4817,"Ġposted":4818,"ĠMal":4819,"point":4820,"win":4821,"Ġrelevant":4822,"Ġmort":4823,"Ġcontains":4824,"abilities":4825,"Ġanimals":4826,"Ġmicro":4827,"Ġopinion":4828,"Ġtaste":4829,"Ġnumerous":4830,"Ġtree":4831,"ĠMat":4832,"Bl":4833,"Ġship":4834,"38":4835,"Ġvs":4836,"ste":4837,"ĠDown":4838,"ĠDet":4839,"Ġcars":4840,"Ġign":4841,"Ġresidents":4842,"Ġbehavior":4843,"ishes":4844,"umber":4845,"Ġexperts":4846,"Ġcloud":4847,"Ġ196":4848,"Ġpresence":4849,"Ġbuying":4850,"ixt":4851,"Ġfocused":4852,"ĠMil":4853,"Ġdiscussion":4854,"going":4855,"no":4856,"ĠCheck":4857,"Ġsmaller":4858,"ĠSil":4859,"Ġdepartment":4860,"Ġrat":4861,"Your":4862,"ga":4863,"Ġleaves":4864,"usion":4865,"active":4866,"Ġbrief":4867,"Ġmail":4868,"Ġdriver":4869,"rd":4870,"Ġseparate":4871,"IA":4872,"ĠCommittee":4873,"Ad":4874,"ĠBrown":4875,"Me":4876,"Ġmotor":4877,"Ġsnow":4878,"ĠDec":4879,"ĠGovernment":4880,"Ġmental":4881,"Ġchanging":4882,"Ġfacilities":4883,"Ġarm":4884,"Ġwaste":4885,"Ġlisted":4886,"Ġupdate":4887,"Ġsector":4888,"Ġrule":4889,"Ġsty":4890,"Ġbright":4891,"Ġsched":4892,"NA":4893,"Ġcore":4894,"Ġdiagn":4895,"Ġreached":4896,"Ġur":4897,"press":4898,"Ġcircum":4899,"oma":4900,"Ġrestaurant":4901,"ĠProfess":4902,"Ġidentify":4903,"ĠUnder":4904,"Ġchair":4905,"Ġsem":4906,"Ġbon":4907,"ĠCur":4908,"Ġgarden":4909,"ĠAlex":4910,"Le":4911,"ĠGeorge":4912,"craft":4913,"Ġwhom":4914,"uries":4915,"Ġinitial":4916,"Ġinjury":4917,"isation":4918,"Ġmanaged":4919,"Ġteachers":4920,"Ġselected":4921,"Ġworry":4922,"Ġbought":4923,"Ġprinci":4924,"life":4925,"Ġpreviously":4926,"Ġdinner":4927,"ĠVis":4928,"Ġthrow":4929,"Ġconcerns":4930,"Ġnotes":4931,"Ġcorner":4932,"Ġdocuments":4933,"BA":4934,"Ġarchitect":4935,"Ġspect":4936,"ĠSum":4937,"34":4938,"ĠLear":4939,"Ġmarkets":4940,"ĠDevelopment":4941,"Ġdecor":4942,"Ġvisual":4943,"Ġbul":4944,"rad":4945,"outs":4946,"Ġfunding":4947,"ĠClick":4948,"reek":4949,"Ġputting":4950,"Ġexplore":4951,"Ġap":4952,"Ġoperating":4953,"Ġeating":4954,"pet":4955,"Ġtemperature":4956,"Ġsympt":4957,"Ġflat":4958,"rehens":4959,"ĠAND":4960,"ĠProject":4961,"Acc":4962,"ferences":4963,"Ġcream":4964,"esterday":4965,"coh":4966,"what":4967,"Ġsmooth":4968,"Ġteacher":4969,"32":4970,"ĠVol":4971,"Ġtrail":4972,"Ġmostly":4973,"ĠWin":4974,"ĠAP":4975,"Ġlisten":4976,"Ġrid":4977,"ĠAtt":4978,"Ġabsolutely":4979,"Ġsitu":4980,"Ġbeauty":4981,"Ġdelic":4982,"55":4983,"unction":4984,"Ġadvanced":4985,"Ġcoverage":4986,"Ġwalking":4987,"Ġbattle":4988,"Ġdefense":4989,"Ġfreed":4990,"Ġsharing":4991,"ulated":4992,"Ġeventually":4993,"Ġbrings":4994,"urd":4995,"Ġsea":4996,"Get":4997,"!âĢĿ":4998,"Ġspl":4999,"Ġasking":5000,"Ġ2000":5001,"Ġencourage":5002,"ĠTO":5003,"ushing":5004,"Ġartists":5005,"Ġconcent":5006,"ĠIsland":5007,"Ġspecies":5008,"Ġcompar":5009,"Ġpoll":5010,"Ġwinning":5011,"Ġkick":5012,"illa":5013,"Ġrain":5014,"Post":5015,"ENT":5016,"Ġalternative":5017,"spe":5018,"Ġsongs":5019,"Phone":5020,"while":5021,"Ġadapt":5022,"ĠDistrict":5023,"Ġresponsibility":5024,"tered":5025,"Ġposts":5026,"ĠHill":5027,"Ġarticles":5028,"Ġshut":5029,"Ġslightly":5030,"Ġholiday":5031,"37":5032,"ĠChicago":5033,"Ġradio":5034,"Ġsouth":5035,"Ġride":5036,"Ġthr":5037,"Ġfeels":5038,"Ġdoubt":5039,"ĠFoundation":5040,"levision":5041,"Ġlabor":5042,"Ġbird":5043,"Ġconnected":5044,"ĠTheir":5045,"Ġhearing":5046,"ĠCentral":5047,"ĠJo":5048,"Ġlaun":5049,"ĠJer":5050,"Ġclassic":5051,"cient":5052,"Ġmedium":5053,"Ġfilled":5054,"Ġsounds":5055,"irus":5056,"Ġfabric":5057,"ini":5058,"ĠSocial":5059,"Ġneighbor":5060,"ĠCarol":5061,"ĠBet":5062,"Ġcombination":5063,"Ġmetal":5064,"ĠFood":5065,"Ġenvironmental":5066,"ĠOpen":5067,"race":5068,"rim":5069,"Ġexpensive":5070,"ĠTimes":5071,"ĠCommunity":5072,"ĠWood":5073,"48":5074,"cipe":5075,"âĢĺ":5076,"idential":5077,"Ġreturned":5078,"Ġadministration":5079,"Ġfriendly":5080,"Ġprofessionals":5081,"Ġpolicies":5082,"llig":5083,"Ġcolors":5084,"ĠAmericans":5085,"Ġsurvey":5086,"Ġtechniques":5087,"Ġfee":5088,"ĠScott":5089,"word":5090,"Ġentry":5091,"which":5092,"Ġseek":5093,"rive":5094,"Ġmouth":5095,"ya":5096,"Ġunless":5097,"Ġveget":5098,"Ġindic":5099,"ructure":5100,"known":5101,"ulate":5102,"Ġexciting":5103,"Ġproceed":5104,"ection":5105,"Ġ2004":5106,"tion":5107,"Ġdebt":5108,"Ġdu":5109,"ucle":5110,"fr":5111,"Ġfemale":5112,"cket":5113,"ograp":5114,"Ġallowing":5115,"Ġselling":5116,"ano":5117,"ĠHy":5118,"icians":5119,"ĠDiv":5120,"ĠLove":5121,"Ġconsid":5122,"Ġmap":5123,"IR":5124,"rolled":5125,"Ġgeneration":5126,"Ġrooms":5127,"App":5128,"igr":5129,"Ġkilled":5130,"ĠYes":5131,"Ġmo":5132,"Ġaccompl":5133,"Ġguests":5134,"atures":5135,"Ġoptim":5136,"ĠArch":5137,"Ġproperties":5138,"fin":5139,"unning":5140,"Ġmarriage":5141,"Ġdisp":5142,"essions":5143,"ĠBlue":5144,"Ġer":5145,"Ġarrest":5146,"Ġnegative":5147,"Ġpackage":5148,"ĠLu":5149,"ius":5150,"ĠFranc":5151,"Ġnorth":5152,"fortunately":5153,"Ġdistance":5154,"ĠCD":5155,"Ġcheap":5156,"Ġdepos":5157,"Ġclimate":5158,"resp":5159,"Ġjoint":5160,"noon":5161,"ĠLeague":5162,"oles":5163,"Ġleads":5164,"Ġmarried":5165,"isher":5166,"top":5167,"Ne":5168,"Read":5169,"Ġassistance":5170,"ĠTor":5171,"orter":5172,"Ġban":5173,"ĠLin":5174,"ĠTrump":5175,"ushed":5176,"ĠConst":5177,"water":5178,"Ġplays":5179,"gers":5180,"net":5181,"Ġju":5182,"Ġcart":5183,"Ġhelpful":5184,"Ġoperation":5185,"Ġcontext":5186,"ommod":5187,"cont":5188,"Ġfuel":5189,"Ġtypically":5190,"bert":5191,"Ġpal":5192,"Ste":5193,"Ġcommitted":5194,"Ġrise":5195,"Ġsteel":5196,"Ġinfluence":5197,"Ġtheme":5198,"OD":5199,"ĠToday":5200,"Ġsigned":5201,"ĠFire":5202,"osen":5203,"ulture":5204,"ocolate":5205,"ĠMass":5206,"Ġjoined":5207,"Ġapplied":5208,"Ġreaders":5209,"Ġtight":5210,"ĠTwo":5211,"Ġtele":5212,"Ġbrows":5213,"igan":5214,"orthern":5215,"Ġcities":5216,"ĠNor":5217,"49":5218,"ĠMad":5219,"ĠMain":5220,"hab":5221,"Ġyouth":5222,"ĠJournal":5223,"39":5224,"ĠGrand":5225,"ii":5226,"Ġdistrict":5227,"ups":5228,"uce":5229,"Ġminor":5230,"Ġ45":5231,"ĠAmazon":5232,"Ġfees":5233,"ĠJud":5234,"ĠBer":5235,"Ġconversation":5236,"Des":5237,"PR":5238,"Ġprocesses":5239,"nel":5240,"Ġweap":5241,"Ġdiscount":5242,"However":5243,"ĠEngine":5244,"Ġperformed":5245,"Ġedge":5246,"Ġmeasures":5247,"88":5248,"zen":5249,"Ġourselves":5250,"Ġelection":5251,"ĠWho":5252,"Ġnoted":5253,"Ġimportance":5254,"Ġbeach":5255,"47":5256,"Ġsequ":5257,"Ġsitting":5258,"ĠDi":5259,"Add":5260,"anda":5261,"Ġcorporate":5262,"Ġwire":5263,"Ġforces":5264,"odies":5265,"Just":5266,"bo":5267,"Ġholding":5268,"ĠUnion":5269,"Ġsport":5270,"Ġaccident":5271,"Ĥ¬":5272,"DF":5273,"otic":5274,"Ġthick":5275,"ship":5276,"ait":5277,"Ġraise":5278,"Ġbusy":5279,"cher":5280,"Ġplastic":5281,"Ġsuppl":5282,"ĠEarth":5283,"Ġenjoyed":5284,"ĠPay":5285,"Ġminimum":5286,"Ġenhance":5287,"Last":5288,"Ġwriter":5289,"ĠQue":5290,"ordin":5291,"ĠThanks":5292,"Ġfamiliar":5293,"uable":5294,"ĠMot":5295,"Ġconsumers":5296,"Ġsets":5297,"Ġforg":5298,"Ġintellig":5299,"Ġrepair":5300,"ivered":5301,"Ġsav":5302,"ifts":5303,"Ġprofile":5304,"ĠElect":5305,"poses":5306,"Ġscale":5307,"bre":5308,"Ġexchange":5309,"Ġstated":5310,"Ġpossibly":5311,"Ġappeared":5312,"Ġtells":5313,"Ġlived":5314,"eal":5315,"Ġteach":5316,"Ġfourth":5317,"Ġcourses":5318,"Ġvalid":5319,"arrant":5320,"Ġexplain":5321,"ĠSociety":5322,"ĠFrank":5323,"istan":5324,"Ġvisitors":5325,"Ġwebsites":5326,"Ġpush":5327,"Ġtransform":5328,"ĠCEO":5329,"Ġtopic":5330,"rier":5331,"Ġmanner":5332,"SA":5333,"May":5334,"ĠBack":5335,"Ġingredients":5336,"Ġpredict":5337,"ĠTeam":5338,"ĠMusic":5339,"Ġemp":5340,"Ġunits":5341,"Every":5342,"ilding":5343,"ĠReal":5344,"obe":5345,"LC":5346,"you":5347,"Ġpregn":5348,"ania":5349,"ĠColor":5350,"31":5351,"Ġder":5352,"ĠAcadem":5353,"ĠSpecial":5354,"Ġtough":5355,"Ġmovies":5356,"ye":5357,"Ġdyn":5358,"Ġseat":5359,"bu":5360,"Ġconflic":5361,"Ġpun":5362,"Ġmaintenance":5363,"ĠWomen":5364,"Ġmale":5365,"ĠRobert":5366,"Ġseeking":5367,"Ġtow":5368,"Ġswitch":5369,"Ġrecommended":5370,"ĠPeter":5371,"Ġment":5372,"Ġchemical":5373,"Ġfacility":5374,"olars":5375,"Ġsymptoms":5376,"ĠBeach":5377,"Ġformat":5378,"Ġanimal":5379,"Ġtrees":5380,"rooms":5381,"Ġcitizens":5382,"ĠGerman":5383,"ĠAtl":5384,"Ġdesire":5385,"Ġstores":5386,"Ġmissing":5387,"Ġdatab":5388,"idden":5389,"Ġannounce":5390,"Ġfif":5391,"Ġ500":5392,"rip":5393,"ĠJim":5394,"that":5395,"ĠFort":5396,"LA":5397,"phas":5398,"Ġspons":5399,"ĠShow":5400,"Ġcircumst":5401,"fol":5402,"Ġshipping":5403,"Ġarg":5404,"Ġmotiv":5405,"Ġtotally":5406,"Ġstre":5407,"ĠWestern":5408,"ĠWil":5409,"ĠTim":5410,"asks":5411,"Ġproperly":5412,"Ġapparent":5413,"iminal":5414,"Ġpanel":5415,"Ġstret":5416,"ĠMedia":5417,"CT":5418,"Ġconfidence":5419,"Ġcalling":5420,"Ġgall":5421,"Ġconv":5422,"ĠValley":5423,"Ġnine":5424,"cipl":5425,"Ġdetect":5426,"ĠHol":5427,"ĠUN":5428,"Well":5429,"rical":5430,"Ġcultural":5431,"atin":5432,"ĠCustom":5433,"rag":5434,"prise":5435,"yan":5436,"ĠDuring":5437,"Ġdie":5438,"ulty":5439,"Ġsupposed":5440,"Ġdesk":5441,"Ġserving":5442,"Ġran":5443,"Ġacademic":5444,"ometimes":5445,"Ġresearc":5446,"Ġcontem":5447,"Ġinterests":5448,"list":5449,"cohol":5450,"Ġcharges":5451,"Ġafternoon":5452,"Ġoccup":5453,"Ġinternal":5454,"Ġseconds":5455,"ena":5456,"ĠIts":5457,"Ġfailed":5458,"oses":5459,"Ġdur":5460,"Ġpromote":5461,"Ġcleaning":5462,"Ġreference":5463,"Ġcombined":5464,"Ġupgr":5465,"46":5466,"ĠFrance":5467,"mes":5468,"ĠMel":5469,"Ġintended":5470,"ideo":5471,"ĠParty":5472,"Ġspecifically":5473,"Ġviolence":5474,"ĠAfrican":5475,"Ġpurposes":5476,"ĠRad":5477,"Ġeffic":5478,"Ġquant":5479,"Ġvan":5480,"ĠVirgin":5481,"Ġlocations":5482,"den":5483,"ket":5484,"Ġath":5485,"Ġ2003":5486,"Ġserver":5487,"Ġadults":5488,"Ġremoved":5489,"Ġaccommod":5490,"ĠFamily":5491,"ĠSecurity":5492,"ĠCard":5493,"Ġbond":5494,"Ġemployee":5495,"Ġquiet":5496,"Ġlandsc":5497,"Ġcaught":5498,"Ġquot":5499,"iration":5500,"Ġrealize":5501,"Ġsigns":5502,"SP":5503,"okes":5504,"Ġrub":5505,"Ġsalt":5506,"ĠData":5507,"Ġarrange":5508,"ĠNY":5509,"kins":5510,"dden":5511,"Ġphil":5512,"Ġinstance":5513,"Can":5514,"agram":5515,"ĠID":5516,"aser":5517,"iat":5518,"ĠTre":5519,"ĠLos":5520,"ums":5521,"cean":5522,"Ġmir":5523,"Ġcommand":5524,"Ġrapid":5525,"Ġapproximately":5526,"Ġuns":5527,"Ġrecip":5528,"ĠAccording":5529,"Ġforced":5530,"Ġcomprehens":5531,"ĠWall":5532,"ĠTest":5533,"inations":5534,"ĠGermany":5535,"uts":5536,"Ġdogs":5537,"ĠEnter":5538,"ĠLong":5539,"met":5540,"Ġdance":5541,"Ġproposed":5542,"ĠDig":5543,"Ġfreedom":5544,"Ġdetailed":5545,"Ġburn":5546,"Ġreligious":5547,"Ġaspects":5548,"ĠHam":5549,"ĠMer":5550,"Ġexecutive":5551,"Ġdefend":5552,"aks":5553,"ĠFind":5554,"ita":5555,"Ġstanding":5556,"ĠStand":5557,"Ġdollars":5558,"alled":5559,"Ġcondu":5560,"ensions":5561,"Ġswim":5562,"Ġintroduced":5563,"ĠMicrosoft":5564,"Ġconsumer":5565,"Ġdiscovered":5566,"According":5567,"Ġsupported":5568,"ĠProduct":5569,"ola":5570,"Ġchief":5571,"Ġliber":5572,"Ġamb":5573,"ĠTake":5574,"tra":5575,"Ġconsequ":5576,"Ġmenu":5577,"Ġrom":5578,"bour":5579,"Ġdepending":5580,"Ġbringing":5581,"Ġeditor":5582,"arsh":5583,"po":5584,"ĠOld":5585,"fection":5586,"Ġvolume":5587,"Ġtun":5588,"nect":5589,"Ġapproved":5590,"Ġlibrary":5591,"Ġassum":5592,"Ġmaximum":5593,"ĠWord":5594,"umin":5595,"Ġwitness":5596,"Ġconcerned":5597,"Ġfactor":5598,"Ġextensive":5599,"Ġadvertising":5600,"ifications":5601,"ĠAward":5602,"ĠMedical":5603,"adian":5604,"ĠLight":5605,"Let":5606,"OC":5607,"Ġsudden":5608,"Ġroof":5609,"Ġkill":5610,"Ġdelivered":5611,"Ġprison":5612,"Ġfruit":5613,"Ġaccounts":5614,"Ġstrategies":5615,"ĠLouis":5616,"Ġprocessing":5617,"ĠOrgan":5618,"ĠIll":5619,"Ġorders":5620,"Ġyes":5621,"Ġgather":5622,"Ġsuit":5623,"ario":5624,"ician":5625,"Ġanywhere":5626,"Ġappearance":5627,"avig":5628,"ĠMont":5629,"iest":5630,"ogue":5631,"Ġgreatest":5632,"Ġupdated":5633,"ulations":5634,"road":5635,"Ġlunch":5636,"ĠBur":5637,"Ġdrugs":5638,"Ġdecades":5639,"Ġstopped":5640,"ĠAL":5641,"Ġnom":5642,"ĠFil":5643,"Ġune":5644,"ĠThomas":5645,"ocation":5646,"IF":5647,"Ġbound":5648,"Ġbutter":5649,"Ġbegins":5650,"Ġelement":5651,"Ġrecipe":5652,"poration":5653,"lines":5654,"01":5655,"Ġawesome":5656,"Ġfold":5657,"Ġfavour":5658,"Ġspeech":5659,"Ġuniversity":5660,"Ġjoy":5661,"Ġrevenue":5662,"Ġchat":5663,"Che":5664,"Ġcauses":5665,"ĠNov":5666,"pected":5667,"Ġhousing":5668,"iveness":5669,"Ġfailure":5670,"Ġconstit":5671,"Ġimproved":5672,"equ":5673,"Ġhttps":5674,"Ġring":5675,"Ġjudge":5676,"Ġtelevision":5677,"Ġworse":5678,"Ġsides":5679,"Ġvehicles":5680,"Ġemergency":5681,"ĠJul":5682,"Ġdetermined":5683,"ĠRE":5684,"Ġsister":5685,"Ġterror":5686,"rastructure":5687,"Ġprop":5688,"Ġturns":5689,"Ġfantastic":5690,"ossible":5691,"Ġarrived":5692,"een":5693,"urban":5694,"Fr":5695,"Ġapps":5696,"Ġaid":5697,"under":5698,"burg":5699,"hand":5700,"Ġtests":5701,"ĠExper":5702,"Ġprepare":5703,"elines":5704,"ingly":5705,"Ġmine":5706,"ĠJoe":5707,"ĠMa":5708,"ĠMike":5709,"ĠSand":5710,"Ġdecre":5711,"Ġweak":5712,"ĠAdv":5713,"orry":5714,"Ġeducational":5715,"can":5716,"Ġdraft":5717,"azz":5718,"ĠYOU":5719,"ĠTechnology":5720,"Ġhero":5721,"Ġcommitment":5722,"arp":5723,"Ġdial":5724,"Ġoccasion":5725,"Ġsurgery":5726,"kes":5727,"Ġfaster":5728,"Ġtherapy":5729,"Ġdesigns":5730,"Ġprovider":5731,"kay":5732,"ems":5733,"Ġboost":5734,"Ġflight":5735,".âĢĻ":5736,"Ġyesterday":5737,"Ġmilk":5738,"Ġstars":5739,"ĠÃ":5740,"!\"":5741,"Yes":5742,"clusion":5743,"Ġcalcul":5744,"ĠOffic":5745,"ĠSecret":5746,"05":5747,"Ġbroken":5748,"ĠÐ":5749,"Ġpaying":5750,"Ġagreed":5751,"Ġinn":5752,"Ġlaunched":5753,"Ġhundreds":5754,"Ġresol":5755,"UN":5756,"ht":5757,"Ġperspective":5758,"ien":5759,"eper":5760,"Ġparticipants":5761,"Ġpure":5762,"wo":5763,"Ġcarried":5764,"reens":5765,"??":5766,"iability":5767,"hetic":5768,"ĠReport":5769,"Ġsquare":5770,"Ġpu":5771,"ĠWilliam":5772,"ĠLast":5773,"Ġsymb":5774,"Ġagent":5775,"nergy":5776,"edia":5777,"Ġfle":5778,"Ke":5779,"77":5780,"Ġkinds":5781,"Ġcomponents":5782,"Ġbrown":5783,"Ġshock":5784,"Ġcrisis":5785,"Ġbelief":5786,"!)":5787,"âĦ":5788,"Ġworksh":5789,"Ġtrading":5790,"ĠCall":5791,"ownt":5792,"Ġhyd":5793,"cluding":5794,"Ġcop":5795,"SS":5796,"Ġmode":5797,"ĠOnly":5798,"Ġtables":5799,"ĠThank":5800,"Su":5801,"ĠBoth":5802,"Ġtro":5803,"Ġtelling":5804,"Ġteen":5805,"ĠKore":5806,"ĠDen":5807,"Ġsac":5808,"ĠCas":5809,"Ġneck":5810,"Ġbreast":5811,"Ġinspired":5812,"Ġbigger":5813,"Ġchoices":5814,"Ġpoly":5815,"Ġcoast":5816,"ĠiPhone":5817,"ĠJose":5818,"FL":5819,"ĠChris":5820,"do":5821,"Res":5822,"Ġremark":5823,"Ġtechnologies":5824,"ĠBo":5825,"oston":5826,"Ġclinical":5827,"Ġtheory":5828,"ĠNetwork":5829,"Ġtwice":5830,"oration":5831,"ĠAngeles":5832,"ĠGame":5833,"lets":5834,"II":5835,"ultural":5836,"Ġofficer":5837,"Ġconcern":5838,"UT":5839,"ĠCy":5840,"CE":5841,"Ġfly":5842,"ĠJohnson":5843,"Ġparking":5844,"Ġang":5845,"irty":5846,"Ġelimin":5847,"Ġmeat":5848,"gage":5849,"Ġsupporting":5850,"Ġreduced":5851,"Ġherself":5852,"Ġpm":5853,"Ġhighlight":5854,"Ġliqu":5855,"ĠAT":5856,"ĠDou":5857,"ĠHave":5858,"Ġlabel":5859,"ĠMuseum":5860,"ibilities":5861,":||":5862,"ria":5863,"Ġepisode":5864,"ĠTur":5865,"Ġtast":5866,"eah":5867,"Ġconsidering":5868,"ĠBob":5869,"Ġbelong":5870,"ĠId":5871,"Ġexamples":5872,"ĠCup":5873,"ĠCath":5874,"ĠVict":5875,"orough":5876,"Ġlux":5877,"Ġaffected":5878,"Ġtrouble":5879,"Ġunivers":5880,"Ġspeaking":5881,"encing":5882,"ĠSk":5883,"Ġwearing":5884,"Ġexplained":5885,"Ġmeal":5886,"Ġmatters":5887,"real":5888,"ias":5889,"Ġscr":5890,"anish":5891,"Ġtea":5892,"Ġfilms":5893,"Ġveter":5894,"Ġindustrial":5895,"Ġrot":5896,"Ġvary":5897,"Ġremote":5898,"Ġlit":5899,"ĠHuman":5900,"Ġends":5901,"Ġfeedback":5902,"Te":5903,"never":5904,"ĠJapanese":5905,"ĠGen":5906,"Ġemphas":5907,"Ġtreated":5908,"âĦ¢":5909,"Ġgoods":5910,"itionally":5911,"Ġaudio":5912,"ĠMinister":5913,"aped":5914,"ĠMaster":5915,"Ġidentified":5916,"Ġbike":5917,"Ġpractical":5918,"Ġcreation":5919,"Ġfoods":5920,"Ġcategory":5921,"ala":5922,"tters":5923,"irmed":5924,"ato":5925,"First":5926,"Ġfunctions":5927,"ĠRev":5928,"aren":5929,"Most":5930,"gas":5931,"Ġalle":5932,"alian":5933,"osoph":5934,"ĠHead":5935,"Ġcloser":5936,"Ġec":5937,"ulous":5938,"78":5939,"Ġadministr":5940,"Ġremaining":5941,"igration":5942,"Ġanx":5943,"ilit":5944,"Ġflo":5945,"Ġsam":5946,"Ġrecovery":5947,"Ġsad":5948,"ĠTown":5949,"ĠIP":5950,"Ġcommission":5951,"Ġcircumstances":5952,"Ġsevere":5953,"Ġfollows":5954,"Ġeffectively":5955,"Ġphotograph":5956,"Ġentirely":5957,"Ġodd":5958,"ev":5959,"arian":5960,"Ġissued":5961,"Ġupdates":5962,"EW":5963,"En":5964,"Qu":5965,"hi":5966,"ĠWay":5967,"oti":5968,"Ġemotional":5969,"Ġsignificantly":5970,"Ġbattery":5971,"Fe":5972,"AG":5973,"Ġsole":5974,"ĠProte":5975,"raq":5976,"Ġmere":5977,"ĠSeries":5978,"erves":5979,"ĠMcC":5980,"rick":5981,"atre":5982,"Ġplanned":5983,"Ġtruck":5984,"Ġadvoc":5985,"Ġauthority":5986,"Ġmassive":5987,"Ġknowing":5988,"See":5989,"rate":5990,"Ġcritic":5991,"ighter":5992,"related":5993,"rete":5994,"Ġagencies":5995,"iser":5996,"Ġdiscl":5997,"ĠOper":5998,"08":5999,"estyle":6000,"ĠFund":6001,"Ġcolour":6002,"Ġcrime":6003,"Ġforest":6004,"66":6005,"Ġrough":6006,"Ġimagine":6007,"About":6008,"Ġmur":6009,"Ġpicked":6010,"Any":6011,"ĠWhere":6012,"Ġscientific":6013,"Ġmoments":6014,"ĠLead":6015,"iams":6016,"Ġneighborhood":6017,"Ġdistribution":6018,"Ġparticipate":6019,"Ġboys":6020,"Ġoblig":6021,"Ġdangerous":6022,"Ġregister":6023,"Ġ32":6024,"ĠBi":6025,"Ġinvestigation":6026,"Ġ2002":6027,"Ġregistered":6028,"Ġprotein":6029,"ĠHaw":6030,"ĠAndroid":6031,"uclear":6032,"Ġcentre":6033,"Ġ2021":6034,"Ġgro":6035,"sm":6036,"look":6037,"Ġ2001":6038,"Ġdiss":6039,"ĠGar":6040,"Ġbrands":6041,"Ġproviders":6042,"Or":6043,"Ġchart":6044,"Ġking":6045,"Ġconstruct":6046,"prene":6047,"Ġusual":6048,"Ġrelatively":6049,"Ġperman":6050,"comm":6051,"Ġmagn":6052,"Ġbuildings":6053,"appy":6054,"uality":6055,"ĠView":6056,"Ġinvolve":6057,"lock":6058,"ĠJones":6059,"Ġtopics":6060,"Ġenem":6061,"Ġreceiving":6062,"Ġtickets":6063,"lastname":6064,"ĠPerson":6065,"Ġcomprehensive":6066,"Ġvaluable":6067,"Ġchain":6068,"lla":6069,"ĠON":6070,"SE":6071,"och":6072,"Ġfort":6073,"ĠNOT":6074,"Ġerror":6075,"Ġmut":6076,"Ġaccepted":6077,"Ġanswers":6078,"xy":6079,"cknow":6080,"Americ":6081,"ĠJeff":6082,"Ġexcess":6083,"Ġfurniture":6084,"Ġnurs":6085,"west":6086,"ĠInstead":6087,"ĠAbout":6088,"Ġsurprise":6089,"mosp":6090,"Ġcrew":6091,"Ġhun":6092,"Ġchosen":6093,"Ġcompetitive":6094,"ĠSto":6095,"reprene":6096,"Ġresource":6097,"ĠProv":6098,"ĠMen":6099,"Ġsoul":6100,"Ġven":6101,"pret":6102,"rome":6103,"ĠStart":6104,"ĠLab":6105,"Ġfields":6106,"ĠWeek":6107,"Ġautomatically":6108,"Ġbread":6109,"Ġofficers":6110,"Ġtaught":6111,"Ġrevealed":6112,"Us":6113,"Ġunf":6114,"Ġinnovative":6115,"Ġcounty":6116,"Ġhousehold":6117,"apes":6118,"eless":6119,"Ġwindows":6120,"Ġboat":6121,"Ġinstallation":6122,"Ġobvious":6123,"merce":6124,"ĠSupport":6125,"Sp":6126,"Ġperfectly":6127,"Ġnone":6128,"Ġcandidates":6129,"mond":6130,"Ġinstalled":6131,"cuit":6132,"aded":6133,"Ġiron":6134,"acks":6135,"Ġcharged":6136,"Ġtom":6137,".'":6138,"Ġcriminal":6139,"anged":6140,"oga":6141,"Ġwealth":6142,"Ġidentity":6143,"Ġwal":6144,"Ġexpertise":6145,"Ġconfirm":6146,"ĠMartin":6147,"Ġsubstant":6148,"ĠList":6149,"Ġhappening":6150,"Since":6151,"Ġisland":6152,"olar":6153,"Ġoutdoor":6154,"Ġguest":6155,"Ġequal":6156,"Ġmissed":6157,"iors":6158,"Dr":6159,"ora":6160,"Ġinvestors":6161,"Ġstone":6162,"Ġpurchased":6163,"Ġmotion":6164,"Ġvit":6165,"hus":6166,"ĠArts":6167,"Ġfixed":6168,"Ġsan":6169,"ĠCir":6170,"Ġtrib":6171,"Ġdoors":6172,"ĠInvest":6173,"illy":6174,"ĠMexico":6175,"ĠFederal":6176,"Ġcro":6177,"ĠIraq":6178,"icit":6179,"hent":6180,"Ġcutting":6181,"rics":6182,"Ġcooking":6183,"Ġworldwide":6184,"ĠAdminist":6185,"Ġkeeps":6186,"Ġlicense":6187,"Ġsample":6188,"ĠEconom":6189,"pass":6190,"Ġvictory":6191,"ĠConference":6192,"Ġelectronic":6193,"ĠRussian":6194,"Ġmel":6195,"Ġhistorical":6196,"Ġrecorded":6197,"Ġregularly":6198,"ĠPan":6199,"hors":6200,"ĠThose":6201,"irms":6202,"Ġplate":6203,"Tr":6204,"ĠIndust":6205,"Ġalcohol":6206,"ĠBas":6207,"paper":6208,"Ġprocedure":6209,"ĠChief":6210,"Ġarms":6211,"Ġrand":6212,"ĠHD":6213,"ĠWild":6214,"oster":6215,"ĠâĢ¢":6216,"respond":6217,"esh":6218,"ĠBow":6219,"Ġdisappoint":6220,"uated":6221,"inding":6222,"Another":6223,"Ġchicken":6224,"Ġconstantly":6225,"Ġillustr":6226,"Ġemployment":6227,"Ġdim":6228,"ĠGal":6229,"Ġunlike":6230,"Ġpump":6231,"Ġaccurate":6232,"Sc":6233,".|":6234,"Ġcheese":6235,"ĠDev":6236,"ployment":6237,"Ġwarrant":6238,"Ġmal":6239,"ĠRussia":6240,"Ġinstitutions":6241,"Ġfulf":6242,"ĠHen":6243,"ef":6244,"06":6245,"GB":6246,"Ġcontro":6247,"Ġgrown":6248,"Ġpositions":6249,"Ġassets":6250,"Ġenable":6251,"Ġgrade":6252,"ĠPac":6253,"Ġshares":6254,"ua":6255,"inch":6256,"Ġportion":6257,"Ġfolks":6258,"Ġinfrastructure":6259,"Am":6260,"ĠSqu":6261,"Ġtrend":6262,"Ġsimpl":6263,"Ġdeals":6264,"Ġsuitable":6265,"Ġclothes":6266,"Ġlovely":6267,"bur":6268,"tr":6269,"Ġhonor":6270,"Im":6271,"Many":6272,"Ġmessages":6273,"ĠBoston":6274,"Ġcontrast":6275,"ĠMaybe":6276,"Ġlaugh":6277,"Ġmonthly":6278,"Ġfrequently":6279,"Ġincredible":6280,"Ġsick":6281,"Ġshoes":6282,"inet":6283,"Up":6284,"Ġwinner":6285,"Ġlights":6286,"Ġabuse":6287,"Ġrestrict":6288,"ĠFull":6289,"ĠKnow":6290,"ĠMatt":6291,"Ġbreakfast":6292,"Ġchocolate":6293,"Ġaffordable":6294,"ĠCA":6295,"ĠSar":6296,"ĠIsl":6297,"aid":6298,"odd":6299,"aniel":6300,"Ġholds":6301,"Ġgrew":6302,"Ġstudio":6303,"Ġacknow":6304,"Ġturning":6305,"Ġscript":6306,"Ġ300":6307,"wing":6308,"ĠPlus":6309,"ĠIran":6310,"Ġreput":6311,"Ġdatabase":6312,"Man":6313,"Ġreform":6314,"ĠCentre":6315,"eries":6316,"Ġattacks":6317,"ĠHistory":6318,"Ġtail":6319,"MA":6320,"inder":6321,"Ġforth":6322,"Ġbasket":6323,"ĠPenn":6324,"Ġelig":6325,"Ġrestaurants":6326,"lo":6327,"Ġben":6328,"arrow":6329,"Click":6330,"Over":6331,"Ġroute":6332,"sembly":6333,"Ind":6334,"Ġguard":6335,"Ġcampus":6336,"Ġrenew":6337,"Ġattorney":6338,"osite":6339,"Ġresearchers":6340,"Ġinfo":6341,"42":6342,"Spe":6343,"Ġrandom":6344,"Ġprotected":6345,"Ġmanufacturing":6346,"ĠManager":6347,"ĠAud":6348,"Ġguarantee":6349,"ĠGlobal":6350,"!!!":6351,"ĠTem":6352,"Ġshooting":6353,"Ġhorse":6354,"ĠStep":6355,"Ġsettings":6356,"ĠLim":6357,"ĠPolice":6358,"Ġlosing":6359,"ĠGra":6360,"Once":6361,"ĠLand":6362,"weight":6363,"Ġassign":6364,"Ġrisks":6365,"Ġconducted":6366,"ĠVirginia":6367,"Ġcorn":6368,"Ġfellow":6369,"owing":6370,"Ġ36":6371,"Ġspr":6372,"achel":6373,"icial":6374,"gend":6375,"Ġchannel":6376,"ĠCharl":6377,"Ġcommittee":6378,"Ġfro":6379,"Are":6380,"Ġmeetings":6381,"âĢĻ.":6382,"ĠLee":6383,"Ġgrab":6384,"abet":6385,"Ġentertainment":6386,"Ġworst":6387,"cribe":6388,"Ġdomestic":6389,"Ġdram":6390,"Ġengineering":6391,"85":6392,"Ġnoticed":6393,"Ġcycle":6394,"ĠKeep":6395,"Ġfeatured":6396,"ĠCanadian":6397,"ugh":6398,"Ġconfig":6399,"Ġhouses":6400,"lymp":6401,"writ":6402,"Ġcovers":6403,"ĠMo":6404,"ache":6405,"Ġcandidate":6406,"Ġregional":6407,"Ġdish":6408,"Ġchapter":6409,"Ġvirtual":6410,"Ġoutput":6411,"oosing":6412,"Ġinput":6413,"ĠSecond":6414,"ĠMic":6415,"ĠLibrary":6416,"Ġbless":6417,"ĠCarolina":6418,"Ġprocedures":6419,"Ġbelieved":6420,"Ġappeal":6421,"anges":6422,"Ġsin":6423,"Ġwalls":6424,"cers":6425,"ĠPhot":6426,"VD":6427,"orders":6428,"ĠCat":6429,"Ġtalent":6430,"Ġreliable":6431,"ĠAustralian":6432,"Ġrecognized":6433,"Ġdestroy":6434,"Ġindeed":6435,"ĠExt":6436,"rum":6437,"Ġjustice":6438,"Ġriver":6439,"Ġappreciate":6440,"ĠVer":6441,"Ġtypical":6442,"Ġreasonable":6443,"Then":6444,"Ġhurt":6445,"SC":6446,"ĠSet":6447,"Oh":6448,"Pe":6449,"oking":6450,"Ġsuggested":6451,"eration":6452,"Ġacid":6453,"Ġatmosp":6454,"Ġdrivers":6455,"Ġtack":6456,"ĠEnergy":6457,"elly":6458,"ĠPage":6459,"Ġdegrees":6460,"abled":6461,"Ġmedicine":6462,"comes":6463,"cluded":6464,"ĠMiddle":6465,"Ġengage":6466,"ansion":6467,"Ġdump":6468,"Ġearned":6469,"Ġfuck":6470,"TA":6471,"Ġscheduled":6472,"Mar":6473,"Ġroutine":6474,"Ġentered":6475,"Ġwalked":6476,"hered":6477,"emic":6478,"anger":6479,"Ġsituations":6480,"ĠiP":6481,"cking":6482,"Ġinches":6483,"Ġinstructions":6484,"Ġextended":6485,"Ġvisiting":6486,"ampionship":6487,"Ġnative":6488,"ras":6489,"Ġowned":6490,"Ġfighting":6491,"icing":6492,"vy":6493,"Ġleague":6494,"Ġbirthday":6495,"Ġfacts":6496,"43":6497,"Ġpresentation":6498,"Ġaffili":6499,"Ġwid":6500,"ĠParis":6501,"Ġsessions":6502,"Ġpayments":6503,"Ġsurf":6504,"Ġexpression":6505,"Ġyards":6506,"Ġupper":6507,"Ġplug":6508,"Ġmusical":6509,"ĠAcademy":6510,"Ġupcoming":6511,"Ġdistinct":6512,"Ġstands":6513,"ĠEnd":6514,"Ġcarefully":6515,"41":6516,"Ġimpossible":6517,"ĠMax":6518,"Ġdefined":6519,"ĠBoy":6520,"astern":6521,"Ġawareness":6522,"Ġfirstname":6523,"Ġreturns":6524,"Ġefficiency":6525,"Ġcompens":6526,"Ġregulations":6527,"Ġsupports":6528,"Mr":6529,"Ġretire":6530,"host":6531,"Ġsurrounding":6532,"09":6533,"ca":6534,"Ġpil":6535,"Ġbear":6536,"ĠAsia":6537,"Ġsyn":6538,"Ġmagazine":6539,"Ġdebate":6540,"ĠJun":6541,"ĠChildren":6542,"ĠSenate":6543,"Ġhook":6544,"Ġassessment":6545,"Ġcarbon":6546,"ĠOR":6547,"ĠJon":6548,"Ġ195":6549,"Ġenforce":6550,"Ġathlet":6551,"ÃŃ":6552,"Ġped":6553,"Ġprompt":6554,"ĠWal":6555,"Ġorganic":6556,"Ġrow":6557,"Ġrealized":6558,"Ġfacing":6559,"ĠBrand":6560,"ĠHotel":6561,"uting":6562,"oty":6563,"Ġkne":6564,"ĠRichard":6565,"gs":6566,"eline":6567,"Ġcounsel":6568,"ansas":6569,"ĠWilliams":6570,"Ġsymbol":6571,"Ġhate":6572,"EE":6573,"Ġpulled":6574,"Ġcontest":6575,"Ġjack":6576,"iety":6577,"ATION":6578,"Ġvillage":6579,"Ġstim":6580,"Ġclimb":6581,"ĠSteve":6582,"ĠSpring":6583,"OVID":6584,"oman":6585,"ĠCH":6586,"Other":6587,"pes":6588,"ĠFair":6589,"Ġast":6590,"Today":6591,"bal":6592,"07":6593,"ensity":6594,"ingu":6595,"person":6596,"ĠFestival":6597,"ĠDu":6598,"ĠAri":6599,"Ġunable":6600,"ĠLink":6601,"Ġchallenging":6602,"ĠAuthor":6603,"alse":6604,"Ġpremium":6605,"utional":6606,"Ġdelight":6607,"Ġroot":6608,"ĠArab":6609,"Ġslowly":6610,"Ġspoke":6611,"Ġregistration":6612,"Ġdelicious":6613,"ĠGirl":6614,"Ġdescription":6615,"Ġloans":6616,"Ġnavig":6617,"Ġwheel":6618,"Ġcrazy":6619,"Ġ<":6620,"ĠSports":6621,"ĠTour":6622,"agon":6623,"date":6624,"ĠMur":6625,"Ġresolution":6626,"Ġille":6627,"ĠAnother":6628,"ĠHand":6629,"ĠJackson":6630,"Ġ48":6631,"pat":6632,"Ġformed":6633,"Ġmillions":6634,"Ġincreases":6635,"Ġprofit":6636,"rible":6637,"Ġadm":6638,"ĠMichigan":6639,"ĠDef":6640,"Ġdepth":6641,"Ġauthorities":6642,"Ġbanks":6643,"iner":6644,"Ġcapable":6645,"Ġsusp":6646,"earing":6647,"Ġpublish":6648,"ĠGall":6649,"ĠYoung":6650,"Ġfigures":6651,"ĠLt":6652,"Ġpolitics":6653,"Ġyounger":6654,"Ġdelay":6655,"Ġicon":6656,"Ed":6657,"Ġdecade":6658,"Ġexpectations":6659,"Ġtiss":6660,"ospit":6661,"ĠColumb":6662,"Ġcock":6663,"aturally":6664,"Ġvast":6665,"ĠPack":6666,"Ġdiscussed":6667,"Ġfairly":6668,"Ġpossibility":6669,"Ġpatterns":6670,"ĠMP":6671,"Ġspiritual":6672,"ĠDan":6673,"agues":6674,"Ġsurprised":6675,"ĠSign":6676,"AY":6677,"REE":6678,"ournament":6679,"Ġteeth":6680,"ĠBible":6681,"ĠItalian":6682,"ĠRest":6683,"Ġbonus":6684,"Ġreward":6685,"Ġongoing":6686,"TC":6687,"Ġskill":6688,"oral":6689,"Ġimpressive":6690,"Ġprove":6691,"Ġbeer":6692,"Ġtasks":6693,"Ġflowers":6694,"Ġedition":6695,"Ġfunny":6696,"ĠGeorg":6697,"ĠBefore":6698,"Ġtwe":6699,"hem":6700,"Although":6701,"ĠPub":6702,"Ġscored":6703,"Ġticket":6704,"Ġsauce":6705,"Ġsou":6706,"away":6707,"ĠAccess":6708,"ĠControl":6709,"Ġdiverse":6710,"Ġnegoti":6711,"ĠWhether":6712,"Ġseriously":6713,"omy":6714,"Ġtrig":6715,"Ġslot":6716,"ĠOlymp":6717,"Ġdropped":6718,"ĠLog":6719,"ether":6720,"ban":6721,"ĠCreat":6722,"Ġsubmit":6723,"Ġsight":6724,"ĠOhio":6725,"ĠMid":6726,"Ġvul":6727,"Ġtomorrow":6728,"Ġrein":6729,"Ġdifferences":6730,"Ġexclusive":6731,"Ġloves":6732,"Ġmountain":6733,"ml":6734,"Ġexternal":6735,"199":6736,"Ġprepar":6737,"ĠWalk":6738,"Ġid":6739,"Ġtaxes":6740,"ĠVictor":6741,"Ġadds":6742,"Ġconfirmed":6743,"Of":6744,"ĠLittle":6745,"Ġrecognize":6746,"long":6747,"Ġvital":6748,"lights":6749,"Ġscholars":6750,"ĠEqu":6751,"elf":6752,"ĠTrust":6753,"Ġplanet":6754,"Ġinvent":6755,"ĠContin":6756,"Ġrelief":6757,"Ġagents":6758,"ints":6759,"Ġadvis":6760,"Ġsmile":6761,"ĠSP":6762,"Ġenthus":6763,"ta":6764,"Ġimprovement":6765,"ĠSoft":6766,"Ġserves":6767,"Ġfoundation":6768,"EST":6769,"otal":6770,"Ġbare":6771,"Ġrail":6772,"Ġbodies":6773,"nic":6774,"Ġmixed":6775,"Ġempt":6776,"Ð¾":6777,"Ġbowl":6778,"Ġfeelings":6779,"Ġnetworks":6780,"Ġguitar":6781,"elcome":6782,"Ġphase":6783,"greg":6784,"ĠKh":6785,"Ġsilver":6786,"cling":6787,"Also":6788,"Ġhyp":6789,"Ġreporting":6790,"ĠAR":6791,"Ġoriginally":6792,"Ġsuccessfully":6793,"from":6794,"Ġconver":6795,"Ġmachines":6796,"stone":6797,"isters":6798,"Ġincident":6799,"Ġhealthcare":6800,"Ġlayer":6801,"law":6802,"ĠKen":6803,"Ġinterior":6804,"ĠLive":6805,"ðŁ":6806,"ixture":6807,"Ġphotograp":6808,"Ġsuc":6809,"Ġcooper":6810,"ĠCost":6811,"Ġauthors":6812,"ĠAD":6813,"Ġshift":6814,"Ġpod":6815,"bi":6816,"Ġarts":6817,"ollywood":6818,"Ġheight":6819,"Ġtiny":6820,"02":6821,"pload":6822,"rid":6823,"Ġconsistent":6824,"Ġtalked":6825,"ERS":6826,"Ġcorrespond":6827,"Ġinnovation":6828,"cons":6829,"rency":6830,"eding":6831,"ĠTit":6832,"Ġelev":6833,"Ġtransition":6834,"Ġ75":6835,"Ġlegs":6836,"Ġstatements":6837,"Ġpartnership":6838,"she":6839,"ĠInte":6840,"aper":6841,"Ġyellow":6842,"ĠSaf":6843,"Ġliked":6844,"Ġages":6845,"Ġnormally":6846,"Even":6847,"ĠRights":6848,"Ġeveryday":6849,"ĠFollow":6850,"LY":6851,"Ġultimately":6852,"Ġlistening":6853,"Ġwet":6854,"inos":6855,"inem":6856,"ĠCoast":6857,"mar":6858,"ĠJewish":6859,"yers":6860,"ĠRepublican":6861,"ĠCode":6862,"ĠMuslim":6863,"va":6864,"86":6865,"Ġgolf":6866,"Ġpharm":6867,"Ġvacc":6868,"04":6869,"Ġhang":6870,"Ġtested":6871,"esides":6872,"ĠWatch":6873,"Ġpapers":6874,"ĠContact":6875,"Ġancient":6876,"ĠFrancisco":6877,"Ġstretch":6878,"tle":6879,"Ġlikes":6880,"Ġsolar":6881,"ubs":6882,"Ġlegislation":6883,"yard":6884,"entle":6885,"Ġletters":6886,"ĠCB":6887,"ĠEp":6888,"ĠFOR":6889,"Ġhur":6890,"Ġinstruct":6891,"View":6892,"ĠVan":6893,"lements":6894,"Ġdates":6895,"born":6896,"Ġprivacy":6897,"ppers":6898,"Ġthin":6899,"Ġlicens":6900,"awn":6901,"PC":6902,"Ġoperate":6903,"Ġclosely":6904,"gypt":6905,"ĠCross":6906,"uls":6907,"ĠTherefore":6908,"Ġconvenient":6909,"uling":6910,"iverse":6911,"class":6912,"ĠColl":6913,"Ġdealing":6914,"berry":6915,"Ġdiam":6916,"ĠHospital":6917,"ĠSon":6918,"Posted":6919,"ĠOpt":6920,"ĠArmy":6921,"ĠFar":6922,"Ġtrained":6923,"uction":6924,"pel":6925,"Ġconfident":6926,"opyright":6927,"ĠMS":6928,"Ġpersonally":6929,"Ġgraduate":6930,"Ġentr":6931,"aints":6932,"ailability":6933,"ĠTru":6934,"ĠLo":6935,"Ġurban":6936,"Where":6937,"Ġcake":6938,"ĠDC":6939,"ĠSup":6940,"zil":6941,"Int":6942,"etime":6943,"ĠEr":6944,"ĠThrough":6945,"Ġpassing":6946,"03":6947,"Ġmuscle":6948,"Ġhall":6949,"Ġfiled":6950,"Go":6951,"Ġsky":6952,"owntown":6953,"Ġinjuries":6954,"ih":6955,"ĠEU":6956,"Ġinformed":6957,"alle":6958,"Ġbreath":6959,"AA":6960,"ĠNext":6961,"Ġthorough":6962,"Ġanticip":6963,"uine":6964,"ĠDownload":6965,"oval":6966,"ĠRight":6967,"Ġfeaturing":6968,"roduct":6969,"lete":6970,"Ġobjects":6971,"ographic":6972,"ĠDoes":6973,"Ġphen":6974,"Ġliquid":6975,"sters":6976,"Ġexposure":6977,"HS":6978,"Ġimmediate":6979,"ĠDigital":6980,"omin":6981,"inton":6982,"ĠPlace":6983,"Ġbasically":6984,"Ġexecut":6985,"Ġdining":6986,"Ġappointment":6987,"itage":6988,"Ġsuggests":6989,"Ġtechnique":6990,"Ġlad":6991,"Ġbelieves":6992,"Ġsucceed":6993,"Ġordered":6994,"Ġsufficient":6995,"Ġspaces":6996,"Ġobtained":6997,"Ġstreets":6998,"Ġproof":6999,"aning":7000,"ĠSpanish":7001,"ĠLook":7002,"utch":7003,"ican":7004,"Ġmand":7005,"ĠNight":7006,"Ġmoves":7007,"isk":7008,"eting":7009,"Ġstruggle":7010,"Â°":7011,"alog":7012,"Ġconflict":7013,"Ġtut":7014,"ĠSpirit":7015,"Ġpainting":7016,"Ġguidance":7017,"Ġobviously":7018,"Ġglad":7019,"Ġtalks":7020,"Ġindex":7021,"Ġprinciples":7022,"Ġnearby":7023,"Ðµ":7024,"ellect":7025,"During":7026,"Ġnuclear":7027,"ĠChair":7028,"Ġbedroom":7029,"Ġlifestyle":7030,"Ġpromise":7031,"Ġdescribe":7032,"Ġflood":7033,"Ġaside":7034,"Ġapartment":7035,"Ġdiscipl":7036,"profit":7037,"ba":7038,"Ġadventure":7039,"Ġcrucial":7040,"Ġthread":7041,"bel":7042,"Ġcelebrate":7043,"ĠIre":7044,"ĠScot":7045,"Ġcontemporary":7046,"ĠPrice":7047,"Ġhits":7048,"Ġpersons":7049,"DS":7050,"bing":7051,"Ġentreprene":7052,"secut":7053,"Ġprospect":7054,"Ġsizes":7055,"endar":7056,"ĠHard":7057,"Ġtag":7058,"Ġweekly":7059,"Ġgrass":7060,"Ġphilosoph":7061,"UL":7062,"Ġauto":7063,"Ġsubsequ":7064,"resents":7065,"ML":7066,"Ġmainly":7067,"ĠBell":7068,"ĠPoint":7069,"Thanks":7070,"Ġwarn":7071,"Bu":7072,"ashed":7073,"Ġcreates":7074,"rition":7075,"Ġnarr":7076,"Ġhoping":7077,"Ġillness":7078,"Ġwest":7079,"ĠRoyal":7080,"grad":7081,"Ġalleged":7082,"Ġsignal":7083,"cue":7084,"Ġhumans":7085,"umes":7086,"Ġcollected":7087,"Ġcollaboration":7088,"Ġhasn":7089,"Ġresistance":7090,"Ġaccessible":7091,"ĠGuide":7092,"Ġbrowser":7093,"Ġsomewhat":7094,"Ġwithd":7095,"plete":7096,"aze":7097,"Ġvend":7098,"ĠSouthern":7099,"ĠExecutive":7100,"Ġimproving":7101,"Ġattrib":7102,"Ġsupplies":7103,"Ġshots":7104,"Ġsmell":7105,"âĢĻ,":7106,"stream":7107,"ĠPrem":7108,"Thank":7109,"whel":7110,"ĠKn":7111,"Per":7112,"redit":7113,"Ġbottle":7114,"Ġbathroom":7115,"Ġauthent":7116,"ĠJustice":7117,"ĠPass":7118,"Ġsomewhere":7119,"ĠCert":7120,"asters":7121,"ĠCre":7122,"Ġapproval":7123,"sell":7124,"Ġreligion":7125,"Ġrose":7126,"Ġlessons":7127,"Ġtrick":7128,"rage":7129,"Ġhell":7130,"Ġhardware":7131,"Ġreferred":7132,"worth":7133,"ĠAndrew":7134,"Ġtall":7135,"Ġwriters":7136,"Ġfacilit":7137,"car":7138,"Ġnecessarily":7139,"Ġsuffering":7140,"claim":7141,"Ġextent":7142,"ĠBal":7143,"made":7144,"Ġcable":7145,"ĠAC":7146,"ĠMult":7147,"Ġorigin":7148,"Ġhabit":7149,"ĠInf":7150,"Ġprecise":7151,"Tube":7152,"amental":7153,"Ġintent":7154,"Ġsuspect":7155,"celer":7156,"Ġborder":7157,"Ġchose":7158,"Ġshel":7159,"ĠGames":7160,"Ġease":7161,"Ġfo":7162,"ters":7163,"ĠCharles":7164,"obs":7165,"aylor":7166,"rect":7167,"rich":7168,"ĠDie":7169,"Ġpleasure":7170,"Ġpursu":7171,"ĠTri":7172,"Ġpleased":7173,"Ġabsor":7174,"Ġlandscape":7175,"Ġrear":7176,"Col":7177,"ĠSupp":7178,"Ġacts":7179,"Ġdomain":7180,"Ġexplains":7181,"lder":7182,"Ġtab":7183,"Ġheav":7184,"Ġexpressed":7185,"Ġintegrated":7186,"ĠSite":7187,"Ġlinked":7188,"Ġconstant":7189,"Who":7190,"Ġargument":7191,"ĠCast":7192,"ĠBush":7193,"Pre":7194,"ĠHor":7195,"Ġconserv":7196,"Ġcontribute":7197,"itution":7198,"Ġgay":7199,"lyn":7200,"Ġinterpret":7201,"orable":7202,"ĠRoom":7203,"stood":7204,"Ġmuseum":7205,"Ġmini":7206,"Ġcommunications":7207,"Ġmembership":7208,"Ġzone":7209,"BI":7210,"Ġmic":7211,"inter":7212,"ĠPot":7213,"Free":7214,"ĠBox":7215,"76":7216,"enger":7217,"Ġevol":7218,"umps":7219,"urse":7220,"Ã¡":7221,"raid":7222,"Ġspin":7223,"Ġinstrument":7224,"Ġexec":7225,"Ġpounds":7226,"Ġmanual":7227,"Ġmonitoring":7228,"ĠAS":7229,"isms":7230,"ĠVideo":7231,"ĠFour":7232,"ĠEll":7233,"Ġanyway":7234,"Ġfinds":7235,"asant":7236,"folio":7237,"ĠCatholic":7238,"Ġlighting":7239,"Ġpra":7240,"ĠOil":7241,"Ġsustainable":7242,"idays":7243,"ura":7244,"oned":7245,"iana":7246,"Ġwidely":7247,"ĠDivision":7248,"Ġclar":7249,"Ġvacation":7250,"onym":7251,"ouch":7252,"ĠUt":7253,"Ġorganized":7254,"inte":7255,"Ġfaculty":7256,"Ġsoil":7257,"Ġatmosphere":7258,"Ġduty":7259,"weet":7260,"Ġsheet":7261,"Ġrepresents":7262,"Ġrecording":7263,"ogen":7264,"Ġresulting":7265,"Ġincreasingly":7266,"Ġbat":7267,"bles":7268,"Ġestimated":7269,"obby":7270,"Ġ2022":7271,"Ġpitch":7272,"Ġrele":7273,"sue":7274,"ĠFurther":7275,"ĠSher":7276,"Ġamend":7277,"ĠCOVID":7278,"ĠForm":7279,"Ġerr":7280,"Ġcouncil":7281,"ran":7282,"Ġattached":7283,"PM":7284,"RI":7285,"Ġcompr":7286,"level":7287,"ampion":7288,"ĠLtd":7289,"Ġexceed":7290,"Ġreader":7291,"Ġstrategic":7292,"ĠHon":7293,"ĠApplic":7294,"Ġlie":7295,"Ġvulner":7296,"ystem":7297,"Ġoutstanding":7298,"Ġwatched":7299,"Ġclothing":7300,"==":7301,"Ġnarrow":7302,"Ġfasc":7303,"ificate":7304,"ilst":7305,"Ġjun":7306,"anna":7307,"Ġmanaging":7308,"Ġdirected":7309,"Ġintelligence":7310,"ĠCra":7311,"amber":7312,"ĠYet":7313,"Ġtrends":7314,"Ġreplacement":7315,"Ġdomin":7316,"Ġstorm":7317,"ĠUsing":7318,"Ġluck":7319,"Ġstrange":7320,"Ġhat":7321,"ennis":7322,"Ġtech":7323,"John":7324,"asts":7325,"Ġsurprising":7326,"Ġextract":7327,"Ġproven":7328,"Ġmoist":7329,"Ġplatforms":7330,"Ġdrinking":7331,"FC":7332,"Ġheads":7333,"Ġforever":7334,"Ġinvited":7335,"ĠAssist":7336,"Ġ1999":7337,"Ġattended":7338,"teen":7339,"Ġguidelines":7340,"Ġstood":7341,"uster":7342,"Ð°":7343,"ĠColorado":7344,"Pr":7345,"des":7346,"Ġreaction":7347,"ĠCe":7348,"iot":7349,"Ġinspiration":7350,"plate":7351,"Book":7352,"Ġfalse":7353,"onna":7354,"Ġcapture":7355,"ifies":7356,"neys":7357,"Ġexperiment":7358,"Ġentit":7359,"Ġfavourite":7360,"otton":7361,"Ġconscious":7362,"ĠItaly":7363,"Ġhire":7364,"ĠLow":7365,"Ġengagement":7366,"ĠEgypt":7367,"ĠProfessor":7368,"AB":7369,"Ġengaged":7370,"Ġprimarily":7371,"Ġtonight":7372,"Ġacting":7373,"59":7374,"Ġfitness":7375,"Ġqualified":7376,"56":7377,"Ġgender":7378,"Ġweren":7379,"à¤":7380,"Ġgear":7381,"case":7382,"Ġtradition":7383,"Ġrental":7384,"izz":7385,"quir":7386,"bar":7387,"Ġrepeated":7388,"Ġflour":7389,"ĠAgain":7390,"Ġachieved":7391,"Ġnoise":7392,"ument":7393,"Ġsearching":7394,"Ġpit":7395,"âĤ¬":7396,"Ġ?":7397,"ĠFed":7398,"ĠSanta":7399,"Ġagric":7400,"79":7401,"ĠAsh":7402,"Ġroles":7403,"ĠEnvironment":7404,"then":7405,"ĠSecretary":7406,"front":7407,"Ġdrawing":7408,"300":7409,"ĠTerm":7410,"Ġclaimed":7411,"Ġnob":7412,"ĠCa":7413,"Ġknock":7414,"iece":7415,"racy":7416,"Ġprogramme":7417,"ĠMach":7418,"Ġbroadcast":7419,"ĠRay":7420,"Ġtwenty":7421,"Ġairport":7422,"ĠPacific":7423,"Ġfilter":7424,"ĠJac":7425,"Ġgenerate":7426,"athy":7427,"ambling":7428,"TER":7429,"ĠSn":7430,"Ġhole":7431,"Ġje":7432,"oir":7433,"ĠDar":7434,"Ġhidden":7435,"Ġweapons":7436,"ĠFriend":7437,"ĠAff":7438,"%.":7439,"ĠHim":7440,"Ġfaces":7441,"olit":7442,"Ġpercentage":7443,"zer":7444,"Ġplot":7445,"Ġlucky":7446,"Ġformal":7447,"Ġ38":7448,"lessly":7449,"Ġperforming":7450,"Ġpossess":7451,"Ġpermanent":7452,"ĠStat":7453,"Ġfirms":7454,"ĠCook":7455,"arters":7456,"Ġgenuine":7457,"Ġvisited":7458,"live":7459,"ĠKim":7460,"ĠWrit":7461,"ults":7462,"ĠSky":7463,"ogether":7464,"iments":7465,"Ġsaved":7466,"Ġtip":7467,"Ġoverwhel":7468,"Ġreputation":7469,"abetes":7470,"ĠHelp":7471,"ĠGeorgia":7472,"Ġchoosing":7473,"Ġdesigner":7474,"Ġhopes":7475,"Ġpipe":7476,"ĠRyan":7477,"Ġmagic":7478,"Ġproposal":7479,"Ġoven":7480,"ĠEs":7481,"Ġalive":7482,"cipal":7483,"Ġwra":7484,"Ġdivision":7485,"ĠSometimes":7486,"Ġtank":7487,"htt":7488,"Ġaggress":7489,"erate":7490,"Ġlargely":7491,"Ġeast":7492,"Ġvictims":7493,"ĠThus":7494,"Ġamounts":7495,"Ġstuck":7496,"ĠUlt":7497,"Ġpin":7498,"ĠPak":7499,"Ġimplementation":7500,"zing":7501,"Have":7502,"adium":7503,"Ġsoph":7504,"ĠIreland":7505,"ghan":7506,"Ġcausing":7507,"Bec":7508,"Ġdoctors":7509,"Ġsending":7510,"inent":7511,"ĠRose":7512,"ealand":7513,"Ġdefinition":7514,"Ġeligible":7515,"ĠKey":7516,"Ġbrill":7517,"Ġ150":7518,"raction":7519,"Ġdust":7520,"Ġopposite":7521,"ĠBon":7522,"holders":7523,"Ġinner":7524,"Ġprofessor":7525,"Ġcategories":7526,"Ġshouldn":7527,"pay":7528,"Ġremained":7529,"ione":7530,"Ġdeposit":7531,"Ġreplaced":7532,"Ġreduction":7533,"Ġ1990":7534,"Ġrig":7535,"Ġpill":7536,"etry":7537,"Ġsuffe":7538,"page":7539,"Ġtransportation":7540,"Ġsubmitted":7541,"Ġtur":7542,"adow":7543,"Ġseed":7544,"foot":7545,"Ġ33":7546,"MP":7547,"Ġfing":7548,"aping":7549,"Ġaccomplish":7550,"Ġbab":7551,"ĠInstagram":7552,"ĠSearch":7553,"Ġcomponent":7554,"Ġinterface":7555,"Ġfounded":7556,"Ġoccurred":7557,"Ġdivid":7558,"Ġprotest":7559,"adel":7560,"âĢ¦.":7561,"Ġdestination":7562,"Ġstyles":7563,"Ġoffices":7564,"Ġversions":7565,"800":7566,"Ġsavings":7567,"Ġjew":7568,"Ġneither":7569,"Ġflash":7570,"Ġhistoric":7571,"Ã¢":7572,"Ġ)":7573,"Ġapparently":7574,"Ġevil":7575,"Ġincredibly":7576,"ĠAccount":7577,"ĠKenn":7578,"Ġ400":7579,"ventional":7580,"Ġafraid":7581,"Ġpowder":7582,"Ġbags":7583,"ĠLeg":7584,"Ġexpenses":7585,"rently":7586,"ureau":7587,"ĠVill":7588,"Ġpace":7589,"lled":7590,"Ġcontinuing":7591,"ressed":7592,"Ġinvolves":7593,"Ġads":7594,"Ġgifts":7595,"Ġcos":7596,"ounded":7597,"liament":7598,"Ġchances":7599,"Ġbroke":7600,"making":7601,"Ġbell":7602,"ĠHa":7603,"Ġpotentially":7604,"ĠNote":7605,"Ġrating":7606,"ATE":7607,"rated":7608,"stein":7609,"Ġgod":7610,"iano":7611,"oured":7612,"Ġsoci":7613,"pir":7614,"arks":7615,"nam":7616,"aine":7617,"Ġempty":7618,"Ġhospit":7619,"Ġeggs":7620,"Ġmortgage":7621,"ĠFinancial":7622,"Ġstrike":7623,"Ġphr":7624,"Ġcrack":7625,"Ġflexible":7626,"inking":7627,"Ġmurder":7628,"Jo":7629,"Ġfishing":7630,"Ġluxury":7631,"TV":7632,"anned":7633,"acle":7634,"Ġexistence":7635,"RS":7636,"ĠSupreme":7637,"bury":7638,"Ġrecommendations":7639,"ĠSystems":7640,"ĠZealand":7641,"Reg":7642,"Ġtracks":7643,"Ġera":7644,"ĠOk":7645,"ati":7646,"Ġterrit":7647,"Ġanxiety":7648,"Ġunus":7649,"Ġhosting":7650,"cia":7651,"ĠMarketing":7652,"ppy":7653,"Ġultimate":7654,"Ġbridge":7655,"ĠCorporation":7656,"Ġrevolution":7657,"ĠJersey":7658,"star":7659,"ologist":7660,"ĠPen":7661,"Ġdepends":7662,"Ġdefault":7663,"phy":7664,"ĠYouTube":7665,"Ġdreams":7666,"CD":7667,"ĠArea":7668,"Ġunw":7669,"ĠTurn":7670,"zona":7671,"Ġexception":7672,"ĠKar":7673,"American":7674,"89":7675,"Ġ37":7676,"Ġconsideration":7677,"Check":7678,"Ġreducing":7679,"ĠSpace":7680,"Ġmemories":7681,"ĠPolicy":7682,"Ġmile":7683,"isa":7684,"ĠDVD":7685,"Ġphotography":7686,"essel":7687,"Ġsuddenly":7688,"Ġreject":7689,"Ġfestival":7690,"Ġpermission":7691,"Ġpriority":7692,"ĠConf":7693,"coin":7694,"Ġscheme":7695,"ĠRo":7696,"ĠCO":7697,"iversary":7698,"Ġmanufacturer":7699,"Ġfinance":7700,"amps":7701,"ogs":7702,"nda":7703,"uration":7704,"Ġdevelopers":7705,"Ġawards":7706,"Ġtransp":7707,"cover":7708,"Ġcapabilities":7709,"Ġwhenever":7710,"Ġlimits":7711,"ĠExpl":7712,"Ġrecy":7713,"inson":7714,"Ġscientists":7715,"anny":7716,"Ġcoc":7717,"ĠHope":7718,"Ġdynamic":7719,"ĠDaniel":7720,"Sm":7721,"ĠStan":7722,"ĠNon":7723,"ĠThree":7724,"ĠBrazil":7725,"Ġlies":7726,"Ġsolve":7727,"Ġstake":7728,"ĠJoseph":7729,"Ġyield":7730,"Ġsplit":7731,"ĠWorks":7732,"Ġwash":7733,"Ġlapt":7734,"roke":7735,"Ġobserved":7736,"Car":7737,"Ġanymore":7738,"Ġconcrete":7739,"Ġinvolving":7740,"letter":7741,"Ġillegal":7742,"cific":7743,"ikes":7744,"ĠPhys":7745,"Ġalongside":7746,"Ġ55":7747,"iami":7748,"ĠDaily":7749,"Ġfindings":7750,"Ġclock":7751,"ava":7752,"Ġcuts":7753,"Ġshower":7754,"Ġdad":7755,"Ġcontrolled":7756,"ĠMrs":7757,"Ġoppon":7758,"Ġintroduction":7759,"ĠLiber":7760,"ĠSH":7761,"ĠBall":7762,"ĠDid":7763,"Ġraw":7764,"requ":7765,"Ġsharp":7766,"Ġinteract":7767,"ĠFun":7768,"uter":7769,"Ġsees":7770,"Ġcoal":7771,"Ġtreatments":7772,"Ġcomparison":7773,"izer":7774,"including":7775,"Ġ;":7776,"ĠDisc":7777,"EP":7778,"ĠFather":7779,"ouston":7780,"Gu":7781,"Ġproducing":7782,"ĠOS":7783,"ĠMill":7784,"onto":7785,"Ġdebut":7786,"Ġregions":7787,"rog":7788,"ĠHarr":7789,"Ġflavor":7790,"Ġeverywhere":7791,"EA":7792,"tense":7793,"ĠSU":7794,"ĠDate":7795,"enth":7796,"Ġquote":7797,"ĠNever":7798,"ĠAvenue":7799,"Ġnaturally":7800,"Ġscenes":7801,"Ġcontrols":7802,"bridge":7803,"igure":7804,"Ġarrive":7805,"Ġheaded":7806,"uing":7807,"alty":7808,"lers":7809,"leep":7810,"stery":7811,"Ġforum":7812,"Ġmeals":7813,"Ġlawyer":7814,"ĠForce":7815,"ĠPract":7816,"iger":7817,"MC":7818,"Ġdesired":7819,"Ġcarrying":7820,"Ġcoordin":7821,"Ġsupplement":7822,"ounter":7823,"EG":7824,"Ġmerch":7825,"Ġ1998":7826,"Ġmixture":7827,"Ġlau":7828,"Ġrequests":7829,"ĠAsian":7830,"this":7831,"----":7832,"Ġcolumn":7833,"Ġpublication":7834,"ĠFox":7835,"Ġcareful":7836,"Ġgaming":7837,"Ġsensitive":7838,"Ġbreaking":7839,"riers":7840,"].":7841,"boy":7842,"uous":7843,"Ġliterally":7844,"Ġmarked":7845,"ĠOrder":7846,"ĠThough":7847,"Ġrecognition":7848,"intage":7849,"ĠTraining":7850,"friendly":7851,"issions":7852,"Ġgentle":7853,"ĠHoly":7854,"Ġpresents":7855,"ĠWhich":7856,"ĠFarm":7857,"ĠField":7858,"ĠQuest":7859,"Ġliterature":7860,"Pub":7861,"iki":7862,"Ġdriven":7863,"Ġattractive":7864,"Ġpreparation":7865,"Ġpink":7866,"nell":7867,"Ġprinted":7868,"Ġtum":7869,"ĠHeart":7870,"ĠPriv":7871,"missions":7872,"Ġintellect":7873,"anwhile":7874,"ĠEnt":7875,"Before":7876,"Ġdiseases":7877,"ĠSea":7878,"Ġstunning":7879,"Ġending":7880,"Ġgiant":7881,"ĠAdministration":7882,"Ġ34":7883,"Ġconsumption":7884,"ĠStudents":7885,"Ġfalling":7886,"Ġregardless":7887,"Ġspokes":7888,"pack":7889,"roduction":7890,"Ġexplan":7891,"ĠHun":7892,"ĠMir":7893,"anted":7894,"Ġharder":7895,"Ġstead":7896,"TR":7897,"haust":7898,"Ġundert":7899,"Ġ65":7900,"tocol":7901,"Ġrecon":7902,"athan":7903,"Ġbact":7904,"ĠCR":7905,"Ġexpansion":7906,"Ġrecover":7907,"acc":7908,"Ġmood":7909,"ĠPDF":7910,"icted":7911,"Ġshops":7912,"Ġresidential":7913,"Ġstronger":7914,"bell":7915,"Ġnewly":7916,"Ġalt":7917,"Ġeverybody":7918,"ĠPerform":7919,"ĠFord":7920,"Ġincorpor":7921,"Ġarchitecture":7922,"Ġindustries":7923,"ĠNorthern":7924,"inois":7925,"Ġbehalf":7926,"Ġneighb":7927,"izza":7928,"ĠStudies":7929,"Ġconnections":7930,"ĠTax":7931,"bsite":7932,"Part":7933,"Ġforgot":7934,"swe":7935,"ĠTer":7936,"Ġpersonality":7937,"ESS":7938,"ceived":7939,"oken":7940,"ĠKent":7941,"Ġunderstood":7942,"ĠCond":7943,"quality":7944,"Ġsaving":7945,"Ġenterprise":7946,"bits":7947,"erts":7948,"Ġparam":7949,"remony":7950,"64":7951,"etary":7952,"Press":7953,"ĠStore":7954,"Ġleather":7955,"ĠEss":7956,"Ġoutcome":7957,"Ġtitles":7958,"Ġportfolio":7959,"ruption":7960,"Ġtired":7961,"Ġnic":7962,"stra":7963,"ĠDisney":7964,"Ġwins":7965,"anes":7966,"ĠClin":7967,"Ġmatches":7968,"Ġfinger":7969,"Ġblind":7970,"Ġenforcement":7971,"Ġlaid":7972,"Med":7973,"ĠLind":7974,"inity":7975,"ĠLabor":7976,"Ġarrested":7977,"iti":7978,"Ġcommonly":7979,"Note":7980,"Ġrising":7981,"Ġreact":7982,"Ġloud":7983,"Ġbunch":7984,"Ġseats":7985,"Ġlogo":7986,"Ġpreferred":7987,"words":7988,"Ġcommunicate":7989,"Ġgranted":7990,"Ġbars":7991,"Ġintense":7992,"Whe":7993,"Ġkm":7994,"Ġsubjects":7995,"Ġthinks":7996,"Ġcute":7997,"bration":7998,"ĠMedicine":7999,"ĠRam":8000,"erman":8001,"ĠRon":8002,"iral":8003,"arry":8004,"Ġseasons":8005,"ocated":8006,"Follow":8007,"Ġphones":8008,"abeth":8009,"Ġvisible":8010,"Ġcolleagues":8011,"CS":8012,")||":8013,"Ġru":8014,"Ġmm":8015,"chester":8016,"ĠBritain":8017,"Ġstructures":8018,"Ġdrawn":8019,"Ġassume":8020,"Ġhel":8021,"ĠTaylor":8022,"Ġreserved":8023,"Ġawarded":8024,"ĠMountain":8025,"imize":8026,"ĠPo":8027,"His":8028,"sts":8029,"ĠWH":8030,"Ġinsight":8031,"Ġstrict":8032,"Ġescape":8033,"Ġpubl":8034,"atell":8035,"Ġdecent":8036,"ĠTry":8037,"ĠHenry":8038,"Ġunex":8039,"Ġtor":8040,"Ġlists":8041,"unn":8042,"Ġyard":8043,"Ġ39":8044,"tes":8045,"ĠType":8046,"Ġloving":8047,"Ġavailability":8048,"ĠLearn":8049,"Ġscan":8050,"Ġfundamental":8051,"Ġbench":8052,"cular":8053,"ĠJr":8054,"Because":8055,"Ġjoining":8056,"Ġcertified":8057,"ĠBuy":8058,"Ġchannels":8059,"Ġtone":8060,"Ġwrites":8061,"Ġdispos":8062,"Ġencouraged":8063,"ĠSmall":8064,"Ġhung":8065,"Ġuncom":8066,"Ġlatter":8067,"ĠLy":8068,"ĠAp":8069,"irts":8070,"Ġcopyright":8071,"Ġeleg":8072,"ĠSus":8073,"Ġexposed":8074,"Ġupload":8075,"Ġcompare":8076,"aska":8077,"ĠKat":8078,"xic":8079,"Rep":8080,"Ġtact":8081,"ĠMobile":8082,"ĠJenn":8083,"mal":8084,"Ġconcerning":8085,"Ġfraud":8086,"ĠRoll":8087,"AND":8088,"Ġmanagers":8089,"Ġcontrovers":8090,"Ġfifth":8091,"Ġsacr":8092,"Ġaccord":8093,"ĠBroad":8094,"eling":8095,"ĠCarl":8096,"Ġcompliance":8097,"ĠSav":8098,"Ġboss":8099,"Ġbatt":8100,"ĠHollywood":8101,"Ġconsequences":8102,"iag":8103,"xx":8104,"2012":8105,"Ġmanufacturers":8106,"Ġbirds":8107,"ĠTravel":8108,"Ġcookies":8109,"Like":8110,"Ġequival":8111,"Ġisol":8112,"Ġenjoying":8113,"Ġinfection":8114,"run":8115,"ĠArizona":8116,"69":8117,"umm":8118,"aron":8119,"ĠRod":8120,"rieved":8121,"Ġextension":8122,"ĠGovern":8123,"Ġborrow":8124,"iac":8125,"Ġmarks":8126,"Ġgotten":8127,"Ġstaying":8128,"Ġfaced":8129,"Ġtissue":8130,"Ġretirement":8131,"Ġvent":8132,"Ġsynt":8133,"Ġrelative":8134,"ĠBa":8135,"ĠMA":8136,"Ġpand":8137,"Ġsuffered":8138,"Ġvirus":8139,"Ġhealing":8140,"Ġbutt":8141,"ensus":8142,"Ġjuice":8143,"ĠRun":8144,"Ġhandling":8145,"ĠPop":8146,"GE":8147,"Ġmob":8148,"Ġmerely":8149,"itis":8150,"OK":8151,"Ġwave":8152,"Ġcontained":8153,"Ġtournament":8154,"Ġassociation":8155,"Ġshoulder":8156,"ilty":8157,"Ġoutcomes":8158,"ĠRequ":8159,"ington":8160,"ĠFred":8161,"Ġelected":8162,"Ġblank":8163,"Two":8164,"hire":8165,"ĠStill":8166,"Ġspark":8167,"being":8168,"eras":8169,"Ġtrave":8170,"Ġdrag":8171,"Ġopinions":8172,"Best":8173,"iking":8174,"ĠBuilding":8175,"Ġframework":8176,"owers":8177,"icide":8178,"nders":8179,"iate":8180,"Ġpepper":8181,"Ġpowers":8182,"uties":8183,"Ġblocks":8184,"uct":8185,"Ġbills":8186,"ĠSteel":8187,"Ġcovering":8188,"Ġrice":8189,"Ġcriteria":8190,")|":8191,"ĠBrad":8192,"Ġconvin":8193,"ĠRa":8194,"cm":8195,"Ġcomplicated":8196,"isdom":8197,"Ġrecipes":8198,"season":8199,"Ġspots":8200,"Ġlets":8201,"Ġsingles":8202,"wart":8203,"Ġconsists":8204,"Ġinstant":8205,"Ġpointed":8206,"Ġlady":8207,"Ġputs":8208,"FA":8209,"HA":8210,"Co":8211,"ashes":8212,"Ġpoker":8213,"Ġdemands":8214,"Ġsamples":8215,"alysis":8216,"Tra":8217,"oted":8218,"ĠPut":8219,"books":8220,"ĠSummer":8221,"Ġunion":8222,"Ġsuperior":8223,"Ġinch":8224,".;":8225,"ĠAwards":8226,"Ġheaven":8227,"orgeous":8228,"Back":8229,"Ġdeeply":8230,"Ġaircraft":8231,"Ġlect":8232,"Ġbull":8233,"ĠDub":8234,"ĠSuch":8235,"zed":8236,"ĠIrish":8237,"ĠLocal":8238,"Ġvice":8239,"ĠOp":8240,"VER":8241,"ĠSilver":8242,"Ġtraveling":8243,"isted":8244,"Ġboxes":8245,"Ġconcert":8246,"Ġnewspaper":8247,"fall":8248,"Ġkit":8249,"war":8250,"Ġadequ":8251,"ulum":8252,"ĠShould":8253,"ĠDrive":8254,"days":8255,"annel":8256,"ja":8257,"Ġgenerated":8258,"Ġacceler":8259,"Fi":8260,"ĠMD":8261,"2013":8262,"stal":8263,"ĠTable":8264,"thew":8265,"print":8266,"Ġobst":8267,"Ġevaluation":8268,"Ġprogramming":8269,"ĠEst":8270,"icious":8271,"ĠFREE":8272,"yes":8273,"ĠEngineering":8274,"ĠBru":8275,"ĠPsych":8276,"Ġinjured":8277,"Ġsections":8278,"Ġzero":8279,"nesota":8280,"Ġinitiative":8281,"Ġparticipation":8282,"igation":8283,"87":8284,"ĠProm":8285,"Ġrequirement":8286,"Ġrural":8287,"regon":8288,"Sec":8289,"ĠCountry":8290,"67":8291,"Ġrefund":8292,"Ġsuggestions":8293,"ĠCab":8294,"Ġforecast":8295,"ership":8296,"ateful":8297,"Ġsought":8298,"ĠNFL":8299,"Ġmac":8300,"Ġindicate":8301,"Ġcenters":8302,"Ġtub":8303,"ila":8304,"othe":8305,"Ġelectrical":8306,"Step":8307,"uma":8308,"gor":8309,"Ġreturning":8310,"Ġvessel":8311,"rite":8312,"Ġstable":8313,"Ġnights":8314,"Ġremoval":8315,"ĠSection":8316,"Ġbasketball":8317,"ĠResp":8318,"ught":8319,"ardens":8320,"Ġham":8321,"Ġ($":8322,"Ġstrongly":8323,"Ġprohib":8324,"ulating":8325,"Ġsuffer":8326,"iler":8327,"ormal":8328,"adelph":8329,"bow":8330,"Ġcolon":8331,"ĠIllinois":8332,"ĠAdam":8333,"cut":8334,"ĠPrime":8335,"Ġassistant":8336,"Ġstored":8337,"ĠEastern":8338,"clusive":8339,"vas":8340,"Ġentitled":8341,"Â·":8342,"jo":8343,"orous":8344,"Ġchest":8345,"Ġmeets":8346,"brid":8347,"ĠLLC":8348,"Ġevolution":8349,"allas":8350,"Ġloose":8351,"Ġcoup":8352,"Find":8353,"Ġobjective":8354,"Ġclosing":8355,"Ġenables":8356,"ERE":8357,"Ġmaintaining":8358,"Ġequally":8359,"ĠRadio":8360,"Ġwithdraw":8361,"erving":8362,"57":8363,"Jan":8364,"acher":8365,"Ġgained":8366,"Ġapproaches":8367,"Will":8368,"Ġthousand":8369,"Ġvibr":8370,"ĠSat":8371,"pending":8372,"ĠGarden":8373,"phones":8374,"ĠMiami":8375,"ĠKingdom":8376,"Ġocean":8377,"Lear":8378,"Ġvolunteers":8379,".||":8380,"Ġrely":8381,"ĠFact":8382,"Ġplane":8383,"Ġpassword":8384,"Ġinitially":8385,"una":8386,"ĠRef":8387,"ylv":8388,"Ġrepresented":8389,"Ġhyper":8390,"Ġaband":8391,"Ġcompat":8392,"ĠSC":8393,"Ġusage":8394,"Ġclassroom":8395,"ilipp":8396,"Ġlegit":8397,"ĠBlog":8398,"Ġlesson":8399,"Ġfunctional":8400,"Ġpersonnel":8401,"Ġflying":8402,"Ġoccurs":8403,"ĠCase":8404,"Ġacquis":8405,"Ġjur":8406,"ĠCru":8407,"Ġcasual":8408,"Ġdollar":8409,"df":8410,"ĠCN":8411,"Ġadopted":8412,"ĠLine":8413,"52":8414,"Ġheading":8415,"Ġcharacteristics":8416,"Ġdivor":8417,"alo":8418,"nce":8419,"Ġposting":8420,"Ġphenomen":8421,"inating":8422,"Ġattempts":8423,"ĠSenior":8424,"iah":8425,"epend":8426,"ĠFall":8427,"ĠVegas":8428,"Ġtill":8429,"ĠSafety":8430,"adelphia":8431,"burgh":8432,"ĠMess":8433,"Ġdeck":8434,"ĠUk":8435,"Ġasks":8436,"Ġexhibition":8437,"Ġlift":8438,"ĠTech":8439,"Ġjudgment":8440,"Ġuncertain":8441,"Ġapplicable":8442,"Ġ1980":8443,"Ġentering":8444,"Ġminister":8445,"Ġther":8446,"tics":8447,"ocracy":8448,"Ġdepression":8449,"ĠFoot":8450,"Ġwanting":8451,"Ġchildhood":8452,"Ġtie":8453,"Ġ42":8454,"ĠWi":8455,"Ġplain":8456,"aters":8457,"Ġpreparing":8458,"ĠTal":8459,"ĠPrin":8460,"Ġbone":8461,"oked":8462,"ĠNick":8463,"ĠIII":8464,"400":8465,"Ġtracking":8466,"Ġwake":8467,"bro":8468,"Ġpurchasing":8469,"Ġassault":8470,"Sim":8471,"Aut":8472,"was":8473,"Ġdeeper":8474,"Ġdrinks":8475,"ordan":8476,"ĠSales":8477,"Ġsentence":8478,"Ġmistake":8479,"Ġexhaust":8480,"ĠQueen":8481,"ĠCivil":8482,"Ġcompensation":8483,"Ġstages":8484,"ials":8485,"ĠKevin":8486,"ĠPS":8487,"Ġconcepts":8488,"Ġkilling":8489,"usher":8490,"ĠLew":8491,"Ġattitude":8492,"ped":8493,"ĠMiller":8494,"________":8495,"Ġrapidly":8496,"Ġdiversity":8497,"izabeth":8498,"ĠInsurance":8499,"Ġbomb":8500,"acon":8501,"olis":8502,"Ġtomat":8503,"ĠLas":8504,"Ġ1997":8505,"ĠâĢĻ":8506,"Ġinstruction":8507,"month":8508,"Ġtape":8509,"wan":8510,"usal":8511,"Ġunknown":8512,"Ġ49":8513,"ĠHouston":8514,"Ġemails":8515,"Ġopposition":8516,"ĠProper":8517,"ĠSpain":8518,"Ġdowntown":8519,"Ġsmoke":8520,"68":8521,"site":8522,"sex":8523,"zes":8524,"ĠDavis":8525,"ĠConnect":8526,"ĠCro":8527,"Ġcalm":8528,"ĠÂ»":8529,"Ġstayed":8530,"Ġensuring":8531,"ĠDemocratic":8532,"Ġlegend":8533,"Ġstir":8534,"ccer":8535,"Ġelectricity":8536,"Rem":8537,"ĠDO":8538,"Ġfrustr":8539,"Ġimprovements":8540,"ĠProdu":8541,"hemat":8542,"Ġcalendar":8543,"gent":8544,"ĠNic":8545,"Ġgreatly":8546,"Ġarmy":8547,"Ġreveal":8548,"Ġcourts":8549,"Ġfarmers":8550,"Ġwarning":8551,"Ġequipped":8552,"ervations":8553,"ĠFa":8554,"58":8555,"ĠLED":8556,"je":8557,"Ġgym":8558,"eties":8559,"Ġbaseball":8560,"Ġworkshop":8561,"dis":8562,"eping":8563,"Ġ1996":8564,"Ġlin":8565,"ritten":8566,"Ġrepresentative":8567,"low":8568,"Ġfalls":8569,"ĠGuard":8570,"bered":8571,"ĠEth":8572,"ĠUSB":8573,"ador":8574,"Ġma":8575,"ĠAgency":8576,"Ã¼":8577,"ĠOrig":8578,"ART":8579,"ĠCP":8580,"Ġvoters":8581,"ĠUnfortunately":8582,"Ġriding":8583,"Ġceremony":8584,"Ġoffensive":8585,"Inst":8586,"ĠCON":8587,"Ġloyal":8588,"ller":8589,"AV":8590,"Ġdispl":8591,"Ġopens":8592,"Ġessentially":8593,"Good":8594,"ĠHarry":8595,"eters":8596,"'.":8597,"ĠDam":8598,"ĠÂ©":8599,"Ġemployer":8600,"ĠGreek":8601,"rogen":8602,"pson":8603,"Ġrum":8604,"ogy":8605,"ĠOfficer":8606,"Ġgrace":8607,"ĠMah":8608,"Oct":8609,"Ġvegetables":8610,"Ġintention":8611,"ali":8612,"Ġprayer":8613,"GA":8614,"Ġpocket":8615,"Ġrequested":8616,"Ġconclusion":8617,"Ġpig":8618,"ĠTony":8619,"Each":8620,"Ġflag":8621,"omething":8622,"iary":8623,"Ġorient":8624,"aka":8625,"Ġnations":8626,"ortion":8627,"Ġbuyers":8628,"Ġchecking":8629,"Ġpp":8630,"Ġcombat":8631,"Ġbaking":8632,"ilton":8633,"ĠUr":8634,"Ġcomputers":8635,"Ġsorry":8636,"Ġstom":8637,"eness":8638,"ĠHaving":8639,"Ġlip":8640,"ĠRoman":8641,"ĠSS":8642,"Ġspray":8643,"CL":8644,"ĠRos":8645,"Ġseeds":8646,"Ġokay":8647,"Ġindicated":8648,"ĠMembers":8649,"ĠKorea":8650,"Ġgate":8651,"odge":8652,"Ġconsent":8653,"Ġunusual":8654,"ruits":8655,"ifer":8656,"ifting":8657,"ĠCapt":8658,"Ġracing":8659,"ĠMos":8660,"jection":8661,"Ġintegration":8662,"Ġdental":8663,"Ġgap":8664,"Ġresort":8665,"Ġtransaction":8666,"ĠAction":8667,"ĠMs":8668,"Ġwireless":8669,"Ġcontaining":8670,"Ġtied":8671,"ĠEvent":8672,"Ġopposed":8673,"UM":8674,"Ġmassage":8675,"Ġcontributions":8676,"Ġemotions":8677,"ylvania":8678,"Ġscores":8679,"iffe":8680,"Ġroads":8681,"Ġlifetime":8682,"Ġsurve":8683,"Ġpermit":8684,"ĠBit":8685,"Ġadmit":8686,"Ġstring":8687,"ĠCapital":8688,"iour":8689,"Ġupgrade":8690,"Ġaccessories":8691,"Ġswimming":8692,"sen":8693,"looking":8694,"Ġpacked":8695,"Ġimper":8696,"ĠName":8697,"ĠED":8698,"Ġsomehow":8699,"Ġpricing":8700,"Ġinterviews":8701,"ĠPersonal":8702,"Ġdismiss":8703,"ĠTreat":8704,"elry":8705,"Ġfranch":8706,"Ġmole":8707,"ĠBrian":8708,"apore":8709,"Ġraising":8710,"heast":8711,"Ġrespectively":8712,"53":8713,"Wor":8714,"ĠOK":8715,"ĠClinton":8716,"ĠðŁ":8717,"Ġsubstantial":8718,"Ġstations":8719,"Ġminimal":8720,"icking":8721,"Ġresident":8722,"ĠStock":8723,"lee":8724,"Ġorganis":8725,"child":8726,"Ġoffense":8727,"Ġapplying":8728,"ĠGro":8729,"swered":8730,"Ġengaging":8731,"umer":8732,"Ġspa":8733,"ĠGM":8734,"vision":8735,"ĠLA":8736,"char":8737,"ĠSmart":8738,"ĠPerhaps":8739,"Ġstruggling":8740,"Ġspecialist":8741,"People":8742,"ĠOak":8743,"gel":8744,"ĠiPad":8745,"ĠMinnesota":8746,"Ġfewer":8747,"Ã³":8748,"Ġperformances":8749,"fa":8750,"ĠNatural":8751,"ĠLatin":8752,"Ġreaching":8753,"Ġactor":8754,"Ġtherap":8755,"rets":8756,"Ġinstitution":8757,"Ġpandemic":8758,"hour":8759,"Ġdisplayed":8760,"pany":8761,"ĠSoftware":8762,"LS":8763,"Ġpregnancy":8764,"''":8765,"ipt":8766,"CO":8767,"Ġflower":8768,"Ġdefensive":8769,"ĠHold":8770,"ĠVery":8771,"Ġweird":8772,"Ġwise":8773,"Ġexists":8774,"ĠCommon":8775,"world":8776,"Aug":8777,"orses":8778,"Ġfits":8779,"Ġworried":8780,"Ġattach":8781,"onder":8782,"Ġadvent":8783,"Ġphilosophy":8784,"ĠSwed":8785,"iform":8786,"roller":8787,"Ġpushed":8788,"liers":8789,"ĠPalest":8790,"Ġhadn":8791,"ulpt":8792,"ĠCasino":8793,"sis":8794,"Ġtooth":8795,"ĠLearning":8796,"Ġarray":8797,"clude":8798,"Ġgorgeous":8799,"Comm":8800,"intend":8801,"olt":8802,"Ġgovernments":8803,"Ġequivalent":8804,"Ġpride":8805,"Ġdrama":8806,"Ġprinting":8807,"Ġenemy":8808,"Ġly":8809,"ĠMother":8810,"Ġinvestments":8811,"ĠEric":8812,"Ġmoral":8813,"ĠTool":8814,"lections":8815,"Ġsurvive":8816,"power":8817,"Ġdanger":8818,"Ġstudied":8819,"Ġsatisfaction":8820,"aud":8821,"Ġchronic":8822,"Ġcontribution":8823,"Ġske":8824,"Ġvolunteer":8825,"ĠWilson":8826,"Ġratio":8827,"Ġfocusing":8828,"Ġstudying":8829,"Ġhosted":8830,"Ġcontracts":8831,"rer":8832,"Ġneut":8833,"Ġspeaker":8834,"ĠArticle":8835,"Ġblend":8836,"Ġtrips":8837,"Ġwaters":8838,"Ġblow":8839,"Ġauthentic":8840,"Ġnose":8841,"Ġsecondary":8842,"ĠWithout":8843,"%,":8844,"Ġstruck":8845,"upid":8846,"ĠAnth":8847,"da":8848,"through":8849,"Ġporn":8850,"Ġcann":8851,"Ġgraphics":8852,"ĠDri":8853,"Ġremem":8854,"Ġsoldiers":8855,"Ġcrypt":8856,"Ġerrors":8857,"ĠBang":8858,"ĠEmer":8859,"Ġadmitted":8860,"icket":8861,"onic":8862,"owa":8863,"Ġantib":8864,"wear":8865,"Ġmaintained":8866,"ĠDark":8867,"charge":8868,"ĠStory":8869,"âĢ³":8870,"Ġsegment":8871,"ĠProfessional":8872,"54":8873,"tery":8874,"Ġgarage":8875,"mo":8876,"ĠSir":8877,"Ġcircuit":8878,"unes":8879,"aza":8880,"andy":8881,"Ġpul":8882,"ĠPu":8883,"Ġbrilliant":8884,"Ġdescribes":8885,"UD":8886,"Ġfounder":8887,"angers":8888,"ĠNeed":8889,"step":8890,"ĠOregon":8891,"theless":8892,"ĠRen":8893,"ĠAfghan":8894,"Ġorange":8895,"ĠHas":8896,"Ġdeploy":8897,"Ġdecline":8898,"ĠBeaut":8899,"ĠGolden":8900,"ourse":8901,"Ġcombine":8902,"Ġtap":8903,"Ġgene":8904,"ĠBern":8905,"ĠNumber":8906,"Ġguilty":8907,"Ġlisting":8908,"Ġwondering":8909,"mble":8910,"ĠColumbia":8911,"Ġvisits":8912,"ificial":8913,"igen":8914,"Ġfilling":8915,"ĠOx":8916,"ĠDNA":8917,"amsung":8918,"ĠBrook":8919,"Art":8920,"Ġwhilst":8921,"ĠSEO":8922,"Ġhaz":8923,"Ġtemporary":8924,"ĠCredit":8925,"ĠDemocrats":8926,"aret":8927,"RL":8928,"cker":8929,"ĠNAS":8930,"Down":8931,"sylvania":8932,"Ġsouthern":8933,"Ġsomebody":8934,"Ġlosses":8935,"Ġlake":8936,"makers":8937,"Ġprivile":8938,"ked":8939,"Ġcoat":8940,"ĠBeing":8941,"Ġbuff":8942,"Ġcomprom":8943,"Ġfocuses":8944,"who":8945,"Ġlens":8946,"Ġsed":8947,"Ġenthusi":8948,"ĠToronto":8949,"Ġdiabetes":8950,"Cons":8951,"ĠLat":8952,"ko":8953,"Ġaccused":8954,"Ġcm":8955,"Ġcompete":8956,"oors":8957,"Ġkiss":8958,"Ġinteraction":8959,"ĠBudd":8960,"Ġintroduce":8961,"Ġmuscles":8962,"Ġchecked":8963,"fers":8964,"Ġpregnant":8965,"Ġque":8966,"ĠPA":8967,"athered":8968,"ainless":8969,"Ġscope":8970,"Ġhotels":8971,"Ġshell":8972,"Ġ~":8973,"sect":8974,"proof":8975,"organ":8976,"Ġlanguages":8977,"Ġtelephone":8978,"Ġinteractive":8979,"uten":8980,"http":8981,"Ġdishes":8982,"Ġanswered":8983,"wich":8984,"Ġ1995":8985,"Ġappointed":8986,"Ġentrance":8987,"ĠStandard":8988,"ockey":8989,"Ġaccuracy":8990,"viously":8991,"kel":8992,"ĠViet":8993,"Ġalter":8994,"Ġtoler":8995,"Ġpackages":8996,"RC":8997,"Ġassigned":8998,"urities":8999,"Ġheavily":9000,"rowse":9001,"Ġattending":9002,"Ġproved":9003,"inks":9004,"Ġminds":9005,"ĠDespite":9006,"Ġprovision":9007,"Ġprime":9008,"ĠLiving":9009,"Ġcelebration":9010,"Ġnerv":9011,"Ġsubsid":9012,"BM":9013,"Ġholidays":9014,"Ġinspe":9015,"Ġfactory":9016,"after":9017,"Â©":9018,"ĠWebsite":9019,"ĠStudent":9020,"Ġdamaged":9021,"ĠSeattle":9022,"Ġannouncement":9023,"cludes":9024,"Ġhearts":9025,"ĠPhiladelphia":9026,"ĠOl":9027,"riculum":9028,"Ġexceptional":9029,"Ġfrequency":9030,"ĠAge":9031,"Ġcrash":9032,"style":9033,"Ġbranch":9034,"Ġintellectual":9035,"Ġrecre":9036,"Ġindu":9037,"imp":9038,"Ġaddresses":9039,"Ġclubs":9040,"ĠDiego":9041,"Ġmedication":9042,"ĠBed":9043,"udes":9044,"visor":9045,"criptions":9046,"utter":9047,"terior":9048,"EX":9049,"Ġproducer":9050,"ĠPur":9051,"Ġprize":9052,"Ġemotion":9053,"Ġcameras":9054,"Ġadvantages":9055,"anguage":9056,"Ġbands":9057,"iscal":9058,"Ġflexibility":9059,"Ġhanging":9060,"Ġdesper":9061,"ĠShop":9062,"unicip":9063,"Ġtrim":9064,"ds":9065,"Ġasset":9066,"Ġtransactions":9067,"Ġbid":9068,"ira":9069,"ĠProcess":9070,"tail":9071,"Ġhighlights":9072,"ĠIde":9073,"Ġscrew":9074,"Ġhide":9075,"Ġcups":9076,"Ġtalented":9077,"ĠMagazine":9078,"ĠPakistan":9079,"iley":9080,"Ġresponses":9081,"high":9082,"Ġrestrictions":9083,"Ġboards":9084,"ĠDream":9085,"iscons":9086,"Ġdemonstrate":9087,"cribed":9088,"awa":9089,"Ġacquired":9090,"stract":9091,"Ġrarely":9092,"Ġvenue":9093,"Ġunexpected":9094,"vals":9095,"Ġemployed":9096,"isconsin":9097,"heim":9098,"oric":9099,"Ġanniversary":9100,"ĠFilm":9101,"Ġsinging":9102,"Ġcul":9103,"Ġfest":9104,"ĠTenn":9105,"agan":9106,"Ġperiods":9107,"ĠChall":9108,"Ġcow":9109,"Ġliability":9110,"rape":9111,"ronics":9112,"Ġslots":9113,"iro":9114,"Ġsatisfied":9115,"Ġgrateful":9116,"Ġmg":9117,"ĠBull":9118,"Ġconventional":9119,"Ġfur":9120,"isd":9121,"Ð¸":9122,"ĠRog":9123,"Ġtargeted":9124,"ĠFre":9125,"Ġwestern":9126,"ibl":9127,"edge":9128,"ĠBad":9129,"Ġpromoting":9130,"ĠIce":9131,"dney":9132,"Ġphotographs":9133,"ckets":9134,"ĠProtection":9135,"Ġfiction":9136,"ffective":9137,"Ġparticipating":9138,"Ġencounter":9139,"ĠBarb":9140,"Stud":9141,"Ġmining":9142,"Ġlaptop":9143,"ĠFinally":9144,"Ġarrival":9145,"Ġcodes":9146,"Ġformula":9147,"Ġdiscussions":9148,"72":9149,"Ġhip":9150,"ĠMember":9151,"Ġemerging":9152,"ILL":9153,"Ġmistakes":9154,"Ġinfect":9155,"Ġsinger":9156,"Ġbeneficial":9157,"Ġ120":9158,"mates":9159,"Ġsolo":9160,"Contact":9161,"ĠBrother":9162,"ĠMom":9163,",âĢĻ":9164,"2010":9165,"HT":9166,"Ġownership":9167,"Ġswing":9168,"Ġfingers":9169,"Ġexport":9170,"ĠCloud":9171,"Ġtrem":9172,"Ġstatistics":9173,"Ġgambling":9174,"ĠAirport":9175,"Ġcorrectly":9176,"Ġviewing":9177,"ĠQuality":9178,"Ġmold":9179,"Ġofficially":9180,"ĠBand":9181,"owed":9182,"Take":9183,"Ġmyth":9184,"........":9185,"gorith":9186,"61":9187,"Ġprincipal":9188,"ĠCreek":9189,"Ġuniverse":9190,"ĠÂ·":9191,"Ġemployers":9192,"Ġelections":9193,"51":9194,"ĠForest":9195,"cor":9196,"Ġholes":9197,"rat":9198,"Ġmild":9199,"Ġdent":9200,"Ġtransmission":9201,"Ġtestim":9202,"Ġpasses":9203,"Ġoverse":9204,"Fl":9205,"Ġguaranteed":9206,"63":9207,"Ġ64":9208,"Ġvoc":9209,"Ġ250":9210,"raine":9211,"Ġdelivering":9212,"Ġgallery":9213,"roit":9214,"acular":9215,"istent":9216,"Ġpromotion":9217,"Ġtargets":9218,"iences":9219,"Ġadj":9220,"Ġterrible":9221,"ĠTheatre":9222,"Ġletting":9223,"Ġdefine":9224,"ĠWas":9225,"ĠKansas":9226,"Ġdivided":9227,"ĠStone":9228,"asted":9229,"Ġpodcast":9230,"limited":9231,"Ġbrothers":9232,"ÑĤ":9233,"Ġscreens":9234,"Ġprinciple":9235,"abil":9236,"ĠStephen":9237,"ĠNO":9238,"Ġmanif":9239,"ĠFac":9240,"ĠBooks":9241,"Ġaims":9242,"ucks":9243,"Ġfluid":9244,"Ġhoriz":9245,"Make":9246,"Mark":9247,"Ġhes":9248,"pled":9249,"Ġspeakers":9250,"Ġbreaks":9251,"Ġgig":9252,"Ġperm":9253,"ĠDallas":9254,"Ġsevent":9255,"Ġouts":9256,"ALL":9257,"ĠEX":9258,"ĠAtlanta":9259,"ĠCS":9260,"ĠStation":9261,"ĠSarah":9262,"ugs":9263,"Ġresidence":9264,"Ġproport":9265,"olid":9266,"ersion":9267,"Ġacknowled":9268,"Ġchampion":9269,"Ġtemperatures":9270,"Ġladies":9271,"Ġstability":9272,"Ġdose":9273,"ĠBat":9274,"Ġoral":9275,"62":9276,"Ġjail":9277,"Ġinsights":9278,"Ġcircle":9279,"ĠFL":9280,"ĠDave":9281,"ĠSquare":9282,"ĠChange":9283,"ĠCou":9284,"Ġestimate":9285,"ĠRepublicans":9286,"ounce":9287,"Ġles":9288,"ĠJason":9289,"vironments":9290,"Ġpilot":9291,"Google":9292,"ĠScotland":9293,"Ġthemes":9294,"ĠMov":9295,"Ġbold":9296,"Ġconsultation":9297,"avor":9298,"Ġbes":9299,"Ġsummary":9300,"Ġroots":9301,"gener":9302,"anth":9303,"Ġaddressed":9304,"ĠSteven":9305,"Ġexplos":9306,"Ġimportantly":9307,"Ġcharity":9308,"ĠJosh":9309,"%)":9310,"Ġcha":9311,"Ġcreativity":9312,"ĠBridge":9313,"Ġ1970":9314,"ospel":9315,"OG":9316,"ĠPolit":9317,"ĠPennsylvania":9318,"ĠElizabeth":9319,"Ġwisdom":9320,"Ġvert":9321,"Ġsigning":9322,"ĠSelect":9323,"ĠAustin":9324,"ractions":9325,"HL":9326,"oding":9327,"DP":9328,"ĠTen":9329,"ĠHawai":9330,"Ġtort":9331,"Ġsleeping":9332,"ĠGreg":9333,"ima":9334,"Ġyours":9335,"ordinary":9336,"ĠDun":9337,"Ġgolden":9338,"Ġ(âĢľ":9339,"Ġshirt":9340,"ĠSex":9341,"ĠRetrieved":9342,"hop":9343,"Ġelsewhere":9344,"2011":9345,"Ġimplemented":9346,"Gl":9347,"Ġresid":9348,"Ġyoga":9349,"oen":9350,"rus":9351,"Ã¶":9352,"Ġvirtually":9353,"mod":9354,"ji":9355,"Ġpackaging":9356,"73":9357,"Ġdifficulty":9358,"Ġimmune":9359,"Ġcabin":9360,"novation":9361,"Ġcomplaint":9362,"Ġlicensed":9363,"ĠDead":9364,"Ġautomatic":9365,"zzle":9366,"Ġ:)":9367,"Ġdil":9368,"Ġregulation":9369,"Ġlawsu":9370,"Ġ44":9371,">>":9372,"PL":9373,"ĠJam":9374,"Ġregulatory":9375,"ĠProducts":9376,"Top":9377,"etts":9378,"ĠRemember":9379,"Ġromantic":9380,"Ġrecruit":9381,"Ġpeak":9382,"vol":9383,"ĠRub":9384,"Ġlayers":9385,"Ġhoney":9386,"Ġpushing":9387,"Ġsemi":9388,"ĠLevel":9389,"Ġvotes":9390,"Ġexplo":9391,"Ġcotton":9392,"rary":9393,"Ġalign":9394,"Ġconversations":9395,"ĠMinistry":9396,"ifted":9397,"Ġmad":9398,"ĠPrint":9399,"Ġtoile":9400,"',":9401,"Ġfib":9402,"ĠHay":9403,"Ġought":9404,"Ġcurrency":9405,"Her":9406,"Ġdirections":9407,"ĠMu":9408,"emed":9409,"Dis":9410,"onymous":9411,"Ġdisaster":9412,"Ġconvert":9413,"Welcome":9414,"Ġsurge":9415,"ela":9416,"Ġprotocol":9417,"ĠConsult":9418,"Ġrelation":9419,"Ġdistingu":9420,"ĠJay":9421,"Ġrefuge":9422,"Ġexpanded":9423,"ĠJordan":9424,"Ġcoaching":9425,"Ġdesigners":9426,"Ġovercome":9427,"Ġaccordance":9428,"Ġtons":9429,"Under":9430,"ĠPhilipp":9431,"ĠSem":9432,"Ġresulted":9433,"chers":9434,"achus":9435,"Ġpassionate":9436,"Ġterr":9437,"ĠVice":9438,"ĠHIV":9439,"reement":9440,"98":9441,"Ġgonna":9442,"Ġimmigr":9443,"Ġkil":9444,"Ġdrives":9445,"Ġresponded":9446,"uating":9447,"verty":9448,"Ġdeclared":9449,"bra":9450,"Ġconsistently":9451,"Ġaccompan":9452,"assion":9453,"uis":9454,"Next":9455,"Ġski":9456,"aws":9457,"Ġcopies":9458,"Christ":9459,"Ġsod":9460,"axy":9461,"Ġburning":9462,"Ġscoring":9463,"Ġnorthern":9464,"ĠCBD":9465,"Ġimpression":9466,"Ġpursue":9467,"Ġgrounds":9468,"Ġcampaigns":9469,"Ġmask":9470,"ĠCancer":9471,"omatic":9472,"ĠPartners":9473,"opher":9474,"rous":9475,"Ġtube":9476,"market":9477,"Ġmit":9478,"Ġsafely":9479,"ĠBE":9480,"agers":9481,"Ġaccounting":9482,"ĠAdditionally":9483,"Ġrepeat":9484,"Ġexploring":9485,"Ġmovements":9486,"shire":9487,"ĠTR":9488,"Ġequity":9489,"Ġstomach":9490,"Ġhiring":9491,"Ġalarm":9492,"Ġabilities":9493,"ĠGi":9494,"ĠStudy":9495,"aver":9496,"Ġorganisation":9497,"ĠDoc":9498,"ĠChapter":9499,"ĠExpress":9500,"Ġvoting":9501,"ĠBase":9502,"Ġpic":9503,"ervice":9504,"Ġhorm":9505,"ieve":9506,"Ġpoverty":9507,"Ġversus":9508,"ĠSingapore":9509,"uana":9510,"Ġcontainer":9511,"ĠAvailable":9512,"ĠCL":9513,"ORE":9514,"Feb":9515,"ĠResources":9516,"Ġsubstance":9517,"ĠMade":9518,"Ġax":9519,"Ġheating":9520,"unate":9521,"Ġnursing":9522,"ĠMotor":9523,"Ġdistributed":9524,"CR":9525,"Ġresume":9526,"Ġinitiatives":9527,"ayer":9528,"Ġscream":9529,"Ġweigh":9530,"ĠTrade":9531,"Ġengines":9532,"Ġ1994":9533,"Ġdecrease":9534,"inth":9535,"ĠSeason":9536,"Ġstrengthen":9537,"arents":9538,"ĠCut":9539,"Ġcompe":9540,"engers":9541,"Ġrecall":9542,"ĠOwn":9543,"Ġmountains":9544,"Ġnervous":9545,"atellite":9546,"gov":9547,"ĠShare":9548,"ĠMethod":9549,"Ġdramatic":9550,"AF":9551,"Ġdeveloper":9552,"Ġhitting":9553,"ĠVen":9554,"Ġcertificate":9555,"Ġdiagnosis":9556,"Ġsignature":9557,"Ġbass":9558,"Ġbrush":9559,"Ġsetup":9560,"ustration":9561,"cked":9562,"there":9563,"giving":9564,"Ġwooden":9565,"71":9566,"Cur":9567,"gments":9568,"Ġcompletion":9569,"Ġviewed":9570,"Ġstocks":9571,"iders":9572,"hyth":9573,"ĠNation":9574,"Ġinsert":9575,"Ġordinary":9576,"Ġthro":9577,"ĠExam":9578,"Ġsurely":9579,"Ġediting":9580,"rep":9581,"ĠLady":9582,"cience":9583,"600":9584,"Ġexperiencing":9585,"PD":9586,"pton":9587,"atile":9588,"mann":9589,"they":9590,"owered":9591,"Ġrefe":9592,"Ġfiber":9593,"iatric":9594,"ĠWisconsin":9595,"Ġenvironments":9596,"ĠAnnual":9597,"urches":9598,"Gener":9599,"ĠDog":9600,"Ġcouples":9601,"Ġabroad":9602,"Ġlowest":9603,"Ġapplies":9604,"achusetts":9605,"Ġcomedy":9606,"ho":9607,"screen":9608,"Ġwarranty":9609,"ĠEN":9610,"ishment":9611,".-":9612,"mic":9613,"ĠSound":9614,"elve":9615,"coln":9616,"Ġhappiness":9617,"Ġboot":9618,"ista":9619,"Ġrefused":9620,"Ġmeasured":9621,"ĠBry":9622,"Ġaimed":9623,"Ġdenied":9624,"lined":9625,"TE":9626,"Ġenorm":9627,"imental":9628,"Ġsurvival":9629,"don":9630,"agen":9631,"ologists":9632,"ĠEasy":9633,"Ġevaluate":9634,"Ġsubsequent":9635,"tical":9636,"Ġinvesting":9637,"ĠEveryone":9638,"ĠMoney":9639,"Ġreviewed":9640,"Ġmath":9641,"Ġdual":9642,"Ġdiscovery":9643,"Ġbarely":9644,"Ġamongst":9645,"ĠContent":9646,"Ġfert":9647,"orship":9648,"Ġearnings":9649,"Ġbub":9650,"ĠKong":9651,"cycle":9652,"ĠPitt":9653,"Ġtries":9654,"Ġbelt":9655,"igious":9656,"ĠModel":9657,"Ġreven":9658,"Ġabsence":9659,"Ġsettlement":9660,"Out":9661,"iagra":9662,"ĠDonald":9663,"Ġfunctionality":9664,"ĠThings":9665,"ĠArm":9666,"ĠMatthew":9667,"Ġblogs":9668,"Ġchips":9669,"cuse":9670,"ĠAttorney":9671,"Ġincent":9672,"Ġpenalty":9673,"Ġrac":9674,"ĠBul":9675,"ultane":9676,"game":9677,"Ġhopefully":9678,"fire":9679,"Ġworship":9680,"ĠIslam":9681,"Ġmechanism":9682,"ĠLewis":9683,"atern":9684,"Ġgrocer":9685,"ĠShort":9686,"pire":9687,"ping":9688,"Ġweapon":9689,"rine":9690,"ĠChristians":9691,"aun":9692,"Ġclicking":9693,"ĠMoon":9694,"Ġaged":9695,"Ġrolling":9696,"Ġbanking":9697,"Ġmoon":9698,"ĠSM":9699,"Ġexamination":9700,"ĠMoo":9701,"Ġexcite":9702,"Ġproductivity":9703,"Ġpicking":9704,"dri":9705,"Ġsculpt":9706,"Ġ1000":9707,"Use":9708,"agraph":9709,"Ġprescription":9710,"Ġmirror":9711,"ĠDom":9712,"ĠSep":9713,"Ġdisorder":9714,"aval":9715,"ĠEstate":9716,"ĠCustomer":9717,"itate":9718,"han":9719,"Ġuniversities":9720,"ĠPaper":9721,"ĠVillage":9722,"Ġargue":9723,"Ġhardly":9724,"Ġdisturb":9725,"Despite":9726,"atching":9727,"Ġslic":9728,"cest":9729,"Ġ99":9730,"ĠCore":9731,"Ġgarlic":9732,"Ġalgorith":9733,"yo":9734,"Ġnarrative":9735,"ĠSize":9736,"Ġcontributed":9737,"Ġsophist":9738,"Ġwinners":9739,"Ġvulnerable":9740,"Ġeliminate":9741,"Ġexplanation":9742,"Ġgenerations":9743,"Ġobjectives":9744,"apse":9745,"Ġraces":9746,"Ġdemonstrated":9747,"Ġutilize":9748,"Dav":9749,"Ġessays":9750,"Ġrespective":9751,"will":9752,"Ġgam":9753,"minute":9754,"Ġinvite":9755,"called":9756,"van":9757,"esy":9758,"Ġ800":9759,"Ġadministrative":9760,"Ġtremend":9761,"ĠImm":9762,"found":9763,"Ġtroops":9764,"Ġconvenience":9765,"Ġdivide":9766,"occ":9767,"Ġabund":9768,"ĠWould":9769,"atal":9770,"Ġduties":9771,"Ġpossibilities":9772,"Ġhorses":9773,"ĠTrib":9774,"ĠTam":9775,"Ġunlikely":9776,"Ġcertification":9777,"omed":9778,"Ġsear":9779,"Ġtradem":9780,"Ġvoted":9781,"Ġwider":9782,"ĠIowa":9783,"onds":9784,"ĠGrow":9785,"aire":9786,"Ġministry":9787,"ĠAllen":9788,"cend":9789,"aintiff":9790,"Ġinvention":9791,"Ġsubscription":9792,"ĠCry":9793,"ĠFR":9794,"Ġconservative":9795,"Ġpanels":9796,"essee":9797,"Ġknee":9798,"grade":9799,"Ġactors":9800,"walk":9801,"ĠFront":9802,"Ġagenda":9803,"Ġexercises":9804,"Ġlemon":9805,"Ġrepresentatives":9806,"Ġexamine":9807,"Ġdies":9808,"Ġbooking":9809,"Ġcontinuous":9810,"ĠAuto":9811,"Ġkeys":9812,"ĠEag":9813,"84":9814,"erk":9815,"ĠKids":9816,"74":9817,"Ġnetworking":9818,"Hz":9819,"ĠMarc":9820,"ito":9821,"ĠHell":9822,"Ġgathered":9823,"ighth":9824,"ouses":9825,"Ġsorts":9826,"otion":9827,"home":9828,"Ġrelating":9829,"irk":9830,"Ġhospitals":9831,"Ġsettled":9832,"Ġcaptured":9833,"post":9834,"Ġroughly":9835,"ching":9836,"ĠToy":9837,"Ġsuppliers":9838,"ĠJews":9839,"sole":9840,"Ġactively":9841,"ĠGallery":9842,"gi":9843,"vation":9844,"ishop":9845,"week":9846,"ĠPast":9847,"wall":9848,"Ġtrusted":9849,"ao":9850,"Ġbehaviour":9851,"Ġcompos":9852,"ĠALL":9853,"Sub":9854,"Ġreleases":9855,"ouri":9856,"dep":9857,"ĠIM":9858,"IST":9859,"Ġutility":9860,"Ġdeaths":9861,"ricted":9862,"ĠSydney":9863,"ĠStudio":9864,"icked":9865,"Ġathletes":9866,"ĠJudge":9867,"Ġfantasy":9868,"Ġreception":9869,"Ġannoy":9870,"Ġcats":9871,"ITY":9872,"ĠThink":9873,"Ġworkplace":9874,"ĠBlu":9875,"flow":9876,"rix":9877,"Ġchecks":9878,"Ġstack":9879,"ĠCooper":9880,"ĠAh":9881,"Ġstops":9882,"asty":9883,"Ġworkout":9884,"enter":9885,"Ġadvertise":9886,"Ġestimates":9887,"Ġinnoc":9888,"ĠExchange":9889,"ĠLimited":9890,"Day":9891,"Ġimpressed":9892,"Ġwalks":9893,"offs":9894,"ĠMemorial":9895,"High":9896,"oof":9897,"oper":9898,"Ġinstantly":9899,"Ġhunt":9900,"Ġ95":9901,"Ġscar":9902,"Ġpor":9903,"wa":9904,"onut":9905,"acles":9906,"Did":9907,"hesis":9908,"Ġunem":9909,"Ġmeaningful":9910,"ĠLyn":9911,"aware":9912,"Ġgraphic":9913,"Ġranging":9914,"Ġdrain":9915,"ĠHills":9916,"Ġdestroyed":9917,"itches":9918,"ested":9919,"Ġremarkable":9920,"Ġsolely":9921,"ĠSolutions":9922,"ĠSciences":9923,"arly":9924,"Ġconcentration":9925,"Ġdumpster":9926,"lah":9927,"ĠPers":9928,"Ġfrequent":9929,"only":9930,"Ġseam":9931,"ĠIndepend":9932,"Ġlawyers":9933,"oning":9934,"Ġacquire":9935,"Ġfed":9936,"Ġnutrition":9937,"Ġformation":9938,"ĠHT":9939,"Ġ43":9940,"Ġtablet":9941,"ĠDJ":9942,"gged":9943,"Ġteasp":9944,"Ġretired":9945,"rell":9946,"ĠEnjoy":9947,"ĠHP":9948,"Great":9949,"Ġsmartphone":9950,"ĠAnaly":9951,"ĠÎ":9952,"Ġspell":9953,"Ġskilled":9954,"Ġdipl":9955,"inst":9956,"Ġsne":9957,"piece":9958,"elle":9959,"Ġangry":9960,"Ġelder":9961,"Ġinhib":9962,"Ġtutorial":9963,"DR":9964,"ethe":9965,"Date":9966,"ĠCOM":9967,"ĠRick":9968,"Ġfranchise":9969,"dy":9970,"Ġcher":9971,"ĠTransport":9972,"Ġemphasis":9973,"Ġtoys":9974,"ECT":9975,"vity":9976,"Whether":9977,"ĠBuild":9978,"winning":9979,"ĠEmail":9980,"aved":9981,"Ġtrailer":9982,"Ġroy":9983,"ften":9984,"ĠGive":9985,"Mon":9986,"Ġmaps":9987,"Ġbeef":9988,"Ġvintage":9989,"olds":9990,"Ġsmoking":9991,"arring":9992,"Ġacquisition":9993,"nie":9994,"amics":9995,"Av":9996,"sized":9997,"Ty":9998,"omic":9999,"Ġ41":10000,"Ġdialogue":10001,"Ġdrove":10002,"Ġdesktop":10003,"Ġconversion":10004,"ello":10005,"ÑĢ":10006,"orneys":10007,"Ġfinishing":10008,"ĠiOS":10009,"Ġmanip":10010,"Ġpainted":10011,"ICE":10012,"ijuana":10013,"Copyright":10014,"Ġtrials":10015,"Ġhabits":10016,"achelor":10017,"ĠModern":10018,"Ġconvey":10019,"ĠJane":10020,"Ġcredits":10021,"itative":10022,"about":10023,"Ġcomposition":10024,"isting":10025,"fections":10026,"Ġovernight":10027,"Ġdeserve":10028,"Ġpresidential":10029,"Ġtong":10030,"ĠTalk":10031,"ĠChem":10032,"Ġvine":10033,"Ġinstruments":10034,"ĠMassachusetts":10035,"ĠKind":10036,"ĠWars":10037,"Ġassembly":10038,"ĠNob":10039,"Ġharvest":10040,"rimination":10041,"Ġworkshops":10042,"ĠDrag":10043,"Ġreserve":10044,"Ġjurisd":10045,"Ġbacteria":10046,"Ġfault":10047,"Ġthy":10048,"Start":10049,"Ġstupid":10050,"Ġrepresenting":10051,"Act":10052,"Ġaer":10053,"ĠKelly":10054,"roph":10055,"Join":10056,"angle":10057,"ĠEverything":10058,"ĠDI":10059,"Ġjewelry":10060,"otes":10061,"ĠBuff":10062,"Ġangle":10063,"Ġgathering":10064,"uates":10065,"Ġdozen":10066,"Ġthreats":10067,"tains":10068,"Ġinventory":10069,"ĠAnderson":10070,"Ġsli":10071,"Ġproduces":10072,"Ġglobe":10073,"interest":10074,"ĠMaryland":10075,"Ġprovisions":10076,"ĠRegist":10077,"core":10078,"ĠCollection":10079,"Ġaccum":10080,"ĠBud":10081,"vant":10082,"ĠRus":10083,"ĠContinue":10084,"section":10085,"Ġrepresentation":10086,"Ġlayout":10087,"Ġpromised":10088,"dated":10089,"cho":10090,"Time":10091,"ANT":10092,"IVE":10093,"yd":10094,"Ġimmun":10095,"Ġpetition":10096,"ĠBody":10097,"aul":10098,"Ġdisag":10099,"sea":10100,"Ġsequence":10101,"ĠCome":10102,"Ge":10103,"ĠOs":10104,"abama":10105,"ols":10106,"Ġbabies":10107,"ĠRoss":10108,"Ġprofits":10109,"Ġvendors":10110,"Ġimmigration":10111,"pool":10112,"ĠLic":10113,"pers":10114,"MI":10115,"ifully":10116,"uminum":10117,"Ġfired":10118,"Ġworn":10119,"ĠOcean":10120,"bourne":10121,"ĠSab":10122,"Ġhosts":10123,"ĠNations":10124,"Ġrestore":10125,"ingham":10126,"Ġpreced":10127,"ĠPrince":10128,"iar":10129,"Ġphysician":10130,"Ġreply":10131,"Ġgenetic":10132,"Ġcollective":10133,"Ġuncle":10134,"Ġscenario":10135,"ĠExperience":10136,"Ġcancell":10137,"Ġpurchases":10138,"Ġpublishing":10139,"ickets":10140,"Ġsour":10141,"oz":10142,"Ġaest":10143,"ĠUnivers":10144,"ami":10145,"Ġcontents":10146,"Ġdocumentation":10147,"Ġleaf":10148,"Ġoperated":10149,"Ġprecious":10150,"Ġnewsletter":10151,"pot":10152,"Ġventure":10153,"Ġencount":10154,"Ġtexture":10155,"aha":10156,"!!!!":10157,"ĠPatrick":10158,"Rel":10159,"Ġwaves":10160,"prof":10161,"ĠSant":10162,"Ġtender":10163,"Ġinquir":10164,"Ġdefect":10165,"Ġphysically":10166,"Ġsexy":10167,"Ġslee":10168,"150":10169,"Ġterritory":10170,"rett":10171,"Ġranked":10172,"Ġfool":10173,"Ġoperational":10174,"ĠWordPress":10175,"Ġdisplays":10176,"Ġworker":10177,"Ġsignals":10178,"ĠEdition":10179,"Ġjunior":10180,"Ġindicates":10181,"ĠSche":10182,"Ġlaser":10183,"ĠDetroit":10184,"Ġrubber":10185,"NS":10186,"xid":10187,"via":10188,"OB":10189,"ĠâĢĿ":10190,"Ġsynd":10191,"ropri":10192,"ĠHong":10193,"ĠSaint":10194,"Ġaggressive":10195,"ĠPhoto":10196,"Ġchemicals":10197,"Ġblame":10198,"vard":10199,"Ġemissions":10200,"rend":10201,"Ġexpense":10202,"Ġpizza":10203,"Ġsupporters":10204,"IB":10205,"ĠMaterial":10206,"Ġtackle":10207,"ĠSamsung":10208,"Ġedit":10209,"ĠBab":10210,"Ġtears":10211,"Ġinvolvement":10212,"Ġballs":10213,"ĠAlp":10214,"Ġorganisations":10215,"ĠCub":10216,"Ġfulfill":10217,"otive":10218,"Ġproducers":10219,"Ġresolve":10220,"Ġprotecting":10221,"Ġinev":10222,"Ġshortly":10223,"Ġbearing":10224,"cop":10225,"py":10226,"?)":10227,"icals":10228,"eman":10229,"Ġprominent":10230,"cope":10231,"Ġservers":10232,"ĠBarn":10233,"Ġ52":10234,"96":10235,"Ġcurriculum":10236,"Ġelegant":10237,"arat":10238,"82":10239,"ĠIsraeli":10240,"ĠâĤ¬":10241,"Ġexch":10242,"ĠHom":10243,"fee":10244,"iances":10245,"Ġdevelopments":10246,"Ġdivorce":10247,"Work":10248,"83":10249,"Ġcolours":10250,"Ġdamages":10251,"Ġfollowers":10252,"ĠNut":10253,"ĠSale":10254,"Ġtheater":10255,"asion":10256,"aga":10257,"def":10258,"Ġnobody":10259,"Ã¤":10260,"ĠMajor":10261,"Ġparalle":10262,"Ġentrepreneurs":10263,"El":10264,"Ġye":10265,"ĠRome":10266,"cr":10267,"itarian":10268,"Ġnutri":10269,"Ġmigr":10270,"oli":10271,"Ġintervention":10272,"Ġquantity":10273,"Ġreferr":10274,"Ġ!":10275,"graduate":10276,"Ġmetab":10277,"ĠChampionship":10278,"Ġbetting":10279,"Ġpossession":10280,"Ġextraordinary":10281,"Ġcomic":10282,"Ġfundra":10283,"ĠClean":10284,"Ġchef":10285,"KE":10286,"FF":10287,"Ġsalary":10288,"ĠOnt":10289,"Ġalleg":10290,"ĠAli":10291,"Ġoverwhelming":10292,"Ġlean":10293,"ĠFA":10294,"Ġsimultane":10295,"Ġretain":10296,"Ġscreening":10297,"ĠAnton":10298,"Ġgang":10299,"ĠRs":10300,"Ġresponsibilities":10301,"Ġbeliefs":10302,"Ġ600":10303,"Ġsteam":10304,"Ġassociate":10305,"Ġinflamm":10306,"ummer":10307,"Ġ1992":10308,"ĠMichel":10309,"quarters":10310,"Ġencouraging":10311,"ĠEconomic":10312,"Ġthoroughly":10313,"Ġenhanced":10314,"ĠIndiana":10315,"Ġsurrounded":10316,"ĠAtlantic":10317,"rot":10318,"ĠDoctor":10319,"ĠEnvironmental":10320,"ĠWorking":10321,"Ju":10322,"Ġmystery":10323,"Ġspecified":10324,"Ġconj":10325,"Ġclip":10326,"ĠMoreover":10327,"Friday":10328,"ĠReading":10329,"Ġcooked":10330,"ĠClark":10331,"itty":10332,"Ġmattress":10333,"ĠBowl":10334,"Ġoccasionally":10335,"BN":10336,"ĠDeb":10337,"Ġ46":10338,"TO":10339,"Ġcyber":10340,"Ġexcitement":10341,"WH":10342,"ĠNature":10343,"ĠVictoria":10344,"ĠMonth":10345,"rior":10346,"Ġhired":10347,"Finally":10348,"ront":10349,"utor":10350,"ntil":10351,"Ġhunting":10352,"obb":10353,"osit":10354,"Ġcooperation":10355,"Ġpassage":10356,"Ġstem":10357,"ĠMarsh":10358,"Ġupset":10359,"Ġfiscal":10360,"Ġchampionship":10361,"Ġrobust":10362,"Ġcarpet":10363,"Ġships":10364,"Ġ1960":10365,"ĠLincoln":10366,"ĠAng":10367,"],":10368,"idal":10369,"Ġbuyer":10370,"Ġcrimes":10371,"itzer":10372,"Ġwhereas":10373,"ĠMind":10374,"ĠHart":10375,"Ġadoption":10376,"ĠAk":10377,"UC":10378,"olen":10379,"Ġveteran":10380,"ĠGovernor":10381,"Ġintegrity":10382,"ĠAst":10383,"Ġshapes":10384,"hr":10385,"Ġcomplement":10386,"Ġdelivers":10387,"uz":10388,"Ġepisodes":10389,"Ġwhis":10390,"Ġadequate":10391,"atoes":10392,"IO":10393,"Ġdancing":10394,"PP":10395,"Ġrecru":10396,"Ġruling":10397,"Net":10398,"Ġcrown":10399,"ĠLuc":10400,"backs":10401,"Ġspectacular":10402,"ictions":10403,"oa":10404,"Ġacres":10405,"ĠUser":10406,"ĠBalt":10407,"function":10408,"bage":10409,"250":10410,"covery":10411,"ĠBureau":10412,"Ġexpanding":10413,"Ġlegacy":10414,"2009":10415,"Ġfinancing":10416,"Ġtu":10417,"ĠRegional":10418,"ĠBreak":10419,"ĠImpro":10420,"ĠWinter":10421,"Ġquotes":10422,"alm":10423,"ĠBh":10424,"Ġprocessed":10425,"acter":10426,"ĠSure":10427,"Ġreverse":10428,"ĠReviews":10429,"break":10430,"Ġaccomplished":10431,"ĠAmong":10432,"Ġdefeat":10433,"oons":10434,"Ġalert":10435,"Ġgal":10436,"ĠLi":10437,"ĠNig":10438,"ricts":10439,"ĠBBC":10440,"scale":10441,"Ġfake":10442,"Ġlips":10443,"Ġslide":10444,"Ġcogn":10445,"Ġsuspend":10446,"xygen":10447,"ĠStaff":10448,"Ġtoxic":10449,"Ġlibr":10450,"Ġdough":10451,"Ġfascinating":10452,"Ġfruits":10453,"gain":10454,"Ġreferences":10455,"Ġconcluded":10456,"ĠPict":10457,"ĠHR":10458,"Ġtemplate":10459,"Ġmatching":10460,"abling":10461,"ĠForum":10462,"ĠSelf":10463,"otte":10464,"ĠAlbert":10465,"fish":10466,"ilation":10467,"Ġ01":10468,"ifferent":10469,"Ġconce":10470,"Download":10471,"Ġmodified":10472,"aying":10473,"ĠWW":10474,"bd":10475,"Ġadmission":10476,"ĠTurkey":10477,"Ġspectrum":10478,"orse":10479,"Ġrefers":10480,"Ġbalanced":10481,"Vis":10482,"ĠCover":10483,"ITH":10484,"Ġarrangements":10485,"ousing":10486,"Ġcinem":10487,"uum":10488,"Ġmakeup":10489,"Ġtransformation":10490,"lahoma":10491,"QL":10492,"Ġprevention":10493,"ĠBaby":10494,"ĠIslamic":10495,"ĠGolf":10496,"Ġbankrupt":10497,"ĠDefense":10498,"Ġcoaches":10499,"athon":10500,"Ġmyster":10501,"Ġodds":10502,"ĠPalestin":10503,"ĠGrant":10504,"Ġpopularity":10505,"Ġbene":10506,"Ġremoving":10507,"ĠConstitution":10508,"Ġolive":10509,"ishers":10510,"imm":10511,"ĠBeh":10512,"Ġcorpor":10513,"aa":10514,"Ġviolent":10515,"Eng":10516,"dale":10517,"Ġgrat":10518,"ĠChampions":10519,"ĠIndustry":10520,"afe":10521,"ĠIron":10522,"ĠComputer":10523,"vo":10524,"Ġsensor":10525,"Ġcompetitors":10526,"Ġnail":10527,"Met":10528,"ĠBB":10529,"Ġoz":10530,"airy":10531,"Ġphrase":10532,"ĠLes":10533,"Ġbegun":10534,"Ġmouse":10535,"ĠNC":10536,"ĠWales":10537,"Ġregime":10538,"Ġcheaper":10539,"Ġphotographer":10540,"Ġrescue":10541,"Ġpour":10542,"Ġ1993":10543,"forward":10544,"Ñģ":10545,"ĠET":10546,"ĠSE":10547,"itters":10548,"Ġdrops":10549,"ori":10550,"ĠGree":10551,"ĠAdvent":10552,"Ġanybody":10553,"ĠHur":10554,"ĠBan":10555,"ounding":10556,"81":10557,"heart":10558,"osystem":10559,"urer":10560,"THE":10561,"HP":10562,"mind":10563,"Ġeager":10564,"aceut":10565,"ĠQuick":10566,"Ġgenre":10567,"ascular":10568,"opt":10569,"Ġcig":10570,"ĠMail":10571,"ĠDrug":10572,"Ð½":10573,"Ġwheels":10574,"ĠSong":10575,"Ġuniform":10576,"ĠCell":10577,"Ġaffects":10578,"ĠSix":10579,"Ġhomeown":10580,"Ġmature":10581,"Off":10582,"Ġdurable":10583,"Ġspeaks":10584,"ĠNavy":10585,"Ġtempt":10586,"Ġpets":10587,"2016":10588,"ĠHappy":10589,"Ġflights":10590,"Ġft":10591,"estion":10592,"ĠEdward":10593,"Ġhal":10594,"ĠLinux":10595,"ĠHoward":10596,"ĠPhone":10597,"ĠCorp":10598,"Ġspoken":10599,"Ġtrash":10600,"Ġfallen":10601,"Ġsectors":10602,"Ġdifferently":10603,"Ġgreet":10604,"Cal":10605,"rup":10606,"Ġcomplaints":10607,"ĠWeight":10608,"arrass":10609,"door":10610,"Ġliberal":10611,"Ob":10612,"Ġbeans":10613,"Ġproductive":10614,"Ġethnic":10615,"ĠVisit":10616,"ĠAz":10617,"Ġguns":10618,"PN":10619,"kind":10620,"Ġdisrupt":10621,"Ġdirt":10622,"ĠVin":10623,"elling":10624,"ĠFinance":10625,"Ġreveals":10626,"ĠAB":10627,"unicipal":10628,"ĠEmploy":10629,"bat":10630,"Ġunderlying":10631,"Ġ47":10632,"Ġinex":10633,"ĠAnthony":10634,"ĠMust":10635,"ĠEver":10636,"ĠJess":10637,"Orig":10638,"uros":10639,"ĠMap":10640,"Ġpleasant":10641,"Ġcurious":10642,"aft":10643,"Ġheritage":10644,"Ġarmed":10645,"ĠAfghanistan":10646,"Ġsalad":10647,"Ġdisorders":10648,"Learn":10649,"iva":10650,"ĠAve":10651,"Ġexclusively":10652,"ĠRoy":10653,"Ġrefrig":10654,"Ġcelebrated":10655,"Ġinvestigate":10656,"Ġcompact":10657,"cal":10658,"aya":10659,"ĠAffairs":10660,"Ġsemin":10661,"FT":10662,"Ġsquad":10663,"ĠSD":10664,"ifier":10665,"UST":10666,"Ġqualify":10667,"Ġwrap":10668,"Ġpromises":10669,"Ġpoetry":10670,"Ġpassengers":10671,"Ġindoor":10672,"Ġtours":10673,"ĠAI":10674,"osa":10675,"ez":10676,"abis":10677,"ĠDeath":10678,"Ġrecept":10679,"Ġsixth":10680,"ĠRelations":10681,"97":10682,"Ġbackup":10683,"Ġfinest":10684,"enny":10685,"Ġbuttons":10686,"vi":10687,"itivity":10688,"Ġears":10689,"Ġconstructed":10690,"igence":10691,"ĠCreative":10692,"Ġrehab":10693,"Ġanger":10694,"Ġcompliment":10695,"Ġcust":10696,"Ġ08":10697,"bound":10698,"ĠCli":10699,"ixed":10700,"Ġimpacts":10701,"Both":10702,"bet":10703,"ĠFive":10704,"Ġdeadline":10705,"ĠTennessee":10706,"ĠEditor":10707,"ĠMachine":10708,"Ġenormous":10709,"ĠAlabama":10710,"Ġdisappointed":10711,"Sign":10712,"ĠOlympic":10713,"Ġwildlife":10714,"2015":10715,"Ġpatent":10716,"ocks":10717,"orious":10718,"fortable":10719,"good":10720,"Those":10721,"ĠFuture":10722,"ĠAssistant":10723,"Ġcourage":10724,"ĠPerformance":10725,"semble":10726,"Ġthrown":10727,"ĠMoore":10728,"hol":10729,"Ġalike":10730,"rec":10731,"ĠExp":10732,"Ġrib":10733,"elson":10734,"Ġlung":10735,"ĠRh":10736,"Ġchairs":10737,"ĠSpeed":10738,"ĠSimon":10739,"Ġgirlfriend":10740,"Ġaccommodation":10741,"mother":10742,"ĠServer":10743,"ordon":10744,"ĠMedic":10745,"mg":10746,"attan":10747,"Ġlocally":10748,"ĠIV":10749,"andal":10750,"ounge":10751,"Ġoperators":10752,"ĠFast":10753,"rox":10754,"ĠDays":10755,"Ġoccasions":10756,"Ġpadd":10757,"Ġensures":10758,"such":10759,"Ġrepairs":10760,"Ġmusicians":10761,"ĠJean":10762,"ndry":10763,"Ġengineers":10764,"Ġparks":10765,"arth":10766,"oween":10767,"Ġurg":10768,"ĠImp":10769,"Ġpermitted":10770,"Ġconservation":10771,"Ġdestruction":10772,"Ġassemb":10773,"INE":10774,"Ġportra":10775,"Ġweakness":10776,"Ġjury":10777,"iology":10778,"ĠDean":10779,"oenix":10780,"Ġpublicly":10781,"Ġattempted":10782,"whe":10783,"Ġuniversal":10784,"Ġtowns":10785,"ounced":10786,"ridge":10787,"Home":10788,"Ġridic":10789,"arest":10790,"Ġviewers":10791,"ĠFurthermore":10792,"Ġmeters":10793,"ĠElectric":10794,"Ġceiling":10795,"Ġcapability":10796,"ivery":10797,"Ġduration":10798,"ĠDE":10799,"town":10800,"Ġacknowledge":10801,"ĠBlood":10802,"Ġhorror":10803,"cure":10804,"etch":10805,"plant":10806,"html":10807,"gree":10808,"Ġbio":10809,"ais":10810,"Ġpractition":10811,"Ġchairman":10812,"ĠRecords":10813,"Ġgeneric":10814,"ĠDenver":10815,"Ġpainful":10816,"ĠApplication":10817,"Ġstamp":10818,"quis":10819,"Pres":10820,"Ġcompatible":10821,"ifice":10822,"Ġparagraph":10823,"Ġapple":10824,"Star":10825,"zens":10826,"Ġsho":10827,"phan":10828,"Ġbreathing":10829,"papers":10830,"iy":10831,"2014":10832,"Ġconnecting":10833,"Ġplacing":10834,"mma":10835,"ĠInterest":10836,"ĠPL":10837,"Ġ09":10838,"BO":10839,"necess":10840,"Ġhill":10841,"ĠAnalysis":10842,"Ġidentification":10843,"Ġaver":10844,"ĠPlant":10845,"Ġmodule":10846,"ropical":10847,"Ġestablishment":10848,"Ġchurches":10849,"Ġsheets":10850,"Ġfrozen":10851,"Ġseal":10852,"ĠManchester":10853,"esty":10854,"Call":10855,"bean":10856,"ĠDick":10857,"Ġinspection":10858,"itations":10859,"Ġburden":10860,"ĠMorgan":10861,"ĠScient":10862,"ĠSnow":10863,"imore":10864,"inate":10865,"Ġguides":10866,"ĠOrange":10867,"ĠLess":10868,"ipes":10869,"Monday":10870,"Red":10871,"apolis":10872,"Ġbran":10873,"inar":10874,"ader":10875,"Ġbeds":10876,"Ġconsiderable":10877,"Mod":10878,"Ġadopt":10879,"Ġmechanical":10880,"Ġgovernor":10881,"ocratic":10882,"ĠAssembly":10883,"gra":10884,"Ġbinary":10885,"ĠPharm":10886,"ĠMort":10887,"Ġoldest":10888,"inction":10889,"Ġfabulous":10890,"Ġ85":10891,"commun":10892,"ĠLaure":10893,"Ġconvinced":10894,"ĠCF":10895,"PG":10896,"uther":10897,"Ġcultiv":10898,"Ġcoron":10899,"Ġtent":10900,"Ġhumanity":10901,"ĠMexican":10902,"ĠAuthority":10903,"Ġstreaming":10904,"Ġlanding":10905,"Ġbottles":10906,"Looking":10907,"tw":10908,"Ġrated":10909,"Ġartificial":10910,"tainment":10911,"Ġpsychological":10912,"Ġfiling":10913,"Ġinterpretation":10914,"Bel":10915,"2017":10916,"Ġhandy":10917,"ĠDur":10918,"Ġassignment":10919,"ĠSport":10920,"ĠMcG":10921,"Ġlimitations":10922,"Ġappreciated":10923,"Ġsophisticated":10924,"party":10925,"ĠKorean":10926,"Ġartistic":10927,"Ġcollections":10928,"Ġcruise":10929,"orms":10930,"March":10931,"Ġexit":10932,"Ġwishes":10933,"Ġdocumentary":10934,"ĠEve":10935,"Ġchopped":10936,"lation":10937,"Ġdepartments":10938,"Ġmedications":10939,"ĠPrivate":10940,"Ġneighbors":10941,"ĠAsk":10942,"Ġ72":10943,"Ġconfused":10944,"ĠLeon":10945,"ĠBurn":10946,"Through":10947,"ĠNE":10948,"Ġcarries":10949,"Ġtension":10950,"ĠFinal":10951,"Ġdirectors":10952,"ĠYouth":10953,"istical":10954,"Ġdesert":10955,"Ġeffectiveness":10956,"aki":10957,"Ġenemies":10958,"Ġparad":10959,"ĠAgreement":10960,"Ġbot":10961,"ĠRail":10962,"Ġrebu":10963,"Ġprofiles":10964,"Ġdifficulties":10965,"Ġlying":10966,"Ġnewest":10967,"mn":10968,"?!":10969,"rying":10970,"Ġfacilitate":10971,"oker":10972,"Ġlasting":10973,"Ġsons":10974,"Ġsubtle":10975,"Ġthrowing":10976,"Ġendless":10977,"Ġinteractions":10978,"leans":10979,"Ġdonations":10980,"Look":10981,"Ġcalories":10982,"Ġloop":10983,"Ġtrigger":10984,"Ġadvised":10985,"Ġvoices":10986,"stic":10987,"Ġchip":10988,"ĠHarris":10989,"Ġinspire":10990,"hist":10991,"pert":10992,"SU":10993,"plus":10994,"Ġhub":10995,"Ġfigured":10996,"ĠLib":10997,"Ġcultures":10998,"Ġdefendant":10999,"father":11000,"Photo":11001,"Ġsurfaces":11002,"ĠOxford":11003,"card":11004,"ĠChannel":11005,"Ġstriking":11006,"store":11007,"Saturday":11008,"addy":11009,"rapeut":11010,"ĠDiam":11011,"ĠUC":11012,"Ġauction":11013,"Ġactress":11014,"first":11015,"Ġnurse":11016,"Ġfloors":11017,"Having":11018,"ĠArk":11019,"Ġsoccer":11020,"ĠInn":11021,"open":11022,"udi":11023,"Ġcompassion":11024,"ĠBased":11025,"Ġpup":11026,"Ġdeleg":11027,"Ġdesignated":11028,"burn":11029,"Ġliver":11030,"Ġempower":11031,"Ġkeyboard":11032,"Ġedges":11033,"range":11034,"ĠPrim":11035,"Ġcriticism":11036,"Ġbulk":11037,"cs":11038,"Ġembarrass":11039,"lected":11040,"ĠSO":11041,"Ġsupplier":11042,"Ġenjoyable":11043,"Ġsteady":11044,"ĠPeace":11045,"ĠCow":11046,"ĠLaur":11047,"Ġrush":11048,"Ġlocked":11049,"Ġignore":11050,"Ġacceptable":11051,"Ġgross":11052,"Ġ360":11053,"Ġargued":11054,"ĠPhill":11055,"icity":11056,"ĠURL":11057,"ĠHum":11058,"Ġfunded":11059,"Ġdying":11060,"Ġsettle":11061,"oria":11062,"Ġloaded":11063,"erior":11064,"uns":11065,"Ġrolled":11066,"bie":11067,"Ġoh":11068,"Ġconfiguration":11069,"Trans":11070,"Ġaccommodate":11071,"ARD":11072,"Ġpron":11073,"ĠMove":11074,"Ġgenerous":11075,"ĠThird":11076,"rub":11077,"Ġneutral":11078,"overs":11079,"âĢĿ)":11080,"Ġcompleting":11081,"ĠDutch":11082,"Ġbrew":11083,"author":11084,"ĠMissouri":11085,"iel":11086,"ĠSide":11087,"ĠKentucky":11088,"Ġaudiences":11089,"ĠTerms":11090,"ĠPlanning":11091,"Ġdonation":11092,"Hi":11093,"Ġdisability":11094,"Ġshame":11095,"Ġvocal":11096,"Ġcenturies":11097,"ĠOntario":11098,"Ġgre":11099,"ĠCommunications":11100,"Ġpulling":11101,"Ġpatch":11102,"ĠSac":11103,"ĠGil":11104,"Ġlawn":11105,"Ġ(\"":11106,"azed":11107,"ĠText":11108,"log":11109,"Ġwing":11110,"Ġspir":11111,"Donald":11112,"Ġcarrier":11113,"Ġ..":11114,"Ġmedic":11115,"boards":11116,"Ġforgotten":11117,"FOR":11118,"Ġtranslation":11119,"2008":11120,"Ġfemin":11121,"Ġcaring":11122,"TP":11123,"Ġauthorized":11124,"aux":11125,"Ġultra":11126,"LD":11127,"Ġpants":11128,"Dec":11129,"thur":11130,"ika":11131,"Ġsits":11132,"ĠMit":11133,"Ġrhyth":11134,"pling":11135,"ĠManufact":11136,"ĠSingle":11137,"ĠClassic":11138,"ĠSym":11139,"wind":11140,"ACK":11141,"June":11142,"izations":11143,"Ġconfront":11144,"Ġgains":11145,"Ġoperates":11146,"Ġdemocracy":11147,"Ġtiming":11148,"Ġsnap":11149,"Ġhandful":11150,"Ġcontacts":11151,"News":11152,"olph":11153,"ĠRepresent":11154,"Ġmarijuana":11155,"inf":11156,"ĠRap":11157,"health":11158,"ĠNBA":11159,"reedom":11160,"fund":11161,"Os":11162,"ationally":11163,"Ġalternatives":11164,"Ġtoilet":11165,"ĠKitchen":11166,"Ġrefres":11167,"esis":11168,"selling":11169,"acent":11170,"Ġaffairs":11171,"ĠPy":11172,"Ġtremendous":11173,"Ġbug":11174,"Ġreceipt":11175,"Black":11176,"Ġknife":11177,"Source":11178,"Ġpreserve":11179,"ĠIntegr":11180,"92":11181,"Ġoverview":11182,"mouth":11183,"Ġshelter":11184,"Ġtheatre":11185,"Ġdressed":11186,"ĠBetter":11187,"Ġaffiliate":11188,"Ġster":11189,"ĠEarly":11190,"gly":11191,"ĠSony":11192,"Ġcharging":11193,"Ġgrants":11194,"cur":11195,"Ġrequiring":11196,"ĠTele":11197,"aus":11198,"ĠGlass":11199,"Ġdess":11200,"ĠTro":11201,"ĠGab":11202,"ĠBerlin":11203,"Ġrival":11204,"Ġpoliticians":11205,"Ġbust":11206,"Ġgraduated":11207,"Ġentertaining":11208,"Ġgently":11209,"Ġkeen":11210,"Ġware":11211,"Ġwashing":11212,"Pat":11213,"Ġfought":11214,"ateral":11215,"Ġpublications":11216,"Ġexecution":11217,"Ġassured":11218,"Ġhybrid":11219,"ĠPear":11220,"ĠMayor":11221,"SW":11222,"Ġoperator":11223,"retion":11224,"Ġdevast":11225,"Ġaccompanied":11226,"abs":11227,"Ġsponsored":11228,"ĠWriting":11229,"ĠGene":11230,"ĠPick":11231,"writing":11232,"Ġintrig":11233,"Ġretailers":11234,"Ġglory":11235,"dem":11236,"etheless":11237,"inge":11238,"Em":11239,"Ġirrit":11240,"ĠBC":11241,"Ġdependent":11242,"Ġembrace":11243,"email":11244,"Ġratings":11245,"Ġstroke":11246,"Ġhanded":11247,"Ġvitamin":11248,"Ġstere":11249,"ĠGirls":11250,"Ġtune":11251,"Ġpiano":11252,"ĠVeter":11253,"Ġjudges":11254,"ĠParliament":11255,"mate":11256,"ĠRand":11257,"Ġexpecting":11258,"Ġattempting":11259,"Ġsupplements":11260,"Ġdetermination":11261,"Direct":11262,"plates":11263,"Ġprocessor":11264,"Ġpills":11265,"Ġappet":11266,"Ġoils":11267,"Ġpowered":11268,"Ġthirty":11269,"ĠTrail":11270,"uters":11271,"Ġartwork":11272,"ĠCape":11273,"Ġstraw":11274,"Ġdys":11275,"ĠNothing":11276,"Ġsoup":11277,"gins":11278,"ĠAgric":11279,"ĠVietnam":11280,"ĠUtah":11281,"Ġbite":11282,"beat":11283,"ventions":11284,"uh":11285,"ĠFab":11286,"ĠPoly":11287,"ended":11288,"ĠWhit":11289,"ĠCreate":11290,"Ġthesis":11291,"Ġ*||":11292,"ĠIndex":11293,"Ġ1991":11294,"Ġturb":11295,"AST":11296,"Ġbacked":11297,"Ġfeeding":11298,"apters":11299,"ĠFriends":11300,"isan":11301,"Ġefficiently":11302,"ĠRain":11303,"Ġmoisture":11304,"Ġmathemat":11305,"conf":11306,"ĠHind":11307,"Ġbits":11308,"Ġreplied":11309,"Ġthrew":11310,"Ġ51":11311,"Ġdiscipline":11312,"ussion":11313,"ĠDor":11314,"ĠGre":11315,"ĠAnne":11316,"ĠSyria":11317,"ĠAG":11318,"Watch":11319,"best":11320,"ĠExcell":11321,"ĠForeign":11322,"ĠHost":11323,"Ġcoord":11324,"inals":11325,"Ġshit":11326,"Ġcabinet":11327,",'":11328,"ĠPed":11329,"ĠSprings":11330,"estone":11331,"April":11332,"gets":11333,"Ġevident":11334,"ĠArchitect":11335,"ouver":11336,"ushes":11337,"Ġgrain":11338,"aug":11339,"ĠCourse":11340,"Ġsilence":11341,"Prof":11342,"ĠOklahoma":11343,"ĠGrad":11344,"Ġarguments":11345,"mont":11346,"Ġattorneys":11347,"stop":11348,"Ġmainstream":11349,"Ġrealistic":11350,"ĠAlliance":11351,"Ġdict":11352,"ova":11353,"Ġseller":11354,"Ġincom":11355,"ĠPain":11356,"asm":11357,"eron":11358,"closure":11359,"Does":11360,"Ġentries":11361,"ĠGulf":11362,"Ġarbit":11363,"ĠMarine":11364,"ĠCorn":11365,"ĠWy":11366,"ĠNEW":11367,"ĠChoose":11368,"iere":11369,"Ġsecured":11370,"ĠTree":11371,"ims":11372,"CP":11373,"Ġreduces":11374,"Ġpopulations":11375,"Ġsupplied":11376,"ĠOrleans":11377,"Ġannually":11378,"Ġexhibit":11379,"Ġtransferred":11380,"Ġanch":11381,"ĠSave":11382,"Ġ54":11383,"NY":11384,"cycl":11385,"irds":11386,"Ġdeliber":11387,"Ġdirty":11388,"Ġbeautifully":11389,"Ġshipped":11390,"trans":11391,"Ġtongue":11392,"Ã¨":11393,"HD":11394,"ĠBrew":11395,"Ġprosec":11396,"ĠDating":11397,"Ġsuicide":11398,"Ġoxygen":11399,"Ġintim":11400,"Ġtoss":11401,"acco":11402,"ĠCand":11403,"Ġboots":11404,"aughters":11405,"Ġprecisely":11406,"Ġtimely":11407,"Ġachievement":11408,"Ġoverseas":11409,"Ġdesigning":11410,"Ġcounts":11411,"Ġtoy":11412,"Ġassert":11413,"ĠWire":11414,"Ġunp":11415,"Ġ02":11416,"Hel":11417,"ĠHig":11418,"onda":11419,"Ġfoam":11420,"Ġslip":11421,"gie":11422,"Ġcrusher":11423,"Ġconsulting":11424,"ĠRevolution":11425,"\")":11426,"nut":11427,"Ġcollecting":11428,"ĠJob":11429,"Ġstopping":11430,"Min":11431,"ella":11432,"Ġinsect":11433,"ĠMuch":11434,"Ġimagination":11435,"sl":11436,"Ġtourism":11437,"Ġvib":11438,"Ġallerg":11439,"Ġseemingly":11440,"ĠBM":11441,"orical":11442,"Ġcompeting":11443,"Ġtale":11444,"perform":11445,"Ġrelaxed":11446,"itched":11447,"Ġofferings":11448,"Ġdiscussing":11449,"kers":11450,"Ġwherever":11451,"cently":11452,"Mich":11453,"ĠChairman":11454,"ĠFootball":11455,"Ġcater":11456,"ĠTan":11457,"Ġties":11458,"Ġecosystem":11459,"94":11460,"ugged":11461,"even":11462,"Ġconsecut":11463,"Ġromance":11464,"ï¿":11465,"Ġviagra":11466,"Ġcasinos":11467,"Ġamen":11468,"Sept":11469,"Ġcomply":11470,"amon":11471,"2018":11472,"ĠNik":11473,"ĠChallenge":11474,"ĠYears":11475,"God":11476,"ostic":11477,"Ġreflects":11478,"ĠCompan":11479,"Ġprospects":11480,"Ġunlock":11481,"Ġspare":11482,"Ġbeloved":11483,"prises":11484,"93":11485,"OUN":11486,"Ġrab":11487,"91":11488,"Ġgut":11489,"Ġrejected":11490,"Ġlegitimate":11491,"ierce":11492,"Ġbeneath":11493,"Ġlobby":11494,"Ġparameters":11495,"ĠEsc":11496,"Hey":11497,"Ġtear":11498,"utors":11499,"Ġcord":11500,"Char":11501,"Ġtire":11502,"Mc":11503,"irable":11504,"Ġouter":11505,"ĠSov":11506,"fly":11507,"ĠCraig":11508,"ĠKennedy":11509,"Ġcitizen":11510,"Ġshade":11511,"ĠTitle":11512,"Ġstainless":11513,"ĠYeah":11514,"Ġspan":11515,"Ġspecialized":11516,"Ġnavigate":11517,"hard":11518,"Ġhem":11519,"Ġsuite":11520,"have":11521,"Ġreads":11522,"amous":11523,"ĠChamber":11524,"ĠLooking":11525,"Ġbiological":11526,"Ġheal":11527,"Ġaddiction":11528,"Ġmotivation":11529,"QU":11530,"Ġbroker":11531,"Ġ07":11532,"Ġagreements":11533,"lar":11534,"ĠBron":11535,"ĠGas":11536,"ĠGary":11537,"OUR":11538,"Ġsustainability":11539,"ĠBR":11540,"ĠOcc":11541,"some":11542,"guard":11543,"rection":11544,"ĠBruce":11545,"irtual":11546,"Ġmagical":11547,"ĠIL":11548,"Ġarrangement":11549,"Ġtatt":11550,"veland":11551,"ĠBloom":11552,"Ġrou":11553,"Ġtreating":11554,"ancouver":11555,"Ġfears":11556,"Ġgrey":11557,"Ġenabled":11558,"oca":11559,"Ġindependence":11560,"oub":11561,"ĠJoin":11562,"ele":11563,"Ġelectro":11564,"immer":11565,"Ġfastest":11566,"Ġok":11567,"Ġacceptance":11568,"ĠProperty":11569,"iden":11570,"||$":11571,"ĠValent":11572,"ĠRoberts":11573,"ĠEntertainment":11574,"Ġbeings":11575,"ĠSchools":11576,"Ġintake":11577,"ĠAdvanced":11578,"ĠHal":11579,"Ġward":11580,"Ġmoderate":11581,"DC":11582,"Ġadvise":11583,"vit":11584,"ĠCool":11585,"ĠStra":11586,"Ġjazz":11587,"Ġbother":11588,"Ġcooling":11589,"essed":11590,"Ġfolk":11591,"ĠConvention":11592,"Ġdevoted":11593,"Ġglasses":11594,"Ġreminded":11595,"ĠLegal":11596,"Ġende":11597,"Thursday":11598,"Ġintelligent":11599,"Ġlawsuit":11600,"ĠHem":11601,"ommy":11602,"Ġrelate":11603,"Ġregards":11604,"Ġwarned":11605,"Ġwrapped":11606,"Ġsatellite":11607,"ĠDra":11608,"Ġstructural":11609,"ĠYOUR":11610,"Ġpropri":11611,"Ġincorporate":11612,"Ġproposals":11613,"Ġ03":11614,"ĠBath":11615,"Ġtouchdown":11616,"ĠEV":11617,"asting":11618,"BL":11619,"Ġdiscrimination":11620,"Ġcomposed":11621,"otype":11622,"Ġagricultural":11623,"edded":11624,"ĠTell":11625,"Ġreceives":11626,"avirus":11627,"ĠCaptain":11628,"ĠAqu":11629,"ĠHarvard":11630,"ĠIdent":11631,"count":11632,"Ġepic":11633,"Pal":11634,"ĠEC":11635,"Ġbones":11636,"ĠUkraine":11637,"Ġboundaries":11638,"ĠCompet":11639,"Ġtitled":11640,"Ġwrest":11641,"Ġfancy":11642,"Ġshout":11643,"ĠCole":11644,"Ġjacket":11645,"Ġstepped":11646,"Ġspecialists":11647,"Ġidentifying":11648,"your":11649,"ĠRound":11650,"ustain":11651,"tech":11652,"ĠCart":11653,"Ġachieving":11654,"akh":11655,"Ġpeaceful":11656,"ĠAth":11657,"Ġclinic":11658,"Ps":11659,"ĠConc":11660,"SL":11661,"Ġclim":11662,"Ġstylish":11663,"ĠAndy":11664,"ĠPerfect":11665,"Ġpaintings":11666,"auc":11667,"Ġmargin":11668,"ĠHan":11669,"Ġ04":11670,"Ġentity":11671,"Ġseeks":11672,"ĠTai":11673,"test":11674,"Ġviolation":11675,"ĠBenef":11676,"Pol":11677,"ĠHERE":11678,"ĠCrit":11679,"Ġ(@":11680,"Ġlogic":11681,"Ġcous":11682,"Ġrounds":11683,"2000":11684,"held":11685,"ĠReturn":11686,"ĠPow":11687,"ĠHad":11688,"Ġshaped":11689,"Ġrust":11690,"Ġhonestly":11691,"ige":11692,"Ġlaboratory":11693,"Ġdiscounts":11694,"Cor":11695,"Ø§":11696,"Ġcited":11697,"Love":11698,"ĠPortland":11699,"Ġgrid":11700,"Ġdefic":11701,"ugar":11702,"Ġportray":11703,"Ġharmful":11704,"Ġscholarship":11705,"Ġobligation":11706,"Ġpione":11707,"Ret":11708,"ĠNa":11709,"Ġvibrant":11710,"ĠEffect":11711,"hot":11712,"uke":11713,"David":11714,"specific":11715,"Ġenroll":11716,"Ġplates":11717,"ĠReserve":11718,"ĠCoach":11719,"Ġiconic":11720,"Ġsurviv":11721,"Ġteaspoon":11722,"ĠHoll":11723,"Ġexempt":11724,"Ġvariable":11725,"Ġmeasurement":11726,"Ġunnecess":11727,"ĠGh":11728,"Ġshorter":11729,"ĠIC":11730,"ctic":11731,"udge":11732,"Ġ56":11733,"ĠStadium":11734,"Ġtweet":11735,"umbing":11736,"Ġhandled":11737,"Ġtrucks":11738,"link":11739,"âĢ¦]":11740,"Ġcareers":11741,"lette":11742,"Ġsuppose":11743,"Ġstrip":11744,"herent":11745,"ĠPrior":11746,"Ġexcessive":11747,"Ġpersonalized":11748,"Ġdozens":11749,"Ġstays":11750,"Ġqualities":11751,"ĠAmend":11752,"lend":11753,"Ġsuits":11754,"Ġparallel":11755,"ĠDue":11756,"Tuesday":11757,"Ġdear":11758,"Ac":11759,"ĠMcK":11760,"ĠTok":11761,"Ġsilent":11762,"Ġ1989":11763,"ĠMission":11764,"Ġwinds":11765,"Ġinstances":11766,"ĠLanguage":11767,"Ġlogin":11768,"ippi":11769,"Ġhence":11770,"Ġdeclined":11771,"icating":11772,"unct":11773,"Ġimplications":11774,"Ġcorporations":11775,"Ġbreed":11776,"Ġstimul":11777,"plex":11778,"Ġcrop":11779,"Ġgrocery":11780,"Ġinfections":11781,"ahoo":11782,"ĠCash":11783,"Ġprofound":11784,"Ġworthy":11785,"Ġobserve":11786,"ĠRestaur":11787,"Ġmanifest":11788,"Ġdetection":11789,"ĠAlexander":11790,"ĠStyle":11791,"ĠEmb":11792,"enz":11793,"ĠOsc":11794,"ĠSource":11795,"Ġstolen":11796,"Ġshadow":11797,"writer":11798,"Ġconsecutive":11799,"lihood":11800,"ĠSimply":11801,"ĠDise":11802,"Ġassists":11803,"ï¿½":11804,"Ġportable":11805,"Ġrational":11806,"ciples":11807,"Ġnuts":11808,"ĠHalloween":11809,"Ġtang":11810,"Ġshoulders":11811,"bsp":11812,"ĠScript":11813,"Ġyeah":11814,"ĠWik":11815,"gic":11816,"Ġsimultaneously":11817,"ailing":11818,"Ġsisters":11819,"ACT":11820,"Ġvertical":11821,"ĠME":11822,"illance":11823,"erals":11824,"ĠPractice":11825,"lie":11826,"ante":11827,"aph":11828,"Ġgran":11829,"Ġagriculture":11830,"nowned":11831,"Ġloads":11832,"Ġpreview":11833,"azines":11834,"Ġexploration":11835,"pres":11836,"Ġovers":11837,"Ġnotion":11838,"Ġremembered":11839,"Ġtestimony":11840,"ĠMoh":11841,"Ġinfluenced":11842,"ĠTel":11843,"may":11844,"ĠBitcoin":11845,"ĠCompl":11846,"ĠComplete":11847,"Ġfriendship":11848,"ĠInstall":11849,"ĠAlaska":11850,"children":11851,"Ġbonds":11852,"Ġ53":11853,"Ġsuperb":11854,"Ġtennis":11855,"Ġintensity":11856,"Ġexplicit":11857,"Ġbin":11858,"Ġadditionally":11859,"Ġlately":11860,"ĠMagic":11861,"Bet":11862,"Ġblessed":11863,"ĠKy":11864,"Ġcum":11865,"Ġderived":11866,"Ġdried":11867,"Ġrocks":11868,"ĠUnit":11869,"Ġmemorable":11870,"Ġwelf":11871,"itudes":11872,"ĠLock":11873,"ĠChen":11874,"issa":11875,"ĠFat":11876,"ĠIntell":11877,"Ġlocate":11878,"Ġdistricts":11879,"IES":11880,"ingle":11881,"reach":11882,"ĠPhD":11883,"Ġcatalog":11884,"ĠScholar":11885,"Ġembra":11886,"ĠOrganization":11887,"ĠLiter":11888,"Ġoutfit":11889,"ulin":11890,"2007":11891,"Ġwelfare":11892,"Ġworkforce":11893,"Sunday":11894,"igenous":11895,"Je":11896,"ĠTotal":11897,"Ġshoe":11898,"Ġunfortunately":11899,"icular":11900,"ĠDyn":11901,"ĠKings":11902,"Ġparticipated":11903,"Ġbranches":11904,"Intern":11905,"Ġpersu":11906,"Ġhumor":11907,"arts":11908,"Ġtwist":11909,"ĠMars":11910,"berries":11911,"Ġdimensions":11912,"Ġmakers":11913,"Ġjer":11914,"ĠAdvis":11915,"ĠPortug":11916,"ĠPitts":11917,"ilitation":11918,"Ġrecommendation":11919,"Ġrelaxing":11920,"Ġgradually":11921,"Ġhoped":11922,"Ġapolog":11923,"ĠPremier":11924,"inery":11925,"Ġcontractor":11926,"ĠSA":11927,"Ġpicks":11928,"Ġconsultant":11929,"Ġlabels":11930,"Ġrings":11931,"osph":11932,"ĠAF":11933,"Ġrender":11934,"Ġcub":11935,"ĠCC":11936,"Ġgardens":11937,"Ġengineer":11938,"Ġink":11939,")(":11940,"Review":11941,"ĠAltern":11942,"Ġsquee":11943,"ĠCher":11944,"ateur":11945,"alties":11946,"ĠMalays":11947,"ĠDouble":11948,"Ġ00":11949,"ĠFle":11950,"ĠAutom":11951,"Ġprogressive":11952,"ĠGib":11953,"Ġabstract":11954,"Ġaggreg":11955,"amine":11956,"ĠBaltimore":11957,"ĠLad":11958,"Ġconfidential":11959,"arms":11960,"Ġinflation":11961,"amel":11962,"Ġdispute":11963,"ummy":11964,"ĠEmpire":11965,"Ġbatteries":11966,"Ġwage":11967,"ĠJustin":11968,"Ġveterans":11969,"Ġquit":11970,"Ġplacement":11971,"olitan":11972,"Ġmotivated":11973,"agine":11974,"Ġscratch":11975,"Ġinspiring":11976,"ĠGalaxy":11977,"ĠNear":11978,"Ġfailing":11979,"arer":11980,"Ġaccompany":11981,"uan":11982,"Ġdiagnosed":11983,"oyd":11984,"Ġboyfriend":11985,"Ġdash":11986,"when":11987,"ĠBear":11988,"Ġcolleges":11989,"Wednesday":11990,"Ġautomated":11991,"natural":11992,"Ġinspect":11993,"normal":11994,"ĠVit":11995,"Ġtempor":11996,"Ġreceiver":11997,"ĠWat":11998,"umble":11999,"Ġcloth":12000,"ĠPhoenix":12001,"Ġattendance":12002,"Ġrobot":12003,"ĠSW":12004,"ELL":12005,"Ġteens":12006,"ĠBeat":12007,"ĠIndeed":12008,"lu":12009,"pur":12010,"Ġrally":12011,"Ġspo":12012,"ĠExplore":12013,"Ġghost":12014,"Ġcountless":12015,"Ġtourist":12016,"Ġranks":12017,"ĠMeet":12018,"ĠWalker":12019,"Ġemerged":12020,"ĠHair":12021,"bled":12022,"ĠKa":12023,"ĠMississ":12024,"ĠVA":12025,"ĠZe":12026,"Ġfails":12027,"erest":12028,"rison":12029,"Ġtablets":12030,"July":12031,"Ġstrain":12032,"Ġrevers":12033,"ĠHop":12034,"Ġoutdoors":12035,"ĠAndre":12036,"imens":12037,"ĠRace":12038,"Ġnaked":12039,"ĠRaj":12040,"ĠEaster":12041,"Ġfut":12042,"Ġsignificance":12043,"Meanwhile":12044,"idity":12045,"Ġcustomized":12046,"km":12047,"Ġcompelling":12048,"Ġdivers":12049,"Ġedited":12050,"Only":12051,"Ġsink":12052,"oven":12053,"Ġrestricted":12054,"Ġdeemed":12055,"Ġdrew":12056,"Ġrect":12057,"Ġenabling":12058,"ĠContract":12059,"lishing":12060,"itual":12061,"Ġampl":12062,"ĠTemple":12063,"bian":12064,"Ġanalyze":12065,"ĠFish":12066,"Ġexterior":12067,"Ġpotatoes":12068,"Ġrewards":12069,"Ġabortion":12070,"cca":12071,"Ġintu":12072,"Ġexpend":12073,"mers":12074,"aria":12075,"Ġdelighted":12076,"offee":12077,"Ġimplementing":12078,"Ġarranged":12079,"ĠEvents":12080,"Ġradical":12081,"Ġdemanding":12082,"Ġlease":12083,"Ġabandoned":12084,"ĠHu":12085,"Ġcere":12086,"Ġ1950":12087,"chain":12088,"Ġshed":12089,"Ġhomeless":12090,"Ġproportion":12091,"ĠYan":12092,"ĠABC":12093,"ĠIndones":12094,"Ġeastern":12095,"ĠCharlie":12096,"Ġaddressing":12097,"ĠFlash":12098,"Ġcure":12099,"Ġsoap":12100,"Ġbankruptcy":12101,"Ġpunch":12102,"ASE":12103,"ĠCambridge":12104,"Ġvig":12105,"Ġaluminum":12106,"ĠFollowing":12107,"Ġtaxpay":12108,"Ġfolder":12109,"ĠBattle":12110,"Ġopponent":12111,"Ġfavorites":12112,"Ġpeer":12113,"Ġretreat":12114,"has":12115,"ĠMelbourne":12116,"Ġcelebrating":12117,"ivities":12118,"Ġsew":12119,"ĠKit":12120,"attered":12121,"Ġta":12122,"BR":12123,"Ġcheer":12124,"ĠJacob":12125,"Ġmaker":12126,"Though":12127,"hew":12128,"ĠDance":12129,"Ġroutes":12130,"asses":12131,"shot":12132,"kee":12133,"Ġtemple":12134,"urious":12135,"ĠLane":12136,"Ġfootage":12137,"Ġreportedly":12138,"Ġirre":12139,"Ġthreatened":12140,"Ġprest":12141,"ribution":12142,"ĠEnterprise":12143,"Ġgrows":12144,"ĠBus":12145,"Ġsuspension":12146,"Ġharsh":12147,"Ġpassenger":12148,"Ġfitting":12149,"ussy":12150,"Ġancest":12151,"Ġvaried":12152,"ĠMedicare":12153,"ĠHighway":12154,"ĠCele":12155,"lly":12156,"eland":12157,"Ġ05":12158,"Ġtower":12159,"Ġfacial":12160,"Ġcalculated":12161,"ĠBrooklyn":12162,"Ġna":12163,"ĠGordon":12164,"Ġnationwide":12165,"Ġwides":12166,"hou":12167,"Äģ":12168,"Ġsurvived":12169,"Ġcycl":12170,"matic":12171,"Ġoptimal":12172,"Life":12173,"ĠAlways":12174,"Ġentrepreneur":12175,"ĠAmb":12176,"table":12177,"ĠNash":12178,"Ġboring":12179,"Ġgest":12180,"IDS":12181,"ricane":12182,"Ġprovince":12183,"ĠMeeting":12184,"ĠHawaii":12185,"Ġsake":12186,"ĠMix":12187,"ĠDelhi":12188,"idth":12189,"ĠRather":12190,"Ġ06":12191,"dam":12192,"Ġanticipated":12193,"ĠWolf":12194,"Ġneat":12195,"Ġ66":12196,"Ġbrut":12197,"chell":12198,"Ġpraise":12199,"Ġidentical":12200,"Ġhungry":12201,"Mus":12202,"Ġconcentr":12203,"ĠBL":12204,"Ġtraditions":12205,"Ġtroubles":12206,"Which":12207,"ĠLuke":12208,"Ġcontroversial":12209,"Ġintimate":12210,"isure":12211,"CAA":12212,"ĠAlan":12213,"ĠRow":12214,"atherine":12215,"Ġmechanisms":12216,"aneous":12217,"Ġconfusion":12218,"Ġpollution":12219,"SH":12220,"Ġjumped":12221,"ĠKate":12222,"Ġradiation":12223,"Ð¾Ð":12224,"ĠBirth":12225,"Ġruled":12226,"Ġspouse":12227,"Ġbund":12228,"ĠLarge":12229,"Ġmarketplace":12230,"ĠCos":12231,"Ġreflection":12232,"Ġrepeatedly":12233,"Ġessence":12234,"IE":12235,"Ġnicely":12236,"ĠToo":12237,"Ġthereby":12238,"Ġflags":12239,"Ġtrails":12240,"Ġenjoys":12241,"Ġperception":12242,"Using":12243,"Ġconsolid":12244,"Ġpromising":12245,"Ġliterary":12246,"Ġdrunk":12247,"Ġranking":12248,"ĠGR":12249,"ĠDeep":12250,"Ġperpet":12251,"ding":12252,"Ġdiff":12253,"ĠCleveland":12254,"speed":12255,"cre":12256,"ĠTea":12257,"Ġtreats":12258,"Ġexcellence":12259,"orted":12260,"Ġobligations":12261,"ressing":12262,"Ġminim":12263,"liest":12264,"ĠBelg":12265,"Ġutilizing":12266,"Ġsituated":12267,"arency":12268,"Ġmothers":12269,"Ġreactions":12270,"oline":12271,"Ġcoconut":12272,"Ġsatisfy":12273,"ĠBlock":12274,"ICK":12275,"oded":12276,"Ġselecting":12277,"La":12278,"aration":12279,"chestra":12280,"Ġbeaches":12281,"rons":12282,"ĠWITH":12283,"Custom":12284,"Ġbay":12285,"brew":12286,"ĠSeveral":12287,"tage":12288,"ĠStay":12289,"Ġwidth":12290,"Ġopponents":12291,"asures":12292,"Ġadmin":12293,"Big":12294,"ĠCastle":12295,"ĠAV":12296,"Ġadverse":12297,"Ġtsp":12298,"ĠWE":12299,"Ġanytime":12300,"Ġvaccine":12301,"ĠNaz":12302,"pring":12303,"Ġmarine":12304,"Ġcree":12305,"oops":12306,"Ġaging":12307,"Ġclaiming":12308,"ĠTX":12309,"Ġearning":12310,"Ġlap":12311,"Ġworlds":12312,"Ġconsciousness":12313,"owned":12314,"onia":12315,"olk":12316,"isers":12317,"ĠMini":12318,"Ġinvested":12319,"Sometimes":12320,"ĠNort":12321,"Ġ%":12322,"holder":12323,"Ġtechnological":12324,"ĠOw":12325,"ĠSweet":12326,"Ġspokesman":12327,"ĠPil":12328,"Ġexperiments":12329,"ĠCT":12330,"ĠGP":12331,"Ġgenes":12332,"Ġteaches":12333,"Ġaqu":12334,"Keep":12335,"Cle":12336,"Ġuncomfortable":12337,"Ġneuro":12338,"Ġanalys":12339,"Ġwines":12340,"Ġhills":12341,"Ġsemester":12342,"Ġadvocate":12343,"pread":12344,"Ġunemployment":12345,"Point":12346,"ĠConstruction":12347,"Ġseparated":12348,"Ġflavors":12349,"ĠNether":12350,"Ġapproached":12351,"ĠSimilar":12352,"ĠSafe":12353,"ĠFDA":12354,"Ġreadily":12355,"lan":12356,"ĠNurs":12357,"Ġcookie":12358,"ĠBY":12359,"ĠSoviet":12360,"fulness":12361,"wick":12362,"ĠIsa":12363,"ĠNev":12364,"Ġcontractors":12365,"====":12366,"ĠWine":12367,"type":12368,"iche":12369,"Ms":12370,"Ġdont":12371,"ceive":12372,"Ġfoster":12373,"hyd":12374,"ĠHamilton":12375,"ĠFrancis":12376,"Ġpermits":12377,"Gr":12378,"ĠSusan":12379,"ĠDuke":12380,"Ġpays":12381,"Ġassumed":12382,"school":12383,"advant":12384,"Ġgray":12385,"Ġproteins":12386,"Health":12387,"ipedia":12388,"Ġdisk":12389,"Ġcorresponding":12390,"ĠLater":12391,"Ġreflected":12392,"ĠDR":12393,"Ġmanufactured":12394,"Ġconverted":12395,"Ġbuzz":12396,"ĠRussell":12397,"Ġvel":12398,"ĠFile":12399,"ĠFran":12400,"Ġvariations":12401,"ĠIntel":12402,"Ġpretend":12403,"Ġlightweight":12404,"Ġamid":12405,"Ġsubmission":12406,"ĠQuestions":12407,"ĠCould":12408,"Ġgrip":12409,"ĠFalls":12410,"ĠNigeria":12411,"Ġcents":12412,"ĠJoy":12413,"hill":12414,"ĠVancouver":12415,"Ġvolunt":12416,"umni":12417,"woman":12418,"Ġguided":12419,"Ġcourtesy":12420,"ĠMaking":12421,"quer":12422,"Ġplaintiff":12423,"Ġcontacted":12424,"Ġsubscrib":12425,"Ġ[âĢ¦]":12426,"ĠRout":12427,"Ġelite":12428,"Ġpreventing":12429,"ĠSEC":12430,"Ġinval":12431,"ĠRab":12432,"Ġinhab":12433,"ampa":12434,"Ġcaptain":12435,"World":12436,"ĠMB":12437,"Ġinterpre":12438,"Ġreporter":12439,"ĠIndustrial":12440,"di":12441,"Ġflaw":12442,"Ġgel":12443,"Ġstakeholders":12444,"Ġexecutives":12445,"ĠDer":12446,"Ġbicy":12447,"Ġdetermining":12448,"ey":12449,"Ġ350":12450,"icut":12451,"Ġdisabled":12452,"Ġoverlook":12453,"Ġcomplexity":12454,"Ġowns":12455,"Ġshowcase":12456,"à¸":12457,"Ġnegotiations":12458,"annah":12459,"Ġvacuum":12460,"Ġsteep":12461,"Ġmerchand":12462,"ĠBuck":12463,"Ġattacked":12464,"stick":12465,"Ġate":12466,"Ġtransparent":12467,"ĠIslands":12468,"Ġpresentations":12469,"Ġmeasuring":12470,"Ġaudit":12471,"shine":12472,"Ġproceedings":12473,"olas":12474,"Ġquarterback":12475,"Ġframes":12476,"Ġdeciding":12477,"ĠAPI":12478,"Web":12479,"Ġshield":12480,"Ġsacrifice":12481,"Ġapplicants":12482,"Ġelderly":12483,"ĠLisa":12484,"plan":12485,"Ġadventures":12486,"ĠCopyright":12487,"Ġavo":12488,"Ġreferring":12489,"Search":12490,"western":12491,"Ġalien":12492,"ĠWayne":12493,"iper":12494,"700":12495,"ĠLam":12496,"ĠFant":12497,"Ġseparately":12498,"struct":12499,"Ġdiffer":12500,"Ġcaps":12501,"SM":12502,"Ġfucking":12503,"Ġmart":12504,"Three":12505,"bes":12506,"Ġutilized":12507,"erator":12508,"orient":12509,"Ġfleet":12510,"Ġmutual":12511,"Ġpant":12512,"ĠWithin":12513,"mediate":12514,"ĠBesides":12515,"Ġclever":12516,"Ġsecretary":12517,"ĠTrue":12518,"rowing":12519,"around":12520,"ĠTips":12521,"ĠUSD":12522,"ĠHeritage":12523,"August":12524,"olves":12525,"Ġdiscretion":12526,"ĠSuccess":12527,"Ġsurg":12528,"Ġ1988":12529,"Ġregarded":12530,"Ġanalytics":12531,"ĠLot":12532,"Ġshr":12533,"Ġtexts":12534,"Ġinnings":12535,"ĠAngel":12536,"Ġmeditation":12537,"List":12538,"Ġ||":12539,"Ġjoke":12540,"Ġdensity":12541,"Ġchampions":12542,"working":12543,"Ġconfirmation":12544,"Ġtends":12545,"erver":12546,"Ġonion":12547,"Bar":12548,"Ġlyrics":12549,"irates":12550,"Ġcopper":12551,"Ġfence":12552,"ĠCulture":12553,"Ġdoct":12554,"Ġjurisdiction":12555,"metic":12556,"ĠBeck":12557,"ĠJonathan":12558,"Ġscared":12559,"Ġstrive":12560,"Ġinher":12561,"Ġutter":12562,"Ġdiameter":12563,"jud":12564,"Ġpad":12565,"ĠSom":12566,"ategory":12567,"ĠStewart":12568,"Ġbroader":12569,"Ġtwelve":12570,"Inter":12571,"ailed":12572,"Ġcomputing":12573,"atar":12574,"enna":12575,"isons":12576,"Â£":12577,"Ġcondem":12578,"Ġpreferences":12579,"Ġnest":12580,"Ġsymp":12581,"Ġjournalists":12582,".:":12583,"Ġpriced":12584,"Ġpix":12585,"Ġ58":12586,"kg":12587,"ORT":12588,"sub":12589,"ibbean":12590,"Ġlovers":12591,"Ġethical":12592,"Ġcarb":12593,"Ġsubscribe":12594,"Ġbout":12595,"Ġcamping":12596,"State":12597,"Ġsweat":12598,"Ġdarkness":12599,"Ġdeparture":12600,"Ġburied":12601,"Ġincorporated":12602,"Ġwaist":12603,"Ġtires":12604,"ĠÂ§":12605,"Ġestablishing":12606,"Ġclassified":12607,"icts":12608,"ĠMagn":12609,"anked":12610,"stock":12611,"ĠEP":12612,"Jul":12613,"Ġpoison":12614,"ĠNich":12615,"Ġgrades":12616,"ĠAdams":12617,"Ġ110":12618,"ĠAntonio":12619,"vious":12620,"emet":12621,"Ġleak":12622,"Ġtomatoes":12623,"ĠCM":12624,"ĠBol":12625,"Ġexplaining":12626,"Ġcorruption":12627,"ĠConsider":12628,"Ġhypot":12629,"Ġnonprofit":12630,"Ġdealer":12631,"Ġdirectory":12632,"gence":12633,"rue":12634,"Ġbrick":12635,"Ġverify":12636,"Ġrevel":12637,"Ass":12638,"DI":12639,"Ġaccepting":12640,"ocur":12641,"ĠRat":12642,"ĠMaria":12643,"Ġholy":12644,"Ġmounted":12645,"Ġwings":12646,"emade":12647,"Ġlegislative":12648,"Ġtourists":12649,"track":12650,"Ġminority":12651,"Ġpriorities":12652,"Ġcandy":12653,"ividually":12654,"flix":12655,"Ġrestoration":12656,"Ġclosest":12657,"mitting":12658,"Ġtags":12659,"Ġdaughters":12660,"ĠApr":12661,"ĠPas":12662,"Ġattracted":12663,"Ġhazard":12664,"Ġsyndrome":12665,"Ġprotective":12666,"eled":12667,"ĠFresh":12668,"ĠRu":12669,"ĠHug":12670,"Ġappealing":12671,"IGHT":12672,"neath":12673,"ĠSi":12674,"Ġwore":12675,"ocate":12676,"Ġlikewise":12677,"Ġcontributing":12678,"ĠBor":12679,"uations":12680,"Ġappreciation":12681,"Ġglob":12682,"bably":12683,"izable":12684,"Ġren":12685,"ailand":12686,"Ġcreatures":12687,"ĠChel":12688,"hattan":12689,"Ġhiking":12690,"ĠUnlike":12691,"Ġprints":12692,"ĠScottish":12693,"rapeutic":12694,"mad":12695,"lies":12696,"ĠThompson":12697,"Ã±":12698,"ĠCov":12699,"Ġentities":12700,"Ġshore":12701,"Ġpublisher":12702,"ãĢ":12703,"Ġcush":12704,"Ġpresenting":12705,"usalem":12706,"Ġmagazines":12707,"Ġislands":12708,"aments":12709,"ammed":12710,"blog":12711,"Ġmeasurements":12712,"ĠCentury":12713,"Ġunlimited":12714,"Ġaccred":12715,"Ġexperimental":12716,"Ġlone":12717,"Ġbeating":12718,"Ġbinding":12719,"Ġnit":12720,"gate":12721,"Ġflesh":12722,"fight":12723,"othy":12724,"appropri":12725,"Ġembod":12726,"Ġcolorful":12727,"Ġspecialty":12728,"ĠHit":12729,"ĠRomney":12730,"Ġsail":12731,"ĠImage":12732,"Ġtouched":12733,"ĠVersion":12734,"Ġversatile":12735,"Ġbullet":12736,"ĠMississippi":12737,"Based":12738,"Ġanth":12739,"ĠGate":12740,"ivals":12741,"ĠIncre":12742,"Ġclimbing":12743,"tic":12744,"Ġaccidents":12745,"Ġrede":12746,"ĠDad":12747,"Ġprospective":12748,"ĠMun":12749,"ĠDak":12750,"ĠMeanwhile":12751,"Ġisolated":12752,"Ġformats":12753,"shore":12754,"ĠPlayer":12755,"Ġdistract":12756,"ĠNative":12757,"Ġovert":12758,"asket":12759,"hh":12760,"ĠPant":12761,"Ġsuspended":12762,"cat":12763,"har":12764,"Ġrevenues":12765,"Ġpeers":12766,"Ġwarming":12767,"urred":12768,"owship":12769,"ĠLiver":12770,"IAL":12771,"Ġbadly":12772,"cow":12773,"ĠHeat":12774,"thod":12775,"vet":12776,"Ġboats":12777,"Ġvessels":12778,"Ġhorn":12779,"Ġsupportive":12780,"Ġreprodu":12781,"arious":12782,"amins":12783,"Ġcoins":12784,"ĠComb":12785,"Ġpatience":12786,"ĠCommercial":12787,"Ġcognitive":12788,"ĠGreece":12789,"Ġthumb":12790,"ĠPrize":12791,"Ġimmigrants":12792,"ĠUrban":12793,"Ġine":12794,"OST":12795,"Ġreminder":12796,"Ġoptional":12797,"liminary":12798,"Ġpy":12799,"igue":12800,"Ġinvestor":12801,"Ġpenet":12802,"ĠBapt":12803,"PT":12804,"Ġreserves":12805,"Ġscrap":12806,"uming":12807,"Ġhood":12808,"ceptions":12809,"Ġlabour":12810,"Ġ57":12811,"Ġmixing":12812,"ĠClear":12813,"Ġreaches":12814,"bey":12815,"Ġencry":12816,"ĠNetherlands":12817,"ĠHE":12818,"Ġsuited":12819,"Ġacute":12820,"Ġexamined":12821,"ĠPric":12822,"ĠSurvey":12823,"ĠResort":12824,"Ġspeeds":12825,"Ġposter":12826,"Published":12827,"Want":12828,"ĠShel":12829,"ĠPhilippines":12830,"ĠLawrence":12831,"Ġarom":12832,"Ġscal":12833,"Ġseventh":12834,"ĠDetails":12835,"Ġlineup":12836,"Ġharass":12837,"oting":12838,"commerce":12839,"ĠQueens":12840,"Ġwidespread":12841,"Ġconstra":12842,"Ġsized":12843,"ĠProp":12844,"October":12845,"aro":12846,"Ġincl":12847,"ĠJennifer":12848,"leading":12849,"Public":12850,"Ġlistings":12851,"Ġarise":12852,"ĠApart":12853,"General":12854,"angel":12855,"Ġ]":12856,"Ġorganize":12857,"gging":12858,"comed":12859,"ĠAlong":12860,"Ġfreel":12861,"ĠMuslims":12862,"Ġcannabis":12863,"Ġdisclosure":12864,"Ġinnocent":12865,"etics":12866,"achers":12867,"Ġcrossed":12868,"Ġwheat":12869,"Ġsubstitute":12870,"ĠAssess":12871,"Ġdesires":12872,"ĠHub":12873,"Ġlegendary":12874,"Ġ62":12875,"Ġaffecting":12876,"Sen":12877,"lay":12878,"ĠER":12879,"Ġclassical":12880,"Ġhighlighted":12881,"stage":12882,"Ġphysicians":12883,"master":12884,"Ġpurple":12885,"Ġgaining":12886,"Ġreliability":12887,"Ġlegally":12888,"adesh":12889,"Ġjournalist":12890,"Ġvegetable":12891,"Cre":12892,"Ġblocked":12893,"Ġconvention":12894,"Ġunnecessary":12895,"Ġvanilla":12896,"Ġamenities":12897,"oni":12898,"Ġlighter":12899,"Key":12900,"Ġrefuse":12901,"WS":12902,"Ġ101":12903,"ĠMovie":12904,"Ġinstructor":12905,"Ġfer":12906,"Ġcolored":12907,"lando":12908,"Ġrend":12909,"Ġheadquarters":12910,"Ġathletic":12911,"ĠGPS":12912,"ĠWant":12913,"Ġdisabilities":12914,"olesale":12915,"Ġtravelling":12916,"Ġlbs":12917,"ĠComments":12918,"ĠSenator":12919,"ĠRecord":12920,"Ġow":12921,"ĠBoo":12922,"ĠShipping":12923,"Ġcontroller":12924,"ĠCann":12925,"ĠWright":12926,"Ġcancel":12927,"Ġdropping":12928,"Ġperceived":12929,"ergy":12930,"ĠGiven":12931,"Ġalbums":12932,"OO":12933,"Ġhonored":12934,"kward":12935,"Ġshine":12936,"Ġkilomet":12937,"ãĥ":12938,"ĠAmy":12939,"onz":12940,"ĠAnna":12941,"Ġmomentum":12942,"Ġdressing":12943,"ĠSpot":12944,"Ġcrystal":12945,"Ġhack":12946,"Ġvariation":12947,"Ġcritics":12948,"Ġexcuse":12949,"Ġstraightforward":12950,"Ġdownloaded":12951,"ĠPatri":12952,"ĠCommerce":12953,"Ġcorners":12954,"inkle":12955,"adows":12956,"Ġtraged":12957,"Following":12958,"Ġoun":12959,"Ġdive":12960,"ĠPath":12961,"Ġracial":12962,"Ġprosper":12963,"Ġhint":12964,"glas":12965,"Det":12966,"2006":12967,"Ġquoted":12968,"emetery":12969,"ĠFeatures":12970,"Ġepid":12971,"FR":12972,"ĠConserv":12973,"ĠTurk":12974,"Ġcontrary":12975,".]":12976,"Still":12977,"Ġnovels":12978,"Ġshowc":12979,"Ġreplacing":12980,"Ġlaundry":12981,"COM":12982,"ÃĤ":12983,"Ġstones":12984,"Ġblogging":12985,"Ġtorn":12986,"ni":12987,"onde":12988,"Ġfreely":12989,"Ġlibraries":12990,"ĠGov":12991,"breaking":12992,"ĠCharlotte":12993,"Ġshake":12994,"Ġresistant":12995,"alling":12996,"Ġunderground":12997,"Ġdivine":12998,"arios":12999,"ĠJimmy":13000,"ptic":13001,"Ġarc":13002,"ĠTHIS":13003,"Ġmush":13004,"Ġ1987":13005,"Ġallegedly":13006,"agu":13007,"Ġflip":13008,"Ġhighway":13009,"Ġhike":13010,"ĠSalt":13011,"depth":13012,"Ġdrum":13013,"Ġremed":13014,"Ġinternationally":13015,"onge":13016,"oples":13017,"ĠStop":13018,"ymph":13019,"isp":13020,"ĠFreedom":13021,"pectives":13022,"aco":13023,"ĠOthers":13024,"ĠMarg":13025,"Ġterrorist":13026,"itzerland":13027,"Ġtheore":13028,"Ġfet":13029,"Ġbrowse":13030,"Ġprinter":13031,"uru":13032,"stairs":13033,"Ġsecrets":13034,"Ġpasta":13035,"rena":13036,"ĠChristopher":13037,"pin":13038,"Ġbarriers":13039,"ĠStrateg":13040,"Contin":13041,"Ġbol":13042,"Ġintend":13043,"Ġelectronics":13044,"umbled":13045,"mented":13046,"ĠJen":13047,"Ġdraws":13048,"Ġpreval":13049,"Ġcombines":13050,"FS":13051,"ĠLeadership":13052,"Ġramp":13053,"Ġignored":13054,"Ġpaste":13055,"ĠStars":13056,"Ġprol":13057,"ĠPittsburgh":13058,"ju":13059,"rors":13060,"vable":13061,"ĠSweden":13062,"Ġstruggles":13063,"ĠTogether":13064,"Ġsuggesting":13065,"Paul":13066,"ĠRachel":13067,"Ġscary":13068,"Ġkingdom":13069,"Ġcommod":13070,"Ġseniors":13071,"ardless":13072,"rolog":13073,"!).":13074,"ĠGay":13075,"Ġstruggled":13076,"ĠNelson":13077,"elta":13078,"2019":13079,"Ġvisa":13080,"Ġcurve":13081,"Ġpound":13082,"ĠBaker":13083,"Ġ180":13084,"Ġcollaborative":13085,"ĠCraft":13086,"ĠPink":13087,"ĠAnti":13088,"Gen":13089,"ĠGO":13090,"ĠBelow":13091,"Ġnutrients":13092,"maker":13093,"Ġrenowned":13094,"ĠMas":13095,"Ġsurprisingly":13096,"Ġterminal":13097,"Ġthrilled":13098,"Ġunve":13099,"ghed":13100,"Ġclarity":13101,"Ġritual":13102,"izon":13103,"Ġpaths":13104,"ĠCarter":13105,"ĠCompanies":13106,"Ġdefence":13107,"nered":13108,"ĠDiet":13109,"Ġdramatically":13110,"ĠPrep":13111,"Ġbesides":13112,"Ġvalve":13113,"Ġmilit":13114,"MR":13115,"ĠCV":13116,"Remember":13117,"anking":13118,"Ġkiller":13119,"Ġcoinc":13120,"ptions":13121,"Ġ59":13122,"OVE":13123,"outheast":13124,"ĠGB":13125,"Ġthroat":13126,"pered":13127,"cium":13128,"Ġtreasure":13129,"Maybe":13130,"olester":13131,"ĠHo":13132,"Ġendorse":13133,"ĠCream":13134,"erald":13135,"ĠJerusalem":13136,"ĠCircuit":13137,"ĠGrace":13138,"Ġphenomenon":13139,"ylon":13140,"jack":13141,"ĠRot":13142,"ĠiT":13143,"Ġreasonably":13144,"Ġburst":13145,"Ġprizes":13146,"quet":13147,"ĠAmendment":13148,"adi":13149,"Ġsup":13150,"Second":13151,"Ġpresum":13152,"Ġsnack":13153,"PE":13154,"Ġshelf":13155,"Full":13156,"arma":13157,"Ġcorporation":13158,"istically":13159,"forced":13160,"idding":13161,"KS":13162,"ĠArgent":13163,"Ġtricks":13164,"nected":13165,"Ġpockets":13166,"ĠDeal":13167,"Ġwondered":13168,"Ġvendor":13169,"Ġwellness":13170,"two":13171,"Ġnotable":13172,"alia":13173,"ĠDomin":13174,"Ġash":13175,"Ġdesp":13176,"Ġnerve":13177,"Ġhomework":13178,"user":13179,"Ġnewspapers":13180,"cap":13181,"ĠConnecticut":13182,"Ġforming":13183,"Ġvarieties":13184,"inyl":13185,"ĠScreen":13186,"Ġlun":13187,"Ġhockey":13188,"agger":13189,"azy":13190,"iasm":13191,"Ġcharts":13192,"ĠDragon":13193,"ĠML":13194,"ancers":13195,"Ġfitted":13196,"Ġdeny":13197,"struction":13198,"ONE":13199,"Ġtoll":13200,"Ġseparation":13201,"ĠPra":13202,"Ġvalued":13203,"Ġaccurately":13204,"ĠMaine":13205,"driven":13206,"Ġsaves":13207,"ritis":13208,"Ġretro":13209,"Ġric":13210,"Ġhealthier":13211,"Ġchallenged":13212,"ĠNJ":13213,"worthy":13214,"ĠFine":13215,"ĠCold":13216,"Ġrecycl":13217,"ques":13218,"Ġvariables":13219,"check":13220,"Ġrespected":13221,"ĠKrist":13222,"Ġdelicate":13223,"Ġbarrier":13224,"ĠBart":13225,"ĠJunior":13226,"eared":13227,"green":13228,"Ġvir":13229,"Ġstrikes":13230,"aired":13231,"Ġdelete":13232,"ĠRobinson":13233,"Ġreson":13234,"Ġchamber":13235,"Ġdonated":13236,"Ġinstalling":13237,"ĠRoc":13238,"ĠJerry":13239,"Ġordering":13240,"Ġcostly":13241,"Pay":13242,"Ġsurgical":13243,"ĠTechnical":13244,"ĠRelease":13245,"ĠTrad":13246,"anne":13247,"Ġpartnerships":13248,"large":13249,"Ġ`":13250,"ĠLE":13251,"Ġdefeated":13252,"ĠBarbara":13253,"iov":13254,"Ġhydro":13255,"Del":13256,"Ġincorrect":13257,"Ġgrasp":13258,"Ġinflammation":13259,"ĠOrd":13260,"Ġinclusion":13261,"note":13262,"chair":13263,"Ġ68":13264,"ĠThanksgiving":13265,"inging":13266,"Ġcontinuously":13267,"NC":13268,"ĠTechnologies":13269,"Ġtwin":13270,"MB":13271,"ĠElement":13272,"September":13273,"Ġrecipient":13274,"Ġoccasional":13275,"ĠGraham":13276,"fare":13277,"Ġpredicted":13278,"Ġconditioning":13279,"Ġadjusted":13280,"South":13281,"Ġflooring":13282,"Mart":13283,"ĠCaribbean":13284,"ĠRegion":13285,"Ġpine":13286,"Ġconsole":13287,"Ġattractions":13288,"ĠResults":13289,"Ġsooner":13290,"ĠManhattan":13291,"Ġparliament":13292,"position":13293,"ĠNYC":13294,"ĠHans":13295,"ĠHyd":13296,"Ġcompanion":13297,"arity":13298,"Ġinterrupt":13299,"cam":13300,"Ġjaw":13301,"security":13302,"Ġstabil":13303,"Ġindividually":13304,"ĠComment":13305,"Ġnavigation":13306,"Ġunto":13307,"Ġtransformed":13308,"Ġconducting":13309,"mary":13310,"Ġreporters":13311,"Ġdemo":13312,"Ġtargeting":13313,"Ġlover":13314,"ĠJobs":13315,"ictionary":13316,"size":13317,"idges":13318,"Ġinstitutional":13319,"Ġtrauma":13320,"GBT":13321,"Ġunderneath":13322,"ĠYellow":13323,"ollar":13324,"Online":13325,"Ġdedication":13326,"Ġwelcomed":13327,"Ġtar":13328,"Ġpoem":13329,"qual":13330,"Â»":13331,"ĠCoffee":13332,"ĠSau":13333,"ographical":13334,"ĠHunter":13335,"Ġpose":13336,"ustral":13337,"istant":13338,"Ġpork":13339,"ĠSean":13340,"Ġuncertainty":13341,"VP":13342,"ancer":13343,"ĠIndividual":13344,"izard":13345,"DAY":13346,"ĠTreatment":13347,"uv":13348,"Ġcleans":13349,"ĠLouisiana":13350,"Ġpriest":13351,"ĠObs":13352,"ĠSaudi":13353,"Ġsubsequently":13354,"uit":13355,"Ġbuilds":13356,"Bay":13357,"Ġfate":13358,"Ġexped":13359,"clusions":13360,"ĠHTML":13361,"Ġwoods":13362,"Author":13363,"VI":13364,"Ġtheft":13365,"orph":13366,"ĠGuy":13367,"stit":13368,"Ġvenues":13369,"portant":13370,"Ġstrengths":13371,"Ġappliances":13372,"ĠHus":13373,"ĠLuck":13374,"Ġcomplain":13375,"Ġconsume":13376,"Ġgau":13377,"ĠFu":13378,"Ġpointing":13379,"Ġdealt":13380,"Ġunpre":13381,"ĠCollect":13382,"ĠParticip":13383,"Ġorientation":13384,"Ġmetabol":13385,"Ġseasonal":13386,"Ġsurveillance":13387,"Ġmice":13388,"apel":13389,"ĠMand":13390,"ĠPent":13391,"Ġwaited":13392,"2005":13393,"ĠAdditional":13394,"Ġdeserves":13395,"Ġnowhere":13396,"Ġstadium":13397,"West":13398,"Ġdimin":13399,"Ġcongress":13400,"Ġpension":13401,"Ġloyalty":13402,"Ġmobility":13403,"Ġjet":13404,"Ġwound":13405,"ĠMall":13406,"Ġrenov":13407,"ĠAudio":13408,"urchase":13409,"cos":13410,"ĠCitiz":13411,"Yeah":13412,"Ġfilters":13413,"SD":13414,"Ġlanded":13415,"Ã§":13416,"ernand":13417,"Ġod":13418,"Share":13419,"olo":13420,"Dep":13421,"ĠAnimal":13422,"ĠParker":13423,"compass":13424,"iblical":13425,"UK":13426,"Sw":13427,"also":13428,"ĠSkin":13429,"Ġunderstands":13430,".....":13431,"ĠPresent":13432,"ORD":13433,"posed":13434,"arently":13435,"Ġincidents":13436,"ĠWa":13437,"Ġpsychology":13438,"uisine":13439,"Ġcelebrity":13440,"Open":13441,"stration":13442,"Ġconferences":13443,"Ġpartly":13444,"Ġreass":13445,"Ġunre":13446,"Ġmunicipal":13447,"Ġdistinctive":13448,"ĠFashion":13449,"ĠCampbell":13450,"aceutical":13451,"mentation":13452,"Ġber":13453,"Being":13454,"ĠNBC":13455,"Ġfilmm":13456,"Ġcontainers":13457,"building":13458,"Ġmodules":13459,"ĠMadison":13460,"Ġmysterious":13461,"urers":13462,"Ġobservation":13463,"marks":13464,"ĠFal":13465,"Ġrack":13466,"Ġdigest":13467,"otherapy":13468,"Ġnurses":13469,"Ġdecreased":13470,"ĠAaron":13471,"Ġpartial":13472,"Ġbedrooms":13473,"Ġdele":13474,"aci":13475,"Unfortunately":13476,"Super":13477,"ĠCertified":13478,"Ġ1986":13479,"Ġdresses":13480,"Ġspecifications":13481,"gun":13482,"Ġbooth":13483,"ĠMetro":13484,"Ġwand":13485,"ĠSens":13486,"Ġcontrolling":13487,"Ġcontinually":13488,"ui":13489,"Ġanimation":13490,"Ġdamn":13491,"igs":13492,"Ġchapters":13493,"Ġinfant":13494,"Ġfunctioning":13495,"Ġprosecut":13496,"Ġeasiest":13497,"Ġprivilege":13498,"bn":13499,"urring":13500,"Ġconstitutional":13501,"Ġairline":13502,"Ġbasement":13503,"Hello":13504,"Ġtropical":13505,"umph":13506,"agg":13507,"Ġreminds":13508,"inance":13509,"ĠWarren":13510,"Ġintegrate":13511,"Ġflows":13512,"Michael":13513,"ĠSett":13514,"Ġalph":13515,"Ġoutlet":13516,"Ġinfected":13517,"ĠTarget":13518,"Ġconvince":13519,"Ġcaf":13520,"Ġvolumes":13521,"Ġchemistry":13522,"olesterol":13523,"Ġwars":13524,"ĠSin":13525,"Ġawkward":13526,"ãģ":13527,"Ġnoon":13528,"ITE":13529,"group":13530,"ĠRidge":13531,"Ġrelatives":13532,"Ġappearances":13533,"ĠNevada":13534,"Ġsubt":13535,"Ġcounties":13536,"ĠSuite":13537,"Ġrolls":13538,"ĠHousing":13539,"ĠGun":13540,"strong":13541,"ĠInvestment":13542,"Ġindependently":13543,"ĠBeth":13544,"rimin":13545,"ĠThailand":13546,"ĠUpdate":13547,"Ġbikes":13548,"Ġpreference":13549,"ĠGift":13550,"Ġvisitor":13551,"assador":13552,"Ġsustained":13553,"Ġcustody":13554,"ĠNCAA":13555,"ĠEye":13556,"END":13557,"Ġsensors":13558,"olved":13559,"Ġembedded":13560,"Ġank":13561,"Ġtactics":13562,"Ġbump":13563,"Ġfare":13564,"Ġbron":13565,"Ġbriefly":13566,"ĠLem":13567,"Ġeducate":13568,"Ġcraw":13569,"Ġ1984":13570,"Ġlaunching":13571,"oks":13572,"Ġsensitivity":13573,"Ġmarch":13574,"Ġdominant":13575,"ĠTar":13576,"ĠUV":13577,"Ġcamps":13578,"Ġcharm":13579,"mus":13580,"osex":13581,"Ġprox":13582,"Ġminimize":13583,"ĠXbox":13584,"Ġmandatory":13585,"iated":13586,"Ġforums":13587,"Ġdonate":13588,"ĠSad":13589,"ĠPin":13590,"Ġneighbour":13591,"Ġgovernance":13592,"Ġencourages":13593,"xide":13594,"ĠJoh":13595,"irs":13596,"iffs":13597,"January":13598,"raham":13599,"ĠGetting":13600,"Ġeditorial":13601,"GS":13602,"Right":13603,"ĠANY":13604,"ĠMC":13605,"shirt":13606,"UI":13607,"Ġtraveled":13608,"Ġmodify":13609,"ĠHoliday":13610,"Ġcontend":13611,"Ġsheep":13612,"Ġportal":13613,"Ġlitigation":13614,"news":13615,"jections":13616,"ĠTodd":13617,"Ġactivists":13618,"Ġtailored":13619,"uscript":13620,"Ġafterwards":13621,"ĠArthur":13622,"ĠFaith":13623,"Jun":13624,"Ġvegan":13625,"Ġdub":13626,"Ġamp":13627,"Ġtransit":13628,"ĠLegisl":13629,"Ġtalents":13630,"ĠHung":13631,"than":13632,"anship":13633,"Ġlined":13634,"Ġstressed":13635,"Ġburned":13636,"Ġeconomics":13637,"ĠBroadway":13638,"omas":13639,"uced":13640,"Ġparticles":13641,"Ġchains":13642,"ontal":13643,"Ġrelie":13644,"Ġ700":13645,"rin":13646,"ĠFocus":13647,"Ġsafer":13648,"Ġmanages":13649,"Ġcaution":13650,"eks":13651,"ĠCars":13652,"ĠGT":13653,"ĠFisher":13654,"Ġlever":13655,"Ġprovin":13656,"Ġimaging":13657,"Set":13658,"iop":13659,"Ġmaj":13660,"Ġallegations":13661,"rock":13662,"Ġ63":13663,"Ġevolved":13664,"Ġjunk":13665,"lington":13666,"quire":13667,"ĠGround":13668,"Ġrug":13669,"Ġpressing":13670,"Ġimmense":13671,"Ġdisappear":13672,"Ġbreach":13673,"eous":13674,"Ġroster":13675,"Ġbree":13676,"Ġborders":13677,"ĠWedding":13678,"ending":13679,"etooth":13680,"Ġanalysts":13681,"ĠGA":13682,"ĠKal":13683,"Ġanalyst":13684,"Ġhouseholds":13685,"ĠEmergency":13686,"Ġconsistency":13687,"istance":13688,"ĠESP":13689,"Person":13690,"Ġsuggestion":13691,"Ġcoin":13692,"Ġfarming":13693,"dig":13694,"apor":13695,"Ġobservations":13696,"Ġexecuted":13697,"ĠTokyo":13698,"Ġdrawings":13699,"ĠGa":13700,"ardo":13701,"ĠRO":13702,"Ġtastes":13703,"Ġfirmly":13704,"Ġwages":13705,"Ġrod":13706,"Ġmineral":13707,"Ġranges":13708,"Ġstartup":13709,"Ġobtaining":13710,"Ġadapted":13711,"Ġrecycling":13712,"Ġtrademark":13713,"ere":13714,"Ġsilly":13715,"ĠMurray":13716,"Ġdisagree":13717,"Ġdeficit":13718,"Ġtasty":13719,"Ġenthusiasm":13720,"ĠWoman":13721,"usive":13722,"Ġcleaned":13723,"iph":13724,"Ġaffair":13725,"ĠClinical":13726,"Ġpel":13727,"bris":13728,"ĠFranklin":13729,"Ġdated":13730,"ĠVerm":13731,"ĠMetal":13732,"ĠLarry":13733,"service":13734,"ĠAssociate":13735,"Mem":13736,"idel":13737,"ĠWard":13738,"Special":13739,"Ġpics":13740,"ĠAy":13741,"Ġinfluences":13742,"Ġprecision":13743,"ĠFBI":13744,"Ġrides":13745,"ulator":13746,"belie":13747,"Ġdiamond":13748,"Ġbeside":13749,"Ġdestinations":13750,"Ġpromoted":13751,"Figure":13752,"Ġcer":13753,"ĠDim":13754,"Ġattributes":13755,"Ġsends":13756,"ĠValue":13757,"Ġcrossing":13758,"Ġwax":13759,"Ġleverage":13760,"ĠMulti":13761,"ĠTower":13762,"Ġbride":13763,"ĠCommons":13764,"Ġmagnific":13765,"Ġadjacent":13766,"Ġ>>":13767,"ĠRent":13768,"North":13769,"Ġpitc":13770,"ĠDelivery":13771,"ĠPerry":13772,"ĠLeader":13773,"ĠâĨ":13774,"ĠDiamond":13775,"Ġherbs":13776,"ĠMorris":13777,"ĠLaura":13778,"Ġbugs":13779,"Ġcollapse":13780,"ĠSL":13781,"Ġautomation":13782,"Ġattraction":13783,"Ġlocals":13784,"Ġ1985":13785,"ĠBio":13786,"Ġoccupied":13787,"Ġlightly":13788,"help":13789,"bling":13790,"HR":13791,"Ġsla":13792,"Play":13793,"Ġpropag":13794,"Ġprogrammes":13795,"Ġurge":13796,"Ġcompromise":13797,"Ġcrops":13798,"ĠIndependent":13799,"Ġfuneral":13800,"innamon":13801,"Ġcharming":13802,"ĠNetflix":13803,"Ġresolved":13804,"ĠWonder":13805,"century":13806,"Ġdesperate":13807,"Ġacknowledged":13808,"code":13809,"Ġexpects":13810,"claimed":13811,"ometric":13812,"2020":13813,"Ġcouch":13814,"Ġsponsor":13815,"edu":13816,"Ġmodest":13817,"urope":13818,"ĠAdministr":13819,"riving":13820,"blem":13821,"ĠSay":13822,"ĠBright":13823,"Ġpond":13824,"Cent":13825,"rose":13826,"sk":13827,"ĠAlb":13828,"Ġaesthetic":13829,"ASS":13830,"Ġbehaviors":13831,"ivic":13832,"ĠRestaurant":13833,"ĠSwitzerland":13834,"Ġinquiry":13835,"Ġmerchandise":13836,"Ġlogical":13837,"Ġmos":13838,"Ġrenewable":13839,"Ġfragr":13840,"psy":13841,"Ġapartments":13842,"Ġingredient":13843,"Ġburg":13844,"chi":13845,"Ġhomeowners":13846,"Ġfatal":13847,"ĠPalestinian":13848,"vement":13849,"Ġpracticing":13850,"Ġstarter":13851,"Ġdisadvant":13852,"ĠiTunes":13853,"ijing":13854,"Ġkicked":13855,".).":13856,"pace":13857,"Enter":13858,"Ġviolations":13859,"ertation":13860,"ĠSleep":13861,"quest":13862,"Ġtuned":13863,"Ġrestored":13864,"ĠDIY":13865,"Product":13866,"Ġmales":13867,"Ġinject":13868,"Ġjumping":13869,"Ġblast":13870,"rates":13871,"asive":13872,"Ġgrandmother":13873,"Sur":13874,"Ġrecruitment":13875,"ĠDest":13876,"Ġpacking":13877,"ĠSri":13878,"Ġcoupon":13879,"ĠBeauty":13880,"ĠSomething":13881,"rolling":13882,"ĠTrain":13883,"Ġnotification":13884,"Ġcycling":13885,"ĠNASA":13886,"Ġappearing":13887,"nor":13888,"Ġdemocratic":13889,"Ġmissions":13890,"minded":13891,"ĠTig":13892,"Ġrecovered":13893,"Ġbasics":13894,"Ġsteal":13895,"Ġhandles":13896,"Ġawa":13897,"Ġbored":13898,"ĠVoice":13899,"Ġho":13900,"Ġhorrible":13901,"Ġtransparency":13902,"Ġexisted":13903,"ARE":13904,"MM":13905,"Ġ67":13906,"Ġgenerating":13907,"Ġdot":13908,"Ġoutlets":13909,"Ġmayor":13910,"ĠGer":13911,"ASH":13912,"Ġgraduation":13913,"fold":13914,"Ġbeta":13915,"ĠSimple":13916,"Ġscenarios":13917,"November":13918,"formed":13919,"adays":13920,"Ġweekends":13921,"ĠHamp":13922,"Ġshy":13923,"Ġadvances":13924,"ĠLex":13925,"ĠCurrently":13926,"Ġprofitable":13927,"remy":13928,"Ġeducated":13929,"Ġmonster":13930,"cin":13931,"Ġthresh":13932,"ĠMath":13933,"Ġundergraduate":13934,"fi":13935,"Ġseating":13936,"entials":13937,"mart":13938,"roe":13939,"Ġtriple":13940,"Ġtemplates":13941,"Ġbuck":13942,"ĠTa":13943,"Ġheated":13944,"ogan":13945,"Ġcounterpart":13946,"Ġextrem":13947,"Ġavoiding":13948,"Ġlongest":13949,"Ġtravels":13950,"Business":13951,"Ġacids":13952,"ropolitan":13953,"racle":13954,"ĠDa":13955,"ĠMorning":13956,"ĠBarack":13957,"Ġgrabbed":13958,"ĠAle":13959,"Ġelabor":13960,"ĠRegister":13961,"Ġbases":13962,"Ġcave":13963,"Ġcommentary":13964,"written":13965,"ubscribe":13966,"ĠUniversal":13967,"Ġheroes":13968,"unnels":13969,"Ġimproves":13970,"Ġdelayed":13971,"Ġphysics":13972,"Ġriders":13973,"his":13974,"ĠDal":13975,"Ġserial":13976,"ĠCass":13977,"Ġtrains":13978,"Ġknees":13979,"ĠDisease":13980,"ĠPad":13981,"Ġsuspected":13982,"Ġdecides":13983,"Ġshocked":13984,"lon":13985,"Ġawful":13986,"Ġtob":13987,"ĠPic":13988,"ĠRule":13989,"Ġcompound":13990,"ulent":13991,"Ġfloating":13992,"Ġspacious":13993,"Further":13994,"llers":13995,"Ġfinan":13996,"tha":13997,"President":13998,"Ġmodes":13999,"Ġ61":14000,"Ġmonetary":14001,"Ġsporting":14002,"asury":14003,"ĠCommand":14004,"Ġproceeds":14005,"Ġcant":14006,"Ġinvitation":14007,"Ġbooked":14008,"Rec":14009,"Ġreun":14010,"flu":14011,"Ġdimension":14012,"start":14013,"Ġjam":14014,"ĠGray":14015,"ĠBah":14016,"Ġequality":14017,"Ġcircles":14018,"Tw":14019,"ooting":14020,"ĠEvans":14021,"ĠPalm":14022,"Ġsymbols":14023,"Buy":14024,"ĠPod":14025,"Ġsurveys":14026,"ĠScholars":14027,"Ġpromotional":14028,"ĠHend":14029,"Ġbitter":14030,"ĠCorporate":14031,"Ġdescribing":14032,"Ġindication":14033,"Ġdistinction":14034,"Ġvalley":14035,"ĠOrlando":14036,"Ġcleared":14037,"ĠOperations":14038,"ĠAw":14039,"ĠFer":14040,"Ġstiff":14041,"âĢ¦âĢĿ":14042,"Ġjeans":14043,"Know":14044,"ĠChi":14045,"white":14046,"chnology":14047,"gered":14048,"ĠSubs":14049,"Ġloading":14050,"encer":14051,"ĠKay":14052,"Ġdealers":14053,"Ġpile":14054,"ĠCurrent":14055,"oft":14056,"onom":14057,"ĠBou":14058,"Ġclips":14059,"OX":14060,"roductive":14061,"Wind":14062,"direct":14063,"Ġcyl":14064,"pher":14065,"Ġmigration":14066,"Ġvisibility":14067,"Ġsells":14068,"Ġsolving":14069,"ĠSolar":14070,"++":14071,"ĠRA":14072,"Ġslides":14073,"Ġskip":14074,"Ġapproaching":14075,"ĠRules":14076,"Ġridiculous":14077,"Ġglobally":14078,"ĠReally":14079,"Ġdetected":14080,"rels":14081,"ĠSummit":14082,"Green":14083,"ido":14084,"Ġhiding":14085,"Ġneeding":14086,"Ġbacking":14087,"Ġconjunction":14088,"Ġmurd":14089,"ĠTrip":14090,"ĠJohnny":14091,"Ġtribute":14092,"Ġbears":14093,"version":14094,"Ġcrying":14095,"Ġdairy":14096,"Ġorg":14097,"due":14098,"Ġmagnetic":14099,"Ġports":14100,"ĠOscar":14101,"assy":14102,"ĠWhatever":14103,"ĠCorps":14104,"Care":14105,"ĠTouch":14106,"ĠVi":14107,"Ġindirect":14108,"Ġvoltage":14109,"Ġunh":14110,"Ġraises":14111,"ancies":14112,"Ġscholar":14113,"ocy":14114,"Ġknowledgeable":14115,"ĠUpon":14116,"ĠRemove":14117,"watch":14118,"Ġoptical":14119,"Ġpressed":14120,"Ġic":14121,"Ġbloom":14122,"Ġintensive":14123,"ĠWelcome":14124,"uffy":14125,"Ġgraduates":14126,"Ġnan":14127,"ĠFro":14128,"ĠPosted":14129,"eded":14130,"ĠHi":14131,"Ġclouds":14132,"ĠOften":14133,"Ġpunishment":14134,"riors":14135,"Ġresemb":14136,"unge":14137,"ĠOd":14138,"ĠCoal":14139,"taining":14140,"ĠTransportation":14141,"hu":14142,"izers":14143,"120":14144,"Max":14145,"ĠEdge":14146,"ĠLux":14147,"Ġshades":14148,"ĠGriff":14149,"Ġspreading":14150,"Ġpractically":14151,"rah":14152,"ĠMichelle":14153,"Ġlifted":14154,"Ġfridge":14155,"Ġpatio":14156,"Ġregret":14157,"ĠKnight":14158,"Ġhind":14159,"ĠES":14160,"Ġcryptocur":14161,"Ġpharmac":14162,"Ġverse":14163,"Ġfires":14164,"pensive":14165,"Ġbom":14166,"Ġwatches":14167,"PH":14168,"Ant":14169,"ĠLGBT":14170,"Ġmaximize":14171,"isode":14172,"robe":14173,"Ġthankful":14174,"Ġconcentrate":14175,"Ġwithdrawal":14176,"ĠDat":14177,"Ġdeadly":14178,"ĠJazz":14179,"ĠMarshall":14180,"ĠVirtual":14181,"Ġholder":14182,"Ġbrave":14183,"Never":14184,"ĠISO":14185,"ME":14186,"archy":14187,"Ġintroducing":14188,"Ġpartially":14189,"poons":14190,"Ġpursuing":14191,"ĠISBN":14192,"ĠAbs":14193,"Come":14194,"bec":14195,"Ġcloset":14196,"Ġprayers":14197,"Ġdece":14198,"Ġdigit":14199,"girl":14200,"ĠPH":14201,"ĠAlice":14202,"ĠQual":14203,"Ġbattles":14204,"ĠArkansas":14205,"Ġbacks":14206,"Ġcomplications":14207,"ĠCommunication":14208,"Ġtrace":14209,"ĠFrame":14210,"Ġbatch":14211,"ĠDouglas":14212,"Ġniche":14213,"ĠOlympics":14214,"ĠMO":14215,"Ġnearest":14216,"Ġachievements":14217,"Tom":14218,"Ġwelcoming":14219,"Ġfu":14220,"Ġdisposal":14221,"mi":14222,"February":14223,"UE":14224,"ĠFigure":14225,"Ġfundraising":14226,"ĠBond":14227,"ĠBetween":14228,"ĠLeft":14229,"ĠCBS":14230,"ĠYoga":14231,"National":14232,"five":14233,"Ġlistened":14234,"ĠFederation":14235,"uity":14236,"ĠFem":14237,"Ġenzy":14238,"ĠSwiss":14239,"Ġtrainer":14240,
[...]
