{
  "version": "1.0",
  "truncation": null,
  "padding": null,
  "added_tokens": [
    {
      "id": 0,
      "content": "<pad>",
      "single_word": false,
      "lstrip": false,
      "rstrip": false,
      "normalized": false,
      "special": true
    },
    {
      "id": 1,
      "content": "<unk>",
      "single_word": false,
      "lstrip": false,
      "rstrip": false,
      "normalized": false,
      "special": true
    },
    {
      "id": 2,
      "content": "<bos>",
      "single_word": false,
      "lstrip": false,
      "rstrip": false,
      "normalized": false,
      "special": true
    },
    {
      "id": 3,
      "content": "<eos>",
      "single_word": false,
      "lstrip": false,
      "rstrip": false,
      "normalized": false,
      "special": true
    }
  ],
  "normalizer": {
    "type": "Sequence",
    "normalizers": [
      {
        "type": "NFKC"
      }
    ]
  },
  "pre_tokenizer": {
    "type": "ByteLevel",
    "add_prefix_space": false,
    "trim_offsets": true,
    "use_regex": true
  },
  "post_processor": {
    "type": "TemplateProcessing",
    "single": [
      {
        "SpecialToken": {
          "id": "<bos>",
          "type_id": 0
        }
      },
      {
        "Sequence": {
          "id": "A",
          "type_id": 0
        }
      },
      {
        "SpecialToken": {
          "id": "<eos>",
          "type_id": 0
        }
      }
    ],
    "pair": [
      {
        "SpecialToken": {
          "id": "<bos>",
          "type_id": 0
        }
      },
      {
        "Sequence": {
          "id": "A",
          "type_id": 0
        }
      },
      {
        "SpecialToken": {
          "id": "<eos>",
          "type_id": 0
        }
      },
      {
        "SpecialToken": {
          "id": "<bos>",
          "type_id": 0
        }
      },
      {
        "Sequence": {
          "id": "B",
          "type_id": 0
        }
      },
      {
        "SpecialToken": {
          "id": "<eos>",
          "type_id": 0
        }
      }
    ],
    "special_tokens": {
      "<bos>": {
        "id": "<bos>",
        "ids": [
          2
        ],
        "tokens": [
          "<bos>"
        ]
      },
      "<eos>": {
        "id": "<eos>",
        "ids": [
          3
        ],
        "tokens": [
          "<eos>"
        ]
      }
    }
  },
  "decoder": {
    "type": "ByteLevel",
    "add_prefix_space": true,
    "trim_offsets": true,
    "use_regex": true
  },
  "model": {
    "type": "BPE",
    "dropout": null,
    "unk_token": "<unk>",
    "continuing_subword_prefix": null,
    "end_of_word_suffix": null,
    "fuse_unk": false,
    "byte_fallback": false,
    "ignore_merges": false,
    "vocab": {
      "<pad>": 0,
      "<unk>": 1,
      "<bos>": 2,
      "<eos>": 3,
      "!": 4,
      "\"": 5,
      "#": 6,
      "$": 7,
      "%": 8,
      "&": 9,
      "'": 10,
      "(": 11,
      ")": 12,
      "*": 13,
      "+": 14,
      ",": 15,
      "-": 16,
      ".": 17,
      "/": 18,
      "0": 19,
      "1": 20,
      "2": 21,
      "3": 22,
      "4": 23,
      "5": 24,
      "6": 25,
      "7": 26,
      "8": 27,
      "9": 28,
      ":": 29,
      ";": 30,
      "<": 31,
      "=": 32,
      ">": 33,
      "?": 34,
      "@": 35,
      "A": 36,
      "B": 37,
      "C": 38,
      "D": 39,
      "E": 40,
      "F": 41,
      "G": 42,
      "H": 43,
      "I": 44,
      "J": 45,
      "K": 46,
      "L": 47,
      "M": 48,
      "N": 49,
      "O": 50,
      "P": 51,
      "Q": 52,
      "R": 53,
      "S": 54,
      "T": 55,
      "U": 56,
      "V": 57,
      "W": 58,
      "X": 59,
      "Y": 60,
      "Z": 61,
      "[": 62,
      "\\": 63,
      "]": 64,
      "^": 65,
      "_": 66,
      "`": 67,
      "a": 68,
      "b": 69,
      "c": 70,
      "d": 71,
      "e": 72,
      "f": 73,
      "g": 74,
      "h": 75,
      "i": 76,
      "j": 77,
      "k": 78,
      "l": 79,
      "m": 80,
      "n": 81,
      "o": 82,
      "p": 83,
      "q": 84,
      "r": 85,
      "s": 86,
      "t": 87,
      "u": 88,
      "v": 89,
      "w": 90,
      "x": 91,
      "y": 92,
      "z": 93,
      "{": 94,
      "|": 95,
      "}": 96,
      "~": 97,
      "¡": 98,
      "¢": 99,
      "£": 100,
      "¤": 101,
      "¥": 102,
      "¦": 103,
      "§": 104,
      "¨": 105,
      "©": 106,
      "ª": 107,
      "«": 108,
      "¬": 109,
      "®": 110,
      "¯": 111,
      "°": 112,
      "±": 113,
      "²": 114,
      "³": 115,
      "´": 116,
      "µ": 117,
      "¶": 118,
      "·": 119,
      "¸": 120,
      "¹": 121,
      "º": 122,
      "»": 123,
      "¼": 124,
      "½": 125,
      "¾": 126,
      "¿": 127,
      "Â": 128,
      "Ã": 129,
      "Ä": 130,
      "Å": 131,
      "É": 132,
      "Ê": 133,
      "Ë": 134,
      "Ì": 135,
      "Î": 136,
      "Ï": 137,
      "Ñ": 138,
      "×": 139,
      "Ø": 140,
      "Ù": 141,
      "á": 142,
      "â": 143,
      "ã": 144,
      "ä": 145,
      "å": 146,
      "æ": 147,
      "ç": 148,
      "è": 149,
      "é": 150,
      "ì": 151,
      "ï": 152,
      "ð": 153,
      "ĉ": 154,
      "Ċ": 155,
      "Ĝ": 156,
      "Ġ": 157,
      "Ģ": 158,
      "ģ": 159,
      "Ĥ": 160,
      "ĥ": 161,
      "Ħ": 162,
      "ħ": 163,
      "Ĩ": 164,
      "ĩ": 165,
      "Ī": 166,
      "ī": 167,
      "Ĭ": 168,
      "ĭ": 169,
      "Į": 170,
      "į": 171,
      "İ": 172,
      "ı": 173,
      "Ĳ": 174,
      "ĳ": 175,
      "Ĵ": 176,
      "ĵ": 177,
      "Ķ": 178,
      "ķ": 179,
      "ĸ": 180,
      "Ĺ": 181,
      "ĺ": 182,
      "Ļ": 183,
      "ļ": 184,
      "Ľ": 185,
      "ľ": 186,
      "Ŀ": 187,
      "ŀ": 188,
      "Ł": 189,
      "ł": 190,
      "Ń": 191,
      "Ġt": 192,
      "Ġa": 193,
      "he": 194,
      "in": 195,
      "re": 196,
      "Ġthe": 197,
      "on": 198,
      "Ġs": 199,
      "er": 200,
      "Ġw": 201,
      "at": 202,
      "Ġo": 203,
      "Ġc": 204,
      "it": 205,
      "en": 206,
      "is": 207,
      "Ġb": 208,
      "ou": 209,
      "ing": 210,
      "an": 211,
      "es": 212,
      "or": 213,
      "Ġf": 214,
      "ed": 215,
      "Ġp": 216,
      "Ġm": 217,
      "Ġan": 218,
      "Ġto": 219,
      "ar": 220,
      "Ġd": 221,
      "al": 222,
      "Ġh": 223,
      "Ġof": 224,
      "Ġth": 225,
      "Ġin": 226,
      "le": 227,
      "Ġand": 228,
      "as": 229,
      "ic": 230,
      "om": 231,
      "ĠĠ": 232,
      "ion": 233,
      "Ġn": 234,
      "ll": 235,
      "Ġl": 236,
      "ĠI": 237,
      "st": 238,
      "Ġg": 239,
      "ly": 240,
      "Ġe": 241,
      "ve": 242,
      "ot": 243,
      "Ġre": 244,
      "ent": 245,
      "Ġbe": 246,
      "ut": 247,
      "ct": 248,
      "ow": 249,
      "Ġis": 250,
      "Ġy": 251,
      "et": 252,
      "id": 253,
      "Ġthat": 254,
      "im": 255,
      "ro": 256,
      "Ġon": 257,
      "se": 258,
      "ad": 259,
      "ĠT": 260,
      "ay": 261,
      "am": 262,
      "Ġit": 263,
      "Ġyou": 264,
      "ig": 265,
      "Ġu": 266,
      "Ġfor": 267,
      "ĠS": 268,
      "Ġhe": 269,
      "ver": 270,
      "ld": 271,
      "ac": 272,
      "ĠA": 273,
      "Ġst": 274,
      "ith": 275,
      "ur": 276,
      "Ġwh": 277,
      "'s": 278,
      "ĠC": 279,
      "ke": 280,
      "ir": 281,
      "ce": 282,
      "Ġas": 283,
      "Ġwith": 284,
      "ĠM": 285,
      "ch": 286,
      "ation": 287,
      "il": 288,
      "ol": 289,
      "if": 290,
      "ter": 291,
      "âĢ": 292,
      "Ġwe": 293,
      "Ġwas": 294,
      "ĠĠĠĠ": 295,
      "Ġ1": 296,
      "ill": 297,
      "od": 298,
      "her": 299,
      "Ġ(": 300,
      "Ġha": 301,
      "ĠB": 302,
      "nd": 303,
      "Ġr": 304,
      "ag": 305,
      "Ġat": 306,
      "em": 307,
      "ul": 308,
      "Ġare": 309,
      "Ġcon": 310,
      "ht": 311,
      "ĠH": 312,
      "Ġcom": 313,
      "pp": 314,
      "ĠW": 315,
      "ĠP": 316,
      "ĊĊ": 317,
      "ers": 318,
      "Ġnot": 319,
      "..": 320,
      "ĠThe": 321,
      "ould": 322,
      "ri": 323,
      "ore": 324,
      "Ġse": 325,
      "Ġthis": 326,
      "un": 327,
      "Ġor": 328,
      "op": 329,
      "Ġde": 330,
      "ĠD": 331,
      "ain": 332,
      "ate": 333,
      "est": 334,
      "ab": 335,
      "Ġ2": 336,
      "ess": 337,
      "and": 338,
      "Ġne": 339,
      "us": 340,
      "Ġex": 341,
      "Ġhave": 342,
      "qu": 343,
      "Ġpro": 344,
      "th": 345,
      "um": 346,
      "ure": 347,
      "Ġ\"": 348,
      "'t": 349,
      "ight": 350,
      "rom": 351,
      "ust": 352,
      "Ġdo": 353,
      "Ġv": 354,
      "ist": 355,
      "ĠR": 356,
      "os": 357,
      "Ġsh": 358,
      "ant": 359,
      "nt": 360,
      "pe": 361,
      "ĠF": 362,
      "Ġbut": 363,
      "ĠN": 364,
      "ally": 365,
      "ome": 366,
      "Ġch": 367,
      "Ġal": 368,
      "Ġli": 369,
      "art": 370,
      "Ġby": 371,
      "Ġcan": 372,
      "out": 373,
      "el": 374,
      "Ġk": 375,
      "ment": 376,
      "ĠG": 377,
      "end": 378,
      "Ġj": 379,
      "Ġfrom": 380,
      "Ġab": 381,
      "ra": 382,
      "Ġsu": 383,
      "ĠL": 384,
      "Ġgo": 385,
      "Ġme": 386,
      "ie": 387,
      "Ġle": 388,
      "ive": 389,
      "res": 390,
      "ĠE": 391,
      "Ġhis": 392,
      "ity": 393,
      "ĠO": 394,
      "Ġthey": 395,
      "Ġwhe": 396,
      "00": 397,
      "all": 398,
      "oc": 399,
      "ard": 400,
      "ĠJ": 401,
      "ack": 402,
      "oug": 403,
      "ost": 404,
      "ort": 405,
      "are": 406,
      "pt": 407,
      "ak": 408,
      "our": 409,
      "Ġall": 410,
      "oo": 411,
      "Ġyour": 412,
      "ere": 413,
      "ame": 414,
      "Ġwor": 415,
      "ake": 416,
      "Ġtr": 417,
      "ies": 418,
      "Ġout": 419,
      "Ġso": 420,
      "one": 421,
      "Ġus": 422,
      "ast": 423,
      "ind": 424,
      "ĠâĢ": 425,
      "ge": 426,
      "Ġmy": 427,
      "Ġwill": 428,
      "Ġpl": 429,
      "Ġint": 430,
      "pl": 431,
      "ect": 432,
      "ide": 433,
      "The": 434,
      "Ġup": 435,
      "ther": 436,
      "Ġ-": 437,
      "age": 438,
      "ound": 439,
      "iv": 440,
      "Ġher": 441,
      "ich": 442,
      "per": 443,
      "Ġhas": 444,
      "very": 445,
      "Ġwould": 446,
      "ear": 447,
      "Ġone": 448,
      "au": 449,
      "Ġlike": 450,
      "ong": 451,
      "ime": 452,
      "Ġcomp": 453,
      "Ġabout": 454,
      "ook": 455,
      "Ġif": 456,
      "Ġar": 457,
      "Ġcl": 458,
      "ous": 459,
      "ud": 460,
      "ough": 461,
      "ĠTh": 462,
      "act": 463,
      "ice": 464,
      "ine": 465,
      "ans": 466,
      "Ġsa": 467,
      "Ġtheir": 468,
      "Ġsome": 469,
      "Ġhad": 470,
      "ff": 471,
      "Ġmore": 472,
      "ions": 473,
      "ire": 474,
      "og": 475,
      "Ġkn": 476,
      "ell": 477,
      "ĠU": 478,
      "Ġwho": 479,
      "imp": 480,
      "ink": 481,
      "Ġthere": 482,
      "âĢĻ": 483,
      "ial": 484,
      "ry": 485,
      "Ġad": 486,
      "Ġwhat": 487,
      "Ġqu": 488,
      "ĠĠĠ": 489,
      "ile": 490,
      "Ġjust": 491,
      "Ġen": 492,
      "iz": 493,
      "able": 494,
      "ated": 495,
      "own": 496,
      "ep": 497,
      "Ġany": 498,
      "ass": 499,
      "...": 500,
      "Ġun": 501,
      "ap": 502,
      "ven": 503,
      "Ġwhen": 504,
      "ĠIt": 505,
      "Ġget": 506,
      "ult": 507,
      "Ġother": 508,
      "ign": 509,
      "ace": 510,
      "Ġcont": 511,
      "ĠĠĠĠĠĠĠĠ": 512,
      "ite": 513,
      "Ġwhich": 514,
      "Ġwere": 515,
      "Ġman": 516,
      "ble": 517,
      "Ġag": 518,
      "Ġ$": 519,
      "so": 520,
      "Ġshe": 521,
      "ue": 522,
      "ays": 523,
      "ase": 524,
      "ub": 525,
      "Ġthem": 526,
      "ĊĠ": 527,
      "Ġtime": 528,
      "Ġac": 529,
      "ew": 530,
      "ber": 531,
      "Ġbec": 532,
      "Ġapp": 533,
      "ip": 534,
      "int": 535,
      "ĠY": 536,
      "Ġoff": 537,
      "Ġpe": 538,
      "Ġno": 539,
      "ick": 540,
      "orm": 541,
      "Ġgr": 542,
      "ach": 543,
      "ary": 544,
      "Ġdis": 545,
      "Ġres": 546,
      "Ġ3": 547,
      "ose": 548,
      "Ġ'": 549,
      "ause": 550,
      "Ġpre": 551,
      "Ġthan": 552,
      "Ġsp": 553,
      "ond": 554,
      "ople": 555,
      ".\"": 556,
      "uc": 557,
      "cl": 558,
      "Ġover": 559,
      "ory": 560,
      "ction": 561,
      "Ġinto": 562,
      "Ġsaid": 563,
      "Ġbeen": 564,
      "ĠIn": 565,
      "01": 566,
      "hing": 567,
      "ical": 568,
      "ence": 569,
      "ance": 570,
      "av": 571,
      "Ġpart": 572,
      "Ġhim": 573,
      "ks": 574,
      "Ġknow": 575,
      "Ġte": 576,
      "ĠK": 577,
      "ens": 578,
      "ail": 579,
      "Ġper": 580,
      "ia": 581,
      "Ġ4": 582,
      "Ġsc": 583,
      "ord": 584,
      "ings": 585,
      "cess": 586,
      "ition": 587,
      "Ġonly": 588,
      "Ġpeople": 589,
      "ang": 590,
      "Ġhow": 591,
      "Ġcould": 592,
      "ations": 593,
      "ress": 594,
      "ount": 595,
      "itt": 596,
      "reat": 597,
      "fter": 598,
      "Ġpr": 599,
      "Ġyear": 600,
      "ov": 601,
      "ĠSt": 602,
      "ree": 603,
      "vel": 604,
      "Ġdon": 605,
      "ru": 606,
      "Ġdid": 607,
      "Ġnew": 608,
      "Ġthink": 609,
      "Ġam": 610,
      "Ġalso": 611,
      "ĠV": 612,
      "Ġtw": 613,
      "sel": 614,
      "Ġrec": 615,
      "Ġneed": 616,
      "irst": 617,
      "hed": 618,
      ").": 619,
      "ater": 620,
      "ĠCh": 621,
      "Ġpo": 622,
      "Ġbl": 623,
      "Ġbet": 624,
      "ict": 625,
      "Ġspe": 626,
      "Ġwork": 627,
      "ove": 628,
      "ĠHe": 629,
      "Ġ5": 630,
      "Ġsy": 631,
      "iff": 632,
      "ft": 633,
      "Ġro": 634,
      "Ġback": 635,
      "Ġwant": 636,
      "Ġthen": 637,
      "uch": 638,
      "Ġ=": 639,
      "xt": 640,
      "ath": 641,
      "Ġbecause": 642,
      "urn": 643,
      "Ġser": 644,
      "Ġdoes": 645,
      "other": 646,
      "ents": 647,
      "hat": 648,
      "Ġimp": 649,
      "oy": 650,
      "ors": 651,
      "Ġlook": 652,
      "form": 653,
      "li": 654,
      "Ġuse": 655,
      "ious": 656,
      "lic": 657,
      "Ġshould": 658,
      "ood": 659,
      "ade": 660,
      "Ġmake": 661,
      "'m": 662,
      "Ġbr": 663,
      "Ġits": 664,
      "nder": 665,
      "Ġfe": 666,
      "Ġeven": 667,
      "Ġdown": 668,
      "ull": 669,
      "mer": 670,
      "red": 671,
      "ild": 672,
      "ob": 673,
      "Ġafter": 674,
      "ec": 675,
      "we": 676,
      "Ġfirst": 677,
      "Ġway": 678,
      "ark": 679,
      "amp": 680,
      "Ġsee": 681,
      "omet": 682,
      ",\"": 683,
      "Ġevery": 684,
      "Ġact": 685,
      "Ġmay": 686,
      "Ġthr": 687,
      "Ġmuch": 688,
      "wn": 689,
      "Ġdiff": 690,
      "Ġfl": 691,
      "Ġtoo": 692,
      "Ġdes": 693,
      "sw": 694,
      "Ġco": 695,
      "ian": 696,
      "ting": 697,
      "self": 698,
      "Ġwhere": 699,
      "te": 700,
      "Ġmost": 701,
      "vers": 702,
      "Ġ19": 703,
      "ish": 704,
      "ne": 705,
      "lect": 706,
      "les": 707,
      "Ġtwo": 708,
      "ph": 709,
      "Ġvery": 710,
      "Ġrem": 711,
      "fore": 712,
      "ating": 713,
      "Ġnow": 714,
      "ock": 715,
      "ons": 716,
      "ĠThis": 717,
      "Ġim": 718,
      "Ġsm": 719,
      "ĠâĢ¢": 720,
      "'re": 721,
      "Ġwr": 722,
      "stem": 723,
      "Ġcomm": 724,
      "Ġgood": 725,
      "Ġ0": 726,
      "ates": 727,
      "iew": 728,
      "Ġour": 729,
      "Ġagain": 730,
      "Ġinst": 731,
      "sh": 732,
      "Ġunder": 733,
      "Ġadd": 734,
      "Ġph": 735,
      "Ġsay": 736,
      "ĠBut": 737,
      "ces": 738,
      "Ġpos": 739,
      "Ġright": 740,
      "ving": 741,
      "ont": 742,
      "Ġke": 743,
      "igh": 744,
      "Ġdef": 745,
      "gr": 746,
      "Ġsame": 747,
      "Ġplay": 748,
      "ib": 749,
      "ily": 750,
      "Ġsec": 751,
      "ually": 752,
      "ered": 753,
      "Ġthese": 754,
      "Ġcons": 755,
      "ĊĊĠĠĠ": 756,
      "erm": 757,
      "Ġsomet": 758,
      "Ġmany": 759,
      "Ġ[": 760,
      "Ġatt": 761,
      "get": 762,
      "ode": 763,
      "du": 764,
      "ris": 765,
      "ning": 766,
      "oth": 767,
      "Ġ6": 768,
      "ote": 769,
      "ĠAnd": 770,
      "Ġdiffere": 771,
      "Ġthrough": 772,
      "ss": 773,
      "ener": 774,
      "ident": 775,
      "ific": 776,
      "Ġ200": 777,
      "Ġlong": 778,
      "Ġstill": 779,
      "oll": 780,
      "Ġbeing": 781,
      "Ġwell": 782,
      "Ġquest": 783,
      "Ġgoing": 784,
      "Ġset": 785,
      "cept": 786,
      "Ġpoint": 787,
      "ty": 788,
      "ject": 789,
      "hen": 790,
      "ual": 791,
      "</": 792,
      "Ġyears": 793,
      "ĠWe": 794,
      "Ġbu": 795,
      "ics": 796,
      "ful": 797,
      "ĠâĢĵ": 798,
      "com": 799,
      "bs": 800,
      "Th": 801,
      "Ġbefore": 802,
      "tern": 803,
      "Ġche": 804,
      "swer": 805,
      "Ġhere": 806,
      "Ġsystem": 807,
      "aking": 808,
      "ought": 809,
      "ĠDe": 810,
      "pect": 811,
      "read": 812,
      "ĠYou": 813,
      "ved": 814,
      "Ġrel": 815,
      "way": 816,
      "Ġrep": 817,
      "old": 818,
      "Ġgu": 819,
      "Ġhel": 820,
      "Ġused": 821,
      "âĢĿ": 822,
      "ible": 823,
      "alk": 824,
      "imes": 825,
      "ĠAn": 826,
      "Ġhand": 827,
      "Ġsuch": 828,
      "'ve": 829,
      "Ġown": 830,
      "Ġsl": 831,
      "Ġread": 832,
      "br": 833,
      "Ġchar": 834,
      "Ġcall": 835,
      "ĠIf": 836,
      "ular": 837,
      "Ġreally": 838,
      "Ġ<": 839,
      "Ġmet": 840,
      "ments": 841,
      "ward": 842,
      "Ġsign": 843,
      "Ġcr": 844,
      "Ġbel": 845,
      "Ġfun": 846,
      "Ġem": 847,
      "Ġ201": 848,
      "Ġform": 849,
      "Ġ10": 850,
      "Ġcar": 851,
      "Ġthose": 852,
      "Ġhelp": 853,
      "ower": 854,
      "ck": 855,
      "vent": 856,
      "oup": 857,
      "Ġass": 858,
      "aw": 859,
      "iss": 860,
      "ah": 861,
      "ased": 862,
      "),": 863,
      "up": 864,
      "ert": 865,
      "ata": 866,
      "ows": 867,
      "Ġreg": 868,
      "ys": 869,
      "Ġtake": 870,
      "Ġstart": 871,
      "ility": 872,
      "Ġind": 873,
      "Ġmod": 874,
      "ves": 875,
      "ĊĠĠĠĠ": 876,
      "Ġpres": 877,
      "ife": 878,
      "ange": 879,
      "Ġhapp": 880,
      "Ġdec": 881,
      "clud": 882,
      "ts": 883,
      "ying": 884,
      "Ġreal": 885,
      "ason": 886,
      "ave": 887,
      "ix": 888,
      "Ġend": 889,
      "Ġhead": 890,
      "ax": 891,
      "ise": 892,
      "Ġfind": 893,
      "Ġstr": 894,
      "Ġsomething": 895,
      "olog": 896,
      "Ġaround": 897,
      "thing": 898,
      "Ġtrans": 899,
      "ince": 900,
      "ĠRe": 901,
      "Ġi": 902,
      "ative": 903,
      "ever": 904,
      "be": 905,
      "ween": 906,
      "ren": 907,
      "Ġpol": 908,
      "Ġinc": 909,
      "Ġret": 910,
      "In": 911,
      "Ġmade": 912,
      "Ġrun": 913,
      "Ġsub": 914,
      "ather": 915,
      "ug": 916,
      "ĠUn": 917,
      "ĊĊĠ": 918,
      "ied": 919,
      "ĠâĢľ": 920,
      "ublic": 921,
      "Ġsur": 922,
      "Ġgame": 923,
      "Ġspec": 924,
      "hes": 925,
      "'ll": 926,
      "Ġdifferent": 927,
      "Ġcol": 928,
      "Ġsupp": 929,
      "atch": 930,
      "ĠSh": 931,
      "led": 932,
      "Ġ7": 933,
      "'d": 934,
      "ames": 935,
      "ool": 936,
      "Ġpers": 937,
      "Ġmin": 938,
      "day": 939,
      "Ġeff": 940,
      "Ġty": 941,
      "Ġdet": 942,
      "Ġob": 943,
      "ĠWh": 944,
      "Ġlot": 945,
      "Ġquestion": 946,
      "akes": 947,
      "Ġbetween": 948,
      "ci": 949,
      "pen": 950,
      "Ġhard": 951,
      "Ġgener": 952,
      "Ġeach": 953,
      "ee": 954,
      "Ġwhile": 955,
      "Ġcount": 956,
      "It": 957,
      "ank": 958,
      "Ġmon": 959,
      "its": 960,
      "ittle": 961,
      "rove": 962,
      "Ġinter": 963,
      "ues": 964,
      "Ġboth": 965,
      "als": 966,
      "Ġ--": 967,
      "Ġ8": 968,
      "owing": 969,
      "irect": 970,
      "ex": 971,
      "oot": 972,
      "ĊĠĠĠ": 973,
      "Ġgreat": 974,
      "Ġext": 975,
      "10": 976,
      "ature": 977,
      "ited": 978,
      "oh": 979,
      "Ġmem": 980,
      "Ġexp": 981,
      "12": 982,
      "Ġfin": 983,
      "anc": 984,
      "blem": 985,
      "ities": 986,
      "Ġref": 987,
      "Ġacc": 988,
      "ution": 989,
      "Ġinclud": 990,
      "Ġfact": 991,
      "Ġusing": 992,
      "Ġdidn": 993,
      "ically": 994,
      "Ġnum": 995,
      "air": 996,
      "ĠThey": 997,
      "ract": 998,
      "Ġinv": 999,
      "ef": 1000,
      "meric": 1001,
      "ute": 1002,
      "ages": 1003,
      "Ġent": 1004,
      "Ġfew": 1005,
      "Ġ9": 1006,
      "Ġseem": 1007,
      "Ġproblem": 1008,
      "Ġworld": 1009,
      "ĠHow": 1010,
      "Ġprov": 1011,
      "ger": 1012,
      "Ġanswer": 1013,
      "ead": 1014,
      "Ġlittle": 1015,
      "the": 1016,
      "Ġcor": 1017,
      "Ġhigh": 1018,
      "Ġthings": 1019,
      "ices": 1020,
      "Ġrequ": 1021,
      "uring": 1022,
      "man": 1023,
      "ĠAr": 1024,
      "Ġnever": 1025,
      "Ġcur": 1026,
      "ĠThat": 1027,
      "Ġmight": 1028,
      "Ġ|": 1029,
      "Ġturn": 1030,
      "Ġfil": 1031,
      "Ġfeel": 1032,
      "Ġlast": 1033,
      "Ġins": 1034,
      "ably": 1035,
      "?\"": 1036,
      "ism": 1037,
      "Ġgot": 1038,
      "Ġcomple": 1039,
      "Ġcour": 1040,
      "ER": 1041,
      "Ġfam": 1042,
      "ins": 1043,
      "ari": 1044,
      "Ġday": 1045,
      "Ġear": 1046,
      "az": 1047,
      "ST": 1048,
      "ner": 1049,
      "Ġprocess": 1050,
      "enc": 1051,
      "Ġask": 1052,
      "ody": 1053,
      "view": 1054,
      "add": 1055,
      "rib": 1056,
      "riend": 1057,
      "Ġbetter": 1058,
      "less": 1059,
      "ork": 1060,
      "Ġconf": 1061,
      "Ġanother": 1062,
      "201": 1063,
      "Ġval": 1064,
      "Ġput": 1065,
      "Ġcomment": 1066,
      "ĠAmeric": 1067,
      "Ġexpl": 1068,
      "ize": 1069,
      "ways": 1070,
      "ern": 1071,
      "ĠShe": 1072,
      "vern": 1073,
      "ample": 1074,
      "any": 1075,
      "Ġperson": 1076,
      "gan": 1077,
      "Ġcle": 1078,
      "Ġwithout": 1079,
      "Ġsays": 1080,
      "Ġfoll": 1081,
      "uck": 1082,
      "Ġfound": 1083,
      "Ġwhy": 1084,
      "gg": 1085,
      "Ġfr": 1086,
      "ĠAl": 1087,
      "ĠCom": 1088,
      "con": 1089,
      "ĠAs": 1090,
      "ĠThere": 1091,
      "ouse": 1092,
      "ational": 1093,
      "Ġsol": 1094,
      "ield": 1095,
      "Ġaut": 1096,
      "Ġthing": 1097,
      "Ġmov": 1098,
      "Ġcome": 1099,
      "Ġpass": 1100,
      "Ġlar": 1101,
      "Ġsecond": 1102,
      "vice": 1103,
      "ash": 1104,
      "Ġgl": 1105,
      "Ġed": 1106,
      "Ġthought": 1107,
      "Ġdoesn": 1108,
      "ness": 1109,
      "Ġlet": 1110,
      "=\"": 1111,
      "io": 1112,
      "Ġwar": 1113,
      "ists": 1114,
      "ense": 1115,
      "Ġdirect": 1116,
      "Ġlife": 1117,
      "Ġbelie": 1118,
      "ik": 1119,
      "Ġbest": 1120,
      "Ġposs": 1121,
      "Ġcontro": 1122,
      "Ġkeep": 1123,
      "ient": 1124,
      "ared": 1125,
      "iness": 1126,
      "Ġev": 1127,
      "ters": 1128,
      "pped": 1129,
      "ĊĠĠĠĠĠ": 1130,
      "Ġcre": 1131,
      "ĠNew": 1132,
      "Ġtell": 1133,
      "Ġold": 1134,
      "Ġelect": 1135,
      "Ġhome": 1136,
      "erest": 1137,
      "You": 1138,
      "Ġ.": 1139,
      "ines": 1140,
      "Ġdr": 1141,
      "chool": 1142,
      "ures": 1143,
      "ĠFor": 1144,
      "Ġclass": 1145,
      "Ġgiv": 1146,
      "here": 1147,
      "ĠBr": 1148,
      "Ġagainst": 1149,
      "Ġwater": 1150,
      "Ġdata": 1151,
      "ng": 1152,
      "Ġthough": 1153,
      "Ġeas": 1154,
      "âĢĶ": 1155,
      "oad": 1156,
      "ten": 1157,
      "Ġsk": 1158,
      "Ġsure": 1159,
      "Ġcharact": 1160,
      "Ġ#": 1161,
      "cc": 1162,
      "ired": 1163,
      "Ġpartic": 1164,
      "Ġwee": 1165,
      "Ġ12": 1166,
      "to": 1167,
      "err": 1168,
      "Ġprodu": 1169,
      "Ġexper": 1170,
      "Ġchild": 1171,
      "Ġenough": 1172,
      "der": 1173,
      "Ġide": 1174,
      "arch": 1175,
      "aug": 1176,
      "gram": 1177,
      "ĊĠĠĠĠĠĠĠĠ": 1178,
      "Ġel": 1179,
      "ĠSo": 1180,
      "osed": 1181,
      "Ġey": 1182,
      "><": 1183,
      "nce": 1184,
      "Ġstand": 1185,
      "Ġalways": 1186,
      "Ġresult": 1187,
      "Ġbit": 1188,
      "Ġthree": 1189,
      "Ġinf": 1190,
      "ĠHar": 1191,
      "ience": 1192,
      "//": 1193,
      "Ġdist": 1194,
      "share": 1195,
      "Ġsince": 1196,
      "Ġwom": 1197,
      "ĠCl": 1198,
      "Ġsmall": 1199,
      "Ġbig": 1200,
      "ane": 1201,
      "ately": 1202,
      "Ġcell": 1203,
      "ĠWhat": 1204,
      "Ġgovern": 1205,
      "Ġactually": 1206,
      "ton": 1207,
      "Ġtri": 1208,
      "ined": 1209,
      "Ġfriend": 1210,
      "ĊĊĊ": 1211,
      "hod": 1212,
      "Ġav": 1213,
      "rent": 1214,
      "Ġdri": 1215,
      "Ġlead": 1216,
      "Ġbo": 1217,
      "ruct": 1218,
      "ale": 1219,
      "ON": 1220,
      "iver": 1221,
      "improve": 1222,
      "duc": 1223,
      "und": 1224,
      "Ġpict": 1225,
      "ertain": 1226,
      "ator": 1227,
      "Ġmean": 1228,
      "Ġdisc": 1229,
      "Ġpost": 1230,
      "ized": 1231,
      "Ġdep": 1232,
      "aj": 1233,
      "Ġaway": 1234,
      "Ġloc": 1235,
      "Ġconst": 1236,
      "Ġmust": 1237,
      "Ġleft": 1238,
      "arent": 1239,
      "Ġinterest": 1240,
      "Ġresp": 1241,
      "velop": 1242,
      "rop": 1243,
      "Ġlevel": 1244,
      "Ġimport": 1245,
      "Ġnext": 1246,
      "chn": 1247,
      "Ġkind": 1248,
      "ling": 1249,
      "Ġcare": 1250,
      "Ġtest": 1251,
      "Ġsimp": 1252,
      "Ġopen": 1253,
      "Ġteam": 1254,
      "Ġpower": 1255,
      "Ġgroup": 1256,
      "Ġrest": 1257,
      "Ġstud": 1258,
      "Ġ18": 1259,
      "ement": 1260,
      "ric": 1261,
      "uff": 1262,
      "ats": 1263,
      "iting": 1264,
      "ĠIs": 1265,
      "--": 1266,
      "Ġcase": 1267,
      "ets": 1268,
      "Ġplace": 1269,
      "me": 1270,
      "Ġless": 1271,
      "Ġhappen": 1272,
      "Ġbus": 1273,
      "ider": 1274,
      "Ġunt": 1275,
      "app": 1276,
      "ision": 1277,
      "att": 1278,
      "Ġpar": 1279,
      "ither": 1280,
      "Ġinform": 1281,
      "Ġlight": 1282,
      "Ġshow": 1283,
      "Ġiss": 1284,
      "Ġsw": 1285,
      "tt": 1286,
      "atter": 1287,
      "stand": 1288,
      "oney": 1289,
      "Ġword": 1290,
      "Ġrecord": 1291,
      "11": 1292,
      "Ġfar": 1293,
      "Ġmain": 1294,
      "ross": 1295,
      "ption": 1296,
      "Ġmed": 1297,
      "Ġ20": 1298,
      "ĠLe": 1299,
      "ohn": 1300,
      "Ġnumber": 1301,
      "RE": 1302,
      "cent": 1303,
      "Ġtimes": 1304,
      "ains": 1305,
      "oss": 1306,
      "iet": 1307,
      "Ġtalk": 1308,
      "Ġgive": 1309,
      "Ġprogram": 1310,
      "13": 1311,
      "200": 1312,
      "ĠQ": 1313,
      "Ġbeh": 1314,
      "ott": 1315,
      "ention": 1316,
      "ĠNo": 1317,
      "Ġstate": 1318,
      "Ġdesign": 1319,
      "Ġexample": 1320,
      "ars": 1321,
      "reen": 1322,
      "Ġbook": 1323,
      "put": 1324,
      "Ġ{": 1325,
      "Ġart": 1326,
      "ology": 1327,
      "Ġeffect": 1328,
      "land": 1329,
      "Ġname": 1330,
      "Ġever": 1331,
      "ready": 1332,
      "Ġreturn": 1333,
      "Ġca": 1334,
      "ope": 1335,
      "uss": 1336,
      "lease": 1337,
      "ument": 1338,
      "Ġuntil": 1339,
      "ality": 1340,
      "orn": 1341,
      "Ġpicture": 1342,
      "19": 1343,
      "ced": 1344,
      "ier": 1345,
      "Ġschool": 1346,
      "Ġdeath": 1347,
      "Ġreason": 1348,
      "Ġanything": 1349,
      "ps": 1350,
      "Ġprob": 1351,
      "AL": 1352,
      "What": 1353,
      "Ġcalled": 1354,
      "Ġgovernment": 1355,
      "This": 1356,
      "Ġdevelop": 1357,
      "ained": 1358,
      "Ġ11": 1359,
      "vious": 1360,
      "Ġcontin": 1361,
      "ember": 1362,
      "000": 1363,
      "oun": 1364,
      "ration": 1365,
      "Ġcontrol": 1366,
      "\".": 1367,
      "ĠZ": 1368,
      "inal": 1369,
      "Ġsupport": 1370,
      "ished": 1371,
      "Ġduring": 1372,
      "Ġcode": 1373,
      "ĠMay": 1374,
      "illion": 1375,
      "Ġleg": 1376,
      "ret": 1377,
      "Ġmeas": 1378,
      "ault": 1379,
      "Ġtra": 1380,
      "Ġ15": 1381,
      "We": 1382,
      "bers": 1383,
      "gy": 1384,
      "Ġopp": 1385,
      "Ġmonth": 1386,
      "aid": 1387,
      "ery": 1388,
      "ories": 1389,
      "Ġmus": 1390,
      "Ġ^": 1391,
      "St": 1392,
      "Ġsing": 1393,
      "Ġsim": 1394,
      "Ġfile": 1395,
      "Ġmoney": 1396,
      "min": 1397,
      "Ġterm": 1398,
      "Ġlove": 1399,
      "Ġchang": 1400,
      "Ġchange": 1401,
      "Ġalready": 1402,
      "alth": 1403,
      "Ġtop": 1404,
      "Ġele": 1405,
      "Ġtype": 1406,
      "med": 1407,
      "Ġlarge": 1408,
      "by": 1409,
      "ĠX": 1410,
      "Ġbas": 1411,
      "Ġpast": 1412,
      "aring": 1413,
      "ides": 1414,
      "raph": 1415,
      "Ġleast": 1416,
      "AR": 1417,
      "sc": 1418,
      "Ġ:": 1419,
      "Ġoper": 1420,
      "Ġlist": 1421,
      "Ġsuc": 1422,
      "If": 1423,
      "ony": 1424,
      "Ġjob": 1425,
      "Ġline": 1426,
      "Ġfunction": 1427,
      "27": 1428,
      "Ġoil": 1429,
      "Ġpop": 1430,
      "Ġdem": 1431,
      "Ġisn": 1432,
      "Ġdoing": 1433,
      "Ġcourse": 1434,
      "Ġfamily": 1435,
      "oice": 1436,
      "Ġdone": 1437,
      "Ġdays": 1438,
      "Ġ13": 1439,
      "Ġmethod": 1440,
      "Ġimportant": 1441,
      "hip": 1442,
      "Ġet": 1443,
      ".[": 1444,
      "ium": 1445,
      "Ġvers": 1446,
      "Ġbad": 1447,
      "alf": 1448,
      "ĠOr": 1449,
      "Ġtry": 1450,
      "Ġcommun": 1451,
      "Ġbuild": 1452,
      "ned": 1453,
      "ids": 1454,
      "ĠAll": 1455,
      "ush": 1456,
      "Ġvide": 1457,
      "Ġcurrent": 1458,
      "atic": 1459,
      "ently": 1460,
      "ource": 1461,
      "Ġroom": 1462,
      "Ġunderstand": 1463,
      "Ġpolit": 1464,
      ");": 1465,
      "Ġsomeone": 1466,
      "dd": 1467,
      "ny": 1468,
      "Ġable": 1469,
      "aps": 1470,
      "Ġtechn": 1471,
      "Ġincre": 1472,
      "ream": 1473,
      "ĠWhen": 1474,
      "Ġprobably": 1475,
      "Ġbre": 1476,
      "ley": 1477,
      "Ġlaw": 1478,
      "Ġtrying": 1479,
      "bl": 1480,
      "ext": 1481,
      "work": 1482,
      "Ġhum": 1483,
      "Ġnight": 1484,
      "aining": 1485,
      "Ġpret": 1486,
      "line": 1487,
      "Ġface": 1488,
      "Ġpublic": 1489,
      "ided": 1490,
      "Ġinformation": 1491,
      "ched": 1492,
      "Ġsoc": 1493,
      "Ġfree": 1494,
      "ending": 1495,
      "\">": 1496,
      "Ġfull": 1497,
      "Ġmark": 1498,
      "://": 1499,
      "ref": 1500,
      "vices": 1501,
      "urch": 1502,
      "Ġhaving": 1503,
      "Ġweek": 1504,
      "aim": 1505,
      "ted": 1506,
      "ering": 1507,
      "Ġcame": 1508,
      "Ġpay": 1509,
      "Ġprot": 1510,
      "ware": 1511,
      "Ġcost": 1512,
      "Ġequ": 1513,
      "Ġstory": 1514,
      "idd": 1515,
      "ĠSp": 1516,
      "Ġkill": 1517,
      "nect": 1518,
      "ron": 1519,
      "eng": 1520,
      "ump": 1521,
      "ants": 1522,
      "....": 1523,
      "used": 1524,
      "ency": 1525,
      "Ġeyes": 1526,
      "Ġmom": 1527,
      "ama": 1528,
      "Ġaccept": 1529,
      "48": 1530,
      "But": 1531,
      "ok": 1532,
      "Ġbusiness": 1533,
      "not": 1534,
      "Ġside": 1535,
      "Ġmove": 1536,
      "utes": 1537,
      "ĠUS": 1538,
      "Ġreport": 1539,
      "Ġnear": 1540,
      "Ġcertain": 1541,
      "Ġonce": 1542,
      "els": 1543,
      "Ġcomplete": 1544,
      "Ġbelieve": 1545,
      "Ġoften": 1546,
      "ĠPro": 1547,
      "Ġ/": 1548,
      "Ġsit": 1549,
      "Ġpat": 1550,
      "Ġnothing": 1551,
      "Ġexpect": 1552,
      "Ġsal": 1553,
      "Ġmakes": 1554,
      "Ġgetting": 1555,
      "Ġoffic": 1556,
      "Ġhour": 1557,
      "Ġ14": 1558,
      "Ġ16": 1559,
      "Ġtook": 1560,
      "side": 1561,
      "Ġwon": 1562,
      "âĢĵ": 1563,
      "ajor": 1564,
      "Ġap": 1565,
      "ital": 1566,
      "Ġeither": 1567,
      "Ġidea": 1568,
      "ged": 1569,
      "Ġmil": 1570,
      "ĠBl": 1571,
      "Ġvote": 1572,
      "ization": 1573,
      "Ġ+": 1574,
      "edit": 1575,
      "Ġtold": 1576,
      "ured": 1577,
      "Ġlooking": 1578,
      "Ġcountry": 1579,
      "oint": 1580,
      "yle": 1581,
      "Ġwa": 1582,
      "Ġhold": 1583,
      "ustom": 1584,
      "Ġview": 1585,
      "ploy": 1586,
      "Ġlater": 1587,
      "irc": 1588,
      "There": 1589,
      "rist": 1590,
      "Ġago": 1591,
      "Ġperform": 1592,
      "Ġproduct": 1593,
      ".;": 1594,
      "Re": 1595,
      "iqu": 1596,
      "row": 1597,
      "Ġmaking": 1598,
      "ĠMar": 1599,
      "ĠRep": 1600,
      "ials": 1601,
      "wards": 1602,
      "IN": 1603,
      "ole": 1604,
      "yn": 1605,
      "outh": 1606,
      "Ġelse": 1607,
      "Ġ&": 1608,
      "itor": 1609,
      "ional": 1610,
      "ird": 1611,
      "Ġmeans": 1612,
      "Ġcharacter": 1613,
      "->": 1614,
      "23": 1615,
      "He": 1616,
      "Ġpri": 1617,
      "ĠSam": 1618,
      "Ġsever": 1619,
      "ounds": 1620,
      "Ġpretty": 1621,
      "Ġ\\": 1622,
      "umb": 1623,
      "Ġquick": 1624,
      "Ġapplic": 1625,
      "aper": 1626,
      "Ġtoget": 1627,
      "uth": 1628,
      "Ġtogether": 1629,
      "ms": 1630,
      "ilar": 1631,
      "Ġorder": 1632,
      "ĠOn": 1633,
      "Ġchildren": 1634,
      "file": 1635,
      "ivers": 1636,
      "ler": 1637,
      "Ġgames": 1638,
      "ĠBe": 1639,
      "Ġvis": 1640,
      "Ġsignal": 1641,
      "Ġwomen": 1642,
      "!!": 1643,
      "50": 1644,
      "ox": 1645,
      "wh": 1646,
      "Ġocc": 1647,
      "Ġclear": 1648,
      "Ġpossible": 1649,
      "Wh": 1650,
      "most": 1651,
      "ww": 1652,
      "ung": 1653,
      "Ġwin": 1654,
      "Ġwent": 1655,
      "ĠAt": 1656,
      "irl": 1657,
      "Ġbased": 1658,
      "Ġhist": 1659,
      "ĠĠĠĠĠĠĠ": 1660,
      "As": 1661,
      "Ġfre": 1662,
      "Ġnon": 1663,
      "Ġlink": 1664,
      "aces": 1665,
      "Ġplan": 1666,
      "Ġseveral": 1667,
      "20": 1668,
      "par": 1669,
      "Ġtem": 1670,
      "Ġpot": 1671,
      "ĠJohn": 1672,
      "Ġwhole": 1673,
      "Ġmult": 1674,
      "Ġstat": 1675,
      "ĠPl": 1676,
      "na": 1677,
      "Ġcut": 1678,
      "Ġorig": 1679,
      "Ġtyp": 1680,
      "Ġcent": 1681,
      "Ġtoday": 1682,
      "Ġrece": 1683,
      "ĠPM": 1684,
      "And": 1685,
      "Ġmar": 1686,
      "Ġlim": 1687,
      "Ġwasn": 1688,
      "Ġ17": 1689,
      "aged": 1690,
      "Ġorgan": 1691,
      "Ġhouse": 1692,
      "aken": 1693,
      "Ġbecome": 1694,
      "ĠHowever": 1695,
      "ĠMy": 1696,
      "Ġdeal": 1697,
      "ĠNot": 1698,
      "ĠEar": 1699,
      "Ġcheck": 1700,
      "Ġspecific": 1701,
      "sp": 1702,
      "ule": 1703,
      "Ġprom": 1704,
      "ĠOb": 1705,
      "Ġmen": 1706,
      "Ġlow": 1707,
      "ĠIN": 1708,
      "ĠDo": 1709,
      "Ġfollowing": 1710,
      "Ġvideo": 1711,
      "\",": 1712,
      "ike": 1713,
      "orth": 1714,
      "Ġstop": 1715,
      "ĠEx": 1716,
      "Ġuser": 1717,
      "mb": 1718,
      "itive": 1719,
      "Ġdra": 1720,
      "Ġyet": 1721,
      "ulation": 1722,
      "Ġworking": 1723,
      "iverse": 1724,
      "mm": 1725,
      "of": 1726,
      "use": 1727,
      "anks": 1728,
      "ases": 1729,
      "Ġconc": 1730,
      "ĠFr": 1731,
      "rew": 1732,
      "Ġfour": 1733,
      "Ġfail": 1734,
      "Ġreview": 1735,
      "Ġpresent": 1736,
      "cri": 1737,
      "eb": 1738,
      "Ġes": 1739,
      "Ġfight": 1740,
      "Ġfield": 1741,
      "owed": 1742,
      "ĠAmerican": 1743,
      "Ġest": 1744,
      "isc": 1745,
      "ives": 1746,
      "Ġcomput": 1747,
      "Ġaff": 1748,
      "Ġbody": 1749,
      "Ġmind": 1750,
      "my": 1751,
      "Ġmag": 1752,
      "Ġshort": 1753,
      "Ġobject": 1754,
      "Ġgiven": 1755,
      "Ġsingle": 1756,
      "gin": 1757,
      "over": 1758,
      "Ġmess": 1759,
      "Ġmajor": 1760,
      "oto": 1761,
      "ified": 1762,
      "ability": 1763,
      "Ġsugg": 1764,
      "Ġseems": 1765,
      "Ġfiles": 1766,
      "conom": 1767,
      "ior": 1768,
      "Ġhalf": 1769,
      "Ġrather": 1770,
      "Ġsuggest": 1771,
      "Ġ,": 1772,
      "icle": 1773,
      "Ġvari": 1774,
      "Ġarg": 1775,
      "Ġadv": 1776,
      "Ġmusic": 1777,
      ".,": 1778,
      "Ġ}": 1779,
      "Ġmater": 1780,
      "Ġarea": 1781,
      "unch": 1782,
      "acks": 1783,
      "ges": 1784,
      "gle": 1785,
      "Ġcap": 1786,
      "ister": 1787,
      "Ġbar": 1788,
      "ural": 1789,
      "ended": 1790,
      "Ġeng": 1791,
      "Ġparticular": 1792,
      "15": 1793,
      "ially": 1794,
      "erv": 1795,
      "Ġopt": 1796,
      "Ġpress": 1797,
      "ĠPr": 1798,
      "ĠPres": 1799,
      "for": 1800,
      "Ġsens": 1801,
      "ĠAb": 1802,
      "ĠMake": 1803,
      "ĠGr": 1804,
      "Ġ199": 1805,
      "lf": 1806,
      "Ġve": 1807,
      "ances": 1808,
      "Ġmiss": 1809,
      "aster": 1810,
      "Ġexact": 1811,
      "ury": 1812,
      "ries": 1813,
      "Ġknown": 1814,
      "Ġetc": 1815,
      "Ġsent": 1816,
      "ĠCon": 1817,
      "Ġwithin": 1818,
      "Ġquite": 1819,
      "Ġeverything": 1820,
      "Ġinstall": 1821,
      "AT": 1822,
      "So": 1823,
      "ians": 1824,
      "Ġcal": 1825,
      "ĠTo": 1826,
      "ĠEd": 1827,
      "Ġenc": 1828,
      "Ġappear": 1829,
      "Ġstrong": 1830,
      "ĠEarth": 1831,
      "Ġwatch": 1832,
      "Ġcustom": 1833,
      "Ġpain": 1834,
      "Ġworks": 1835,
      "ĠĠĠĠĠĠĠĠĠĠĠĠĠĠĠĠ": 1836,
      "Ġaccess": 1837,
      "head": 1838,
      "ĠApp": 1839,
      "Ġalong": 1840,
      "Ġinstead": 1841,
      "uro": 1842,
      "Ġtax": 1843,
      "Ġair": 1844,
      "ison": 1845,
      "Ġlear": 1846,
      "Ġclose": 1847,
      "Ġothers": 1848,
      "Ġappro": 1849,
      "Ġasked": 1850,
      "ĠSe": 1851,
      "Ġseen": 1852,
      "Ġsoft": 1853,
      "augh": 1854,
      "Ġbehind": 1855,
      "iter": 1856,
      "Ġrepl": 1857,
      "Ġanyone": 1858,
      "Ġneeded": 1859,
      "ĠChrist": 1860,
      "Ġsaying": 1861,
      "For": 1862,
      "Ġnet": 1863,
      "idence": 1864,
      "Ġstore": 1865,
      "iron": 1866,
      "Ġcomes": 1867,
      "Ġwhether": 1868,
      "ards": 1869,
      "Ġposition": 1870,
      "Ġheart": 1871,
      "ify": 1872,
      "Ġacross": 1873,
      "Ġwrong": 1874,
      "AN": 1875,
      "oid": 1876,
      "rect": 1877,
      "Ġcreat": 1878,
      "oud": 1879,
      "orld": 1880,
      "Ġpie": 1881,
      "amer": 1882,
      "ocr": 1883,
      "Ġclaim": 1884,
      "ailable": 1885,
      "Ġcommon": 1886,
      ".)": 1887,
      "itions": 1888,
      "Ġexist": 1889,
      "Ġproper": 1890,
      "bsp": 1891,
      "ALL": 1892,
      "nbsp": 1893,
      "Ġ*": 1894,
      "ised": 1895,
      "Ġfood": 1896,
      "aker": 1897,
      "angu": 1898,
      "Ġconsider": 1899,
      "Ġincluding": 1900,
      "Ġsimply": 1901,
      "Ġversion": 1902,
      "Ġben": 1903,
      "Ġfore": 1904,
      "Ġhref": 1905,
      "Ġcompany": 1906,
      "Ġamount": 1907,
      "That": 1908,
      "ev": 1909,
      "ral": 1910,
      "Ġz": 1911,
      "Ġmatter": 1912,
      "ĠOne": 1913,
      "ully": 1914,
      "Ġ02": 1915,
      "Ġhuman": 1916,
      "40": 1917,
      "oul": 1918,
      "Ġste": 1919,
      "How": 1920,
      "ĠĊ": 1921,
      "Ġvalue": 1922,
      "ĠINST": 1923,
      "pr": 1924,
      "inc": 1925,
      "ots": 1926,
      "ried": 1927,
      "elt": 1928,
      "Ġservice": 1929,
      "ĠAnswer": 1930,
      "Ġcolor": 1931,
      "fort": 1932,
      "ina": 1933,
      "Ġwind": 1934,
      "acy": 1935,
      "Ġprof": 1936,
      "Ġ30": 1937,
      "itten": 1938,
      "Ġeveryone": 1939,
      "Ġinvest": 1940,
      "Ġsuccess": 1941,
      "Ġpick": 1942,
      "Ġpull": 1943,
      "Ġdam": 1944,
      "ĠSer": 1945,
      "Ġ25": 1946,
      "ived": 1947,
      "Ġimage": 1948,
      "Ġkey": 1949,
      "18": 1950,
      "30": 1951,
      "aced": 1952,
      "Ġconnect": 1953,
      "Ġlive": 1954,
      "itting": 1955,
      "Ġsimilar": 1956,
      "Ġtre": 1957,
      "Ġmillion": 1958,
      "ĠĠĠĠĠ": 1959,
      "Ġimm": 1960,
      "cially": 1961,
      "Ġsense": 1962,
      "Ġeconom": 1963,
      "Ġalmost": 1964,
      "Ġarch": 1965,
      "Ġdefin": 1966,
      "face": 1967,
      "ray": 1968,
      "Ġwond": 1969,
      "Ġmor": 1970,
      "urity": 1971,
      "ends": 1972,
      "like": 1973,
      "60": 1974,
      "Com": 1975,
      "Ġ@": 1976,
      "ones": 1977,
      "Ġcirc": 1978,
      "itch": 1979,
      "Ġparent": 1980,
      "Ġhig": 1981,
      "ĠWith": 1982,
      "Ġsaw": 1983,
      "ails": 1984,
      "Ġfeature": 1985,
      "Ġmarket": 1986,
      "14": 1987,
      "Ġident": 1988,
      "Ġtour": 1989,
      "ination": 1990,
      "Ġevent": 1991,
      "ĠSome": 1992,
      "Ġstruct": 1993,
      "rison": 1994,
      "Ġstarted": 1995,
      "Ġminutes": 1996,
      "fect": 1997,
      "Ġsn": 1998,
      "Ġlog": 1999,
      "ording": 2000,
      "Ġpoints": 2001,
      "Ġmonths": 2002,
      "25": 2003,
      "let": 2004,
      "vert": 2005,
      "ĠCan": 2006,
      "Ġwouldn": 2007,
      "Ġknew": 2008,
      "Ġprovide": 2009,
      "Ġhistory": 2010,
      "ches": 2011,
      "fe": 2012,
      "Ġtaking": 2013,
      "urther": 2014,
      "Ġdeb": 2015,
      "Ġtrue": 2016,
      "ET": 2017,
      "Ġdou": 2018,
      "alt": 2019,
      "ential": 2020,
      "pping": 2021,
      "ĠEuro": 2022,
      "ude": 2023,
      "UR": 2024,
      "fer": 2025,
      "por": 2026,
      "port": 2027,
      "where": 2028,
      "Ġ>": 2029,
      "Ġnorm": 2030,
      "ĠTr": 2031,
      "Ġhealth": 2032,
      "Ġmeet": 2033,
      "Ġproblems": 2034,
      "):": 2035,
      "Ġpract": 2036,
      "Ġant": 2037,
      "Ġred": 2038,
      "urs": 2039,
      "Ġris": 2040,
      "ĠGe": 2041,
      "Ġphone": 2042,
      "ĠWhy": 2043,
      "ape": 2044,
      "arm": 2045,
      "Ġdi": 2046,
      "ication": 2047,
      "Ġhimself": 2048,
      "Ġavailable": 2049,
      "Ġmoment": 2050,
      "></": 2051,
      "Ġbro": 2052,
      "Ġhit": 2053,
      "ĠSc": 2054,
      "ĠMr": 2055,
      "Ġliving": 2056,
      "avor": 2057,
      "Ġwanted": 2058,
      "ĠDean": 2059,
      "Ġpresident": 2060,
      "2014": 2061,
      "Ġexperience": 2062,
      "Ġhours": 2063,
      "oke": 2064,
      "pris": 2065,
      "Ġfig": 2066,
      "Ġfather": 2067,
      "Ġport": 2068,
      "though": 2069,
      "Ġgrow": 2070,
      "ibility": 2071,
      "Ġhands": 2072,
      "Ġrunning": 2073,
      "Ġturned": 2074,
      "tr": 2075,
      "Ġpage": 2076,
      "Ġhy": 2077,
      "Ġlangu": 2078,
      "Ġgirl": 2079,
      "ĠSy": 2080,
      "Ġvol": 2081,
      "ĠĠĠĠĠĠĠĠĠ": 2082,
      "Ġ=>": 2083,
      "ober": 2084,
      "ze": 2085,
      "Ġsort": 2086,
      "Ġcamp": 2087,
      "lement": 2088,
      "Ġrese": 2089,
      "ĠCol": 2090,
      "ĠDem": 2091,
      "Ġearly": 2092,
      "Ġprotect": 2093,
      "ills": 2094,
      "ĠPh": 2095,
      "ands": 2096,
      "ĠJew": 2097,
      "play": 2098,
      "ĠStates": 2099,
      "Ġentire": 2100,
      "Ġwords": 2101,
      "Ġbreak": 2102,
      "item": 2103,
      "Ġdue": 2104,
      "Ġstay": 2105,
      "ille": 2106,
      "Ġabs": 2107,
      "Ġsuper": 2108,
      "Ġeasy": 2109,
      "Ġfriends": 2110,
      "Ph": 2111,
      "Your": 2112,
      "Ġ...": 2113,
      "reet": 2114,
      "Ġstep": 2115,
      "Ġself": 2116,
      "Ġ21": 2117,
      "Ġneeds": 2118,
      "Ġlocal": 2119,
      "miss": 2120,
      "Ġtaken": 2121,
      "arr": 2122,
      "Ġnice": 2123,
      "Ġcoming": 2124,
      "Ġ23": 2125,
      "pecially": 2126,
      "Ġinvol": 2127,
      "Ġdrive": 2128,
      "ĠPresident": 2129,
      "Ġcoup": 2130,
      "Ġcond": 2131,
      "pper": 2132,
      "Ġvot": 2133,
      "Ġlikely": 2134,
      "ips": 2135,
      "Ġtext": 2136,
      "Ġaddress": 2137,
      "ĠEurope": 2138,
      "When": 2139,
      "Ġsound": 2140,
      "Ġbott": 2141,
      "Ġmach": 2142,
      "Ġtot": 2143,
      "Ġinit": 2144,
      "Ġheard": 2145,
      "ĠEng": 2146,
      "Ġ2012": 2147,
      "ĠUnited": 2148,
      "uation": 2149,
      "Ġcult": 2150,
      "ences": 2151,
      "Ġfut": 2152,
      "Ġann": 2153,
      "Ġrele": 2154,
      "Ġyoung": 2155,
      "Ġstyle": 2156,
      "ney": 2157,
      "Ġremember": 2158,
      "Ġcells": 2159,
      "Ġissues": 2160,
      "By": 2161,
      "lish": 2162,
      "ster": 2163,
      "ĠTe": 2164,
      "Ġitself": 2165,
      "ĠHis": 2166,
      "Ġ22": 2167,
      "antly": 2168,
      "Ġlooked": 2169,
      "Ġissue": 2170,
      "Ġmeasure": 2171,
      "more": 2172,
      "Ġmot": 2173,
      "Ġhope": 2174,
      "Ġrad": 2175,
      "ules": 2176,
      "ĠJan": 2177,
      "itional": 2178,
      "Ġlonger": 2179,
      "LI": 2180,
      "Ġtakes": 2181,
      "Ġfive": 2182,
      "ĠSu": 2183,
      "ĠChe": 2184,
      "Ġdead": 2185,
      "ivid": 2186,
      "Ġquestions": 2187,
      "Ġemploy": 2188,
      "Ġcreate": 2189,
      "17": 2190,
      "apt": 2191,
      "bo": 2192,
      "oe": 2193,
      "Ġtool": 2194,
      "arget": 2195,
      "ctions": 2196,
      "Ġexcept": 2197,
      "ĠFl": 2198,
      "iple": 2199,
      "selves": 2200,
      "Ġbring": 2201,
      "error": 2202,
      "An": 2203,
      "Ġcook": 2204,
      "Ġfall": 2205,
      "Ġep": 2206,
      "ĠMan": 2207,
      "Ġdoc": 2208,
      "Ġoutside": 2209,
      "Ġspecial": 2210,
      "Ġfront": 2211,
      "pro": 2212,
      "Ġfoot": 2213,
      "Ġmother": 2214,
      "lling": 2215,
      "amed": 2216,
      "ĠAm": 2217,
      "istic": 2218,
      "ĠNow": 2219,
      "Ġabove": 2220,
      "oci": 2221,
      "oved": 2222,
      "Ġsimple": 2223,
      "Ġexactly": 2224,
      "!\"": 2225,
      "16": 2226,
      "24": 2227,
      "ging": 2228,
      "arl": 2229,
      "ples": 2230,
      "Ġhowever": 2231,
      "Ġdeterm": 2232,
      "Ġcorrect": 2233,
      "ĠObama": 2234,
      "AS": 2235,
      "body": 2236,
      "Ġcop": 2237,
      "ĠInd": 2238,
      "ĠWorld": 2239,
      "Ġvar": 2240,
      "ogn": 2241,
      "Ġtried": 2242,
      "ĠRepublic": 2243,
      "Ġapplication": 2244,
      "45": 2245,
      "PE": 2246,
      "Ġwalk": 2247,
      "ouch": 2248,
      "ĊĊĊĊ": 2249,
      "ively": 2250,
      "Ġspace": 2251,
      "Ġresults": 2252,
      "Ġconcern": 2253,
      "net": 2254,
      "ÃĹ": 2255,
      "Ġtit": 2256,
      "Ġboy": 2257,
      "Ġpaper": 2258,
      "str": 2259,
      "Ġstri": 2260,
      "Ġwhite": 2261,
      "ables": 2262,
      "Ġcannot": 2263,
      "ĠJun": 2264,
      "Ġcouple": 2265,
      "Al": 2266,
      "Ch": 2267,
      "che": 2268,
      "light": 2269,
      "ma": 2270,
      "pos": 2271,
      "Ġswe": 2272,
      "icro": 2273,
      "ĠSen": 2274,
      "Ġstuff": 2275,
      "empt": 2276,
      "ĠThese": 2277,
      "Ġcouldn": 2278,
      "Ġmaybe": 2279,
      "Ġwrite": 2280,
      "Ġrequire": 2281,
      "Ġinside": 2282,
      "Ġcontinu": 2283,
      "Ġpolitical": 2284,
      "iddle": 2285,
      "bor": 2286,
      "gs": 2287,
      "hor": 2288,
      "haps": 2289,
      "oes": 2290,
      "Ġfund": 2291,
      "Ġhor": 2292,
      "Ġra": 2293,
      "Ġcomb": 2294,
      "Ġsepar": 2295,
      "ateg": 2296,
      "ume": 2297,
      "ĠJust": 2298,
      "aving": 2299,
      "Ġparty": 2300,
      "Ġcrit": 2301,
      "Ġcomplex": 2302,
      "Ġhappened": 2303,
      "Ġcomputer": 2304,
      "No": 2305,
      "Ġtreat": 2306,
      "Ġdark": 2307,
      "Ġhtt": 2308,
      "Ġintern": 2309,
      "ached": 2310,
      "Ġkids": 2311,
      "Ġ448": 2312,
      "Ġaccount": 2313,
      "Ġcharacters": 2314,
      "Ġquickly": 2315,
      "kn": 2316,
      "nal": 2317,
      "uit": 2318,
      "Ġaud": 2319,
      "Ġsource": 2320,
      "Ġbase": 2321,
      "Ġanal": 2322,
      "Ġhon": 2323,
      "asing": 2324,
      "ams": 2325,
      "âĢľ": 2326,
      "Ġserver": 2327,
      "Ġseries": 2328,
      "Thu": 2329,
      "cle": 2330,
      "lim": 2331,
      "reg": 2332,
      "Ġsite": 2333,
      "Ġdest": 2334,
      "ĠAM": 2335,
      "ĠWell": 2336,
      "Ġdoor": 2337,
      "Ġsoon": 2338,
      "Ġenv": 2339,
      "izing": 2340,
      "Ġcontent": 2341,
      "',": 2342,
      "mit": 2343,
      "Ġcamer": 2344,
      "ene": 2345,
      "ĠMc": 2346,
      "Ġrate": 2347,
      "opt": 2348,
      "Ġproject": 2349,
      "Ġleave": 2350,
      "Ġcompet": 2351,
      "duced": 2352,
      "Ġfuture": 2353,
      "22": 2354,
      "Ġfill": 2355,
      "Ġlost": 2356,
      "ĠAd": 2357,
      "ift": 2358,
      "oose": 2359,
      "Ġusually": 2360,
      "Ġmodel": 2361,
      "Ġcourt": 2362,
      "Ġoriginal": 2363,
      ".âĢĿ": 2364,
      "Ġcra": 2365,
      "Ġcause": 2366,
      "Ġfelt": 2367,
      "Ġload": 2368,
      "olution": 2369,
      "Ġ24": 2370,
      "Ġjud": 2371,
      "Ġgoes": 2372,
      "resent": 2373,
      "oogle": 2374,
      "Ġpercent": 2375,
      "Ġactiv": 2376,
      "Ġadded": 2377,
      "Ġguess": 2378,
      "Ġsignific": 2379,
      "Ex": 2380,
      "ae": 2381,
      "ai": 2382,
      "load": 2383,
      "iding": 2384,
      "ĠMet": 2385,
      "ensive": 2386,
      "Ġprim": 2387,
      "Ġlooks": 2388,
      "Ġformat": 2389,
      "Ġgeneral": 2390,
      "Ġchanges": 2391,
      "Ġhigher": 2392,
      "80": 2393,
      "val": 2394,
      "Ġpack": 2395,
      "icult": 2396,
      "omes": 2397,
      "ĠAug": 2398,
      "Ġvoice": 2399,
      "inding": 2400,
      "action": 2401,
      "Ġener": 2402,
      "ubl": 2403,
      "Ġbuy": 2404,
      "Ġguy": 2405,
      "ĠHarrison": 2406,
      "Ġdiscuss": 2407,
      "Ġcompletely": 2408,
      "BR": 2409,
      "de": 2410,
      "iol": 2411,
      "Ġobs": 2412,
      "acing": 2413,
      "osp": 2414,
      "Ġtrad": 2415,
      "ffic": 2416,
      "ĠUs": 2417,
      "Ġgets": 2418,
      "Ġblack": 2419,
      "Ġinteresting": 2420,
      "ĠQu": 2421,
      "Ġparents": 2422,
      "fully": 2423,
      "mp": 2424,
      "Ġnecess": 2425,
      "ĠOct": 2426,
      "Ġperfect": 2427,
      "anger": 2428,
      "MI": 2429,
      "itary": 2430,
      "Ġfine": 2431,
      "eder": 2432,
      "Ġmention": 2433,
      "ĠThen": 2434,
      "Post": 2435,
      "ming": 2436,
      "zz": 2437,
      "Ġlab": 2438,
      "eter": 2439,
      "irt": 2440,
      "ilt": 2441,
      "Ġseason": 2442,
      "erence": 2443,
      "ension": 2444,
      "Ġcover": 2445,
      "aff": 2446,
      "cy": 2447,
      "time": 2448,
      "Ġcere": 2449,
      "Ġbegin": 2450,
      "ources": 2451,
      "Ġserious": 2452,
      "Ġdetect": 2453,
      "Ġmembers": 2454,
      "ĠHarry": 2455,
      "SI": 2456,
      "joy": 2457,
      "Ġfix": 2458,
      "Ġland": 2459,
      "ĠWill": 2460,
      "ival": 2461,
      "Ġcompon": 2462,
      "ression": 2463,
      "Ġflo": 2464,
      "Ġsometimes": 2465,
      "Ġbenef": 2466,
      "ĠGeor": 2467,
      "cer": 2468,
      "ran": 2469,
      "Ġsize": 2470,
      "Ġball": 2471,
      "Ġnames": 2472,
      "acle": 2473,
      "ournal": 2474,
      "Ġblood": 2475,
      "Ġdifficult": 2476,
      "Ġrespons": 2477,
      "56": 2478,
      "My": 2479,
      "OR": 2480,
      "Take": 2481,
      "ara": 2482,
      "Ġhop": 2483,
      "ĠSec": 2484,
      "Ġcompl": 2485,
      "ĠGod": 2486,
      "Ġtalking": 2487,
      "Ġaccepted": 2488,
      "Ġespecially": 2489,
      "EN": 2490,
      "mber": 2491,
      "uge": 2492,
      "word": 2493,
      "hent": 2494,
      "Ġcred": 2495,
      "ites": 2496,
      "ask": 2497,
      "ĠBy": 2498,
      "htt": 2499,
      "ĠWar": 2500,
      "ĠâĢĶ": 2501,
      "ogs": 2502,
      "Ġnews": 2503,
      "ecause": 2504,
      "Ġattack": 2505,
      "Ġarticle": 2506,
      "Ġsocial": 2507,
      "Ġlanguage": 2508,
      "ĠDemocr": 2509,
      "29": 2510,
      "bit": 2511,
      "onse": 2512,
      "Ġcoun": 2513,
      "ashing": 2514,
      "ament": 2515,
      "ĠPer": 2516,
      "aint": 2517,
      "aves": 2518,
      "Ġcommand": 2519,
      "Ġimmig": 2520,
      "Ġenviron": 2521,
      "Ġenergy": 2522,
      "Ġcity": 2523,
      "ades": 2524,
      "Ġcomments": 2525,
      "ĠPe": 2526,
      "Ġupd": 2527,
      "Ġamong": 2528,
      "Ġclean": 2529,
      "bb": 2530,
      "iod": 2531,
      "ires": 2532,
      "right": 2533,
      "reme": 2534,
      "ann": 2535,
      "Ġfurther": 2536,
      "Ġla": 2537,
      "Ġbegan": 2538,
      "Ġyes": 2539,
      "Ġund": 2540,
      "ĠMe": 2541,
      "Ġplayers": 2542,
      "duct": 2543,
      "Ġpolic": 2544,
      "Ġcolle": 2545,
      "Ġsolution": 2546,
      "Con": 2547,
      "Sh": 2548,
      "Ġop": 2549,
      "Ġgen": 2550,
      "key": 2551,
      "ager": 2552,
      "oph": 2553,
      "Ġlibr": 2554,
      "Ġyourself": 2555,
      "Ġbecame": 2556,
      "Ġattempt": 2557,
      "Ġstandard": 2558,
      "Ġwoman": 2559,
      "viously": 2560,
      "Ġfrequ": 2561,
      "Ġpiece": 2562,
      "ĠINSTALL": 2563,
      "DI": 2564,
      "gest": 2565,
      "ken": 2566,
      "oon": 2567,
      "Ġwall": 2568,
      "Ġmass": 2569,
      "Ġhol": 2570,
      "ĠAfter": 2571,
      "ĠMus": 2572,
      "ague": 2573,
      "ĠWind": 2574,
      "ored": 2575,
      "Ġdevice": 2576,
      "Ġthemselves": 2577,
      "Ġphys": 2578,
      "ification": 2579,
      "Ġreading": 2580,
      "Ġ2011": 2581,
      "Ġpolice": 2582,
      "ĠAmerica": 2583,
      "ique": 2584,
      "Ġmaterial": 2585,
      "aut": 2586,
      "eed": 2587,
      "Ġtable": 2588,
      "Ġaction": 2589,
      "rest": 2590,
      "Ġfair": 2591,
      "ĠDon": 2592,
      "ĠJul": 2593,
      "Ġmemory": 2594,
      "OM": 2595,
      "fl": 2596,
      "go": 2597,
      "Ġage": 2598,
      "Ġpan": 2599,
      "Ġthird": 2600,
      "ili": 2601,
      "ilities": 2602,
      "Ġsearch": 2603,
      "unk": 2604,
      "Ġexec": 2605,
      "ĠRP": 2606,
      "Ġtrack": 2607,
      "Ġagree": 2608,
      "ĠYork": 2609,
      "Ġoffice": 2610,
      "Ġground": 2611,
      "Ġindivid": 2612,
      "Ġinclude": 2613,
      "99": 2614,
      "son": 2615,
      "Ġsus": 2616,
      "Ġbur": 2617,
      "Ġgraph": 2618,
      "ctor": 2619,
      "They": 2620,
      "Ġenjoy": 2621,
      "Ġappe": 2622,
      "Ġbrother": 2623,
      "Ġplaying": 2624,
      "Ġrelig": 2625,
      "Ġsurpris": 2626,
      "Ġeduc": 2627,
      "got": 2628,
      "Ġx": 2629,
      "Ġtarget": 2630,
      "orry": 2631,
      "edia": 2632,
      "Ġhot": 2633,
      "omm": 2634,
      "Ġeat": 2635,
      "Ġstra": 2636,
      "Ġhair": 2637,
      "ĠOh": 2638,
      "Ġspr": 2639,
      "Ġsystems": 2640,
      "Ġconstit": 2641,
      "minute": 2642,
      ",âĢĿ": 2643,
      "09": 2644,
      "nes": 2645,
      "roll": 2646,
      "olic": 2647,
      "Ġweight": 2648,
      "ĠBen": 2649,
      "Ġrace": 2650,
      "ĠDec": 2651,
      "Ġusers": 2652,
      "Ġclos": 2653,
      "Ġthinking": 2654,
      "Ġ50": 2655,
      "Ġsecurity": 2656,
      "Ġsubject": 2657,
      "->{": 2658,
      "39": 2659,
      "64": 2660,
      "cb": 2661,
      "math": 2662,
      "Ġver": 2663,
      "Ġsum": 2664,
      "Ġbin": 2665,
      "lex": 2666,
      "rie": 2667,
      "aints": 2668,
      "Ġshot": 2669,
      "ĠGoogle": 2670,
      "Ġrecogn": 2671,
      "Ġdrink": 2672,
      "Ar": 2673,
      "Cl": 2674,
      "ĠÃĹ": 2675,
      "Ġsle": 2676,
      "oring": 2677,
      "Ġgas": 2678,
      "Ġrock": 2679,
      "Ġservices": 2680,
      "Ġwritten": 2681,
      "Ġconsid": 2682,
      "ĠComm": 2683,
      "iety": 2684,
      "Ġdraw": 2685,
      "Ġnetwork": 2686,
      "Ġindividual": 2687,
      "TE": 2688,
      "book": 2689,
      "font": 2690,
      "set": 2691,
      "Ġways": 2692,
      "ety": 2693,
      "ĠCent": 2694,
      "chan": 2695,
      "Ġdel": 2696,
      "pec": 2697,
      "Ġchall": 2698,
      "Ġaltern": 2699,
      "epend": 2700,
      "Ġunit": 2701,
      "icks": 2702,
      "Ġtele": 2703,
      "Ġ40": 2704,
      "Ġ2013": 2705,
      "Ġassoci": 2706,
      "Ġrequest": 2707,
      "ĠBrit": 2708,
      "aught": 2709,
      "Ġmedia": 2710,
      "Ġcommunity": 2711,
      "Ġpriv": 2712,
      "ĠApple": 2713,
      "::": 2714,
      "Ġsix": 2715,
      "ened": 2716,
      "Ġmis": 2717,
      "Ġdom": 2718,
      "Ġgone": 2719,
      "Ġones": 2720,
      "Ġweeks": 2721,
      "Ġmilitary": 2722,
      "Ġprofess": 2723,
      "On": 2724,
      "aur": 2725,
      "but": 2726,
      "ball": 2727,
      "crib": 2728,
      "gress": 2729,
      "ients": 2730,
      "aron": 2731,
      "atever": 2732,
      "using": 2733,
      "Ġexam": 2734,
      "ĠEn": 2735,
      "Ġallow": 2736,
      "Ġuses": 2737,
      "Ġmyself": 2738,
      "Ġslight": 2739,
      "Ġincludes": 2740,
      "Ġmovie": 2741,
      "Ġvarious": 2742,
      "OS": 2743,
      "One": 2744,
      "bed": 2745,
      "off": 2746,
      "vision": 2747,
      "wise": 2748,
      "Ġut": 2749,
      "Ġfast": 2750,
      "Ġfire": 2751,
      "Ġmix": 2752,
      "ĠSun": 2753,
      "andom": 2754,
      "Ġexc": 2755,
      "itted": 2756,
      "Ġrelations": 2757,
      "Ġbelow": 2758,
      "Ġaccording": 2759,
      "Ġauthor": 2760,
      "Ġresponse": 2761,
      "attle": 2762,
      "Ġpotential": 2763,
      "Ġaffect": 2764,
      "Ġenvironment": 2765,
      "af": 2766,
      "aign": 2767,
      "hood": 2768,
      "Ġ%": 2769,
      "ĠÂ": 2770,
      "rel": 2771,
      "Ġoption": 2772,
      "Ġdry": 2773,
      "oms": 2774,
      "imate": 2775,
      "uses": 2776,
      "Ġscreen": 2777,
      "Ġrole": 2778,
      "swers": 2779,
      "Ġsurv": 2780,
      "Ġautom": 2781,
      "ĊĠĠĠĠĠĠĠĠĠĠĠĠĠĠĠĠĠ": 2782,
      "Ġinfl": 2783,
      "Ġlevels": 2784,
      "Med": 2785,
      "ators": 2786,
      "Ġlate": 2787,
      "Ġhear": 2788,
      "chie": 2789,
      "Ġ100": 2790,
      "ĊĊĠĠĠĠĠ": 2791,
      "Ġhappy": 2792,
      "http": 2793,
      "28": 2794,
      "ID": 2795,
      "Is": 2796,
      "rs": 2797,
      "erc": 2798,
      "Ġcy": 2799,
      "Ġpur": 2800,
      "Ġpath": 2801,
      "Ġhur": 2802,
      "Ġforward": 2803,
      "ĠMor": 2804,
      "unt": 2805,
      "ĠRes": 2806,
      "Ġshare": 2807,
      "Ġchoice": 2808,
      "Ġquality": 2809,
      "ĠYour": 2810,
      "Ġparts": 2811,
      "Ġrepresent": 2812,
      "Ġslow": 2813,
      "iversity": 2814,
      "Ġrisk": 2815,
      "Ġign": 2816,
      "Ġaw": 2817,
      "Ġfavor": 2818,
      "Ġmiddle": 2819,
      "arily": 2820,
      "Ġdiv": 2821,
      "Ġgave": 2822,
      "ros": 2823,
      "Ġformer": 2824,
      "Ġsto": 2825,
      "aging": 2826,
      "Ġaren": 2827,
      "Ġnote": 2828,
      "Ġrespect": 2829,
      "Ġblock": 2830,
      "Ġspeak": 2831,
      "Ġeffort": 2832,
      "anced": 2833,
      "Ġbox": 2834,
      "www": 2835,
      "Ġmachine": 2836,
      "AM": 2837,
      "HE": 2838,
      "eah": 2839,
      "Ġtouch": 2840,
      "oman": 2841,
      "ĠIT": 2842,
      "ĠTV": 2843,
      "Ġ2007": 2844,
      "Ġindust": 2845,
      "aughter": 2846,
      "To": 2847,
      "back": 2848,
      "Ġsqu": 2849,
      "enn": 2850,
      "ana": 2851,
      "Ġforce": 2852,
      "ĠCo": 2853,
      "ĠMon": 2854,
      "uments": 2855,
      "ĠGerm": 2856,
      "Ġprint": 2857,
      "Ġregular": 2858,
      "Ġtechnology": 2859,
      "ength": 2860,
      "Ġwonder": 2861,
      "Ġnormal": 2862,
      "lt": 2863,
      "ml": 2864,
      "ening": 2865,
      "inger": 2866,
      "Ġfoc": 2867,
      "Ġmount": 2868,
      "Ġtowards": 2869,
      "Ġdig": 2870,
      "Ġns": 2871,
      "lls": 2872,
      "ĠTw": 2873,
      "resh": 2874,
      "ĠOpen": 2875,
      "Ġupon": 2876,
      "ruction": 2877,
      "ĊĠĠĠĠĠĠĠ": 2878,
      "Ġvalues": 2879,
      "Ġpersonal": 2880,
      "Ġpopular": 2881,
      "Ġtemper": 2882,
      "Ġmultiple": 2883,
      "58": 2884,
      "She": 2885,
      "utions": 2886,
      "urg": 2887,
      "Ġdeep": 2888,
      "Ġshows": 2889,
      "Ġworth": 2890,
      "Ġspeed": 2891,
      "Ġtravel": 2892,
      "Ġsoftware": 2893,
      "Ġcampaign": 2894,
      "36": 2895,
      "IL": 2896,
      "].": 2897,
      "][": 2898,
      "cher": 2899,
      "ining": 2900,
      "Ġsat": 2901,
      "ero": 2902,
      "Ġcand": 2903,
      "Ġbed": 2904,
      "Ġbal": 2905,
      "Ġbud": 2906,
      "Ġmat": 2907,
      "Ġnational": 2908,
      "Ġsequ": 2909,
      "ĠEven": 2910,
      "Ġ$\\": 2911,
      "ĠYes": 2912,
      "Ġimprove": 2913,
      "Ġrights": 2914,
      "Ġplayer": 2915,
      "Ġ2009": 2916,
      "Ġfinally": 2917,
      "Ġstructure": 2918,
      "Ġconsidered": 2919,
      "ees": 2920,
      "ipe": 2921,
      "lam": 2922,
      "Ġbab": 2923,
      "Ġthread": 2924,
      "Ġlo": 2925,
      "Ġlay": 2926,
      "Ġlower": 2927,
      "Ġgun": 2928,
      "lying": 2929,
      "Ġreve": 2930,
      "Ġheld": 2931,
      "ĠBar": 2932,
      "ĠWik": 2933,
      "ores": 2934,
      "ĠNorth": 2935,
      "ĠJack": 2936,
      "Ġprice": 2937,
      "Ġrecomm": 2938,
      "Ġcool": 2939,
      "Ġwriting": 2940,
      "Ġphot": 2941,
      "Ġdifference": 2942,
      "Ġeasily": 2943,
      "medi": 2944,
      "Ġestab": 2945,
      "Ġmessage": 2946,
      "Ġdoub": 2947,
      "LIB": 2948,
      "Pro": 2949,
      "RL": 2950,
      "UT": 2951,
      "def": 2952,
      "ele": 2953,
      "ga": 2954,
      "Ġson": 2955,
      "Ġlack": 2956,
      "enty": 2957,
      "idge": 2958,
      "ache": 2959,
      "Ġstates": 2960,
      "iled": 2961,
      "ems": 2962,
      "usion": 2963,
      "ĠGu": 2964,
      "aste": 2965,
      "ubMed": 2966,
      "Ġfeet": 2967,
      "=\"\">": 2968,
      "Ġbuilding": 2969,
      "ĠWindows": 2970,
      "26": 2971,
      "Or": 2972,
      "cast": 2973,
      "uly": 2974,
      "atory": 2975,
      "Ġstories": 2976,
      "irm": 2977,
      "Ġsex": 2978,
      "Ġability": 2979,
      "Ġmechan": 2980,
      "ĠItal": 2981,
      "Ġprevent": 2982,
      "ava": 2983,
      "ĠChurch": 2984,
      "overed": 2985,
      "Ġ198": 2986,
      "comp": 2987,
      "Ġrelative": 2988,
      "Ġrequired": 2989,
      "Ġoppos": 2990,
      "Ġepis": 2991,
      "Ġlibrary": 2992,
      "??": 2993,
      "Ġhuge": 2994,
      "uted": 2995,
      "ĠAss": 2996,
      "uls": 2997,
      "ops": 2998,
      "Ġdeli": 2999,
      "Ġshoot": 3000,
      "outs": 3001,
      "ortun": 3002,
      "apter": 3003,
      "Ġguys": 3004,
      "Ġcollect": 3005,
      "Ġgenerally": 3006,
      "Ġfilm": 3007,
      "Ġevents": 3008,
      "Ġdevelopment": 3009,
      "Ġmorning": 3010,
      "Ġresearch": 3011,
      "ĠSuper": 3012,
      "33": 3013,
      "iam": 3014,
      "kes": 3015,
      "wr": 3016,
      "Ġsong": 3017,
      "ese": 3018,
      "Ġgra": 3019,
      "otic": 3020,
      "ĠCar": 3021,
      "Ġconcept": 3022,
      "ograph": 3023,
      "Ġmetal": 3024,
      "ĠWhile": 3025,
      "Ġauthent": 3026,
      "Ġavoid": 3027,
      "Ġnearly": 3028,
      "Ġdocument": 3029,
      "PEF": 3030,
      "Ġrelationship": 3031,
      "Be": 3032,
      "fig": 3033,
      "ha": 3034,
      "pite": 3035,
      "Ġtal": 3036,
      "reed": 3037,
      "Ġbi": 3038,
      "ĠSm": 3039,
      "Ġ26": 3040,
      "Ġvict": 3041,
      "Ġlives": 3042,
      "Ġplat": 3043,
      "Ġintro": 3044,
      "Ġcompan": 3045,
      "Ġfinal": 3046,
      "Ġmeaning": 3047,
      "Ġbasic": 3048,
      "Ġfigure": 3049,
      "ederal": 3050,
      "37": 3051,
      "ES": 3052,
      "With": 3053,
      "aily": 3054,
      "yond": 3055,
      "inally": 3056,
      "Ġwide": 3057,
      "iday": 3058,
      "sequ": 3059,
      "ĠMin": 3060,
      "Ġweb": 3061,
      "Ġweap": 3062,
      "ĠHer": 3063,
      "ĠHere": 3064,
      "ĠHouse": 3065,
      "Ġ28": 3066,
      "Ġshut": 3067,
      "ĠFeb": 3068,
      "ief": 3069,
      "ears": 3070,
      "ĠURL": 3071,
      "itely": 3072,
      "Ġprep": 3073,
      "Ġrecent": 3074,
      "Ġworked": 3075,
      "ledge": 3076,
      "Ġcreated": 3077,
      "Ġoccur": 3078,
      "Ġlearn": 3079,
      "Ġcamera": 3080,
      "come": 3081,
      "Ġill": 3082,
      "itation": 3083,
      "omb": 3084,
      "eth": 3085,
      "verage": 3086,
      "Ġareas": 3087,
      "ĠRem": 3088,
      "Ġtruth": 3089,
      "Ġoutput": 3090,
      "Ġperiod": 3091,
      "Ġconsum": 3092,
      "Ġregard": 3093,
      "Ġstarting": 3094,
      "ological": 3095,
      "Ġmoving": 3096,
      "Ġterms": 3097,
      "ynam": 3098,
      "ĠPlay": 3099,
      "Ġdamage": 3100,
      "32": 3101,
      "rict": 3102,
      "ãģ": 3103,
      "Ġlines": 3104,
      "Ġgay": 3105,
      "ĠMore": 3106,
      "ript": 3107,
      "ĠRet": 3108,
      "ender": 3109,
      "rupt": 3110,
      "Ġuseful": 3111,
      "Ġ2010": 3112,
      "Ġhappens": 3113,
      "Ġelectric": 3114,
      "Ġeye": 3115,
      "cription": 3116,
      "Ġcereal": 3117,
      "38": 3118,
      "Un": 3119,
      "ked": 3120,
      "nces": 3121,
      "tain": 3122,
      "Ġachie": 3123,
      "icate": 3124,
      "ĠIm": 3125,
      "ĠDr": 3126,
      "Ġplayed": 3127,
      "Ġready": 3128,
      "Ġextra": 3129,
      "Ġdirectory": 3130,
      "Ġskin": 3131,
      "Ġtotal": 3132,
      "($": 3133,
      "35": 3134,
      "Ġmill": 3135,
      "Ġdrop": 3136,
      "vey": 3137,
      "Ġreach": 3138,
      "rog": 3139,
      "Ġdeg": 3140,
      "Ġviol": 3141,
      "Ġcompos": 3142,
      "Ġens": 3143,
      "soft": 3144,
      "Ġattention": 3145,
      "Ġsett": 3146,
      "Ġchem": 3147,
      "Ġdecision": 3148,
      "Ġprovided": 3149,
      "ERL": 3150,
      "ĠAlso": 3151,
      "ONT": 3152,
      "Ġstudy": 3153,
      "Ġtitle": 3154,
      "ĠAugust": 3155,
      "Ġtemperature": 3156,
      "At": 3157,
      "IP": 3158,
      "just": 3159,
      "sy": 3160,
      "ser": 3161,
      "Ġtim": 3162,
      "Ġtheory": 3163,
      "Ġfell": 3164,
      "Ġplease": 3165,
      "Ġtown": 3166,
      "Ġthreat": 3167,
      "icated": 3168,
      "lled": 3169,
      "Ġreb": 3170,
      "Ġrev": 3171,
      "igation": 3172,
      "ĠCal": 3173,
      "Ġconv": 3174,
      "Ġselect": 3175,
      "Ġdevices": 3176,
      "Ġgroups": 3177,
      "Ġengine": 3178,
      "Ã©": 3179,
      "ĠĊĠ": 3180,
      "ising": 3181,
      "ouble": 3182,
      "lete": 3183,
      "iced": 3184,
      "imum": 3185,
      "acher": 3186,
      "Ġstar": 3187,
      "ags": 3188,
      "Ġconcent": 3189,
      "Ġalone": 3190,
      "ĠLight": 3191,
      "Ġoffer": 3192,
      "Ġpred": 3193,
      "Ġprefer": 3194,
      "Ġspend": 3195,
      "Ġwrote": 3196,
      "ĠWeb": 3197,
      "Ġcharge": 3198,
      "Ġdecided": 3199,
      "Ġsubst": 3200,
      "Ġcapt": 3201,
      "Ġkilled": 3202,
      "Ġexpected": 3203,
      "mission": 3204,
      ".<": 3205,
      ".</": 3206,
      "02": 3207,
      "41": 3208,
      "Well": 3209,
      "co": 3210,
      "atur": 3211,
      "atest": 3212,
      "Ġbinding": 3213,
      "asons": 3214,
      "Ġredu": 3215,
      "riage": 3216,
      "Ġdecl": 3217,
      "ĠRE": 3218,
      "Ġarm": 3219,
      "Ġdescrib": 3220,
      "Ġimag": 3221,
      "ibly": 3222,
      "Ġassum": 3223,
      "Ġexpos": 3224,
      "Ġconfig": 3225,
      "ĠAmericans": 3226,
      "Ġcontinue": 3227,
      "Ġchanged": 3228,
      "Ġcertainly": 3229,
      ".'": 3230,
      "21": 3231,
      "Maker": 3232,
      "PL": 3233,
      "ky": 3234,
      "Ġerror": 3235,
      "Ġcard": 3236,
      "orage": 3237,
      "Ġfu": 3238,
      "ĠII": 3239,
      "Ġrelease": 3240,
      "ĠAct": 3241,
      "ĠMost": 3242,
      "Ġrange": 3243,
      "ulate": 3244,
      "erson": 3245,
      "ĠDes": 3246,
      "Ġnec": 3247,
      "Ġallows": 3248,
      "Ġprison": 3249,
      "Ġimmedi": 3250,
      "Ġdetails": 3251,
      "Ġseemed": 3252,
      "Ġleaders": 3253,
      "Ġelements": 3254,
      "blogs": 3255,
      "Ġlimited": 3256,
      "Ġoptions": 3257,
      "Ġnecessary": 3258,
      "ĠnsPEF": 3259,
      "55": 3260,
      "Not": 3261,
      "US": 3262,
      "atically": 3263,
      "Ġfac": 3264,
      "Ġdie": 3265,
      "Ġdied": 3266,
      "ica": 3267,
      "ĠMult": 3268,
      "Ġhaven": 3269,
      "ĠPal": 3270,
      "ĠData": 3271,
      "Ġvia": 3272,
      "Ġchance": 3273,
      "arts": 3274,
      "Ġrecently": 3275,
      "Ġbrought": 3276,
      "Ġfollow": 3277,
      "ĠNews": 3278,
      "Ġparticles": 3279,
      "Ġrespond": 3280,
      "Ġparam": 3281,
      "Ġproducts": 3282,
      "Why": 3283,
      "board": 3284,
      "Ġstraight": 3285,
      "69": 3286,
      "CL": 3287,
      "ym": 3288,
      "Ġcry": 3289,
      "itect": 3290,
      "Ġple": 3291,
      "Ġhost": 3292,
      "Ġgh": 3293,
      "iment": 3294,
      "ĠCase": 3295,
      "iring": 3296,
      "ĠMich": 3297,
      "rief": 3298,
      "Ġord": 3299,
      "Ġprop": 3300,
      "ĠInst": 3301,
      "ressed": 3302,
      "Ġeffic": 3303,
      "adding": 3304,
      "Ġbehav": 3305,
      "Ġsituation": 3306,
      "Ġargument": 3307,
      "Ġgrowth": 3308,
      "Ġinvolved": 3309,
      "34": 3310,
      "59": 3311,
      "70": 3312,
      "BC": 3313,
      "NET": 3314,
      "Sc": 3315,
      "bon": 3316,
      "based": 3317,
      "no": 3318,
      "uf": 3319,
      "Ġsil": 3320,
      "Ġcat": 3321,
      "Ġmatch": 3322,
      "sec": 3323,
      "see": 3324,
      "ĠApr": 3325,
      "ceed": 3326,
      "ĠDav": 3327,
      "istor": 3328,
      "ĠGo": 3329,
      "ĠLet": 3330,
      "Ġenem": 3331,
      "Ġknows": 3332,
      "Ġfeed": 3333,
      "Ġphase": 3334,
      "Ġrelated": 3335,
      "Ġcountries": 3336,
      "Ġgiving": 3337,
      "Ġdesigned": 3338,
      "aults": 3339,
      "Ġofficials": 3340,
      "which": 3341,
      "Ġpractice": 3342,
      "08": 3343,
      "From": 3344,
      "gal": 3345,
      "year": 3346,
      "Ġmur": 3347,
      "Ġdat": 3348,
      "Ġbeyond": 3349,
      "Ġwhatever": 3350,
      "Ġsection": 3351,
      "Ġjo": 3352,
      "Ġsuff": 3353,
      "Ġallowed": 3354,
      "elling": 3355,
      "iction": 3356,
      "Ġwants": 3357,
      "Ġimplement": 3358,
      "Ġimages": 3359,
      "Ġaddition": 3360,
      "Ġ2008": 3361,
      "Ġbuilt": 3362,
      "Ġearli": 3363,
      "Ġmoved": 3364,
      "Ġopening": 3365,
      "Pe": 3366,
      "dcb": 3367,
      "what": 3368,
      "ani": 3369,
      "Ġpaid": 3370,
      "Ġmid": 3371,
      "Ġdanger": 3372,
      "Ġrepe": 3373,
      "Ġbeat": 3374,
      "rose": 3375,
      "amb": 3376,
      "amm": 3377,
      "irth": 3378,
      "ĠGet": 3379,
      "ĠEvery": 3380,
      "Ġunless": 3381,
      "Ġcontext": 3382,
      "Ġapparent": 3383,
      "rugg": 3384,
      "Ġpoor": 3385,
      "ĠDef": 3386,
      "Ġhelpful": 3387,
      "Ġlarger": 3388,
      "Ġdirectly": 3389,
      "Ġgives": 3390,
      "Ġ:)": 3391,
      "Ġpopulation": 3392,
      "Ġdemand": 3393,
      "Ġincrease": 3394,
      "Ġapproach": 3395,
      "ĠEnglish": 3396,
      "Ġreleased": 3397,
      "Ġsweet": 3398,
      "Posted": 3399,
      "Ġstopped": 3400,
      "Ġcompanies": 3401,
      "ded": 3402,
      "ror": 3403,
      "ux": 3404,
      "itiz": 3405,
      "Ġpurch": 3406,
      "icles": 3407,
      "Ġnod": 3408,
      "Ġnamed": 3409,
      "imin": 3410,
      "ĠSch": 3411,
      "ĠCong": 3412,
      "ĠPar": 3413,
      "ĠNO": 3414,
      "artment": 3415,
      "Ġarms": 3416,
      "ously": 3417,
      "Ġspent": 3418,
      "Ġknowledge": 3419,
      "Ġindepend": 3420,
      "reng": 3421,
      "Ġnumbers": 3422,
      "Ġpassed": 3423,
      "Ġsignificant": 3424,
      "Ġconstitu": 3425,
      "pre": 3426,
      "rig": 3427,
      "Ġer": 3428,
      "hel": 3429,
      "Ġwife": 3430,
      "ingly": 3431,
      "Ġinput": 3432,
      "imately": 3433,
      "ĠAaron": 3434,
      "iling": 3435,
      "ĊĊĠĠĠĠĠĠĠĠ": 3436,
      "ĠRed": 3437,
      "Ġherself": 3438,
      "Ġwhose": 3439,
      "Ġimpl": 3440,
      "Ġinstance": 3441,
      "Ġconsist": 3442,
      "risis": 3443,
      "Ġfunctions": 3444,
      "Ġmodern": 3445,
      "ropri": 3446,
      "Ġstudents": 3447,
      "Ġparticularly": 3448,
      "Ġpressure": 3449,
      "Ġcustomers": 3450,
      "icrosoft": 3451,
      "Ġcomponents": 3452,
      "ĠBritish": 3453,
      "down": 3454,
      "itude": 3455,
      "Ġdate": 3456,
      "Ġled": 3457,
      "ils": 3458,
      "Ġ27": 3459,
      "ession": 3460,
      "ĠGl": 3461,
      "apan": 3462,
      "avy": 3463,
      "ocked": 3464,
      "Ġextreme": 3465,
      "airs": 3466,
      "Ġlegal": 3467,
      "Ġopportun": 3468,
      "Ġperformance": 3469,
      "Ġtypes": 3470,
      "Ġfeatures": 3471,
      "Ġculture": 3472,
      "Ġslightly": 3473,
      "CH": 3474,
      "Just": 3475,
      "OL": 3476,
      "__": 3477,
      "egr": 3478,
      "itors": 3479,
      "otte": 3480,
      "Ġbeaut": 3481,
      "Ġwear": 3482,
      "ights": 3483,
      "iving": 3484,
      "Ġclosed": 3485,
      "ĠSte": 3486,
      "Ġflow": 3487,
      "Ġeditor": 3488,
      "Ġevidence": 3489,
      "Ġtelling": 3490,
      "Ġoperating": 3491,
      "Ġpattern": 3492,
      "Ġopin": 3493,
      "ĠMuslim": 3494,
      "Ġsleep": 3495,
      "Ġepisode": 3496,
      "03": 3497,
      "After": 3498,
      "De": 3499,
      "Le": 3500,
      "],": 3501,
      "mail": 3502,
      "ners": 3503,
      "Ġ)": 3504,
      "iny": 3505,
      "atural": 3506,
      "Ġbill": 3507,
      "Ġmouth": 3508,
      "Ġthus": 3509,
      "urance": 3510,
      "ĠNov": 3511,
      "ĠOther": 3512,
      "Ġcladding": 3513,
      "Ġsave": 3514,
      "Ġdisapp": 3515,
      "Ġroad": 3516,
      "Ġactual": 3517,
      "Ġcold": 3518,
      "Ġdefined": 3519,
      "Ġsecret": 3520,
      "Ġsurface": 3521,
      "Ġeasier": 3522,
      "Ġsaliv": 3523,
      "ĠMakefile": 3524,
      "Ġdefinitely": 3525,
      "()": 3526,
      "05": 3527,
      "ML": 3528,
      "Man": 3529,
      "ring": 3530,
      "Ġsend": 3531,
      "erve": 3532,
      "ises": 3533,
      "Ġboot": 3534,
      "Ġmax": 3535,
      "Ġdru": 3536,
      "Ġdaughter": 3537,
      "Ġinvent": 3538,
      "imal": 3539,
      "ada": 3540,
      "ĠSouth": 3541,
      "ĠCont": 3542,
      "ĠGreen": 3543,
      "Ġjump": 3544,
      "ocks": 3545,
      "Ġperhaps": 3546,
      "Ġscript": 3547,
      "Ġsymb": 3548,
      "Ġpositive": 3549,
      "ĠAny": 3550,
      "Ġputting": 3551,
      "Ġfollowed": 3552,
      "Ġincreasing": 3553,
      "Ġfighting": 3554,
      "Ġcalc": 3555,
      "Ġtools": 3556,
      "Ġhttp": 3557,
      "Ġimmigration": 3558,
      "Ġreveal": 3559,
      "47": 3560,
      "Make": 3561,
      "Now": 3562,
      "New": 3563,
      "field": 3564,
      "Ġess": 3565,
      "Ġtend": 3566,
      "inter": 3567,
      "Ġcross": 3568,
      "isl": 3569,
      "oracle": 3570,
      "Ġbeer": 3571,
      "ĠMany": 3572,
      "oday": 3573,
      "ĠBush": 3574,
      "rible": 3575,
      "ĠFirst": 3576,
      "Ġliber": 3577,
      "Ġjournal": 3578,
      "Ġsubs": 3579,
      "ĠOf": 3580,
      "ivil": 3581,
      "Ġsafe": 3582,
      "ĠUp": 3583,
      "Ġprevious": 3584,
      "Ġmostly": 3585,
      "ternal": 3586,
      "Ġ2014": 3587,
      "Ġelectr": 3588,
      "Ġinterested": 3589,
      "Ġswitch": 3590,
      "Ġsociety": 3591,
      "Ġwait": 3592,
      "Ġcircuit": 3593,
      "ĠJews": 3594,
      "Ġhonest": 3595,
      "ashington": 3596,
      "Ġplatform": 3597,
      "$,": 3598,
      "Get": 3599,
      "atives": 3600,
      "Ġbank": 3601,
      "Ġfear": 3602,
      "lear": 3603,
      "Ġluck": 3604,
      "ĠInt": 3605,
      "Ġreaction": 3606,
      "olute": 3607,
      "agement": 3608,
      "ĠHol": 3609,
      "that": 3610,
      "ĠGal": 3611,
      "Ġmeant": 3612,
      "Ġsold": 3613,
      "astic": 3614,
      "Ġclient": 3615,
      "Ġquiet": 3616,
      "Ġcontact": 3617,
      "Ġpeace": 3618,
      "Ġprec": 3619,
      "Ġsyn": 3620,
      "Ġinstr": 3621,
      "Ġaccur": 3622,
      "Ġexplain": 3623,
      "Ġdistrib": 3624,
      "Ġcosts": 3625,
      "Ġprimary": 3626,
      "ĠPeople": 3627,
      "31": 3628,
      "46": 3629,
      "MA": 3630,
      "OP": 3631,
      "See": 3632,
      "aith": 3633,
      "aul": 3634,
      "awn": 3635,
      "erl": 3636,
      "Ġcast": 3637,
      "itter": 3638,
      "Ġment": 3639,
      "Ġmist": 3640,
      "Ġhous": 3641,
      "Ġnature": 3642,
      "Ġonto": 3643,
      "ĠAre": 3644,
      "ĠBecause": 3645,
      "ria": 3646,
      "Ġneg": 3647,
      "Ġleaving": 3648,
      "ĠOver": 3649,
      "Ġadmin": 3650,
      "Ġunc": 3651,
      "Ġappli": 3652,
      "Ġdisplay": 3653,
      "class": 3654,
      "Ġperl": 3655,
      "obal": 3656,
      "Ġcoll": 3657,
      "Ġchess": 3658,
      "Ġstring": 3659,
      "ĠComp": 3660,
      "Ġboard": 3661,
      "Ġadvant": 3662,
      "fortun": 3663,
      "ĠOctober": 3664,
      "Ġtelevision": 3665,
      "Ġinflu": 3666,
      "100": 3667,
      "DE": 3668,
      "May": 3669,
      "NA": 3670,
      "PR": 3671,
      "ael": 3672,
      "dom": 3673,
      "how": 3674,
      "uary": 3675,
      "Ġille": 3676,
      "Ġaverage": 3677,
      "het": 3678,
      "Ġpus": 3679,
      "asc": 3680,
      "Ġheat": 3681,
      "ĠAf": 3682,
      "Ġrules": 3683,
      "ĠRating": 3684,
      "ĠNe": 3685,
      "Ġchoose": 3686,
      "arty": 3687,
      "ivity": 3688,
      "Ġphoto": 3689,
      "ground": 3690,
      "Ġ2005": 3691,
      "Ġproduction": 3692,
      "Ġwatching": 3693,
      "arlotte": 3694,
      "ĠRepublican": 3695,
      "netic": 3696,
      "Ġindustry": 3697,
      "Ġearlier": 3698,
      "$.": 3699,
      "Some": 3700,
      "do": 3701,
      "kay": 3702,
      "round": 3703,
      "Ġcases": 3704,
      "Ġbreat": 3705,
      "Ġeth": 3706,
      "Ġemer": 3707,
      "Ġreasons": 3708,
      "Ġonline": 3709,
      "Ġur": 3710,
      "Ġstick": 3711,
      "Ġstorage": 3712,
      "Ġstreng": 3713,
      "cell": 3714,
      "iler": 3715,
      "ements": 3716,
      "ĠWed": 3717,
      "rian": 3718,
      "unction": 3719,
      "Ġ29": 3720,
      "rap": 3721,
      "ĠLa": 3722,
      "ĠOS": 3723,
      "akers": 3724,
      "izes": 3725,
      "Ġdisk": 3726,
      "ĠIntern": 3727,
      "Ġasking": 3728,
      "Ġlocation": 3729,
      "Ġmethods": 3730,
      "Ġmarriage": 3731,
      "Ġphysical": 3732,
      "Ġbaby": 3733,
      "ĠCasey": 3734,
      "04": 3735,
      "66": 3736,
      "FONT": 3737,
      "bing": 3738,
      "coh": 3739,
      "gar": 3740,
      "iation": 3741,
      "ued": 3742,
      "under": 3743,
      "Ġ?": 3744,
      "Ġ//": 3745,
      "inner": 3746,
      "Ġsitting": 3747,
      "Ġmalt": 3748,
      "ications": 3749,
      "Ġnation": 3750,
      "stract": 3751,
      "Ġstream": 3752,
      "ilies": 3753,
      "ifying": 3754,
      "Ġwebs": 3755,
      "ulated": 3756,
      "Ġconvers": 3757,
      "Ġtraining": 3758,
      "...\"": 3759,
      "Ġbecomes": 3760,
      "Ġimpact": 3761,
      "ĠMaybe": 3762,
      "Ġsales": 3763,
      "Ġeconomy": 3764,
      "Ġ>>": 3765,
      "Ġbottle": 3766,
      "Ġassociated": 3767,
      "Ġbudget": 3768,
      "Ġimmediately": 3769,
      "ĠCongress": 3770,
      "IG": 3771,
      "Mr": 3772,
      "hi": 3773,
      "king": 3774,
      "uk": 3775,
      "ville": 3776,
      "yg": 3777,
      "Ġid": 3778,
      "Ġfan": 3779,
      "arp": 3780,
      "level": 3781,
      "Ġnav": 3782,
      "Ġlif": 3783,
      "entially": 3784,
      "room": 3785,
      "ĠBra": 3786,
      "Ġnotes": 3787,
      "Ġsell": 3788,
      "ĠDC": 3789,
      "Ġneigh": 3790,
      "que": 3791,
      "iven": 3792,
      "Ġcontract": 3793,
      "ocket": 3794,
      "Ġcalls": 3795,
      "2012": 3796,
      "Ġolder": 3797,
      "Ġlaws": 3798,
      "ĠMakeMaker": 3799,
      "ĠJewish": 3800,
      "Ġconditions": 3801,
      "Ġinitial": 3802,
      "known": 3803,
      "Ġdestro": 3804,
      "Ġcredit": 3805,
      "Ġcandid": 3806,
      "Ġestabl": 3807,
      "Read": 3808,
      "VER": 3809,
      "overy": 3810,
      "pm": 3811,
      "ystem": 3812,
      "zy": 3813,
      "Ġtight": 3814,
      "hem": 3815,
      "Ġsun": 3816,
      "Ġloss": 3817,
      "ĠSince": 3818,
      "Ġrare": 3819,
      "Ġround": 3820,
      "ulations": 3821,
      "ĠHT": 3822,
      "ĠWashington": 3823,
      "ĠRec": 3824,
      "Ġlived": 3825,
      "0000": 3826,
      "ĠJapan": 3827,
      "Ġcompared": 3828,
      "ĠThanks": 3829,
      "Ġcontrib": 3830,
      "ube": 3831,
      "Ġteacher": 3832,
      "ĠKen": 3833,
      "Ġsmart": 3834,
      "Ġkept": 3835,
      "Ġ60": 3836,
      "Ġmonitor": 3837,
      "Ġrequires": 3838,
      "Ġturns": 3839,
      "Ġfeeling": 3840,
      "ĊĠĠĠĠĠĠĠĠĠĠĠĠĠĠĠ": 3841,
      "Ġbooks": 3842,
      "Ġelement": 3843,
      "Ġelection": 3844,
      "Ġprior": 3845,
      "ĠFranc": 3846,
      "Ġencour": 3847,
      "Ġclaims": 3848,
      "Ġaudience": 3849,
      "Ġpolicy": 3850,
      "53": 3851,
      "57": 3852,
      "Oh": 3853,
      "band": 3854,
      "hib": 3855,
      "Ġtank": 3856,
      "Ġsen": 3857,
      "Ġcitiz": 3858,
      "itory": 3859,
      "Ġban": 3860,
      "Ġden": 3861,
      "owd": 3862,
      "ĠSan": 3863,
      "ĠAdd": 3864,
      "char": 3865,
      "Ġliqu": 3866,
      "Ġanyway": 3867,
      "Ġotherwise": 3868,
      "Ġappropri": 3869,
      "clock": 3870,
      "Ġremain": 3871,
      "exus": 3872,
      "ĠArab": 3873,
      "Ġearth": 3874,
      "Ġglass": 3875,
      "Ġmedium": 3876,
      "Ġmaterials": 3877,
      "Ġanti": 3878,
      "ĠJune": 3879,
      "ĠSenate": 3880,
      "Ġseparate": 3881,
      "Ġfloor": 3882,
      "Ġensure": 3883,
      "07": 3884,
      "54": 3885,
      "Don": 3886,
      "pose": 3887,
      "Ġten": 3888,
      "ini": 3889,
      "Ġsample": 3890,
      "Ġsorry": 3891,
      "Ġcivil": 3892,
      "ishing": 3893,
      "Ġbillion": 3894,
      "Ġpen": 3895,
      "Ġmac": 3896,
      "aries": 3897,
      "asp": 3898,
      "Ġbeg": 3899,
      "ĠTom": 3900,
      "ĠHave": 3901,
      "ĊĊĠĠĠĠĠĠĠ": 3902,
      "osing": 3903,
      "obile": 3904,
      "Ġremind": 3905,
      "ĠDebor": 3906,
      "ĊĠĠĠĠĠĠ": 3907,
      "Ġprovides": 3908,
      "Ġappears": 3909,
      "Ġmentioned": 3910,
      "Ġbeginning": 3911,
      "Ġcounter": 3912,
      "Ġeducation": 3913,
      "elebr": 3914,
      "Ġsymbol": 3915,
      "ĠDeborah": 3916,
      "51": 3917,
      "TA": 3918,
      "Tr": 3919,
      "iant": 3920,
      "iences": 3921,
      "mon": 3922,
      "mosp": 3923,
      "ois": 3924,
      "ple": 3925,
      "pot": 3926,
      "ram": 3927,
      "»¿": 3928,
      "ï»¿": 3929,
      "Ġir": 3930,
      "Ġton": 3931,
      "Ġcart": 3932,
      "Ġfat": 3933,
      "ĠpH": 3934,
      "Ġpun": 3935,
      "Ġdynam": 3936,
      "icit": 3937,
      "ĠSw": 3938,
      "ĠAust": 3939,
      "ĠMicrosoft": 3940,
      "Ġrid": 3941,
      "Ġdev": 3942,
      "Ġproduced": 3943,
      "ustr": 3944,
      "ĠRober": 3945,
      "osis": 3946,
      "ĠFrom": 3947,
      "ĠJames": 3948,
      "aked": 3949,
      "ĠâĢĺ": 3950,
      "Ġcontain": 3951,
      "Ġthanks": 3952,
      "ĠChar": 3953,
      "Ġattrib": 3954,
      "upid": 3955,
      "Ġreality": 3956,
      "ĠReview": 3957,
      "2010": 3958,
      "Ġelectron": 3959,
      "While": 3960,
      "ĠChristian": 3961,
      "DIR": 3962,
      "cohol": 3963,
      "RA": 3964,
      "Wr": 3965,
      "ipped": 3966,
      "mas": 3967,
      "Ġtort": 3968,
      "Ġspl": 3969,
      "Ġbattle": 3970,
      "orrow": 3971,
      "Ġpubl": 3972,
      "asy": 3973,
      "Ġult": 3974,
      "ĠSl": 3975,
      "ĠSoc": 3976,
      "Ġran": 3977,
      "raction": 3978,
      "aks": 3979,
      "Ġworse": 3980,
      "Ġwilling": 3981,
      "Ġplot": 3982,
      "Ġarr": 3983,
      "oger": 3984,
      "Ġsmile": 3985,
      "eneral": 3986,
      "Ġhandle": 3987,
      "Ġemot": 3988,
      "ĠUniverse": 3989,
      "Ġinterview": 3990,
      "Ġexpression": 3991,
      "Ġrefer": 3992,
      "Ġfamilies": 3993,
      "Ġideas": 3994,
      "ĊĠĠĠĠĠĠĠĠĠ": 3995,
      "Ġprograms": 3996,
      "Ġsites": 3997,
      "Ġapplications": 3998,
      "Ġpulled": 3999,
      "Ġreligious": 4000,
      "ech": 4001,
      "rc": 4002,
      "tes": 4003,
      "you": 4004,
      "yth": 4005,
      "reci": 4006,
      "eric": 4007,
      "itution": 4008,
      "Ġfem": 4009,
      "Ġfaith": 4010,
      "Ġpages": 4011,
      "Ġthous": 4012,
      "Ġliter": 4013,
      "semb": 4014,
      "ĠText": 4015,
      "ĠMark": 4016,
      "Ġcho": 4017,
      "ĠGood": 4018,
      "raft": 4019,
      "Ġtrust": 4020,
      "Ġplaces": 4021,
      "ĠCharlotte": 4022,
      "Ġserve": 4023,
      "Ġsetting": 4024,
      "Ġcarry": 4025,
      "Ġpresence": 4026,
      "ERE": 4027,
      "Ġprocessing": 4028,
      "Ġsolid": 4029,
      "Ġletter": 4030,
      "Ġreturned": 4031,
      "Ġcaused": 4032,
      "gypt": 4033,
      "Ġcurrently": 4034,
      "Ġarchae": 4035,
      "Ġanalys": 4036,
      "Ġprivate": 4037,
      "Ġopinion": 4038,
      "42": 4039,
      "43": 4040,
      "52": 4041,
      "Here": 4042,
      "MS": 4043,
      "mpt": 4044,
      "oly": 4045,
      "with": 4046,
      "Ġter": 4047,
      "Ġterr": 4048,
      "Ġtaste": 4049,
      "isf": 4050,
      "isher": 4051,
      "Ġbrief": 4052,
      "Ġfresh": 4053,
      "Ġmer": 4054,
      "ston": 4055,
      "Ġstreet": 4056,
      "uration": 4057,
      "ĠFull": 4058,
      "rael": 4059,
      "Ġcompar": 4060,
      "Ġclim": 4061,
      "apers": 4062,
      "Ġcontr": 4063,
      "Ġnovel": 4064,
      "oving": 4065,
      "Ġimpro": 4066,
      "ĠWhite": 4067,
      "cience": 4068,
      "Ġmember": 4069,
      "Ġdemon": 4070,
      "Ġunderstanding": 4071,
      "Ġreceived": 4072,
      "ĠDoes": 4073,
      "Ġmeeting": 4074,
      "trans": 4075,
      "iliar": 4076,
      "Ġgraphics": 4077,
      "Ġauthentication": 4078,
      "ĠMultiverse": 4079,
      "Sub": 4080,
      "iber": 4081,
      "Ġing": 4082,
      "atus": 4083,
      "Ġcateg": 4084,
      "Ġcelebr": 4085,
      "Ġbirth": 4086,
      "Ġpet": 4087,
      "Ġtom": 4088,
      "ales": 4089,
      "Ġnut": 4090,
      "Ġge": 4091,
      "ims": 4092,
      "aches": 4093,
      "Ġstaff": 4094,
      "Ġstrugg": 4095,
      "ĠCity": 4096,
      "cember": 4097,
      "ĠDet": 4098,
      "this": 4099,
      "ĠLike": 4100,
      "ĠJava": 4101,
      "Ġtrouble": 4102,
      "Ġintegr": 4103,
      "irection": 4104,
      "Ġgrand": 4105,
      "Ġresist": 4106,
      "order": 4107,
      "Ġremote": 4108,
      "Ġemail": 4109,
      "ĠUniversity": 4110,
      "Ġfeels": 4111,
      "Ġdepend": 4112,
      "Ġlegisl": 4113,
      "Ġstatus": 4114,
      "Ġlimit": 4115,
      "Ġbottom": 4116,
      "fortunately": 4117,
      "All": 4118,
      "PI": 4119,
      "Yes": 4120,
      "la": 4121,
      "name": 4122,
      "new": 4123,
      "uct": 4124,
      "inn": 4125,
      "Ġbare": 4126,
      "Ġborn": 4127,
      "Ġdro": 4128,
      "Ġhang": 4129,
      "Ġlic": 4130,
      "Ġforget": 4131,
      "ĠAtt": 4132,
      "Ġstupid": 4133,
      "ĠCath": 4134,
      "ĠMod": 4135,
      "ĠBig": 4136,
      "Ġatmosp": 4137,
      "ĠPat": 4138,
      "Ġprogress": 4139,
      "Ġdoll": 4140,
      "Ġshown": 4141,
      "ĠJake": 4142,
      "Ġhadn": 4143,
      "ĠKe": 4144,
      "Ġamaz": 4145,
      "ĠVer": 4146,
      "Ġseeing": 4147,
      "Ġdespite": 4148,
      "Ġadding": 4149,
      "Ġfinished": 4150,
      "Ġpassword": 4151,
      "Ġteams": 4152,
      "Ġpowerful": 4153,
      "Ġdeveloped": 4154,
      "Ġincreased": 4155,
      "span": 4156,
      "cript": 4157,
      "Ġmajority": 4158,
      "ĠEdwards": 4159,
      "Ġbehavior": 4160,
      "Ad": 4161,
      "EX": 4162,
      "IV": 4163,
      "Let": 4164,
      "PS": 4165,
      "SP": 4166,
      "ius": 4167,
      "ka": 4168,
      "met": 4169,
      "mitted": 4170,
      "post": 4171,
      "rely": 4172,
      "Ġfans": 4173,
      "Ġfederal": 4174,
      "Ġinn": 4175,
      "ĠSee": 4176,
      "Ġhell": 4177,
      "ĠAg": 4178,
      "Ġstock": 4179,
      "ĠMed": 4180,
      "ĠMarch": 4181,
      "ĠBoy": 4182,
      "Ġnotice": 4183,
      "ĠDis": 4184,
      "Ġproduc": 4185,
      "uster": 4186,
      "Ġalthough": 4187,
      "Ġgold": 4188,
      "alled": 4189,
      "earch": 4190,
      "Ġprote": 4191,
      "Ġactions": 4192,
      "Ġminor": 4193,
      "Ġdetail": 4194,
      "Ġfinanc": 4195,
      "Ġseconds": 4196,
      "ĠLeon": 4197,
      "Ġreported": 4198,
      "Ġesc": 4199,
      "Ġfields": 4200,
      "Ġeconomic": 4201,
      "Ġbroad": 4202,
      "ĠRepublicans": 4203,
      "Ġhttps": 4204,
      "Ġsequence": 4205,
      "Ġdoubt": 4206,
      "Ġexposure": 4207,
      "Ġconstituent": 4208,
      "BM": 4209,
      "Mar": 4210,
      "Point": 4211,
      "ipp": 4212,
      "Ġsounds": 4213,
      "Ġsaints": 4214,
      "erved": 4215,
      "Ġwat": 4216,
      "Ġband": 4217,
      "Ġnatural": 4218,
      "entry": 4219,
      "irty": 4220,
      "Ġaspect": 4221,
      "Ġrule": 4222,
      "Ġcomfort": 4223,
      "Ġworry": 4224,
      "Ġaccom": 4225,
      "Ġamb": 4226,
      "Ġcoff": 4227,
      "Ġremains": 4228,
      "Ġ03": 4229,
      "rench": 4230,
      "Ġmemor": 4231,
      "Ġreflect": 4232,
      "enced": 4233,
      "Ġwarm": 4234,
      "force": 4235,
      "Ġsensor": 4236,
      "Ġcreating": 4237,
      "Ġdouble": 4238,
      "Ġvotes": 4239,
      "ĠJanuary": 4240,
      "Ġhurt": 4241,
      "Ġmechanism": 4242,
      "Ġachieve": 4243,
      "Ġdatab": 4244,
      "Ġsalivary": 4245,
      "Ġestablished": 4246,
      "Qu": 4247,
      "Rep": 4248,
      "burg": 4249,
      "ooth": 4250,
      "ties": 4251,
      "war": 4252,
      "Ġburn": 4253,
      "ingers": 4254,
      "Ġpp": 4255,
      "Ġtoward": 4256,
      "Ġhate": 4257,
      "Ġhus": 4258,
      "lection": 4259,
      "Ġloved": 4260,
      "owl": 4261,
      "roclock": 4262,
      "ads": 4263,
      "aming": 4264,
      "ĠSO": 4265,
      "ĠMur": 4266,
      "hern": 4267,
      "ĠBob": 4268,
      "Ġrac": 4269,
      "agon": 4270,
      "ĠRuss": 4271,
      "Ġarri": 4272,
      "izon": 4273,
      "Ġgrab": 4274,
      "Ġsport": 4275,
      "ensions": 4276,
      "Ġscience": 4277,
      "icted": 4278,
      "Ġdownload": 4279,
      "Ġphr": 4280,
      "ception": 4281,
      "Ġfinding": 4282,
      "ĠArt": 4283,
      "Ġrestaur": 4284,
      "Ġmovement": 4285,
      "Ġapopt": 4286,
      "ĠBlack": 4287,
      "Ġstatement": 4288,
      "ĠSept": 4289,
      "ĠEuropean": 4290,
      "Ġradio": 4291,
      "Ġfavorite": 4292,
      "Ġrecommend": 4293,
      "Ġadminist": 4294,
      "Ġstrength": 4295,
      "223": 4296,
      "75": 4297,
      "eff": 4298,
      "gel": 4299,
      "mark": 4300,
      "pa": 4301,
      "pg": 4302,
      "uzz": 4303,
      "Ġahead": 4304,
      "erry": 4305,
      "Ġcaught": 4306,
      "isions": 4307,
      "Ġfault": 4308,
      "Ġpure": 4309,
      "arter": 4310,
      "Ġgreen": 4311,
      "ĠSur": 4312,
      "Ġhero": 4313,
      "urrent": 4314,
      "ĠMary": 4315,
      "iforn": 4316,
      "illing": 4317,
      "Ġrot": 4318,
      "Ġrout": 4319,
      "ĠPost": 4320,
      "Ġgoal": 4321,
      "ĠEgypt": 4322,
      "Ġbrain": 4323,
      "eck": 4324,
      "Ġremoved": 4325,
      "Ġ2006": 4326,
      "Ġfunny": 4327,
      "Ġsurround": 4328,
      "Ġsupposed": 4329,
      "ĠShare": 4330,
      "Ġinterface": 4331,
      "Ġsmaller": 4332,
      "apping": 4333,
      "Ġdraft": 4334,
      "Ġveh": 4335,
      "Ġzero": 4336,
      "Photo": 4337,
      "SION": 4338,
      "Ġbenefit": 4339,
      "Ġfrequency": 4340,
      "Ġchalleng": 4341,
      "Ġrelatively": 4342,
      "Ġghoul": 4343,
      "IX": 4344,
      "OD": 4345,
      "Ser": 4346,
      "cont": 4347,
      "han": 4348,
      "top": 4349,
      "uild": 4350,
      "Ġwish": 4351,
      "Ġbul": 4352,
      "Ġbought": 4353,
      "Ġboss": 4354,
      "Ġpow": 4355,
      "Ġpush": 4356,
      "Ġmail": 4357,
      "asion": 4358,
      "Ġlose": 4359,
      "ĠIS": 4360,
      "ading": 4361,
      "ĠTim": 4362,
      "ĠCount": 4363,
      "ĠMag": 4364,
      "illy": 4365,
      "ĠPC": 4366,
      "ĠPre": 4367,
      "ums": 4368,
      "anted": 4369,
      "Ġkid": 4370,
      "resp": 4371,
      "Ġallowing": 4372,
      "Ġunlike": 4373,
      "ruit": 4374,
      "Ġshouldn": 4375,
      "Ġadditional": 4376,
      "ĠDecember": 4377,
      "Ġtransition": 4378,
      "ancy": 4379,
      "Ġincluded": 4380,
      "Ġinsurance": 4381,
      "Ġconfl": 4382,
      "Ġskills": 4383,
      "Ġstanding": 4384,
      "Ġleading": 4385,
      "undred": 4386,
      "idden": 4387,
      "Ġwaiting": 4388,
      "olec": 4389,
      "Ġmulti": 4390,
      "Ġcentury": 4391,
      "Ġorganization": 4392,
      "Ġfailure": 4393,
      "Ġcopy": 4394,
      "Ġcritic": 4395,
      "Ġtreatment": 4396,
      "Ġcollege": 4397,
      "mathbb": 4398,
      "rieved": 4399,
      "ĠCenter": 4400,
      "Ġpurpose": 4401,
      "Ġweapons": 4402,
      "ufact": 4403,
      "ĠAustral": 4404,
      "44": 4405,
      ">.": 4406,
      "AA": 4407,
      "Do": 4408,
      "aven": 4409,
      "ki": 4410,
      "inary": 4411,
      "Ġwit": 4412,
      "enge": 4413,
      "orks": 4414,
      "Ġfuck": 4415,
      "arrow": 4416,
      "Ġdial": 4417,
      "Ġhun": 4418,
      "Ġlatest": 4419,
      "roat": 4420,
      "ĠSub": 4421,
      "ĠCour": 4422,
      "une": 4423,
      "oper": 4424,
      "Ġvirt": 4425,
      "Ġshared": 4426,
      "Ġbutton": 4427,
      "ĠLord": 4428,
      "Ġplaced": 4429,
      "Ġcompris": 4430,
      "Ġarrest": 4431,
      "igned": 4432,
      "Ġcontains": 4433,
      "Ġmanaged": 4434,
      "Ġspot": 4435,
      "Ġspir": 4436,
      "ovember": 4437,
      "text": 4438,
      "Ġhelps": 4439,
      "Ġtransl": 4440,
      "Ġsubt": 4441,
      "Ġextension": 4442,
      "ĠArch": 4443,
      "Ġglobal": 4444,
      "ĠBrother": 4445,
      "Ġproduce": 4446,
      "Ġeffects": 4447,
      "Ġreports": 4448,
      "Ġclearly": 4449,
      "Ġlinks": 4450,
      "Ġarchitect": 4451,
      "Ġabsolute": 4452,
      "Ġraised": 4453,
      "Ġresponsible": 4454,
      "Ġindependent": 4455,
      "Ġopportunity": 4456,
      "Ġappropriate": 4457,
      "\"><": 4458,
      "49": 4459,
      "AC": 4460,
      "Fr": 4461,
      "Ne": 4462,
      "ban": 4463,
      "box": 4464,
      "fr": 4465,
      "ford": 4466,
      "log": 4467,
      "mod": 4468,
      "ns": 4469,
      "point": 4470,
      "}}": 4471,
      "inst": 4472,
      "Ġcash": 4473,
      "orph": 4474,
      "Ġdaily": 4475,
      "oted": 4476,
      "sey": 4477,
      "ĠTit": 4478,
      "Ġitems": 4479,
      "iger": 4480,
      "Ġforced": 4481,
      "ĠSol": 4482,
      "Ġstage": 4483,
      "ĠCO": 4484,
      "ĠMont": 4485,
      "iles": 4486,
      "Ġrandom": 4487,
      "Ġcommer": 4488,
      "ĠPlease": 4489,
      "osen": 4490,
      "Ġalcohol": 4491,
      "ocol": 4492,
      "Ġtrade": 4493,
      "irement": 4494,
      "ĠUN": 4495,
      "Ġappreci": 4496,
      "Ġspread": 4497,
      "Ġscr": 4498,
      "Ġsched": 4499,
      "Ġscient": 4500,
      "ĠStreet": 4501,
      "Ġbright": 4502,
      "Ġdifferences": 4503,
      "Ġmodule": 4504,
      "Ġtransform": 4505,
      "Ġfinish": 4506,
      "Ġkeeping": 4507,
      "Ġstudent": 4508,
      "Ġmeasured": 4509,
      "Ġfully": 4510,
      "Ġforeign": 4511,
      "Ġcondition": 4512,
      "Ġpackage": 4513,
      "67": 4514,
      "68": 4515,
      "App": 4516,
      "BUR": 4517,
      "FL": 4518,
      "Ob": 4519,
      "UL": 4520,
      "aus": 4521,
      "rit": 4522,
      "sm": 4523,
      "she": 4524,
      "yp": 4525,
      "zen": 4526,
      "Ġwid": 4527,
      "Ġdream": 4528,
      "Ġdirection": 4529,
      "Ġharm": 4530,
      "Ġlength": 4531,
      "ĠIr": 4532,
      "Ġegg": 4533,
      "amber": 4534,
      "ĠAp": 4535,
      "ĠCP": 4536,
      "ĠHane": 4537,
      "ĠWi": 4538,
      "Ġnoticed": 4539,
      "rip": 4540,
      "Ġpros": 4541,
      "Ġship": 4542,
      "ĠNexus": 4543,
      "raq": 4544,
      "raw": 4545,
      "rared": 4546,
      "ĠEach": 4547,
      "ocal": 4548,
      "ours": 4549,
      "Ġsomewhere": 4550,
      "Ġanymore": 4551,
      "Ġteach": 4552,
      "Ġscene": 4553,
      "Ġtwice": 4554,
      "Ġdefend": 4555,
      "Ġsets": 4556,
      "pective": 4557,
      "Ġemb": 4558,
      "Ġforms": 4559,
      "Ġhelped": 4560,
      "Ġrealize": 4561,
      "Ġruns": 4562,
      "Ġobvious": 4563,
      "Ġlots": 4564,
      "Ġexpand": 4565,
      "Ġvalid": 4566,
      "Ġtesting": 4567,
      "ĠIslam": 4568,
      "Ġeffective": 4569,
      "Ġcustomer": 4570,
      "Ġidentity": 4571,
      "Ġupdate": 4572,
      "ĠRPMI": 4573,
      "NETT": 4574,
      "ĠApril": 4575,
      "Ġcoffee": 4576,
      "ifornia": 4577,
      "'.": 4578,
      ")$": 4579,
      "Dev": 4580,
      "SS": 4581,
      "VD": 4582,
      "ios": 4583,
      "yd": 4584,
      "Ġ_": 4585,
      "Ġaware": 4586,
      "requ": 4587,
      "Ġcore": 4588,
      "Ġcatch": 4589,
      "Ġbond": 4590,
      "oration": 4591,
      "Ġmir": 4592,
      "Ġdim": 4593,
      "Ġnuc": 4594,
      "terday": 4595,
      "odes": 4596,
      "istics": 4597,
      "Ġchamp": 4598,
      "Ġchurch": 4599,
      "Ġchapter": 4600,
      "ĠGh": 4601,
      "Ġsudd": 4602,
      "Ġclot": 4603,
      "udd": 4604,
      "ĠThom": 4605,
      "clusion": 4606,
      "Ġpray": 4607,
      "ĠView": 4608,
      "ĠVik": 4609,
      "Ġsympt": 4610,
      "pha": 4611,
      "Ġdefe": 4612,
      "Ġdefault": 4613,
      "ibr": 4614,
      "Thanks": 4615,
      "Ġcalling": 4616,
      "Ġcars": 4617,
      "Ġrealized": 4618,
      "exp": 4619,
      "2011": 4620,
      "Ġinfect": 4621,
      "Ġoperation": 4622,
      "while": 4623,
      "Comment": 4624,
      "Ġeventually": 4625,
      "Ġfixed": 4626,
      "Ġautomatically": 4627,
      "Ġadvantage": 4628,
      "ĠCatholic": 4629,
      "Ġsudden": 4630,
      "78": 4631,
      "Ed": 4632,
      "First": 4633,
      "list": 4634,
      "sun": 4635,
      "atin": 4636,
      "Ġbra": 4637,
      "Ġfirm": 4638,
      "aling": 4639,
      "alle": 4640,
      "Ġhomes": 4641,
      "Ġnor": 4642,
      "ĠIraq": 4643,
      "Ġreact": 4644,
      "uty": 4645,
      "ĠAnt": 4646,
      "change": 4647,
      "ĠBro": 4648,
      "ĠHel": 4649,
      "ĠPol": 4650,
      "ĊĊĊĠ": 4651,
      "ĠTheir": 4652,
      "Ġdoi": 4653,
      "ĠNovember": 4654,
      "Ġleaves": 4655,
      "pted": 4656,
      "Ġadjust": 4657,
      "Ġmanufact": 4658,
      "Ġresol": 4659,
      "Ġscen": 4660,
      "Ġscore": 4661,
      "oves": 4662,
      "Ġrob": 4663,
      "ĠAnswers": 4664,
      "Ġhighly": 4665,
      "Ġbiggest": 4666,
      "Ġleader": 4667,
      "Ġposted": 4668,
      "Ġmedical": 4669,
      "Ġvisit": 4670,
      "Ġmessages": 4671,
      "Ġvariable": 4672,
      "Ġconnection": 4673,
      "Ġvolt": 4674,
      "Ġdiscussion": 4675,
      "Ġtraditional": 4676,
      "ĠDemocrats": 4677,
      "ĠRPG": 4678,
      "Ġsusp": 4679,
      "Ġsuspect": 4680,
      "Ġsummer": 4681,
      "ĠGerman": 4682,
      "ĠRetrieved": 4683,
      "Ġmillions": 4684,
      "Ġdegree": 4685,
      "Ġdescribed": 4686,
      "Ġapparently": 4687,
      "Ġdestroy": 4688,
      "06": 4689,
      "Add": 4690,
      "Im": 4691,
      "More": 4692,
      "cing": 4693,
      "dir": 4694,
      "uy": 4695,
      "Ġbars": 4696,
      "ington": 4697,
      "Ġfaster": 4698,
      "aratus": 4699,
      "Ġthick": 4700,
      "Ġnarr": 4701,
      "Ġreli": 4702,
      "Ġreached": 4703,
      "ady": 4704,
      "ĠAN": 4705,
      "Ġru": 4706,
      "ulse": 4707,
      "ĠPERL": 4708,
      "istry": 4709,
      "ĠNet": 4710,
      "Ġsuit": 4711,
      "ĠOur": 4712,
      "orted": 4713,
      "Ġtherefore": 4714,
      "Ġagre": 4715,
      "Ġagent": 4716,
      "Ġapply": 4717,
      "Ġgrowing": 4718,
      "ĠKn": 4719,
      "Ġprices": 4720,
      "Ġblow": 4721,
      "Ġspect": 4722,
      "ometimes": 4723,
      "Ġdefense": 4724,
      "Ġthroughout": 4725,
      "Ġcheap": 4726,
      "Ġbelong": 4727,
      "Ġtransduc": 4728,
      "ĠShu": 4729,
      "Ġobviously": 4730,
      "Ġgeneration": 4731,
      "Ġgreater": 4732,
      "Ġfactors": 4733,
      "Ġmoves": 4734,
      "Ġthoughts": 4735,
      "ĠIsrael": 4736,
      "ĠLeague": 4737,
      "ING": 4738,
      "Ġpieces": 4739,
      "Ġdebate": 4740,
      "Ġabsor": 4741,
      "Ġcontinued": 4742,
      "ĠGeorge": 4743,
      "Ġfocus": 4744,
      "Ġreduce": 4745,
      "Ġnegative": 4746,
      "Ġcitizens": 4747,
      "Ġtonight": 4748,
      "Ġfemale": 4749,
      "Ġanalysis": 4750,
      "PubMed": 4751,
      "SC": 4752,
      "SM": 4753,
      "ares": 4754,
      "cial": 4755,
      "jpg": 4756,
      "rid": 4757,
      "yl": 4758,
      "zil": 4759,
      "Ġ</": 4760,
      "Ġsides": 4761,
      "Ġsoul": 4762,
      "Ġbag": 4763,
      "org": 4764,
      "Ġfol": 4765,
      "Ġanim": 4766,
      "Ġanswers": 4767,
      "ald": 4768,
      "lem": 4769,
      "oming": 4770,
      "Ġreven": 4771,
      "ented": 4772,
      "Ġhearing": 4773,
      "Ġstars": 4774,
      "Ġassemb": 4775,
      "Ġweak": 4776,
      "Ġrul": 4777,
      "rial": 4778,
      "anda": 4779,
      "ĠNational": 4780,
      "artin": 4781,
      "arden": 4782,
      "Then": 4783,
      "Ġhasn": 4784,
      "Ġclub": 4785,
      "Ġsomewhat": 4786,
      "Ġuns": 4787,
      "Ġunique": 4788,
      "acebook": 4789,
      "Ġacqu": 4790,
      "Ġdisp": 4791,
      "Ġblog": 4792,
      "Ġ2004": 4793,
      "Ġempt": 4794,
      "Ġformed": 4795,
      "ĠWho": 4796,
      "cient": 4797,
      "Ġaccident": 4798,
      "encies": 4799,
      "Ġdirector": 4800,
      "Ġskill": 4801,
      "Ġschools": 4802,
      "Ġjobs": 4803,
      "Ġpolitics": 4804,
      "uthor": 4805,
      "Ġfailed": 4806,
      "Ġmagnetic": 4807,
      "Ġinstalled": 4808,
      "Ġlearned": 4809,
      "Ġexisting": 4810,
      "Ġexception": 4811,
      "Ġbenefits": 4812,
      "ĠSecond": 4813,
      "Ġfinancial": 4814,
      "Ġconflict": 4815,
      "BURNETT": 4816,
      "\";": 4817,
      "''": 4818,
      "UN": 4819,
      "ek": 4820,
      "ixt": 4821,
      "ta": 4822,
      "uh": 4823,
      "ype": 4824,
      "{\\": 4825,
      "Ġsad": 4826,
      "Ġmap": 4827,
      "Ġhar": 4828,
      "ashed": 4829,
      "Ġnone": 4830,
      "ĠIran": 4831,
      "Ġgar": 4832,
      "Ġeight": 4833,
      "ota": 4834,
      "Ġreform": 4835,
      "Ġyell": 4836,
      "roid": 4837,
      "ĠTimes": 4838,
      "ĠSep": 4839,
      "ĠCons": 4840,
      "Ġrat": 4841,
      "Ġrap": 4842,
      "Ġconver": 4843,
      "Ġconduct": 4844,
      "html": 4845,
      "ĠWr": 4846,
      "ĠPaul": 4847,
      "ĠDep": 4848,
      "Ġshall": 4849,
      "Ġalb": 4850,
      "ooking": 4851,
      "Ġsaf": 4852,
      "Ġunivers": 4853,
      "Ġprem": 4854,
      "Ġscale": 4855,
      "Ġspeech": 4856,
      "Ġflu": 4857,
      "Ġassist": 4858,
      "ĠiPh": 4859,
      "exic": 4860,
      "Ġcorn": 4861,
      "Ġturning": 4862,
      "Ġeval": 4863,
      "ĠClass": 4864,
      "onym": 4865,
      "Ġpolitic": 4866,
      "Ġmilk": 4867,
      "Ġwinning": 4868,
      "Ġfreed": 4869,
      "Ġcapital": 4870,
      "Ġreplace": 4871,
      "Ġproperly": 4872,
      "Ġcircum": 4873,
      "Ġtotally": 4874,
      "Ġchallenge": 4875,
      "ĠURLs": 4876,
      "Ġchemical": 4877,
      "Ġefficient": 4878,
      "ĠDavid": 4879,
      "Ġdemonstr": 4880,
      "Ġdatabase": 4881,
      "CT": 4882,
      "Jo": 4883,
      "Sp": 4884,
      "WS": 4885,
      "iers": 4886,
      "upp": 4887,
      "vant": 4888,
      "Ġtask": 4889,
      "ishes": 4890,
      "Ġfit": 4891,
      "Ġfingers": 4892,
      "Ġhundred": 4893,
      "omen": 4894,
      "eters": 4895,
      "ida": 4896,
      "ĠSE": 4897,
      "ĠSim": 4898,
      "ceived": 4899,
      "ĠMexic": 4900,
      "Ġconsequ": 4901,
      "ĠHoll": 4902,
      "Ġseven": 4903,
      "ĠDay": 4904,
      "Ġneck": 4905,
      "Ġvill": 4906,
      "ĠFe": 4907,
      "ĠOw": 4908,
      "ĠOnce": 4909,
      "Ġplenty": 4910,
      "ellig": 4911,
      "Ġmanage": 4912,
      "Ġgrad": 4913,
      "Ġresources": 4914,
      "Ġ''": 4915,
      "onday": 4916,
      "Ġpartner": 4917,
      "ĠState": 4918,
      "Ġspell": 4919,
      "Ġworkers": 4920,
      "Ġ500": 4921,
      "lient": 4922,
      "Ġended": 4923,
      "Ġpossibly": 4924,
      "Ġparticip": 4925,
      "Ġconstruction": 4926,
      "Ġcareer": 4927,
      "Ġopened": 4928,
      "ounced": 4929,
      "Ġholding": 4930,
      "Ġmissing": 4931,
      "Ġdiag": 4932,
      "ĠTechn": 4933,
      "Ġburst": 4934,
      "ĠCalifornia": 4935,
      "Ġsubstant": 4936,
      "Ġillegal": 4937,
      "Ġatmosphere": 4938,
      "ĠVerizon": 4939,
      "ĠHaneke": 4940,
      "Ġnuclear": 4941,
      "ĠVikings": 4942,
      "65": 4943,
      "AD": 4944,
      "Ab": 4945,
      "GB": 4946,
      "fin": 4947,
      "friend": 4948,
      "make": 4949,
      "wood": 4950,
      "Ġic": 4951,
      "Ġaf": 4952,
      "inated": 4953,
      "orter": 4954,
      "Ġmut": 4955,
      "ado": 4956,
      "Ġforgot": 4957,
      "ĠAc": 4958,
      "Ġstood": 4959,
      "ching": 4960,
      "unes": 4961,
      "Ġproced": 4962,
      "ĠGame": 4963,
      "ĠLab": 4964,
      "Ġmeat": 4965,
      "aud": 4966,
      "Ġclick": 4967,
      "ĠIts": 4968,
      "Ġgrain": 4969,
      "Ġdiss": 4970,
      "Ġ32": 4971,
      "Ġspending": 4972,
      "ĠStar": 4973,
      "oyal": 4974,
      "Ġflat": 4975,
      "phone": 4976,
      "Ġsecure": 4977,
      "Ġregion": 4978,
      "Ġfactor": 4979,
      "Ġfamiliar": 4980,
      "ario": 4981,
      "Ġframe": 4982,
      "Ġmovies": 4983,
      "Ġconstruct": 4984,
      "Ġconstantly": 4985,
      "Ġhappening": 4986,
      "Ġsimpl": 4987,
      "Ġbasis": 4988,
      "Ġofficial": 4989,
      "ĠChristmas": 4990,
      "Ġproperty": 4991,
      "However": 4992,
      "Ġsuccessful": 4993,
      "Ġentirely": 4994,
      "Ġobserv": 4995,
      "aturday": 4996,
      "ĠInstead": 4997,
      "aniel": 4998,
      "Ġapplied": 4999,
      "Ġtorture": 5000,
      "Ġhusband": 5001,
      "ĠSeptember": 5002,
      "Ġsymptoms": 5003,
      "))": 5004,
      "95": 5005,
      ";&": 5006,
      "SA": 5007,
      "Tw": 5008,
      "bar": 5009,
      "bal": 5010,
      "histor": 5011,
      "ker": 5012,
      "Ġterror": 5013,
      "Ġsister": 5014,
      "Ġodd": 5015,
      "esh": 5016,
      "estern": 5017,
      "edance": 5018,
      "Ġpair": 5019,
      "Ġang": 5020,
      "alse": 5021,
      "Ġgod": 5022,
      "Ġheavy": 5023,
      "verse": 5024,
      "term": 5025,
      "Ġwearing": 5026,
      "ĠHen": 5027,
      "ĠPubMed": 5028,
      ".....": 5029,
      "andon": 5030,
      "usiness": 5031,
      "Ġexternal": 5032,
      "Ġshif": 5033,
      "Ġbutter": 5034,
      "ĠGree": 5035,
      "ĠEast": 5036,
      "Ġtruly": 5037,
      "cles": 5038,
      "ĠChina": 5039,
      "Ġblue": 5040,
      "Ġflash": 5041,
      "Ġchest": 5042,
      "Ġstarts": 5043,
      "axy": 5044,
      "exas": 5045,
      "ccording": 5046,
      "Ġchanging": 5047,
      "Ġweekend": 5048,
      "Ġequal": 5049,
      "oking": 5050,
      "Ġcenter": 5051,
      "Ġreviews": 5052,
      "Ġdetermine": 5053,
      "Ġconcerned": 5054,
      "Ġfilled": 5055,
      "Ġfairly": 5056,
      "Ġappeared": 5057,
      "Ġsurprised": 5058,
      "Ġalternative": 5059,
      "Ġprofessional": 5060,
      "Ġexamples": 5061,
      "UTC": 5062,
      "ĠItaly": 5063,
      "Ġarrang": 5064,
      "Ġdollars": 5065,
      "ĠCourt": 5066,
      "Ġempty": 5067,
      "!)": 5068,
      "Cont": 5069,
      "Of": 5070,
      "Yeah": 5071,
      "ait": 5072,
      "ls": 5073,
      "mar": 5074,
      "rant": 5075,
      "tered": 5076,
      "Ġbatter": 5077,
      "Ġbunch": 5078,
      "Ġfly": 5079,
      "Ġpuls": 5080,
      "Ġmode": 5081,
      "Ġmaster": 5082,
      "Ġlin": 5083,
      "Ġgain": 5084,
      "vere": 5085,
      "idents": 5086,
      "iments": 5087,
      "ĠTop": 5088,
      "ĠTime": 5089,
      "ĠTHE": 5090,
      "Ġstuck": 5091,
      "ĠCell": 5092,
      "olf": 5093,
      "ĠDNA": 5094,
      "Ġexerc": 5095,
      "Ġdog": 5096,
      "ĠJones": 5097,
      "Ġplans": 5098,
      "Ġplug": 5099,
      "Ġadvert": 5100,
      "ults": 5101,
      "Ġapparatus": 5102,
      "clop": 5103,
      "Ġknowing": 5104,
      "ĠKing": 5105,
      "lib": 5106,
      "Ġshoulder": 5107,
      "Ġbrows": 5108,
      "Ġdescription": 5109,
      "Ġremove": 5110,
      "Ġinstruct": 5111,
      "Ġsignals": 5112,
      "Ġ80": 5113,
      "Ġexpensive": 5114,
      "Ġrefere": 5115,
      "Ġreference": 5116,
      "Ġcorner": 5117,
      "Ġtrial": 5118,
      "Ġshowed": 5119,
      "Ġsucrose": 5120,
      "okes": 5121,
      "Ġofficer": 5122,
      "iques": 5123,
      "Ġreceive": 5124,
      "Ġmarried": 5125,
      "Ġvariables": 5126,
      "Ġcapac": 5127,
      "ervative": 5128,
      "ĠAbstract": 5129,
      "Ġapprox": 5130,
      "Ġwindow": 5131,
      "URL": 5132,
      "Ġnormally": 5133,
      "Ġbroken": 5134,
      "ĠSystem": 5135,
      "Ġsteps": 5136,
      "Ġannoy": 5137,
      "Ġdetermined": 5138,
      "Ġwalking": 5139,
      "Ġconcerns": 5140,
      "Ġcompetition": 5141,
      "Ġloaded": 5142,
      "Ġlaun": 5143,
      "Ġdelay": 5144,
      "Ġnecroclock": 5145,
      "ĠMichael": 5146,
      "Ġpurchase": 5147,
      "Ġinstrument": 5148,
      "Ġpublished": 5149,
      "Data": 5150,
      "Har": 5151,
      "IT": 5152,
      "Sam": 5153,
      "Time": 5154,
      "cr": 5155,
      "ding": 5156,
      "ey": 5157,
      "Ġtree": 5158,
      "Ġsand": 5159,
      "arian": 5160,
      "icity": 5161,
      "lly": 5162,
      "stood": 5163,
      "enter": 5164,
      "ĠTony": 5165,
      "ĠST": 5166,
      "acement": 5167,
      "ĠrDev": 5168,
      "abet": 5169,
      "Ġdoctor": 5170,
      "ĠRun": 5171,
      "ĠFire": 5172,
      "ĠNan": 5173,
      "ĠEl": 5174,
      "Ġworst": 5175,
      "ĠThank": 5176,
      "Ġadvent": 5177,
      "Ġadapt": 5178,
      "Ġquery": 5179,
      "Ġoffered": 5180,
      "Ġ31": 5181,
      "Ġprinc": 5182,
      "ship": 5183,
      "Ġreaders": 5184,
      "Ġincome": 5185,
      "Ġspecies": 5186,
      "Ġ70": 5187,
      "Ġinteract": 5188,
      "Ġprocesses": 5189,
      "Ġexplained": 5190,
      "Ġexplicit": 5191,
      "Ġsolutions": 5192,
      "Ġclasses": 5193,
      "Ġdistance": 5194,
      "Ġposts": 5195,
      "2009": 5196,
      "Ġcauses": 5197,
      "Ġbasically": 5198,
      "Ġapart": 5199,
      "Ġhistor": 5200,
      "Ġplanet": 5201,
      "Ġtypical": 5202,
      "ĠExpl": 5203,
      "Ġvariety": 5204,
      "Ġvolume": 5205,
      "Ġcritical": 5206,
      "Ġanaly": 5207,
      "Ġcomponent": 5208,
      "Ġdigital": 5209,
      "Ġopposite": 5210,
      "Ġconcentr": 5211,
      "Ġdangerous": 5212,
      "ĠAfric": 5213,
      "Ġwebsite": 5214,
      "Ġliquor": 5215,
      "Ġcategory": 5216,
      "Ġamazing": 5217,
      "Ġcommercial": 5218,
      "ĠiPhone": 5219,
      ">,": 5220,
      "Other": 5221,
      "des": 5222,
      "equ": 5223,
      "gers": 5224,
      "kins": 5225,
      "nger": 5226,
      "pet": 5227,
      "vis": 5228,
      "Ġtro": 5229,
      "Ġtact": 5230,
      "inj": 5231,
      "Ġsem": 5232,
      "Ġpark": 5233,
      "Ġder": 5234,
      "Ġdress": 5235,
      "Ġlaug": 5236,
      "ĠIre": 5237,
      "ĠIBM": 5238,
      "Ġeating": 5239,
      "ctors": 5240,
      "adem": 5241,
      "amie": 5242,
      "ĠSaid": 5243,
      "ĠBi": 5244,
      "ulous": 5245,
      "ĠPubl": 5246,
      "Ġprove": 5247,
      "Ġshoes": 5248,
      "Ġchair": 5249,
      "Ġlies": 5250,
      "Ġmerely": 5251,
      "ĠOld": 5252,
      "inder": 5253,
      "ucks": 5254,
      "Ġ45": 5255,
      "ruary": 5256,
      "Ġ52": 5257,
      "Ġdesk": 5258,
      "Ġremained": 5259,
      "Ġattract": 5260,
      "Ġbuying": 5261,
      "ĠiP": 5262,
      "Ġfamous": 5263,
      "Ġprocessor": 5264,
      "ONG": 5265,
      "unday": 5266,
      "Ġdepends": 5267,
      "lands": 5268,
      "Ġcausing": 5269,
      "ARCH": 5270,
      "Ġmoments": 5271,
      "ĠFriday": 5272,
      "Ġsteak": 5273,
      "porary": 5274,
      "ĠPhil": 5275,
      "Ġraise": 5276,
      "Ġinternet": 5277,
      "Ġjudge": 5278,
      "Ġactivities": 5279,
      "ĠGeorges": 5280,
      "ĠOpenURL": 5281,
      "Ġdeliver": 5282,
      "sych": 5283,
      "Ġbeautif": 5284,
      "Ġelectrical": 5285,
      "Ġinfluence": 5286,
      "Ġnavigation": 5287,
      "Ġingred": 5288,
      "Ġdropped": 5289,
      "ĠSharePoint": 5290,
      "respond": 5291,
      "++": 5292,
      "88": 5293,
      "Americ": 5294,
      "CC": 5295,
      "Can": 5296,
      "ED": 5297,
      "Me": 5298,
      "Pl": 5299,
      "Res": 5300,
      "Since": 5301,
      "TP": 5302,
      "Where": 5303,
      "boy": 5304,
      "cil": 5305,
      "ference": 5306,
      "gn": 5307,
      "oom": 5308,
      "rint": 5309,
      "spec": 5310,
      "tained": 5311,
      "Ġ`": 5312,
      "Ġ01": 5313,
      "Ġerr": 5314,
      "real": 5315,
      "Ġsan": 5316,
      "isters": 5317,
      "lets": 5318,
      "Ġlaugh": 5319,
      "Ġgym": 5320,
      "Ġyounger": 5321,
      "ĠWhere": 5322,
      "ĠFacebook": 5323,
      "elf": 5324,
      "endor": 5325,
      "ĠLast": 5326,
      "Ġlean": 5327,
      "ĠOut": 5328,
      "ĠJoe": 5329,
      "Ġcloud": 5330,
      "izations": 5331,
      "berg": 5332,
      "ipedia": 5333,
      "ittee": 5334,
      "Ġsynt": 5335,
      "Ġassume": 5336,
      "Ġmoder": 5337,
      "Ġdecide": 5338,
      "Ġtransfer": 5339,
      "Ġgenerate": 5340,
      "2013": 5341,
      "aida": 5342,
      "Ġversions": 5343,
      "Ġtypically": 5344,
      "isco": 5345,
      "Ġmagaz": 5346,
      "Ġconnected": 5347,
      "Ġgirls": 5348,
      "Ġbalance": 5349,
      "Ġpredict": 5350,
      "Score": 5351,
      "Ġextremely": 5352,
      "Ġtomorrow": 5353,
      "IC": 5354,
      "Us": 5355,
      "bles": 5356,
      "col": 5357,
      "function": 5358,
      "ham": 5359,
      "rough": 5360,
      "sub": 5361,
      "Ġtough": 5362,
      "Ġtired": 5363,
      "inian": 5364,
      "inux": 5365,
      "onna": 5366,
      "Ġsam": 5367,
      "Ġcab": 5368,
      "Ġbes": 5369,
      "Ġfab": 5370,
      "Ġfalse": 5371,
      "Ġhosp": 5372,
      "Ġthumb": 5373,
      "asure": 5374,
      "igger": 5375,
      "Ġforces": 5376,
      "ĠSat": 5377,
      "ĠSay": 5378,
      "ĠSara": 5379,
      "ĠCM": 5380,
      "ĠCor": 5381,
      "ĠMer": 5382,
      "ĠMil": 5383,
      "Ġrub": 5384,
      "ĠPress": 5385,
      "opy": 5386,
      "ests": 5387,
      "ĠRon": 5388,
      "ĠRock": 5389,
      "Ġshowing": 5390,
      "ĠFrench": 5391,
      "Ġchosen": 5392,
      "eline": 5393,
      "ĠJuly": 5394,
      "Ġtrain": 5395,
      "acter": 5396,
      "Ġunf": 5397,
      "Ġmanager": 5398,
      "ĠYO": 5399,
      "Ġperm": 5400,
      "Ġscream": 5401,
      "omething": 5402,
      "Ġeverybody": 5403,
      "Ġthrow": 5404,
      "coming": 5405,
      "brane": 5406,
      "Ġmodels": 5407,
      "Ġstrateg": 5408,
      "Ġminute": 5409,
      "Ġearn": 5410,
      "ĠAlthough": 5411,
      "ashion": 5412,
      "ĊĠĠĠĠĠĠĠĠĠĠĠ": 5413,
      "Ġpictures": 5414,
      "Ġmaintain": 5415,
      "ĠQue": 5416,
      "Ġmiles": 5417,
      "!!!": 5418,
      "Ġmagic": 5419,
      "ĠConst": 5420,
      "Ġstructures": 5421,
      "ĠSyria": 5422,
      "Ġvoters": 5423,
      "Ġfootball": 5424,
      "ĠIndian": 5425,
      "Ġstrike": 5426,
      "Ġinternational": 5427,
      "Ġpanel": 5428,
      "Ġrocket": 5429,
      "Ġalternate": 5430,
      "Ġopposition": 5431,
      "Ġprepared": 5432,
      "Ġconcentration": 5433,
      "Ġparameter": 5434,
      "CLU": 5435,
      "Ġenemy": 5436,
      "Ġprotein": 5437,
      "Ġfolks": 5438,
      "(\"": 5439,
      "Col": 5440,
      "John": 5441,
      "Met": 5442,
      "MAT": 5443,
      "PA": 5444,
      "Rec": 5445,
      "Ver": 5446,
      "fs": 5447,
      "pret": 5448,
      "well": 5449,
      "Ġ;": 5450,
      "Ġice": 5451,
      "Ġaim": 5452,
      "onic": 5453,
      "Ġwax": 5454,
      "Ġbub": 5455,
      "Ġfinger": 5456,
      "Ġmic": 5457,
      "Ġmolec": 5458,
      "Ġgro": 5459,
      "ĠTexas": 5460,
      "Ġstatic": 5461,
      "ĠMot": 5462,
      "ĠMac": 5463,
      "illed": 5464,
      "Ġride": 5465,
      "ĠPS": 5466,
      "ĠPower": 5467,
      "ĠDan": 5468,
      "estion": 5469,
      "abled": 5470,
      "usive": 5471,
      "ĠRel": 5472,
      "ĠGreat": 5473,
      "raid": 5474,
      "Ġsugar": 5475,
      "Ġplays": 5476,
      "ogue": 5477,
      "Ġunits": 5478,
      "Ġweren": 5479,
      "sole": 5480,
      "Ġ35": 5481,
      "ĠInc": 5482,
      "Ġrecover": 5483,
      "ĠChild": 5484,
      "Ġpoly": 5485,
      "Ġservers": 5486,
      "iously": 5487,
      "Ġevening": 5488,
      "Ġcoach": 5489,
      "Ġremaining": 5490,
      "Ġsmell": 5491,
      "Ġkeys": 5492,
      "Ġattacks": 5493,
      "Ġ2001": 5494,
      "Ġhelping": 5495,
      "vention": 5496,
      "Ġdecisions": 5497,
      "Ġincred": 5498,
      "uesday": 5499,
      "Ġproviding": 5500,
      "Ġgotten": 5501,
      "addy": 5502,
      "Ġexplains": 5503,
      "Ġfrag": 5504,
      "Ġglad": 5505,
      "Ġpossibility": 5506,
      "Ġconstant": 5507,
      "appy": 5508,
      "Ġrecords": 5509,
      "Ġviews": 5510,
      "ĠOnly": 5511,
      "Ġoccup": 5512,
      "Ġfourth": 5513,
      "Ġsuggested": 5514,
      "Ġamounts": 5515,
      "Ġtrend": 5516,
      "Ġcombination": 5517,
      "fficient": 5518,
      "Ġlabor": 5519,
      "Ġresponsibility": 5520,
      "Ġhoping": 5521,
      "Ġyesterday": 5522,
      "Ġexecut": 5523,
      "Ġefforts": 5524,
      "Ġphotos": 5525,
      "Ġintrodu": 5526,
      "Ġoccurred": 5527,
      "Ġrepeated": 5528,
      "cellent": 5529,
      "ĠBrazil": 5530,
      "Ġelectronic": 5531,
      "transition": 5532,
      "Ġspirit": 5533,
      "Ġvoltage": 5534,
      "Ġfreedom": 5535,
      "En": 5536,
      "Good": 5537,
      "bra": 5538,
      "cal": 5539,
      "from": 5540,
      "hold": 5541,
      "house": 5542,
      "men": 5543,
      "pd": 5544,
      "parent": 5545,
      "rants": 5546,
      "uld": 5547,
      "uel": 5548,
      "za": 5549,
      "Ġtiny": 5550,
      "init": 5551,
      "rees": 5552,
      "erves": 5553,
      "isation": 5554,
      "Ġmine": 5555,
      "Ġhom": 5556,
      "Ġthin": 5557,
      "Ġnode": 5558,
      "Ġrent": 5559,
      "igs": 5560,
      "ĠSaturday": 5561,
      "ĠCN": 5562,
      "ĠMem": 5563,
      "Ġconform": 5564,
      "ĠHam": 5565,
      "riv": 5566,
      "ĠDid": 5567,
      "uman": 5568,
      "Ġvul": 5569,
      "Ġshr": 5570,
      "Ġkick": 5571,
      "ĠLond": 5572,
      "ĠLaw": 5573,
      "Ġplant": 5574,
      "Ġsomehow": 5575,
      "Ġknight": 5576,
      "ĠUse": 5577,
      "Ġmanner": 5578,
      "Ġmanagement": 5579,
      "Ġgrade": 5580,
      "Ġdisag": 5581,
      "Ġpartners": 5582,
      "ĠStan": 5583,
      "Ġthinks": 5584,
      "Ġbackground": 5585,
      "Ġcommit": 5586,
      "ighter": 5587,
      "Ġowners": 5588,
      "Ġcrowd": 5589,
      "Ġcarbon": 5590,
      "Ġdecades": 5591,
      "Ġstrange": 5592,
      "Ġcorrespond": 5593,
      "Ġfilter": 5594,
      "Ġedge": 5595,
      "Ġcream": 5596,
      "Ġtells": 5597,
      "Ġcarefully": 5598,
      "Ġbusy": 5599,
      "Ġtopic": 5600,
      "ĠSpam": 5601,
      "oken": 5602,
      "Ġofficers": 5603,
      "ĠGrand": 5604,
      "Ġveget": 5605,
      "Ġpicked": 5606,
      "Ġdefinition": 5607,
      "Ġportion": 5608,
      "Ġhyd": 5609,
      "Ġmeasurement": 5610,
      "Ġcookies": 5611,
      "Ġboys": 5612,
      "Ġseriously": 5613,
      "Ġpolicies": 5614,
      "Ġappeal": 5615,
      "Ġsurprise": 5616,
      "Ġsprouts": 5617,
      "roller": 5618,
      "Ġcloser": 5619,
      "Ġimagine": 5620,
      "Ġconfiguration": 5621,
      "Ġenemies": 5622,
      "Ġjoin": 5623,
      "Ġmaximum": 5624,
      "Ġdrug": 5625,
      "Ġrevealed": 5626,
      "Ġbreath": 5627,
      "Ġconversation": 5628,
      "Ġcandidate": 5629,
      "Ġaccompl": 5630,
      "Ġwitness": 5631,
      "Ġtransducer": 5632,
      "Most": 5633,
      "Per": 5634,
      "RONG": 5635,
      "cat": 5636,
      "can": 5637,
      "ease": 5638,
      "free": 5639,
      "greg": 5640,
      "hand": 5641,
      "iency": 5642,
      "lies": 5643,
      "link": 5644,
      "pir": 5645,
      "uing": 5646,
      "worth": 5647,
      "Ġtag": 5648,
      "hest": 5649,
      "inct": 5650,
      "Ġwake": 5651,
      "Ġcovered": 5652,
      "iser": 5653,
      "ingu": 5654,
      "ingle": 5655,
      "Ġfruit": 5656,
      "Ġpounds": 5657,
      "Ġmo": 5658,
      "Ġmicro": 5659,
      "Ġdinner": 5660,
      "Ġhole": 5661,
      "style": 5662,
      "roit": 5663,
      "ĠTest": 5664,
      "Ġfort": 5665,
      "ĠSal": 5666,
      "Ġstre": 5667,
      "Ġwhom": 5668,
      "ĠMA": 5669,
      "olt": 5670,
      "ĠHell": 5671,
      "rive": 5672,
      "pell": 5673,
      "Ġliked": 5674,
      "eling": 5675,
      "ivered": 5676,
      "ĠThu": 5677,
      "Ġadvice": 5678,
      "Ġenh": 5679,
      "ignment": 5680,
      "Ġoffers": 5681,
      "claim": 5682,
      "Ġrecovery": 5683,
      "Ġserving": 5684,
      "Ġ2003": 5685,
      "ollow": 5686,
      "type": 5687,
      "Ġguide": 5688,
      "Ġowner": 5689,
      "Ġassess": 5690,
      "Ġregime": 5691,
      "Ġindeed": 5692,
      "Ġdecent": 5693,
      "Ġretirement": 5694,
      "Ġnumer": 5695,
      "Ġexplan": 5696,
      "vernment": 5697,
      "ĠComput": 5698,
      "Ġpassing": 5699,
      "Ġinfrared": 5700,
      "Ġtrip": 5701,
      "Ġdriving": 5702,
      "ossible": 5703,
      "2008": 5704,
      "Ġkilling": 5705,
      "Ġperformed": 5706,
      "umbled": 5707,
      "Ġcuts": 5708,
      "Ġmenu": 5709,
      "Ġobjects": 5710,
      "Ġsentence": 5711,
      "porate": 5712,
      "Ġwalked": 5713,
      "Ġcrap": 5714,
      "Config": 5715,
      "Ġslowly": 5716,
      "Ġsatisf": 5717,
      "Ġvictims": 5718,
      "ĠPalest": 5719,
      "People": 5720,
      "Ġnodded": 5721,
      "Ġdistribution": 5722,
      "ĠInternet": 5723,
      "ĠFrancisco": 5724,
      "Ġdynamic": 5725,
      "Ġrestaurant": 5726,
      "Ġadministration": 5727,
      "Ġsafety": 5728,
      "ĠHenry": 5729,
      "ĠLondon": 5730,
      "77": 5731,
      "Any": 5732,
      "Every": 5733,
      "LE": 5734,
      "Many": 5735,
      "Se": 5736,
      "iance": 5737,
      "lock": 5738,
      "yer": 5739,
      "Ġiron": 5740,
      "Ġtick": 5741,
      "Ġtaught": 5742,
      "Ġsick": 5743,
      "Ġokay": 5744,
      "Ġcup": 5745,
      "ita": 5746,
      "Ġbread": 5747,
      "Ġmel": 5748,
      "Ġmobile": 5749,
      "Ġdust": 5750,
      "icip": 5751,
      "Ġgent": 5752,
      "Ġgonna": 5753,
      "oting": 5754,
      "rol": 5755,
      "ĠSQ": 5756,
      "Ġheight": 5757,
      "ĠMiss": 5758,
      "Ġ($": 5759,
      "ĠBer": 5760,
      "ĠBel": 5761,
      "Ġrh": 5762,
      "Ġrich": 5763,
      "umn": 5764,
      "ĠRod": 5765,
      "Ġshook": 5766,
      "Ġchamber": 5767,
      "ĠGen": 5768,
      "Ġsuck": 5769,
      "Ġusage": 5770,
      "These": 5771,
      "ĠUV": 5772,
      "Ġquarter": 5773,
      "Ġanywhere": 5774,
      "Ġuniverse": 5775,
      "Ġbecoming": 5776,
      "ormal": 5777,
      "Ġthank": 5778,
      "Ġspeaking": 5779,
      "ĠHealth": 5780,
      "Ġroll": 5781,
      "Ġserved": 5782,
      "Ġdesper": 5783,
      "Ġsmooth": 5784,
      "Ġsuppose": 5785,
      "Ġmembrane": 5786,
      "Ġfactory": 5787,
      "Ġexperts": 5788,
      "Ġstudies": 5789,
      "2007": 5790,
      "Ġreturns": 5791,
      "Ġcontrols": 5792,
      "Ġtechniques": 5793,
      "Ġmissed": 5794,
      "ĠEarths": 5795,
      "Ġhyper": 5796,
      "ĠSenator": 5797,
      "Ġfunds": 5798,
      "Ġhonor": 5799,
      "Ġmixed": 5800,
      "ĠMorgan": 5801,
      "ĠSmith": 5802,
      "Ġmurder": 5803,
      "ĠNOT": 5804,
      "Ġaccurate": 5805,
      "ĠDetroit": 5806,
      "EXT": 5807,
      "ĠMurray": 5808,
      "ĠBrotherhood": 5809,
      "Ġalbum": 5810,
      "\")": 5811,
      "**": 5812,
      "90": 5813,
      "==": 5814,
      "Are": 5815,
      "OO": 5816,
      "OT": 5817,
      "een": 5818,
      "iate": 5819,
      "iams": 5820,
      "talk": 5821,
      "works": 5822,
      "};": 5823,
      "ona": 5824,
      "Ġwire": 5825,
      "ato": 5826,
      "Ġcrisis": 5827,
      "isle": 5828,
      "Ġbath": 5829,
      "esome": 5830,
      "Ġfold": 5831,
      "Ġpulse": 5832,
      "Ġpsych": 5833,
      "Ġdu": 5834,
      "Ġdance": 5835,
      "Ġhidden": 5836,
      "Ġnative": 5837,
      "Ġloud": 5838,
      "Ġloose": 5839,
      "Ġlosing": 5840,
      "ĠID": 5841,
      "state": 5842,
      "amin": 5843,
      "ĠScience": 5844,
      "acon": 5845,
      "Ġaside": 5846,
      "chron": 5847,
      "Ġrough": 5848,
      "Ġrise": 5849,
      "ĠPart": 5850,
      "ĠDark": 5851,
      "istory": 5852,
      "Ġshad": 5853,
      "Ġshift": 5854,
      "ĠFinally": 5855,
      "Ġalle": 5856,
      "ĠGM": 5857,
      "ĠLook": 5858,
      "Ġgoa": 5859,
      "ĠOK": 5860,
      "ocument": 5861,
      "ĠJo": 5862,
      "Ġusual": 5863,
      "asty": 5864,
      "ĠUnder": 5865,
      "Ġunable": 5866,
      "Ġacadem": 5867,
      "Ġgrass": 5868,
      "Ġteen": 5869,
      "ĠVal": 5870,
      "Ġimpedance": 5871,
      "liver": 5872,
      "Ġacting": 5873,
      "Ġdesired": 5874,
      "comm": 5875,
      "Ġsigned": 5876,
      "Ġdecre": 5877,
      "ologies": 5878,
      "ĠUnion": 5879,
      "Ġhardware": 5880,
      "Ġcounting": 5881,
      "ĠComics": 5882,
      "Ġlargest": 5883,
      "Ġkeeps": 5884,
      "Ġevolution": 5885,
      "Ġexperiment": 5886,
      "Ġtechnical": 5887,
      "Ġpaying": 5888,
      "Hey": 5889,
      "Ġreceiver": 5890,
      "Ġafford": 5891,
      "Ġtaxes": 5892,
      "Ġtrees": 5893,
      "ĠTrans": 5894,
      "Ġemployees": 5895,
      "Ġsignificantly": 5896,
      "ĠUser": 5897,
      "Ġperfectly": 5898,
      "Ġcollection": 5899,
      "Ġattempts": 5900,
      "ĠCommun": 5901,
      "ĠTwo": 5902,
      "ĠMinister": 5903,
      "ĠFebruary": 5904,
      "Ġregarding": 5905,
      "Ġfellow": 5906,
      "Pepper": 5907,
      "Ġmacro": 5908,
      "Ġbegins": 5909,
      "Ġterrible": 5910,
      "Ġbarely": 5911,
      "Ġsuddenly": 5912,
      "Ġafraid": 5913,
      "Br": 5914,
      "Fig": 5915,
      "II": 5916,
      "PERL": 5917,
      "THE": 5918,
      "mes": 5919,
      "ql": 5920,
      "Ġ!": 5921,
      "hered": 5922,
      "Ġble": 5923,
      "Ġfish": 5924,
      "Ġpipe": 5925,
      "Ġansw": 5926,
      "Ġinj": 5927,
      "omic": 5928,
      "Ġlock": 5929,
      "utor": 5930,
      "section": 5931,
      "ĠToday": 5932,
      "ĠSk": 5933,
      "ĠSant": 5934,
      "ĠSign": 5935,
      "urb": 5936,
      "ĠMP": 5937,
      "Ġwel": 5938,
      "Ġconvey": 5939,
      "ĠWin": 5940,
      "ĠPublic": 5941,
      "uned": 5942,
      "ĠDaniel": 5943,
      "Ġneither": 5944,
      "Ġnegot": 5945,
      "user": 5946,
      "Ġproof": 5947,
      "Ġdogs": 5948,
      "Ġvac": 5949,
      "Ġlie": 5950,
      "ĠGeneral": 5951,
      "ardo": 5952,
      "Ġtracks": 5953,
      "Ġintended": 5954,
      "place": 5955,
      "Ġadmit": 5956,
      "Ġqual": 5957,
      "Ġquant": 5958,
      "Ġunus": 5959,
      "Ġagreed": 5960,
      "Ġtea": 5961,
      "ĠStill": 5962,
      "ĠStud": 5963,
      "Ġbrand": 5964,
      "phas": 5965,
      "Ġ2000": 5966,
      "ĠDead": 5967,
      "Ġrelax": 5968,
      "Ġcharged": 5969,
      "Ġincor": 5970,
      "Ġperspective": 5971,
      "Ġminimum": 5972,
      "anche": 5973,
      "Ġenter": 5974,
      "Ġentertain": 5975,
      "azon": 5976,
      "Ġgluc": 5977,
      "Ġbelieved": 5978,
      "Ġclassic": 5979,
      "Ġleads": 5980,
      "Ġparalle": 5981,
      "198": 5982,
      "Ġmeasuring": 5983,
      "Ġdemocr": 5984,
      "Ġreporting": 5985,
      "Ġpatients": 5986,
      "Ġcomputers": 5987,
      "Ġpaint": 5988,
      "Ġlearning": 5989,
      "Ġinvestig": 5990,
      "Ġbroke": 5991,
      "Ġpresidential": 5992,
      "Ġcorrectly": 5993,
      "Ġrequirements": 5994,
      "Ġformatting": 5995,
      "ĠDemocratic": 5996,
      "Ġdelivered": 5997,
      "Ġdomin": 5998,
      "related": 5999,
      "ĠTwitter": 6000,
      "ĠRemington": 6001,
      "Ġneighbor": 6002,
      "Ġdestroyed": 6003,
      "';": 6004,
      "HA": 6005,
      "Name": 6006,
      "gu": 6007,
      "ien": 6008,
      "lass": 6009,
      "run": 6010,
      "vin": 6011,
      "yr": 6012,
      "{$": 6013,
      "hell": 6014,
      "Ġsust": 6015,
      "Ġsouth": 6016,
      "Ġsources": 6017,
      "Ġsession": 6018,
      "Ġcou": 6019,
      "Ġcas": 6020,
      "Ġbomb": 6021,
      "anch": 6022,
      "Ġfacing": 6023,
      "Ġflex": 6024,
      "Ġpapers": 6025,
      "Ġmal": 6026,
      "Ġanger": 6027,
      "Ġdad": 6028,
      "ione": 6029,
      "Ġrein": 6030,
      "ett": 6031,
      "ĠTre": 6032,
      "amily": 6033,
      "ĠSpe": 6034,
      "ĠCr": 6035,
      "ĠCall": 6036,
      "cean": 6037,
      "ĠMartin": 6038,
      "oles": 6039,
      "ĠBo": 6040,
      "ĠBah": 6041,
      "ĠBBC": 6042,
      "Ġring": 6043,
      "Ġrates": 6044,
      "ĠHigh": 6045,
      "ĠPI": 6046,
      "Ġnoted": 6047,
      "ĠDel": 6048,
      "Ġpropos": 6049,
      "thur": 6050,
      "ĠNFL": 6051,
      "ĠLos": 6052,
      "ĠEv": 6053,
      "ĠJes": 6054,
      "ĠJacks": 6055,
      "Ġtrick": 6056,
      "Ġupgr": 6057,
      "Ġarc": 6058,
      "Ġarmed": 6059,
      "ĠYet": 6060,
      "Ġgrin": 6061,
      "Ġdiscl": 6062,
      "Ġparties": 6063,
      "Ġteeth": 6064,
      "anges": 6065,
      "ĠChris": 6066,
      "formation": 6067,
      "obe": 6068,
      "Ġflag": 6069,
      "Ġdefine": 6070,
      "Ġ66": 6071,
      "Ġreader": 6072,
      "ĠiOS": 6073,
      "Ġminister": 6074,
      "ĠWhich": 6075,
      "Ġextended": 6076,
      "Ġhighlight": 6077,
      "STRONG": 6078,
      "ducing": 6079,
      "Ġmainly": 6080,
      "Ġcontinues": 6081,
      "ointed": 6082,
      "Reg": 6083,
      "Ġmission": 6084,
      "Ġreplaced": 6085,
      "Ġconsidering": 6086,
      "ursday": 6087,
      "Ġresear": 6088,
      "Another": 6089,
      "Ġfundament": 6090,
      "know": 6091,
      "Ġimmigrants": 6092,
      "Ġlaunch": 6093,
      "Ġwalls": 6094,
      "Ġaffected": 6095,
      "Ġwonderful": 6096,
      "ĠItalian": 6097,
      "Ġsongs": 6098,
      "Ġweapon": 6099,
      "Ġfeedback": 6100,
      "Ġhouses": 6101,
      "ĠJapanese": 6102,
      "ĠSwed": 6103,
      "Ġchoices": 6104,
      "Ġphrase": 6105,
      "Ġarchitecture": 6106,
      "ĠTitan": 6107,
      "Ġassembly": 6108,
      "clopedia": 6109,
      "Ġcapacity": 6110,
      "Ġapproximately": 6111,
      "ĠPublisher": 6112,
      "Ġvulner": 6113,
      "76": 6114,
      "93": 6115,
      "Even": 6116,
      "IM": 6117,
      "Jun": 6118,
      "MAN": 6119,
      "Over": 6120,
      "care": 6121,
      "hors": 6122,
      "ipping": 6123,
      "lo": 6124,
      "oz": 6125,
      "wide": 6126,
      "xx": 6127,
      "Ġtent": 6128,
      "itz": 6129,
      "Ġbod": 6130,
      "Ġbother": 6131,
      "anne": 6132,
      "ori": 6133,
      "orge": 6134,
      "Ġfif": 6135,
      "Ġpal": 6136,
      "Ġangle": 6137,
      "Ġgee": 6138,
      "igration": 6139,
      "Ġwhis": 6140,
      "ĠCrisis": 6141,
      "ĠMonday": 6142,
      "ola": 6143,
      "olved": 6144,
      "ifier": 6145,
      "tery": 6146,
      "Ġwaste": 6147,
      "iller": 6148,
      "ĠBest": 6149,
      "Ġrif": 6150,
      "ago": 6151,
      "ĠWest": 6152,
      "ĠPot": 6153,
      "ested": 6154,
      "essage": 6155,
      "Ġsharp": 6156,
      "Ġcancer": 6157,
      "Ġabuse": 6158,
      "ĠLatin": 6159,
      "residence": 6160,
      "ĠJen": 6161,
      "aren": 6162,
      "Ġplastic": 6163,
      "Ġintellig": 6164,
      "Ġarmy": 6165,
      "Ġsav": 6166,
      "ionship": 6167,
      "Ġcontaining": 6168,
      "Ġdispl": 6169,
      "Ġspoke": 6170,
      "enses": 6171,
      "ĠVan": 6172,
      "Ġtwenty": 6173,
      "Ġbackup": 6174,
      "Ġunderstood": 6175,
      "Ġpositions": 6176,
      "ifications": 6177,
      "Ġtransport": 6178,
      "Ġsupply": 6179,
      "Ġhardly": 6180,
      "Ġexpress": 6181,
      "Ġexposed": 6182,
      "ĠArmy": 6183,
      "Ġcurve": 6184,
      "Ġfeelings": 6185,
      "azz": 6186,
      "Ġcontrolled": 6187,
      "Ġelected": 6188,
      "Ġdistrict": 6189,
      "ĠClick": 6190,
      "Ġdriver": 6191,
      "ructure": 6192,
      "Ġrestrict": 6193,
      "Ġrecording": 6194,
      "Ġreasonable": 6195,
      "scri": 6196,
      "Ġholds": 6197,
      "useum": 6198,
      "Ġoptim": 6199,
      "Ġproperties": 6200,
      "Ġwondering": 6201,
      "Ġmeasurements": 6202,
      "Ġmotor": 6203,
      "ĠFlash": 6204,
      "ASH": 6205,
      "Ġcopies": 6206,
      "Ġstrikes": 6207,
      "Also": 6208,
      "Ġinternal": 6209,
      "ĠMethod": 6210,
      "ĠWilliams": 6211,
      "Ġupdated": 6212,
      "Ġreligion": 6213,
      "ĠCentral": 6214,
      "chers": 6215,
      "Ġmatters": 6216,
      "Ġconsumers": 6217,
      "Ġviolence": 6218,
      "Ġsplit": 6219,
      "Ġapoptosis": 6220,
      "ĠAustralia": 6221,
      "Ġeggs": 6222,
      "Ġclothes": 6223,
      "Ġmanufacture": 6224,
      "Ġrevenue": 6225,
      "Ġpoliticians": 6226,
      "Ġbeautiful": 6227,
      "Ġanswered": 6228,
      "Ġglucose": 6229,
      "ĠJackson": 6230,
      "%)": 6231,
      ",\\": 6232,
      "600": 6233,
      "98": 6234,
      "=#": 6235,
      "AY": 6236,
      "Ben": 6237,
      "FR": 6238,
      "Note": 6239,
      "PM": 6240,
      "RP": 6241,
      "RR": 6242,
      "Tunes": 6243,
      "cks": 6244,
      "lin": 6245,
      "path": 6246,
      "rum": 6247,
      "sburg": 6248,
      "uations": 6249,
      "var": 6250,
      "Ġwins": 6251,
      "Ġcats": 6252,
      "Ġboring": 6253,
      "Ġpin": 6254,
      "Ġpit": 6255,
      "Ġtoler": 6256,
      "Ġlying": 6257,
      "Ġlatter": 6258,
      "Ġgrew": 6259,
      "Ġec": 6260,
      "otes": 6261,
      "ether": 6262,
      "etween": 6263,
      "ighed": 6264,
      "ĠAge": 6265,
      "ĠAlex": 6266,
      "Ġstret": 6267,
      "ĠCap": 6268,
      "ĠMa": 6269,
      "ĠMass": 6270,
      "ĠBell": 6271,
      "ĠHD": 6272,
      "ĠHot": 6273,
      "ĠPark": 6274,
      "Ġselling": 6275,
      "Ġdeploy": 6276,
      "abil": 6277,
      "oshi": 6278,
      "Ġchart": 6279,
      "Ġchip": 6280,
      "Ġkit": 6281,
      "ĠGai": 6282,
      "ĠJason": 6283,
      "acking": 6284,
      "orthern": 6285,
      "plate": 6286,
      "Ġarray": 6287,
      "Ġenforce": 6288,
      "Ġ$(": 6289,
      "Ġoverall": 6290,
      "Ġscrew": 6291,
      "Ġnewsp": 6292,
      "Ġblame": 6293,
      "version": 6294,
      "Ġcharges": 6295,
      "ĠUnfortunately": 6296,
      "Ġgenerated": 6297,
      "Ġgreatest": 6298,
      "ancing": 6299,
      "Ġfrustr": 6300,
      "Ġsolve": 6301,
      "Ġwarn": 6302,
      "Ġcontroll": 6303,
      "Ġexperi": 6304,
      "Ġexperiments": 6305,
      "Ġstandards": 6306,
      "Ġdrives": 6307,
      "Ġlocations": 6308,
      "----": 6309,
      "Ġtalked": 6310,
      "Ġeffectively": 6311,
      "Ġlargely": 6312,
      "Ġequip": 6313,
      "Ġsalt": 6314,
      "Ġcentral": 6315,
      "Ġpresented": 6316,
      "cribe": 6317,
      "Ġcapable": 6318,
      "ĠServices": 6319,
      "Ġtreated": 6320,
      "Ġhighest": 6321,
      "Ġprotected": 6322,
      "ĠEngland": 6323,
      "Ġmotion": 6324,
      "Ġemployed": 6325,
      "Ġdocuments": 6326,
      "Ġhorror": 6327,
      "Ġcameras": 6328,
      "ĠMcC": 6329,
      "Ġprojects": 6330,
      "ĠMetS": 6331,
      "Ġnecessarily": 6332,
      "Ġundead": 6333,
      "Ġrecognized": 6334,
      "Ġutil": 6335,
      "ennis": 6336,
      "ography": 6337,
      "Ġproposed": 6338,
      "ĊĊĠĠĠĠĠĠĠĠĠĠĠĠĠĠĠ": 6339,
      "VERSION": 6340,
      "ĠCounty": 6341,
      "Ġarrested": 6342,
      "Ġappreciate": 6343,
      "onymous": 6344,
      "Ġerrors": 6345,
      "MATTHE": 6346,
      "worthy": 6347,
      "Ġparallel": 6348,
      "MATTHEWS": 6349,
      "Des": 6350,
      "His": 6351,
      "KE": 6352,
      "Pre": 6353,
      "Please": 6354,
      "Rel": 6355,
      "Sm": 6356,
      "aa": 6357,
      "don": 6358,
      "fast": 6359,
      "look": 6360,
      "part": 6361,
      "pass": 6362,
      "uper": 6363,
      "Ġtears": 6364,
      "reens": 6365,
      "rete": 6366,
      "Ġsaint": 6367,
      "Ġwight": 6368,
      "Ġwra": 6369,
      "Ġbound": 6370,
      "orters": 6371,
      "Ġfro": 6372,
      "Ġancient": 6373,
      "Ġhung": 6374,
      "Ġlas": 6375,
      "Ġlunch": 6376,
      "Ġgather": 6377,
      "Ġreject": 6378,
      "ete": 6379,
      "igg": 6380,
      "ĠSil": 6381,
      "ĠSunday": 6382,
      "ĠCI": 6383,
      "celer": 6384,
      "olen": 6385,
      "Ġweird": 6386,
      "odeck": 6387,
      "ĠBoth": 6388,
      "Ġrom": 6389,
      "ĠPR": 6390,
      "rier": 6391,
      "Ġselection": 6392,
      "ĠDoug": 6393,
      "ĠDirect": 6394,
      "ĠDaily": 6395,
      "ategy": 6396,
      "Ġexcess": 6397,
      "Ġexcellent": 6398,
      "Ġvice": 6399,
      "ĠRight": 6400,
      "Ġshape": 6401,
      "Ġcharts": 6402,
      "Ġalter": 6403,
      "Ġalive": 6404,
      "Ġju": 6405,
      "Ġjohn": 6406,
      "Ġabandon": 6407,
      "Ġlets": 6408,
      "ĠExt": 6409,
      "ĠOper": 6410,
      "ĠOliver": 6411,
      "ĠThus": 6412,
      "aped": 6413,
      "Ġagents": 6414,
      "Ġdismiss": 6415,
      "ĠInter": 6416,
      "Ġsche": 6417,
      "Ġblocks": 6418,
      "Ġ=~": 6419,
      "obby": 6420,
      "Ġseek": 6421,
      "Ġremem": 6422,
      "Ġbuff": 6423,
      "ĠDeath": 6424,
      "Ġreply": 6425,
      "âĢĿ.": 6426,
      "ĠReg": 6427,
      "Ġsubsequ": 6428,
      "Ġharder": 6429,
      "Ġconfused": 6430,
      "config": 6431,
      "Ġbelieves": 6432,
      "Ġresulting": 6433,
      "Ġdevelopers": 6434,
      "Ġsupported": 6435,
      "Ġvisual": 6436,
      "Ġcutting": 6437,
      "Ġlimits": 6438,
      "Ġspecifically": 6439,
      "Ġadvance": 6440,
      "ĠPrint": 6441,
      "ĠEdward": 6442,
      "Ġexistence": 6443,
      "Ġdamn": 6444,
      "ĠFlor": 6445,
      "ASE": 6446,
      "Ġcontinuous": 6447,
      "Ġcomplexity": 6448,
      "Ġ4485": 6449,
      "ĠWilliam": 6450,
      "ĠPerhaps": 6451,
      "ĠOhio": 6452,
      "Ġbinary": 6453,
      "Ġdrawing": 6454,
      "Ġmountain": 6455,
      "ĠWiki": 6456,
      "ĠImages": 6457,
      "rogen": 6458,
      "ĠDefaults": 6459,
      "Ġdrugs": 6460,
      "Ġemerg": 6461,
      "ython": 6462,
      "Ġwatched": 6463,
      "Ġchallenges": 6464,
      "Ġunlikely": 6465,
      "Ġvirtual": 6466,
      "Ġagreement": 6467,
      "Ġexercise": 6468,
      "ĠSayy": 6469,
      "ĠConstitution": 6470,
      "96": 6471,
      "DC": 6472,
      "EST": 6473,
      "FIL": 6474,
      "FIX": 6475,
      "Last": 6476,
      "Roger": 6477,
      "Sign": 6478,
      "bin": 6479,
      "bre": 6480,
      "eal": 6481,
      "gment": 6482,
      "long": 6483,
      "po": 6484,
      "public": 6485,
      "rain": 6486,
      "uke": 6487,
      "west": 6488,
      "whel": 6489,
      "})": 6490,
      "Ġtack": 6491,
      "Ġtone": 6492,
      "Ġbird": 6493,
      "Ġborder": 6494,
      "ouston": 6495,
      "Ġfashion": 6496,
      "Ġped": 6497,
      "Ġpitch": 6498,
      "Ġpuzz": 6499,
      "Ġmad": 6500,
      "Ġmale": 6501,
      "Ġtoss": 6502,
      "Ġded": 6503,
      "Ġdiet": 6504,
      "aly": 6505,
      "Ġthroat": 6506,
      "ĠĠĊ": 6507,
      "idel": 6508,
      "ĠSar": 6509,
      "Ġstation": 6510,
      "Ġstress": 6511,
      "ĠColl": 6512,
      "ĠMK": 6513,
      "Ġweather": 6514,
      "ĠĠĠĠĠĠ": 6515,
      "illa": 6516,
      "Ġhabit": 6517,
      "ulf": 6518,
      "ĠHouston": 6519,
      "ĠWalk": 6520,
      "ĠRich": 6521,
      "ĠFig": 6522,
      "ĠName": 6523,
      "Ġchief": 6524,
      "ĠLinux": 6525,
      "ĠOff": 6526,
      "Ġtruck": 6527,
      "Ġintention": 6528,
      "Ġ->": 6529,
      "Ġcompat": 6530,
      "Ġadopt": 6531,
      "Ġunw": 6532,
      "Ġshell": 6533,
      "onder": 6534,
      "Ġtwist": 6535,
      "ictor": 6536,
      "Ġimpossible": 6537,
      "Ġbridge": 6538,
      "weight": 6539,
      "Ġflavor": 6540,
      "Ġ64": 6541,
      "Ġguard": 6542,
      "Ġsigns": 6543,
      "Ġindex": 6544,
      "ĠRev": 6545,
      "ĠRead": 6546,
      "atching": 6547,
      "ĠShow": 6548,
      "Ġentry": 6549,
      "Ġ90": 6550,
      "Ġexplo": 6551,
      "erring": 6552,
      "Ġstands": 6553,
      "Ġboat": 6554,
      "Ġinterests": 6555,
      "Ġlisten": 6556,
      "Ġexpectations": 6557,
      "Ġorigin": 6558,
      "Ġstored": 6559,
      "Ġclaimed": 6560,
      "Ġforever": 6561,
      "Ġsnow": 6562,
      "Ġprotection": 6563,
      "Ġmotiv": 6564,
      "Although": 6565,
      "ĠSecurity": 6566,
      "Ġholes": 6567,
      "ĠMori": 6568,
      "Ġsquare": 6569,
      "Before": 6570,
      "Ġcryst": 6571,
      "Ġefficiency": 6572,
      "ĠGalaxy": 6573,
      "Ġhousing": 6574,
      "Ġpushing": 6575,
      "Ġneighb": 6576,
      "ĠSociety": 6577,
      "Ġthousands": 6578,
      "Ġcomparison": 6579,
      "Ġimproved": 6580,
      "About": 6581,
      "historical": 6582,
      "Ġmagazine": 6583,
      "500": 6584,
      "Back": 6585,
      "Client": 6586,
      "IF": 6587,
      "LL": 6588,
      "Mark": 6589,
      "PD": 6590,
      "Today": 6591,
      "^{": 6592,
      "cious": 6593,
      "fall": 6594,
      "hh": 6595,
      "iat": 6596,
      "iot": 6597,
      "lig": 6598,
      "mates": 6599,
      "nic": 6600,
      "noon": 6601,
      "pace": 6602,
      "power": 6603,
      "rm": 6604,
      "sk": 6605,
      "}$": 6606,
      "Ġâ": 6607,
      "Ġtanks": 6608,
      "Ġast": 6609,
      "Ġaid": 6610,
      "Ġsight": 6611,
      "Ġox": 6612,
      "Ġcru": 6613,
      "Ġfought": 6614,
      "arant": 6615,
      "Ġhall": 6616,
      "ĠTank": 6617,
      "ĠAV": 6618,
      "ĠAir": 6619,
      "Ġstim": 6620,
      "Ġstolen": 6621,
      "ĠCamp": 6622,
      "ĠChen": 6623,
      "ĠCarl": 6624,
      "irgin": 6625,
      "ĠMat": 6626,
      "oding": 6627,
      "ĠBur": 6628,
      "ĠBusiness": 6629,
      "ĠWil": 6630,
      "ĠWall": 6631,
      "ĠWord": 6632,
      "ĠWater": 6633,
      "ĠPop": 6634,
      "ĠProp": 6635,
      "ĊĊĊĠĠĠ": 6636,
      "ĊĊĠĠĠĠĠĠĠĠĠĠĠĠĠĠĠĠ": 6637,
      "ĊĊĠĠĠĠĠĠĠĠĠ": 6638,
      "Ġexists": 6639,
      "Ġproport": 6640,
      "umm": 6641,
      "umble": 6642,
      "umber": 6643,
      "Ġvs": 6644,
      "Ġvan": 6645,
      "Ġvision": 6646,
      "istan": 6647,
      "antasy": 6648,
      "ĠFederal": 6649,
      "Ġalt": 6650,
      "Ġalge": 6651,
      "Ġkiss": 6652,
      "ĠLive": 6653,
      "ĠEr": 6654,
      "ĠJer": 6655,
      "asted": 6656,
      "Ġplus": 6657,
      "Ġplane": 6658,
      "iva": 6659,
      "Ġclock": 6660,
      "ĠThough": 6661,
      "Ġunre": 6662,
      "Ġapps": 6663,
      "ĠKent": 6664,
      "ĠKore": 6665,
      "ĠStep": 6666,
      "Ġdont": 6667,
      "Ġblind": 6668,
      "Ġ05": 6669,
      "Ġ07": 6670,
      "Ġemphas": 6671,
      "Ġformal": 6672,
      "Ġcarried": 6673,
      "Ġmodules": 6674,
      "Ġdecade": 6675,
      "Ġends": 6676,
      "bey": 6677,
      "connect": 6678,
      "Ġsecondary": 6679,
      "Ġletting": 6680,
      "ikes": 6681,
      "Ġevil": 6682,
      "Ġcreation": 6683,
      "Ġdrag": 6684,
      "ĠBrown": 6685,
      "Ġdiscovered": 6686,
      "ĠIsland": 6687,
      "Ġtraffic": 6688,
      "Ġcommunication": 6689,
      "nedy": 6690,
      "Ġbrew": 6691,
      "Ġnearby": 6692,
      "ĠProgram": 6693,
      "Ġsuggests": 6694,
      "ĠCanada": 6695,
      "Ġcultural": 6696,
      "ĠCheck": 6697,
      "Ġcooking": 6698,
      "ĠAmazon": 6699,
      "Ġhorrible": 6700,
      "ĠPerl": 6701,
      "Ġfrequently": 6702,
      "Ġmassive": 6703,
      "going": 6704,
      "nesday": 6705,
      "Ġdrinking": 6706,
      "ĠEnter": 6707,
      "Ġfocused": 6708,
      "Ġshooting": 6709,
      "Ġtalent": 6710,
      "Ġvictory": 6711,
      "Ġleadership": 6712,
      "Ġbeauty": 6713,
      "Dean": 6714,
      "Ġinvention": 6715,
      "Makefile": 6716,
      "Ġjournalism": 6717,
      "Ġsynchron": 6718,
      "ĠCharles": 6719,
      "Ġultimately": 6720,
      "ĠSocial": 6721,
      "Ġemotion": 6722,
      "Ġthousand": 6723,
      "Ġcarrying": 6724,
      "ĠAgain": 6725,
      "Ġcomfortable": 6726,
      "Ġscientific": 6727,
      "ixture": 6728,
      "Ġrapid": 6729,
      "Ġcircumst": 6730,
      "Ġconsequences": 6731,
      "ĠGreek": 6732,
      "Ġingredients": 6733,
      "Ġnumerous": 6734,
      "%.": 6735,
      "73": 6736,
      "Act": 6737,
      "Att": 6738,
      "BS": 6739,
      "Fl": 6740,
      "Gr": 6741,
      "HASH": 6742,
      "Ke": 6743,
      "Net": 6744,
      "Pr": 6745,
      "TER": 6746,
      "Was": 6747,
      "Will": 6748,
      "da": 6749,
      "den": 6750,
      "eper": 6751,
      "even": 6752,
      "iest": 6753,
      "press": 6754,
      "ses": 6755,
      "vy": 6756,
      "ye": 6757,
      "reate": 6758,
      "Ġske": 6759,
      "Ġsending": 6760,
      "Ġwet": 6761,
      "Ġwild": 6762,
      "itute": 6763,
      "Ġbull": 6764,
      "ouis": 6765,
      "esla": 6766,
      "Ġfraction": 6767,
      "eds": 6768,
      "arc": 6769,
      "arn": 6770,
      "Ġhint": 6771,
      "Ġincomp": 6772,
      "omy": 6773,
      "Ġnine": 6774,
      "Ġgam": 6775,
      "Ġyield": 6776,
      "iders": 6777,
      "ĠTra": 6778,
      "ammed": 6779,
      "ĠSpec": 6780,
      "Ġstead": 6781,
      "ilot": 6782,
      "ĠBill": 6783,
      "employ": 6784,
      "Ġconvert": 6785,
      "Ġcomed": 6786,
      "riers": 6787,
      "Ġsees": 6788,
      "ĠDO": 6789,
      "essed": 6790,
      "Ġprosec": 6791,
      "istered": 6792,
      "ĠRoger": 6793,
      "osh": 6794,
      "Ġbytes": 6795,
      "elian": 6796,
      "ĠGold": 6797,
      "ĠEnd": 6798,
      "ĠElect": 6799,
      "ideo": 6800,
      "perl": 6801,
      "earing": 6802,
      "ansion": 6803,
      "ogether": 6804,
      "Ġuncle": 6805,
      "ubs": 6806,
      "Ġoffering": 6807,
      "Ġprev": 6808,
      "Ġpreviously": 6809,
      "Ġoverwhel": 6810,
      "Ġproud": 6811,
      "ruce": 6812,
      "ĠChi": 6813,
      "ĠChamp": 6814,
      "Ġbrill": 6815,
      "Ġflav": 6816,
      "show": 6817,
      "Ġattend": 6818,
      "hens": 6819,
      "âĢĿ,": 6820,
      "ĠAnother": 6821,
      "ĠAngel": 6822,
      "Ġindicate": 6823,
      "Ġheads": 6824,
      "Ġstrategy": 6825,
      "they": 6826,
      "Ġconfir": 6827,
      "Ġconfidence": 6828,
      "Ġfollows": 6829,
      "Ġedit": 6830,
      "Ġlocated": 6831,
      "Ġimportance": 6832,
      "Ġcareful": 6833,
      "Ġrecorder": 6834,
      "Ġopposed": 6835,
      "Ġlistening": 6836,
      "Ġequival": 6837,
      "umped": 6838,
      "Ġcharacteristic": 6839,
      "Ġpotentially": 6840,
      "Ġsensitive": 6841,
      "ĠAbout": 6842,
      "Ġinitially": 6843,
      "ĠSupp": 6844,
      "Ġbringing": 6845,
      "check": 6846,
      "Ġaudiences": 6847,
      "Ġpercentage": 6848,
      "annel": 6849,
      "Ġenjoyed": 6850,
      "Ġindividuals": 6851,
      "Ġsurvive": 6852,
      "Ġsurvival": 6853,
      "ĠWikipedia": 6854,
      "Ġcomposition": 6855,
      "ĠIII": 6856,
      "Ġmurd": 6857,
      "Ġjoined": 6858,
      "Ġconsistent": 6859,
      "Ġincreasingly": 6860,
      "Ġliberal": 6861,
      "Ġbankrupt": 6862,
      "erlot": 6863,
      "ĠHTML": 6864,
      "Ġattributes": 6865,
      "Ġresistance": 6866,
      "SPAN": 6867,
      "Ġabsolutely": 6868,
      "Ġdefeat": 6869,
      "Ġdiagn": 6870,
      "Ġpulses": 6871,
      "ĠIreland": 6872,
      "Ġhospital": 6873,
      "Ġexplanation": 6874,
      "ĠPalestinian": 6875,
      "ĠRodrig": 6876,
      ",[": 6877,
      "92": 6878,
      "97": 6879,
      "Am": 6880,
      "Go": 6881,
      "Te": 6882,
      "aun": 6883,
      "bered": 6884,
      "dis": 6885,
      "lines": 6886,
      "uous": 6887,
      "vest": 6888,
      "Ġ00": 6889,
      "Ġvert": 6890,
      "Ġtail": 6891,
      "iner": 6892,
      "Ġsir": 6893,
      "Ġsrc": 6894,
      "Ġwave": 6895,
      "Ġoh": 6896,
      "Ġfiring": 6897,
      "Ġmand": 6898,
      "Ġdying": 6899,
      "Ġinh": 6900,
      "asant": 6901,
      "Ġnorth": 6902,
      "Ġrevel": 6903,
      "Ġrender": 6904,
      "uts": 6905,
      "imm": 6906,
      "iminal": 6907,
      "roc": 6908,
      "igen": 6909,
      "igan": 6910,
      "ĠSult": 6911,
      "ĠSaints": 6912,
      "Ġheav": 6913,
      "Ġstom": 6914,
      "Ġstated": 6915,
      "Ġstaring": 6916,
      "Ġasks": 6917,
      "ĠMal": 6918,
      "Ġ(\"": 6919,
      "ĠBerl": 6920,
      "Ġrain": 6921,
      "Ġraw": 6922,
      "Ġathe": 6923,
      "ĠHor": 6924,
      "ĠHome": 6925,
      "rix": 6926,
      "orer": 6927,
      "ĠDi": 6928,
      "abs": 6929,
      "Ġvary": 6930,
      "ĠFriend": 6931,
      "ĠNE": 6932,
      "ĠNor": 6933,
      "Ġchips": 6934,
      "eless": 6935,
      "endment": 6936,
      "Ġjoke": 6937,
      "Ġabilities": 6938,
      "ĠLog": 6939,
      "ĠJournal": 6940,
      "acked": 6941,
      "ptions": 6942,
      "astructure": 6943,
      "udge": 6944,
      "Ġsaved": 6945,
      "inking": 6946,
      "Ġads": 6947,
      "Ġquote": 6948,
      "Ġjustice": 6949,
      "eping": 6950,
      "Ġnose": 6951,
      "Ġnoise": 6952,
      "icken": 6953,
      "Ġdisease": 6954,
      "Ġresolution": 6955,
      "uced": 6956,
      "velength": 6957,
      "Ġ55": 6958,
      "fts": 6959,
      "liament": 6960,
      "Ġafternoon": 6961,
      "Ġdescribe": 6962,
      "Ġsmiled": 6963,
      "Ġwriter": 6964,
      "Ġwrites": 6965,
      "Ġadds": 6966,
      "Ġphil": 6967,
      "Ġconsult": 6968,
      "Ġcrime": 6969,
      "upreme": 6970,
      "Ġregister": 6971,
      "ixel": 6972,
      "Ġobtain": 6973,
      "cipl": 6974,
      "Ġinterpret": 6975,
      "Ġmemories": 6976,
      "Ġrefused": 6977,
      "Ġfacts": 6978,
      "Ġ||": 6979,
      "lessly": 6980,
      "Ġdirected": 6981,
      "inese": 6982,
      "ĠClark": 6983,
      "Ġswit": 6984,
      "2005": 6985,
      "Ġoppon": 6986,
      "Ġmusical": 6987,
      "Ġoperations": 6988,
      "Ġsucceed": 6989,
      "Ġvideos": 6990,
      "ircraft": 6991,
      "Review": 6992,
      "ĠOnline": 6993,
      "Who": 6994,
      "nape": 6995,
      "Ġreceiving": 6996,
      "Ġorganic": 6997,
      "Ġpromise": 6998,
      "ĠFrank": 6999,
      "Ġestim": 7000,
      "ĠGroup": 7001,
      "Ġmoral": 7002,
      "Ġdebug": 7003,
      "Ġhealthy": 7004,
      "ĠMrs": 7005,
      "Ġfigured": 7006,
      "Ġrelevant": 7007,
      "ĠChem": 7008,
      "Ġfalls": 7009,
      "Ġcombat": 7010,
      "Ġcrazy": 7011,
      "Ġactivity": 7012,
      "Ġtradition": 7013,
      "mpire": 7014,
      "Ġlabel": 7015,
      "END": 7016,
      "words": 7017,
      "Ġclosing": 7018,
      "Ġprofessor": 7019,
      "ĠGermany": 7020,
      "Ġthreads": 7021,
      "default": 7022,
      "Ġdegrees": 7023,
      "Ġprecise": 7024,
      "Ġmental": 7025,
      "Ġmistake": 7026,
      "ĠRobert": 7027,
      "Ġstruggle": 7028,
      "Ġarrived": 7029,
      "Ġheroes": 7030,
      "Ġvehicles": 7031,
      "ĠMagic": 7032,
      "ĠThomas": 7033,
      "Ġyellow": 7034,
      "Ġbrowser": 7035,
      "Ġinstructions": 7036,
      "abetes": 7037,
      "inja": 7038,
      "Ġfundamental": 7039,
      "Ġequipment": 7040,
      "ĠSultan": 7041,
      "')": 7042,
      "Because": 7043,
      "CD": 7044,
      "CE": 7045,
      "HP": 7046,
      "Jump": 7047,
      "Mrs": 7048,
      "Pol": 7049,
      "Spec": 7050,
      "afe": 7051,
      "cons": 7052,
      "dy": 7053,
      "fit": 7054,
      "iable": 7055,
      "lar": 7056,
      "now": 7057,
      "rd": 7058,
      "tw": 7059,
      "tte": 7060,
      "your": 7061,
      "ĊĠĠ": 7062,
      "reated": 7063,
      "Ġwood": 7064,
      "Ġok": 7065,
      "Ġcert": 7066,
      "Ġbold": 7067,
      "Ġfired": 7068,
      "Ġmath": 7069,
      "Ġhook": 7070,
      "Ġnull": 7071,
      "ĠIM": 7072,
      "Ġgarden": 7073,
      "Ġrely": 7074,
      "ĠTesla": 7075,
      "Ġforth": 7076,
      "ĠSuch": 7077,
      "ĠSometimes": 7078,
      "ĠSupreme": 7079,
      "ĠAccording": 7080,
      "ĠCage": 7081,
      "ĠML": 7082,
      "ilty": 7083,
      "oded": 7084,
      "Ġ(#": 7085,
      "ĠBad": 7086,
      "emen": 7087,
      "ula": 7088,
      "ulating": 7089,
      "Ġconclusion": 7090,
      "ĠHerm": 7091,
      "ĠWH": 7092,
      "ĠWild": 7093,
      "ĠPort": 7094,
      "ĠPak": 7095,
      "Ġseat": 7096,
      "than": 7097,
      "umer": 7098,
      "Ġvast": 7099,
      "Ġshit": 7100,
      "pered": 7101,
      "ĠFree": 7102,
      "ĠNote": 7103,
      "ĠNext": 7104,
      "Ġchain": 7105,
      "Ġchances": 7106,
      "arted": 7107,
      "Ġjail": 7108,
      "Ġjury": 7109,
      "ĠLang": 7110,
      "Ġsomebody": 7111,
      "ĠUK": 7112,
      "apes": 7113,
      "Ġmanip": 7114,
      "intend": 7115,
      "Ġoffense": 7116,
      "Ġresource": 7117,
      "cessor": 7118,
      "angle": 7119,
      "ĠChic": 7120,
      "Ġblank": 7121,
      "athy": 7122,
      "athan": 7123,
      "Ġconservative": 7124,
      "Ġpointed": 7125,
      "Ġmetap": 7126,
      "aha": 7127,
      "Ġindic": 7128,
      "Ġheading": 7129,
      "Ġcolumn": 7130,
      "mann": 7131,
      "Ġconfirm": 7132,
      "Ġputs": 7133,
      "Ġideal": 7134,
      "ĊĠĠĠĠĠĠĠĠĠĠĠĠĠĠĠĠ": 7135,
      "Ġbigger": 7136,
      "Ġdepending": 7137,
      "RES": 7138,
      "REFIX": 7139,
      "Ġlegs": 7140,
      "Ġmeasures": 7141,
      "ĠXML": 7142,
      "Ġoperate": 7143,
      "Ġequally": 7144,
      "Ġbusinesses": 7145,
      "Ġwavelength": 7146,
      "umba": 7147,
      "who": 7148,
      "Ġoccasion": 7149,
      "ĠJohnson": 7150,
      "Ġorganizations": 7151,
      "Ġdrawn": 7152,
      "Ġfails": 7153,
      "ischer": 7154,
      "ATO": 7155,
      "Ġappearance": 7156,
      "Ġstores": 7157,
      "Ġcreates": 7158,
      "Ġcreature": 7159,
      "Ġinvestigation": 7160,
      "Ġannounced": 7161,
      "Ġdestruction": 7162,
      "Ġprimarily": 7163,
      "Ġcoverage": 7164,
      "ENT": 7165,
      "Ġrecognize": 7166,
      "Ġcycle": 7167,
      "Ġintroduced": 7168,
      "Ġillustr": 7169,
      "ĠRemember": 7170,
      "Ġsuffering": 7171,
      "Ġera": 7172,
      "Ġeditorial": 7173,
      "Ġpushed": 7174,
      "ĠInternational": 7175,
      "ĠKennedy": 7176,
      "Ġridic": 7177,
      "Written": 7178,
      "ĠAttached": 7179,
      "Ġinnov": 7180,
      "ĠLeonardo": 7181,
      "Ġmemorial": 7182,
      "ĠWii": 7183,
      "ĠAND": 7184,
      "Ġprocedure": 7185,
      "Ġexplicitly": 7186,
      "ĠAfrica": 7187,
      "ARCHLIB": 7188,
      "ĠMeru": 7189,
      "Ġstreets": 7190,
      "ĠJesus": 7191,
      "scribe": 7192,
      "ĠFlorida": 7193,
      "71": 7194,
      "79": 7195,
      "?)": 7196,
      "Bl": 7197,
      "Load": 7198,
      "MM": 7199,
      "Sorry": 7200,
      "eg": 7201,
      "faces": 7202,
      "lor": 7203,
      "nel": 7204,
      "oir": 7205,
      "rich": 7206,
      "times": 7207,
      "Ġq": 7208,
      "Ġtape": 7209,
      "inance": 7210,
      "req": 7211,
      "rey": 7212,
      "Ġwed": 7213,
      "Ġwest": 7214,
      "Ġocean": 7215,
      "Ġbowl": 7216,
      "Ġmild": 7217,
      "Ġdirty": 7218,
      "aled": 7219,
      "Ġhr": 7220,
      "Ġthrew": 7221,
      "lege": 7222,
      "asma": 7223,
      "omorph": 7224,
      "sters": 7225,
      "stone": 7226,
      "imize": 7227,
      "ĠTake": 7228,
      "ĠTerr": 7229,
      "Ġforg": 7230,
      "ĠSir": 7231,
      "ĠSchool": 7232,
      "ĠAri": 7233,
      "ĠCup": 7234,
      "ĠCustom": 7235,
      "ĠBul": 7236,
      "Ġrational": 7237,
      "Ġconclud": 7238,
      "ĠWal": 7239,
      "ĠWould": 7240,
      "ĠWestern": 7241,
      "ĠPD": 7242,
      "Ġsea": 7243,
      "Ġdelic": 7244,
      "ĠDisc": 7245,
      "Ġneut": 7246,
      "Ġexchange": 7247,
      "Ġdoors": 7248,
      "istent": 7249,
      "osn": 7250,
      "ĠNaz": 7251,
      "ĠGOP": 7252,
      "ĠEU": 7253,
      "asts": 7254,
      "Ġmyst": 7255,
      "Ġhash": 7256,
      "Ġclin": 7257,
      "Ġclar": 7258,
      "Ġadop": 7259,
      "Ġcontest": 7260,
      "Ġapple": 7261,
      "ĠYoshi": 7262,
      "Ġ300": 7263,
      "Ġpref": 7264,
      "Ġspaces": 7265,
      "ĠIns": 7266,
      "ĠStark": 7267,
      "Ġsmoking": 7268,
      "Ġwrit": 7269,
      "Ġ09": 7270,
      "Ġattached": 7271,
      "Ġsetup": 7272,
      "Ġbug": 7273,
      "pected": 7274,
      "Ġowned": 7275,
      "Ġslave": 7276,
      "Ġfinds": 7277,
      "Ġextract": 7278,
      "Ġcompleted": 7279,
      "coni": 7280,
      "tenance": 7281,
      "Ġelimin": 7282,
      "Ġinfo": 7283,
      "Ġdriven": 7284,
      "ARG": 7285,
      "screen": 7286,
      "Ġfunctional": 7287,
      "Ġincreases": 7288,
      "Ġprompt": 7289,
      "Ġ1997": 7290,
      "Ġ1999": 7291,
      "Ġprofit": 7292,
      "Ġinvestment": 7293,
      "Ġinvestors": 7294,
      "Ġidentify": 7295,
      "Ġlanguages": 7296,
      "Ġfalling": 7297,
      "Ġtitles": 7298,
      "Ġcontinuity": 7299,
      "Posts": 7300,
      "Ġcomplicated": 7301,
      "ĠPepper": 7302,
      "ophy": 7303,
      "flow": 7304,
      "mathcal": 7305,
      "Ġregularly": 7306,
      "Ġestablish": 7307,
      "Ġsexual": 7308,
      "Ġwidely": 7309,
      "Ġcapture": 7310,
      "Ġfuze": 7311,
      "ĠGovernment": 7312,
      "Ġessentially": 7313,
      "Ġquietly": 7314,
      "Ġinstruments": 7315,
      "ĠHTTP": 7316,
      "Ġliterally": 7317,
      "Ġdetailed": 7318,
      "Ġsports": 7319,
      "Ġvehicle": 7320,
      "Ġpowers": 7321,
      "ĠHelp": 7322,
      "ĠTechnology": 7323,
      "Ġbattery": 7324,
      "Ġsamples": 7325,
      "ĠCNN": 7326,
      "Pepperpot": 7327,
      "Ġexperienced": 7328,
      "Ġstomach": 7329,
      "(\\": 7330,
      "();": 7331,
      "72": 7332,
      "EM": 7333,
      "HT": 7334,
      "IS": 7335,
      "Like": 7336,
      "NS": 7337,
      "OW": 7338,
      "RC": 7339,
      "RIP": 7340,
      "Sec": 7341,
      "Said": 7342,
      "Spell": 7343,
      "View": 7344,
      "ais": 7345,
      "bas": 7346,
      "chen": 7347,
      "citation": 7348,
      "data": 7349,
      "suc": 7350,
      "sung": 7351,
      "uate": 7352,
      "uable": 7353,
      "ĠÃ": 7354,
      "Ġtip": 7355,
      "Ġarom": 7356,
      "Ġaircraft": 7357,
      "iners": 7358,
      "Ġsch": 7359,
      "Ġsizes": 7360,
      "Ġwine": 7361,
      "Ġcris": 7362,
      "itle": 7363,
      "ounce": 7364,
      "anz": 7365,
      "orus": 7366,
      "Ġfool": 7367,
      "Ġpound": 7368,
      "Ġmixture": 7369,
      "Ġdcb": 7370,
      "alc": 7371,
      "Ġhrs": 7372,
      "icious": 7373,
      "Ġnarrow": 7374,
      "Ġlocked": 7375,
      "ĠIP": 7376,
      "sts": 7377,
      "stream": 7378,
      "Ġech": 7379,
      "Ġreduced": 7380,
      "ctr": 7381,
      "owse": 7382,
      "Ġyeah": 7383,
      "ette": 7384,
      "idency": 7385,
      "ĠTry": 7386,
      "Ġitem": 7387,
      "Ġupt": 7388,
      "acc": 7389,
      "ĠAv": 7390,
      "ĠCass": 7391,
      "ĠBook": 7392,
      "Ġrow": 7393,
      "Ġraces": 7394,
      "uled": 7395,
      "ppy": 7396,
      "Ġdelete": 7397,
      "ĠDam": 7398,
      "ushed": 7399,
      "quest": 7400,
      "ĠRom": 7401,
      "ĠForm": 7402,
      "ĠFred": 7403,
      "ĠNATO": 7404,
      "Ġchat": 7405,
      "Ġlikes": 7406,
      "ĠGall": 7407,
      "Ġabelian": 7408,
      "Ġsufficient": 7409,
      "ĠLee": 7410,
      "ĠLouis": 7411,
      "Ġlect": 7412,
      "ĠEC": 7413,
      "ĠEs": 7414,
      "ĠEconom": 7415,
      "ĠON": 7416,
      "ĠOffic": 7417,
      "ĠJon": 7418,
      "ĠJeff": 7419,
      "ourney": 7420,
      "Ġouts": 7421,
      "Ġupset": 7422,
      "ĠThose": 7423,
      "Ġsaving": 7424,
      "rypted": 7425,
      "Ġunemploy": 7426,
      "Ġcontem": 7427,
      "Ġacknow": 7428,
      "achÃ©": 7429,
      "Ġprepar": 7430,
      "Ġpregn": 7431,
      "clus": 7432,
      "ensity": 7433,
      "Ġ48": 7434,
      "ords": 7435,
      "ĠStand": 7436,
      "Ġampl": 7437,
      "ĠChinese": 7438,
      "Ġcoil": 7439,
      "iano": 7440,
      "Ġcommands": 7441,
      "ibration": 7442,
      "ĠAndrew": 7443,
      "Ġreluct": 7444,
      "Ġincident": 7445,
      "Inter": 7446,
      "Ġsurvey": 7447,
      "Ġextent": 7448,
      "Ġextensions": 7449,
      "efully": 7450,
      "Ġfewer": 7451,
      "Ġcorporate": 7452,
      "aze": 7453,
      "Ġelections": 7454,
      "Ġdram": 7455,
      "Ġdrum": 7456,
      "Ġparticle": 7457,
      "Ġinfr": 7458,
      "Ġtries": 7459,
      "Ġrecorded": 7460,
      "2006": 7461,
      "otted": 7462,
      "Ġ:-": 7463,
      "Ġtechnique": 7464,
      "Ġbreaking": 7465,
      "Ġprotocol": 7466,
      "ĠPlan": 7467,
      "Ġoriginally": 7468,
      "Ġchecked": 7469,
      "Ġargue": 7470,
      "Ġadvoc": 7471,
      "ĠĠĠĠĠĠĠĠĠĠĠĠĠĠĠĠĠĠĠĠĠĠĠĠ": 7472,
      "ĠSerb": 7473,
      "Ġidentified": 7474,
      "Ġstaying": 7475,
      "ĠChess": 7476,
      "Ġholodeck": 7477,
      "Ġspring": 7478,
      "Ġprivacy": 7479,
      "ĠResearch": 7480,
      "Ġawesome": 7481,
      "AME": 7482,
      "Ġloop": 7483,
      "Ġguns": 7484,
      "ĠBarry": 7485,
      "Ġrecommended": 7486,
      "Ġpreferred": 7487,
      "Ġparameters": 7488,
      "Ġuncertain": 7489,
      "ĠCompany": 7490,
      "Ġmonitoring": 7491,
      "Ġarchaeology": 7492,
      "Ġlegislation": 7493,
      "Ġlicense": 7494,
      "ĠRussian": 7495,
      "Ġnarrative": 7496,
      "ĠDepartment": 7497,
      "Ġhundreds": 7498,
      "Two": 7499,
      "ĠNanumba": 7500,
      "Ġlaughed": 7501,
      "Ġfabric": 7502,
      "ĠQueen": 7503,
      "ĠStanley": 7504,
      "ĠComputers": 7505,
      "Ġgentle": 7506,
      "Ġrhyth": 7507,
      "Ġcontroller": 7508,
      "Ġcircumstances": 7509,
      "Ġequivalent": 7510,
      "Ġbankruptcy": 7511,
      "Ġphilos": 7512,
      ",,": 7513,
      "63": 7514,
      "BI": 7515,
      "BN": 7516,
      "Def": 7517,
      "Her": 7518,
      "ION": 7519,
      "Ut": 7520,
      "Woman": 7521,
      "away": 7522,
      "bat": 7523,
      "cond": 7524,
      "elect": 7525,
      "fol": 7526,
      "rick": 7527,
      "water": 7528,
      "yes": 7529,
      "Ġaward": 7530,
      "inction": 7531,
      "Ġtheore": 7532,
      "atar": 7533,
      "ito": 7534,
      "oub": 7535,
      "anish": 7536,
      "oral": 7537,
      "Ġfle": 7538,
      "arak": 7539,
      "alink": 7540,
      "Ġho": 7541,
      "Ġhits": 7542,
      "icing": 7543,
      "omin": 7544,
      "Ġnerv": 7545,
      "Ġgently": 7546,
      "Ġeast": 7547,
      "Ġease": 7548,
      "owered": 7549,
      "ĠTuesday": 7550,
      "ĠSure": 7551,
      "acles": 7552,
      "ĠAut": 7553,
      "Ġstable": 7554,
      "urt": 7555,
      "ĠCachÃ©": 7556,
      "ĠMS": 7557,
      "ĠMo": 7558,
      "ĠMother": 7559,
      "ifies": 7560,
      "ĠBosn": 7561,
      "Ġatoms": 7562,
      "ulator": 7563,
      "Ġconven": 7564,
      "Ġconsole": 7565,
      "ĠHug": 7566,
      "Ġcomic": 7567,
      "ĠWhe": 7568,
      "ĠWay": 7569,
      "ĠWood": 7570,
      "ĠPut": 7571,
      "ersion": 7572,
      "Ġsear": 7573,
      "ĠDar": 7574,
      "ĠDuring": 7575,
      "ander": 7576,
      "usconi": 7577,
      "Ġprofile": 7578,
      "Ġvo": 7579,
      "ĠRad": 7580,
      "ĠRiver": 7581,
      "ĠRoman": 7582,
      "osm": 7583,
      "Ġshop": 7584,
      "Ġshots": 7585,
      "ĠFri": 7586,
      "ĠGore": 7587,
      "Ġjew": 7588,
      "Ġgoog": 7589,
      "resources": 7590,
      "Ġwheel": 7591,
      "oca": 7592,
      "ocation": 7593,
      "ĠJamie": 7594,
      "ortion": 7595,
      "erent": 7596,
      "ection": 7597,
      "Ġclients": 7598,
      "active": 7599,
      "iley": 7600,
      "Ġenable": 7601,
      "Ġwhenever": 7602,
      "ulture": 7603,
      "Ġaggreg": 7604,
      "Ġacceler": 7605,
      "ipes": 7606,
      "Ġ33": 7607,
      "ĠKh": 7608,
      "ĠKris": 7609,
      "Ġ49": 7610,
      "Ġprime": 7611,
      "Ġrecall": 7612,
      "Ġpoll": 7613,
      "ĠHead": 7614,
      "Ġbrown": 7615,
      "Ġthrowing": 7616,
      "Ġphones": 7617,
      "group": 7618,
      "Ġguarant": 7619,
      "Ġguilty": 7620,
      "Ġcriminal": 7621,
      "ups": 7622,
      "Ġheader": 7623,
      "ĠiTunes": 7624,
      "Ġsurve": 7625,
      "Ġ99": 7626,
      "Ġworlds": 7627,
      "ribly": 7628,
      "Ġvalve": 7629,
      "ĠComment": 7630,
      "Ġexpert": 7631,
      "Ġtested": 7632,
      "Ġfarm": 7633,
      "ĠLeg": 7634,
      "Ġsupporting": 7635,
      "Star": 7636,
      "ĠOral": 7637,
      "Ġcommunities": 7638,
      "Ġpatient": 7639,
      "Ġapost": 7640,
      "Ġapolog": 7641,
      "INST": 7642,
      "ync": 7643,
      "Ġvisited": 7644,
      "Ġorganisation": 7645,
      "Ġmagn": 7646,
      "Ġengaged": 7647,
      "ĠProt": 7648,
      "Comp": 7649,
      "Comments": 7650,
      "ETA": 7651,
      "Ġseparated": 7652,
      "ĠJustice": 7653,
      "Ġaccounts": 7654,
      "Ġdetection": 7655,
      "ĠDemocrat": 7656,
      "Ġcouncil": 7657,
      "ĠAssoci": 7658,
      "iami": 7659,
      "write": 7660,
      "Ġtalks": 7661,
      "Ġreaching": 7662,
      "Ġfuel": 7663,
      "Ġordered": 7664,
      "Ġplatforms": 7665,
      "Getty": 7666,
      "ygi": 7667,
      "hibition": 7668,
      "Ġterritory": 7669,
      "innie": 7670,
      "Ġsurrounding": 7671,
      "ĠISBN": 7672,
      "Ġdialogue": 7673,
      "ĠNetwork": 7674,
      "Ġlinear": 7675,
      "Ġadventure": 7676,
      "Ġprinciple": 7677,
      "ĠMotor": 7678,
      "Ġmoist": 7679,
      "Related": 7680,
      "Ġscheme": 7681,
      "irginia": 7682,
      "ĠChiari": 7683,
      "Ġconfirmed": 7684,
      "RIPT": 7685,
      "\"?": 7686,
      ")/": 7687,
      "74": 7688,
      "Dav": 7689,
      "IR": 7690,
      "Ind": 7691,
      "Int": 7692,
      "Ken": 7693,
      "Sim": 7694,
      "Top": 7695,
      "User": 7696,
      "];": 7697,
      "case": 7698,
      "hn": 7699,
      "ij": 7700,
      "night": 7701,
      "normal": 7702,
      "rons": 7703,
      "such": 7704,
      "uken": 7705,
      "yan": 7706,
      "Ġ~": 7707,
      "Ġtong": 7708,
      "ino": 7709,
      "Ġsilly": 7710,
      "Ġwis": 7711,
      "itney": 7712,
      "isa": 7713,
      "oured": 7714,
      "aning": 7715,
      "ester": 7716,
      "Ġfaces": 7717,
      "Ġpatch": 7718,
      "Ġpurs": 7719,
      "Ġhide": 7720,
      "leg": 7721,
      "leted": 7722,
      "Ġgiant": 7723,
      "lymp": 7724,
      "etch": 7725,
      "ĠToo": 7726,
      "ĠTiger": 7727,
      "amoto": 7728,
      "Ġupper": 7729,
      "aco": 7730,
      "ĠMount": 7731,
      "ĠMaj": 7732,
      "ĠMars": 7733,
      "Ġ(Â": 7734,
      "ĠBib": 7735,
      "agan": 7736,
      "Ġconce": 7737,
      "ĠHas": 7738,
      "Ġcompe": 7739,
      "ĠWork": 7740,
      "ĠPL": 7741,
      "ĠPan": 7742,
      "ĠPitt": 7743,
      "ĠPto": 7744,
      "ĠDrive": 7745,
      "estic": 7746,
      "abor": 7747,
      "Ġexceed": 7748,
      "rome": 7749,
      "usted": 7750,
      "ĠRam": 7751,
      "ĠRandom": 7752,
      "oses": 7753,
      "Ġshout": 7754,
      "Ġshock": 7755,
      "antic": 7756,
      "ĠFox": 7757,
      "ĠFischer": 7758,
      "Ġalg": 7759,
      "ĠGener": 7760,
      "ĠEm": 7761,
      "ĠEp": 7762,
      "ĠEmpire": 7763,
      "ĠJim": 7764,
      "orts": 7765,
      "Ġallost": 7766,
      "asting": 7767,
      "Ġplants": 7768,
      "Ġcompare": 7769,
      "ĠThursday": 7770,
      "Ġadm": 7771,
      "assing": 7772,
      "ubarak": 7773,
      "berry": 7774,
      "ĠYeah": 7775,
      "Ġoffensive": 7776,
      "Ġresidents": 7777,
      "Ġ34": 7778,
      "Ġ38": 7779,
      "Ġtech": 7780,
      "ensing": 7781,
      "Ġ46": 7782,
      "Ġscared": 7783,
      "Ġpolls": 7784,
      "Ġbrings": 7785,
      "weet": 7786,
      "Ġdesire": 7787,
      "ishment": 7788,
      "erman": 7789,
      "Ġcruc": 7790,
      "Ġcrash": 7791,
      "ission": 7792,
      "Ġstruck": 7793,
      "Ġ75": 7794,
      "Ġvaluable": 7795,
      "Ġpersonality": 7796,
      "ĠAsia": 7797,
      "Ġfriendly": 7798,
      "Ġdiscr": 7799,
      "Ġdiscover": 7800,
      "aja": 7801,
      "Ġswelling": 7802,
      "Ġprogramming": 7803,
      "Ġdesigns": 7804,
      "Ġreturning": 7805,
      "Ġbask": 7806,
      "Ġlisted": 7807,
      "Ġapartment": 7808,
      "Ġoccas": 7809,
      "Ġlinked": 7810,
      "Ġdealing": 7811,
      "ĠNothing": 7812,
      "Ġinstallation": 7813,
      "ĠEdition": 7814,
      "Ġency": 7815,
      "Ġpulling": 7816,
      "Ġfigures": 7817,
      "Ġinvolve": 7818,
      "Ġmachines": 7819,
      "Ġobserved": 7820,
      "Ġconstitution": 7821,
      "nesia": 7822,
      "Ġassociation": 7823,
      "Ġrequests": 7824,
      "Ġdivision": 7825,
      "Ġdivided": 7826,
      "Ġspeakers": 7827,
      "ĠCarol": 7828,
      "ĠPlayer": 7829,
      "serif": 7830,
      "Ġconvin": 7831,
      "Ġselected": 7832,
      "Ġcaptured": 7833,
      "aturally": 7834,
      "Ġreduction": 7835,
      "Ġassumed": 7836,
      "Ġelectrons": 7837,
      "Ġteachers": 7838,
      "Ġsenior": 7839,
      "Write": 7840,
      "EREQ": 7841,
      "Ġhanging": 7842,
      "ĠSOA": 7843,
      "Neil": 7844,
      "Ġinfection": 7845,
      "SCRIPT": 7846,
      "Ġratio": 7847,
      "Ġuniverses": 7848,
      "ĠMexico": 7849,
      "Ġdisagree": 7850,
      "Ġbathroom": 7851,
      "Ġacademic": 7852,
      "Ġwelcome": 7853,
      "Ġunusual": 7854,
      "Ġcasual": 7855,
      "Ġdisclosed": 7856,
      "Ġvulnerable": 7857,
      "sburgh": 7858,
      ".ï»¿": 7859,
      "86": 7860,
      "91": 7861,
      "BASE": 7862,
      "Cor": 7863,
      "Ge": 7864,
      "List": 7865,
      "Ste": 7866,
      "TH": 7867,
      "dated": 7868,
      "hus": 7869,
      "ias": 7870,
      "life": 7871,
      "mony": 7872,
      "nom": 7873,
      "pie": 7874,
      "ridge": 7875,
      "sit": 7876,
      "some": 7877,
      "vol": 7878,
      "ywood": 7879,
      "zo": 7880,
      "zed": 7881,
      "Ġip": 7882,
      "Ġtips": 7883,
      "Ġtables": 7884,
      "inent": 7885,
      "rehens": 7886,
      "anwhile": 7887,
      "eding": 7888,
      "Ġhack": 7889,
      "Ġhunt": 7890,
      "left": 7891,
      "omed": 7892,
      "Ġna": 7893,
      "Ġlapt": 7894,
      "ĠIR": 7895,
      "entials": 7896,
      "Ġya": 7897,
      "imens": 7898,
      "aded": 7899,
      "ĠTem": 7900,
      "ĠSource": 7901,
      "ĠSnape": 7902,
      "ĠAh": 7903,
      "ĠAPI": 7904,
      "Ġstack": 7905,
      "ĠCapt": 7906,
      "ĠMen": 7907,
      "ĠMain": 7908,
      "ĠMike": 7909,
      "ĠMiami": 7910,
      "ĠMubarak": 7911,
      "ilers": 7912,
      "ĠBat": 7913,
      "Ġrice": 7914,
      "ĠHall": 7915,
      "ĠWas": 7916,
      "ĠPope": 7917,
      "ĠPeter": 7918,
      "ĠParty": 7919,
      "ĊĊĊĊĊ": 7920,
      "ĠDE": 7921,
      "ĠDist": 7922,
      "about": 7923,
      "umps": 7924,
      "ureau": 7925,
      "Ġvent": 7926,
      "ĠRob": 7927,
      "ĠNever": 7928,
      "Ġking": 7929,
      "Ġjourney": 7930,
      "raib": 7931,
      "ĠLife": 7932,
      "Ġgoals": 7933,
      "ĠOk": 7934,
      "ĠOlymp": 7935,
      "arez": 7936,
      "Ġworn": 7937,
      "Ġintense": 7938,
      "pled": 7939,
      "ective": 7940,
      "Ġcompens": 7941,
      "Ġcomparing": 7942,
      "Ġcompiler": 7943,
      "ĠThy": 7944,
      "ĠThunder": 7945,
      "ansas": 7946,
      "Ġknock": 7947,
      "Ġunex": 7948,
      "Ġshel": 7949,
      "Ġ36": 7950,
      "Ġspin": 7951,
      "Ġoverr": 7952,
      "aved": 7953,
      "Ġscan": 7954,
      "Ġscar": 7955,
      "ĠVER": 7956,
      "ĠChief": 7957,
      "Ġroof": 7958,
      "Ġ==": 7959,
      "licop": 7960,
      "obs": 7961,
      "Ġ1980": 7962,
      "Ġremark": 7963,
      "ockets": 7964,
      "Ġsmoke": 7965,
      "Ġcheaper": 7966,
      "ĠAng": 7967,
      "Ġcrimes": 7968,
      "aws": 7969,
      "Ġmodified": 7970,
      "ixed": 7971,
      "Ġheaded": 7972,
      "Ġstrict": 7973,
      "ologists": 7974,
      "ĠReuken": 7975,
      "everal": 7976,
      "Ġspecified": 7977,
      "hesis": 7978,
      "Ġcurious": 7979,
      "Ġauto": 7980,
      "Ġdrunk": 7981,
      "ĠBrad": 7982,
      "Ġtests": 7983,
      "mega": 7984,
      "Ġinformed": 7985,
      "standing": 7986,
      "Ġmaintenance": 7987,
      "Ġarticles": 7988,
      "Ġmuscle": 7989,
      "Ġcommunications": 7990,
      "ĠAllen": 7991,
      "Ġrooms": 7992,
      "Ġsituations": 7993,
      "ĠBeer": 7994,
      "Ġestate": 7995,
      "Ġcalm": 7996,
      "Ġstrongly": 7997,
      "Ġsteel": 7998,
      "Ġtourn": 7999,
      "Ġdebt": 8000,
      "Ġdiabetes": 8001,
      "ĠScott": 8002,
      "prise": 8003,
      "Ġhyp": 8004,
      "ĠColumb": 8005,
      "Ġbreakfast": 8006,
      "Ġinvolves": 8007,
      "Ġexceptions": 8008,
      "Ġcraft": 8009,
      "value": 8010,
      "Ġupdates": 8011,
      "Ġverse": 8012,
      "rieve": 8013,
      "ĠBritain": 8014,
      "Ġexcited": 8015,
      "ĠÂ£": 8016,
      "Ġmatches": 8017,
      "Ġconsumer": 8018,
      "Ġtimeline": 8019,
      "Ġrevolution": 8020,
      ".''": 8021,
      "CLA": 8022,
      "ĠMichigan": 8023,
      "Ġorders": 8024,
      "Ġrepeat": 8025,
      "ĠHolmes": 8026,
      "Ġcandidates": 8027,
      "Ġencourage": 8028,
      "ĠRoberts": 8029,
      "DIRS": 8030,
      "Ġreferred": 8031,
      "Ġescape": 8032,
      "ĠRussia": 8033,
      "ĠIrina": 8034,
      "ĠGhraib": 8035,
      "Ġsubstantial": 8036,
      "finite": 8037,
      "Ġconcentrations": 8038,
      "opyright": 8039,
      "Method": 8040,
      "Ġincredible": 8041,
      "Ġemergency": 8042,
      "ĠSayyid": 8043,
      "Ġcrystal": 8044,
      "Ġalgebra": 8045,
      "Ġpreparation": 8046,
      "Ġconvinced": 8047,
      ")?": 8048,
      "87": 8049,
      "94": 8050,
      ">>": 8051,
      "DP": 8052,
      "Follow": 8053,
      "Gee": 8054,
      "Na": 8055,
      "Next": 8056,
      "ORE": 8057,
      "Source": 8058,
      "VE": 8059,
      "WC": 8060,
      "War": 8061,
      "bes": 8062,
      "core": 8063,
      "ein": 8064,
      "eks": 8065,
      "foot": 8066,
      "iated": 8067,
      "node": 8068,
      "pan": 8069,
      "test": 8070,
      "ws": 8071,
      "win": 8072,
      "was": 8073,
      "world": 8074,
      "Ã¶": 8075,
      "Ġtou": 8076,
      "Ġtied": 8077,
      "Ġsli": 8078,
      "ati": 8079,
      "Ġbite": 8080,
      "Ġbang": 8081,
      "Ġbatt": 8082,
      "Ġfont": 8083,
      "Ġphen": 8084,
      "Ġmaps": 8085,
      "arters": 8086,
      "Ġdil": 8087,
      "Ġhug": 8088,
      "astern": 8089,
      "Ġnom": 8090,
      "Ġgap": 8091,
      "Ġgaming": 8092,
      "Ġeq": 8093,
      "Ġeld": 8094,
      "utter": 8095,
      "owa": 8096,
      "imamoto": 8097,
      "adian": 8098,
      "ĠSU": 8099,
      "ĠSher": 8100,
      "ĠSaud": 8101,
      "Ġheated": 8102,
      "Ġhelicop": 8103,
      "ĠAG": 8104,
      "ĠCard": 8105,
      "ifting": 8106,
      "odox": 8107,
      "ĠBab": 8108,
      "ĠBowl": 8109,
      "Ġracing": 8110,
      "ĠHard": 8111,
      "ppers": 8112,
      "ĠWake": 8113,
      "ĠPet": 8114,
      "ĠPage": 8115,
      "Ġdear": 8116,
      "ĠDick": 8117,
      "ĠDVD": 8118,
      "essica": 8119,
      "ushing": 8120,
      "thodox": 8121,
      "umin": 8122,
      "ustody": 8123,
      "Ġvendor": 8124,
      "ĠRick": 8125,
      "ĠRoyal": 8126,
      "osystem": 8127,
      "Ġshield": 8128,
      "ĠFurther": 8129,
      "Ġlips": 8130,
      "ĠGN": 8131,
      "ĠLI": 8132,
      "ĠLTE": 8133,
      "ĠOman": 8134,
      "Ġoutcome": 8135,
      "Ġplasma": 8136,
      "Ġintent": 8137,
      "Ġcompounds": 8138,
      "ello": 8139,
      "Ġanybody": 8140,
      "Ġuncom": 8141,
      "Ġunknown": 8142,
      "achan": 8143,
      "Ġ37": 8144,
      "Ġpreval": 8145,
      "onde": 8146,
      "Ġoverly": 8147,
      "ĠInformation": 8148,
      "Ġpartition": 8149,
      "Ġ43": 8150,
      "ordin": 8151,
      "itionally": 8152,
      "ova": 8153,
      "oval": 8154,
      "ĠStr": 8155,
      "Ġroot": 8156,
      "Ġroots": 8157,
      "Ġseeking": 8158,
      "Ġeverywhere": 8159,
      "Ġacts": 8160,
      "Ġwhereas": 8161,
      "tega": 8162,
      "Ġcommitted": 8163,
      "Ġourselves": 8164,
      "Ġdefaults": 8165,
      "Ġattitude": 8166,
      "duction": 8167,
      "ĠAndroid": 8168,
      "Ġ2002": 8169,
      "olds": 8170,
      "Ġembed": 8171,
      "ahoo": 8172,
      "Ġstrings": 8173,
      "Ġtransparent": 8174,
      "ĠShimamoto": 8175,
      "Ġgenerations": 8176,
      "Ġgenerating": 8177,
      "Ġexpansion": 8178,
      "Ġrefers": 8179,
      "there": 8180,
      "Ġauthors": 8181,
      "Ġpossess": 8182,
      "Ġelectro": 8183,
      "Ġresulted": 8184,
      "Ġcellular": 8185,
      "Ġboost": 8186,
      "Ġdepartment": 8187,
      "Ġkinds": 8188,
      "Ġlesson": 8189,
      "Ġparliament": 8190,
      "Ġlights": 8191,
      "pson": 8192,
      "Ġdeveloping": 8193,
      "umping": 8194,
      "ĠUSA": 8195,
      "ĠProf": 8196,
      "ĠProject": 8197,
      "ĠBeach": 8198,
      "Ġwinter": 8199,
      "Ġplanned": 8200,
      "Ġtemporary": 8201,
      "Ġsuggestion": 8202,
      "Ġengage": 8203,
      "Ġ1990": 8204,
      "Ġ1996": 8205,
      "Ġnetworks": 8206,
      "Ġconsideration": 8207,
      "Ġrising": 8208,
      "Ġradiation": 8209,
      "ĠManning": 8210,
      "Ġhorr": 8211,
      "Ġdarkness": 8212,
      "SITE": 8213,
      "ĠGeorg": 8214,
      "Share": 8215,
      "Ġexecution": 8216,
      "Ġeducational": 8217,
      "Ġrecognition": 8218,
      "Ġdomain": 8219,
      "ĠÂ»": 8220,
      "Ġignore": 8221,
      "Ġdeeply": 8222,
      "Ġdelivery": 8223,
      "Ġdocumentation": 8224,
      "Ġshutdown": 8225,
      "Ġsettlement": 8226,
      "Ġchemistry": 8227,
      "Ġengineering": 8228,
      "Ġdescribes": 8229,
      "ĠUpworthy": 8230,
      "Ġlucky": 8231,
      "Ġilleg": 8232,
      "quez": 8233,
      "Ġrarely": 8234,
      "charge": 8235,
      "Ġmacros": 8236,
      "Ġsymbols": 8237,
      "Ġcelebrate": 8238,
      "Ġinnoc": 8239,
      "Ġapoptotic": 8240,
      "Serving": 8241,
      "ĠApache": 8242,
      "Ġprospect": 8243,
      "lemaida": 8244,
      "Ġruling": 8245,
      "ĠWrite": 8246,
      "Ġangry": 8247,
      "Ġannoying": 8248,
      "Ġtactics": 8249,
      "specific": 8250,
      "Ġneighborhood": 8251,
      "ĠDouglass": 8252,
      "Ġabandoned": 8253,
      "idelines": 8254,
      "ĠBerlusconi": 8255,
      "Ġuptake": 8256,
      "Ġinfrastructure": 8257,
      "Utils": 8258,
      "Ġjewel": 8259,
      "'Â": 8260,
      ",'": 8261,
      "=\\": 8262,
      "?!": 8263,
      "Aaron": 8264,
      "BT": 8265,
      "Che": 8266,
      "Fi": 8267,
      "General": 8268,
      "Look": 8269,
      "Oct": 8270,
      "Par": 8271,
      "Use": 8272,
      "bel": 8273,
      "bell": 8274,
      "cm": 8275,
      "ds": 8276,
      "fire": 8277,
      "kward": 8278,
      "opping": 8279,
      "page": 8280,
      "rams": 8281,
      "spe": 8282,
      "uated": 8283,
      "xy": 8284,
      "ya": 8285,
      "},": 8286,
      "Ġtall": 8287,
      "Ġtorn": 8288,
      "rem": 8289,
      "Ġsac": 8290,
      "Ġsake": 8291,
      "erk": 8292,
      "Ġce": 8293,
      "Ġcem": 8294,
      "itled": 8295,
      "esc": 8296,
      "esity": 8297,
      "orney": 8298,
      "Ġfasc": 8299,
      "Ġpace": 8300,
      "Ġmouse": 8301,
      "arbon": 8302,
      "alas": 8303,
      "alpha": 8304,
      "Ġinher": 8305,
      "asks": 8306,
      "icine": 8307,
      "Ġnaturally": 8308,
      "Ġlaz": 8309,
      "ĠIll": 8310,
      "ĠIowa": 8311,
      "uting": 8312,
      "img": 8313,
      "imer": 8314,
      "adium": 8315,
      "ĠTurn": 8316,
      "ĠSS": 8317,
      "ĠSimp": 8318,
      "Ġhence": 8319,
      "Ġstone": 8320,
      "ĠCast": 8321,
      "ĠMah": 8322,
      "âĢ¢": 8323,
      "Ġwealth": 8324,
      "illance": 8325,
      "ĠBre": 8326,
      "ĠBet": 8327,
      "ĠBay": 8328,
      "Ġramp": 8329,
      "Ġriver": 8330,
      "agar": 8331,
      "agger": 8332,
      "ĠHistory": 8333,
      "ĠPic": 8334,
      "ĠPenn": 8335,
      "Ġsections": 8336,
      "abolic": 8337,
      "Ġneat": 8338,
      "Ġproved": 8339,
      "uming": 8340,
      "Ġdozen": 8341,
      "Ġvit": 8342,
      "ĠFed": 8343,
      "ĠFun": 8344,
      "Ġbutt": 8345,
      "ĠNC": 8346,
      "ĠNode": 8347,
      "outhern": 8348,
      "ĠGB": 8349,
      "ĠGra": 8350,
      "ĠGirl": 8351,
      "ĠLim": 8352,
      "ĠLiber": 8353,
      "ĠOP": 8354,
      "plies": 8355,
      "ounded": 8356,
      "ivio": 8357,
      "ichael": 8358,
      "ogen": 8359,
      "Ġadj": 8360,
      "Ġenorm": 8361,
      "Ġmanual": 8362,
      "Ġ39": 8363,
      "Ġpreced": 8364,
      "Ġspokes": 8365,
      "ĠInf": 8366,
      "orders": 8367,
      "Ġtwe": 8368,
      "Ġactive": 8369,
      "Ġflesh": 8370,
      "Ġinstantly": 8371,
      "ontal": 8372,
      "ibilities": 8373,
      "Ġpointing": 8374,
      "Ġchecks": 8375,
      "Ġhandling": 8376,
      "Ġcriter": 8377,
      "Ġcarb": 8378,
      "cluding": 8379,
      "Ġfindings": 8380,
      "Ġspecify": 8381,
      "Ġcolon": 8382,
      "ĠWhitney": 8383,
      "Ġgeneric": 8384,
      "Ġentered": 8385,
      "ĠArrow": 8386,
      "ĠArthur": 8387,
      "Ġinsist": 8388,
      "isms": 8389,
      "Ġears": 8390,
      "encing": 8391,
      "Ġexplos": 8392,
      "Ġsky": 8393,
      "Ġexperiences": 8394,
      "Ġgovernor": 8395,
      "Ġposting": 8396,
      "Ġdepos": 8397,
      "atted": 8398,
      "Ġswing": 8399,
      "2004": 8400,
      "Ġdeaths": 8401,
      "Web": 8402,
      "Str": 8403,
      "Ġfunctionality": 8404,
      "Ġpopulations": 8405,
      "Ġequation": 8406,
      "Ġacceptable": 8407,
      "Ġelsewhere": 8408,
      "Ġreceives": 8409,
      "Ġconcrete": 8410,
      "Ġfights": 8411,
      "Ġadvanced": 8412,
      "ĠPrice": 8413,
      "Ġencoun": 8414,
      "Ġstronger": 8415,
      "Ġcreatures": 8416,
      "Ġcommonly": 8417,
      "Ġstepped": 8418,
      "Ġdiam": 8419,
      "ĠColor": 8420,
      "ĠCollege": 8421,
      "Ġsuperior": 8422,
      "Ġvoted": 8423,
      "Ġcompetitive": 8424,
      "Ġloading": 8425,
      "Ġjudo": 8426,
      "ĠUsing": 8427,
      "ĠINSTALLSITE": 8428,
      "Ġholiday": 8429,
      "Click": 8430,
      "Ġprofession": 8431,
      "Ġindustrial": 8432,
      "Ġgrafts": 8433,
      "Ġregardless": 8434,
      "Ġdrops": 8435,
      "Ġviolent": 8436,
      "Ġimplementation": 8437,
      "Ġnodes": 8438,
      "ĊĊĠĠĠĠĠĠĠĠĠĠĠ": 8439,
      "ĊĊĠĠĠĠĠĠĠĠĠĠĠĠĠ": 8440,
      "ĠReds": 8441,
      "ĠSteve": 8442,
      "Ġpatterns": 8443,
      "ĠMuslims": 8444,
      "ĠGalois": 8445,
      "Ġsoldiers": 8446,
      "Maybe": 8447,
      "PRO": 8448,
      "hetic": 8449,
      "ĠWednesday": 8450,
      "ĠArabic": 8451,
      "Ġbriefly": 8452,
      "Ġcontrast": 8453,
      "Ġroute": 8454,
      "Ġfucking": 8455,
      "ĠSEAL": 8456,
      "ĠMexican": 8457,
      "ĠOwl": 8458,
      "Ġicon": 8459,
      "American": 8460,
      "Ġintroduce": 8461,
      "Ġbodies": 8462,
      "Ġintelligence": 8463,
      "ĠHermione": 8464,
      "ĠChicago": 8465,
      "ĠPittsburgh": 8466,
      "89": 8467,
      ":\\": 8468,
      "Aug": 8469,
      "Cons": 8470,
      "DS": 8471,
      "Date": 8472,
      "Deb": 8473,
      "EO": 8474,
      "Hi": 8475,
      "Head": 8476,
      "Link": 8477,
      "Mult": 8478,
      "Member": 8479,
      "Okay": 8480,
      "San": 8481,
      "UI": 8482,
      "bf": 8483,
      "ih": 8484,
      "lan": 8485,
      "mun": 8486,
      "person": 8487,
      "rad": 8488,
      "sen": 8489,
      "target": 8490,
      "wind": 8491,
      "ãĤ": 8492,
      "Ġtags": 8493,
      "Ġtuned": 8494,
      "Ġaster": 8495,
      "rep": 8496,
      "Ġsighed": 8497,
      "Ġwik": 8498,
      "atched": 8499,
      "Ġcities": 8500,
      "isk": 8501,
      "Ġbits": 8502,
      "orith": 8503,
      "Ġfo": 8504,
      "Ġfav": 8505,
      "arks": 8506,
      "Ġdict": 8507,
      "alo": 8508,
      "Ġhiding": 8509,
      "asper": 8510,
      "ashes": 8511,
      "ĠIss": 8512,
      "Ġgall": 8513,
      "Ġgross": 8514,
      "Ġgift": 8515,
      "Ġreward": 8516,
      "imi": 8517,
      "aden": 8518,
      "ĠTs": 8519,
      "igital": 8520,
      "ĠSaf": 8521,
      "Ġheater": 8522,
      "ura": 8523,
      "urd": 8524,
      "ĠCoun": 8525,
      "ĠCOM": 8526,
      "ira": 8527,
      "ĠMY": 8528,
      "ĠMic": 8529,
      "ĠMad": 8530,
      "ĠMiddle": 8531,
      "olph": 8532,
      "ĠBan": 8533,
      "agers": 8534,
      "ĠHon": 8535,
      "ĠHIV": 8536,
      "ĠPHP": 8537,
      "unning": 8538,
      "ĠDown": 8539,
      "aine": 8540,
      "Ġproceed": 8541,
      "Ġvital": 8542,
      "ĠFA": 8543,
      "ĠFin": 8544,
      "ĠFil": 8545,
      "ĠFile": 8546,
      "ĠNat": 8547,
      "ĠNic": 8548,
      "ĠNAS": 8549,
      "Ġchicken": 8550,
      "Ġalert": 8551,
      "Ġlip": 8552,
      "elve": 8553,
      "ellect": 8554,
      "ĠLu": 8555,
      "ĠLong": 8556,
      "Ġleague": 8557,
      "ĠOF": 8558,
      "ĠOp": 8559,
      "ĠJose": 8560,
      "aka": 8561,
      "Ġtrucks": 8562,
      "Ġsoil": 8563,
      "pload": 8564,
      "Ġclad": 8565,
      "Ġclimate": 8566,
      "Ġknees": 8567,
      "Ġunion": 8568,
      "Ġagency": 8569,
      "bert": 8570,
      "Ġdiscipl": 8571,
      "Ġresign": 8572,
      "Ġspan": 8573,
      "Ġspray": 8574,
      "Ġovert": 8575,
      "Ġovercome": 8576,
      "Ġperman": 8577,
      "Ġprinter": 8578,
      "ruption": 8579,
      "ĠVirginia": 8580,
      "ifferent": 8581,
      "Ġserves": 8582,
      "Ġfee": 8583,
      "Ġthrown": 8584,
      "Ġunderlying": 8585,
      "ificial": 8586,
      "Ġsla": 8587,
      "Ġassets": 8588,
      "Ġassault": 8589,
      "Ġregistered": 8590,
      "ologist": 8591,
      "Ġtransmission": 8592,
      "rence": 8593,
      "ught": 8594,
      "Ġdifferently": 8595,
      "ĠShould": 8596,
      "ools": 8597,
      "Ġobst": 8598,
      "Ġobtained": 8599,
      "Ġexpressed": 8600,
      "Ġreferring": 8601,
      "Ġentering": 8602,
      "Ġprovider": 8603,
      "ribute": 8604,
      "Ġexplaining": 8605,
      "Ġexploration": 8606,
      "Ġpassion": 8607,
      "Ġletters": 8608,
      "Ġwarned": 8609,
      "Ġdirections": 8610,
      "herent": 8611,
      "Ġdepth": 8612,
      "Ġdeport": 8613,
      "uffy": 8614,
      "---": 8615,
      "attered": 8616,
      "Ġmaintained": 8617,
      "RED": 8618,
      "ĠZiva": 8619,
      "ĠZygi": 8620,
      "Ġsupports": 8621,
      "ĠOrthodox": 8622,
      "Ġtechnologies": 8623,
      "ĠSpain": 8624,
      "ĠBlood": 8625,
      "Ġwaist": 8626,
      "Ġperforming": 8627,
      "Ġcharacteristics": 8628,
      "Ġvisible": 8629,
      "ĠExper": 8630,
      "Ġoptical": 8631,
      "ĠAbu": 8632,
      "Ġaccessible": 8633,
      "Ġreplied": 8634,
      "Ġexisted": 8635,
      "Ġbench": 8636,
      "Ġsuccessfully": 8637,
      "Ġpicking": 8638,
      "Ġlogical": 8639,
      "Ġpractices": 8640,
      "ĠEngine": 8641,
      "Ġfootage": 8642,
      "Ġaudio": 8643,
      "Ġfilling": 8644,
      "ĠQuestion": 8645,
      "Ġdetector": 8646,
      "Ġballs": 8647,
      "Ġhopes": 8648,
      "Ġsearching": 8649,
      "->{$": 8650,
      "Ġverb": 8651,
      "ĠCommittee": 8652,
      "ependent": 8653,
      "Ġrequested": 8654,
      "Ġutility": 8655,
      "Ġmixing": 8656,
      "Ġexciting": 8657,
      "Ġauthority": 8658,
      "Ġ1987": 8659,
      "Ġcollective": 8660,
      "ographic": 8661,
      "reedom": 8662,
      "Ġachieved": 8663,
      "Ġconvicted": 8664,
      "Ġassumptions": 8665,
      "ĠDesign": 8666,
      "Ġfacility": 8667,
      "____": 8668,
      "ĠAnyway": 8669,
      "Ġethnic": 8670,
      "ĠLaure": 8671,
      "iveness": 8672,
      "Ġsenator": 8673,
      "Ġattribute": 8674,
      "Ġbirthday": 8675,
      "Ġproducing": 8676,
      "Ġmechanisms": 8677,
      "Ġghouls": 8678,
      "uilding": 8679,
      "Ġcomprises": 8680,
      "Ġschedule": 8681,
      "Ġwidth": 8682,
      "Ġembarr": 8683,
      "Ġhomeschool": 8684,
      "ĠPolit": 8685,
      "Ġspectrum": 8686,
      "Ġabsorb": 8687,
      "Ġfluid": 8688,
      "Join": 8689,
      "ĠHollywood": 8690,
      "ĠOwens": 8691,
      "Ġforgotten": 8692,
      "Ġlauncher": 8693,
      "Ġtroops": 8694,
      "ĠiPad": 8695,
      "Ġsyntax": 8696,
      "Ġcabin": 8697,
      "Ġbubbles": 8698,
      "Ġconformational": 8699,
      "Ġshadow": 8700,
      "Ġupgrade": 8701,
      "Ġecosystem": 8702,
      "Ġremembered": 8703,
      "Ġbuffer": 8704,
      "Ġsubsequent": 8705,
      "Ġastron": 8706,
      "Ġcomedy": 8707,
      "Ġoverwhelming": 8708,
      "intendo": 8709,
      "Ġmystery": 8710,
      "Ġcrisp": 8711,
      "alcone": 8712,
      "Ġacknowled": 8713,
      "ocaust": 8714,
      "ĠMajid": 8715,
      "Ġalgorith": 8716,
      "Ġcrucial": 8717,
      "ĠThyagar": 8718,
      "Ġphenomen": 8719,
      "Ġjewelry": 8720,
      "Ġcriteria": 8721,
      "ĠThyagaraja": 8722,
      "84": 8723,
      "AF": 8724,
      "BB": 8725,
      "BOL": 8726,
      "Current": 8727,
      "Does": 8728,
      "FT": 8729,
      "Have": 8730,
      "Kinnie": 8731,
      "Light": 8732,
      "OC": 8733,
      "Person": 8734,
      "RI": 8735,
      "Sk": 8736,
      "])": 8737,
      "_{": 8738,
      "after": 8739,
      "bably": 8740,
      "born": 8741,
      "eath": 8742,
      "foo": 8743,
      "ghan": 8744,
      "hint": 8745,
      "high": 8746,
      "iour": 8747,
      "ko": 8748,
      "len": 8749,
      "lab": 8750,
      "mic": 8751,
      "makers": 8752,
      "oor": 8753,
      "overs": 8754,
      "pers": 8755,
      "pire": 8756,
      "ront": 8757,
      "supp": 8758,
      "then": 8759,
      "van": 8760,
      "wing": 8761,
      "ycle": 8762,
      "}\\": 8763,
      "Â°": 8764,
      "Ġaka": 8765,
      "inci": 8766,
      "rell": 8767,
      "Ġsin": 8768,
      "Ġsale": 8769,
      "itles": 8770,
      "ena": 8771,
      "orah": 8772,
      "Ġflying": 8773,
      "Ġps": 8774,
      "Ġpour": 8775,
      "Ġpocket": 8776,
      "Ġtow": 8777,
      "Ġtooth": 8778,
      "arms": 8779,
      "Ġdumb": 8780,
      "Ġhull": 8781,
      "oma": 8782,
      "Ġlit": 8783,
      "Ġlists": 8784,
      "ĠIO": 8785,
      "ĠId": 8786,
      "ĠIron": 8787,
      "step": 8788,
      "Ġgained": 8789,
      "otland": 8790,
      "ental": 8791,
      "etary": 8792,
      "idays": 8793,
      "imination": 8794,
      "ĠTH": 8795,
      "ĠTy": 8796,
      "ĠTable": 8797,
      "ĠSov": 8798,
      "ĠAB": 8799,
      "ĠAy": 8800,
      "Ġstorm": 8801,
      "uries": 8802,
      "ĠCD": 8803,
      "ĠCat": 8804,
      "ĠCroat": 8805,
      "irs": 8806,
      "irts": 8807,
      "ĠMJ": 8808,
      "ĠMid": 8809,
      "ĠMel": 8810,
      "ĠMAN": 8811,
      "ĠMario": 8812,
      "olves": 8813,
      "Ġ(@": 8814,
      "ĠBas": 8815,
      "ĠBrian": 8816,
      "Ġrig": 8817,
      "Ġrating": 8818,
      "Ġrank": 8819,
      "agues": 8820,
      "ulates": 8821,
      "ĠHit": 8822,
      "ĠHank": 8823,
      "Ġexit": 8824,
      "uma": 8825,
      "usters": 8826,
      "Ġvague": 8827,
      "ĠRocket": 8828,
      "ĠFall": 8829,
      "ĠFalcone": 8830,
      "ĠNorthern": 8831,
      "Ġabstract": 8832,
      "ĠLA": 8833,
      "ĠList": 8834,
      "ĠLib": 8835,
      "Ġmeal": 8836,
      "acket": 8837,
      "Ġoutdo": 8838,
      "Ġintr": 8839,
      "Ġintim": 8840,
      "ĠThree": 8841,
      "ogy": 8842,
      "izontal": 8843,
      "Ġuniversity": 8844,
      "ĠYam": 8845,
      "Ġnobody": 8846,
      "Ġgrown": 8847,
      "Ġgrounds": 8848,
      "Ġspoken": 8849,
      "ĠKerry": 8850,
      "ailed": 8851,
      "Ġ41": 8852,
      "Ġ42": 8853,
      "Ġ44": 8854,
      "Ġscope": 8855,
      "ressive": 8856,
      "ounts": 8857,
      "itty": 8858,
      "rup": 8859,
      "Ġnewly": 8860,
      "ĠVivio": 8861,
      "Ġblade": 8862,
      "Ġrolling": 8863,
      "ometry": 8864,
      "Ġdesc": 8865,
      "Ġcoal": 8866,
      "Ġ04": 8867,
      "Ġ08": 8868,
      "ibar": 8869,
      "Ġattach": 8870,
      "jective": 8871,
      "Ġbugs": 8872,
      "Ġcheer": 8873,
      "Ġrepublic": 8874,
      "Ġrepair": 8875,
      "Ġmetals": 8876,
      "Ġcrimin": 8877,
      "Ġending": 8878,
      "Ġretail": 8879,
      "Ġdifferential": 8880,
      "Ġsuppli": 8881,
      "ancer": 8882,
      "ĠArachan": 8883,
      "Ġconference": 8884,
      "Ġconfront": 8885,
      "Ġpersonally": 8886,
      "Ġpersonnel": 8887,
      "Ġfright": 8888,
      "ĠTherefore": 8889,
      "Ġbelief": 8890,
      "Ġpossession": 8891,
      "Ġbitter": 8892,
      "Ġdistinct": 8893,
      "Ġdistingu": 8894,
      "Ġboom": 8895,
      "2003": 8896,
      "Ġartist": 8897,
      "ĠZanz": 8898,
      "Ġlegit": 8899,
      "Start": 8900,
      "Ġelev": 8901,
      "ARP": 8902,
      "Ġlawyer": 8903,
      "Ġmarked": 8904,
      "Ġviewers": 8905,
      "INC": 8906,
      "ĠBeing": 8907,
      "!!!!": 8908,
      "Ġoccurs": 8909,
      "Ġplanning": 8910,
      "Ġchecking": 8911,
      "Ġarguments": 8912,
      "ĠAbbas": 8913,
      "Ġalongside": 8914,
      "Ġairport": 8915,
      "ĠChristians": 8916,
      "print": 8917,
      "Ġwindows": 8918,
      "Ġwondered": 8919,
      "ĠWithout": 8920,
      "Ġidentical": 8921,
      "ĠSyrian": 8922,
      "Ġsorts": 8923,
      "Ġannual": 8924,
      "Ġradical": 8925,
      "Ġcookie": 8926,
      "product": 8927,
      "ĠIndia": 8928,
      "position": 8929,
      "Ġfunding": 8930,
      "Ġceremony": 8931,
      "Context": 8932,
      "Ġgenre": 8933,
      "Ġhotel": 8934,
      "icksville": 8935,
      "Ġdomestic": 8936,
      "Ġignored": 8937,
      "Ġawkward": 8938,
      "reshold": 8939,
      "Ġimprovement": 8940,
      "rupted": 8941,
      "Ġsettle": 8942,
      "Ġthreatened": 8943,
      "Ġdeclared": 8944,
      "Ġghost": 8945,
      "Ġopportunities": 8946,
      "ĠSteel": 8947,
      "ĠHolocaust": 8948,
      "Ġmistakes": 8949,
      "ygen": 8950,
      "Reader": 8951,
      "Ġsmartphone": 8952,
      "Ġpriority": 8953,
      "Ġultimate": 8954,
      "Ġemotional": 8955,
      "Ġproduces": 8956,
      "Ġaspects": 8957,
      "Reply": 8958,
      "Ġbullet": 8959,
      "Ġhunting": 8960,
      "ocolate": 8961,
      "ĠThompson": 8962,
      "Ġscenes": 8963,
      "Ġanimals": 8964,
      "ĠiPod": 8965,
      "Resource": 8966,
      "Ġmoderate": 8967,
      "Ġstrategic": 8968,
      "CLUDE": 8969,
      "Ġexecutive": 8970,
      "Ġvegetable": 8971,
      "Ġenhance": 8972,
      "ĠSQL": 8973,
      "Ġroughly": 8974,
      "Figure": 8975,
      "ĠSweden": 8976,
      "Ġkitchen": 8977,
      "ĠRichard": 8978,
      "ĠMoriarty": 8979,
      "ĠâĨ": 8980,
      "ĠAngeles": 8981,
      "Ġinhab": 8982,
      "Ġheavily": 8983,
      "Ġridiculous": 8984,
      "Ġwriters": 8985,
      "Ġsurveillance": 8986,
      "Ġtongue": 8987,
      "imensional": 8988,
      "Ġenormous": 8989,
      "ĠZanzibar": 8990,
      "$$": 8991,
      "81": 8992,
      "Ag": 8993,
      "BER": 8994,
      "CS": 8995,
      "CAR": 8996,
      "Ear": 8997,
      "Hel": 8998,
      "Log": 8999,
      "NT": 9000,
      "Open": 9001,
      "PG": 9002,
      "SE": 9003,
      "_\\": 9004,
      "boot": 9005,
      "because": 9006,
      "cor": 9007,
      "dep": 9008,
      "fill": 9009,
      "family": 9010,
      "gh": 9011,
      "gen": 9012,
      "good": 9013,
      "hom": 9014,
      "host": 9015,
      "ipt": 9016,
      "jud": 9017,
      "mo": 9018,
      "mare": 9019,
      "och": 9020,
      "rate": 9021,
      "rical": 9022,
      "uble": 9023,
      "uits": 9024,
      "uarez": 9025,
      "vity": 9026,
      "zel": 9027,
      "Ġtale": 9028,
      "Ġtube": 9029,
      "Ġax": 9030,
      "inations": 9031,
      "inov": 9032,
      "rec": 9033,
      "rection": 9034,
      "rets": 9035,
      "onia": 9036,
      "Ġcros": 9037,
      "isition": 9038,
      "esides": 9039,
      "oratory": 9040,
      "Ġfate": 9041,
      "Ġfaint": 9042,
      "Ġpig": 9043,
      "Ġpra": 9044,
      "Ġpants": 9045,
      "Ġpawn": 9046,
      "Ġmm": 9047,
      "Ġmort": 9048,
      "Ġmob": 9049,
      "Ġmoon": 9050,
      "Ġanimal": 9051,
      "arre": 9052,
      "Ġham": 9053,
      "Ġhire": 9054,
      "Ġhated": 9055,
      "icial": 9056,
      "Ġnan": 9057,
      "Ġlun": 9058,
      "Ġlift": 9059,
      "Ġloving": 9060,
      "Ġgate": 9061,
      "Ġgrip": 9062,
      "otal": 9063,
      "otion": 9064,
      "Ġrecept": 9065,
      "Ġbean": 9066,
      "Ġbell": 9067,
      "eton": 9068,
      "etic": 9069,
      "etts": 9070,
      "etery": 9071,
      "ĠTed": 9072,
      "iginal": 9073,
      "ĠSqu": 9074,
      "ĠSony": 9075,
      "ĠACLU": 9076,
      "ĠMB": 9077,
      "chair": 9078,
      "ifest": 9079,
      "iform": 9080,
      "ĠBC": 9081,
      "ĠBack": 9082,
      "Ġrib": 9083,
      "aga": 9084,
      "agnetic": 9085,
      "Ġath": 9086,
      "ulatory": 9087,
      "Ġconvent": 9088,
      "ĠHP": 9089,
      "ĠHill": 9090,
      "ĠHuman": 9091,
      "ĠWW": 9092,
      "ĠWu": 9093,
      "riving": 9094,
      "una": 9095,
      "ĠDate": 9096,
      "usetts": 9097,
      "Ġexha": 9098,
      "umes": 9099,
      "Ġsharing": 9100,
      "ĠNY": 9101,
      "Ġalien": 9102,
      "Ġlib": 9103,
      "ĠGames": 9104,
      "rait": 9105,
      "ĠLand": 9106,
      "ĠLater": 9107,
      "ĠLove": 9108,
      "resents": 9109,
      "resident": 9110,
      "ĠEll": 9111,
      "ĠEqu": 9112,
      "ĠEastern": 9113,
      "ĠObs": 9114,
      "Ġcomprehens": 9115,
      "ĠThink": 9116,
      "ffect": 9117,
      "Ġknights": 9118,
      "elly": 9119,
      "Ġthereof": 9120,
      "Ġenables": 9121,
      "Ġenabled": 9122,
      "Ġcontained": 9123,
      "achusetts": 9124,
      "Ġpartis": 9125,
      "ĠKay": 9126,
      "ĠKings": 9127,
      "ensus": 9128,
      "Ġscary": 9129,
      "Ġamendment": 9130,
      "ictional": 9131,
      "Ġroles": 9132,
      "Ġrolled": 9133,
      "Ġshoulders": 9134,
      "Ġdesp": 9135,
      "php": 9136,
      "Ġcommission": 9137,
      "Ġ06": 9138,
      "Ġinstitution": 9139,
      "Ġdefines": 9140,
      "Thank": 9141,
      "Ġcheese": 9142,
      "Ġrelation": 9143,
      "Ġrelief": 9144,
      "Ġhandled": 9145,
      "Ġcrude": 9146,
      "Ġembr": 9147,
      "Ġformation": 9148,
      "Ġassign": 9149,
      "Ġregulation": 9150,
      "Ġmodular": 9151,
      "Ġrealities": 9152,
      "Ġsubd": 9153,
      "Ġmini": 9154,
      "Ġhardness": 9155,
      "Ġcounts": 9156,
      "Ġextend": 9157,
      "Ġcorrel": 9158,
      "ĠArm": 9159,
      "Ġearned": 9160,
      "Ġconfident": 9161,
      "ĠShelly": 9162,
      "ĠComments": 9163,
      "conf": 9164,
      "Ġsolids": 9165,
      "Ġpasses": 9166,
      "Ġwarning": 9167,
      "Ġwarrant": 9168,
      "Ġdirectories": 9169,
      "Ġdistur": 9170,
      "ĠClint": 9171,
      "ĠCloud": 9172,
      "duces": 9173,
      "Ġkinda": 9174,
      "Ġmaint": 9175,
      "ĠLeban": 9176,
      "Ġlovely": 9177,
      "ĠXy": 9178,
      "ĠProduct": 9179,
      "ĠBlog": 9180,
      "Ġlinking": 9181,
      "Ġpromised": 9182,
      "Ġmenop": 9183,
      "Ġpresentation": 9184,
      "Ġminds": 9185,
      "Ġargued": 9186,
      "Ġbarrel": 9187,
      "Ġpressed": 9188,
      "Ġ1998": 9189,
      "Ġvector": 9190,
      "ĠConnect": 9191,
      "ĠSelect": 9192,
      "evin": 9193,
      "Ġzone": 9194,
      "Ġdefining": 9195,
      "Ġ@_": 9196,
      "Ġmarketing": 9197,
      "Ġanticip": 9198,
      "Ġbreaks": 9199,
      "Ġdeadly": 9200,
      "strong": 9201,
      "Char": 9202,
      "Ġrequirement": 9203,
      "Ġjudges": 9204,
      "Ġattacked": 9205,
      "Ġopens": 9206,
      "ĠMusic": 9207,
      "Ġbrothers": 9208,
      "Art": 9209,
      "Ġautomatic": 9210,
      "Ġignor": 9211,
      "ĠGermans": 9212,
      "Ġlayer": 9213,
      "ĠGuide": 9214,
      "Ortega": 9215,
      "ĠSuperman": 9216,
      "Ġprepare": 9217,
      "Ġpreparing": 9218,
      "Ġsettled": 9219,
      "Ġtiming": 9220,
      "Ġrebels": 9221,
      "Ġcrying": 9222,
      "Ġimplemented": 9223,
      "ĠEverything": 9224,
      "Ġpurchased": 9225,
      "Ġsleeping": 9226,
      "Ġsecretary": 9227,
      "Ġcalculation": 9228,
      "News": 9229,
      "Ġhonestly": 9230,
      "Ġadvantages": 9231,
      "Ġnavig": 9232,
      "Ġlifted": 9233,
      "ĠFrancie": 9234,
      "Ġdeny": 9235,
      "ĠArabia": 9236,
      "Ġglasses": 9237,
      "Trans": 9238,
      "Ġarchaeological": 9239,
      "Ġintegrated": 9240,
      "ĠModel": 9241,
      "Ġracial": 9242,
      "Ġphrases": 9243,
      "ĠArchitect": 9244,
      "Obama": 9245,
      "Ġprayer": 9246,
      "Ġscenario": 9247,
      "Ġconverted": 9248,
      "Ġobservations": 9249,
      "Ġadvertising": 9250,
      "Ġ;)": 9251,
      "Ġcarbonation": 9252,
      "Ġcorresponding": 9253,
      "Ġdupl": 9254,
      "Ġflexible": 9255,
      "Ġresearchers": 9256,
      "Ġsavings": 9257,
      "Ġdisplays": 9258,
      "Ġenforcement": 9259,
      "ĠCIA": 9260,
      "Ġproportion": 9261,
      "ĠJersey": 9262,
      "Ġunclear": 9263,
      "Ġmurdered": 9264,
      "igenous": 9265,
      "ENDOR": 9266,
      "Ġwedding": 9267,
      "sucrose": 9268,
      "Ġ:-)": 9269,
      "Ġgoogle": 9270,
      "ĠAssociation": 9271,
      "Ġwisdom": 9272,
      "Ġencyclopedia": 9273,
      "Ġlaptop": 9274,
      "ĠThunderb": 9275,
      "Ġunexpected": 9276,
      "ĠSaudi": 9277,
      "'ÂĴ": 9278,
      "ghanistan": 9279,
      "62": 9280,
      "?'": 9281,
      "Bad": 9282,
[...]
