#version: 0.2
¤ ¾
à ¤¾
¤ ķ
à ¤ķ
¤ °
à ¤°
¥ ĩ
à ¥ĩ
à ¤
¥ į
à ¥į
à¤ ¿
Ġ à¤ķ
à¤ ¨
à¤ ¸
à¤ Ĥ
à¤ ®
¥ Ģ
à ¥Ģ
à¤ ²
à¤ ¤
à¤ ¯
¥ ĭ
à ¥ĭ
à¤ ª
à¤ ¹
à¤ µ
Ġ à¤¸
Ġ à¤®
à¤ ľ
à¤ ¦
à¤ Ĺ
à¤ ¬
Ġ à¤ª
à¤ ı
à¥ĩ à¤Ĥ
à¤ Ł
Ġ à¤¹
¥ Ī
à ¥Ī
¥ ¤
à ¥¤
¥ ģ
à ¥ģ
à¤ ¡
à¤ ¶
à¤ ¥
Ġ à¤ľ
¥ Ĥ
à ¥Ĥ
à¤ ħ
Ġ à¤¬
Ġ à¤µ
Ġ à¤ħ
Ġ à¤¨
à¤ ļ
à¥ĭ à¤Ĥ
Ġ à¤ı
Ġ à¤²
à¤ Ķ
Ġ à¤¦
Ġ à¤Ķ
Ġà¤Ķ à¤°
Ġ à¤°
à¤ ī
Ġ à¤Ĺ
Ġ à¤ī
Ġ à¤¥
à¤ ·
à¤ ĩ
à¤ Ń
à¤ §
à¤ «
à¤ Ĩ
Ġà¤ı à¤ķ
à¤ ĸ
à¤ ¼
Ġà¤ķ à¤°
Ġ à¤¶
à¤ Ī
à¤ £
Ġ à¤Ĩ
Ġ à¤¤
à¤¾ à¥¤
¥ ī
à ¥ī
Ġà¤ª à¤°
Ġ à¤¯
à¥Ī à¤Ĥ
Ġ 1
Ġ à¤ĩ
à¥Ī à¥¤
Ġ à¤ļ
Ġ à¤Ń
Ġ "
Ġà¤ī à¤¨
Ġà¤Ĺ à¤¯
Ġ à¤«
à¤¾ ,
Ġ à¤¡
Ġ 2
à¤¾ à¤Ĥ
à¤ª à¤¨
Ġà¤¸ à¤®
¥ Į
à ¥Į
Ġ à¤ĸ
Ġ (
Ġ à¤Ł
Ġà¤ĩ à¤¸
à¤ ĵ
à¤ Ľ
Ġ1 9
Ġà¤ķà¤° à¤¨
Ġ2 0
¥ ĥ
à ¥ĥ
à¤° à¤£
à¤° à¤¤
Ġà¤ħ à¤ªà¤¨
à¥Ģ .
à¥Ģ à¤Ĥ
à¤¿ à¤Ĥ
à¤ ĺ
à¥Ī ,
Ġà¤ª à¤¹
à¥Ģ à¥¤
à¤µ à¤°
Ġà¤ħ à¤¨
Ġà¤¯ à¤¹
à¤ ģ
à¤° à¤ķ
à¤¤ à¤°
à¥Īà¤Ĥ à¥¤
Ġà¤ħ à¤§
Ġà¤ķà¤° à¤¤
à¥ĩà¤Ĥ ,
à¤¯ à¤ķ
à¤ľ à¤¨
à¤¬ à¤°
à¥Ģ ,
à¥ĩ à¥¤
Ġà¤īà¤¨ à¤ķ
à¤Ł à¤°
à¤ ł
Ġà¤¤ à¤ķ
Ġà¤ªà¤¹ à¤²
Ġà¤¬ à¤¨
Ġà¤ī à¤¸
à¤¯ à¤°
Ġà¤ī à¤ª
Ġà¤¨ à¤¹
à¤° à¤®
Ġà¤µ à¤°
à¤¯ à¤¨
Ġ à¤ĺ
à¤¾ à¤ģ
Ġà¤° à¤¹
à¥ĩ ,
Ġà¤µ à¤¹
Ġ à¤Ľ
à¤¹ à¤°
à¤¶ à¤¨
à¤¸ à¤°
0 0
Ġà¤¸ à¤ķ
à¤¼ à¤¾
à¤ķ à¤°
à¤¸ à¤®
à¤ ĳ
Ġà¤® à¤¹
à¤° à¤¸
Ġ20 1
à¤² à¤¨
à¤ª à¤°
Ġà¤Ĺ à¤ı
Ġà¤Ĺ à¤Ī
Ġ à¤ĵ
à¤Ł à¤¨
à¤ ĥ
à¤¯ à¤®
Ġà¤ī à¤¤
à¤¸ à¤¨
Ġ à¤ĳ
à¤ ¢
à¤² à¤¯
à¤¦ à¤°
à¤° à¤¹
Ġà¤ķ à¤®
Ġà¤ľ à¤¬
à¤¼ à¥Ģ
Ġà¤ħ à¤²
Ġà¤ĩà¤¸ à¤ķ
Ġ à¤§
à¤µ à¤¨
Ġà¤² à¤Ĺ
Ġà¤ķ à¤¹
Ġà¤ı à¤²
à¤® à¤¨
à¤ĩ à¤¨
Ġà¤¸à¤ķ à¤¤
1 9
à¤· à¤£
à¥Īà¤Ĥ ,
Ġà¤īà¤ª à¤¯
Ġ20 0
à¤ Ŀ
Ġ1 8
Ġà¤ª à¤¤
à¤¸ à¤ķ
Ġà¤¸ à¤¹
Ġà¤ħ à¤®
Ġà¤Ĩ à¤°
Ġà¤ľ à¤¨
à¤Ĺ à¤°
à¤² à¤¤
Ġ 3
à¤¬ à¤¸
Ġà¤ķ à¤Ī
Ġà¤ı à¤¸
à¤¼ à¥ĩ
Ġà¤¸à¤® à¤¯
à¤° à¤µ
à¤ķ à¤²
2 0
Ġà¤° à¤ĸ
à¤® à¤¤
Ġà¤¬ à¤¹
Ġà¤Ĩ à¤¯
à¤¶ à¤ķ
Ġà¤ħ à¤Ń
à¤® à¤ķ
à¤¤ à¤ķ
Ġà¤¶ à¤¹à¤°
à¤¨ à¤ķ
Ġà¤¸ à¤¬à¤¸
à¤ķ à¤°à¤£
à¤ ŀ
à¤µ à¤²
Ġà¤ī à¤¦
à¤ª à¤¤
à¤¨ à¤°
Ġà¤ħ à¤ķ
à¤² à¤°
à¤¯ à¤¤
Ġà¤ľ à¤¹
Ġà¤Ĩ à¤§
Ġà¤Ĩ à¤µ
Ġà¤ı à¤®
à¤ļ à¤¨
à¤² à¤¬
à¤Ĺ à¤¤
Ġ à¤Ī
à¤ķ à¤¨
à¤ĩ à¤Ł
Ġ 4
Ġà¤¸ à¤°
à¤¦ à¤¨
Ġ19 9
Ġà¤īà¤¸ à¤ķ
Ġà¤¬ à¤¡
Ġà¤ħ à¤ª
Ġà¤ı à¤¨
à¤¾ "
à¤¡ à¤°
à¥ĭ ,
à¤Ĺ à¤²
Ġà¤¸ à¤Ń
Ġà¤ħ à¤°
Ġà¤¹ à¤®
à¤° à¤¶
à¤¤ à¤¨
à¤° à¤Ń
) ,
Ġ 5
à¤ Ĳ
à¤° à¤¦à¤°
à¤Ł à¤²
Ġà¤ķ à¤²
à¤ Ĭ
à¤ĩ à¤¸
Ġà¤¸ à¤¦
à¥ģ à¤Ĥ
à¤¯ à¤µ
Ġà¤¤ à¤°à¤¹
à¤Ĩ à¤¤
à¤ı à¤¸
Ġà¤¬ à¤¢
à¤¨ à¤²
à¤ª à¤ķ
Ġà¤¦ à¤ķ
Ġà¤ħ à¤¸
Ġà¤Ĩ à¤Ī
Ġà¤ħ à¤µ
Ġà¤ĺ à¤°
Ġ à¤Ĳ
à¤¾ .
à¤¼ à¤¿
Ġà¤¬ à¤ļ
à¤µ à¤µ
à¤¹ à¤¤
à¥Ģ -
Ġà¤¸à¤¦ à¤¸
à¤° à¤¦
Ġà¤ļ à¤²
Ġà¤ı à¤«
Ġà¤¦ à¤°
Ġ19 8
Ġ <
à¤¨ à¤¤
à¤Ń à¤Ĺ
Ġà¤ĵ à¤°
à¤ı à¤ķ
à¤µ à¤¤
Ġ 6
à¤¡ à¤²
Ġà¤¬ à¤°
Ġ '
u n
un k
à¤· à¤ķ
à¤ī à¤¨
Ġà¤ļ à¤°
Ġ à¤Ĭ
à¤ķ à¤¡
à¤¿ ,
à¤ķ à¤¸
à¤¦ à¤²
" ,
Ġà¤²à¤Ĺ à¤Ńà¤Ĺ
Ġà¤ĩ à¤¨
à¤§ à¤¨
à¤ľ à¤°
Ġà¤² à¤¡
à¥Ĥ .
Ġ19 7
à¤° à¤¯
à¤¯ à¤²
Ġà¤ª à¤¦
à¤ĸ à¤²
à¥ĥ à¤Ĥ
Ġà¤Ĩ à¤Ĺ
Ġà¤ĳ à¤«
à¤² à¤µ
Ġà¤¸à¤® à¤°
à¤Ł à¤ķ
à¤ª à¤¸
à¤ľ à¤¬
à¥Ģ "
à¤¸ à¤²
Ġà¤¦ à¤¶à¤ķ
à¤ĩ à¤²
Ġà¤¹ à¤°
à¤ķ à¤¤
Ġ 7
Ġà¤¸ à¤¤
à¤Ł à¤¬
Ġ19 6
1 8
Ġà¤ħ à¤¬
Ġà¤ª à¤¶
Ġà¤ħ à¤Ĺ
Ġà¤¨ à¤µ
à¤¬ à¤®
à¤¨ à¤¸
00 0
à¤® à¤²
Ġà¤ī à¤ļ
Ġà¤« à¤°
à¤¬ à¤²
à¤¥ à¤¨
Ġà¤ħà¤² à¤Ĺ
à¤¨ à¤®
Ġà¤¨ à¤ı
Ġà¤ľ à¤°
à¤¤ à¤µ
à¤£ à¤¨
Ġ 8
à¤® à¤¸
à¥ĩà¤Ĥ à¥¤
Ġà¤¤ à¤°
à¤¦ à¤®
Ġà¤Ĳ à¤¸
à¤¾ -
Ġà¤¸ à¤«
à¤Ĺ à¤¨
Ġ19 4
à¤° à¤¬
Ġ à¤Ŀ
à¤ĩ à¤¡
à¤° à¤¨
à¤ĸ à¤¨
) à¥¤
à¥ĩ .
Ġà¤¸ à¤°à¤ķ
à¤¤ à¤®
à¤ļ à¤°
Ġà¤Ĩà¤µ à¤¶
Ġ1 7
Ġà¤ĩ à¤¤
à¤ł à¤¨
Ġà¤ľà¤¬ à¤ķ
à¤¹ à¤¨
Ġ 9
- -
Ġà¤ķ à¤ª
à¤° à¤²
Ġà¤¬ à¤²
Ġà¤¬ à¤¦à¤²
à¤¯ à¤¸
Ġ1 0
à¤® à¤°
à¤¸ à¤¸
20 1
Ġà¤ħ à¤ļ
Ġà¤Ĩ à¤ķ
à¤¨ à¤µ
Ġà¤®à¤¹ à¤¤
Ġà¤ī à¤®
Ġ19 5
Ġà¤ĳ à¤¸
à¥Ģà¤Ĥ à¥¤
Ġà¤ı à¤¡
à¤ı à¤²
Ġà¤ľ à¤²
Ġ20 2
à¤¥ à¤²
Ġà¤® à¤§
2 00
à¤¡ à¤¨
Ġà¤ĸ à¤°
à¤ĩ à¤ķ
Ġ1 5
à¤¸ à¤¤
Ġà¤Ĺ à¤°
Ġà¤® à¤¨
Ġà¤Ĩ à¤¤
à¤ķ à¤Ł
à¤¯à¤µ à¤¸
Ġ1 6
Ġà¤Ĩ à¤ª
à¤¸ à¤ª
Ġà¤ª à¤¡
à¤¯ à¤¹
à¤¥ à¤®
Ġà¤ħ à¤¤
à¤µ à¤ª
Ġà¤¬ à¤ľ
Ġà¤¤ à¤¬
à¤¶ à¤¤
à¤¨ à¤¨
Ġà¤¶ à¤¤
à¥ĭà¤Ĥ ,
à¥ĩ -
Ġà¤¹ à¤¸
Ġà¤ķ à¤Ń
Ġ19 3
Ġà¤Ĩ à¤®
Ġà¤¤ à¤¹à¤¤
Ġà¤ī à¤²
Ġà¤® à¤Ī
Ġà¤ķ à¤¨
Ġà¤ľà¤¨ à¤µà¤°
à¤¸ à¤µ
Ġà¤¨ à¤¦
Ġà¤¸ à¤¡
à¤ı à¤¨
à¤¯ à¤¯à¤¨
Ġà¤ıà¤ķ à¤²
Ġà¤Ń à¤°
Ġà¤¹ à¤µ
Ġà¤¬ à¤¤
Ġà¤ħà¤Ĺ à¤¸
Ġà¤Ĺ à¤¤
Ġ1 2
à¤¬ à¤¦
Ġà¤Ĩ à¤¦
à¤¦ à¤ķ
Ġà¤ĩ à¤®
à¤² à¤ķ
Ġà¤¡ à¤¬
Ġà¤°à¤¹ à¤¤
Ġ à¤ł
à¤° à¤ľ
. .
à¤¯à¤ķ à¤¤
à¤Ĩ à¤°
à¤¾ ;
Ġ" "
à¤¤ à¤¤
à¤ħ à¤²
à¤ī à¤¸
à¤Ľ à¤²
à¤¼ à¥ĭ
Ġà¤ķ à¤¬
Ġà¤ª à¤ķ
à¤µ à¤ľà¤¨
à¤ı à¤Ĺ
à¤¯à¤¨ à¤¶
Ġà¤ı à¤ļ
Ġà¤¶ à¤°
à¤µ à¤¸
Ġà¤ħ à¤¦
Ġà¤ĩ à¤²
à¤· à¤¤
à¤¼ à¥ĭà¤Ĥ
Ġà¤° à¤ķ
Ġà¤ĩà¤¸ à¤²
Ġà¤¤ à¤Ł
Ġà¤«à¤° à¤µà¤°
à¤¹ à¤®
Ġ1 1
Ġà¤® à¤¤
Ġà¤ķà¤° à¤ķ
Ġà¤ħà¤µ à¤§
Ġà¤¶ à¤¬
à¤ı à¤®
Ġà¤ħ à¤«
à¤¥ à¤°
à¤¼ à¥į
Ġà¤® à¤¦
Ġ1 4
Ġ1 3
à¥ĩ "
à¥Ĥ à¤Ĥ
Ġà¤¸à¤® à¤Ŀ
à¤· à¤°
Ġà¤ħ à¤Ĺà¤²
Ġà¤¹à¤® à¤²
Ġà¤Ĭ à¤ªà¤°
à¤µ à¤°à¤£
à¤¾ )
Ġ( "
à¤Ĺ à¤łà¤¨
à¤ª à¤·
Ġà¤ĩà¤¸ à¤®
Ġà¤® à¤ľà¤¬
à¤Ł à¤®
à¤¾ à¤ĥ
à¤¹ à¤°à¤£
à¤Ń à¤µ
Ġà¤¬ à¤¸
à¤² à¤®
Ġ19 2
à¤ª à¤²
Ġà¤ī à¤ªà¤¨
Ġà¤¶ à¤ķ
à¤µ à¤¶
à¥Ī à¤ĥ
Ġà¤Ĩ à¤¨
19 9
à¤ķ à¤ª
Ġ à¤¢
à¤ĸ à¤ķ
Ġà¤īà¤¸ à¤¨
à¤ĩ à¤®
à¤· à¤¦
Ġà¤ĩ à¤ķ
à¤ª à¤£
à¤ĩ à¤µ
Ġà¤¨ à¤Ī
Ġà¤®à¤¦ à¤¦
à¤µ à¤ķ
Ġà¤¦ à¤²
à¤¯ à¤¦
1 7
Ġà¤µ à¤¸
Ġà¤Ĩ à¤¬
à¥Ģ )
à¤ĩ à¤¤
Ġà¤ı à¤ª
Ġà¤Ĩ à¤²
à¤Ĺ à¤®
à¤Ĺ à¤Łà¤¨
à¤ĺ à¤°
à¤« à¤²
I I
1 0
Ġà¤Ī à¤¸
à¤ª à¤¶
à¤« à¤°
à¥Ī ;
à¤¹ à¤ķ
Ġà¤¸à¤¹ à¤¯
Ġà¤¦ à¤¸
à¤ľ à¤ķ
Ġà¤¸ à¤ª
à¤· à¤¯
à¥ĭ -
à¤¿ à¥¤
à¥Ģà¤Ĥ ,
Ġà¤°à¤ĸ à¤¨
. )
Ġà¤ĵ à¤²
à¤µ à¤ľ
Ġ201 0
Ġ2 5
Ġà¤°à¤¹ à¤¨
à¤Ĩ à¤Ī
à¤· à¤®
à¤ĩà¤¨ à¤²
à¤ĸ à¤¤
Ġ _
à¤ĩ à¤¯
à¤° à¤ªà¤¤
à¥Īà¤Ĥ à¤ĥ
Ġ201 1
Ġà¤Ľ à¤¹
à¥Īà¥¤ "
Ġà¤Ĺ à¤£
Ġ3 0
Ġà¤Ĩ à¤¸à¤ª
Ġà¤ı à¤ľ
-- --
à¤° à¤ļà¤¨
Ġ201 2
à¤¡ à¤®
1 5
Ġ201 4
à¥ĭ "
Ġ201 6
Ġà¤ª à¤¢
1 6
Ġà¤Ĳ à¤¤
à¤· à¤®à¤¤
Ġ19 0
Ġ201 3
Ġà¤°à¤ĸ à¤¤
Ġ201 5
Ġà¤¯ à¤¦
à¤Ķ à¤°
à¤ī à¤Ł
à¤® à¤Ĺ
à¤ľ à¤²
Ġà¤§ à¤°
Ġà¤¹ à¤Ł
Ġ201 8
Ġà¤Ķ à¤¸à¤¤
à¤¸ à¤¦
Ġà¤² à¤ķ
à¤¤ à¤°à¤£
Ġ201 9
Ġ20 20
Ġà¤ªà¤¹ à¤ļ
à¤¸ à¤¬
Ġ200 9
Ġ200 8
Ġ201 7
à¤¬ à¤¨
1 2
à¤² à¤¸
à¤µ à¤¹
à¤ļ à¤ķ
à¤ĩ à¤ľ
à¤µ à¤¯
Ġà¤ĺ à¤Łà¤¨
Ġà¤īà¤ª à¤²à¤¬
Ġà¤Ĩ à¤®à¤¤
Ġà¤¸ à¤²
Ġà¤ī à¤¡
Ġà¤Ĩ à¤ı
Ġ18 9
19 8
Ġà¤īà¤ª à¤ķà¤°à¤£
Ġà¤ħ à¤ªà¤°
Ġà¤Ĩ à¤ªà¤ķ
Ġ =
Ġ2 4
à¤Ĺ à¤¦
Ġà¤ª à¤ķà¤¡
à¤¶ à¤²
Ġ200 7
Ġà¤¹ à¤¤
Ġà¤ı à¤°
à¤ļ à¤²
Ġà¤¸ à¤ļ
1 4
Ġà¤¤ à¤¤
à¤Ĺ à¤¹
à¤¾à¥¤ "
Ġà¤Ń à¤µ
Ġà¤ķ à¤¥
Ġà¤ĳ à¤°
Ġà¤¨ à¤Ĺà¤°
Ġà¤Ĩ à¤¶
à¤ħ à¤¨
à¤« à¤¨
Ġà¤Ĩ à¤¯à¤°
Ġà¤ķ à¤ķ
Ġà¤īà¤ª à¤¸
Ġà¤® à¤¸
Ġ202 1
à¤¨ à¤Ł
à¤¨ à¤¦
à¥ģ à¤ģ
Ġ 0
Ġà¤® à¤°
Ġà¤ļ à¤°à¤£
Ġà¤ķ à¤µ
à¤Ł à¤µà¤°
1 3
Ġà¤¸ à¤¬
à¤ķ à¤Ń
" )
Ġ1 00
Ġà¤ıà¤ķ à¤®
à¤® à¤ļ
à¤Ł à¤¸
Ġà¤µ à¤ķ
Ġ200 6
Ġà¤Ĩ à¤ķà¤°
Ġ18 8
Ġà¤ļ à¤²à¤¤
à¤£ à¤¯
Ġà¤ľ à¤®
Ġà¤§ à¤¨
Ġà¤¤à¤ķ à¤¨
Ġà¤ķ à¤ł
5 0
à¤¨ à¤¹
à¤ī à¤¨à¤ķ
à¤ı à¤«
19 7
à¤°à¤® à¤£
à¤¡ à¤µ
Ġà¤Ĩ à¤ľ
Ġ2 2
Ġà¤ķà¤¹ à¤¤
â Ģ
Ġ2 1
à¤§ à¤ķ
Ã Ĥ
Ġà¤ĩ à¤°
à¤¡ à¤¬
Ġà¤Ĩ à¤ł
Ġ18 6
à¤ħà¤² à¤Ĺ
Ġ2 3
Ġ202 2
à¤Ĺ à¤¸
Ġà¤¸à¤« à¤²à¤¤
à¤° à¤ļ
à¤Ĩ à¤¨
à¤µ à¤¹à¤¨
à¤¹ à¤²
Ġà¤¨ à¤¯
Ġà¤¸ à¤µ
Ġà¤ª à¤¸
Ġà¤ľ à¤Ĺà¤¹
Ġà¤Ĺ à¤łà¤¨
à¤ķ à¤®
à¤° à¤¥à¤®
à¤ĸ à¤°
1 1
à¤ħ à¤ª
Ġà¤ī à¤ł
3 0
Ġà¤ħ à¤ľ
à¥Į à¤Ĥ
à¤ħ à¤ªà¤¨
à¥Ģ. )
Ġà¤¸ à¤ľ
à¤¤ à¤ļ
Ġ18 7
Ġà¤ķ à¤Ł
à¤ħ à¤®
Ġà¤ªà¤¦ à¤ķ
Ġà¤īà¤¸ à¤¸
à¤² à¤Ĺ
Ġ200 5
à¤ı à¤ļ
Ġà¤¤ à¤²
Ġ( )
2 1
Ġ2 6
Ġà¤¹ à¤²
Ġ $
Ġà¤¸à¤« à¤²
à¤° à¤«
à¤ª à¤ļ
à¤Ĥ à¥¤
à¤¶ à¤ª
Ġ II
à¤§ à¤¤
à¤Ĩ à¤§
à¤¨ à¤¯
Ġà¤Ĺ à¤¹à¤°
à¤¦ à¤µ
à¥ĭ à¥¤
Ġ2 8
Ġà¤¸à¤® à¤¸
à¤ľ à¤®
à¤¨ à¤¬
Ġ20 00
Ġ2 7
Ġ [
Ġà¤ĩà¤¸ à¤¨
Ġà¤ľ à¤µ
19 6
à¤ ĭ
Ġà¤ı à¤¶
Ġà¤µ à¤¨
à¤ł à¤ķ
à¤ĩ à¤ª
à¤ģ à¥¤
à¤Ł à¤«
Ġà¤¬ à¤¦
à¤¯à¤µ à¤¹
à¤¬ à¤¹
à¤ī à¤¤
Ġ200 4
à¤Ł à¤µ
Ġà¤Ĭ à¤°
à¤¸ à¤¬à¤°
Ġà¤² à¤ķà¤¡
2 2
à¤ı à¤Łà¤°
Ġ5 0
à¤ķ à¤µ
Ġà¤ĩà¤¸ à¤¸
Ġà¤Ĺà¤£ à¤°
Ġà¤Ĺ à¤²à¤¤
à¤Ĥ ,
Ġ à¤ĭ
Ġà¤ĸ à¤¡
à¤Ĺ à¤µ
à¤Ī à¤¸
Ġà¤ħ à¤¡
à¤¹ à¤¤à¤°
à¤¸ à¤«
à¤ħ à¤°
Ġà¤° à¤¸
à¤Ĺ à¤£à¤¨
Ġà¤° à¤ļà¤¨
à¤¡ à¤ķ
Ġà¤ĩ à¤¨à¤ķ
Ġà¤²à¤Ĺ à¤¤
Ġà¤¸à¤¹ à¤®à¤¤
Ġà¤ľà¤¨ à¤°à¤²
Ġà¤ĸ à¤¤à¤°
Ġ199 0
à¤Ł à¤¤
Ġà¤ľà¤¨ à¤Ĺà¤£à¤¨
Ġà¤®à¤¤ à¤¦
Ġà¤Ĩ à¤¸
Ġà¤¨à¤Ĺà¤° à¤ª
Ġà¤ı à¤¯à¤°
à¤ł à¤Ń
Ġà¤ļ à¤¯à¤¨
Ġà¤¨ à¤¸
Ġ2 9
à¥Ĥ à¥¤
à¤® à¤¦
Ġà¤¬à¤¹ à¤¨
Ġà¤ĩ à¤¤à¤¨
à¤ĩ à¤ķà¤²
à¤® à¤¹
Ġà¤¬à¤¨ à¤¨
à¥ĭà¤Ĥ "
Ġà¤Ł à¤°
Ġà¤®à¤¹ à¤²
Ġ200 3
à¤µ à¤Ł
Ġà¤ľà¤¨ à¤¸
à¤ķ à¤¦à¤®
Ġ198 0
à¤¨ à¤¬à¤°
à¤ī à¤¥
Ġà¤¨ à¤ķ
Ġà¤ķ à¤µà¤°
à¤°à¤¹ à¤£
Ġ4 0
Ġà¤¡ à¤°
2 3
à¤¨ à¤ļ
à¤° à¤§
Ġà¤ħà¤° à¤¬
à¤¹ à¤¸
à¤¼ à¥ģ
Ġà¤Ĩ à¤¦à¤®
à¤¼ à¤¾à¥¤
à¤¥ à¤ķ
à¤ĩ à¤¸à¤ķ
Ġà¤° à¤¨
à¤ľ à¤µ
à¥Ĥ -
Ġ200 2
à¤ľà¤¨ à¤ķ
à¥Ģ à¤ĥ
Ġà¤¸à¤® à¤ķ
2 5
à¥Ī )
à¤¯ à¤ª
à¤¡ à¤¸
Ġ200 1
à¤ĺ à¤Łà¤¨
à¥ĩ )
Ġà¤®à¤¹ à¤¸
Ġà¤ĳ à¤ķ
4 0
Ġ197 0
à¤¦à¤° à¤Ĺ
à¥Ģ ;
à¥ĩà¤Ĥ )
Ġà¤¹ à¤¥
Ġà¤ħà¤µ à¤¸à¤°
à¥Ī .
à¤Ń à¤°
Ġà¤¦ à¤¬
à¤¿ "
à¤µ à¤ļ
à¤¾" ,
---- ----
Ġà¤ª à¤²
à¤¸à¤® à¤°
à¤ĳ à¤«
à¤ī à¤²
âĢ ²
Ġà¤¨ à¤·
Ġà¤ª à¤Ł
à¤° à¤ĸ
à¤¯ à¤§
à¤¿ -
Ġà¤¤ à¤¸
à¤° à¤Ĺ
Ġà¤° à¤µ
à¤µ à¤¦
à¥¤ "
Ġà¤° à¤ľ
à¥ĩ ;
Ġ18 5
Ġà¤¹ à¤¦
Ġà¤Ĺ à¤ł
Ġà¤® à¤¶
à¤· à¤ľ
Ġà¤ĩ à¤ļ
Ġà¤Ĺ à¤µà¤°
Ġà¤ħ à¤Ĺà¤°
Ġ âĢ²
Ġà¤ĳ à¤²
Ġà¤ļ à¤Ł
à¤ķ à¤¬
à¤¨ à¤¸à¤¨
à¤ª à¤®
à¤ħ à¤¬
Ġ199 9
Ġà¤ĭ à¤£
à¤Ĺ à¤ľ
à¥Īà¤Ĥ ;
2 4
Ġà¤® à¤ľ
à¤µ à¤§
Ġ196 0
à¤° à¤ª
Ġ3 1
à¤¥ à¤µ
à¤°à¤¸ à¤¨
à¤ļ à¤µ
Ġà¤¬ à¤Ł
à¥Ĥ à¤ģ
à¤ĩ à¤¬
Ġà¤īà¤ª à¤ļ
Ġà¤® à¤Ľà¤²
Ġà¤ı à¤µ
à¤¯à¤¤ à¤¨
Ġà¤® à¤²
Ġà¤ıà¤¡ à¤®
à¥Ī -
Ġà¤ļ à¤ķ
Ġ199 8
à¤ľ à¤§
à¤¤ à¤²
à¤¶ à¤°
à¤ħ à¤§
à¤ĸ à¤Ń
Ġà¤ıà¤ķ à¤¤
Ġà¤¸à¤¤ à¤¹
Ġà¤¬à¤¦ à¤²à¤¨
Ġà¤¹ à¤¡
Ġà¤¤ à¤¥
à¤Ĺ à¤¡
Ġà¤ķà¤ª à¤¡
à¤ª à¤¹à¤²
Ġà¤ķà¤® à¤°
Ġà¤ĵ à¤ķ
à¤ĩ à¤°
2 7
2 8
à¤¡ à¤«
2 6
Ġ199 6
à¤ĩà¤¨ à¤°
à¤° à¤Ĺà¤¤
19 5
à¤ª à¤Ł
à¤¨ à¤µà¤°
à¤Ń à¤µà¤¤
Ġ199 7
à¤Ĩ à¤īà¤Ł
Ġà¤īà¤¨ à¤®
Ġ ÃĤ
Ġà¤ħà¤µ à¤¶
Ġ18 4
à¤ı à¤Ł
Ġà¤¸ à¤Ł
Ġà¤Ń à¤µà¤¨
Ġà¤¬ à¤®
à¤¾à¤ģ ,
Ġà¤ı à¤Ł
à¤® à¤§
Ġà¤Ĩà¤¯à¤° à¤²
à¤ļ à¤¤
Ġà¤¬à¤¦à¤² à¤ķà¤°
Ġà¤Ĺà¤ł à¤¬
Ġà¤ĵ à¤Ł
Ġà¤° à¤£à¤¨
à¤ª à¤¦
à¤¨ à¤«
19 4
Ġà¤® à¤ķ
Ġà¤ı à¤¥à¤²
Ġ +
2 9
Ġà¤¡ à¤ļ
à¤Łà¤° à¤¨
Ġ199 5
Ġ199 4
à¤ĺ à¤¨
Ġà¤ªà¤° à¤®
Ġà¤ħ à¤¶
Ġà¤ª à¤µ
Ġà¤¨ à¤®
Ġà¤ļ à¤²à¤¨
Ġ199 2
Ġà¤Ľ à¤µ
Ġà¤ĩ à¤µ
Ġà¤² à¤ĺ
" à¥¤
Ġà¤¦ à¤«à¤¨
à¤ı à¤¡
à¥ģ -
à¤® à¤¯
Ġà¤ĵ à¤ª
à¥ĩ à¤ĥ
Ġà¤¦ à¤µ
Ġà¤ĩ à¤Łà¤²
à¤¯ à¤¯
Ġà¤ķà¤¹ à¤¨
Ġà¤ĩà¤¨ à¤®
Ġà¤Ń à¤Ĺà¤µ
Ġà¤Ľ à¤¤
à¤ı à¤°
à¤¼ ,
Ġà¤¨ à¤°
Ġà¤ĳ à¤ªà¤°
à¤ħ à¤ķ
à¤¸ à¤Ń
à¤ķ à¤¹
à¤ķ à¤²à¤¨
Ġà¤ıà¤¡ à¤µà¤°
Ġ199 3
Ġ x
à¥Īà¤Ĥà¥¤ "
Ġ195 0
Ġà¤Ķ à¤ªà¤ļ
Ġ199 1
Ġà¤ĵ à¤¹
Ġ6 0
.. ..
à¤ľ à¤Ĺ
19 3
à¤ī à¤¦
à¤¼ à¤¾,
à¤¶à¤¨ à¤²
Ġà¤ľ à¤Ł
Ġà¤¤ à¤¨
à¥ĩà¤Ĥ "
à¤² à¤¹
6 0
Ġ18 3
Ġà¤Ĩ à¤¹
à¤ľ à¤¸
Ġà¤ł à¤¹à¤°
à¤¶à¤ķ à¤¶
à¤² à¤Ń
Ġà¤ī à¤ľ
à¤¯ à¤Ł
à¤² à¤¬à¤°
Ġ198 9
Ġ202 3
Ġà¤ĩ à¤ľ
. -
à¤ª à¤¬
à¤² à¤ļ
201 0
à¤Ĺ à¤ķà¤°
Ġà¤¹ à¤ľ
Ġ #
à¤® à¤¶
Ġà¤µ à¤¯à¤¸
Ġà¤ĵ à¤¬
à¤ķ à¤¥
Ġ198 8
à¤¸ à¤¹
à¤§ à¤°
Ġà¤Ĺ à¤²
à¤¸ à¤°à¤£
à¤ĩ à¤Ĺ
à¤¤ à¤ª
Ġà¤ķà¤® à¤ľ
Ġ6 5
Ġà¤ľ à¤²à¤µ
à¤ª à¤¯
8 0
à¤Ĺ à¤ķ
Ġà¤ª à¤¨
Ġ3 5
Ġ198 7
à¤ı à¤¶à¤¨
à¤Ĺ à¤¶
Ġà¤ķ à¤¦à¤®
à¥Ī "
à¤Ń à¤ķ
Ġà¤ªà¤¹ à¤¨
à¤°à¤ķ à¤°
à¤ĩ à¤«
à¤¼ à¥Ģ,
Ġ198 6
Ġà¤ħ à¤µà¤°
Ġà¤ı à¤¬
à¤ľ à¤¯
à¤° à¤µà¤°
à¤¨ à¤Ĺà¤°
! "
à¤£ à¤µà¤¤
Ġ I
Ġà¤Ī à¤°
à¤¤ à¤Ĺ
Ġà¤¤à¤° à¤«
Ġà¤ľà¤¨ à¤¤
Ġà¤ħ à¤Łà¤²
Ġ198 4
Ġà¤ļ à¤®à¤ķ
Ġ198 5
Ġà¤° à¤¦
à¤¨à¤¤ à¤®
à¤ħ à¤Ń
Ġà¤Ĩ à¤ĩà¤¸
à¤¾à¤ģ à¥¤
à¤ľ à¤°à¤¤
à¤ķà¤¤ à¤®
Ġ4 5
à¥Ĥ "
Ġà¤Ķ à¤¦
i i
Ġà¤ĳ à¤¨à¤²
Ġà¤¬ à¤ļà¤¨
Ġ194 0
à¥Ĥ ,
Ġà¤¡ à¤¬à¤²
Ġà¤ĵ à¤¸
Ġà¤° à¤Ĺ
Ġ198 3
Ġ193 0
à¤¯ à¤¶
Ġ194 5
à¤² à¤ķà¤°
à¤ľà¤¨ à¤¨
Ġà¤® à¤ł
Ġà¤ī à¤Ĺ
Ġ" ,
à¤Ĺ à¤¡à¤®
Ġà¤ĺ à¤Łà¤ķ
Ġà¤Ĩ à¤°à¤ķ
à¤° à¤¥
9 0
Ġ198 2
Ġ18 0
à¤¯à¤ķ à¤°
7 0
à¤¬ à¤¡
Ġ197 9
Ġà¤µ à¤ľà¤¨
à¤¨à¤¸ à¤Ń
Ġà¤¸à¤® à¤Ĺ
Ġà¤ĵ à¤µà¤°
201 1
Ġà¤¦ à¤°à¤µ
à¤¶ à¤¸
à¤ļ à¤¡
à¤ĵ à¤²
Ġà¤Ľ à¤ł
Ġà¤¸à¤® à¤²
Ġà¤¸à¤° à¤²
Ġ197 2
2 000
à¤¯à¤² à¤Ł
à¤ķ à¤ķ
ĠII I
à¤¸à¤² à¤®
à¤¾ ),
Ġà¤ĳ à¤¡
Ġ8 0
Ġà¤ħ à¤¸à¤®à¤°
à¤Ľ à¤¤
Ġà¤®à¤¤ à¤²à¤¬
à¤® à¤µ
à¤¯ à¤¡
Ġà¤Ĺ à¤µ
Ġà¤¸ à¤¨
Ġà¤ĸ à¤¦
Ġà¤°à¤¹ à¤¸
Ġ" (
Ġ19 20
à¤°à¤® à¤¶
à¤ļ à¤°à¤£
Ġ197 4
à¤¼ à¥ĩà¤Ĥ
à¤µ à¤Ń
à¥Ī ?
19 0
à¤¸ à¤ļ
Ġ198 1
Ġ197 5
Ġà¤ļ à¤¢
Ġ197 6
Ġ196 8
à¥ī .
à¤¤ à¤ķà¤°
Ġà¤Ĩ à¤īà¤Ł
Ġà¤¬ à¤¯
Ġ197 8
à¥Ģ ",
Ġà¤ĳ à¤Ł
Ġ7 0
201 2
à¤µ à¤¸à¤¨
à¤ļ à¤¯
à¤§ à¤µ
à¤Ĺ à¤ł
Ġà¤ĵ à¤ªà¤¨
à¥Ģ /
à¥Ģà¥¤ "
3 1
. ,
Ġ197 3
à¤¬ à¤ķ
à¤¶ à¤¹à¤°
Ġ197 7
à¤¼ "
Ġ197 1
à¤¶ à¤µ
à¤¯ à¤¬
Ġ194 4
Ġ5 00
à¤° à¤°
à¥Ģ. -
Ġ196 9
Ġà¤¬à¤¹ à¤¸
Ġ9 0
201 4
Ġà¤ķ à¤¡
à¤¡ à¤°à¤¸à¤¨
à¤ī à¤¡
Ġ196 7
à¤£ à¤ķà¤Ł
à¤² à¤¡
201 5
201 6
Ġ3 6
à¤Ĩ à¤²
à¤ķ à¤Ī
Ġ3 3
201 3
200 8
à¤¸ à¤Ł
7 5
-------- --------
200 9
à¤£ à¤ķ
Ġà¤ĺ à¤¨à¤¤
Ġà¤ľà¤¨ à¤ľ
Ġà¤ı à¤Ĺ
4 5
Ġà¤ħ à¤Ł
% )
à¤° à¤ľà¤¨à¤¨
200 7
à¤¼ à¥ĩà¥¤
Ġ196 4
à¤¯à¤° à¤²
à¤ľ à¤¹
Ġ Î
Ġ Â
Ġ3 2
à¤ĵ à¤¸
3 5
Ñ ģ
Ġ196 5
à¤¸ à¤ľ
à¤¤à¤° à¤°
Ġà¤¶ à¤°à¤£
Ġà¤ĩ à¤ķà¤Ł
Ġà¤ľ à¤¡
Ġ4 4
Ġà¤Ĺ à¤ľ
à¤¬à¤° à¤²
Ġ *
à¤¦à¤° à¤²
à¤ª à¤Łà¤¨
à¤ķ à¤¶
Ġ i
Ġà¤« à¤²
201 7
Ġ196 6
à¤ľ à¤¦
Ġ194 2
Ġ |
Ġà¤Ĩ à¤ĸ
à¤® à¤ª
à¤ļ à¤®
à¤ī à¤ª
Ġà¤īà¤¨ à¤¸
Ġà¤¬ à¤Ĺà¤²
200 6
à¤ª à¤¡
à¤ª à¤¥
à¤² à¤«
à¤¾ )à¥¤
20 18
ÃĤ ÃĤ
à¥Ī ",
Ġà¤¸à¤® à¤¨
à¥ģ à¥¤
à¤ĳ à¤¸
Ġà¤Ĺ à¤¡
Ġ a
Ġ194 1
Ġà¤Ĺ à¤£à¤¨
à¤¼ à¥ĩ,
Ġà¤ĳ à¤¨
Ġà¤ħà¤µ à¤¸
à¤¨ à¤ľ
20 19
9 5
Ġ3 4
Ġ194 3
à¤¦ à¤¯
à¤¸ à¤¡
à¤¶ à¤®
à¤® à¤¡
à¤ı à¤¶
Ġà¤¢ à¤ķ
à¤Łà¤ķ à¤¥
Ġà¤Ń à¤¯
9 9
Ġà¤ħ à¤ĸ
Ġ196 2
à¤¼ à¥Ģà¥¤
à¥ĩà¥¤ "
Ġ196 3
Ġ3 8
Ġà¤Ń à¤²
à¤¯ à¤¥
Ġà¤Ĩà¤µ à¤°à¤£
Ġà¤ı à¤¥
Ġ194 8
à¤°à¤¹ à¤µ
Ġ194 6
à¤ª à¤¹à¤°
à¤¶ à¤¯
à¤ĵ à¤°
Ġà¤Ĩ à¤¦à¤°
Ġà¤ĩ à¤¬
à¤Ĺ à¤¦à¤°
Ġà¤īà¤ªà¤¨ à¤Ĺà¤°
à¤¸ à¤¬à¤¸
Ġà¤µ à¤¨à¤¸
à¤ħ à¤¸
Ġ6 4
à¤« à¤²à¤¤
Ġ193 9
20 20
à¤ĩ à¤¡à¤°
à¥Ģ. ,
Ġà¤ª à¤Łà¤ķà¤¥
Ġà¤ļ à¤°à¤®
à¤Łà¤° à¤¸
à¤¾ '
à¤īà¤¨ à¤¶
Ġà¤Ł à¤ķà¤°
200 5
Ð µ
Ġ t
5 00
Ġ196 1
à¤¹ à¤¦
Ġà¤¤ à¤®
Ġà¤¬ à¤Ĺ
Ġ3 7
à¤¼ à¥Ī
à¤¥ à¤¶
à¤¯ à¤ľ
à¤ĺ à¤®
à¤ª à¤¸à¤¨
à¥ĭ )
Ġ194 7
3 3
Ġ195 6
à¤°à¤ķ à¤Ł
Ġà¤ħà¤¸ à¤«à¤²
Ġà¤ī à¤¤à¤°
Ġà¤¸ à¤¶à¤¸
Ġà¤¬à¤ľ à¤Ł
à¥Īà¤Ĥ -
à¤ķ à¤«
Ġ195 8
Ġà¤ªà¤¤ à¤¨
Ġ195 9
) ;
8 5
à¤ĵ à¤ķ
à¤¸à¤® à¤¸
Ġà¤ī à¤·
à¤¦ à¤¬
à¥Ģ '
Ġà¤Ĩ à¤ªà¤°
à¤¯ à¤Łà¤¨
Ġà¤īà¤¤ à¤¨
à¤ı à¤ª
à¤Ĩ à¤ľ
Ġà¤ªà¤° à¤¤
Ġà¤¡ à¤ķ
Ġà¤¨ à¤ķà¤²
âĢ Ŀ
Ġà¤ĩ à¤ľà¤°
8 6
Ġ195 7
Ġà¤® à¤°à¤®
à¤¯à¤° à¤¸
9 6
Ġà¤Ł à¤ļà¤¡
3 6
Ġà¤īà¤ª à¤¹
à¤· à¤¸
200 4
à¤ľà¤¨ à¤¸
Ġà¤īà¤ª à¤Ń
Ġà¤ī à¤°
à¤Ł à¤ª
à¤ĩ à¤¬à¤°
à¤Ł à¤ľ
Ġ194 9
à¤¡ à¤Ł
à¥Ī )à¥¤
à¥ģ ,
à¤² à¤ª
à¤¨ à¤ķà¤°
Ġà¤¨à¤¹ à¤°
e r
à¤§ à¤ķà¤°
Ġà¤ĸ à¤¨à¤¨
à¤ī à¤ļ
Ġ3 00
Ġ -
Ġ195 5
Ġ195 2
8 8
Ð ¾
Ġà¤ĺ à¤¨
à¤Ĩ à¤ª
Ġà¤² à¤¹à¤°
Ġà¤ķ à¤¸
9 7
Ġà¤ħ à¤µà¤²
à¤ĩ à¤Łà¤¨
Ġà¤¬à¤¨ à¤¤
Ġ19 18
à¤ŀ à¤¤
Ġ195 4
à¤¬ à¤¤
à¤¸ à¤Ĺ
3 4
Ġà¤ī à¤Ń
Ġà¤°à¤ĸ à¤°à¤ĸ
à¤Ĩ à¤ķ
à¤ª à¤£à¤¨
3 7
9 4
à¤°à¤® à¤°
9 8
Ġ195 3
Ġà¤Ĩ à¤ĩ
? "
Ġà¤¬à¤¹ à¤¤
à¤¨ à¤ª
199 0
à¤Łà¤° à¤ª
.... ....
à¤Ī à¤²
Ġà¤¬ à¤ķ
6 5
Ġ7 5
Ġà¤¹ à¤¨
à¤ľà¤¨ à¤µà¤°
, ,
Ġà¤ĩ à¤Ł
3 8
à¤Łà¤° à¤«
à¤µ à¤µà¤°
à¤¹ à¤µ
4 7
à¥Ģ ),
Ġà¤Ķ à¤ªà¤¨
Ġ195 1
à¤¦à¤¨ à¤¶
Ġà¤¬ à¤¸à¤¨
à¤ª à¤ĸ
Ġ193 8
à¤ľà¤¨ à¤¯
Ġ c
Ġà¤ĸ à¤¨
à¤¼ à¥ī
Ġà¤¸ à¤¸
200 3
Ġà¤§ à¤®à¤ķ
à¤ĩ à¤®à¤¨
6 4
Ġà¤Ł à¤¨
Ġ15 0
Ġ193 6
Ġà¤¸ à¤ªà¤¨
Ġ19 19
à¤¼ -
Ġ Ã
à¤¶ à¤¬
Ġà¤¬ à¤°à¤ķà¤°
9 2
à¤· à¤Ĺ
Ġà¤¸ à¤¦à¤¨
à¤ľà¤° à¤²
20 21
Ġà¤ĵ à¤¡
à¤Ĩ à¤¯
Ġ19 17
Ġ â
Ġà¤¨ à¤°à¤¸
9 3
6 6
200 1
à¤® à¤Ī
Ġ4 8
Ġ( ;
Ġ193 7
à¤ħ à¤Ĺà¤¸
à¥Īà¥¤ ..
7 7
à¤ī à¤¸à¤ķ
5 5
à¤® à¤ľ
Ġà¤ħà¤ª à¤µ
Ġà¤ħ à¤¯
. >
à¤²à¤Ĺ à¤Ńà¤Ĺ
à¤Ĺà¤² à¤¸
Ġà¤ħà¤¸ à¤¹
Ġ4 00
à¤¡ à¤¸à¤¨
à¤® à¤¹à¤¤
Ġà¤ıà¤¯à¤° à¤²
4 8
3 2
200 2
Ġà¤ĵ à¤®
à¤ľà¤¬ à¤ķ
Ġà¤ħà¤ª à¤®
Ġ v
Ġà¤Ń à¤°à¤¨
Ġà¤ĺ à¤¡
à¤ª à¤µ
Ġà¤« à¤¸à¤²
Ġ19 14
Ġà¤ħ à¤¸à¤®
Ġ b
à¤ķ à¤Ĺ
7 6
Ġà¤² à¤µ
ĠÂ £
Ġ" [
à¤¶à¤¨ à¤°
à¤Łà¤° à¤¬
Ġà¤Ķ à¤¸
Ġ193 5
à¤¸à¤¨ à¤ķ
à¥Ĥ à¤ģà¥¤
à¤¤ à¤ľ
Ġ4 2
1 00
Ġà¤°à¤ľ à¤¤
4 4
Ġà¤ıà¤ķ à¤ľ
198 0
Ġà¤µ à¤«
Ġ193 3
à¤® à¤®
Ġà¤¹ à¤«
Ġà¤ľ à¤¸
Ġà¤ĸ à¤ľ
Ġà¤¤ à¤¯
à¤¡ à¤¶
Ġà¤¸ à¤ĸ
20 22
Ġà¤Ĩà¤Ĺ à¤®à¤¨
9 1
Ġà¤īà¤ª à¤Ĺ
à¤¼ à¥Ĥ
à¤¹ à¤Ł
Ġà¤¬à¤ļ à¤ªà¤¨
à¤ķà¤Ł à¤¤
Ġ19 00
Ġ192 9
Ġà¤Ķà¤¸ à¤¤à¤¨
7 8
à¤«à¤° à¤µà¤°
à¤¾ /
Ġà¤¦à¤° à¤¬
Ġà¤¨ à¤¤
Ġ5 5
à¤Ĺ à¤«
à¤¹ à¤¯
à¤° à¤·
à¤¡ à¤¹
à¤¾" )
Ġà¤¨ à¤ľ
Ġà¤Ĩà¤ł à¤µ
à¤¨ à¤¶
à¤ĩ à¤«à¤²
Ġ Ï
Ġ193 4
à¤ĸ à¤¦
Ġà¤Ĩ à¤Ń
Ġà¤ªà¤¨ à¤¡
à¤¬ à¤¢
à¤¾à¥¤ ..
Ġà¤¬à¤® à¤¬
Ġà¤Ī à¤®
Ġ192 8
Ġà¤ĩ à¤Ĺ
à¤Ł à¤Ĺ
à¤¿ à¤ĥ
Ġà¤ĩ à¤¶
à¤ķ à¤²à¤¤
Ġà¤ıà¤ķ à¤¡
Ġà¤ĵ à¤µ
à¤Ĥ .
Ġ19 10
Ġà¤ªà¤¤ à¤²
6 8
Ġà¤¢ à¤²
à¤ĳ à¤ķ
Ġà¤Ĺ à¤¶
Ġà¤ĸ à¤Ĺ
à¤µà¤° à¤ª
Ġà¤ĳ à¤Ĺà¤¸
Ċ Ġ
Ġà¤ª à¤¬
Ġà¤¨ à¤¶
Ġ4 9
à¤¥ à¤¤
à¤¿ .
Ġà¤ı à¤²à¤¨
199 9
à¤ľ à¤¶
Ġà¤ī à¤§
à¤¶ à¤ľ
Ġ192 2
Ġ192 4
Ġ193 2
Ġ s
Ġà¤¸à¤®à¤Ŀ à¤¨
Ġ192 1
Ġà¤Ń à¤¤
4 6
Ġà¤§ à¤ķ
Ġà¤¹ à¤Łà¤¨
Ġ4 1
à¤ı à¤ľ
Ġ3 9
Ġ193 1
8 9
à¤ĳ à¤°
Ġà¤ĳ à¤ª
Ġà¤¶ à¤¨
Ġ19 16
4 2
Ġ192 7
Ġà¤ļ à¤ļ
à¤ļ à¤¤à¤®
8 7
à¥¤ ..
Ġà¤ī à¤Ńà¤°
Ġ19 15
Ġà¤¹ à¤®à¤¨
Ġ4 6
à¤¦ à¤¸
Ġà¤ĸà¤¤à¤° à¤¨
Ġ4 7
Ġ m
à¤£ à¤¤
Ġ192 5
% ,
Ġ19 12
à¥Īà¤Ĥ "
Ġà¤ĳ à¤°à¤²
197 0
Ġà¤ı à¤¹à¤¸
à¤ħ à¤¦
à¤® à¤¸à¤®à¤°
Ġ192 3
ĠI V
à¤°à¤¹ à¤®
Ġà¤¡ à¤Ĺà¤²à¤¸
8 4
à¤Ł à¤¡
à¤§ à¤ª
à¤ľà¤° à¤¨
à¤¸à¤® à¤¯
Ġ192 6
à¤¨ à¤Ĺ
à¥ĩ ",
3 9
à¤¸ à¤°à¤ķ
Ġà¤¬ à¤µ
à¤ħ à¤¤
à¤ĩ à¤ªà¤°
à¤ķ à¤¸à¤¨
à¤¾ ?
Ġà¤ļ à¤¤
à¤²à¤ļ à¤¸
- "
Ġ19 13
6 7
à¥Ī ),
à¤¹à¤® à¤¦
à¤Ł à¤²à¤°
à¤Ĩ à¤®
à¤ª à¤¹
à¤ķà¤Ł à¤¤à¤®
Ġà¤īà¤ª à¤µ
Ġà¤¦ à¤¯
à¤ģ ,
à¤ī à¤°
à¤ĩ à¤µà¤°
Ġà¤¤ à¤¹
à¤ĵ à¤¨
4 9
199 8
à¤ĩ à¤®à¤°
à¤® à¤°à¤£
Ġà¤Ĺ à¤¨
8 3
Ġà¤¤ à¤²à¤µ
à¤£ à¤ª
à¤Ĥ "
Ġà¤ħà¤ª à¤¹à¤°à¤£
à¤¯à¤® à¤¨
Ġà¤ĺ à¤Ł
Ð ¸
Ġà¤ª à¤Łà¤°
à¥Īà¤Ĥ .
199 7
Ġà¤ħà¤« à¤Ĺ
Ġà¤īà¤ª à¤°
à¤¯ à¤Łà¤ķ
à¤Ĩ à¤ªà¤ķ
à¤² à¤ľ
à¤ª à¤°à¤®
Ġ( ,
Ġ4 3
Ġ19 11
à¤ľ à¤¤à¤¨
à¤ħ à¤Ĺà¤²
à¥ĭà¤Ĥ à¥¤
à¤ľ à¤¤
Ġà¤ĭ à¤¤
Ġà¤¤à¤° à¤²
à¤Ĺ à¤¬
18 5
8 2
7 4
Ġà¤® à¤²à¤¯
Ġà¤Ĩ à¤¯à¤¨
7 2
199 6
à¤°à¤Ĺ à¤®à¤¨
à¤¼à¥Ģ -
à¥ĩà¤Ĥ -
Ġ5 2
à¤® à¤¬à¤°
Ġà¤¸à¤®à¤ķ à¤ķ
à¤¿ )
8 1
Ġ5 1
Ġà¤¨ à¤ľà¤°
à¤¨ à¤Ī
à¤ľà¤¨ à¤°à¤²
" ),
à¤ı à¤ı
Ġà¤ı à¤µà¤°
à¤Łà¤° à¤¡
Ġà¤ķ à¤£
6 2
Ġ189 0
Ġ( <
4 1
6 3
à¤² à¤¸à¤¨
à¤Ŀ à¤ķà¤°
Ġà¤° à¤¬
Ġà¤Ł à¤ķ
à¤¬à¤° à¤¨
Ġ190 8
à¥ģ "
Ġà¤¡ à¤²
à¤Ĩ à¤Ĺ
à¤¡ à¤ľ
à¥ī à¥¤
Ġà¤¶ à¤µ
à¥¤ ,
196 0
Ġà¤¥ à¤°
à¤ĳ à¤¨
Ġà¤ı à¤Łà¤²
à¤ıà¤¸ à¤ıà¤¸
) "
6 1
Ġà¤Ĩà¤ª à¤¦
Ġà¤¨ à¤²
Ġà¤¨ à¤Ĺ
Ġà¤¹ à¤ķ
à¤¦ à¤Ĺ
Ñ Ĥ
7 1
7 9
à¤µ à¤¯à¤¨
à¤¨ à¤ı
0 5
à¤Łà¤° à¤²
à¤Ĳ à¤¸
Ġ r
199 5
à¤¦ à¤Ń
4 3
i n
Î ¿
à¤° à¤¬à¤°
à¤ķ à¤ĺà¤°
Ġà¤ĸ à¤¬à¤°
à¤¯ à¤µà¤°
Ġt h
o r
à¤¯ à¤ľà¤¨à¤ķ
à¤ĵ à¤µà¤°
Ġà¤ªà¤¹ à¤¨à¤¨
Ġà¤Ĺ à¤¹à¤¨
---------------- ----------------
à¤¸ à¤Łà¤¨
Ġà¤ħà¤µ à¤ķ
à¤° à¤ļà¤²
à¤¶ à¤Ńà¤ķ
Ġà¤¬à¤ļ à¤¤
à¤° à¤Ł
7 3
Ġà¤Ŀ à¤°à¤¨
à¤ī à¤¨à¤²
à¤¨ à¤ľà¤¨à¤ķ
Ġà¤¶ à¤ªà¤¥
6 9
Ġà¤Ĩ à¤ªà¤¤
Ġ190 5
Ġà¤¦à¤² à¤¦à¤²
à¤ħ à¤ļ
Â °
à¤°à¤ķ à¤°à¤£
Ġà¤Ĺà¤£ à¤¤
à¤¦ à¤¦
Ġà¤®à¤ľ à¤¦
Ġ188 0
" -
à¤¨ à¤¡
Ġà¤Ĺ à¤¢
Ġà¤Ĩ à¤ªà¤¸
à¥ĩà¤Ĥ )à¥¤
199 4
Ġà¤¥ à¤ķ
Ġà¤¨ à¤®à¤ķ
Ġà¤ªà¤° à¤µ
Ġà¤¶ à¤²
à¤¬ à¤Ī
Ð °
Ġà¤Ł à¤®
s t
ÃĤÃĤ ÃĤÃĤ
Ġà¤Ĩ à¤ī
Ġ190 6
Ġ190 7
Ġ190 9
Ġà¤° à¤ļ
Ġà¤ªà¤¦ à¤Ń
Ġ .
à¤ĵ à¤®
Ġà¤ħ à¤¹à¤®à¤¦
Ġà¤² à¤Łà¤ķ
à¤¼ à¥¤
Ġà¤ħà¤¸à¤¹ à¤®à¤¤
à¤¾ !
à¤· à¤ª
199 2
à¤² à¤Ł
à¤ł à¤¤
Ġà¤īà¤ª à¤¦
Ġà¤® à¤£
à¥ĩà¤Ĥ ;
Î ±
Ġà¤ıà¤¡ à¤µ
Ġà¤¨ à¤°à¤®
Ġ1 20
à¤µ à¤¸à¤®
à¤¤ à¤°à¤¤
à¤ĺ à¤ķ
Ġà¤ıà¤¨ à¤¬
à¤¡ à¤ª
Ġà¤¬à¤¦ à¤²à¤¤
à¤§ à¤¡
Ġ d
Ġ25 0
Ġà¤ª à¤ļ
à¤ħ à¤«
à¤ķ à¤Ĩà¤īà¤Ł
à¤¼ à¥Īà¤Ĥ
Ġà¤¯ à¤ķ
Ġ5 4
o n
Ġ", "
Ġ190 4
à¤Ī à¤µ
à¤Ń à¤ª
Ġ n
à¤ľ à¤ª
à¤ĵ à¤¹
à¤ĵ à¤ª
199 3
à¤¡ à¤¬à¤°
à¤ľ à¤ķà¤¤
à¤ħ à¤ľ
à¤°à¤ķ à¤²
Ġ8 5
à¤¡ à¤²à¤°
' ,
Ġà¤ľà¤¨ à¤®à¤¤
à¥¤ à¥¤
Ġ p
à¤¤ à¤¬
Ġ5 3
à¤Ł à¤¸à¤¨
Ġ190 2
Ġ190 1
à¤ĵ à¤Ł
199 1
Ġ187 0
Ġ9 5
à¥Īà¤Ĥ ?
Ġà¤¬ à¤ĸ
Ġà¤¶ à¤°à¤¦
à¤Łà¤° à¤¸à¤¨
à¤° à¤¡
Ġà¤ĵ à¤ľ
à¤§ à¤°à¤£
à¥ĭ ",
Ġà¤®à¤ķ à¤¬à¤°
à¥ĩà¤Ĥ .
à¤ı à¤ķà¤²
Ġ190 3
Ġ17 5
à¤ķ à¤ħà¤ª
à¤®à¤ķ à¤¤
Ċ Ċ
Ġà¤Ī à¤Ĺà¤²
à¤ļ à¤¸
Ġ V
Ġà¤¦ à¤®
à¥Ģ" )
Ġ f
à¤ĸ à¤£
Ġà¤ī à¤¥à¤²
Ġà¤¸à¤¹ à¤¸
Ġà¤īà¤¤à¤° à¤¨
à¤° à¤«à¤²
à¤ħ à¤Ĺà¤°
/ /
à¤£ à¤µ
Ġà¤ķ à¤ľ
à¤¥ à¤Ĺ
à¤ıà¤ļ à¤¡
Ġà¤Ĭ à¤¤à¤ķ
e n
à¥ĩ ),
Ġà¤ķ à¤ļ
Ġ5 6
à¥ĩà¤Ĥ ),
à¤¨à¤¹ à¤Ł
à¤¬ à¤ļ
Ġà¤ķ à¤¶
à¥Ĥà¤Ĥ ,
à¤Łà¤° à¤®
Ġà¤¤à¤¹ à¤ĸ
à¤ĩ à¤¬à¤²
Ġ16 0
à¤¸ à¤µà¤°
à¤® à¤«
à¤ħ à¤µ
à¤® à¤¸à¤¨
Ġà¤Ľ à¤¦
Ġà¤ªà¤¤ à¤µ
à¤« à¤¸
à¤Ł à¤ļ
a n
à¤ĥ ,
198 9
Ġ5 7
Ġà¤ħ à¤£
Ġà¤Ĺ à¤¦
Ġà¤ªà¤¹ à¤¨à¤¤
Ġà¤ľ à¤¶
Ġ189 8
Ġ6 00
à¤Ł à¤¹
à¤Ĳ à¤¤
Ġà¤īà¤Ń à¤°à¤¤
à¤¯à¤° à¤¨
à¥Ĥà¤ģ ,
] "
Ġà¤ıà¤¨ à¤¸
Ġà¤¨à¤ķ à¤¦
Ġà¤§ à¤¬
19 50
Ġà¤Ĩ à¤ªà¤¨
à¤¦ à¤¤
Ġà¤Ĳ à¤ª
à¤¼ à¤¿à¤Ĥ
à¤Ľ à¤¨
à¥ĭà¤Ĥ )
Ġ1 000
Ġà¤ĩ à¤¡
Ġà¤² à¤¯
Ġà¤¦ à¤¸à¤µ
Ġ189 9
à¤¾à¤Ĥ ,
à¤¦ à¤ª
Ġà¤ī à¤ķ
à¤ī à¤¬
Ġà¤īà¤¦ à¤¯
à¤® à¤¬
Ġ" à¥¤
ii i
à¤¤ à¤¸
Ġà¤Ŀ à¤Ĺà¤¡
à¤Ĭ à¤¦
Ġà¤ı à¤¬à¤°
à¤¯ à¤²à¤°
à¤¾" à¥¤
Ġà¤¯ à¤¥
à¤µà¤² à¤ªà¤°
ĠV II
à¤¬ à¤¹à¤¨
Î µ
Ġà¤¶ à¤¤à¤°
à¤¨ à¤µà¤¤
à¥Īà¤Ĥ )
à¤¦ à¤¹
Ġà¤¤ à¤ĸ
Ġà¤ª à¤¦à¤¨
Ġà¤Ī à¤µ
Ġ186 0
à¤Ĺ à¤£
0 8
Î ¹
à¤¡ à¤¹à¤°
à¥Ĥ )
à¤¾, "
à¥Ī !
Ġà¤ĩà¤¨ à¤¡
Ġà¤° à¤¡
Ġ5 8
Ġà¤ħ à¤¹
Ġà¤ľ à¤Ĺ
à¥Ĥà¤Ĥ à¥¤
Ġà¤¶ à¤¸
à¤ªà¤² à¤Ł
à¤· à¤°à¤¤
à¤ªà¤° à¤µ
Ġ6 6
à¤² à¤¶
à¤ĩ à¤Łà¤°
à¤¯ à¤°à¤¤
Ġà¤²à¤Ĺ à¤¨
Ġà¤¸à¤®à¤Ŀ à¤¤
] ]
Ġà¤¨ à¤«
Ġà¤ıà¤« à¤ıà¤®
0 9
à¤ĩ à¤ļ
Ġ189 6
à¥Ģ )à¥¤
Ġ Ñģ
Ġà¤² à¤²
à¤Łà¤° à¤µ
198 8
à¤« à¤®
Ġà¤Ĩ à¤ĩà¤²
à¤ī à¤ªà¤¯
à¤ı à¤¬
5 2
à¤ī à¤ľ
à¤ıà¤² à¤¸
Ġà¤ª à¤µà¤¨
Ġ5 9
Ġ7 2
Ġ189 7
Ġà¤ħà¤¨ à¤ľ
à¤¤à¤° à¤¬
à¤ĩ à¤Ĺà¤°
0 1
0 7
à¤ī à¤¸à¤¨
Ġ189 5
Ġà¤ħ à¤ł
à¤ļ à¤ķà¤°
5 4
Ġ6 3
........ ........
à¤¸ à¤²à¤°
Ġ( ),
198 7
à¤¡ à¤Ĺ
Ġà¤Ń à¤ľà¤¨
Ġà¤¸à¤¹ à¤ķ
à¤¯à¤® à¤¯
Ġà¤Ľ à¤¡
Ġà¤® à¤²à¤¬
Ġ189 3
à¤ĩà¤¸ à¤²
à¤ıà¤¸ à¤ı
Ġà¤Ĩà¤¯ à¤¤
Ġà¤ħà¤Ń à¤¯
Ġà¤ķà¤µ à¤ļ
Ġ188 9
Ġà¤ıà¤¨ à¤ľ
à¤Ī à¤®
à¤« à¤°à¤¸à¤¨
0 6
à¤ľ à¤ķà¤°
Ġà¤Ĩ à¤µà¤°
à¤¶à¤¨ à¤ķ
à¤ª à¤°à¤¸
Ġà¤Ĩà¤ĩà¤¸ à¤²
198 6
Ġà¤ľ à¤¤
à¥Īà¤Ĥ ",
5 3
Ġ6 2
Ġà¤īà¤ª à¤ľ
à¤¥ à¤¸
Ġà¤² à¤ļ
198 5
à¤ī à¤ªà¤¨
à¤Ĺ à¤°à¤£
. ),
Ġ189 4
à¤ı à¤µ
à¤ı à¤¯à¤°
Ġ189 2
Ġà¤®à¤¦ à¤°à¤¸
Ġ6 1
a t
5 1
à¤Ĩ à¤µ
Ġ8 00
Ġ188 5
198 4
Ġà¤ľ à¤¬à¤°à¤¨
à¤² à¤Łà¤¨
r e
Ġà¤° à¤¶
Ġà¤ħà¤ª à¤¶
Ġà¤ıà¤® à¤ıà¤¸
Ġà¤ħà¤« à¤µ
Ġà¤ªà¤¹à¤² à¤µ
Ġ18 50
à¥Ĥ. )
Ġà¤Ĩ à¤ĺ
Ġà¤ĩà¤¨ à¤ª
Ġà¤¤à¤Ł à¤¸
Ġ9 9
Ġà¤¶ à¤¹
Ġà¤® à¤°à¤¨
à¤° à¤¬à¤²
Ġ189 1
Ġ186 5
Ġà¤Ń à¤Ł
à¤¬ à¤¸à¤¨
Ġ186 4
à¤ª à¤°à¤ķ
Ġ188 8
à¤® à¤Ł
Ġ6 8
à¤Ĩ à¤¯à¤°à¤²
Ġà¤¨à¤« à¤°à¤¤
i t
à¤ıà¤« à¤ı
Ġ186 2
ī ¤
à¤ĵ à¤µ
à¤² à¤¦
Ġà¤ķ à¤ļà¤°
Ġ186 1
Ġ7 6
à¤Łà¤° à¤Ł
) :
Ġ6 7
198 3
Ġ186 3
à¤¹ à¤¨à¤¤
Ġà¤¸ à¤Ĭà¤¦
à¤¤à¤° à¤«
198 2
5 6
Ġ188 7
à¤¸à¤¦ à¤¸
à¤¯ à¤£
à¤Ĺ à¤¹à¤®
0 2
Ġà¤ī à¤Ĺà¤¤
à¤Ĺ à¤ª
Ġà¤¬à¤® à¤µà¤°
Ġà¤µ à¤²
Ġà¤ĩ à¤°à¤µ
à¤®à¤ķ à¤°à¤£
à¤¼à¥Ģ "
Ġà¤¨à¤ľà¤° à¤ħ
0 4
à¤® à¤°à¤¸
à¤¨ à¤¹à¤°
Ġà¤ľ à¤¯
à¥ĩ '
à¤Łà¤° à¤¬à¤°
ĠÃ Ĺ
à¤¯ à¤ļà¤ķ
Ð ½
Ġà¤° à¤¤
à¤ĵ à¤¡
5 7
Ġà¤¨ à¤Ł
Ġà¤° à¤¯
197 9
Ġà¤®à¤¤ à¤ªà¤¤
a r
Ġ188 6
Ġà¤¸à¤¹ à¤ľ
à¤® à¤£
5 8
à¤Ĭ à¤ªà¤°
à¤Ń à¤°à¤¤
Ġà¤Ĩà¤ķ à¤²à¤¨
Ġà¤Ĩà¤ī à¤Łà¤²
à¥Ģà¤Ĥ .
Ġà¤ĵ à¤ķà¤²
à¤ħ à¤µà¤²
à¥ĩ )à¥¤
à¤ıà¤¨ à¤ı
Ġà¤® à¤µ
Ġ7 7
Ġà¤ķ à¤¤à¤°
0 3
Ġ188 4
à¤¸ à¤ķà¤°
Ġ7 4
à¤ı à¤¡à¤®
à¤ķ à¤«à¤°
à¤¦ à¤°à¤¤
5 9
à¤Ī à¤ª
198 1
à¤°à¤µ à¤ķ
Ġà¤¦ à¤®à¤¨
Ġà¤Ń à¤ķ
Ġ188 1
à¥ĭà¤Ĥ -
Ġà¤® à¤Ľ
à¥ĩà¤Ĥà¥¤ "
Ġ7 8
Ġ o
Î ½
à¥Ģà¤Ĥ "
à¥ĩà¤Ĥ à¤ĥ
à¤ĩà¤Ł à¤²
197 4
Ġà¤¬à¤Ł à¤²à¤°
Ġ9 6
Ġ6 9
à¤§ à¤¶
à¤Ĺ à¤Ł
à¤¤à¤¨ à¤§
Ġà¤ıà¤¨ à¤µ
à¤ĳ à¤²
à¤ı à¤Łà¤²
Ġ7 1
Ġ8 8
à¤¡à¤° à¤²
Ġ9 8
à¤ħ à¤Ĺ
à¤ĺ à¤Ł
197 8
à¤µà¤¨ à¤ķ
197 2
Ġ X
Ġà¤ĵ à¤Ĺ
Ġà¤ļ à¤®à¤¤
Ġà¤Ĩ à¤£à¤µ
Ġ( '
4 00
Ġà¤ľ à¤¹à¤°
Ġà¤¸à¤¹ à¤ķà¤°
Ġà¤¹à¤¡ à¤¸à¤¨
¥ ħ
à ¥ħ
Ġà¤ĸ à¤¤
Ġà¤ķ à¤¤
Ġ7 3
Ġx i
197 5
Ġà¤ªà¤° à¤¸
Ġ188 2
19 30
Ġà¤¸à¤¹ à¤¨
à¥ĭ .
, "
à¤®à¤ķ à¤¥
Ġà¤ĵ à¤¨
3 00
197 6
à¤Ĺà¤® à¤°à¤®à¤°
Ġà¤ī à¤Ľ
à¤ĩ à¤ľà¤°
197 7
à¥Ģà¥¤ ,
Ġ {
Ġà¤ī à¤ķà¤¸
Ġ8 2
à¤µ à¤ļà¤¨
à¤Ł à¤Ł
e s
Ġà¤ķà¤² à¤®
Ġ188 3
Ġà¤ıà¤® à¤¸
Ġà¤Ĩà¤¦ à¤¤
Ġà¤¤ à¤Ń
Ġà¤ª à¤¥
197 3
à¥Ī? "
Ġ187 1
à¤īà¤¨ à¤Ł
Ġà¤¹à¤ķ à¤¦
à¤Ī à¤ıà¤«à¤ı
,, ,,
Ġ187 6
à¤¯à¤° à¤«
à¤ıà¤® à¤ıà¤¸
Ġà¤Ĩ à¤ķà¤¸
à¤ĩà¤¨ à¤®
Ġà¤īà¤ª à¤¸à¤®
Ġ h
à¤ĩ à¤ķà¤°
Ġà¤ĸ à¤²
Ġà¤Ĩ à¤¸à¤¨
Ñ Ģ
Ġ à¤·
à¤ļ à¤²à¤¨
Ġ9 7
à¤ĩ à¤¸à¤®
Ġ9 2
Ġà¤īà¤ª à¤ĸ
c h
20 23
Ġ k
Ġà¤¡ à¤¨
Ġth e
19 20
Ġà¤ļà¤®à¤ķ à¤¤
.. .
à¤£ à¤®
à¤Ĺ à¤¨à¤°
Ġ8 1
à¤ĩ à¤¸à¤¨
Ġà¤ª à¤ł
à¤Ĺ à¤Ĺ
Ġà¤° à¤¨à¤µ
Ġ186 7
Ġ18 40
Ġ187 8
à¤ĵ à¤ĵ
196 9
à¤Łà¤¨ à¤°
Ġ8 7
à¤¸ à¤¶
Ġ187 9
197 1
Ñ ĩ
à¤ļ à¤Ł
à¤¼ à¥Į
Ġ187 5
à¤Ĩ à¤®à¤¤
Ġ187 2
Ġà¤ĸà¤° à¤Ĺ
à¥Ģà¤Ĥ ;
à¤Ĩ à¤µà¤ľ
à¤¡à¤° à¤¬
. /
à¤¯à¤° à¤¬
Ġ8 4
Ġ9 3
Ġâ ī¤
196 8
Ġ8 6
à¤¹à¤¨ à¤Ĺà¤°
19 40
e d
à¤ĩà¤¨ à¤¸
à¤ľ à¤²à¤µ
Ġ7 9
à¤ĺ à¤µ
à¤ķ à¤µà¤°
Ġà¤Ĭ à¤¨
à¤¡ à¤°à¤®
Ġà¤¨ à¤°à¤ķ
196 7
Ġ187 4
Ġ186 6
à¤¤à¤° à¤¦
à¥Ģ. ),
Ġ187 3
Ġ l
à¤ĩ à¤¥
ĠÎ ±
Ġà¤ħà¤ĸ à¤¬
Ġ186 8
Ġ e
Ġ10 1
à¤ĩà¤Ł à¤¹
à¤¥ à¤¯
Ġ w
Ġà¤ĩ à¤¯
_ _
Ġà¤Ĩà¤Ī à¤ª
à¤¶ à¤Ĺ
Ï ģ
à¤® à¤°à¤¨
Ġ187 7
à¤¥ à¤°à¤¨
à¤ī à¤®
Ġ8 3
à¤¯à¤° à¤§
Ġà¤¬ à¤Łà¤¨
Ġà¤ħà¤¸ à¤²
à¤Ŀ à¤¸
. "
Ġà¤ª à¤Ĺà¤¡
Ġà¤Ī à¤¶
T T
> )
à¤Ľ à¤Ł
à¤ĸ à¤²à¤¨
à¤« à¤¡
a l
Ġ8 9
à¤ªà¤¨ à¤¹
Ġ g
Ġ11 0
Ġà¤ķ à¤Łà¤ķ
Ġà¤« à¤²à¤¨
Ġà¤¬ à¤ªà¤¤
Ġà¤Ĩ à¤ļà¤°à¤£
à¥ĩ /
Ġà¤īà¤² à¤Ł
" :
à¤ľà¤Ĺ à¤£
Ġà¤®à¤¤ à¤Ń
Ġà¤ıà¤® à¤ª
Ġ9 1
< /
à¤¸ à¤Łà¤°
Ġà¤ķ à¤¥à¤¨
à¤¢ à¤ķ
à¤Łà¤ķ à¤ķ
Ġ186 9
Ġ184 8
à¤Ĺà¤² à¤µ
Ġ7 00
à¤¦ à¤¶
à¤ĸ à¤ķà¤°
à¤Łà¤° à¤¶
Ġ9 4
ĊĠ ĊĠ
Ġà¤ħà¤µ à¤¤
Ġà¤® à¤°à¤£
à¤µ à¤®
à¤Ĩ à¤¸
" ;
Ġà¤¸à¤® à¤¤à¤²
à¤ĳ à¤ªà¤°
) -
à¤¬ à¤²à¤°
196 5
Ġà¤Ŀ à¤Łà¤ķ
à¤ªà¤ļ à¤¯
Ġà¤¬ à¤§
Ġà¤Ī à¤¯à¤°
Ġ18 00
196 4
Ġà¤¸ à¤Ĺ
Ġà¤ı à¤¨à¤°
n d
à¥Īà¤Ĥ )à¥¤
Ġà¤ļ à¤®à¤¡
Ġà¤ķ à¤µà¤ķ
Ġà¤ķ à¤Ľ
Ġà¤Ĩ à¤ıà¤Ĺ
à¤¤à¤® à¤¯
Ġà¤Ń à¤Ĺ
Ġà¤Ńà¤° à¤ª
Ġà¤ī à¤¬
Ġà¤¤à¤² à¤Ľà¤Ł
à¤Ĩ à¤¶
Ġâ Ĥ
à¥ĩà¤Ĥ ",
à¤ĵ à¤¬
Ġà¤ĸ à¤²à¤¨
/ >
Ġ[ [
à¥Īà¤Ĥà¥¤ ..
à¥Ģà¤Ĥ )
Ġ18 30
à¤¹ à¤¬
Ġà¤¬ à¤ľà¤°
à¤¶ à¤®à¤¨
Ġà¤ħà¤® à¤°
à¤ĩà¤¨ à¤ħà¤ª
Ġà¤ľ à¤²à¤¨
à¤µ à¤¯à¤ķ
Ġà¤¦ à¤°à¤ķ
à¤°à¤µ à¤£
196 6
Ġà¤ħà¤² à¤®
à¤¾à¤ģ "
à¤ıà¤¸ à¤ª
Ġà¤ªà¤² à¤Ł
Ġà¤ħà¤² à¤¬
à¤µà¤° à¤²
Ġà¤ļ à¤¯
Ġà¤Ŀ à¤¡
194 5
à¤¨ à¤¯à¤¨
Ġà¤ħà¤ļ à¤²
à¤« à¤¬
t h
à¤°à¤® à¤¨
à¤ıà¤¡ à¤µà¤°
Ġà¤® à¤ķà¤¡
Ġà¤¬ à¤ķà¤°
à¥Ģ ]
ÑĤ Ðµ
à¥Īà¥¤ '
à¤µ à¤Ĺ
Ġà¤® à¤ļ
Ġà¤¹ à¤¸à¤¨
8 00
à¤¼ )
Ġ Ð¾
à¤ħ à¤°à¤¬
Ġ185 7
Ġà¤ĩ à¤¥
à¤· à¤°à¤£
à¤¡ à¤®à¤°
à¤Ĩ à¤¹
à¥Ģà¤Ĥ à¤ĥ
à¤°à¤®à¤£ à¤ķ
ĠVII I
à¤Ł à¤¶
à¤Ī à¤ľ
Ġà¤ĵ à¤ıà¤¸
à¤¨à¤Ĺà¤° à¤ª
à¤Ł à¤¥
à¤² à¤Ĺà¤°
à¤Ńà¤Ĺ à¤µ
à¤Ĩ à¤¦
196 3
Ġ185 9
à¤Ń à¤¨
Ê ¼
à¤ı à¤¥
Ġ y
à¤ī à¤¡à¤°
Ġà¤§ à¤¡
à¤¼ à¤¾à¤Ĥ
à¤ľ à¤Ł
Ġà¤Ĩà¤Ī à¤¡
à¤¡ à¤ļ
à¤ķ à¤ľ
à¤· à¤§
i s
Ġà¤² à¤¤
à¤§ à¤²
Ġà¤Ĩà¤¯à¤° à¤¨
Ġ13 0
ÃĤÃĤÃĤÃĤ ÃĤÃĤÃĤÃĤ
à¤¯à¤° à¤¶
Ġà¤īà¤¸ à¤®
Ġ" )
à¤¡ à¤¸à¤°
Ġà¤¹ à¤¬
à¤ķ à¤¬à¤°
Ġ185 4
Ġà¤ĸ à¤ªà¤¤
à¤¤à¤ķ à¤¨
à¤¤ à¤¹
196 2
à¤ļ à¤«
Ġ12 5
à¤Ĺ à¤²à¤°
à¤ĩà¤Ł à¤®
Ġà¤ľà¤² à¤¡à¤®à¤°
Ð »
Ġà¤ļ à¤°à¤µ
à¤¬ à¤Ł
Ġà¤ĳ à¤ķà¤²
Ġ185 5
Ï Ħ
âĢ ¢
à¤¤à¤¨ à¤¶
Ġà¤ª à¤ª
à¤¼ à¤Ĥ
Ġà¤Ĭ à¤·
Ġà¤¨ à¤¨
196 1
Ġà¤Ĩà¤Ī à¤Ł
Ġà¤ī à¤ĸ
Ġ185 6
Ġà¤Ł à¤°à¤¬
6 00
à¥Ģ. /
à¤Ĺ à¤®à¤¨
Ġà¤®à¤ķ à¤Ī
Ġà¤ļ à¤¶
Ġ" -
Ġà¤ħà¤Ł à¤ķà¤²
ĠâĤ ¬
Ġà¤ªà¤° à¤ľ
Ġ185 8
à¤¼ à¥ħ
Ġà¤° à¤¬à¤°
à¤īà¤¨ à¤¸
à¤¯à¤¨ à¤ķà¤ķ
Ġà¤ľà¤² à¤®
à¥ĩ ?
à¤Ī à¤ķ
Ġà¤® à¤Ĺ
Ġà¤ķà¤® à¤²
Ġà¤¸à¤® à¤µà¤°
à¤ĺ à¤²
à¤ķà¤Ł à¤µà¤°
à¤µà¤° à¤ķ
à¥¤ )
à¤ļ à¤¢
Ê¼ Ê¼
Ġà¤« à¤µ
Ġà¤ıà¤¸ à¤ıà¤¸
-------------------------------- --------------------------------
à¥ĭ à¤ĥ
Ġ185 1
Ġà¤ħ à¤¯à¤¸
Ġà¤° à¤«
Ġà¤ªà¤² à¤Łà¤¨
Ġà¤īà¤¤ à¤°à¤¤
à¤ľ à¤ªà¤¤
Ī Ĵ
à¥Īà¥¤ )
Ġ3 50
à¤Ł à¤ķà¤°
à¤¹ à¤ľ
er s
à¥ĩ ]
Ġà¤ī à¤Ł
Ġà¤¸ à¤¤à¤°
à¤¡ à¤¬à¤²
Ġà¤Ĩ à¤ĩà¤°
Ġà¤Ĩà¤īà¤Ł à¤ª
à¤ł à¤°
193 9
" )à¥¤
à¤° à¤Ľ
; "
Ġà¤¬ à¤¦à¤®
à¤¤ à¤¶
à¤ķ à¤Łà¤¨
Ġ185 2
Ġ< /
195 8
Ġà¤ľà¤¨ à¤°
à¤§ à¤ļ
194 8
Ñģ Ñģ
à¤¯à¤ķ à¤°à¤£
195 6
l e
à¤¯ à¤²à¤¨
: //
à¤¾à¥¤ )
à¤Ĺ à¤¢
à¤ľà¤¨ à¤¬
Ġà¤ıà¤® à¤¬
Ġà¤¶ à¤¯à¤¨à¤ķà¤ķ
Ġà¤ıà¤² à¤ľ
Ġà¤Ķ à¤·à¤§
195 9
à¤² à¤¯à¤¨
à¤¡ à¤¨à¤°
Ġà¤¸à¤® à¤¤
à¤ĩ à¤ªà¤²
Ġà¤ļà¤®à¤ķ à¤¦
Ġà¤ĳ à¤¨à¤°
Ġà¤Ń à¤Łà¤ķ
Ġ185 3
Ġà¤ıà¤® à¤ı
Ġà¤ĺ à¤¬à¤°
Ġ184 9
à¤Ĥ )
à¤£ à¤¸
à¤ķà¤² à¤°
Ġà¤¸à¤¬ à¤ķ
à¤Ĺ à¤Ŀ
Ġ10 5
à¤²à¤¨ à¤¶
Ð ¼
à¤Łà¤¬ à¤¦
à¤ĩ à¤²à¤°
à¤ħ à¤ªà¤°
Ġ15 00
Ġ184 7
i c
à¤¯ à¤ļà¤°
Ġà¤ıà¤® à¤Ł
à¤ĩ à¤ĳà¤ķ
194 7
à¤¯à¤° à¤®
Ġ Ġ
195 5
à¤ıà¤« à¤ıà¤®
Ġà¤® à¤¦à¤°
à¤Ī à¤ĵ
195 7
Ġà¤ı à¤¨à¤ķ
à¤ıà¤¨ à¤¬
à¤ī à¤¥à¤®
Ġà¤¸ à¤¨à¤ķ
à¤¾à¥¤ '
à¤ļ à¤¯à¤¨
H TT
Ġà¤īà¤² à¤Ŀ
à¤Ĩ à¤¯à¤°
à¤¾ ]
Ġà¤« à¤°à¤®
à¥Ģà¤Ĥ -
à¤Ī à¤°
' )
Ġ14 0
Ġà¤¬ à¤¹à¤°
à¤¾à¤ĥ "
Ġà¤§ à¤®à¤¨
Ġà¤ħà¤¨ à¤¦
194 6
Ġ184 6
Ï Ĥ
à¤ģ "
Ġà¤Ń à¤¡
à¥ĭ !
à¤Ĺ à¤µà¤°
194 9
à¤ĵ à¤ľ
Ġ &
Ġà¤¤ à¤¦à¤¨
Ġà¤ĩ à¤«
% ),
Ġà¤¸à¤ķ à¤²
à¤®à¤¨ à¤¦
Ġà¤° à¤®
à¤¶ à¤Ń
7 00
Ġà¤Ľ à¤²
195 4
à¤ķ à¤ķà¤¥
à¤¨ à¤Ŀ
à¤¥à¤² à¤Ĺ
à¤ı à¤¥à¤²
195 3
à¤ıà¤¸ à¤Ł
à¤² à¤µà¤°
à¤° à¤§à¤¨
à¤¤ à¤°à¤ķ
195 2
Ġà¤® à¤¨à¤®
Ġ Ċ
à¤¯ à¤Ń
Ġ9 00
à¤Ł à¤°à¤ķ
à¤Ī à¤Ł
Ġà¤ľà¤¬ à¤¡
Ġ18 12
f f
Ġà¤¡ à¤°à¤¤
Ġà¤ľ à¤²à¤¤
Ġà¤¤ à¤Łà¤°
Ġ 000
[ [
Ġà¤ĸ à¤®
Ġ184 5
Ġà¤² à¤°
à¤Ĺ à¤ļ
Ġà¤ķ à¤¦
à¤µà¤¨ à¤¸
Ġ18 20
à¤¤à¤° à¤ľ
à¤µà¤° à¤¹
Ġà¤µ à¤²à¤¯
Ġà¤µà¤¹ à¤¨
ĠÏ Ħ
Ġ10 2
Ġà¤¦ à¤¹
Ġà¤¸à¤° à¤¦
19 00
Ġà¤¡ à¤¸
à¤Ł à¤Ĩà¤īà¤Ł
à¤ªà¤° à¤¹
à¥ĭ ;
b r
à¥Ģ" à¥¤
Ġà¤¸à¤¬ à¤µ
Î »
Ġà¤° à¤¸à¤¦
à¤¸à¤° à¤¶
à¤ı à¤¨à¤¸
195 1
à¤· à¤ľà¤¨à¤ķ
193 6
à¤Ľ à¤¹
à¤¯ à¤¬à¤²
Ġà¤ĩ à¤®à¤°
à¤Ł à¤¸à¤®
à¤Ľ à¤¡
à¤¸à¤¨ à¤°
o u
Ġ1 18
Ġà¤ıà¤¸ à¤¸
Ġà¤ĵà¤µà¤° à¤Ł
Ġ183 7
Ġà¤Ĩ à¤Ł
à¤ĩ à¤¶
à¤ĩà¤¨ à¤¬
à¤¡ à¤µà¤°
X X
à¤² à¤ķà¤¨
à¤¾ !"
à¤ıà¤¨ à¤ıà¤¨
à¤Ł à¤ħà¤ª
Ġ3 60
à¤ľ à¤®à¤°
à¤ª à¤«
Ġ10 3
à¤Ĩ à¤ĩà¤¸
Ġà¤¸à¤® à¤®
Ġà¤ħ à¤ľà¤¨à¤¬
Ġo f
Ġà¤ķà¤ł à¤ª
................ ................
Ġà¤ľ à¤ľ
a s
19 18
i l
Ġà¤īà¤Ń à¤¯à¤ļà¤°
Ġà¤¸ à¤°à¤£
à¤¾ ?"
193 8
Ġà¤Ĩ à¤ĩà¤µ
" .
à¤¯à¤° à¤µ
à¤µ à¤¡
Ġà¤ıà¤² à¤¸
à¤¡ à¤¤
à¤¡ à¤¡
Ġ183 6
Ġ184 1
Ġà¤¶ à¤Łà¤²
193 7
à¤² à¤²
à¤Łà¤° à¤¹
à¤¦ à¤ĸà¤²
o m
à¥ģ )
à¤ķ à¤ł
Ġà¤¬ à¤¦à¤¨
Ġà¤ı à¤Łà¤ķ
Ġ10 4
Ġà¤ĳ à¤¬
à¤ļ à¤¬
Ġ184 4
Ġà¤ļ à¤®
Ġà¤ª à¤¨à¤¬
à¤ıà¤¸ à¤¸
194 1
à¤ĩà¤ķ à¤Ĩà¤īà¤Ł
à¤Ĩ à¤¦à¤®
Ġ183 9
Ġà¤ĵà¤µà¤° à¤²
à¥ĭà¤Ĥ '
à¥Īà¤Ĥ ?"
2 50
i on
Ġ183 8
à¥Īà¥¤ âĢĿ
à¤Ĩà¤Ī à¤µ
Ġà¤ĺà¤Ł à¤ķà¤°
Ġà¤¨ à¤¬
194 2
à¤°à¤® à¤¬à¤¦
Ġà¤Ĺ à¤®
. )à¥¤
à¥Ģ !
194 4
à¥ī à¤Ĥ
à¤°à¤¶ à¤¸
19 10
Ġà¤Ł à¤¸
à¤¾à¥¤ ,
Ġ184 2
Ġà¤ĩ à¤¨à¤²
à¤ħ à¤Łà¤²
Ġà¤µ à¤ľ
à¤ª à¤ķà¤²
Ġ184 3
à¥Ģà¥¤ ..
à¤ªà¤° à¤¬
Ġà¤ıà¤² à¤°
Ġ183 5
19 19
Ġ10 6
Ġà¤« à¤Ł
Ġà¤ķ à¤¸à¤®
à¤¬à¤° à¤¦à¤¸
à¤ĩà¤¸ à¤¸
Ġà¤¨à¤µ à¤Ĺà¤ł
à¤Ł à¤¤à¤®
Ġà¤Ĳ à¤¶
19 14
Ã ©
Ñ ĥ
à¤Ĺ à¤ľà¤¨à¤ķ
193 5
à¤Ĩ à¤¬
à¤¥ à¤¬
à¤ĸ à¤¸
à¤ıà¤¸à¤ıà¤¸ à¤Ĩà¤°
à¥ĭ /
193 3
Ġ183 2
à¤¼ à¥ĩà¤Ĥà¥¤
à¥ģ à¤ĥ
Ġ q
Ġà¤Ĩ à¤ĵ
Ġà¤ı à¤¶à¤²
Ġà¤ħà¤¨ à¤¸
à¤Ĩ à¤ĵ
Ġà¤¬à¤¤ à¤ĸ
à¤ıà¤¨ à¤ľ
Ġà¤¤ à¤ª
à¥Īà¤Ĥ !
à¤Ĺ à¤¯
à¤¹ à¤£
. à¥¤
or g
Ġà¤Ĩ à¤ļ
Ġ10 9
à¤¼à¤¾ "
à¤ªà¤¤ à¤Ł
193 4
19 29
à¤Ĩ à¤ł
à¤Ī à¤ļ
Ġà¤¹ à¤ļ
19 13
Ġà¤¸ à¤¶à¤ķ
19 28
à¤¦ à¤ľ
à¥¤ -
à¤¸ à¤ĺ
à¤¬à¤² à¤¡à¤¨
à¤¯ à¤¸à¤¨
19 22
à¤¬ à¤Ĺ
o l
à¤Ī à¤¡
Ġà¤ªà¤¦ à¤ļ
à¤Ĺà¤¤ à¤¤
e l
à¤Ĭ à¤°
à¤Ń à¤¦
à¤Ĥ -
Ġà¤ĸ à¤Ł
] ,
à¥ĭ ),
Ġà¤ħà¤µ à¤ľ
à¤¸à¤® à¤ķ
Ġà¤¯ à¤®à¤¨
à¤ı à¤²à¤¨
Ġà¤ĭ à¤·
), "
19 12
Ġà¤Ī à¤ķ
à¤¹ à¤¥
Ġà¤Ī à¤²
193 2
à¥ĭ '
Ġà¤ħà¤ª à¤¡
Ġà¤¡ à¤«
à¥ĩ" )
à¤¸à¤¨ à¤²
Ġ10 7
à¤¯à¤¨ à¤¸
à¤² à¤ĺ
Ġà¤ħà¤ª à¤²
à¤Łà¤¨ à¤¬à¤°
à¤¹ à¤ª
Ġ18 15
Ġà¤® à¤Ł
Ġà¤ĵà¤µà¤° à¤¹
Ġà¤ľ à¤¬à¤°à¤¦à¤¸
19 27
19 21
à¤µà¤° à¤¸
194 3
à¤¬ à¤¬
à¤ıà¤« à¤¸
Ċ ĊĠ
à¤Łà¤° à¤ļ
à¥Īà¤Ĥ ),
Ġà¤ĩ à¤·
à¤¾" ),
Ġà¤Ĩà¤ĩ à¤ķà¤¨
Ï ĥ
Ġ3 000
Ġà¤ıà¤Łà¤² à¤¸
Ġà¤ıà¤¬à¤° à¤¡
à¤ª à¤¸à¤®
Ġà¤¸à¤¦ à¤®
Ġà¤ħ à¤ªà¤¤à¤Ł
Ġ18 14
à¤ķ à¤§
à¥ĩà¥¤ ..
Ġ183 4
à¤¡ à¤°à¤µ
à¤² à¤¹à¤°
à¤¢ à¤¨
Ġà¤ĵ à¤¶
" "
Ġ10 8
19 25
à¤ĩ à¤¡à¤²
à¤ĳ à¤Ł
19 26
à¤¨ à¤Ĺà¤¨
Ġ W
à¤Ī à¤¬
Ġ4 50
à¤ıà¤ļ à¤ıà¤¸
Ġà¤²à¤Łà¤ķ à¤¤
19 24
< </
à¥ĩ !
à¤¦ à¤¡
à¤Ĺ à¤²à¤¤
à¤® à¤µà¤°
Ġ183 1
Ġà¤ľà¤¨ à¤µ
Ġà¤ľ à¤ķ
à¤ıà¤¸ à¤¡
à¤¦ à¤¹à¤µ
Ġà¤ıà¤¸ à¤Ł
Î º
Ġà¤¬à¤¦ à¤¤à¤°
19 23
19 17
193 1
à¤¾à¤ģ à¤ĥ
à¤Ī à¤¦
à¤¨ à¤ļà¤°
à¤¨ à¤Łà¤¨
à¤µà¤° à¤®
19 11
à¤¸ à¤ıà¤ķ
Ġ183 3
à¥¤ '
Ġà¤¹ à¤°à¤ķ
Ġà¤¹ à¤Ĺ
i v
à¤Ĺà¤² à¤ªà¤¨
à¥Ī !"
à¤ıà¤¸ à¤Ĩà¤°
Ġà¤Ĩ à¤ĩà¤¬
Ġà¤īà¤ª à¤¶
à¤¯à¤¨ à¤ľ
Ġà¤¸à¤¹ à¤ª
à¤² à¤Ŀ
15 0
Ġà¤ª à¤łà¤¨
à¤¬ à¤¦à¤²
e t
à¤® à¤¬à¤¤
Ġà¤Ń à¤°à¤¤
à¤¾à¥¤ âĢĿ
Ġà¤°à¤¹ à¤®
18 90
; ;
Ġà¤ıà¤¸ à¤Ĩà¤°
à¤¨ à¤¥
/ "
à¤ĩà¤Ł à¤¸
Ġà¤¬ à¤¶à¤°
Ġà¤¬ à¤«
à¤°à¤® à¤ļ
à¥ĭ" )
, -
à¥Ģà¤Ĥà¥¤ "
Ġà¤ĩ à¤Ĩà¤¨
à¤Ĩ à¤ļ
Ġà¤ı à¤¥à¤¨
Ï Ģ
à¥ī ,
Ġ11 5
à¤Ĩà¤Ī à¤¡
Ġà¤¨à¤µ à¤ľ
à¤¯à¤° à¤ª
à¤°à¤¹ à¤ķà¤°
Ġà¤² à¤ª
à¤« à¤ķ
Ġ11 1
à¤ĺ à¤²à¤¨
Ġi n
Ġà¤ħà¤ª à¤ĺà¤Łà¤¨
Ñ ı
à¤°à¤µ à¤ļà¤¨
à¤¹ à¤®à¤¨
à¤ĵà¤ĵ à¤ĵà¤ĵ
à¤ªà¤° à¤«
a m
ĠÂ §
à¤¯ à¤°à¤ķ
# #
à¤Łà¤¸ à¤¬à¤°
à¤° à¤°à¤ķ
' à¥¤
à¤® à¤¹à¤²
Ġà¤ĩà¤¨ à¤¸
à¤Ł à¤ļà¤°
Ġà¤ıà¤¡ à¤¨
Ġ18 25
Ġà¤ı à¤¡à¤²
Ġ 00
à¤ĥ "
à¤Ĺ à¤¹à¤°
Ġ />
à¤ĩ à¤°à¤¸
Ġà¤Ĩà¤Ī à¤ıà¤¸
Ġà¤¬ à¤ķà¤²
à¤¦à¤° à¤µ
Ġ18 10
Ġà¤®à¤¹ à¤®
à¤® à¤ĺ
à¤¯à¤µ à¤§
à¤² à¤¹à¤®
à¤ķà¤° à¤¶
à¥Ĥà¤Ĥ à¥¤"
Ġ z
à¤Ł à¤¬à¤°
Ġà¤ħ à¤·
Ġà¤ħà¤² à¤µ
à¤ĸ à¤¤à¤°
Ġ ...
Ġà¤ĳà¤« à¤¸
Ġ11 2
Ġ2 20
Ġ( -
à¤®à¤¨ à¤¸
à¤ħ à¤¶
à¤¡à¤° à¤°
à¤ĺ à¤®à¤¶
à¤¬ à¤ľ
Ġà¤ĳ à¤²à¤®
Ġ17 0
à¤¯à¤° à¤¡
à¤® à¤¦à¤°
à¤¿ ",
in g
à¤¤ à¤«
Ġt o
Ġà¤Ĩà¤īà¤Ł à¤«
Ġà¤¶ à¤¤à¤ķ
190 8
à¤¨ à¤ľà¤°
19 15
ĠÎ ´
à¥Īà¥¤" "
à¤¶ à¤²à¤¤
! !
à¥Ģ ?
Ġ18 21
à¤Ĩà¤Ī à¤ıà¤¸
Ġà¤ħà¤µ à¤®
Ġà¤Ĩà¤īà¤Ł à¤¡
Ġà¤¬ à¤Ĺà¤¦
Ġ12 8
à¤² à¤ªà¤¤
à¤¤ à¤Ł
ģ Ħ
à¤Ł à¤Łà¤Ĺ
à¥ĭà¥¤ "
à¤ħ à¤µà¤§
à¤¶ à¤¹
Ġà¤ļ à¤®à¤Ĺ
à¤ĸ à¤¡
Ġà¤īà¤ª à¤¸à¤°
à¤ĳ à¤ª
Ġx v
Ġ18 28
190 5
Ã ¼
à¥Į -
à¥ĭà¤Ĥ /
Ġ18 24
à¤¸ à¤ĵà¤µà¤°
Ġà¤Ł à¤ķà¤¸
à¤ı à¤¨à¤ķ
Ġà¤Ĩà¤Ī à¤ķ
à¥į ,
Ġà¤ıà¤² à¤ıà¤²à¤¸
à¤Ĺ à¤Ń
à¤ªà¤° à¤¨
à¤¶ à¤ķà¤°
à¤ķ à¤¨à¤°
19 16
à¤§ à¤¸
Ġ202 4
Ġà¤¨à¤ľà¤° à¤¬
à¤ĩà¤Ł à¤µ
Ġà¤īà¤ª à¤²à¤ķ
Ġ18 29
à¤¼à¥Ģ à¤ĥ
Å į
à¤¿ ;
à¤¸à¤° à¤²
à¥ĩà¤Ĥ !
Ġà¤¸ à¤°à¤¸
à¥ĩ. )
à¤µ à¤¯à¤¸
à¤ķ à¤ķà¤°
HTT P
Ġà¤® à¤ĸ
Ã ¡
à¤ª à¤²à¤°
Ġà¤ıà¤ķ à¤°
à¤« à¤Ĺ
190 6
Ġà¤¨à¤µ à¤ª
18 80
d c
â ģĦ
à¤² à¤ķà¤¡
Ġ18 13
à¤²à¤¹ à¤µ
Ġà¤ıà¤¡ à¤Ĺà¤°
à¤ªà¤° à¤²
à¤ıà¤¸ à¤µ
Ġà¤¯ à¤®
Ġ \
à¤ī à¤ªà¤°
à¤¼ à¥ĭà¤Ĥ,
Ġà¤° à¤Īà¤¸
Ġ18 18
Ġà¤ħà¤µ à¤Ĺà¤¤
Ġ17 90
à¤ı à¤¨à¤µ
à¤§ à¤®
Ġà¤ıà¤¯à¤° à¤µ
à¤¤ à¤¥
à¥Ī ]"
Ġà¤ķ à¤Łà¤°
Ġà¤ķà¤¤à¤° à¤¨
Ġà¤ħ à¤ķà¤²
__ __
à¥Ĥ ",
Ġà¤« à¤Łà¤ķ
à¤¼ à¤¼
ĠÎ »
190 7
à¤µ à¤«
18 70
Ġà¤ķà¤² à¤ķà¤¤
Ġ7 50
à¤¯à¤® à¤¸à¤¨
Ġ ÑĤÐµ
à¤Ĺ à¤¬à¤°
Ã ¶
Ġ18 26
,,,, ,,,,
à¤¡à¤° à¤Ĺ
Ġà¤ª à¤Ľ
à¤¹ à¤¡
Ġà¤ıà¤² à¤®
à¤ĳ à¤¡
a c
Ġà¤ª à¤¸à¤²
Ġà¤° à¤¨à¤°
à¤¸à¤¹ à¤¯
Ġà¤® à¤®
Ġà¤Ĩ à¤ĩà¤ķ
Ġ Ð¸
190 3
Ġ11 3
à¤¡ à¤°à¤¸
Ġà¤ĺ à¤Łà¤¤
ĠÎ ²
Î ³
à¤« à¤Ł
à¤¦ à¤ķà¤¤
à¤¸à¤® à¤Ŀ
à¤ķ à¤¯
à¥Ģ. "
à¤ī à¤ªà¤ļ
Ġ18 16
190 4
Ġà¤Ł à¤ĸà¤¨
Ġà¤Ĩ à¤ĩà¤ľ
Ġà¤¯ à¤µ
a d
Ġà¤¸ à¤Łà¤¨
Ġâ ĪĴ
à¤ı à¤µà¤°
Ġà¤² à¤ªà¤Ł
Ġà¤ıà¤ļ à¤ª
Ġ5 000
à¤°à¤¸ à¤µ
à¤ķ à¤ļ
Ġà¤®à¤Ĺ à¤°à¤®à¤ļ
Ġà¤Ĩà¤¸ à¤µà¤¨
à¤¿ '
190 9
190 2
à¤¯à¤¨ à¤µ
à¤¼à¤¾ -
190 1
Ġà¤ı à¤®à¤ķ
9 00
e c
à¥Ĥà¤ģà¥¤ "
Ġ' (
Ġ180 6
Ġà¤² à¤Ł
à¤® à¤ľà¤¬
Ġ11 4
à¥ī "
à¤ĵ à¤¯
Ġà¤ıà¤¨ à¤ıà¤®
à¤¡ à¤°à¤ķ
à¤Ĩ à¤¡
Ġ18 27
Ġ11 6
à¤·à¤¯ à¤Ĺà¤¤
Ġa nd
Ġ18 19
à¤Ĩà¤° à¤ıà¤²
Ġ180 1
Ġà¤ı à¤ªà¤²
Ġ180 3
à¤ī à¤ªà¤¸
à¤°à¤¹ à¤¸
ĠÑģ Ðµ
Ġà¤ĩ à¤ª
Ġà¤¨ à¤µà¤¨
à¤ĩà¤¸ à¤µ
Ġ13 5
à¤¤ à¤²à¤¨
à¤Ń à¤µà¤ľà¤¨
Ġ11 7
Ġà¤²à¤¯ à¤¬à¤¦
à¤ıà¤® à¤¡à¤¬
1 20
Ġà¤² à¤®
I D
à¤ŀ à¤ª
Ġà¤ª à¤®
Ġ24 0
Ġ18 22
Ġ17 93
Ð ļ
à¤¹ à¤²à¤°
Ġà¤Ńà¤Ł à¤ķà¤¨
Ä į
Ġà¤ĩà¤¨ à¤µà¤°
Ġà¤Ĩ à¤¸à¤®
à¤Ĺ à¤ªà¤¤
Ġà¤¦ à¤¹à¤¨
Ġà¤Ĩà¤Ī à¤µ
" >
Ġ1 19
à¤¬à¤° à¤®
Ġ18 23
à¤ªà¤¤ à¤µ
. ]
à¤¼à¥Ģ )
à¤¤à¤¨ à¤¤
Ġà¤Ī à¤¬
à¤ľà¤¨ à¤²
Ġà¤°à¤ĸ à¤µ
à¤¯ à¤¸à¤°
Ġà¤Ī à¤ľ
à¤Ĩ à¤µà¤¶
à¤Ń à¤¯
k m
Ġà¤ª à¤Ĺ
à¤ĸ à¤®
Ġà¤ıà¤¸ à¤ª
à¤ķ à¤ĳà¤«
Ġà¤¦ à¤¤
Ġà¤¶ à¤¹à¤¦
Ġ180 9
à¤ľà¤¨ à¤¹
Ġà¤Ķ à¤ļ
à¤ī à¤«
Ġà¤« à¤¹à¤°
Ġà¤¹ à¤¯
Î ²
Ġà¤¸à¤® à¤¶
Ġ18 17
à¥Ĥ. -
à¤ĩ à¤¤à¤¨
à¥Ģà¥¤ )
> ,
à¤ķà¤¸ à¤Ń
à¤¾- "
o s
Ġà¤ıà¤ķ à¤¤à¤°à¤«
à¤¼à¥ĩ -
à¤ķ à¤£
Ġ( $
Ġà¤ķ à¤²à¤¨
à¤ª à¤ª
Ġà¤ı à¤µà¤²
Ġà¤° à¤¥
à¤¼ ",
ĠÏ Ģ
à¤¬ à¤µ
à¤®à¤¤ à¤¦
Ġà¤ıà¤ļ à¤Ĩà¤Īà¤µ
Ġà¤Ĩà¤µ à¤§
à¤¹ à¤Ĺ
à¤Ĺ à¤¡à¤¨
à¤ı à¤¡à¤µ
Ġx ii
Ġ180 7
Ġ180 8
Î ´
Ġà¤Ĩ à¤¡
Ġ ~
ĠÏ ī
à¤Ķ à¤¦
13 0
Ġà¤ı à¤ı
7 50
à¤ī à¤Ĺ
à¤¯à¤° à¤¹
à¤ī à¤ķ
à¤Ĺ à¤«à¤²
à¤ĵ à¤«
Ġà¤ħà¤ª à¤ķ
Ġ16 00
à¤Ľ à¤µ
Ġà¤ħà¤¸à¤¹ à¤ľ
Ġv i
Ġ17 94
à¤ķà¤¨ à¤¶
Ġà¤Ĩà¤Ī à¤°
à¤Ķ à¤¸à¤¤
Ġà¤¹à¤² à¤ļà¤²
Ġà¤µ à¤§
à¤¹ à¤°à¤®
Ġ17 98
à¤« à¤ľ
Ġà¤« à¤¨
Ġ18 11
à¤® à¤°à¤ķ
18 60
Ġà¤Ĩ à¤«
à¤¸à¤® à¤²
à¤ĳ à¤²à¤®
Ġà¤¡ à¤®
Ġ' ,
ÃĤÃĤÃĤÃĤÃĤÃĤÃĤÃĤ ÃĤÃĤÃĤÃĤÃĤÃĤÃĤÃĤ
Ñĩ Ðµ
à¤¥à¤² à¤ļ
Ä ±
Ġ(; )
à¤¯ à¤ļ
Ġ(, )
à¤® à¤Ľà¤²
à¤ªà¤° à¤Ł
Ġ180 5
à¤£ à¤ªà¤¤
u s
à¤¡à¤° à¤¡
à¤¬ à¤ª
Ġà¤ľà¤² à¤ª
Ġà¤ļ à¤ª
Ġ17 95
Ê¼Ê¼ Ê¼Ê¼
Ġà¤² à¤¸
à¤ıà¤® à¤ª
Ġ Ø
Ġ180 4
Ġà¤Ĩ à¤®à¤¨
à¤ıà¤¨ à¤ª
Ġà¤ī à¤®à¤°
à¥Į ,
à¤Ĩ à¤ĩ
à¥Ģ. )à¥¤
Ġà¤īà¤ª à¤ķ
en t
à¤ĵ à¤Ĺ
Ġà¤ħà¤µ à¤¹
à¤ĩ à¤«à¤°
Ġà¤¸ à¤¨à¤¸à¤¨
Ġ14 5
à¤¨à¤¸ à¤¬à¤°
à¤¨ à¤µà¤µ
Ġ12 1
à¤ªà¤² à¤Łà¤¨
à¤ıà¤¸ à¤ıà¤²
à¤ªà¤¹ à¤ļ
à¤ľ à¤¡
à¤¡à¤² à¤¬à¤°
Ġà¤ĵ à¤¸à¤¬
18 95
Ġ17 89
Ġà¤Ľ à¤¤à¤°
u r
18 98
Ġ17 80
à¤Ĩà¤Ī à¤Ĩà¤Ī
à¤ĵ à¤ªà¤¨
o v
Ġà¤¤ à¤Łà¤¬
Ġ17 92
Ġi x
Ġà¤¬ à¤«à¤°
Ġà¤¸à¤¨ à¤¡
Ġ12 3
Ġà¤¶ à¤®à¤¨
Ð ³
Ġà¤ħà¤ľ à¤Ĺà¤°
à¤ļà¤° à¤²
Ġà¤ıà¤®à¤ı à¤²à¤¬
Ġ1 200
Ġà¤īà¤ª à¤µà¤¨
à¤¨à¤¸ à¤«
Ġà¤Ĺà¤° à¤ľ
à¤¼à¥ĩ "
Ġà¤ĩà¤¨ à¤Ĺ
Ġà¤Ł à¤«
Ġà¤° à¤Ł
à¤ĩà¤® à¤Ł
18 96
à¤ĸà¤¨ à¤¨
Ġà¤®à¤¶ à¤°
Ġ180 2
à¤Ĩà¤° à¤ıà¤¸
à¤¾à¤ģ )
Ġà¤¤ à¤ªà¤¸
Ġà¤¸à¤® à¤¯à¤°
= |
à¤¡à¤° à¤¬à¤°
à¤ļ à¤¨à¤°
à¤ĩà¤Ł à¤«
à¥Ģ =|
Ġà¤¤à¤² à¤¹à¤Ł
Ġ12 2
à¤Ń à¤²
Ġà¤Ī à¤ıà¤¸à¤ª
Ġ17 96
à¤® à¤°à¤®
Ġ12 7
à¤¯ à¤¥à¤²
Ġn o
Î¿ ÏĤ
à¤¾à¤Ĥ à¥¤
I V
Ġà¤Ĺ à¤Ĺà¤¨
Ġà¤¸à¤®à¤Ŀ à¤¦
Ġà¤Ĩà¤ľ à¤ķà¤²
Ġà¤ĸ à¤ļ
Ġà¤ħà¤ª à¤¸
Ġ2 10
à¤¯ à¤Łà¤°
Ġà¤µ à¤¶
Ġà¤µ à¤ľà¤¹
à¤Ķ à¤ªà¤¨
Ġà¤Ĺ à¤§
à¤ļà¤¨ à¤¨
1 10
à¤ī à¤§à¤°
à¤µ à¤¬
à¤ħ à¤Ł
Ġà¤ī à¤¬à¤°
Ġà¤ĵ à¤¯
Ġ17 99
18 97
à¤¬ à¤µà¤¤
à¤ķà¤¸ à¤¸
Ġà¤ľà¤² à¤®à¤Ĺ
18 99
/ .
Ġà¤ıà¤® à¤µ
à¤Ĺ à¤°à¤ķ
Ġà¤ıà¤ķ à¤µà¤ļà¤¨
Ġ17 76
Ġà¤ķ à¤¯
Ġ13 2
Ġà¤Ŀ à¤²à¤ķ
à¤ľà¤¨ à¤°
à¤ī à¤·
à¤ĩà¤¬à¤° à¤¨
Ġà¤ħà¤² à¤¸
à¤· à¤°à¤ķà¤°
Ġ17 97
à¥Ī "à¥¤
à¤¤à¤° à¤®à¤¹
Ġà¤ªà¤° à¤¦
Ì ĥ
Ġà¤ħà¤¨ à¤Ĺ
à¤ĩà¤¨ à¤ķ
à¤¥ à¤¡
Ġà¤ķà¤° à¤¦
ĠÏ Ĩ
Ġ23 0
â ĪĴ
à¤Ĩ à¤ķà¤°
18 85
Ġ17 00
Ġà¤ªà¤° à¤ª
18 50
Ġà¤ª à¤²à¤ķ
Ġ12 6
Ġà¤ħ à¤¦à¤²
à¤īà¤ª à¤²à¤¬
à¤¾ >
à¤ķà¤¸à¤¨ à¤µ
Ġà¤²à¤µ à¤£
Ġà¤ħ à¤ĺ
à¤¸à¤¤ à¤¹
à¤ķà¤² à¤ķ
Ġà¤¹ à¤²à¤ķ
à¤¤ à¤§
à¤¿ /
Ġà¤¹ à¤°à¤®
à¤¹ à¤®à¤²
Ġà¤Ł à¤²
Ġà¤Ĩà¤¦ à¤°à¤£
18 92
Ġà¤¦ à¤¶à¤®
Ġà¤Ĩà¤ĩ à¤ľà¤¨à¤¹
Ġà¤ļà¤°à¤£ à¤¬à¤¦
Ġà¤¦ à¤²à¤¬
à¤Ĩ à¤Ł
à¥Ĥ /
à¥ĭ !"
Ġ12 4
à¥Ĥà¤ģ ",
ĠÎ ³
Ġ( #
18 91
Ġà¤ļà¤² à¤ļ
à¤µà¤¨ à¤ª
Ġà¤¬ à¤Ľà¤¡
à¤¨ à¤¹à¤®
à¤Ī à¤Ĺ
ĠÂ ±
à¤ıà¤® à¤ı
Ġ"( "
i r
à¤²à¤¨ à¤°
Ġà¤® à¤°à¤¤
à¤¸à¤¨ à¤µ
Ġà¤ī à¤¬à¤°à¤¨
", "
Ġà¤¶ à¤®
Ġà¤īà¤²à¤Ŀ à¤¨
Ġà¤µ à¤ļà¤¨
à¤ı à¤®à¤¸
Ġà¤ī à¤¬à¤²
à¥ĩ. -
Ġx iii
ĠÎ µ
Ġà¤¸à¤¤ à¤¤
Ġà¤ķ à¤Ĺ
Ġà¤ª à¤ĸ
18 88
à¤īà¤¨ à¤®
à¤ķ à¤ķà¤°à¤£
Ġà¤¨ à¤ª
Ġà¤īà¤² à¤Łà¤¨
1 000
à¤¨à¤° à¤¬
Ġ6 50
à¥Ģà¤Ĥ ",
à¤²à¤¨ à¤µ
Ġ17 91
i d
à¤Ľ à¤°
] à¥¤
Ġà¤ıà¤ļ à¤ıà¤®à¤ıà¤¸
Ġà¤Ŀ à¤ªà¤ķ
à¤ł à¤²
Ġà¤Ĩà¤¯ à¤¤à¤¨
Ġà¤ķà¤¹ à¤ķà¤°
à¤·à¤£ à¤ķà¤°
à¤ª à¤¢
à¥Ģ" |
18 89
Ġ[ "
à¤ĩ à¤¹
Ġà¤¸à¤° à¤²à¤¤
Ġà¤Ī à¤Łà¤¨
Ġà¤¯ à¤°
Ġà¤ıà¤« à¤¸
Ġà¤¸ à¤¶à¤°
à¤¯à¤µ à¤ķ
Ġà¤ĺ à¤®
12 5
Ġ17 75
Ġà¤Ĩà¤ī à¤Łà¤°
Ġà¤Ł à¤ļ
Ġà¤ıà¤¨ à¤¹
Ġà¤ļ à¤Łà¤¨
18 93
à¥¤à¥¤ à¥¤
10 1
Ġà¤ľà¤¨ à¤¨
ĠÃ ¶
Ġà¤ĸà¤° à¤ªà¤¤à¤µ
Ġà¤ļ à¤¬
à¥Īà¥¤ ,
Â ·
à¤¥ à¤ª
à¤īà¤¥ à¤µ
à¤ı à¤²à¤°
à¤ķ à¤®à¤°
Ġà¤ħà¤ª à¤µà¤°
à¤ķà¤¸ à¤µ
Ġà¤ªà¤° à¤¥
à¤ľ à¤¬à¤°
à¤¯ à¤Ĺ
Ġ15 5
Ġà¤¬ à¤°à¤®
Ġà¤ķ à¤¢
Ġ14 4
Ġà¤Ĩ à¤ĩà¤Łà¤®
à¤¥ à¤«
à¤¦ à¤ķà¤°
à¤ª à¤ľ
à¥Ģ. à¥¤
Ġà¤Ĭ à¤¬à¤¡
Ġà¤ħà¤ª à¤Ĺ
Ġà¤ĵ à¤ļ
Ġà¤Ńà¤Łà¤ķ à¤¤
Ġ12 9
à¥ĭà¤Ĥ à¤ĥ
Ġà¤Ĺà¤Ĺà¤¨ à¤ļ
à¤Ī à¤¨
à¤ķà¤Ĺ à¤£
a y
à¤Łà¤² à¤®
Ġà¤Ĩ à¤ĩà¤¡
Ñģ Ðµ
Ġà¤Ĩ à¤ĩà¤¸à¤ķ
Ġ26 0
Ġà¤ħ à¤¸à¤°
à¤ĩà¤Ł à¤ķ
Ġ13 3
à¥Ĥà¤ģ "
à¤¶ à¤Ł
Ï ī
à¤¨ à¤°à¤ķ
Ġà¤Ī à¤Ł
Ġà¤ľà¤² à¤Ĺ
Ġà¤ı à¤ıà¤ı
à¤ıà¤® à¤Ł
Ġà¤· à¤¡
à¤® à¤¥
Ġà¤ĩà¤ķ à¤¬
à¤¾) ;
Ġà¤ħà¤° à¤¨
18 86
V I
) /
Ġ" )à¥¤
18 87
Ġà¤īà¤Ń à¤°à¤¨
à¤Łà¤° à¤Ĺ
Ġà¤ıà¤® à¤°
Ġà¤¦à¤²à¤¬ à¤¦à¤²
Ġà¤ªà¤¦ à¤§
Ġà¤¸ à¤¬à¤°
à¤ª à¤Łà¤¤
Ġ13 8
à¤ĩà¤Ł à¤¬
Ġà¤ıà¤µà¤° à¤Łà¤¨
Ġ13 1
;" |
à¤¦à¤° à¤«
à¤¡à¤² à¤Łà¤¨
Ġà¤ķ à¤«
à¤īà¤ª à¤ķà¤°à¤£
Ġ17 83
à¤ĸ à¤¬
18 82
à¥ĩ ?"
c e
à¤īà¤¨ à¤¹
à¤²à¤ķ à¤®
à¤ Ļ
Ġà¤ªà¤° à¤µà¤°
à¤Ĺ à¤¸à¤¨
Ġà¤ħà¤ķ à¤¶
Ġ50 1
Ġà¤ªà¤° à¤«
) )
Ġ C
Ġà¤®à¤ĸ à¤®à¤²
à¤Ĥ ;
à¤« à¤¹
Ġà¤ħà¤ªà¤¹à¤°à¤£ à¤ķà¤°
" (
18 84
u l
ĠÑģ Ð°
Ġà¤ıà¤¨ à¤ıà¤¸
Ġà¤¹à¤® à¤«
Ġà¤ıà¤¨ à¤«
Ġà¤¢ à¤¹
à¤ĩà¤² à¤¸
à¤ĳ à¤¨à¤²
18 40
à¤¢ à¤¤
Ġ28 0
18 78
Ġ3 20
18 68
à¤Ī à¤¯
à¤Ĩ à¤°à¤¸
Ġà¤® à¤¯
à¤² à¤®à¤°
Ġà¤² à¤¨
Ġà¤ıà¤¯à¤° à¤¬
i g
Ġà¤¤ à¤¹à¤¸
à¤¯à¤¨ à¤²
u t
Ġà¤ħà¤µà¤° à¤ķ
à¤Łà¤¨ à¤Ł
à¤Ĺ à¤°à¤®
à¤ĥ -
Ġ16 5
.. ]
Ġ13 6
18 71
à¤ĵ à¤¶
à¤¤à¤¨ à¤ª
à¤ĭ à¤£
Ġà¤ł à¤Ĺ
Ġà¤ıà¤² à¤ª
à¤¶ à¤ļ
Ġ( +
à¤Ī à¤¶
Ġ5 50
à¥ĩ" à¥¤
Ġ27 0
18 94
à¤ª à¤²à¤¬
18 81
à¤ļ à¤µà¤°
Ġà¤Ĩ à¤ĩà¤Ĺ
18 83
à¤ªà¤¶ à¤ª
à¤Ĥ à¤ĥ
à¤Ł à¤Ĺà¤¨
l it
à¤§ à¤¬
à¤Ķ à¤ªà¤ļ
Ġ ,
à¤ļ à¤²à¤°
ÑĤ Ð¾
Ġ17 70
à¥Ĥ à¤ĥ
à¤ıà¤ļ à¤¸
Ġà¤Ĩ à¤¹à¤¤
Ġà¤Ĩà¤° à¤¬
18 65
Ġ17 88
Ġà¤¤ à¤µ
Ġà¤Ĩà¤Ī à¤«
Ġà¤ļà¤¯à¤¨ à¤ķà¤°
à¤ıà¤® à¤ľ
" |
Ġà¤ı à¤°à¤²
à¤¬ à¤¯
Ġà¤Ķà¤° à¤¤
e m
Ġà¤Ĳ à¤¨
II I
18 61
Ġà¤°à¤Ł à¤Ĺà¤°
Ġà¤ıà¤® à¤ıà¤²
18 67
Ġ14 1
Ġà¤īà¤ł à¤¤
18 30
Ġc h
Ġà¤ħ à¤¥
Ġà¤« à¤®
à¥Ī, "
18 00
ĠÃ ĩ
à¤ķà¤° à¤¨
à¤ķà¤² à¤®
Ġà¤Ľ à¤ª
à¤° à¤Ĺà¤¨
à¤¸ à¤²à¤¨
a k
âĢ Ļ
à¤® à¤²à¤°
18 72
à¤ıà¤® à¤¬
à¤¾à¥¤ <
Ġ17 77
Ġ13 4
................................ ................................
à¥Īà¤Ĥà¥¤ '
à¤¶à¤¨ à¤¶
Ġ22 5
à¤¬à¤° à¤¸
Ġà¤ĵ à¤µà¤¨
à¤Ĺ à¤²à¤¨
i m
18 76
18 75
à¤ªà¤° à¤¡
à¤¶ à¤¦
à¤ī à¤Łà¤°
Ġ13 7
18 64
à¤ĩà¤¡ à¤¨
à¤Ĩ à¤¯à¤¨
à¤¶ à¤«
à¤ĸ à¤Ł
Ġà¤ļ à¤ªà¤Ł
Ġ17 87
à¥ĩà¤Ĥ, "
à¤ıà¤ķ à¤®
Ġà¤Ł à¤Ł
Ġà¤® à¤Łà¤°
Ġà¤¥ à¤ª
Ġà¤¡ à¤Ĺ
à¥Ģ !"
1 13
Ġà¤ħà¤¸ à¤¤à¤¤
à¤ħà¤« à¤Ĺ
à¤Ł à¤²à¤¨
à¥Ģà¥¤ '
dc dc
à¤Ľ à¤ł
Ġà¤¦à¤®à¤¨ à¤ķ
à¤¤ à¤¬à¤²
Ġà¤Ĩ à¤¯à¤ķà¤°
à¤ķ à¤¹à¤®
à¤¾à¤ģ ",
Ġ3 30
à¤ĳ à¤Ĺà¤¸
Ġà¤ķ à¤²à¤°
à¥Īà¤Ĥà¥¤ )
à¤Ĩ à¤°à¤ķ
à¥Ī '
à¥Ĥ '
Ġ Åį
Ġà¤ıà¤¯à¤° à¤ª
Ġà¤ıà¤¯à¤° à¤«
à¤¼à¤¾ .
à¤ħ à¤¯
ĠÃ ¼
Ġà¤¹ à¤¡à¤°
Ġ17 84
18 73
Ġà¤ķà¤¸ à¤ķà¤°
18 77
18 74
à¤ģ à¤ĥ
à¤ļ à¤Ń
à¤ĵ à¤ıà¤¸
Ġ u
à¤ī à¤Ī
à¤Ĩ à¤ªà¤°
Ġà¤īà¤Ń à¤¯à¤²
Ġ15 2
a v
à¤µà¤° à¤µ
Ġ14 7
Ġ17 78
à¥ĩà¥¤ ,
à¤¹ à¤¬à¤¦
Ġà¤° à¤¦à¤°à¤«
Ġà¤ı à¤ªà¤¸
Ġà¤Ĩà¤Ĺ à¤ľà¤¨
à¤µà¤° à¤¬
à¤Ĺ à¤¨à¤®
Ġà¤ı à¤Ĺà¤°
ÑģÑģ ÑģÑģ
à¤ľ à¤«
Ġà¤Ĩà¤ĩ à¤¡à¤²
à¥ĭ ?
---------------------------------------------------------------- ----------------------------------------------------------------
à¤¾" ;
à¤ľ à¤ľ
à¤ĩ à¤®à¤¸
Ġx x
à¤°à¤¤ à¤®
à¥Ģ" -
à¤¡ à¤Ĺà¤²à¤¸
18 66
3 50
Ġà¤¶ à¤Łà¤Ĩà¤īà¤Ł
à¤¾' ,
Ġà¤Ĩ à¤°à¤¸
Ġb e
à¤°à¤¬ à¤¨
à¤ļ à¤¦
à¤¾à¤ģ -
à¤°à¤£ à¤¨
à¤« à¤¸à¤¨
Ġ17 81
r d
à¤¤ à¤ĸ
à¤¨ à¤ķà¤²
à¤Ĩà¤° à¤Ł
à¥¤ .
à¤« à¤µ
ĠX XX
Ġ14 3
j j
Ġà¤¦ à¤¯à¤¨
Ġà¤¬ à¤Łà¤°à¤«
r o
à¤¾" -
Ġà¤ħà¤ª à¤¦à¤¸
Ġà¤ĩ à¤¦
à¤¬à¤° à¤µ
Ġ17 82
à¤ª à¤µà¤ķ
Î¿ Î½
18 79
à¥Ĥà¤ģ !
Ġà¤ľ à¤Ĺà¤¤
à¤ªà¤¨ à¤¦
Ġà¤ħà¤¨ à¤ķ
Ġà¤ª à¤«
à¤ıà¤¸ à¤ľ
Ġ202 5
Î ¯
à¥ĩà¤Ĥ '
Ġà¤¬ à¤¬
( "
Ġà¤Ńà¤¯ à¤Ń
Ġà¤ħà¤ª à¤¶à¤¬
Ġà¤Ĩà¤Ī à¤¯
Ġà¤Ī à¤¡
à¤ħ à¤µà¤°
Ï Ĩ
à¥Ģ" ),
Ä ģ
Ġà¤ħà¤ķ à¤¬à¤°
à¤ħ à¤¹
Ġ16 60
s s
à¤¤à¤° à¤²
Ġà¤¡ à¤¨à¤²
Ġà¤ı à¤ıà¤®
à¤¡à¤² à¤ķ
18 69
à¤²à¤¨ à¤¸
Ġà¤ıà¤¡ à¤²à¤°
à¤¯à¤° à¤°
Ġà¤ĵà¤° à¤²
à¤ıà¤ļ à¤ľ
18 62
10 5
à¤Ł à¤¸à¤²
Ġà¤ħ à¤¥à¤ķ
Ġà¤ļà¤°à¤® à¤ª
Ġ17 50
à¤² à¤ĸ
à¥ĩà¤Ĥ ]
ĠÂ °
Ġà¤Ĩà¤ľ à¤®
Ġd e
à¤¥à¤² à¤¹à¤®
Ġà¤ħ à¤ĸà¤°
HTT T
à¤¾à¥¤" "
Ġà¤īà¤ª à¤®à¤¹
ĠW w
à¤¸ à¤«à¤°
à¤¼ à¥ĩà¤Ĥ,
à¤ľà¤¨ à¤ķà¤°
à¥¤ âĢĿ
Ġà¤ħ à¤¶à¤°
Ġ13 9
Ġ j
18 48
18 63
à¤¯ à¤¡à¤¨
à¤ı à¤¡à¤°
.. .>
à¤ĳ à¤¨à¤°
ĠÏĦ Îµ
Ġà¤ıà¤² à¤µ
10 4
Ġà¤ħà¤¨ à¤§
11 1
à¥Ģà¤Ĥ )à¥¤
à¤¼à¤¾ ;
Ġà¤ıà¤¯à¤° à¤¬à¤¸
1 12
à¤ĩà¤¨ à¤¹
Ġà¤ĳ à¤¯à¤²
Ġà¤Ĩà¤² à¤¸
1 17
Ġà¤Ĳ à¤ķ
Ñģ Ð¸
Ġà¤ħà¤¸à¤® à¤®
à¤µ à¤¤à¤¨
Ġ17 85
10 2
Ġ15 3
Ġà¤«à¤° à¤²
Ġà¤ħà¤¨ à¤¨
Ġà¤Ĺ à¤ªà¤¶à¤ª
Ġ17 60
Ġ15 6
Ġà¤® à¤¥
à¥Īà¤Ĥà¥¤ âĢĿ
à¤¨ à¤°à¤¸
à¤Ĩ à¤¯à¤°à¤¨
à¤ªà¤° à¤Ĺ
Ù Ħ
à¤·à¤£ à¤µ
à¤ķà¤® à¤ľ
à¤Ĩ à¤ĩà¤°
Ġà¤Ĩà¤ĩ à¤ı
à¤Ī à¤ĺà¤°
Ġ14 8
à¤µà¤² à¤ªà¤®
à¤ĵà¤ĵà¤ĵà¤ĵ à¤ĵà¤ĵà¤ĵà¤ĵ
à¤¡à¤° à¤Ł
à¤ħ à¤¹à¤®à¤¦
à¤²à¤¬ à¤¹
Ġà¤§ à¤°à¤¤
ĠX IV
à¤ķ à¤°à¤®
à¤¯à¤¤ à¤ķà¤°
Ġ17 79
à¥Ģà¤Ĥ !
à¤ªà¤Łà¤¨ à¤¶
Ġà¤¸ à¤²à¤®
à¤¾à¥¤ à¥¤à¥¤
d z
Ġà¤¸à¤¹ à¤¨à¤¶
à¤¯à¤° à¤ľ
Ġà¤¡ à¤¨à¤¬
Ġà¤® à¤¡
ĊĠĊĠ ĊĠĊĠ
Ġà¤ĭà¤£ à¤¦
à¥ĩ. ,
à¤¸à¤® à¤Ĺ
Î ·
Ġ16 8
à¤¯ à¤«
Ġà¤ıà¤« à¤ķ
Ġà¤²à¤ķ à¤µ
Ï ĩ
Ġà¤ªà¤° à¤¹
Ġà¤Ĭ à¤¬
à¤ıà¤« à¤ıà¤²
Ġà¤ħ à¤Ľ
Ġà¤ħ à¤¹à¤²
à¤¨ à¤°à¤®
à¤ļ à¤¬à¤°
à¤ıà¤ļ à¤ıà¤«
## ##
Ġ3 40
Ġ17 74
Ġ15 8
il l
Ġ17 86
à¤ķà¤² à¤¬
1 15
à¤°à¤® à¤¸
t s
ĠÏ ĥ
185 9
Ġà¤¦à¤¹ à¤¶à¤¤
Ġ25 6
- (
à¥Ĥà¤ģ ?
Ġà¤īà¤¨ à¤¤
à¤§ à¤°à¤¤
Ġà¤ĵ à¤®à¤°
Ġ2 12
. :
Ġ15 4
à¤ıà¤ļ à¤ª
à¤ĩ à¤Ĺà¤¨
Ġà¤Ĺ à¤¨à¤°
à¤ª à¤ķà¤¨
à¤¼à¤¾ )
Ġà¤¤à¤Ł à¤°à¤ķ
Ġ( .
Ġà¤ªà¤¹à¤¨ à¤ķà¤°
Ġà¤® à¤¬
185 7
Ġà¤¢ à¤ķà¤¨
Ġà¤ķà¤² à¤¹
à¤ª à¤Ĺ
Ġ0 5
à¤¬ à¤°à¤¤
à¤ħ à¤µà¤¸
à¥Īà¥¤ à¥¤à¥¤
Ġ13 00
Ġ4 000
Ø §
à¤µà¤µ à¤¤
à¤Ĩ à¤Ĩ
Ġà¤ı à¤Łà¤µ
Ġà¤¸ à¤Īà¤¦
Ġà¤ı à¤¯
a b
Ġà¤Ĺ à¤«
Ġà¤ĵ à¤µà¤²
à¤ıà¤¨ à¤ıà¤¸
à¤¿ )à¥¤
Ġà¤ıà¤¸ à¤µ
Ġà¤ĩ à¤§à¤°
à¤¼ à¥Ģà¤Ĥà¥¤
Ġà¤ħà¤Ń à¤¦
à¤ī à¤¥à¤²
Ġà¤« à¤ľ
Ġ14 00
18 0
16 0
à¤° à¤Ĺà¤®
Ġ16 7
à¤¸ à¤ĸ
Ġà¤Ĩà¤ĩ à¤ļ
à¤¯à¤ķ à¤µ
à¤ķ à¤¬à¤¸
Ġà¤Ī à¤ª
à¤¡ à¤Ĩà¤īà¤Ł
à¤Ľ à¤¦
Ġ16 2
à¤ģ ;
d e
à¤¸ à¤ıà¤²
à¤²à¤Ń à¤¤
à¤¬ à¤ķà¤°
Ġà¤¬à¤° à¤¬
ĠÎ» Î¿
185 8
Ġà¤²à¤Ł à¤ķà¤¨
à¤ī à¤ļà¤°
a p
à¤¥ à¤¬à¤°
à¤°à¤ļ à¤²à¤¨
Ġà¤²à¤¹à¤° à¤¦
Ġà¤« à¤²à¤¤
à¤« à¤¹à¤®
à¤Ŀ à¤¨
Ġ3 25
à¤Ī à¤«
à¤® à¤²à¤¤
Ġ[ .]
à¥Ģ. :
à¤¥ à¤¹
Ġà¤¬à¤¦ à¤¬
Ġà¤¹à¤® à¤¸
10 6
à¤¡à¤° à¤ª
Î ¸
à¤² à¤°à¤ķ
à¤°à¤¬ à¤¦à¤²
r i
Ġà¤ª à¤Ľà¤¤
1 14
Ġà¤Ī à¤¯
4 50
à¤ķà¤ª à¤¡
Ġà¤ı à¤ıà¤«à¤¸
à¤¡à¤² à¤ľ
à¤µà¤°à¤£ à¤µ
Ġ20 5
à¤ĵ à¤ĩà¤¡
Ġà¤ıà¤ļ à¤¡
à¤ĩ à¤¸à¤°
Ġà¤ĳ à¤²à¤¸
Ĩ Ĵ
à¤Ĩ à¤ªà¤¨
à¤Ĩ à¤«
Ġà¤ĵà¤µà¤° à¤°
Ġà¤¨ à¤²à¤¸
c t
à¤ĩà¤² à¤®
à¤¾à¤Ĥ "
Ġà¤¸ à¤ĺà¤¨
à¤ªà¤ķ à¤¤
185 4
18 55
à¥ĩà¤Ĥà¥¤ ..
à¤ĩà¤¡ à¤¬
à¤Ń à¤µà¤¨
Ġà¤Ń à¤¦
à¤ı à¤¨à¤°
13 5
Ġà¤Ł à¤¬
à¤® à¤²à¤¯
Ġà¤ħà¤« à¤¸
Ġà¤Ĩà¤īà¤Ł à¤¸
à¤ļ à¤®à¤ķ
à¤Łà¤° à¤µà¤°
Ġà¤Ĩà¤° à¤ª
185 1
à¤Ĩ à¤ĸ
à¤ģ )
à¤°à¤¦ à¤¤
à¤¼à¤¼ à¤¼à¤¼
;; ;;
à¥ĭ ]
Ġ16 3
à¤Łà¤° à¤Łà¤¨
Ġà¤ıà¤¸à¤ıà¤¸ à¤Ĩà¤°
Ġ15 7
Ġà¤īà¤ª à¤ª
à¤¥ à¤ļ
Ġà¤Ī à¤¥à¤°
Ġà¤ī à¤²à¤°
à¤ľà¤¨ à¤¤
à¤¬ à¤«
Ġ14 9
Ġ2 15
Ġà¤¤à¤Ł à¤µà¤°
à¤· à¤¯à¤ķ
Ġà¤ªà¤¦ à¤¸
Ġà¤ħà¤¸ à¤¹à¤¨
Ġ30 1
Ġà¤ª à¤ľ
à¥ĩ !"
Ġ16 1
Î ¬
a g
à¤¡ à¤Ī
Ġà¤Ĺ à¤¨à¤¬
à¤ĩà¤¨ à¤µ
à¤Ī à¤¸à¤µ
Ã ³
185 6
Ġ" ;
Ġà¤² à¤¹à¤ľ
Ġw h
Ġà¤Ĺà¤²à¤¤ à¤«à¤¹à¤®
Ġà¤¶ à¤«
Ġs t
Ġà¤¬à¤¹ à¤ķ
à¤Ĩ à¤¦à¤°
à¤ĩ à¤¯à¤°
à¤¡à¤° à¤¶
Ġ0 8
â ī¤
Ġ17 2
ĠÎ ¸
à¤· à¤®à¤²
Ġà¤ıà¤® à¤ıà¤ķ
Ġ0 9
Ġà¤Ĩà¤Ī à¤¸
Ġà¤¬ à¤¶
à¤ĺ à¤Łà¤ķ
à¤ıà¤¸ à¤¬
à¥Ģ) ;
à¥Īà¤Ĥ !"
Ġ0 4
Ġ Äį
Ġà¤ĩà¤¨ à¤µ
à¥ĩà¤Ĥ ?
à¤«à¤¨ à¤¸à¤¨
Ġà¤¹à¤® à¤¦
à¤ĩà¤¨ à¤«
185 3
à¤Ńà¤µ à¤¹
à¤® à¤°à¤µ
à¤ħ à¤®à¤°
à¤¾) "
Ġà¤ĵ à¤¬à¤°
à¥Ģà¤Ĥ ),
Ġà¤¬à¤¦ à¤¸
à¥¤" à¥¤
Ġ" ),
Ġà¤¬ à¤°à¤¤
à¤¹à¤° à¤°
à¤¿ ),
à¥Ī ")
Ġà¤ı à¤ªà¤°
14 0
Î¹ Î½
Ġ17 72
Û Į
Ġà¤ħ à¤Łà¤ķ
Ġà¤ªà¤µà¤¨ à¤ļà¤ķ
Ġà¤¹à¤® à¤µà¤¤à¤¨
à¤Ĺà¤£ à¤°
à¤ľà¤¨ à¤ľ
à¤Łà¤² à¤¸
à¤® à¤ł
Ġà¤ĺ à¤¸
l l
Ġ15 9
à¤° à¤¹à¤°
Ġ16 6
à¤¨ à¤ĸ
à¥ĩà¥¤ )
à¥Ī- "
185 2
Ġ8 50
Ġà¤Ĩà¤Ī à¤¨
o w
Ġ27 5
Ġ16 4
à¤ĩ à¤¦
) ",
10 3
à¤µà¤² à¤°
Ġ16 9
Ġ17 63
à¤ıà¤¨ à¤Ĩà¤°
s e
Ġ0 6
Ġà¤ĳ à¤¨à¤¸
à¤°à¤Ń à¤ķ
ĠÃ ©
à¤² à¤¦à¤¸
Ġ3 80
à¤µà¤° à¤¡
à¤ª à¤¦à¤ķ
" /"
Ġà¤ħ à¤¹à¤°
Ġà¤ıà¤« à¤¡
ĠĠ ĠĠ
Ġà¤Ĭ à¤¦à¤¬
à¤¶ à¤ªà¤°
à¤¡ à¤¹à¤®
à¥ĩà¥¤ '
à¤¾" )à¥¤
à¤ħ à¤µà¤¶
Ġà¤ĳ à¤¶à¤µ
à¤ļ à¤ª
Ġà¤¨ à¤°à¤Ńà¤ķ
à¤¨ à¤¸à¤°
Ġf or
à¤« à¤ª
à¤® à¤ĸ
à¤ī à¤µ
Ġà¤ıà¤¸ à¤ľ
à¤²à¤° à¤¶
00 00
Ġ0 2
t t
à¤¹ à¤Ń
Ġ17 6
à¤Ĩà¤Ī à¤ª
à¥¤ ),
Ġà¤ħà¤² à¤°
à¤¦ à¤°à¤¸
,,,,,,,, ,,,,,,,,
Ġà¤« à¤¤
à¤Ĩ à¤ĩà¤¸à¤²
à¤¼ '
18 20
à¤Ĩà¤° à¤ª
à¤µ à¤¶à¤ķ
Ġ16 40
Ġà¤ı à¤Ĩà¤Ī
Ġà¤Ĺ à¤¸
à¤ħ à¤ĸ
Ġà¤ī à¤¹
Ġ iii
Ġà¤ħà¤¨ à¤ª
l y
Ġ @
18 49
Ã Ń
Ġà¤ıà¤² à¤¬
à¤īà¤ª à¤Ń
Ġ0 1
à¤¡à¤² à¤¸
à¤¶ à¤¬à¤°
Ġà¤ªà¤° à¤°
Ġ S
à¤Ī à¤Ĺà¤²
à¤° à¤¡à¤®
Ġ20 6
" [
- '
à¤ıà¤² à¤ª
; )
Ġà¤ī à¤Ĺà¤¨
Ġ17 1
à¤¸ à¤²à¤¬
Ġà¤¶ à¤Łà¤°
> ),
à¤īà¤¨ à¤µ
1 16
Ġà¤ĵ à¤¶à¤¨
Ġà¤ıà¤¨ à¤²
Ġ17 3
à¤° à¤¨à¤°
Ġâ ĨĴ
Ġà¤ķà¤Ł à¤²à¤°
Ġth at
10 7
Ġà¤¬à¤² à¤ª
à¥Īà¤ĥ "
Ġ11 00
Ġà¤Ĩà¤Īà¤ıà¤¸ à¤ĵ
à¤Ĩ à¤Ń
Ġà¤ħà¤¬ à¤¦
Ġà¤¸ à¤¦à¤°
à¤¡ à¤¯à¤¨
ĠX VI
18 45
Ġ[.] ..]
Ġà¤¯ à¤ľ
Ġà¤« à¤¸
an d
Ġ20 30
ĠÎ»Î¿ dz
à¤ļ à¤°à¤®
à¤ĸ à¤ľ
à¤ĸ à¤Ĺ
Ġ15 1
à¤ı à¤¬à¤°
à¤ıà¤® à¤ıà¤²
____ ____
1 18
Ġ18 2
à¤ĺ à¤¡
à¤¡ à¤°à¤¹
à¤ĵ à¤ķà¤²
à¤ĵ à¤ļ
Ġà¤Ĺ à¤Ł
à¥Ģ- "
Ġà¤· à¤Ł
Ġà¤Ķ à¤ľ
Ġ( )à¥¤
Ġ36 5
Ġ7 37
Ġà¤ħà¤¨ à¤²
Ġà¤ħà¤² à¤ķ
Ġà¤¡ à¤°à¤¨
un d
Ñģ Ð¾
Ġ17 7
lit re
Ġ30 3
Ġà¤ħà¤°à¤¬ à¤ªà¤¤
Ġ17 40
à¥Į "
Ġ16 50
Ġ2 14
à¤Ĺ à¤£à¤ķ
18 46
à¤ıà¤¨ à¤Ł
o c
à¤µà¤° à¤«
18 38
à¤īà¤¥ à¤ª
à¤¸à¤¹ à¤®à¤¤
Ġà¤ħ à¤°à¤µ
à¤¾à¤Ĥ )
Ġ3 70
à¥ĭ )à¥¤
à¤¼ à¤ĥ
à¤ıà¤®à¤ı à¤²à¤¬
à¤ĩà¤¡ à¤µ
Ġà¤¦ à¤ľ
Ġ" *
ĠÑģ Ð¾
Ġ17 73
à¤Ĺ à¤¹à¤¨
à¤¡ à¤ıà¤ķ
Ġà¤° à¤Ĺà¤¡
Ġ17 4
Ġà¤Ĩ à¤²à¤®
à¤¯ à¤ľà¤¨
à¤¡à¤° à¤µà¤°
à¤ķ à¤Łà¤°
Ġà¤ıà¤« à¤ıà¤ķ
Ġà¤ħà¤¸ à¤¦
18 12
ĠX X
Ġ18 1
à¤¹ à¤ľà¤¨à¤ķ
at ion
Ġà¤ª à¤¥à¤°
à¤Ĺà¤² à¤Łà¤¨
Ġ M
à¤² à¤ķà¤¤
Ġ17 8
Ġà¤¬ à¤°à¤¸
Ġà¤ħà¤¦ à¤°à¤ķ
à¤Łà¤® à¤µ
Ġ2 18
à¤¦à¤° à¤¬
Ġà¤¥ à¤®
Ġà¤¯ à¤¶
-- -
Ġ22 2
18 37
Ġ3 10
Ġ17 68
à¥ģ ",
à¥Ĥ ),
à¤°à¤µ à¤¶
à¥ĭà¤Ĥ ",
à¤ªà¤° à¤ľ
à¤ĸà¤¤à¤° à¤¨
à¤² à¤Ī
Ġà¤Ĺà¤£ à¤®
à¤ĩ à¤²à¤¨
Ġà¤¹à¤°à¤ķ à¤¤
Ġà¤ı à¤¡à¤°
Ġ A
Ġà¤Ł à¤Ĺ
à¤² à¤®à¤¨
Ġà¤ľ à¤¯à¤ª
à¤ķà¤¨ à¤¸
Ġ21 1
Ġà¤ªà¤° à¤ĸ
18 32
Ġà¤ı à¤¹
Ġà¤ıà¤ļ à¤Ĩà¤°
u m
Ġà¤Ĩà¤° à¤ıà¤¸
à¤ł à¤®
ĠÑģ Ð¸
Ġ20 8
e v
3 60
Ġ0 7
à¤ª à¤ķà¤°
Ġ29 0
Ġà¤¦à¤¶à¤® à¤²à¤µ
Ê¼Ê¼Ê¼Ê¼ Ê¼Ê¼Ê¼Ê¼
à¤ħà¤ª à¤®
à¤ķ à¤¦
Ġ17 69
o d
Ġà¤ķà¤¨ à¤µà¤°
Ġ175 8
3 20
à¤ħ à¤²à¤µ
18 41
à¤¹à¤° à¤²
t e
à¤ķà¤¨ à¤²
à¤ķà¤¨ à¤ķà¤°
à¤Ĩà¤Ī à¤ı
à¤ĸà¤¨ à¤Ĭ
à¤Ĺà¤¨ à¤¨
Ġà¤Ľ à¤°
à¤ħ à¤¸à¤°
Ġà¤ı à¤®à¤¨
à¤¾- -
à¥Ĥ. ,
à¤Ĳ à¤ª
Ġà¤Ĩà¤Ī à¤ĵà¤µ
Ġ20 3
à¤ī à¤¸à¤°
à¤« à¤¤
Ġ( Â
Ġà¤¸à¤¨ à¤¶
18 42
à¤®à¤¸ à¤Ń
à¤¥ à¤Ĺà¤¨
Ġ23 5
Ġ4 20
à¤² à¤°à¤®
à¤µà¤° à¤Łà¤¨
Ġ2 16
Ġ20 4
Ġà¤¸à¤¹ à¤Ń
Ġ Ð¼
à¤īà¤ª à¤Ĺ
à¤ªà¤° à¤ª
à¤µ à¤ķà¤°
à¤®à¤° à¤Ĺà¤¨
à¥Ī ]
à¤¬ à¤°à¤ķ
à¤¬ à¤¶
Ġà¤ª à¤Łà¤¨
Ġà¤ªà¤ĸ à¤µ
à¥¤ ]
Ġ2 17
Ġà¤¨ à¤¸à¤¬
Ġà¤« à¤Łà¤¨
à¤ĩà¤¡ à¤¸
à¤¬à¤° à¤«
à¤ķ à¤¥à¤¨
Ġà¤ĳ à¤¬à¤°
18 44
Ġà¤ħà¤¬ à¤ĸ
à¤ªà¤° à¤ļ
18 36
Ġ /
Ġà¤ķà¤² à¤¶
Ġ19 1
Ġ4 40
à¤Ĩà¤° à¤Ĩà¤°
Ġà¤Ĩà¤ĩ à¤µà¤°
Ġà¤® à¤ķà¤°
Ġà¤² à¤¦
à¤ĩ à¤®à¤²
18 39
Ġà¤«à¤² à¤¦
p p
à¥ĩà¤Ĥ !"
Ġ20 7
Ġi s
à¤¶ à¤°à¤¦
Ġà¤¹ à¤°à¤®à¤¨
à¤ĩ à¤µà¤²
Ġ17 20
Ġ17 65
à¤¬à¤¦ à¤¬
à¤¹ à¤¸à¤¨
Ġà¤ļ à¤¡
Ġ0 3
à¤· à¤¦à¤°
Ð½ Ð°
à¥Ĥ ")
à¤¸ à¤¹à¤®
Ġà¤ıà¤² à¤Ĺ
à¤¼à¤¾ à¤ĥ
à¤°à¤¨ à¤Ł
Ġ U
Ġà¤Ľ à¤®
- )
à¤¨ à¤¥à¤²
à¤¥ à¤ħà¤®
Ġ4 80
Ù ħ
18 47
Ġ17 30
12 3
Ġ' -
à¤ĵ à¤¨à¤²
à¤°à¤ķ à¤¸
à¥Ģ, "
à¤¸ à¤ł
Ġà¤¢ à¤ķà¤¤
à¤ı à¤¸à¤ķ
Ġ B
Ġà¤¯ à¤¸
Ġà¤ıà¤¨ à¤Ĺ
Ġ Ìĥ
2 20
à¤¬à¤² à¤®
à¤¤ à¤¦
à¤¬à¤ļ à¤ªà¤¨
18 35
s k
Ġà¤īà¤® à¤¯
Ġà¤¡ à¤°à¤¬à¤¨
Ġà¤§ à¤®
à¤¸ à¤¶à¤¸
à¤Ī à¤¯à¤¨
10 9
Ġ23 3
Ġ20 9
à¤¦ à¤¶à¤ķ
à¤ĩ à¤«à¤¨
Ð½ Ð¸
à¤ıà¤® à¤¡
Ġà¤ı à¤¯à¤°à¤ķ
à¤ļ à¤¹
Ġ17 62
à¤Ń à¤®
Ġà¤¤à¤° à¤¬
à¤Ł à¤Ī
à¤ķ à¤¡à¤°
Ġà¤¸à¤ķ à¤¨
à¤Ĺà¤² à¤®
ÑĤ Ð°
ÃĤÃĤÃĤÃĤÃĤÃĤÃĤÃĤÃĤÃĤÃĤÃĤÃĤÃĤÃĤÃĤ ÃĤÃĤÃĤÃĤÃĤÃĤÃĤÃĤÃĤÃĤÃĤÃĤÃĤÃĤÃĤÃĤ
Ġà¤¸à¤® à¤¨à¤°
18 15
à¤¤ à¤¨à¤ķ
à¤¬ à¤ķà¤¤
Ġà¤°à¤¹ à¤ķà¤°
i ch
à¤¼ /
à¤¾" :
à¤¼ .
Ġà¤ıà¤¶ à¤¬
Ġà¤Ĩà¤Ī à¤®
Ġà¤® à¤¨à¤¸
à¥Īà¥¤.. "
à¤ĺ à¤¨à¤¨
à¤ıà¤¨ à¤«
à¤¡ à¤ķà¤°
Ġà¤Ĺ à¤¬
à¤¸à¤® à¤¨
à¤Łà¤° à¤°
Ġà¤Ĩà¤Ī à¤ĵà¤¸
à¤Łà¤¨ à¤µ
à¤ħ à¤¸à¤®
10 8
à¤°à¤µ à¤£à¤¤
à¤Ń à¤¤
Ġà¤®à¤¶ à¤¹
n a
à¤ĸ à¤®à¤°
Ġ17 71
à¤² à¤¥
Ġ22 1
Ġà¤Ĺ à¤°à¤®
à¤Ĩ à¤ĩà¤¡
à¤ĩà¤ª à¤«
à¥Īà¤Ĥà¥¤ ,
à¤Ĩà¤ł à¤µ
à¤ª à¤¬à¤°
Ġ14 2
à¥ĩà¤Ĥà¥¤ )
Ġà¤ľ à¤¯à¤ķ
Ġà¤Ķ à¤²
à¤ī à¤¡à¤¸
18 43
Ġ16 30
Ġà¤¸à¤¹à¤¨ à¤¶à¤ķ
! ",
à¤§ à¤®à¤¨
Ġà¤¹ à¤ł
Ġ17 55
Ġ17 61
à¤¸ à¤ªà¤¨
à¤¹ à¤«
n e
à¤Ĩ à¤ªà¤¤
Ġà¤¬à¤ľ à¤¤
à¤¿ ")
Ġà¤ħ à¤°à¤®
à¤Łà¤² à¤ª
Ġà¤° à¤Łà¤²
h t
à¤¶ à¤¤à¤°
Ġ25 00
Ġà¤ħà¤¨ à¤¡
Ġ17 45
à¥ĭ" à¥¤
18 34
à¤Ĺà¤¨ à¤«
ĠÏ ĩ
Ġà¤¸ à¤¨à¤¸
Ġà¤ĸà¤Ł à¤ĸà¤Ł
à¤°à¤¬ à¤ķ
Ġ(" "
à¤¼ à¥ĭ,
à¥Īà¥¤ .
à¥¤ ",
à¤¸ à¤¦à¤¨
s h
Ġ17 66
Ġà¤ħ à¤ķà¤°
Ġv ii
à¤ļ à¤¶
Ġ16 20
à¤ĩà¤¡ à¤®
Ġà¤ĳ à¤Ĺ
à¤¼à¥ĩ )
à¤¤ à¤Łà¤¸
Ġà¤Ł à¤¹à¤¨
à¤ķà¤° à¤¬
à¤Łà¤¨ à¤®
Ġ4 60
Ġà¤¸ à¤°à¤®
2 10
Ġà¤Ĺ à¤¬à¤¨
Ġ22 4
// //
Ġà¤² à¤ĸà¤¨à¤Ĭ
à¤ªà¤ķ à¤¡
à¤¸ à¤§
v i
Ġ16 89
à¤° à¤¸à¤®
Ġa n
Ġ17 15
Ġ175 9
à¤Ĺà¤¨ à¤µ
à¤² à¤Ĩà¤īà¤Ł
à¤¯à¤° à¤ļ
à¤¯ à¤ľà¤²
Ġà¤īà¤ª à¤ķà¤²
à¤¸à¤« à¤²à¤¤
18 14
Ġ17 64
m m
à¤¡à¤° à¤¨
à¤ı à¤¦
Ġà¤® à¤²à¤ķ
" -"
Ġà¤ı à¤ĵ
Ġà¤ĸ à¤¤à¤¨
Ġ16 90
Ġ30 5
Ġ Ðļ
Ġ on
Ġ9 11
x x
à¤¾à¥¤ -
o t
à¤¯ à¤¥à¤¨
Î± Î½
Ġ17 67
Ġà¤¨ à¤¡
18 33
ÑĤ Ð¸
à¤ıà¤² à¤ľ
Ø ±
à¥¤.. ]
Ġ25 5
à¤ī à¤¹
Ġà¤ħà¤® à¤°à¤¤
Ġ3 75
à¤ĩà¤² à¤Ł
Ġ2 19
à¤¤ à¤²à¤µ
Ġà¤ī à¤Ī
à¤¡à¤² à¤®
Ġà¤ı à¤¥à¤°
à¤ļ à¤¤à¤°
Ġà¤Ĩà¤° à¤µ
Ġ175 6
à¤¬ à¤ĸ
Ġ ÑĩÐµ
Ġ16 80
Ġà¤ħà¤µ à¤¤à¤²
à¥Ĥà¤ģ ;
à¥ĩà¤Ĥ ")
à¤« à¤²à¤°
à¤Łà¤² à¤ķ
à¤¸à¤ķ à¤²
à¤¾à¥¤ .
Ġà¤ıà¤¡ à¤ķ
à¤¡à¤ķ à¤µà¤°
Ð» Ðµ
, )
c l
Ġà¤« à¤ķ
à¤°à¤® à¤ªà¤°
Ġ --
à¥Ģ' ,
à¤Ĩ à¤£à¤µ
Ġà¤ĵà¤µà¤° à¤¡
ÑĢ Ð¾
à¥ĩà¤Ĥ "à¥¤
Ġà¤¬ à¤°à¤ķ
Ġ40 1
Ġà¤¢ à¤¹à¤¨
à¤Ĳ à¤¨
à¤īà¤ªà¤¨ à¤Ĺà¤°
à¤ª à¤°à¤¤
Ġà¤ĵ à¤«
Ñģ Ð°
18 31
Ġà¤ıà¤² à¤Ł
à¥Ģ ?"
Ġà¤ħà¤¨ à¤µà¤°
à¤µà¤° à¤¨
Ġà¤ı à¤Ĺà¤¨
à¤ıà¤¨ à¤¹
à¤¬ à¤Łà¤¨
Ġà¤² à¤µà¤²
à¥ĩà¥¤ âĢĿ
: :
à¥ģ /
ĠÎ º
à¤¯à¤¨ à¤®
Ġà¤¡ à¤¡à¤²
à¤® à¤°à¤²
à¤° à¤ĺ
à¤ģ ",
à¤ªà¤° à¤°
Ġà¤¦ à¤¬à¤¦à¤¬
à¥Īà¥¤ <
Ġ" #
Ġ" >
Ġà¤ĩ à¤¯à¤°
Ù Ĩ
Ġà¤® à¤ª
Ġà¤ı à¤¹à¤°
Ġà¤Ĳ à¤²
Ġà¤ıà¤¶ à¤°
à¤ķ à¤¤à¤°
Ġ6 000
à¤® à¤ªà¤¤
à¤¯à¤® à¤¸
Ġ22 3
Ġà¤¦ à¤¹à¤²
Ġà¤ĵ à¤¸à¤µ
Ġà¤Ĩ à¤¬à¤°
Ġà¤ľà¤² à¤Ń
Ġ23 2
? )
h e
ÑĢ Ðµ
à¤Ĩ à¤¸à¤ª
à¤¼ ")
18 21
à¤ı à¤²à¤µ
Ġà¤²à¤µ à¤£à¤¤
Ġb c
à¤µà¤° à¤Ł
c om
à¥ĩà¤Ĥ /
ÑĢ Ð°
er e
à¤ķ à¤®à¤²
à¥ģ '
Ġà¤ħ à¤¹à¤®
Ġ16 48
Ġ23 4
Ġà¤Ĳ à¤¡
à¤µ à¤²à¤¨à¤¶
18 28
à¤¼à¥ĭà¤Ĥ "
18 25
m i
à¤°à¤ľà¤¨à¤¨ à¤ķà¤°
à¤¡ à¤²à¤¬
Ġ22 8
Ġk m
à¤¯à¤¨ à¤ķ
à¤® à¤¸à¤°
Ġ3 16
ff ff
à¥Ī) ;
17 0
Ġà¤ĩ à¤ĵà¤¨
Ġà¤² à¤¹à¤¸
Ġà¤¹ à¤¨à¤¨
Ġà¤ħà¤® à¤²
18 24
Ġ175 7
à¥Īà¥¤.. ]
à¤¨ à¤®à¤ķ
à¤Ĺà¤° à¤ª
5 50
à¤ªà¤¤ à¤¨
à¤Ĩ à¤ī
2 40
i e
f m
à¤Ĺà¤ł à¤¬
Ġ14 6
à¤° à¤Łà¤¨
Ġ16 42
Ġà¤ī à¤Ľà¤²
Ġà¤ıà¤®à¤ıà¤² à¤ıà¤¸
Ġ HTTP
Ġà¤¹à¤° à¤Ĺ
à¤ı à¤®à¤ķ
à¤ĺà¤Łà¤¨ à¤ķ
Ġ24 5
à¤Ī à¤¹
à¤¾à¤ģ ;
18 29
Ġ16 70
Ġà¤ı à¤¶à¤ķ
Ġ26 2
Ġ3 22
Ġ24 2
à¥Ī --
r a
Ġà¤ĩ à¤ķà¤²
Ġà¤ıà¤¨ à¤¡à¤¬
Ġ7 20
14 5
à¤ħ à¤ħ
Ġ17 10
Ġà¤ªà¤° à¤¨
à¥Ģ" .
i k
18 10
à¥į -
Ġà¤ĩà¤¨ à¤«
% %
u b
à¤Ń à¤§
à¤ıà¤ķ à¤¤
à¤ĩ à¤ªà¤¨
à¥Ģà¤ĥ "
Ġà¤®à¤¨ à¤Ĺà¤¢
à¤ĩà¤¨ à¤Ł
Ġ3 12
Ġ23 8
ĠØ §
Ġ4 30
Ġà¤ıà¤¨ à¤¡
Ġà¤ħ à¤¬à¤°
c c
Ġà¤ĩà¤¨ à¤¬
Ġà¤Ĩà¤Īà¤ıà¤¸ à¤Ĩà¤Īà¤ıà¤¸
à¤« à¤°à¤²
o p
1 19
Ġ175 4
à¤¾à¥¤.. "
Ġà¤ĩà¤² à¤¸
6 50
Ġ24 7
Ïģ Î¹
18 26
it h
Ġà¤¯ à¤ª
à¤Ń à¤ľà¤¨
Ġà¤ªà¤° à¤¡
Ġr e
à¤¼ à¥ģà¤Ĥ
à¤ĵ à¤¥
Ġ25 1
à¤ģ -
Ġà¤Ĩà¤° à¤Ł
Ġ16 88
Ġ16 61
Ġ29 5
Ġà¤Ĳ à¤°
18 18
à¤ĩà¤² à¤ķ
i b
à¥¤" (
Ġà¤ľ à¤²à¤°
Ġ23 9
à¤² à¤°à¤¹
à¤ħ à¤¡
12 4
à¤¹ à¤²à¤¨
à¤Ĩ à¤°à¤¬
Ġ22 7
à¤¶ à¤°à¤£
Ġ26 5
Ð» Ð¸
Ġà¤¹à¤ł à¤§à¤°
Ġà¤ıà¤¡ à¤ľ
Ġà¤ķà¤ł à¤«
Ġà¤ĸ à¤¸
Ġ22 6
l d
Ġà¤ī à¤łà¤¨
à¤¹ à¤¡à¤¸à¤¨
à¤ĩ à¤°à¤µ
12 8
à¥ĥ .
/ -
à¤² à¤°à¤¸
Ã ¨
Ġà¤ıà¤¨ à¤Ł
12 1
Ġà¤ıà¤¯à¤° à¤®
à¥ĭà¤Ĥ ?
Ġ26 4
Ġ7 47
à¥ĭà¤Ĥ ]
à¤¤ à¤²à¤ķ
Ġi t
c a
à¤ļ à¤®à¤¤
18 27
à¤¤à¤ķ à¤°à¤£
Ġ30 8
à¤Ĩ à¤ķà¤¨
à¤ı à¤¹
, à¥¤
à¥Īà¤Ĥà¥¤" "
Ġà¤®à¤¤ à¤²
Ġà¤¸à¤° à¤ª
ĠÎ´ Îµ
Ġà¤° à¤®à¤¨
Ġà¤Ĩà¤Ī à¤ıà¤²
à¤ĩà¤¨ à¤ª
à¤®à¤² à¤ķ
à¤Ī à¤Ĩà¤Ī
Ġà¤Ĩà¤° à¤¡
à¤Ĩà¤¨ à¤ľ
Ġ22 9
à¤µ à¤°à¤¤
à¤« à¤¨à¤°
à¤ħ à¤¸à¤²
Ġà¤ħà¤ª à¤Ł
à¤¸ à¤¹à¤¸
18 13
Ġà¤ĩà¤¨ à¤¹
à¤ķà¤Ł à¤Ĺ
à¤ı à¤¤
à¤°à¤¸ à¤²
Ġà¤ħà¤² à¤¹
3 75
à¤¼ ;
Ġ25 2
t er
à¤ĥ )
à¤µ à¤¹à¤¤
Ġà¤ħ à¤¦à¤®
Ġ6 40
Ġr h
Ġ P
" /
Ġ17 07
ÑĢ Ð¸
Ð½ Ð¾
Ġ28 5
y s
à¤ĸ à¤ļ
à¤īà¤¨ à¤Ĺ
17 5
Ð» Ð¾
Ġà¤ļ à¤¨
à¤¾à¤Ĥ -
à¤Ĺ à¤£à¤¤
18 22
ÏĦ Îµ
8 50
18 01
à¤ª à¤µà¤°
à¥Ģ" ;
Ġ175 3
à¤¸à¤° à¤¸
à¥Ģà¤Ĥ ?
Ġ3 90
à¤Ĺ à¤°à¤¸
Ġ24 3
Ġà¤ı à¤Ĩà¤°
Ġà¤Ĩ à¤ĩà¤¨
Ġà¤ıà¤ķ à¤¦à¤®
à¤Ī à¤ıà¤¸
Ġà¤Ĩà¤® à¤¦
à¤µà¤² à¤ª
à¤ıà¤® à¤ıà¤ķ
à¤Łà¤¨ à¤¹
Ġ16 85
.. /
h z
Ġà¤¸ à¤°à¤µ
à¤²à¤¨ à¤ķ
Ġà¤Ī à¤¥à¤°à¤¨
Ġà¤¶ à¤Ł
à¤® à¤¸à¤®
dcdc dc
à¤°à¤¹ à¤¸à¤¨
Ġà¤Ń à¤Ĺà¤¦
18 03
à¤§à¤¶ à¤¤à¤ķ
18 23
Ġ24 1
Ġ17 27
à¤ľà¤¨ à¤Ĺà¤£à¤¨
à¤ªà¤² à¤ļ
à¤° à¤µà¤¨
Ġà¤¹ à¤¶
Ġ28 7
Ġà¤ıà¤¸ à¤¯
Ġ33 3
18 06
Ġ17 47
" ]
Ġà¤ħà¤µà¤¸à¤° à¤µ
18 19
. ;
à¤¼ ),
17 90
P S
à¤Ĩ à¤ĩà¤²
Ġ4 70
Ġ15 40
à¤¤ à¤®à¤¸
15 00
Ġ17 41
à¤ł à¤µ
à¤ī à¤¨à¤°
Ġà¤ķà¤° à¤ĺ
Ġ16 10
Ġà¤īà¤¬ à¤²à¤¤
in ch
3 80
n g
à¤¼ à¥Ģà¤Ĥ,
à¤ıà¤¸ à¤ıà¤¨
v ii
à¤®à¤¨ à¤°
Ġ3 28
à¤¥ à¤°à¤¹
à¤¸ à¤¡à¤°
Ġ", ",
à¤ıà¤¸à¤ı à¤ıà¤«
18 09
à¤ıà¤² à¤¡
14 8
- ,
Ġ23 6
à¤ª à¤Łà¤ķà¤¥
Ġ3 13
Ġw as
3 30
à¤°à¤® à¤²
Ġ23 7
à¤ĩà¤¡ à¤ķ
i a
Ġà¤Ńà¤Ĺà¤¦ à¤¡
à¤¸ à¤Ĭà¤¦
Ġ15 50
à¤ľ à¤¯à¤¨
ill ion
Ġ N
à¤ķ à¤ħà¤µ
à¤¾ à¥ħ
à¤ĩà¤¸ à¤¬à¤°
à¥¤ )à¥¤
à¤ĸ à¤µ
Ġ" :
Ġà¤« à¤«
à¤ħ à¤¨à¤¸
Ïģ Î±
Ġ( ~
Î ¼
à¤· à¤Ń
à¤·à¤£ à¤¤
à¤ĩà¤¬à¤° à¤®
Ġ25 4
Ġà¤°à¤¨ à¤ĳà¤«
à¥Ģà¥¤ âĢĿ
à¤ħ à¤¨à¤ķ
Ġ5 12
Ġ30 4
Ġ3 21
u d
Ġà¤¹ à¤ķà¤²
Ġà¤¶ à¤¹à¤¤
Ġà¤ĳ à¤²à¤°
< >
Ġà¤Ĩà¤Ī à¤ľ
à¥¤" "
à¤ļ à¤Ĺ
à¤ī à¤¶
Ġ3 11
Ġ16 43
- >
Ð½ Ðµ
< ...>
Ġ4 10
Ġà¤ªà¤¨ à¤ª
Ġs p
Ġà¤¬ à¤¸à¤°
Ġ+ ,
Ġà¤ĳ à¤¯à¤²à¤°
à¤¾à¥¤ ",
à¤Łà¤° à¤¸à¤¬à¤°
à¤ªà¤¨ à¤¡
Ġà¤īà¤² à¤Łà¤«
Ġa r
Ġà¤ıà¤¨ à¤Ĩà¤°à¤ıà¤²
o g
27 0
à¤¡ à¤Ĺà¤µ
ĠC E
à¤ª à¤²à¤®
... |
Ġà¤¤ à¤¦à¤°
Ġ28 1
à¥Ģ) "
à¤¨ à¤«à¤°
Ġ17 46
Ġà¤µà¤¨ à¤Ń
Ġ15 80
Ġ16 62
Ġà¤Ī à¤¶à¤¨
Ġ175 2
6 25
Ġà¤Ī à¤¥
Ġ16 41
17 89
Ġ25 8
Ġ24 9
à¤¡ à¤¯
Ġà¤ıà¤¯à¤° à¤¶
Ġà¤ĵà¤µà¤° à¤ª
Ġà¤ĩ à¤¨à¤°
Ġ17 48
Ġ16 44
p l
à¤¸ à¤Łà¤¸
i st
Ġ24 8
Ġà¤° à¤¨à¤Ł
12 2
à¤Ĥ '
Ġà¤² à¤¥
à¤²à¤® à¤Ł
à¤ª à¤µà¤¨
Ġà¤¡ à¤ľ
à¤ľà¤¨ à¤®à¤¤
Ġà¤ıà¤¡ à¤¸
i x
Ġc on
HTTT PS
Ġà¤ħà¤ľ à¤¯
Ġ24 6
Ġ30 9
Ġ80 2
à¤µ à¤£à¤ķ
Ġà¤¡ à¤®à¤«
à¥Īà¤Ĥ, "
à¤¾' à¥¤
Ġ27 2
Ġb y
à¤ĩà¤« à¤¸
18 16
à¤ĩà¤« à¤¬
à¤Ĺ à¤¥
Ġ17 01
Ġ24 4
18 04
Ġ', '
Ġ10 86
18 08
12 7
à¤Ĩ à¤ªà¤¦
13 8
Ġà¤ıà¤¬ à¤°à¤ķ
ic e
Ġà¤ħ à¤¦à¤¨
Ġà¤ĳà¤Ĺà¤¸ à¤¬à¤°
à¤Ĺ à¤Ī
à¤ıà¤¨à¤ıà¤¨ à¤ıà¤¨à¤ıà¤¨
à¤ıà¤¸ à¤Ĩà¤Ī
à¤ªà¤¤ à¤²
17 95
Ġà¤ļ à¤ķà¤®
Ġxv iii
Ġ25 3
Ġà¤¬ à¤ľà¤¨
à¤· à¤µ
Ġa s
18 17
Ġ27 3
Ġ16 45
à¤ĳ à¤¬
Ġà¤ĳ à¤°à¤µ
% à¥¤
b er
Ġ17 42
Ġ ÑĤÐ¾
à¥¤ <
Ġà¤¤à¤° à¤²à¤¤
00 1
Ġà¤ĵ à¤ķà¤µ
à¤ī à¤²à¤°
Ġà¤ļà¤®à¤ķ à¤¨
Ġ15 90
Ġ25 7
Ġ160 3
à¤ı à¤ķà¤°
Ñĩ Ð°
t a
Ġ4 25
Ġ5 40
Ġ9 50
Ġà¤ı à¤µà¤¨
Ñ ĭ
à¤ĩ à¤§à¤°
at e
Ġ5 20
à¤¨ à¤ĳà¤«
à¤¾à¥¤" à¥¤
' "
Ġ26 1
à¤ĩà¤ªà¤° à¤¬
Ġà¤īà¤Ī à¤ĺ
18 05
Ġ3 14
Ġ17 13
Ġ17 22
jj jj
à¤°à¤¸ à¤¤
12 6
à¤Łà¤¨ à¤¸
à¥Īà¤Ĥ "à¥¤
à¤Ī à¤Ĩà¤Īà¤Ĩà¤Ī
à¤ıà¤ļ à¤ıà¤²
Ġà¤®à¤¹ à¤¦
Ġ27 8
13 4
à¥Ī" ;
Ġà¤ĩ à¤¹
à¤°à¤¹à¤£ à¤¶
-------------------------------------------------------------------------------------------------------------------------------- ----------------------------------------------------------------
Ġà¤²à¤¥ à¤ªà¤¥
Ġxv i
Ġ175 1
Ġ17 49
à¤¨ à¤ĵà¤µà¤°
Ġ( *
à¤¨ à¤¸à¤®
ou r
22 5
à¤ħ à¤ł
Ġ30 7
Ġ16 49
18 07
Ġà¤ĵ à¤ªà¤¸
Ġà¤ķà¤¹ à¤²
. '
à¤ĩ à¤ĵ
Ġ15 70
à¤ı à¤ıà¤®
20 5
à¤¦à¤° à¤¨
Ġà¤Ĭ à¤Ł
Ġe x
g e
q u
ĠÃ İ
à¤¥ à¤¸à¤¨
2 30
Ġ202 6
à¤Ĩà¤Ī à¤ķ
Ġ15 60
Ġ27 1
Ġà¤ĵ à¤°à¤®
Ġà¤ıà¤ļ à¤ķ
15 5
Ġà¤ĳ à¤µà¤°
à¤¹ à¤°à¤ķ
Ġ17 34
Ġà¤ī à¤«
Ġà¤ħà¤¸ à¤¤
18 02
Ġà¤ħà¤ľ à¤®
Ġà¤ĵ à¤¸à¤®
à¤ħ à¤²à¤¬
Ġh e
à¤ĺ à¤²à¤¤
Ġà¤ĵ à¤Ĺà¤²
à¤¨à¤ķ à¤¨
13 3
à¤°à¤µ à¤¤
à¤§ à¤Ĺà¤®
18 11
es s
à¤° à¤ıà¤µà¤°
à¤¬ à¤¨à¤°
12 9
% -
à¤ĩ à¤ķà¤¨
Ġà¤¸à¤ļ à¤®
à¤¿à¥¤ "
Ġ( ,,
Ġà¤ħà¤¨ à¤¬
Ġà¤®à¤ł à¤µ
Ġà¤Ĩà¤ī à¤Łà¤¬
Ġ17 17
o k
Ġ17 14
à¥Ī /
Ð» Ð°
à¤¯à¤° à¤¬à¤°
16 00
Ġà¤ĵà¤° à¤Ł
17 98
Ġ3 19
à¤Ł à¤¯
à¤¯ à¤¸à¤²
23 5
à¤ıà¤® à¤ıà¤®
à¤¸ à¤¯
à¤¬ à¤Łà¤²à¤°
Ġà¤īà¤ª à¤µà¤°
Ġ17 08
à¤µ à¤£
15 2
à¤¸à¤Ĺ à¤¢
à¤Ĩ à¤°à¤ľ
à¤§à¤¨ à¤µ
Ġà¤¸ à¤¬à¤²
à¥Ģ. ;
Ġ28 8
à¥Ĥà¤Ĥ "
à¤¨ à¤Łà¤°
16 7
à¤ĩ à¤ı
Ġ17 02
à¥¤.. "
Ġà¤¤ à¤¬à¤°
à¤Ĩ à¤¯à¤¤
à¤ķà¤° à¤¸à¤¨
! '
Ġ26 8
à¤ľ à¤Ī
Ġà¤° à¤ĺ
à¤¼à¥Ģ ",
Ġ6 80
à¤¦ à¤°à¤®
Ġ17 44
Ġà¤ıà¤¶ à¤µ
Ġà¤ī à¤¶
Ġ26 7
à¤ı à¤¯
à¤ĵà¤ĵà¤ĵà¤ĵà¤ĵà¤ĵà¤ĵà¤ĵ à¤ĵà¤ĵà¤ĵà¤ĵà¤ĵà¤ĵà¤ĵà¤ĵ
Ġ3 45
Ġà¤ıà¤« à¤¡à¤¬
26 0
Ġ28 6
p s
</ ...>
Ġ27 7
Ġ3 23
à¤ļ à¤Łà¤¨
% )à¥¤
Ġ3 24
17 99
Ġà¤ħà¤µ à¤¯à¤µ
à¤¸à¤ļ à¤®
à¤® à¤ķà¤°
Ġ17 35
Ġ26 3
, '
à¤¬ à¤ľà¤Ł
à¤Ĺà¤° à¤²
Ġà¤ıà¤® à¤¡
à¤« à¤¸à¤²
Ġ17 25
Ġà¤® à¤¹à¤°
13 2
> ;
à¤µà¤° à¤¯
Ġ17 39
13 1
Ġ17 43
à¥ī -
Ġà¤° à¤¤à¤¨
28 0
à¤² à¤¡à¤²
Ġà¤¬ à¤Łà¤°
à¤ľ à¤ĺà¤°
à¤Ĺà¤° à¤¨
à¤¨à¤¹ à¤¸
Ġ" <
17 94
à¤µà¤ľ à¤µ
Ġà¤ĳ à¤°à¤®
g k
à¤Ĩ à¤µà¤°à¤£
Ġxi v
à¤¸à¤¹ à¤ľ
m e
Ġ() ;
à¤«à¤² à¤Ĺà¤°
à¤ı à¤Ī
14 4
ÑģÑģÑģÑģ ÑģÑģÑģÑģ
13 6
Ġ27 6
Ġs h
à¤¼à¥Ģ /
#### ####
------------------------------------------------------------------------------------------------------------------------------------------------------------------------------------------------ --------------------------------
Ġà¤® à¤¦à¤¨
Ġ16 25
à¤¸à¤® à¤¤
Ġ" à¥¤..
i f
15 4
Ġv iii
à¤Ĺ à¤¨à¤²
Ġ17 18
ĠB C
à¤¤ à¤¸à¤°
Ġ[ à¥¤..]
17 93
13 7
à¤ĩà¤¨ à¤¨
à¤¡ à¤¶à¤°
à¤Ł à¤¬à¤¸
Ġà¤¬ à¤¬à¤²
à¤¨à¤µ à¤¶
Ġ16 66
Ġà¤Ń à¤°à¤£
Ġ16 72
à¤Ĩ à¤ĩà¤ķ
Ġ40 5
Ġà¤µ à¤¤à¤¨
Ġno t
Ġà¤¤ à¤¹à¤°
ĠØ§ ÙĦ
Ġà¤ıà¤¬à¤° à¤¹
à¥Ī? '
Ġà¤¸ à¤¬à¤®
Ġ16 29
à¤¯à¤¨ à¤°
Ġ3 31
ĠÏ ģ
Ġ26 6
à¤ķà¤¨ à¤¹
17 92
al l
à¤¾ ]]
à¥ĩ" -
Ġà¤¡ à¤Łà¤¨
Ġà¤Ĩà¤¯ à¤¶
Ġ3 95
à¥Ģ; "
Ġ3 27
Ġ3 18
Ġà¤ĳ à¤®
à¤¨ à¤¤à¤°
Ġ16 38
14 1
à¥Ī? âĢĿ
à¤Łà¤° à¤ľ
à¤¬ à¤²à¤µ
Ġ16 35
Ġà¤Ĩà¤Ī à¤¬
Ġ15 30
à¤¯à¤² à¤ķ
à¤¾à¤ģ !
Ġ17 37
Ġ27 4
Ġ or
à¤¼ à¥ĩà¤Ĥ"
Ġ16 83
Ġà¤® à¤ķà¤¸
Ġ3 17
à¥Ĥ. /
Ġà¤ĳà¤« à¤²
)à¥¤ "
Ġà¤ıà¤² à¤¡
Ġ16 79
à¤ĩà¤Ł à¤ķà¤°
") ;
à¤ı à¤¶à¤²
Ù Ī
Ġà¤¡à¤° à¤ª
en d
Ġà¤ıà¤« à¤ı
Ġ6 30
à¤ķà¤° à¤²
Ġà¤¹à¤Ł à¤¤
à¥ĩ, "
16 5
Ġà¤ħà¤² à¤¡
Ġà¤ķ à¤«à¤¨
Ġ30 2
ĠâĤ ¹
à¤Ł à¤²à¤¬
18 2
à¤Ĩà¤° à¤¡
à¤¨à¤¨ à¤¬à¤°
à¥¤ à¥¤"à¥¤
à¤ĸà¤° à¤Ĺ
Ġà¤Ł à¤¨à¤²
à¤ĩ à¤ªà¤¸
Ġà¤ľà¤² à¤¸
Ġà¤ıà¤² à¤«
Ġ16 21
à¤¾' )
Ġ17 24
Ġà¤° à¤¨à¤¸
à¤Ĩà¤Ī à¤Ł
Ġà¤ħ à¤¦à¤°
à¤¯à¤¨ à¤¨
à¥Ģà¥¤ .
à¤¸ à¤ªà¤°
' -
à¤¬ à¤¹à¤°
à¤ķà¤° à¤«
Ġ17 33
Ø ¯
Ġà¤Ī à¤¡à¤¨
à¤Łà¤ķ à¤Ł
à¤Ĩà¤Ī à¤ıà¤²
Ġ16 65
à¤ķà¤° à¤¸
Ġ( =
Ġà¤ı à¤Łà¤®
Ġà¤ı à¤Łà¤¨
Ġ16 28
Ġa l
Ġ17 23
à¤¬à¤° à¤Łà¤¨
Ġ17 04
Ġ26 9
à¤¤à¤ķ à¤¥
à¥Ĥà¤Ĥ ",
Ġà¤ıà¤¯à¤° à¤¡
à¤¾, '
à¤¨à¤° à¤²
à¤°à¤ķ à¤¨
Ġà¤ªà¤¨ à¤ªà¤¤
à¤¡à¤° à¤«
Ġ28 3
Ġ160 9
à¤ħà¤ª à¤µ
Ġ28 2
Ġ G
r an
Ã Ĺ
à¤¸ à¤Ĩà¤Ī
Ġ16 92
à¥Ĥà¤ģ -
à¤Ĺà¤° à¤«
à¤°à¤® à¤ķ
Ġ17 19
à¤¯à¤® à¤¶
à¤ĺà¤® à¤Łà¤¨
à¤¸à¤® à¤®
Ġà¤®à¤¦à¤° à¤µ
Ġ Ðµ
à¤¹ à¤ļ
Ġ16 64
à¥Īà¥¤" (
Ġà¤ī à¤°à¤ķ
Ġ17 32
à¥Ģ |
Ġà¤¹à¤¥ à¤ķà¤¡
Ġ17 28
à¤¾à¥¤" (
Ġà¤° à¤£
Ġà¤¸ à¤¯
Ġà¤ĵ à¤¥
Ġà¤¨ à¤°à¤µ
à¤ı à¤¯à¤°à¤²
c o
Ġ40 4
à¤¤ à¤²à¤¬
3 000
17 96
8 75
Ġ16 75
Ġ| |
Ġà¤Ĩà¤¯ à¤²
à¤·à¤ķ à¤¹
Ñĩ Ð¸
Ġ5 60
Ġà¤Ł à¤¹à¤²à¤¨
Ġà¤ıà¤¶ à¤«
15 6
Ġà¤¸à¤¹ à¤ľà¤¤
à¥Ģ" )à¥¤
à¤Ń à¤ķà¤°
Ġ16 59
Ġ160 4
à¤ı à¤ıà¤¸
Ġ16 54
18 8
Ġà¤¬ à¤°à¤µ
Ġà¤¬à¤°à¤¤ à¤¨
Ġà¤¦ à¤²à¤®
à¤ı à¤¨à¤²
à¥Ī) "
Ġ33 5
4 20
à¤¼ à¤¾à¥¤"
Ġà¤ļà¤² à¤ķà¤°
à¤ıà¤¨ à¤¡à¤¬
Ġ35 5
d d
Ġ+ )
à¤¡ à¤ħà¤ª
à¤ĵ à¤¤
Ġ17 11
Ġ5 30
à¤¤ à¤¯
Ġ' '
Ġ16 24
15 3
à¤¿ ]
à¤ķà¤Ĺ à¤µà¤°
Ġ16 22
à¤ľ à¤¸à¤¨
Ġ17 03
à¥Ĥ !
à¥Īà¤Ĥ '
à¤ķ à¤ļà¤°
Ġ16 46
Ä ĵ
à¤¸ à¤ıà¤¸
14 3
Ġm i
Ġà¤¸à¤° à¤Ĺ
à¤ĩ à¤Ŀ
à¤Ĭ à¤¨
à¤¬à¤² à¤¸
à¤¬ à¤ķà¤²
Ġà¤¸à¤®à¤¯ à¤¬à¤¦
Ġ28 4
l a
Ġà¤µà¤¨ à¤ª
17 97
33 3
à¤īà¤ª à¤¹
Î¹ Îº
Ġà¤ıà¤¨ à¤ıà¤ķ
à¥ĩ- "
à¥į à¤ĥ
Ġà¤ıà¤ķ à¤µ
Ġà¤¹à¤® à¤ľ
à¤¡ à¤ĵà¤µà¤°
Ġ25 9
Ġà¤ĵ à¤¦
Ġ16 34
à¤īà¤¥ à¤¶
à¤¼à¤¼à¤¼à¤¼ à¤¼à¤¼à¤¼à¤¼
Ġ29 9
r y
] )
re s
à¤ª à¤®à¤¤
à¤Ĺ à¤§
Ġ17 38
Ġ16 53
Ġ16 97
à¤ĩà¤« à¤²à¤®
20 2
Ġ17 21
Ġà¤ıà¤² à¤®à¤°
Ġà¤ıà¤ļ à¤Ł
à¤¡ à¤Ĺà¤¨
Ġ17 16
Ġ7 000
Ġ35 7
Ġ17 05
Ġà¤ħà¤¨ à¤ªà¤¢
Ġ17 36
Ġ16 63
Ġà¤ªà¤¥ à¤ª
à¤ľ à¤°à¤µ
à¤ľ à¤Ĺà¤¹
à¤¼à¥ĩ .
Ġà¤ıà¤« à¤¬
à¤ķ à¤¹à¤¤
Ġ27 9
Ġà¤Ĩ à¤Ĺà¤°
Ġ16 11
ar t
à¤¦à¤² à¤¦à¤²
17 00
Ġ29 3
Ġ29 1
27 5
Ë Ĳ
à¤« à¤¶
99 9
Ġà¤°à¤ĸ à¤ķà¤°
à¤Ł à¤Ńà¤ķ
à¤ħ à¤ªà¤¶
à¤¼à¥Ģ ;
à¤Ĩà¤Ĩ à¤Ĩà¤Ĩ
à¤ļ à¤ħà¤ª
à¥ĭà¤Ĥ ;
Ġ16 95
14 9
Ġ15 20
Ġà¤¸ à¤¨à¤¬à¤°
à¤¾; "
à¥ĭ ?"
Ġà¤¬à¤¨ à¤°
Ġ16 51
Ġ3 26
à¤¨ à¤¡à¤¨
à¤® à¤Ľ
Ġà¤ĵà¤µà¤° à¤¡à¤¬
Ġ16 52
Ġ28 9
Ġx l
Ġ17 09
17 80
à¤¦ à¤¸à¤µ
à¤¾à¥¤.. ]
à¤¼ à¥Ģ.
Ġà¤ļ à¤Łà¤°
à¤¶à¤¨ à¤Ń
Ġà¤¤ à¤²à¤¨
à¤¦à¤¨ à¤¡
Ġà¤ĵ à¤ªà¤²
Ġà¤Ĩà¤° à¤ľ
u k
Ġà¤Ł à¤ļà¤¸
Ġà¤ľ à¤®à¤¨
Ġ16 67
Ġ23 1
Ð¼ Ðµ
Ġà¤ıà¤ķ à¤°à¤®
Ġ+ "
y y
Ġ16 99
Ġ33 8
à¤°à¤ķ à¤¤
p m
à¤ħ à¤¸à¤¦
Ġ17 12
Ġ16 05
à¤ªà¤¨ à¤°
17 76
Ġà¤ľ à¤Łà¤²
Ġà¤ħ à¤ľà¤¨
Ġ40 3
à¥ĭà¥¤ ,
Ġ17 31
Ġ ^
15 1
23 2
à¥ĩ) ;
à¤¹ à¤¸à¤ª
Ġ10 80
à¥Ģà¤Ĥ '
Ġà¤µà¤° à¤¦
Ġ5 10
Ġà¤ıà¤¡à¤® à¤¸à¤¨
Ġ(, ;
3 70
à¥ģ ")
à¤ķà¤¨ à¤¥
à¤ĩ à¤²à¤¬
Ġ35 1
;;;; ;;;;
3 40
Ñĩ Ð¾
Ġà¤« à¤¤à¤¹
à¤²à¤° à¤¬
Ġ16 55
à¥ģ ),
Ġà¤ķà¤° à¤£
Ġà¤ķà¤Ł à¤µ
Ġà¤ĩ à¤ķà¤¤
à¤¼à¤¾ ",
Ġ5 80
Ġà¤ĸ à¤°à¤¬
Ġà¤ıà¤ļ à¤ıà¤¸
Ġà¤ķà¤ª à¤²
a a
à¤¡ à¤Łà¤¨
Ġà¤§ à¤°à¤¨
à¤ĵ à¤ķà¤¸
14 7
à¤ıà¤² à¤®
Ġw ith
à¤µ à¤¥
Ġ16 58
... ]
Ġ12 50
à¥Ĥà¤ģ !"
ĠÂ ·
e k
à¤ģà¥¤ "
Ġ16 56
à¤ĩà¤ªà¤° à¤Ł
à¤°à¤® à¤¯
à¤¤à¤¨ à¤®
Ġ38 5
Ġà¤¸à¤° à¤¬
2 15
à¤Ĩà¤ľ à¤ķà¤²
Ġà¤« à¤°à¤¹
Ġà¤° à¤®à¤ľ
Ġà¤ĵà¤µà¤° à¤¬
Ġà¤ľ à¤ª
17 88
20 6
Ġ16 23
Ġ8 000
] |
à¤ı à¤¬à¤²
Ġà¤ħà¤² à¤¬à¤°
Ġ16 82
Ġ E
17 91
à¤ķ à¤®à¤¸
Ġ16 32
ar d
à¤Ĥ ",
à¤¹à¤¨ à¤¹
Ġ35 6
à¥Ģà¥¤ ",
à¤¸à¤² à¤«
à¤Ī à¤¨à¤²
à¤®à¤¨ à¤¨
Ġ160 7
Ġ16 47
Ġà¤Ī à¤ĵ
à¤ ±
Ġ16 39
Ġà¤² à¤¬
à¥Ĥà¤Ĥ -
à¤¿" à¥¤
Ġ17 29
à¤ķà¤² à¤ķà¤°
Ġ16 26
à¤¬ à¤§
à¤§ à¤®à¤ķ
Ġ16 37
à¤²à¤Ĺ à¤ĩà¤¨
Ġ14 50
Ġ" ;"
Ġ4 15
à¤¤à¤¨ à¤Ń
à¤ĵ à¤®à¤°
à¤¬ à¤°à¤ķà¤²
25 6
à¤« à¤¬à¤°
Ġ29 2
à¤ħ à¤ĸà¤¬
Ġ29 6
Ġ16 36
à¥ĭà¥¤ ..
Ġà¤® à¤«
à¤ī à¤®à¤°
Ġà¤Ĩà¤° à¤ıà¤¨à¤ı
Ġà¤¤ à¤¬à¤²
Ġà¤ĵà¤ªà¤¨ à¤¹
Ġ33 2
Ġ16 19
s ic
à¤Ń à¤Ł
Ġ6 60
Ġxx iii
' ),
Ġ4 12
Ġ30 6
Ġ16 81
à¤¯à¤¡ à¤Ĺ
b n
Ð¼ Ð¾
Ġà¤ı à¤¸à¤ķ
Ġà¤Ī à¤¦
s i
Ġ16 18
à¤® à¤°à¤¹
Ïģ Î¿
ÏĦ Î¿
Ġ16 74
16 8
Ġà¤ªà¤° à¤ķ
Ġ16 84
à¤° à¤ĸà¤°
à¤ı à¤²à¤¬
Ġà¤īà¤Ľ à¤²à¤¤
20 3
à¤Ĩ à¤ĩà¤µ
Ġ2 13
Ġ16 73
Ġ6 10
Ġ17 26
à¤ī à¤Ĩ
Ġ16 14
Ġ16 33
à¤¾? âĢĿ
à¤¸ à¤«à¤²
Ġà¤Ī à¤ĵà¤¸
à¤Ĳ à¤¶
à¤¿à¥¤ ,
Ġà¤ĩ à¤°à¤®
à¤¡ à¤¹à¤²
Ġ(Â £
à¤ı à¤¥à¤¨
à¤° à¤ªà¤ķ
x e
à¤¨ à¤ĺ
Ġ16 93
4 80
à¤®à¤¨ à¤ķà¤°à¤£
ĊĠĊĠ ĊĠ
Ġà¤ī à¤µ
à¤¾) :
à¤®à¤ķ à¤¬à¤°
à¥Ĥà¤ģà¥¤ ..
Ġà¤° à¤«à¤°
Ġ16 12
Ġ16 98
Ġà¤łà¤¹à¤° à¤¨
20 8
à¤īà¤¨ à¤«
à¤¬à¤° à¤ľ
à¤īà¤ª à¤ĸ
à¤ıà¤¸ à¤ıà¤«
Ġà¤ľà¤¬ à¤²
Ġà¤² à¤µà¤°
à¤§à¤ª à¤°à¤ķ
Î¹ ÏĤ
à¤¸à¤® à¤¯à¤°
Ġ15 36
à¥Īà¥¤" à¥¤
Ġ34 3
in e
à¤ħ à¤¥
Ġ" '
à¤¯à¤° à¤Ĺ
Ġà¤ıà¤¶ à¤¬à¤°
à¤¼à¥ĭ -
r r
à¤¨ à¤ĺà¤°
Ġà¤ı à¤¹à¤¤
Ġà¤ıà¤ļ à¤µ
Ġà¤¤ à¤°à¤£
36 5
ec t
à¤¼ à¥Ĥ,
Ġà¤ĵ à¤ªà¤°
Ġ16 86
Ġà¤« à¤Ĺ
Ġ34 1
v iii
Ġ40 2
Ġ16 78
17 87
b b
13 9
u p
Ġ16 16
Ġ70 7
à¤¦ à¤«à¤¨
à¤¬ à¤ļà¤¤
à¤®à¤¨ à¤®
à¤Ŀ à¤ªà¤¨
Ġà¤ļà¤ª à¤²à¤¤
Ġ5 70
Ġc om
à¤¨à¤µ à¤¸
à¤¬à¤° à¤¬
Ġà¤ľà¤² à¤ļà¤°
Ġà¤ħà¤¬ à¤¨
à¤Ĥà¥¤ "
Ġ4 11
Ð¼ Ð¸
à¤ī à¤ªà¤¦
Ġà¤ıà¤® à¤ľ
14 6
Ġà¤ĩ à¤ľà¤®
à¤¯à¤° à¤Ł
Ġf r
Ð¼ Ð°
Ġ16 13
à¤¡à¤° à¤¥à¤²
3 10
22 2
à¤ķà¤¬ à¤¸à¤¨
ĠX III
9 50
29 5
Ġi v
Ġà¤ĸà¤¸ à¤ĸà¤¸
à¥Ģà¤Ĥà¥¤ ..
16 4
x i
m illion
Ġ29 8
17 83
Ġ' )
à¤¿à¥¤ )
à¤ĩà¤¨ à¤Ĺ
Ġ17 06
Ġ15 85
Ġ33 6
à¤¸ à¤Ĩà¤°
Ġ16 96
Ġà¤īà¤² à¤®
Ġà¤ıà¤¯à¤° à¤Ł
à¤ļ à¤¥
Ġ50 4
Ġ16 27
Ġ160 6
à¤°à¤ĸà¤° à¤ĸ
Ġ35 4
Ġ16 87
Ġà¤ĵà¤µà¤° à¤«
à¤® à¤¬à¤²
à¤ķà¤² à¤Łà¤¨
Ġà¤ķà¤² à¤µà¤°
à¥Īà¤Ĥ- "
Ġ16 76
Ġ15 88
................................................................ ................................................................
à¤¸à¤¨ à¤¬
Ġà¤Ĩà¤° à¤ıà¤¨
16 1
à¥Ĥà¤ģ ?"
Ġ160 1
à¥Ī ',
à¤ĸ à¤ªà¤¤
Ġà¤¶ à¤¶
Ġà¤ĵ à¤Ĩà¤¹
à¤¦à¤® à¤¯
Ġ ii
à¥Ĥ ;
Ġ15 98
Ġ"" )
à¥Īà¥¤ )à¥¤
à¤° à¤¡à¤¸
à¤ĩà¤¨ à¤¡
Ġ15 72
26 4
Ġ35 2
14 2
à¥Ģ >
à¤ĩà¤Ł à¤µà¤°
Ġà¤ħ à¤°à¤ķ
à¤¯ à¤¡à¤ķ
Ġà¤¡ à¤¨à¤¸
Ġà¤ħà¤¨ à¤®
Ġ29 7
Ġ4 21
à¤ıà¤® à¤Ĩà¤Ī
à¤ıà¤Łà¤² à¤¸
Ġ17 9
à¤®à¤¨ à¤µ
17 75
Ġà¤ī à¤ıà¤ľ
Ġ16 91
Ġà¤ħà¤¸ à¤¬
à¤¬à¤® à¤µà¤°
à¥Ī) :
Ä Ł
à¥Īà¥¤ ]"
à¤ĩà¤ª à¤°à¤¸
3 25
à¥ĩ. :
15 7
Ġ44 1
Ġà¤ľ à¤Ĺà¤¨
à¤Łà¤² à¤«
Ġà¤Ķà¤° à¤°
à¤¸ à¤ĳà¤°
" />
à¥ĩà¤Ĥ) ;
à¤ ³
Â §
Ġà¤ıà¤¸ à¤ıà¤ķ
à¤¡ à¤«à¤°
Ġà¤ı à¤Łà¤°
à¤ļ à¤²à¤¤
à¤ķà¤°à¤£ à¤µ
Ġà¤ħà¤¨ à¤µ
Ġ16 94
Ġà¤¯ à¤¨
Ġà¤ıà¤¸ à¤¬
Ġ16 15
à¤ıà¤ļ à¤Ł
à¤ĩà¤¨ à¤µà¤°
Ġ37 7
à¤Ĩà¤Ī à¤¸
2 12
n o
à¤ĩà¤ķ à¤Ł
Ġ38 6
it y
à¤¨ à¤¸à¤²
à¤ī à¤¡à¤«
Ġà¤ıà¤° à¤¡
Ġà¤ĩ à¤ĵà¤¸
-------------------------------------------------------------------------------------------------------------------------------------------------------------------------------------------------------------------------------- ----------------
à¤² à¤Ĺà¤¨
Ġà¤ªà¤°à¤µ à¤²à¤¯
17 7
Ġ7 77
à¤¥ à¤Ł
Ġà¤ªà¤° à¤Ĺà¤¨
4 40
19 2
à¤Ĺ à¤µà¤¤
à¤ı à¤Łà¤ķ
Ġà¤ĩ à¤°à¤¬
Ġà¤ħà¤¨ à¤«
Ġ6 20
à¤¼à¥ĭ "
ÏĦ Î±
Ġ5 25
Ġà¤ĩà¤¨ à¤Ł
à¤ª à¤¶à¤¨
à¤Ĩ à¤°à¤µ
Ġà¤¬à¤¸ à¤¬
el l
Ġà¤ıà¤® à¤Ĩà¤°
Ġà¤ħà¤ª à¤¹
th e
à¤ĩà¤ª à¤°à¤ķ
à¤¼à¥Ģ '
Ġ34 2
Ġà¤ıà¤¶ à¤®
Ġ F
Ġà¤ħ à¤®à¤¨
Ġ16 69
Ġà¤ħà¤² à¤µà¤°
Ġ33 7
Ġ160 2
à¤ī à¤¸à¤®
Ġ16 68
Ġ16 57
à¤ķà¤¨ à¤¬
15 8
16 6
m ent
à¤Ĩ à¤ĩà¤ľ
Ġ34 7
Ġ160 8
à¥Ģ ]]
à¤°à¤¶ à¤°
Ġ15 96
à¤ħ à¤µà¤¤
Ġà¤¬ à¤¦à¤°
Ġà¤¬à¤¦ à¤¤à¤®
,,,,,,,,,,,,,,,, ,,,,,,,,,,,,,,,,
à¤¡à¤² à¤µ
Ġà¤° à¤ľà¤¨
à¤§ à¤Ĺ
Ġ33 9
Ġ36 6
à¤¸ à¤ıà¤®
...| ...|
à¤°à¤¸ à¤µà¤ª
Ġ3 29
Ġ T
à¤¨à¤µ à¤ľà¤¨
Ġà¤ĸ à¤¸à¤°
15 9
à¤Ĥ /
Ġà¤ĵà¤µà¤° à¤ķ
à¤¹à¤° à¤¬
Ġ15 84
Ġ13 50
Ġà¤ı à¤°à¤ķ
Ġà¤° à¤ļà¤¤
à¤¬à¤² à¤¡
à¥ĩ. /
p t
0 50
à¤° à¤Ĺà¤°
Ġà¤¸à¤« à¤°
e st
Ġà¤ª à¤ķà¤¨
Ġ16 77
30 3
à¤ª à¤Łà¤°
à¤ħ à¤ľà¤¨à¤¬
Îµ Î½
Ġà¤ıà¤® à¤²
à¥ĭà¤Ĥ à¥¤"
Ġ4 35
b a
20 4
à¤Ĩ à¤ĩà¤¬
Ġ4 22
à¥Ģà¥¤ -
Ġà¤¤ à¤ľ
Ġà¤ħà¤¸ à¤«à¤²à¤¤
à¥ĩà¤Ĥ) :
Ġ15 97
à¤ıà¤« à¤ıà¤¸
à¤ķà¤µ à¤ļ
Ġà¤§ à¤¨à¤µ
5 000
Ġ Ð°
à¤ıà¤« à¤ª
à¤ı à¤ĵ
Ġà¤µ à¤¡
à¤ıà¤® à¤µ
" à¥¤"
Ġ15 95
Ġ" /
à¤ĩà¤ªà¤° à¤ª
Ġ15 59
." .
Ġ16 17
Ġà¤ĵ à¤ĸ
à¤² à¤®à¤¸
à¤ħ à¤µà¤ķ
à¤Ĺ à¤ĸ
Ġ36 3
Ġp r
Ġà¤Ĩ à¤¹à¤²
1 200
à¤ıà¤¸ à¤ıà¤ķ
à¤Ĩà¤īà¤Ł à¤ª
Ġà¤ķ à¤·
à¥Ĥà¤Ĥ ;
Ġà¤ĳ à¤ļ
Ġ4 16
à¤ıà¤¨ à¤¡
Ġ40 6
} ,
ĠÎ ½
à¤ļ à¤ļ
à¥Ĥ. ),
Ġà¤ħà¤¨ à¤ķà¤¹
s p
à¤Ĩ à¤ķà¤¸
Ġà¤ľà¤² à¤ªà¤ķ
Ġy ou
à¤¨à¤° à¤¶
Ġ$ )
Ġ34 4
à¤ĳ à¤°à¤²
25 5
à¤Łà¤¨ à¤²
Ġ33 4
Ġ15 92
Ġ16 31
29 0
à¤ķà¤°à¤£ à¤ķà¤°
Ġ15 65
% ;
Ġ15 71
2 11
Ġ4 90
Ġ60 1
Ġà¤Ĩà¤Ī à¤¡à¤¬
m l
à¤¨à¤« à¤°à¤¤
t r
t o
à¤ıà¤« à¤ıà¤ķ
Ġà¤Ĩà¤¶ à¤¯
Ð³ Ð¾
16 3
17 70
50 1
à¤® à¤Łà¤¨
Ġ40 7
s q
à¤°à¤® à¤¶à¤ķ
Ġm hz
Ġ4 75
Ġ37 1
à¤ľà¤¯à¤¨ à¤Ĺà¤°
Ġà¤ĵ à¤¡à¤°
Ġà¤Ĩà¤¦ à¤¤à¤¨
18 1
à¥Īà¤Ĥà¥¤ à¥¤à¥¤
. ",
à¤ĸ à¤ķà¤¤
Ġà¤ıà¤¸ à¤¡
") -
à¤Ł à¤ıà¤ķ
Ġà¤¹à¤° à¤¨
à¤¯ à¤ªà¤°
v er
à¤µà¤¨ à¤µà¤°
à¤° à¤Ŀ
à¤µà¤¨ à¤°
c d
16 2
à¤¸à¤® à¤ķà¤ķ
Ġ26 00
à¤ĵ à¤°à¤²
à¤ĩà¤² à¤«
à¤Ĩà¤ĩ à¤ı
Ġà¤ĳ à¤ĩà¤²à¤°
à¤ĩà¤« à¤Ł
Ġà¤ıà¤¡ à¤Ĺ
à¤¾à¤Ĥ ),
Ê¼Ê¼Ê¼Ê¼Ê¼Ê¼Ê¼Ê¼ Ê¼Ê¼Ê¼Ê¼Ê¼Ê¼Ê¼Ê¼
18 4
à¤¼ à¥Ģà¤Ĥ
Ġ15 47
Ġà¤¡ à¤²à¤¹
20 24
Ġ //
17 6
Ġ9 99
20 7
17 1
Ġ20 50
à¤¥ à¤²à¤µ
ĠÏĦ Î¿
à¤®à¤¨ à¤ķ
Ġà¤¨ à¤µà¤µ
w h
Ġà¤ı à¤¸à¤°
à¥ĭ" ),
3 90
Ġ35 3
!" (
20 9
à¤ıà¤¨ à¤ıà¤ķ
à¥ĩ" ),
à¤®à¤° à¤¡
à¤ļ à¤®à¤ķà¤¤
à¤ł à¤Ĺ
30 5
à¤Ĩà¤Ī à¤¯
Ġ15 86
à¥Īà¤Ĥà¤ĥ "
Ġ15 55
à¤Łà¤¨ à¤¬
à¤® à¤¹à¤®
17 50
23 8
à¤¯à¤° à¤¸à¤¨
17 4
2 14
à¤ı à¤ıà¤«
à¤¸ à¤¹à¤ķ
4 70
Ġà¤ħà¤§ à¤°
à¤¸à¤° à¤µ
Ġà¤¨à¤Ĺ à¤£
Ġà¤¬ à¤¸à¤ķ
à¤ķà¤² à¤«
Ġà¤ĵà¤µà¤° à¤ļà¤°
17 85
Ġà¤ĵà¤µà¤° à¤¸
Ġ5 90
à¤ĵ à¤Ŀ
30 1
Ġà¤ıà¤ĵ à¤ıà¤²
26 5
Ġà¤ıà¤² à¤ıà¤ķ
à¤ı à¤ļà¤ķ
lit er
Ġ15 99
Ġ38 1
à¤ĵ à¤¶à¤¨
Ġà¤ľà¤¨ à¤¹
17 8
Ġ34 9
Ġà¤¤ à¤«
à¤¬à¤¹ à¤¸
Ġ36 4
à¤µ à¤Ńà¤ķ
à¤Ī à¤ĵà¤µà¤°
17 84
Ġ45 1
à¤° à¤¡à¤¨
Î± Î»
à¤ļ à¤°à¤µ
¥ Ĩ
à ¥Ĩ
Ġ15 21
Ġ15 39
? âĢĿ
ÑģÐµ ÑģÐµ
Ġà¤Ĩà¤Ī à¤²
Ġà¤¦à¤° à¤Ĺ
Ġ38 4
Ġà¤ħ à¤¹à¤¸
à¤Ĩ à¤µà¤°
Ġ4 17
à¤ĩ à¤µà¤µ
à¤Ĺ à¤°à¤¹
à¤Ľ à¤ķà¤°
Ġ15 93
Ġà¤¸ à¤¨à¤°
à¥¤ à¥¤"
f or
2 21
à¤ıà¤ļ à¤Ĩà¤°
Ġ34 6
à¤ĩà¤ķ à¤®
à¤ī à¤®à¤¨
18 3
à¤®à¤° à¤«
à¤°à¤ª à¤Ļ
Ġà¤¡à¤¨ à¤¹à¤®
Ġà¤ħà¤¨ à¤°
Ġ16 71
Ġ37 8
Ġ15 58
17 78
Ġ15 53
22 4
Ġ[ ]
Ġ6 25
Ġ50 5
Ġà¤®à¤² à¤ľà¤²
à¤¡ à¤¥
Ġ36 7
Ġ' à¥¤
Î Ń
à¤® à¤ļà¤°
Ġà¤Ĩà¤Ī à¤¹
17 72
Ã¶ r
Ġà¤ĵ à¤¤
Ġà¤ªà¤¹ à¤°
à¤ļà¤° à¤°
16 9
} }
à¤°à¤¨ à¤¦à¤®
18 6
à¥ī )
Ġ8 80
à¤ıà¤² à¤Ĩà¤°
Ġ un
à¤ıà¤® à¤Ī
à¤ľà¤° à¤¬
à¤Ł à¤°à¤¤
à¤·à¤ķ à¤¤
4 30
Ġ ..
Ġ L
Ġà¤Ń à¤¸
Ġà¤ĩ à¤µà¤¨
Ġà¤¡ à¤µ
Ġà¤ķà¤Ł à¤ĳà¤«
Ġ15 89
24 2
Ġà¤µ à¤Ł
ĠV I
à¤²à¤¨ à¤¬
à¥Ī" )à¥¤
à¤ī à¤¸à¤¸
Ġà¤ıà¤¬ à¤Ł
à¤ľà¤¨ à¤µ
18 9
à¤¸à¤® à¤¬à¤°
à¤ķà¤¨ à¤®
Ġ15 26
23 3
Ġs u
Ġ4 31
Ġ7 27
Ġà¤Ĺ à¤ķ
! "à¥¤
Ġ15 78
Ġà¤ĩ à¤µà¤°
Ġà¤¹à¤² à¤«à¤¨
17 86
à¤ĩà¤¬à¤° à¤¸
Ġà¤¡ à¤¹à¤²
m a
à¤¹ à¤²à¤®
Ġ35 00
à¤°à¤ľ à¤®
Ġà¤ıà¤® à¤ıà¤ļà¤ľ
à¤Ĺà¤² à¤ķ
Ġ37 2
17 3
Ġà¤Ĩà¤ĩà¤¸ à¤¬
à¥Ģà¥¤ <
Ġ4 29
Ġ15 42
à¤ĵ à¤¬à¤°
à¤Ķ à¤·à¤§
à¤ªà¤° à¤Łà¤¨
à¤¸à¤ķ à¤¤
à¤²à¤¨ à¤Ĺ
à¤¼à¥ĩ ;
Ġà¤ıà¤µ à¤²à¤¨
à¤°à¤¨ à¤µ
17 2
à¤ĩà¤¡ à¤«
40 5
à¤¾ |
à¤°à¤® à¤¹
à¤¡ à¤¨à¤¸
Ġà¤¨ à¤¥
Ġà¤ı à¤ĵà¤¸
Ø ¨
Ġà¤ı à¤°à¤¬
Ġp l
an t
3 21
Ġ9 60
Ġ6 70
à¤Ķ à¤¸
r h
Ġth is
à¤ĩà¤¡ à¤¶
Ġ36 1
à¤ĩà¤Ł à¤ļ
Ġ15 83
Ġ50 3
à¤ıà¤² à¤ıà¤¸
Ġ[ ...]
22 6
Ġ35 8
à¥Ģà¥¤ ),
à¤ªà¤° à¤Ĺà¤°
Ġà¤ıà¤« à¤ľ
à¥ĭ" -
à¥Ī? ",
à¤¹ à¤¹
Ġ15 87
g a
à¤²à¤µ à¤£
17 63
24 5
à¤²à¤ļ à¤Ł
4 10
à¥Īà¥¤ -
Ġ4 27
Ġà¤ħà¤µ à¤ļ
à¤ıà¤« à¤¡
6 80
à¤ħà¤² à¤®
Ġà¤¹à¤¥ à¤Ĺ
Ġ5 55
Ġ45 5
Ġà¤¯ à¤²
à¤ªà¤£ à¤ķ
17 74
XX XX
3 86
à¤ĩ à¤ĸ
à¤¡ à¤ħà¤²
9 60
à¤ı à¤¡à¤¨
à¤¬à¤² à¤Ł
à¤ħ à¤£
Ġ15 25
Ġ36 9
Ġà¤ĺ à¤®à¤£
Ġ37 6
Ġ35 9
17 60
Ġà¤ı à¤°à¤µ
à¤ĩà¤² à¤ª
à¤ī à¤Ńà¤°à¤¤
à¤ĩ à¤ĵà¤¨
Ġ15 67
Ġ D
Ġà¤ľ à¤Ĺà¤¦
23 4
Ġ" ]
Ġ à¥¤
à¥¤ ")
Ġ14 92
18 7
à¤¸ à¤ļà¤µ
Ġà¤ľ à¤¯à¤¹
Ġà¤ķà¤° à¤®
Ġ15 68
à¤ķ à¤Ľ
Ġà¤ĵ à¤Łà¤°
à¤¸à¤° à¤Ĺ
17 82
à¤· à¤¯à¤µà¤¸
22 7
à¤¯à¤² à¤¸
Ġ50 2
Ġ40 8
ĠÃ¶ z
à¥¤.. )
5 20
à¤¤à¤° à¤Ĺ
Ġ15 94
Ġà¤ª à¤Łà¤²
à¤µà¤² à¤®
à¤¡ à¤¸à¤²
Ġ15 81
à¤¶ à¤²à¤®
à¤Ĺà¤° à¤¬
à¤ĵ à¤Ī
Ġà¤Ĩà¤¯à¤° à¤¶
Ġ7 87
à¤ĺ à¤°à¤¤
ou ld
Ġà¤ıà¤¸ à¤ı
u st
Ġà¤® à¤Łà¤¨
à¥ĩà¤Ĥà¥¤ '
Ġ36 8
à¤° à¤ªà¤²
re d
Ġà¤¡à¤ļ à¤®
Ġà¤Ĩà¤Ī à¤ĵ
Ġà¤®à¤¦à¤° à¤¬
Ġà¤ħ à¤°à¤¸
à¤¸à¤¨ à¤¨
Ġ15 75
Ġà¤ı à¤Łà¤¸
//// ////
Ġ15 91
à¤ĸ à¤°à¤¤
av e
à¤ħ à¤¸à¤¹à¤®à¤¤
? '
Ġà¤ĩ à¤°à¤ķ
à¤ħ à¤°à¤¸à¤¨
à¤ıà¤¨ à¤¯
Ġà¤ĩ à¤®à¤²
Ġa d
16 60
Ġ38 3
Ġà¤ıà¤¨ à¤ª
Ġà¤ıà¤° à¤«à¤°
Ġà¤¸à¤¬ à¤¡à¤ķ
17 77
à¤Ĺ à¤¨à¤¸
à¤ķ à¤¹à¤°
________ ________
Ġ15 35
à¤¸ à¤¦à¤°
à¤µ à¤Ĺà¤¤
à¤°à¤® à¤ª
Ã¼ r
Ġà¤ıà¤¨ à¤ļ
Ġ15 66
à¤ķ à¤Ĺà¤°
Ġ(; ,
Ġà¤¹à¤Ł à¤ķà¤°
Ġ4 65
f t
à¤¨à¤¨ à¤¬
Ġà¤¬à¤ļ à¤ķ
à¤¾à¤ģ ),
Ġ3 94
28 6
Ġà¤ĳ à¤¯à¤¸
à¤ªà¤¥ à¤ª
Ġà¤¹ à¤¬à¤²
Ġ37 3
Ġxi x
Ġ* -
4 17
4 60
Ġ36 2
f r
Ġà¤ı à¤°à¤¹
Ġà¤Ĩ à¤ĩà¤ª
à¤ĩà¤Ł à¤¶
à¤Ī à¤ķà¤°à¤£
3 13
Ġ7 30
à¤° à¤ľà¤¨
Ġ9 000
Ġà¤ıà¤² à¤Īà¤¡
Ġa t
i an
à¥¤ ;
Ġà¤¬ à¤°à¤¹
à¤¨à¤® à¤¸
à¥Ģà¤Ĥ /
Ġ15 54
à¥Ī 'à¥¤
à¤ıà¤¸ à¤ıà¤®
Ġp ro
Ġ15 38
Ġ15 82
à¤Ĩà¤Ī à¤°
Ġà¤¸ à¤¨à¤¬
] ;
Ġà¤Ł à¤Łà¤²
, .
à¤ĭ à¤·
b e
à¤¾) -
à¤ıà¤¨ à¤Ĺ
) >
28 5
à¤ı à¤Ĺà¤°
17 81
ĠX V
19 1
à¤¹ à¤¶
Ġà¤¨ à¤®à¤¸
à¥ĩà¤Ĥ) "
à¤¡à¤¨ à¤¹
Ġ21 00
Ġà¤ıà¤ıà¤® à¤¡
Ġ3 15
à¤µà¤° à¤¶
à¤¸à¤¨ à¤¸
i p
22 3
Ġà¤ľà¤¨ à¤ķ
à¤¹à¤² à¤¬à¤°
à¤¯ à¤¬à¤°
à¤« à¤°à¤¨
à¤¨ à¤Łà¤®
Ġà¤Ķ à¤«
Ġ en
Ġà¤¡ à¤¨à¤µ
à¤ī à¤¡à¤¨
à¤¬ à¤²à¤¬
à¤µà¤² à¤ķ
Ġà¤¡ à¤¨à¤®
Ġà¤ľ à¤«à¤°
Ġà¤ĵ à¤ī
Ġ3 99
6 40
Ä «
17 9
Ðļ Ð¾
Ġ4 32
i z
à¥ĭà¤Ĥ ),
à¤ª à¤²à¤ķ
Ġ38 8
Ġ15 41
Ġà¤ĸ à¤¬
' s
Ġà¤¥ à¤¡
Ġà¤ıà¤¨ à¤ıà¤¡
23 9
à¥Īà¥¤ ",
Ġà¤« à¤²à¤ķ
Ġà¤ħà¤µ à¤ķà¤²
à¤¸ à¤¹à¤¨
Ġà¤ıà¤® à¤ıà¤¨
Ġ15 63
à¤¹ à¤°à¤®à¤¨
à¥Īà¤Ĥ /
Ġ15 52
Ġà¤¸à¤® à¤Łà¤°
Ġà¤ħ à¤²à¤¨
22 9
à¤° à¤¨à¤¸
à¤ħà¤ª à¤¹à¤°à¤£
24 7
Ġà¤ĳà¤ª à¤°à¤ķ
Ġà¤ıà¤µà¤° à¤Ĺ
u g
à¥¤ /
à¤¾à¤ģ /
66 7
? ?
Ġà¤ī à¤¥à¤®
à¤ĩà¤¡ à¤°à¤®
26 6
à¤¡ à¤¸à¤¬à¤°
à¤°à¤µ à¤²
Ġ7 40
Ġ7 80
17 79
26 8
à¤ķ à¤ĵà¤µà¤°
Ġ4 14
â Ĥ
à¤ĸ à¤¬à¤°
à¤¸à¤® à¤¤à¤²
à¤Ĺ à¤¤à¤ķà¤°à¤£
00 2
Ġ15 62
Ġ37 4
Ġà¤¸ à¤Łà¤ķ
à¤ı à¤Ĩà¤°
à¤Ĺà¤° à¤ĸ
Ġ15 45
à¤° à¤¸à¤°
Ġà¤¨à¤µ à¤¶
ÏĢ Î¿
$ $
5 40
à¤¯à¤¨ à¤«
Ġ3 96
24 9
Ġà¤¡ à¤¡
Ġs e
à¤Ī à¤¬à¤°
Ġà¤¨à¤µ à¤īà¤¦
Ġ37 9
à¥Īà¤Ĥ ]"
22 8
er n
Ġxv ii
Ġà¤Ī à¤ıà¤«
à¤ķà¤¡ à¤®
à¤¯à¤¸ à¤Ń
à¤¾ ]"
Ġà¤¬à¤ķ à¤¨à¤°
Ġ38 2
Ġà¤Ĩà¤Ī à¤Ĩà¤°
Ġ15 69
Ġà¤¹ à¤ª
à¤¬à¤° à¤Ł
à¥Īà¤Ĥ ")
à¤īà¤¨ à¤¬
Ġà¤¸à¤® à¤°à¤ķ
om e
à¥ĩ) "
à¤¸à¤¨ à¤¬à¤°
Ġ7 70
in t
à¤¸ à¤Ī
Ġ15 37
Ġà¤¨ à¤¯à¤¨
Ġà¤¸à¤° à¤¨
à¤°à¤¹ à¤¨
à¤ĳ à¤¬à¤°
à¤¨ à¤Łà¤ķ
à¤¨à¤ķ à¤¦
at h
Ġà¤¹ à¤¯à¤¶
à¥¤ (
à¤²à¤¬ à¤¨
à¤ħà¤ħ à¤ħà¤ħ
Ġ50 9
Ġ4 13
Ġ15 49
23 1
à¤² à¤§à¤¨
Ġà¤¡à¤¨ à¤«à¤°
Ġm e
à¤®à¤¨ à¤Ĺà¤°
2 17
à¤Ń à¤°à¤£
à¤¸ à¤¥
à¥ģ .
Ġà¤Ĩà¤Ī à¤Ĩà¤°à¤ıà¤¸
à¤ķà¤¸ à¤¡
à¤¾? '
à¤ľ à¤°à¤¸
à¤Ĺ à¤Ĺà¤¨
à¥ĭ- "
ĠÑģÐµ ÑĤÐµ
Ġ29 4
Ġ4 86
30 2
Ġ4 85
/ ,
à¤° à¤Ĺà¤²
23 6
Ġ44 2
Ġ Ñĥ
Ġà¤ıà¤¨ à¤¸à¤¨
23 7
Îµ Î¹
à¤Ĭ à¤·
a ch
Ġà¤ľ à¤¯à¤¸
! âĢĿ
à¤¬ à¤Ĺà¤¦
Ġ4 33
à¤Ĺà¤¨ à¤¬
à¤ĥ à¥¤
à¥Ģ' )
Ã ĩ
Ġà¤ĵà¤µà¤° à¤Łà¤¨
à¤²à¤¹ à¤Ł
Ġ10 66
à¥¤ :
Ġ4 45
Ġà¤Ĩà¤īà¤Ł à¤Ł
Ġà¤Ŀ à¤®
Ġ14 60
5 60
16 44
Ġà¤¶ à¤µà¤ª
Ġ3 97
Ġ7 60
Ġ38 7
à¤ľ à¤ļ
Ġ15 61
24 1
Ġà¤¨ à¤ľà¤¦
à¤ıà¤ķ à¤µà¤ļà¤¨
à¤µà¤¨ à¤µ
à¤² à¤ļà¤°
Ġ8 70
Ġà¤Ķ à¤¬
2 16
Ġ14 80
Ġ4 26
à¤Ĳ à¤²
Ġà¤¬à¤ļ à¤ķà¤°
à¤ıà¤¨ à¤ıà¤®
Ġ44 4
Ġ5 35
Ġà¤® à¤¸à¤²
ÃĤÃĤÃĤÃĤÃĤÃĤÃĤÃĤÃĤÃĤÃĤÃĤÃĤÃĤÃĤÃĤÃĤÃĤÃĤÃĤÃĤÃĤÃĤÃĤÃĤÃĤÃĤÃĤÃĤÃĤÃĤÃĤ ÃĤÃĤÃĤÃĤÃĤÃĤÃĤÃĤÃĤÃĤÃĤÃĤÃĤÃĤÃĤÃĤÃĤÃĤÃĤÃĤÃĤÃĤÃĤÃĤÃĤÃĤÃĤÃĤÃĤÃĤÃĤÃĤ
à¤ı à¤¡à¤²
à¤Ĩà¤ī à¤Łà¤²
à¤¯à¤® à¤ķ
Ġà¤ıà¤² à¤ıà¤¸
Ġ15 76
Ġ6 66
Ġ15 57
à¤°à¤ľ à¤¤
à¤°à¤®à¤£ à¤¶
Ġà¤¬à¤° à¤¬à¤°
Ġ40 9
Ġà¤ı à¤Ĺà¤®
à¤ķà¤° à¤µ
2 19
à¤¬à¤² à¤ª
à¤®à¤ķ à¤¡
Ġà¤ıà¤Ł à¤ľ
8 33
24 6
Ġà¤ªà¤°à¤¤ à¤¦
Ġ H
à¤¸à¤° à¤¦
Ġà¤¨ à¤¨à¤°
Ġà¤ħà¤ª à¤Ń
p h
Ġà¤ħà¤¨ à¤¹
à¤² à¤Łà¤°
à¤Ĩ à¤ĺ
à¤°à¤ķ à¤ª
Ġ11 50
g r
Ġà¤Ń à¤°à¤ķà¤°
27 8
Ġ4 76
3 35
Ġà¤Ĩà¤µ à¤ķ
24 4
) .
à¤ī à¤ªà¤¶
Ġà¤Ľ à¤ķ
Ġ45 8
Ġ38 9
Ġà¤¤ à¤¶
ĠI D
à¤¼ "à¥¤
à¤ħà¤² à¤¸
à¥Ģ. '
à¤¼à¥ĩ à¤ĥ
à¤Ĳ à¤ķ
à¤¨ à¤µà¤¨
4 25
à¤ª à¤°à¤®à¤°
Ġà¤Ł à¤Ĺà¤¬
30 4
26 2
à¥Ģ. ".
Ġv ol
à¥Ģà¤Ĥ !"
2 18
à¤¡ à¤ĩà¤¯à¤°
à¤¡ à¤ĳà¤«
Ġ15 73
Ġà¤ħ à¤µà¤¨
Ġ202 7
Îµ Ïģ
à¤®à¤¨ à¤²
à¤¯ à¤Łà¤®
40 6
à¤¸ à¤°à¤®
Ġà¤ķ à¤¨à¤ķ
Ġà¤Ĩà¤° à¤ıà¤ķ
Ġ15 64
m s
à¥Īà¤Ĥ --
Ġ15 77
3 95
à¤¥ à¤°à¤²
17 40
à¤ıà¤« à¤Ł
40 4
h u
à¤ĩà¤Ł à¤²à¤°
b s
à¤ĩ à¤Ĺà¤²
Ġ3 92
à¤ıà¤¨ à¤ıà¤²
Ġ15 74
à¤¬à¤¦ à¤¸
à¥ĩ ',
à¥Ģ) -
à¥Īà¥¤' "
- à¥¤
4 95
Ġà¤ľ à¤²à¤¯
Ġ4 28
Ġ3 91
Ġ15 56
Ġ50 7
Ġ50 8
Ġ4 88
Ġ5 22
35 5
b c
ffff ff
à¤Łà¤¨ à¤ķ
Ġ12 60
à¥Ī, '
Ġà¤ıà¤ļ à¤ľ
Ġn m
à¤ĩ à¤Ĩà¤¨
Ġ8 40
Ġ15 79
Ġh is
b it
25 4
d a
e ar
Ġà¤ĩ à¤®à¤¸
25 1
7 20
à¤¡à¤¨ à¤ķà¤²
Ġ15 34
à¤ĵ à¤¡à¤°
à¤®à¤¨ à¤¶
3 19
à¤ª à¤ľà¤¨à¤¤
Ġ= "
à¤ľ à¤°à¤ķ
Ġà¤ª à¤ķà¤¤
6 10
Ġs o
à¤ı à¤®à¤°
à¤ī à¤Ń
à¥ĩ %
24 3
ĠÃİ le
on g
à¥ĭ .,
Ġà¤ĳ à¤¨à¤¬
Ġà¤µà¤¨ à¤¡
Ġà¤® à¤ľà¤²
Ġc o
i es
à¤² à¤¸à¤°
Ġ4 19
à¤ħ à¤ªà¤ķ
Ġ4 37
Ġ15 15
à¥į "
à¤¯à¤¨ à¤Ĺ
à¤¢ à¤²
Ġ7 10
Ġ15 44
Ġ14 40
p r
Ġà¤ķ à¤¨à¤¸
à¤ľ à¤ªà¤ķ
th er
Î¯ Î±
8 80
à¤¸à¤¤ à¤¤
Ġà¤¹à¤ľ à¤¡
30 7
27 6
à¤¡ à¤¸à¤®
à¤ıà¤« à¤ıà¤«
à¤¬ à¤¦à¤®
à¤¥ à¤°à¤¹à¤®
6 60
à¥Ĥ ]
à¤¡à¤° à¤ľ
à¤Łà¤° à¤¥
Ġ3 93
Ġ4 95
Ġà¤Ń à¤°à¤®
40 1
à¥Ģà¥¤" "
ĠÃ ³
Ġà¤® à¤²à¤®
Ġ4 34
Ġ15 24
Ġ4 23
) ]
à¤Ĥ ),
à¤ı à¤°à¤²
ĠM a
à¤· à¤¡
Ġà¤ķ à¤µà¤¨
à¤¹ à¤¨à¤²
à¤ı à¤µà¤²
ĠÂ ¥
Ġà¤Ī à¤«
h a
à¤ĺ à¤¨à¤¤
à¤ıà¤« à¤ķ
à¥Īà¤Ĥ? âĢĿ
6 30
à¤® à¤¹à¤°
Ġà¤¡à¤ķ à¤µà¤°
Ġ9 90
à¤¯à¤¨ à¤¹
5 30
Ä °
à¤ī à¤Łà¤¨
à¤¿à¥¤ )à¥¤
or t
à¥ĩ" ;
Ġà¤Ĩà¤¯à¤° à¤¨à¤®
Ġà¤ĵ à¤°à¤¸
Ġ15 29
à¤ľ à¤¯à¤µ
à¤Ĺ à¤¸à¤®
à¥ĩà¤Ĥ ]"
Ġ14 90
u e
Ġà¤ľ à¤łà¤°
à¤¬ à¤ľà¤°
28 7
i o
à¤ı à¤¨à¤¨
Ġà¤¦ à¤¶
Ġ6 90
à¤Łà¤ķ à¤¤
à¤Ī à¤¯à¤°
Ġà¤ıà¤Ł à¤ļ
à¤®à¤Ĺ à¤°à¤®à¤ļ
Ġà¤ĵ à¤Łà¤²
à¤ıà¤² à¤Ĺ
Ġ4 18
Ġ50 6
à¤Ĩà¤Īà¤ıà¤¸ à¤ĵ
à¤Ł à¤Ń
à¤·à¤£ à¤¹
Ġà¤Ĩà¤ī à¤Łà¤ķ
Ġà¤Ĳà¤¶ à¤«
Ġà¤¸à¤® à¤¦
à¤¸ à¤ıà¤¯à¤°
Î» Î¿
à¤¸ à¤ı
à¤ª à¤ļà¤ķ
à¤ħà¤µ à¤¸à¤°
à¤ľ à¤¹à¤°
à¤¬ à¤¶à¤°
à¤¡à¤¨ à¤¬
à¤ıà¤¡ à¤Ĺà¤°
à¤ļà¤®à¤ķ à¤¦
à¤¾ %
Ġà¤Ĳ à¤ľ
30 8
Ġà¤¨ à¤µà¤°
Ġà¤Ĺ à¤¨à¤¸
à¤°à¤¤ à¤ª
à¤° à¤²à¤°
à¤Ĩ à¤²à¤¸
à¤ĩà¤ª à¤°à¤®
Ġà¤¬ à¤Łà¤°à¤µà¤°
Ġà¤° à¤®à¤£
à¤®à¤ķ à¤Ī
. ----
à¤ıà¤¡ à¤ľ
Ġà¤ıà¤ķ à¤¦
à¤¤à¤° à¤µ
Ġ15 43
5 80
à¤¯ à¤Ĺà¤¨
3 12
Ġ"" à¥¤
24 8
Ġ{ "
Ġfr om
4 38
Ġà¤ıà¤¯à¤° à¤¸
is h
Ġà¤ķà¤ª à¤Ł
à¤ªà¤°à¤ķ à¤ª
Ġà¤µ à¤Ĺ
Ġ8 20
à¤Ī à¤¡à¤°
17 73
Ġ8 60
Ġà¤ĩ à¤¦à¤²
à¤ĳ à¤¯à¤²
Ġà¤ıà¤² à¤ĸ
Ġà¤ĳ à¤Ĺà¤°
3 45
à¥Īà¤Ĥ? '
ÑĢ Ñĥ
Ġ6 11
17 68
ou t
à¥Ģ- -
u re
' ;
Ġ4 38
Ġ5 75
à¤Ĩ à¤ªà¤¸
Ġ4 36
à¥Ģà¥¤ )à¥¤
à¤°à¤ķ à¤®
à¤ħ à¤¹à¤²
à¤¹à¤¨ à¤¨
à¤² à¤¸à¤®
Ġ{ \
Ġà¤īà¤ª à¤¸à¤¤à¤¹
Ġ(' )
Ġà¤¸ à¤¨à¤«
Ġ70 1
in d
Ġ15 10
Ġ5 27
Ġ14 70
Ġ15 27
Ġ15 28
Ġà¤ķ à¤Łà¤²
5 12
à¤ĩ à¤·
ĠĠĠĠ ĠĠĠĠ
à¤¸à¤¨ à¤¶
5 25
Ġà¤ħà¤¨ à¤Ł
à¤ĩà¤ļ à¤Ł
Ġ15 51
à¤® à¤ľà¤¦
à¥Ģ.) ;
Ġà¤¡ à¤Ĺà¤¨
à¤¹ à¤®à¤¸
Ġà¤« à¤¤à¤µ
3 23
à¤®à¤Ĺ à¤¢
à¤¸ à¤²à¤¤
Ġà¤ķà¤® à¤°à¤¬
Ġ7 67
5 10
à¤¿, "
Ġb ce
Ġ K
Ġà¤¸à¤®à¤° à¤²
Ġ9 30
Ġ24 00
à¤īà¤¥ à¤Ĺ
ĠU T
Ġ45 6
Ġà¤ī à¤¹à¤²
Ġà¤ĩ à¤¦à¤°
Ġà¤ħà¤° à¤²
Ġ10 50
4 90
à¤¥ à¤Łà¤¬
à¤¿)à¥¤ )
à¥ĩ --
à¤ī à¤ł
Ġ60 5
Ð½ Ð³
Ġà¤ıà¤« à¤ª
Ġà¤° à¤¨à¤ķ
à¤²à¤¨ à¤Ł
Ġ2 200
Ġ5 15
Ġ12 30
Ġ9 80
Ġ ÑĤÐ°
à¤ı à¤Łà¤¸
à¤ī à¤¬à¤°
25 3
à¤ľà¤¬ à¤¡
à¥ĩà¤Ĥà¥¤ âĢĿ
âĢ ¡
Ġ3 98
26 3
Ġa re
XX X
27 2
à¥Īà¤Ĥà¥¤.. "
Ġà¤Ł à¤ª
à¤ķà¤² à¤¸
Ġ5 11
or d
33 6
Ġà¤¬ à¤ķà¤®
Ġ8 30
à¤ļà¤® à¤¡
5 70
iv e
a w
à¥Īà¤Ĥà¥¤ <
26 7
à¤Ĺ à¤ľà¤¨à¤¨
à¤¬à¤¤ à¤ĸ
:: ::
Ġà¤² à¤µà¤ķ
à¤¨ à¤Ĩà¤īà¤Ł
à¤¦ à¤¯à¤¤
17 69
à¤ħà¤Ń à¤¯
Ġh ad
Ġ14 20
7 60
Ġà¤ĩà¤¸ à¤°
Ġ45 4
Ġà¤ıà¤®à¤ıà¤¸ à¤¸
à¤Ī à¤ıà¤¸à¤ª
Ġ60 4
Ø ³
Ġà¤ıà¤¡à¤² à¤¬à¤°
Ġà¤¨ à¤ĸ
à¤µ à¤¥à¤¨
Ġ12 80
ad e
m et
Ð ´
à¤¸ à¤°à¤¤
Ġ4 24
4 85
à¤ħ à¤µà¤°à¤ķ
Ġ15 17
27 7
4 75
à¤¥ à¤°à¤¬
al e
à¤¤ à¤¦à¤¨
Ġw e
7 10
Ġà¤¬ à¤ķà¤¨
à¥ĩà¥¤ -
28 3
,, ,
Ġ( [
à¥ĩà¥¤ <
Ġà¤ı à¤ĵà¤²
Ġà¤° à¤ª
Î¹ Ïĥ
Ð´ Ð°
5 90
à¤¿à¥¤ ..
Ġ44 3
à¤ĩà¤ªà¤° à¤²
4 11
Ġ12 40
3 85
Ġà¤¨ à¤ļ
Ġà¤ĵ à¤¹à¤²
Ġà¤¤à¤° à¤ľ
à¤ıà¤² à¤Ł
Ġ12 90
Ġ13 40
à¤Łà¤°à¤ķ à¤¨
à¤īà¤ª à¤µ
45 8
50 5
45 6
âĤ ¬
à¤² à¤ħà¤ľ
Ġà¤Ł à¤¨à¤ķ
à¤µ à¤²à¤¨
2 13
d r
à¤¿" |
Ġà¤ľ à¤ķà¤¡
à¥į à¥¤
Ġà¤ħà¤¨ à¤Łà¤°
à¤ıà¤® à¤Ĩà¤°
Ġ15 48
28 4
34 4
Ġ46 2
Ġà¤« à¤°à¤ķ
à¥Ģà¥¤ à¥¤à¥¤
à¤¸à¤° à¤ª
Ġ( _
Ġà¤² à¤¶
à¤¤à¤° à¤®
29 2
Ġà¤¡ à¤¹
Ġà¤ªà¤¨ à¤ªà¤¨
Ġà¤ķà¤¸ à¤°à¤¤
Ġà¤¨ à¤Łà¤°
à¥Īà¥¤ ),
à¤¨à¤ķ à¤¸
26 9
0 10
à¤·à¤£ à¤ķ
à¤ıà¤ļ à¤ıà¤®à¤ıà¤¸
6 16
à¤® à¤¸à¤²
17 65
27 3
Ġ45 7
25 9
Ġà¤ı à¤¦
25 8
à¤ıà¤¬à¤° à¤¡
à¥į à¤Ĥ
30 6
à¤«à¤² à¤¸
à¤¯à¤¨ à¤Ł
Ġà¤ľ à¤¯à¤°
à¥Ģà¤Ĥ "à¥¤
à¤ıà¤¨à¤ıà¤¨à¤ıà¤¨à¤ıà¤¨ à¤ıà¤¨à¤ıà¤¨à¤ıà¤¨à¤ıà¤¨
à¤¥ à¤®à¤¸
Ġ8 10
k i
]] ,
jjjj jjjj
b l
à¤ĳ à¤ķà¤²
à¤¼à¥Ģ ),
Ġ15 46
à¤° à¤¬à¤¸
25 2
7 80
à¤ĵ à¤ĺ
Ġ9 40
33 7
à¤« à¤°à¤¸
Ġà¤¨ à¤Łà¤ķ
28 1
38 4
à¤¬à¤® à¤¬
17 64
Ġà¤ĩ à¤ĵà¤°
35 4
Ġ6 15
Ġ13 30
25 7
à¤® à¤Łà¤°
00 5
g l
27 4
Ġ15 13
à¥Ĥà¤Ĥ à¥¤..
à¥Ĥà¤ģà¥¤ âĢĿ
à¤ķ à¤¹à¤¨
f c
Ġa m
à¤ıà¤¨ à¤ıà¤«
Ġà¤ħà¤ĸ à¤®
à¤ķ à¤¶à¤¨
16 48
35 7
à¤ķà¤¨ à¤¬à¤°
Ġà¤ıà¤² à¤Ĩà¤°
à¤ķà¤¡ à¤«
Ġà¤¸à¤¬ à¤Ł
Ġ44 7
à¤¯à¤¸ à¤ĵà¤µà¤°
Ġ4 99
27 1
37 6
Ġà¤ķ à¤¨à¤µ
à¤¯ à¤£à¤¨
am e
16 50
Ġ( Ìĥ
Ġà¤ĵ à¤²à¤®
17 54
x d
Ġxx ii
Ġ( ?
Ġ13 20
Ġà¤ı à¤¬à¤¸
Ġà¤ı à¤¸à¤®
à¤ª à¤²à¤µ
Ġà¤¤ à¤¦
6 18
Ġ15 33
as e
Ġà¤¡à¤Ĺ à¤Ĩà¤īà¤Ł
17 55
26 1
Ġa u
à¤®à¤ļ à¤Łà¤ķ
as s
x h
Ġ45 2
Ġà¤¶à¤®à¤¨ à¤µ
Ġà¤®à¤¤ à¤¸
à¤¨à¤® à¤°
à¥ĩà¤Ĥ >
Ġà¤ļ à¤¸
Ðļ Ð°
à¤ĩà¤¬à¤° à¤ª
5 83
à¤ķà¤¨ à¤µ
29 6
4 86
à¤¡à¤« à¤ľ
27 9
28 8
Î» Î±
3 11
à¤ļ à¤°à¤¨
à¥ĩà¥¤ à¥¤à¥¤
à¤ıà¤ı à¤ı
à¤ĳà¤« à¤¸
3 22
Ġ5 76
17 58
à¤ļ à¤²à¤ķ
Ġà¤¨à¤Ĺà¤° à¤µ
à¤¼à¥Ģ ")
17 62
e w
Ø Ń
80 8
en s
à¤¸à¤¨ à¤¹
Ġà¤¨ à¤®à¤¨
4 65
à¤ķ à¤°à¤¤
Ġà¤¤à¤ķ à¤²
33 2
90 7
34 6
17 71
à¥Ī" -
Ġ34 8
à¤ķ à¤°à¤ķ
à¥ĩà¤Ĥà¥¤ ,
Ġ us
à¤¨ à¤Ĺà¤¤
an g
Ġ5 65
Ġ80 1
Ġ4 78
6 20
Â ®
à¤¡à¤¨ à¤¬à¤°
à¤Ł à¤Ĺà¤°
Ġ5 44
34 1
v e
00 3
à¤Ķ à¤²
40 2
Ġm g
à¤®à¤¹ à¤¦
45 5
29 7
Ġi l
33 9
à¤ĩ à¤ķà¤¸
à¥Ĥà¤Ĥ à¤ĥ
à¤Ĩà¤Ī à¤ĵà¤¸
ar y
Ġà¤Ĳ à¤¶à¤²
Ġ60 2
à¥Ī" ),
Ġ15 32
11 00
v a
Ġ15 23
à¥ĭà¥¤ '
29 9
Ġ* ,
n c
à¤ī à¤§
Ġà¤ıà¤¡ à¤¬
29 4
à¤ħ à¤°à¤¨
à¤¾à¥¤ |
Ġ5 14
à¤¦ à¤ļ
Ġà¤ļ à¤ķà¤¤
Ġ9 20
0 83
à¥Īà¤Ĥà¥¤ .
à¤¸à¤° à¤¨
Ġà¤« à¤ĸà¤°
Ġà¤ıà¤ľ à¤µ
40 8
); "
17 30
à¤ı à¤Ĩà¤Ī
à¤¯à¤¨ à¤¬à¤°
Ġà¤ķà¤° à¤µ
Ġà¤ıà¤¸ à¤ıà¤ļ
Ġ6 75
3 15
ĠÃ¼ r
Ġà¤ķ à¤¸à¤¨
Ġà¤ļ à¤ĸ
Ġà¤ıà¤¨ à¤ĵà¤¸
Ġ12 70
Ġc a
Ġà¤ĩ à¤¬à¤¸
Ġ4 64
Ġ60 3
Ġà¤® à¤®à¤«
Ġm c
Ġà¤Ĭ à¤²
Ġ46 1
Ġ Ùħ
17 45
Ġ5 13
Ġà¤® à¤ķà¤¤
Ġ5 28
Ġà¤ıà¤ļ à¤¬
Ġà¤ķ à¤Łà¤¸
Ġà¤¶ à¤°à¤ľ
4 35
à¥ĩ, %
Ġ75 7
Ġà¤Ĩ à¤¸à¤«
Ġ15 22
9 80
17 56
à¤ĺà¤¨ à¤ķà¤°
%% %%
17 59
à¤Ĩà¤Ī à¤¨
33 8
Ġà¤ľ à¤¯à¤µà¤°
à¥Īà¥¤ [
Ġà¤ħ à¤¯à¤²
16 40
Ġ4 39
Ġ14 30
44 4
Ġ46 3
Ïī Î½
à¥ĭà¤Ĥ ")
à¤Ĩà¤° à¤¡à¤¬
ĠÑģ Ñĥ
Ġà¤¹à¤° à¤ª
Ġ9 70
Ġà¤¯ à¤¤
à¤ĺ à¤¤
.) -
55 5
Ġà¤ķ à¤ĸ
à¤°à¤¹ à¤²
8 40
: -
à¤ħà¤¸ à¤«à¤²
à¤¶ à¤¡
Ġà¤Ī à¤ļ
Ġà¤¹à¤« à¤®
ou g
Ġ12 20
17 67
à¤¤à¤¹ à¤ĸ
à¤ķ à¤µà¤ķ
Ñģ Ñĥ
à¤ªà¤¹ à¤²à¤µ
Ġ* /
36 4
Ġà¤ķ à¤«à¤²
à¤ķà¤² à¤µ
3 28
Ġà¤¬à¤° à¤Ĺà¤¦
Ġt r
Ġà¤ĩ à¤¯à¤°à¤ª
à¥ĩà¥¤" "
à¤¡ à¤¡à¤¬
à¤¯à¤¨ à¤¸à¤¨
5 75
à¥Į )
35 6
34 7
à¤¡ à¤§
à¤Ĺà¤° à¤µ
Ġ100 00
Ġ15 19
à¥ģ ;
Ġà¤ķà¤° à¤ľà¤Ī
à¤¶ à¤¶
à¤°à¤¸ à¤°à¤£
17 57
Ġ44 8
à¤¾à¤ģ '
35 8
es k
Ġ5 29
Ġ15 12
Ġ+ à¥¤
Ġ44 6
e p
4 12
à¤¾à¥¤ ]
à¤®à¤¹ à¤¸
4 15
Ġ4 66
Ġ5 18
4 45
30 9
à¤Ĩ à¤ĩà¤µà¤°
à¤¯à¤² à¤®
à¤Ŀ à¤ķ
), '
à¤ľ à¤¤à¤°
à¤ıà¤¨ à¤¬à¤°
à¤ľ à¤¬à¤°à¤¨
à¤§ à¤µà¤¨
Ġà¤ıà¤² à¤ķ
à¥Ī? "à¥¤
ou s
Ġ er
à¤ıà¤ķ à¤ľ
à¤² à¤ĺà¤¨
Ġh ave
à¤ľ à¤²à¤¤
à¥Ģ. ",
36 1
Ġ5 16
à¤¸à¤« à¤ľ
à¤¾à¥¤ )à¥¤
m p
Ġ7 90
Ġ14 85
Ġ55 2
Ġ47 4
à¤ĩà¤² à¤Ĺ
Ġ13 80
Ġwh ich
9 17
à¤¾à¥¤ [
17 61
à¤ĩà¤Łà¤¨ à¤°
à¤īà¤¥ à¤¬
33 4
17 20
0 60
Ġ( /
à¤° à¤Łà¤°
17 66
Ġ48 4
Ġà¤ī à¤¬à¤¡
à¤ıà¤² à¤¸à¤¨
Ġà¤ıà¤« à¤ıà¤«
29 3
16 03
Ġà¤ħà¤Łà¤ķà¤² à¤¬
à¤¤ à¤²à¤¤
Ġà¤ı à¤¬à¤°à¤²
à¤¼ à¥Ĥà¤Ĥ
à¤ĵ à¤ªà¤¸
ÑģÑģÑģÑģÑģÑģÑģÑģ ÑģÑģÑģÑģÑģÑģÑģÑģ
Ġà¤° à¤Łà¤°
à¥Ĥ "à¥¤
Ġà¤° à¤¤à¤ļ
à¤ıà¤² à¤ıà¤¸à¤Ł
Ġà¤ķà¤Ł à¤ĺà¤°
] :
à¥Ģ) :
Î» Îµ
' (
8 60
m an
Ġà¤® à¤Ĺà¤°
ĠI x
Ġ44 9
Ġ( âĪĴ
Ġ5 32
5 36
à¤¨à¤² à¤®
Ġà¤ıà¤« à¤ıà¤¨
Ġà¤ıà¤ļ à¤¸
ig ht
Ġ5 31
0 20
ĠÃ ¡
Ġà¤ħà¤¸à¤¹ à¤¯
######## ########
3 14
à¤ķ à¤ªà¤²
Ġ6 12
à¤° à¤Ī
à¤ıà¤ļ à¤µ
Ġp s
Î· ÏĤ
à¤² à¤«à¤°
à¤ĩ à¤ľà¤¨
13 00
Îº Î±
Ġà¤¯ à¤¬
17 10
Ġx y
Ġa pp
Ġ5 17
à¤¸à¤¹ à¤ķà¤°
à¤· à¤¤à¤¨
35 1
4 22
Ġà¤¸ à¤Łà¤°
.) ;
28 2
Ġr s
Ġà¤ıà¤®à¤ıà¤¸ à¤ľ
Ġ6 16
Ġ70 2
Ġ Ä°
00 4
Ġ5 85
29 1
à¤¼à¥ĩà¥¤ "
à¤ĵà¤ĵà¤ĵà¤ĵà¤ĵà¤ĵà¤ĵà¤ĵà¤ĵà¤ĵà¤ĵà¤ĵà¤ĵà¤ĵà¤ĵà¤ĵ à¤ĵà¤ĵà¤ĵà¤ĵà¤ĵà¤ĵà¤ĵà¤ĵà¤ĵà¤ĵà¤ĵà¤ĵà¤ĵà¤ĵà¤ĵà¤ĵ
on d
à¤Ł à¤ľà¤°
Ġà¤ıà¤¨ à¤ıà¤«à¤ıà¤²
Ġ45 3
Ġ4 96
Ġà¤¸à¤° à¤ľ
à¤ıà¤« à¤¬
à¤¬ à¤²à¤¤
Ġà¤ĩà¤° à¤«
à¤¶à¤ª à¤¥
37 8
Ġ150 3
Ġ5 77
60 1
à¥ĩ. ),
40 7
à¥Ģ' à¥¤
j Ã¶r
Ġà¤Ĩà¤° à¤ĵà¤¸
à¤īà¤ª à¤ľ
Ġà¤µ à¤ĸ
à¤¹à¤° à¤¨
9 90
Ġ" |
à¤¦ à¤Ī
Ġ( à¥¤..)
6 88
à¤¸à¤¨ à¤¡
50 9
d t
Ġ47 1
Ġà¤ħ à¤¹à¤¨
3 26
à¤¦ à¤®à¤¨
17 15
Ġà¤ħà¤ª à¤ĺà¤°
or e
à¤¸à¤ıà¤¸ à¤¡à¤¬
] -
à¤Ĩ à¤¸à¤¨
à¥Īà¥¤ |
Ġ5 24
à¤Ķà¤¸ à¤¤à¤¨
6 70
Ġà¤« à¤ľà¤²
Ġ5 45
Ġ6 14
Ġà¤ĵà¤ªà¤¨ à¤µ
à¤¾à¤ģ ?
Ġ4 68
Ġà¤¸à¤¨ à¤¡à¤°à¤²
U S
ĠÎ ·
à¤Ĭ à¤²
Ġà¤ĵà¤ªà¤¨ à¤¸
Ġ150 1
Ġ5 33
à¤µà¤¨ à¤Ĺà¤°
à¤¾à¤ģ à¥¤"
Ġà¤ĵà¤µà¤° à¤µ
t i
à¤¸ à¤¡à¤¨
à¥ĩà¤Ĥ ?"
à¤ĺ à¤¶
8 10
Ġà¤¤ à¤®à¤¨
Ġ15 16
36 6
à¥į )
à¤¯à¤° à¤¨à¤®
Ġ13 70
Ġ9 10
29 8
3 16
à¤®à¤¦ à¤¦
Ġà¤ıà¤ķ à¤¸
Ġà¤¹à¤¸ à¤²à¤°
Ġc m
Ġ118 0
Ġ(* )
5 65
34 3
à¤Ĥ ]
7 40
Ġà¤¤ à¤°à¤¸à¤¤
à¤¾à¤ĥ -
4 000
Ġà¤Ń à¤Ĺà¤¤
Ġ6 45
Ġ5 38
à¥ĩ. "
Ġà¤¹à¤® à¤°
Ġ5 37
à¤ķà¤ł à¤ª
Ġà¤¹ à¤²à¤µ
Ġ4 92
ĠÎ ¼
5 35
a st
à¤ī à¤Ľ
à¤¬à¤° à¤¡
à¤¬à¤² à¤ķ
00 7
Ġ14 53
à¤ľ à¤²à¤®
à¤Ĩà¤° à¤ıà¤¨
Ġà¤ĵ à¤¹à¤¨
Ġ(; ),
Ġd es
à¤Ĺà¤° à¤Ł
3 24
5 63
-------- ----
à¥Ĥ )à¥¤
Ġà¤ıà¤¨ à¤®
Ġ5 21
à¤Ĩà¤Ĺ à¤®à¤¨
7 70
à¤ģ /
Ġà¤ı à¤°à¤¨
Ġà¤° à¤¶à¤°
à¤°à¤¹ à¤ª
8 20
à¤¬ à¤¨à¤¸
à¤¥à¤¨ à¤¶
Ġà¤Ĩà¤° à¤¡à¤¬
Ġà¤ĳà¤¨ à¤¡
Ġà¤ĳ à¤¡à¤²
Ġà¤¸à¤¬ à¤¬
à¤Ł à¤ķà¤¸
Ġà¤ħà¤ľ à¤µ
35 2
Ġ4 97
Ġ100 1
à¤¤à¤° à¤¨
17 48
3 18
à¤¶à¤¨ à¤®
Ġ4 77
Ġ46 7
8 70
Ġà¤¨à¤ľ à¤«
Ġd o
à¤ħ à¤¬à¤¦
à¤Ī à¤ķà¤°
Ġà¤° à¤¡à¤°
à¤®à¤ĸ à¤®à¤²
à¥Īà¥¤ ]
50 2
28 9
Ġ15 14
Ġà¤¸à¤ľ à¤¦
Ġà¤¤à¤¤ à¤¸
Ġ9 12
Ġà¤Ĩà¤¬ à¤¨
à¤¹ à¤ľà¤¹
à¤Ĩ à¤¨à¤ķ
Ġà¤ıà¤¡à¤² à¤®
à¤Ĩ à¤ĩà¤ļ
à¤ķà¤¸ à¤¬à¤°
36 8
Ġà¤ķ à¤Łà¤¨
à¥ĩà¤Ĥ" :
à¥Ģà¥¤" (
0 30
à¤¯à¤¨ à¤ª
Ġà¤ĵ à¤¨à¤²
40 3
Ã¡ n
a u
à¤°à¤£ à¤µ
à¥ĭ" ;
3 31
Ġ11 30
3 27
Ġà¤ı à¤ĵà¤ķ
Ġà¤Ĭ à¤¸
Ġà¤ı à¤¤
34 8
4 29
o o
à¤« à¤«
Ġ4 98
85 9
Ġ %
35 9
Ġ48 7
à¥Īà¤Ĥà¥¤" (
à¥ĩà¤Ĥ -"
Ġ Äģ
à¤« à¤°à¤®
Ġ5 81
6 75
à¤ªà¤¨ à¤µ
45 7
à¤° à¤«à¤°
Ġ13 60
Ġ6 13
14 00
à¤ıà¤ļ à¤¬
45 1
36 7
0 40
Ġ55 1
à¤¾à¤ģ ")
47 6
Ġà¤ĵà¤¬à¤° à¤¹
Ġà¤ı à¤¤à¤¦
Ġ" .
à¤Ĩà¤Ī à¤ĵ
36 3
Ġ150 5
Ġ14 15
' )à¥¤
f e
50 7
Ġà¤² à¤ľ
Ġà¤®à¤¦à¤¦ à¤Ĺ
9 20
à¤µà¤¨ à¤®
Ġà¤¸ à¤°à¤¹
à¤Ī à¤¡à¤¨
88 8
à¤µ à¤Łà¤ķ
à¤Ĩ à¤ĩà¤Ĺ
Ġ4 94
Ġl e
Ġ47 9
0 80
Ġ70 5
Ġ48 1
3 17
à¤ª à¤Łà¤²
Ġà¤¹ à¤¸à¤²
70 5
Ġ5 34
ol d
Ġ15 11
Ġ6 17
Ġà¤Ĩà¤¯à¤¨ à¤®
Ġ4 91
Ġ15 31
à¤¤ à¤¦à¤°
35 3
Ġ48 3
Ġà¤¥ à¤°à¤®
Ġ( âĤ¬
38 7
x y
ab le
Ġ47 2
Ġà¤Ł à¤¨à¤¬
ar k
7 30
h r
à¤ĩ à¤²à¤µ
Ġ" +
38 3
on e
/ (
Ġà¤Ĺ à¤ľà¤²
ÏĦ Î¿ÏĤ
ĠÐ¼ Ð°
5 15
Ġ47 3
Ġ": "
60 5
77 7
Ġ8 90
i al
à¤° à¤¥à¤²
Ġà¤¤ à¤¡
38 1
à¤Ĺ à¤ĵà¤µà¤°
à¤² à¤µà¤¨
à¤¼à¤¼à¤¼à¤¼à¤¼à¤¼à¤¼à¤¼ à¤¼à¤¼à¤¼à¤¼à¤¼à¤¼à¤¼à¤¼
6 90
à¤® à¤Ń
à¤ĺ à¤¬à¤¦
Ġ80 8
o st
Ġ" ",
Ġ5 47
à¤ħà¤¨ à¤ª
Ġà¤ļà¤ķ à¤®à¤ķ
à¤Ĩ à¤²à¤®
à¤ł à¤ķà¤°
Ġà¤ĳ à¤¯à¤°à¤¬
à¤ªà¤°à¤ķ à¤¤
4 14
d f
Ġà¤īà¤² à¤¸
36 9
16 30
100 1
à¤¡ à¤¨à¤µ
à¤°à¤ª à¤Ł
ĠA D
à¤¦ à¤£
Ġ(, ),
Ġ4 93
à¤¸ à¤ĵ
à¤Ĺ à¤²à¤¬
Ġ" =
n f
Ï į
Ġà¤ī à¤°à¤¬
à¤ĩ à¤°à¤²
à¤®à¤¦ à¤°à¤¸
37 7
38 9
4 31
Ġà¤Ĩà¤° à¤ıà¤®à¤ıà¤¸
à¤¹à¤® à¤«
à¤ı à¤ªà¤²
37 9
s u
à¤ª à¤Ĩà¤īà¤Ł
à¤Ĩà¤Ĩà¤Ĩà¤Ĩ à¤Ĩà¤Ĩà¤Ĩà¤Ĩ
. ---
à¤Ł à¤§
à¤ħ à¤¹à¤°
à¤¨à¤µà¤° à¤²
Ġ13 90
44 2
6 95
8 13
à¤¸ à¤¬à¤²
à¤¨à¤¸ à¤¬
Ġ )
z y
à¤ī à¤Ĩà¤¨
Ġ5 41
- $
Ġà¤¡ à¤¬à¤¸
37 1
Ġà¤µà¤¤à¤¨ à¤¬
k e
à¤¸ à¤ľà¤¨
Ġà¤° à¤ķà¤°
à¤¼ )à¥¤
Ġà¤Ĩà¤¯ à¤¸
Ġ5 86
Ġb ut
Ġ', ',
" *
à¤ħ à¤·
Ġ90 1
à¤ĺ à¤µà¤¨
36 2
à¤¸ à¤¤à¤°
4 16
80 2
Ġ48 2
Ġxx i
a in
Ġà¤¸à¤° à¤Ĺà¤®
Ġ11 70
a i
à¤² à¤¯à¤®
Ġà¤Ī à¤Łà¤°
x t
Ġ und
à¤ģ !
16 90
Ġ5 48
à¤Łà¤² à¤µ
à¥ĩà¤Ĥ" )à¥¤
à¤« à¤²à¤ķ
4 32
Ġà¤¬à¤¨ à¤¬à¤°
Ġà¤ķà¤² à¤ķ
Î± Ïģ
à¤ħà¤« à¤µ
Ġ8 25
à¥ĩ" )à¥¤
Ġà¤¥ à¤²
50 8
l Ä±
Ġà¤¡ à¤Ĺà¤²
Ġ5 43
Ġa ct
ac k
à¥į .
Ġà¤¬ à¤Łà¤²
Ġ60 9
Ġà¤« à¤¨à¤²
Ġà¤ĩà¤¸ à¤¬
n i
Ġà¤īà¤¦ à¤¯à¤ª
à¤ı à¤¸à¤°
à¤¦ à¤¶à¤®
00 6
Ġ6 35
Ġà¤ıà¤ķ à¤ķ
à¤Ĩà¤Ī à¤ľ
70 1
5 33
17 49
Ġ55 3
p er
à¤² à¤ĵà¤µà¤°
Ġà¤ħà¤¬ à¤²
60 7
Ġ13 10
Ġ= >
à¤¬ à¤ķà¤®
17 07
16 20
ĠXX VI
à¤¯à¤² à¤¸à¤¨
Ġ5 19
38 2
4 64
9 11
17 53
à¥ĩà¤ĥ "
50 6
à¥Ĥà¤ģ à¤ĥ
Ġa ll
Ġà¤ī à¤¥
Ġ150 9
00 8
Ġ45 9
à¤¦ à¤ľà¤¨à¤ķ
4 13
Ð¾ Ð¾
Ġà¤¥à¤ķ à¤ķà¤°
Ġà¤® à¤¨à¤ķ
à¤¯ à¤¡à¤°
47 9
Ġ48 9
à¤¾! '
Ġà¤ı à¤ªà¤¨
Ġ( >
s r
9 40
l u
Ġ150 4
ĠÃ ħ
à¤Ĺà¤² à¤¹
Ġ5 39
) '
à¤¦à¤¨ à¤Ĺà¤°
Ġ6 28
8 90
à¤¯ à¤ļà¤²
à¤ľ à¤¯à¤ķ
à¤ī à¤¬à¤¨
à¥Īà¤Ĥà¥¤ )à¥¤
Ġà¤Ĩà¤° à¤Ĩà¤°
Ġ14 98
;;;;;;;; ;;;;;;;;
à¤¶ à¤Ĺà¤°
à¤ħ à¤¶à¤°
à¤ĩà¤Ł à¤ľ
/ âĪĴ
à¤Ĺ à¤Ĺà¤°
Ġ5 95
à¤¯ à¤¡à¤²
à¤ıà¤¸ à¤ĵ
Ġ6 24
Ġà¤ľà¤° à¤¬à¤°
34 2
5 68
à¤¥ à¤ķà¤¤
Ġà¤² à¤¹
66 6
à¤ıà¤¸ à¤ıà¤ļ
Ð» Ñĥ
3 88
Ġà¤ıà¤¨ à¤ıà¤¸à¤¡
à¤Ĩà¤° à¤Ĩà¤Ī
4 99
Ġ23 00
à¤¾à¥¤' "
Ġà¤ħà¤° à¤ĸ
* *
Ġà¤Ī à¤ı
ĠÎ ¹
37 2
os e
Ġà¤īà¤¬ à¤°à¤¤
à¤¯ à¤«à¤²
Ġà¤ķ à¤¹à¤°
Ġà¤¨ à¤¬à¤²à¤¸
16 88
Ġ150 2
Ġà¤¡ à¤Ł
à¥Īà¥¤ (
Ġ7 11
Ġ5 26
Ġ7 15
- )à¥¤
à¤ª à¤łà¤¨
à¥Īà¤Ĥ ]
17 47
Ġà¤®à¤² à¤¹
8 30
à¤¾, -
47 2
0 25
Ġà¤ı à¤Ĺà¤¸
Ġà¤Ĩà¤Ī à¤ıà¤ķ
55 6
46 7
3 29
Ġà¤ıà¤« à¤Ł
à¤ıà¤¨ à¤ļ
Ġà¤ıà¤µà¤° à¤Ł
4 33
5 64
à¤® à¤²à¤¬
à¤ıà¤« à¤¡à¤¬
Ġà¤¹ à¤¦à¤°
Ġ5 61
Ġà¤Ĳ à¤¬
Ġu p
Ġà¤¶ à¤«à¤²
50 4
Ġ60 6
Ġ[...] ..]
à¤¡ à¤®à¤¸
Ġà¤ıà¤ķ à¤Ł
à¤ħà¤¨ à¤ľ
Ġà¤¹ à¤°à¤¦
16 80
40 9
t y
x c
Ġ1 190
à¤Ĺà¤¤ à¤¨
Ġ5 49
Ġ5 71
Ġm m
3 94
Ġà¤¥ à¤ªà¤¥à¤ª
3 99
3 93
> "
l i
x ii
à¤ı à¤ļà¤°
Ġà¤ıà¤¡ à¤¸à¤¨
à¤ı à¤¨à¤®
à¤ıà¤« à¤Ĩà¤°
c ol
à¤¸ à¤¬à¤®
a h
50 3
à¤Ń à¤µà¤µ
à¤Ĩà¤° à¤Ĺ
4 28
Ġ5 46
à¤Ĩ à¤¦à¤¤
17 52
Ġà¤¸à¤¬ à¤ª
à¤¸ à¤¡à¤¬
Ġà¤ĩ à¤Łà¤°
à¤ī à¤Łà¤°à¤¨
à¤² à¤µà¤²
a z
à¤ħ à¤°à¤®
Ġ5 23
48 4
Ġà¤Ĩà¤¯à¤¨ à¤¨
Ġ14 93
Ġ150 8
48 7
à¤ī à¤¯
Ġà¤Ĺ à¤¹
34 9
à¤Ŀ à¤¤
Ġ7 25
47 8
5 24
à¤¥ à¤°à¤¸
à¥Ģ. |
Ġà¤¬à¤¡ à¤µ
Ġ5 82
Ġ14 10
à¤ķ à¤Łà¤²
à¥ĥ -
à¤¬à¤° à¤¸à¤¨
Ġ202 8
Ġ14 95
Ġ(,, )
à¤Ł à¤ĵà¤µà¤°
Ġ( (
à¥Ī; "
à¤Ĩà¤ĩ à¤ķà¤¨
à¤®à¤° à¤Łà¤¨
Ġ150 6
44 6
à¤¥à¤² à¤®
ÑĤÐµ ÑĤÐµ
br o
Ġà¤² à¤µà¤ľ
Ġà¤ıà¤® à¤Ĩà¤°à¤Ł
60 2
Î» Î¹
Ġà¤ļ à¤µ
17 44
37 3
à¥Īà¤Ĥà¥¤.. ]
à¥ĭà¤Ĥ !
Ġs in
à¤ıà¤¸ à¤Ī
à¤¨à¤¤ à¤¦
45 3
à¤°à¤¨ à¤¹
Ġà¤¨à¤Ī à¤®
46 9
à¤¦ à¤µà¤²
à¤ı à¤ªà¤°
Ġà¤®à¤¹ à¤«
Ġà¤ħà¤µ à¤ķà¤²à¤¨
à¥Īà¤Ĥ? ",
7 14
70 8
45 9
à¥Ģà¤Ĥ ?"
à¤ĩ à¤®à¤ķ
Ġà¤ªà¤° à¤Ĺ
Ġ14 97
45 4
w w
à¤Ĺ à¤Ĩà¤īà¤Ł
Ġ6 26
7 90
45 2
3 97
Ġ ]
Ġ65 5
Ġ70 4
à¥ĩ ]"
Ġ64 1
à¥Īà¤Ĥ )"
Ġ(- )
à¤ĵ à¤°à¤®
Ù Ĥ
à¤Ĭ à¤¤à¤ķ
Ġà¤¬ à¤ķà¤µ
Ġà¤¬à¤° à¤²
à¤ĸ à¤ª
65 6
Ġ5 36
Ġà¤īà¤¬ à¤²à¤¨
17 27
à¤ı à¤Łà¤®
Ġà¤¹ à¤²à¤®
8 95
Ġ5 67
Ġà¤Ĩ à¤ķà¤²
Ġ6 32
Ġ90 5
à¤° à¤¨à¤ķ
b y
à¤ī à¤¬à¤²
76 8
à¤°à¤¸ à¤¦
à¤ĩà¤ķ à¤¬
s o
Ġà¤Ĺà¤£ à¤ªà¤¤
at ed
Ġ11 60
16 10
3 91
Ġà¤¬ à¤²à¤°
à¥Ģà¥¤ "à¥¤
Ġ5 42
à¤¨à¤µ à¤ľ
Ġ120 4
Ġà¤ıà¤² à¤Ĺà¤°
Ð³ Ð°
Ġ7 65
Ġà¤ķà¤µ à¤ķà¤¨
à¤¿à¤ĥ "
4 88
à¤¸ à¤²à¤µ
à¤Ł à¤Łà¤¨
44 1
9 30
Ġà¤¶ à¤¹à¤¨
6 45
Ġà¤¸ à¤¨à¤®
Ġ6 27
à¥ĭ) "
4 23
47 7
à¤¬ à¤¬à¤°
Ġ( âĢ²
Ġ55 6
à¥ĩ? âĢĿ
Ġà¤ĵ à¤Łà¤µ
à¤ħà¤¨ à¤¡
47 4
à¤¨à¤ı à¤¯à¤°
Ġh er
HTTP S
7 75
à¤Ĩ à¤ĩà¤¡à¤²
Ġà¤ķà¤¬ à¤¡
à¤ĵ à¤ªà¤°
à¤ıà¤® à¤ıà¤¨
à¤¶ à¤®à¤°
Ġà¤ĳ à¤°à¤¸
ĠXX V
) ),
à¤Łà¤¨ à¤¶
à¥Īà¤Ĥ) :
................................................................................................................................ ................................................................
Ġ5 87
à¤ıà¤¸ à¤¯
16 89
85 5
Ïĥ Î¹
Ġ46 9
Ġ6 22
à¤ıà¤² à¤ıà¤«
Ġà¤ı à¤¬à¤²
Â· Â·
46 1
à¤¨ à¤¨à¤°
55 1
à¤ķ à¤¸à¤®
Ġà¤ħ à¤¹à¤µ
17 43
17 51
0 70
7 25
à¤ı à¤°à¤¨
à¥ĩà¤Ĥ, à¥¤
r t
s d
60 4
44 9
17 35
à¤¥ à¤²à¤¨
à¤ĩà¤¸ à¤¬
à¤Ĩà¤¦ à¤°à¤£
à¤ı à¤ķà¤¨
"à¥¤ ..
5 42
à¤¨à¤µ à¤¯
6 15
à¤¤à¤ķ à¤¤
à¥Ī! '
Ø ª
Ġà¤ħ à¤°à¤¹
15 50
60 9
à¤Ī à¤¥
Ġà¤¯ à¤Ł
à¤ĩà¤² à¤¹
Ġ14 83
à¤ĩà¤µ à¤Ł
à¤¾] ,
Î´ Îµ
à¤ĩ à¤°à¤®
Ġà¤ıà¤¨ à¤ıà¤¸à¤ı
à¤ħ à¤ļà¤²
Ġà¤ħ à¤¯à¤ķ
55 8
s l
à¤ĩà¤Ł à¤Ĺ
Ġ' ):
16 42
55 2
! )
Ġà¤µ à¤¬
Ġà¤ıà¤¨à¤ıà¤® à¤Ĩà¤°
0 63
Ġà¤ıà¤¨ à¤µà¤°
17 22
Ġ6 18
à¤ĩà¤ªà¤° à¤Ĺ
p g
17 46
Ġ6 21
9 10
9 38
à¤ĩà¤ľ à¤®
à¤ıà¤ı à¤ıà¤ı
à¤¡ à¤Ĺà¤°
Ġ HTTTPS
Ġ" à¥¤"
60 3
à¤¡ à¤²à¤¨
à¤¶ à¤¯à¤¨à¤ķà¤ķ
80 5
75 5
Ð³ Ðµ
4 24
f b
à¤¾" .
is s
Ġ6 67
à¤°à¤¬ à¤¦
Ù ģ
Ġ14 94
à¤® à¤¦à¤¨
Ġà¤¸à¤¹ à¤²
4 26
er y
Ġà¤¡ à¤¬à¤°
Ġà¤ķà¤® à¤¤à¤°
4 21
à¤Ĩà¤° à¤ıà¤ķ
à¤¡à¤°à¤ķ à¤µà¤°
à¤ķ à¤¸à¤°
Ġà¤ĸ à¤Ĺà¤¨
Ġ5 64
à¤µ à¤ĸ
Ġà¤µ à¤¯
17 08
Ġ60 8
Ġ45 00
Ġc c
w e
Ġà¤ĵ à¤ĺ
Ġ8 46
u c
à¤¨ à¤·
Ġ6 33
Ġ15 18
Ġ64 2
ĠS t
66 1
Ġ12 75
37 4
Ġà¤ĵ à¤°à¤µ
Ġ(+ /âĪĴ
0 90
à¥Īà¤Ĥà¥¤ ),
Ġà¤īà¤ª à¤¬
Ġ6 36
à¥Ģ. ://
17 14
17 25
à¤ķ à¤¨à¤ķ
Ġ7 31
Ïģ Îµ
0 15
5 45
Ġà¤¡ à¤«à¤°
à¤ĺ à¤¬à¤°
3 96
Ġà¤® à¤ĸà¤¨
à¤ħ à¤ķà¤²
17 39
16 70
0 12
à¤Łà¤¨ à¤«
Ġc oc
9 75
Ġ5 88
Ġ14 99
à¤ľà¤² à¤ª
à¤¯ à¤Ĩà¤īà¤Ł
à¤¨ à¤®à¤¨
à¤¤ à¤Ī
à¤ı à¤²à¤¯
à¤ı à¤¯à¤°à¤ķ
Ġ5 68
à¤µà¤¤ à¤ĸ
Ġ6 65
Ġ12 91
Ġà¤ĵà¤µà¤° à¤®
( )
6 35
Ġ à¤±
Ġà¤ıà¤ķ à¤µà¤°
10 86
70 7
ĠÐļ Ð°
Ġ5 63
à¤² à¤¡à¤¨
Ġ6 23
60 6
à¤¥à¤°à¤¨ à¤µ
5 95
f l
15 80
94 4
à¤¶ à¤ħà¤ª
à¤ıà¤« à¤ľ
à¤¯ à¤¦à¤°
Ġà¤µ à¤¤
Ġà¤ıà¤¸ à¤²
à¤¤à¤° à¤ª
80 1
h l
à¤ī à¤Ĺà¤°
à¤¥à¤° à¤Łà¤¨
à¥Īà¤Ĥ" ;
à¤¸ à¤ļà¤°
Ġà¤« à¤Łà¤¤
à¤ıà¤² à¤ķ
à¤ķà¤² à¤¹
Ġ10 70
Ġà¤Ĩà¤Īà¤ıà¤¸ à¤Ĩà¤Īà¤ıà¤²
Ġb g
à¤¯à¤ķ à¤²
3 92
4 66
à¤¡ à¤¨à¤ķ
Ġà¤ĳà¤² à¤Ł
Îº Î¿
ÑģÐ¸ Ñı
à¤ĩà¤¡ à¤¬à¤°
Ġ64 8
5 18
à¤ķà¤° à¤¬à¤°
Ġ5 99
à¤¸à¤² à¤Łà¤¨
Ġ55 4
à¤¿à¥¤ ),
Ġà¤Ĩ à¤²à¤¬
Ġ60 7
64 3
9 70
à¤¨ à¤®à¤²
Ġ14 71
48 1
48 2
à¤ħ à¤µà¤ľ
à¥Į à¥¤
ĠU S
Ġ R
it e
Ġb es
8 25
à¤Ŀ à¤®
Ġ10 24
15 90
78 9
Ġà¤¡ à¤Ĺà¤¡
à¤¤ à¤ĺ
Ġ* )
Ġà¤īà¤ª à¤®
Ġà¤ĵ à¤¬à¤°à¤²
Ġ12 96
à¤īà¤¸ à¤¬
Ġà¤¨ à¤ĸà¤ļ
Ġ13 46
64 1
4 94
4 68
Ġ13 27
16 25
it t
à¤Ń à¤¹
ĠÐ¼ Ðµ
id e
à¥Īà¤Ĥ );
16 18
x f
Ġ5 78
.) "
6 12
Ġ9 24
65 5
64 6
4 27
c m
à¤ħà¤ķ à¤¬à¤°
un g
17 23
Ġà¤ı à¤ľà¤¬
Ġ13 48
5 34
4 48
Ġ6 61
Ġ5 74
à¤¸ à¤Ĺà¤°
17 42
55 4
à¤ľ à¤µà¤°
Ġà¤Ľ à¤²à¤¨
Ġà¤ķà¤² à¤µ
à¤ı à¤ıà¤ª
Ġ" -"
Ġà¤¦à¤° à¤«
Ġ14 75
47 1
à¤¾! âĢĿ
an ce
à¤ĵ à¤¬à¤°à¤²
à¥Ģ. ]
Î± Î¹
ÏĦ Î¹
ĠÂ§ Â§
Ġ8 15
5 85
96 5
à¤¹ à¤¨à¤°
17 36
Ġà¤Ĺà¤£ à¤ķ
Ġ(Â ±
Ġà¤Ĺ à¤¹à¤¨à¤¤
Ġà¤¤à¤°à¤£ à¤¤
4 34
17 41
Ġ5 62
à¤¸à¤² à¤¸
Ġ7 75
76 7
5 11
à¤ıà¤« à¤ıà¤¨
f a
à¤¨ à¤²à¤°
à¤ģ ),
80 6
0 18
g g
à¤ıà¤² à¤ı
à¤ķ à¤®à¤¨
à¤ĩà¤² à¤²
ii ii
Ġà¤¸à¤° à¤µà¤¨
Ġà¤ķà¤² à¤Ĺ
4 19
à¤¸à¤¨ à¤®
à¤² à¤ıà¤ķ
à¤ª à¤Ĺà¤¡
Ġà¤ıà¤ķ à¤ª
Ġà¤Ĩ à¤°à¤¤
à¤ĵ à¤ĩ
46 2
ÑģÐ¾ Ðµ
à¤¨à¤¬ à¤Ł
à¤ħ à¤ªà¤¸
P A
à¤Ĩ à¤ĩà¤Łà¤®
à¤µà¤¨ à¤²
9 25
à¤ħ à¤²à¤ķ
à¤Ĺà¤² à¤ª
47 3
15 70
Ġ5 73
à¤ı à¤µà¤¨
Ġ9 97
Ġ55 7
o y
st r
à¥ĩ) :
48 3
6 28
k s
v al
à¥ĭ ',
à¤Ĩ à¤ĩà¤¨
Ġà¤Ĩ à¤ĩà¤Ł
4 96
ĠUT C
Ġ7 14
6 14
7 47
Ġ Y
Ġ12 15
à¤ĩ à¤ľà¤²
à¤ĵ à¤ĩà¤¸
Ġà¤ıà¤¨ à¤Ĩà¤°
46 3
à¤ĩà¤¸à¤¨ à¤°
5 71
Ġ14 61
à¤ħà¤¨ à¤«
à¤ī à¤¤à¤¨
00 9
à¤ĳ à¤Ĺ
Ġ7 17
Ġà¤°à¤£ à¤ľ
à¤ī à¤Łà¤®
Ġ12 95
Ïģ Î¿ÏĤ
Ġà¤ĳ à¤²à¤Ĺ
Ġà¤īà¤ĸ à¤¡
7 11
Ġ70 6
Ġa b
44 3
Ġà¤ªà¤ļ à¤¹à¤¤
7 37
c s
0 11
Ġà¤Ĺ à¤ľà¤¨
Ġ à¥¤à¥¤à¥¤
Ġ6 19
64 4
à¤ĵà¤µà¤° à¤²
Ġ5 84
Ġ8 75
à¤¯à¤¸ à¤µ
Ã© n
Ġà¤ıà¤ķ à¤¹
Ġà¤¡ à¤®à¤°
Ġ55 9
à¤² à¤¹à¤¨
Ġ5 97
Ġ6 85
à¤īà¤¨ à¤¸à¤µ
o b
à¤ĩ à¤°à¤¨
Ġ6 29
17 37
4 18
17 18
à¤Ł à¤ľà¤°à¤²
à¤®à¤ķ à¤®
Ġ6 34
m in
à¤ĩ à¤°à¤¹
Ġà¤¯ à¤µà¤¨
Ġ6 31
Ġ8 88
à¤µ à¤Łà¤¨
Ġà¤ħ à¤¶à¤ķ
à¤Ķ à¤¬
Ġ6 39
70 9
ĠWw w
0 42
ĠÐļ Ð¾
0 24
à¥Ī! âĢĿ
7 22
16 05
6 32
re ss
ĠÏĦ Î±
5 21
6 17
Ġà¤ª à¤«à¤ķ
à¤¬à¤° à¤Ĺ
Ġà¤ķà¤Ł à¤Ĩà¤īà¤Ł
à¤ķà¤¨ à¤«
Ġ9 35
Ġ65 1
Â ±
à¤ľ à¤¬à¤°à¤¦à¤¸
Ġà¤Ł à¤µ
à¤ķà¤¨ à¤Ł
à¤Łà¤² à¤Łà¤¨
Ġ10 40
17 13
à¤¸ à¤Īà¤¦
à¤· à¤§à¤°
7 86
Ġà¤° à¤®à¤¸
à¤£ à¤¶à¤ķ
17 24
à¤ĭ à¤¤
Ġ150 7
ĠW W
5 77
? ",
Û ģ
96 9
4 37
7 95
à¤« à¤²à¤¨
Ġà¤ªà¤° à¤¶
Ġ10 10
Ġà¤ıà¤¶ à¤µà¤°
/ *
Ġà¤¹ à¤°à¤¶
Ġ+ -
Ġrh ys
0 75
17 33
17 34
Ġx h
ag e
à¤ı à¤Łà¤µ
Ġà¤Ĳ à¤Ĺ
4 92
5 31
Ġ14 88
16 85
7 12
à¤Ī à¤ıà¤«
Ġ13 25
78 7
Ġ5 72
68 1
à¤¯à¤® à¤¬à¤°
Ġà¤¬à¤° à¤ľ
Ġà¤ıà¤¡ à¤ª
> -
6 85
78 1
4 97
à¤Ĩ à¤¸à¤®
Ġà¤ĳ à¤¸à¤°
17 01
à¤Ĩ à¤¥
Ġà¤ıà¤ķ à¤°à¤¸à¤¤
Ġ3 200
Ġà¤Ĩà¤¸à¤µà¤¨ à¤¶
5 23
Ġà¤ıà¤¸ à¤Īà¤ĵ
à¤ľ à¤¯à¤ª
à¤¾à¥¤ ),
16 72
à¤¸ à¤ıà¤«
16 67
à¤¸à¤¹à¤¨ à¤¶
à¤Ĩà¤° à¤ıà¤«
C C
c r
5 38
à¤Ł à¤®à¤°
Ġ5 66
Ġ5 79
17 32
4 36
à¤īà¤¥ à¤«
à¥Ĥà¤ģà¥¤ '
à¤Īà¤ıà¤¸ à¤Ī
à¤Ĺ à¤ªà¤¶à¤ª
Ġ55 8
70 2
55 3
à¤Ĩ à¤¨à¤µ
Ġà¤ħà¤¸ à¤²à¤®
Ġ13 49
Ġr d
9 95
17 29
90 1
90 6
Ġà¤ķà¤° à¤¬
à¤¬à¤° à¤¹
5 16
16 75
4 91
Ġà¤ħ à¤¥à¤¨
Ġà¤¨ à¤Łà¤²
Ġ13 01
ion s
à¤Īà¤Ĩà¤Ī à¤¯
5 84
Ġb r
ac t
6 76
Ġà¤Ĺ à¤ª
0 14
Ġ5 89
Ġà¤Ĩà¤Īà¤ıà¤¸ à¤Ĩà¤Ī
7 65
à¤¾à¥¤ (
Ġ12 82
à¤īà¤¥ à¤¸
67 9
Ġw ere
Ġf m
6 97
s f
Ġà¤ĵ à¤ĩà¤°
Ġà¤ıà¤² à¤¡à¤¬
Ġà¤ıà¤« à¤ıà¤¸
5 27
à¥Ģà¥¤ ;
Ġà¤ıà¤®à¤ıà¤¸ à¤ıà¤¨à¤¬
6 13
Ġà¤¸ à¤¨à¤Ł
à¥Ī?" (
5 76
à¥Ģ" :
à¤¾- '
Ġg o
Ġà¤ĩà¤° à¤Ĺà¤¨
Ġà¤¡ à¤Ĺà¤°
5 28
5 44
17 28
à¤Ĩà¤Ī à¤Īà¤¸
à¤ıà¤¡ à¤²à¤°
17 02
¼ Ģ
Ã İ
15 98
90 9
5 22
à¤ķ à¤ķà¤²
Ġà¤¬ à¤ķà¤¹
16 09
Ġ75 4
ĠÃ¶ re
0 36
á ¼Ģ
17 26
86 5
64 2
Ġà¤® à¤Ĺà¤²
Ġà¤ı à¤Ĺà¤²
Ġ9 14
%) ;
à¤ª à¤ł
à¤Ĥ )à¥¤
à¤¦ à¤¹à¤¨
à¤¥ à¤°à¤®
5 14
60 8
à¥Īà¥¤ âĢĻ
Ġ9 25
à¤Ĩà¤¤ à¤²
à¥ĩà¥¤.. "
4 47
Ġ5 94
o h
x r
à¤ĥ //
Ġ7 18
95 8
à¤¡ à¤®à¤¨
à¤· à¤¶
à¤Łà¤¨ à¤°à¤¶
ne w
0 28
0 48
3 98
S A
Ġà¤ıà¤¸ à¤ıà¤²à¤¸
à¤¬à¤¦ à¤¦
97 8
Ġ(; ;
à¤¸à¤ķ à¤¨
16 83
à¤¬ à¤Łà¤°à¤«
à¤ĩ à¤ĵà¤²
à¤¹à¤° à¤µà¤°
Ġ7 12
mi le
à¤¸à¤² à¤ķ
Ġ9 17
Ġ13 08
Ġ64 4
Ġp p
0 23
v en
à¤¼à¤¾ ),
Ġà¤ıà¤Ł à¤ª
Ġà¤Ĩà¤Ī à¤ĵà¤ıà¤¸
Ġà¤ħà¤¤ à¤¸
7 15
x l
à¤¤ à¤Ń
à¤¬ à¤¬à¤²
à¤ħ à¤¨à¤²
Ġ(" )
à¤¬ à¤¨à¤¨
Ġc an
0 16
0 35
7 85
Ġ6 64
Ġ70 9
0 45
Ġà¤ĩ à¤ĵ
Ġ6 38
66 8
Ġ" $
0 13
m b
15 40
à¤ħ à¤ĺ
17 16
80 4
à¤ľ à¤²à¤¨
5 26
à¤² à¤Łà¤¸
à¤ĵ à¤¦
à¤¡ à¤¨à¤²
17 17
à¤¡ à¤ıà¤«
Ġ14 02
6 36
17 38
65 4
il d
a id
à¥ĭ ]"
à¤Ł à¤¡à¤¬
à¤Ī à¤ı
Ġà¤ĳà¤² à¤ľ
Ġk n
5 89
à¤ķà¤° à¤ĺ
ÏĦ Î¿Î½
Ġà¤ıà¤ļ à¤ıà¤¸à¤µ
Ġà¤² à¤µà¤Ł
à¤¬à¤° à¤Ĺà¤°
Ġ7 32
à¤Ĩà¤° à¤ıà¤®
Ġ90 2
Ġ64 3
à¤µà¤° à¤¬à¤°
st er
à¤° à¤ļà¤°
à¤īà¤¨ à¤Łà¤¨
r s
Ġà¤ī à¤®à¤²
17 21
à¤ĩ à¤µà¤¸
Ġ90 3
a re
Ġ12 41
Ġà¤¬ à¤¦à¤ķ
Ġ5 92
Ġ| %
Ø§ ÙĦ
à¤° à¤²à¤¯
Ġà¤® à¤¡à¤Ĺ
à¤ħà¤¨ à¤Ł
Ġà¤īà¤¤ à¤°à¤ķà¤°
Ġà¤ıà¤® à¤¡à¤¬
Ġà¤«à¤° à¤ľ
Ġ64 6
5 13
Ġ11 40
à¤īà¤Ń à¤¯à¤ļà¤°
5 48
Ġà¤¨ à¤¨à¤ķ
Ġ13 77
i j
à¤ĵ à¤ıà¤²
0 65
à¤¡ à¤¸à¤®à¤°
Ġà¤ĳ à¤¯à¤°
70 4
55 7
en ce
Ġà¤¬ à¤¸à¤¤
Ġà¤ı à¤ıà¤¸à¤ª
16 45
à¤¸à¤° à¤¬
à¤£à¤¨ à¤ĸ
Ġthe y
à¤¬ à¤µà¤°
70 3
5 49
16 54
5 39
Ġà¤Ĺ à¤Ĺ
17 12
- ),
à¤Ĩ à¤µà¤§
Ġà¤ħà¤¤ à¤²
Ġ14 82
Ġ65 7
5 86
n h
à¤¨ à¤ĸà¤°
16 97
Ġà¤Ĩà¤ĩ à¤¸à¤¨
4 39
g u
à¥ĭà¤Ĥ ?"
Ġà¤¶ à¤®à¤¶
16 41
9 14
un t
Ġà¤ĸ à¤¯
à¤¯à¤® à¤µ
à¤ĩà¤ķ à¤«
à¤ļà¤² à¤ļ
90 5
à¤®à¤¦ à¤Ĺ
à¤¦à¤° à¤ª
5 29
à¤¸à¤² à¤¹
15 60
ran ce
à¤¬ à¤Ĺà¤²
à¥Ī >
Ġà¤¡ à¤¨à¤¹
Ġà¤Ī à¤¨
Ġà¤Ī à¤Ĺ
à¥Ģà¥¤.. "
à¤® à¤¯à¤ķ
Ġ65 6
85 7
86 4
Ġin t
Ġ5 93
à¤Ĩ à¤¬à¤°
à¤ªà¤¨ à¤¬
à¤¨à¤° à¤¡
Ġ6 95
65 1
à¤Ŀ à¤°à¤¨
à¤ĩà¤¸ à¤¡
16 43
à¤¹ à¤ļà¤°
à¤¥ à¤²à¤°
17 03
k r
Ġà¤° à¤¬à¤¡
Ġ14 96
5 88
à¥ĭà¤Ĥ -"
à¤¾! ",
Ġà¤¶ à¤°à¤¤
à¤ĵ à¤¸à¤¬
Ġà¤ħà¤² à¤«
Ġ12 34
Ġà¤ıà¤¬à¤° à¤¦
6 000
à¤Ĺà¤¨ à¤¶
Ġà¤¹à¤¸ à¤¬
7 94
Ġà¤° à¤¦à¤°
à¤®à¤ķ à¤µ
Ġ13 99
à¤ªà¤² à¤¸
ĠÏĦ Î¿Î½
à¤² à¤¸à¤¸
7 17
à¤¸ à¤Ĳà¤ª
à¤Ĺ à¤®à¤¤
5 94
6 33
à¤§ à¤¸à¤®
à¤°à¤£ à¤¤
Ġ65 2
Ġ80 5
65 2
ac e
Ġà¤¥ à¤¨
Ġà¤ļ à¤Ĺ
Ġ7 35
16 35
16 61
à¤Ĺà¤° à¤Ĺ
Ġà¤Ĩà¤Ī à¤¸à¤²
16 49
16 32
Ġà¤« à¤¡
à¤¾à¤ģ )à¥¤
Ġà¤ľà¤¨ à¤¸à¤®
Ġ8 12
Ġà¤¶à¤¹ à¤ľ
Ġwh o
Ġà¤ľ à¤¯à¤¦
Ġà¤¶ à¤Ĺ
Ġ5 69
Ġ11 20
Ġ7 16
à¤ĩà¤¡ à¤Ĺ
Ġm an
à¤ı à¤¥à¤°
05 6
Ġh im
Ġà¤ķà¤° à¤¸
Ġà¤¶ à¤¬à¤°
Ġ5 98
96 4
Ġà¤¸ à¤¨à¤²
Ġ7 13
Ġà¤® à¤°à¤ķ
Ġà¤ıà¤® à¤ıà¤¸à¤ıà¤¸
Ġ12 10
84 1
Ġ" ),"
Ġc r
Ġ90 8
97 6
Ġà¤ħà¤ª à¤ĺà¤Ł
Ġ14 55
4 93
7 27
Ġ13 07
77 8
,,,,,,,,,,,,,,,,,,,,,,,,,,,,,,,, ,,,,,,,,,,,,,,,,,,,,,,,,,,,,,,,,
. ")
Ã ¢
Ġà¤Ĩ à¤°à¤¹à¤¸
ĠÎ ¬
5 19
5 81
Ġà¤īà¤® à¤¡
à¤² à¤ĺà¤°
à¤¡ à¤°à¤¤
Ġ7 41
Ġ14 78
16 38
z z
ĠÏĢ Î¿
6 29
à¤°à¤® à¤µ
16 99
Ġ65 8
Ġ"[ [
48 9
Ġth ere
à¤¯ à¤¦à¤²
Ġà¤¨ à¤¸à¤°
Ġà¤ı à¤ľà¤ķ
à¤°à¤£ à¤¶
Ġà¤ıà¤² à¤ıà¤¨à¤¬
Ġ7 68
à¥Ĥà¥¤ ,
Ġà¤ıà¤Ĺ à¤¬
Ġà¤Ķ à¤¨
Ġà¤Ł à¤¬à¤®
16 21
Ġà¤ıà¤¬ à¤µ
86 6
8 15
Ġà¤ĵ à¤ĩ
à¤®à¤¤ à¤²à¤¬
Ġà¤ħà¤ª à¤Łà¤¨
à¤ıà¤¨ à¤ıà¤ļ
16 66
Ã¶ n
y n
Ġ65 3
à¤¸ à¤¸à¤¨
Ġ6 78
Ġà¤ľà¤² à¤ķà¤°
Ġ13 86
Ġà¤¸à¤® à¤¬
20 25
à¤ª à¤¹à¤®
à¤ĩ à¤µà¤¨
17 04
à¤ķà¤Ł à¤µ
à¤Ĩà¤Ī à¤ĵà¤µ
5 87
Ġà¤ħ à¤¯à¤¤
à¤¼ à¥Ĥ"
à¥ĭà¥¤ âĢĿ
7 92
Ø ¹
à¤¨à¤µ à¤ª
16 29
à¤°à¤¨ à¤¬
9 85
k er
Ġst at
à¤¸ à¤¡à¤²
à¤® à¤¶à¤°
Ġ5 91
Ġ00 00
Ġs m
à¤ħ à¤°à¤µ
Ġà¤Ĩà¤¯à¤° à¤¨à¤¸
i re
à¤¨ à¤°à¤µ
à¤¬ à¤Ĺà¤°
Ġ13 95
16 58
76 9
Ġà¤Ĺ à¤Łà¤°
Ġ6 37
16 65
âĢ Ķ
à¤īà¤¥ à¤¹
5 66
6 11
à¤ķ à¤ı
à¤ķ à¤ıà¤¡à¤°
à¤¡ à¤Ĺà¤²
à¤¶ à¤¹à¤¦
Ġ6 88
Ġ70 3
99 7
Ġà¤¬ à¤¸à¤µ
Ġà¤ĳà¤« à¤°
à¤§à¤¨ à¤ª
0 22
à¤Ī à¤ªà¤°
Ġ13 47
Ġm cl
à¤ħà¤µ à¤®
Ġà¤ħà¤ķ à¤°à¤®
à¤Ł à¤¶à¤¬
à¤¾à¤ģ !"
Ġc f
ÑĤ Ñĥ
! ,
à¤ħ à¤¬à¤°
Ġ7 45
68 4
6 22
Ġ9 15
Ġ13 88
68 2
5 78
Ġ7 22
Ġ7 24
à¤²à¤® à¤£
80 3
Ġ70 8
5 32
Ġ6 84
25 00
à¤¾] à¥¤
Ê¼Ê¼Ê¼Ê¼Ê¼Ê¼Ê¼Ê¼Ê¼Ê¼Ê¼Ê¼Ê¼Ê¼Ê¼Ê¼ Ê¼Ê¼Ê¼Ê¼Ê¼Ê¼Ê¼Ê¼Ê¼Ê¼Ê¼Ê¼Ê¼Ê¼Ê¼Ê¼
6 26
à¤§ à¤°à¤¨
Ġ6 62
75 1
à¤ĵà¤µà¤° à¤Ł
0 21
9 12
à¤ĩ à¤ĺ
à¤®à¤¨ à¤¬
4 98
à¤¢ à¤ķà¤°
5 61
6 94
Ú ©
Ġ8 19
//////// ////////
Ġà¤Ĩà¤¯à¤° à¤¨à¤µà¤°
Ġà¤¯ à¤Ĺ
77 2
0 31
8 21
à¤ĩ à¤ªà¤ķ
à¤²à¤° à¤¨
à¤²à¤¬ à¤®
à¤¡à¤° à¤Łà¤¨
à¤ļà¤° à¤Ł
Ġc d
05 7
Î´ Î¹
à¤ı à¤Łà¤¨
à¤ı à¤®à¤¨
à¤¨ à¤µà¤²
à¤ķà¤Ł à¤®
15 96
Î¬ Î½
à¤° à¤ªà¤¨
à¤ĵ à¤ı
à¤ĩà¤® à¤Ĩà¤īà¤Ł
8 27
z e
à¤¤à¤¨ à¤ĸ
à¤¬à¤¨ à¤¯
Ġ90 7
65 9
Ġ90 4
Ġà¤Ńà¤Ĺ à¤µà¤¤
5 46
6 47
à¤ķ à¤Ĺà¤¨
à¤ĺ à¤¨à¤ķ
à¤ģ )à¥¤
Ġ5 96
Ġ14 76
5 17
5 67
7 19
7 35
Ġ9 78
0 66
6 96
à¤ıà¤² à¤ıà¤²
16 52
Ġà¤Ĺ à¤®à¤²
Ġ20 40
Ġ8 26
à¤ĩà¤ķ à¤µ
77 4
Ġà¤ħ à¤¯à¤®
- ?)
Ġà¤ı à¤ıà¤¸à¤Ł
Ġà¤Ĺ à¤¨à¤¶
Ġ9 85
76 2
à¥Ĥ !"
Ġà¤ħà¤¸ à¤Ĺ
Ġ10 30
à¤¬ à¤¥à¤¨
17 31
86 8
Ä± r
Ġ7 48
Ġ14 25
17 05
/ '
Ġ13 85
0 96
16 62
16 56
Ñĩ Ñĥ
Ġà¤Ĩà¤° à¤ıà¤«
Ġà¤¬à¤ļ à¤°à¤ļ
75 4
95 5
86 7
16 24
90 8
Ġà¤¸à¤¹ à¤ªà¤°
17 11
64 8
à¤ħà¤ª à¤Ł
5 74
8 93
à¤ħà¤¨ à¤¬
Ġà¤® à¤¸à¤°
à¤ļ à¤ķà¤²
Ġ12 25
77 3
% "
à¤ķ à¤®à¤ķ
75 6
ĠXXX VI
0 95
Ġ8 65
75 7
à¤¹ à¤Łà¤¨
Ġà¤ħà¤Ĺ à¤¬
0 71
Ġ7 44
Ġ12 85
17 19
13 68
88 9
Ġ75 3
Ġà¤¸à¤¬à¤® à¤¶
à¥Ģ. .
77 1
à¤°à¤¤ à¤¨
Ġà¤ĵ à¤°à¤¹
à¤®à¤ķ à¤®à¤ķ
Ġà¤¬ à¤Łà¤ķ
16 76
16 82
à¤¼à¥ģ ,
ch e
Ġà¤®à¤Ĺ à¤§
67 2
7 45
à¤¸ à¤ıà¤¨
Ġ6 72
à¤Ĩà¤Ī à¤¬
85 3
Ø§ ÙĨ
Ġà¤ī à¤ĩà¤Ĺà¤°
à¤ķà¤° à¤¦
6 31
Ġà¤¬ à¤«à¤¨
Ġ8 95
Ġà¤¸à¤¬ à¤¯
0 27
à¤« à¤Łà¤¨
à¤®à¤¨ à¤ľ
Ġ7 21
Ġ7 26
Ġ8 55
Ġ9 96
17 09
Ġà¤¬à¤°à¤ķ à¤¤
5 37
Ġ" )"
Ġch r
Ġ6 86
Ġ7 42
5 43
9 35
s c
à¤¯à¤° à¤¥
Ġà¤Ĩà¤° à¤ıà¤¸à¤ıà¤¸
16 55
à¤¸à¤¬ à¤µ
i y
Ġà¤° à¤ķà¤¤
15 20
0 85
9 29
b f
6 78
à¤ħ à¤¹à¤®
à¤Ĩ à¤Łà¤²
Ġà¤ıà¤ļ à¤ıà¤ķ
0 19
6 86
ic a
ation s
à¤Ŀ à¤¦
à¤ıà¤¸ à¤¡à¤¬
Ġ8 14
à¥Īà¤ĥ -
Ġ80 3
Ġbe en
0 17
7 13
Ġà¤®à¤¨ à¤¶
Ġ65 4
65 3
ak e
Ġà¤ĵ à¤Łà¤¸
9 16
Ġà¤ľà¤° à¤¬
à¤ıà¤² à¤ıà¤ķ
98 1
0 38
6 39
à¤Ī à¤Łà¤¨
Ġà¤Ĩ à¤®à¤²
Ġ5 83
Ġ6 63
Ġ8 13
97 2
67 4
5 47
8 14
Ġà¤ķ à¤µà¤²
à¥ĩà¥¤ .
à¥ĭ, "
ĠÄį esk
5 62
7 88
| "
Ġ6 81
à¤ħ à¤¦à¤²
Ġà¤Ī à¤²à¤®
Ġ9 75
Ġm y
0 26
à¤¨ à¤ħà¤ª
à¤ª à¤¦à¤¨
à¤ī à¤ľà¤°
à¤Ĩ à¤°à¤¯
b d
à¤¨à¤¹ à¤²
Ġà¤ķ à¤¥à¤°
Ġà¤Ī à¤µà¤¨
55 9
jÃ¶r n
5 96
Ġà¤® à¤¨à¤°
Ġ13 75
8 17
à¤« à¤¦
oug h
à¤² à¤°à¤µ
Ġ12 97
à¤Ńà¤Ł à¤ķà¤¨
9 19
à¤¸ à¤¦à¤®
Ġ14 35
/ à¥¤
6 27
8 85
à¤¸ à¤ıà¤Łà¤²
à¤¶ à¤Łà¤²
Ġ13 14
Ġà¤ķ à¤¨à¤²
à¤ĩà¤Ł à¤¬à¤°
à¤īà¤ª à¤¸à¤°
à¤ĩà¤¬à¤° à¤Ĺ
0 49
à¥ĩà¤Ĥ" ),
75 9
Ġà¤Īà¤¯à¤° à¤µ
0 33
5 41
6 65
7 26
o f
Ġà¤¬à¤¹ à¤²
Ġ8 45
Ġ6 73
86 1
Ġon e
ĠG M
6 34
8 16
8 99
Ġà¤¹ à¤Łà¤°
Ġà¤ľ à¤¬à¤°
Ġ13 81
Ġ75 5
Ġà¤ĩ à¤¯à¤°à¤¹
Ġà¤ıà¤« à¤µ
Ġ9 65
à¤¼à¥ĭ à¥¤
5 72
Ġà¤ĳà¤« à¤¬
à¥Īà¤Ĥà¤ĥ -
93 2
0 67
Ġ95 6
à¥Īà¥¤ à¥¤à¥¤"à¥¤
Ġ9 36
16 51
77 6
05 4
7 28
Ġà¤ĵ à¤ķà¤¡
15 30
Ġà¤ĵ à¤ķà¤®
Ġsu ch
................................................................................................................................................................................................ ................................
Ġà¤¸ à¤¶
Ġà¤¯ à¤®à¤¦
16 23
Ġà¤ĭ à¤Ĺ
90 2
75 8
8 18
à¤ķ à¤®à¤¤
à¥ģ à¥ĭà¤Ĥ
à¤ķà¤² à¤¸à¤«
Ġ13 12
15 92
0 47
5 82
à¤ı à¤ıà¤¸à¤ª
à¤Ĩ à¤īà¤Łà¤°
ĠÃ¶re bro
Ġà¤Ł à¤ľ
16 11
88 2
8 45
à¥Ī, -
Ġ8 11
Ġ9 62
Ġk r
Ġà¤Ĭ à¤®
Ġ1 185
à¤¸à¤° à¤«
à¤°à¤Ĺ à¤¢
Ðµ Ðµ
Ġf is
Ġà¤Ĺ à¤²à¤Ĺ
Ġà¤¤ à¤°à¤¸
Ġà¤¸à¤° à¤«
à¥Ĥà¤Ĥ ?
88 4
à¤¨à¤¤ à¤®à¤¤
Ġ80 6
85 2
97 7
7 44
Ġ J
à¤ĩ à¤īà¤Ł
Ġà¤ĩ à¤¯à¤¨
Ġà¤ıà¤¸ à¤Ĺ
6 64
Ġ )à¥¤
Ġà¤Ķà¤° à¤²
05 8
Ġà¤ıà¤Ĺ à¤¬à¤°
68 7
Ġ6 76
Ġ6 69
16 34
à¤¨à¤ľ à¤Ī
à¤¤à¤¨ à¤¦
.---- -
6 21
p e
Ġà¤¸à¤¹ à¤µà¤°
Ġ6 87
80 9
à¤¾! "à¥¤
à¤ı à¤ĵà¤¸
Ġà¤ħà¤¸ à¤«
É ĳ
à¥Īà¤Ĥà¥¤ "à¥¤
Ġ64 9
7 18
75 3
5 91
Ġ9 44
Ġ14 64
0 29
m ol
à¤ª à¤«à¤°
Ġ6 68
à¤Ĩà¤Ī à¤®
Ġ12 65
Ġà¤ĩà¤² à¤ĸ
Ġà¤Ĺ à¤Łà¤®
Ġà¤¶ à¤®à¤¸
Ġ13 15
86 9
99 8
à¤ħà¤ħà¤ħà¤ħ à¤ħà¤ħà¤ħà¤ħ
5 98
à¤µ à¤Ĺà¤¨
Ġ7 85
Ġ= -
99 6
Ġà¤Ĩ à¤ĵà¤®
Ġà¤ĩ à¤¶à¤®
Ġ13 22
6 38
Ġc l
à¤ıà¤ı à¤ıà¤«
Ã¶ y
8 23
à¤° à¤Łà¤²
à¤Ł à¤®à¤¨
Ġà¤ĵ à¤¬à¤°à¤¸
à¤¨à¤ķ à¤°à¤£
Ġà¤ıà¤® à¤®
86 3
Ġ75 1
5 79
à¥ĩà¤Ĥ ]]
Ġ20 35
à¤°à¤¤ à¤²
Ġ12 74
à¤¿" :
70 6
Ġà¤¬à¤¡ à¤Ĺ
93 9
à¥Ģ à¥ĭ
à¤ĳ à¤µà¤°
Ġs he
7 16
9 36
m c
à¤¹ à¤¨à¤®
Ġà¤Ŀ à¤°
Ġ14 87
Ġ+ /-
Ġà¤ħà¤¹à¤® à¤¦à¤¨à¤Ĺà¤°
8 000
8 44
à¤Ŀ à¤Ĺà¤¡
Ġ8 33
Ġà¤ķà¤Ł à¤¥
96 6
94 6
65 7
68 3
à¥ĩ? '
ĠØ ¨
x iii
Ġ9 29
Ġ27 00
ĠÎ ¿
Ġà¤ıà¤ķ à¤«
Ġ13 05
à¤¾à¥¤ âĢĻ
6 23
9 23
Ġà¤ħà¤¶ à¤°à¤«
98 2
Ġan y
à¤Ł à¤ķà¤²
Ġà¤ıà¤¸ à¤ıà¤«
16 12
74 1
9 15
Ġà¤¬ à¤Ĺà¤°
16 27
à¥Ī! "à¥¤
à¤ļ à¤®à¤Ĺ
Ġà¤ķà¤² à¤¸
Ġ9 27
16 28
86 2
76 1
à¤¼à¥Į ,
à¤ħ à¤°à¤ķ
Ġ" /"
Ġà¤ħà¤² à¤¦
66 9
5 73
8 42
à¤§ à¤ķà¤¤
88 7
98 4
an s
5 97
7 21
Ġà¤¨ à¤ľà¤®
Ġ14 74
85 1
, à¥¤..
à¤ħ à¤¨à¤¨
à¤ªà¤° à¤¥
Ġà¤Ĩà¤° à¤ıà¤®
Ġà¤īà¤² à¤Łà¤¤
Ġ75 6
à¥ĩà¤Ĥ --
Ġà¤¸à¤®à¤Ŀ à¤ķà¤°
Ġ90 9
? -
à¤¬à¤¦ à¤²à¤¤
Ġ13 16
64 9
68 9
Ġà¤¡ à¤ļà¤²
Ġ13 03
65 8
0 55
16 95
90 3
98 3
ĠC O
à¥Īà¤Ĥ ',
à¤Ĺà¤² à¤¬à¤°
à¥Ģà¤Ĥà¥¤ )
7 24
7 32
Ġà¤īà¤ª à¤²
Ġ6 83
à¤īà¤¦ à¤¯
8 35
à¤° à¤¨à¤®
16 16
! ","
0 68
à¤Ī à¤ıà¤¨
Ġ13 33
16 86
yy yy
à¤°à¤¨ à¤ª
Ġ9 45
ĠP h
$$ $$
à¤Ĺ à¤ľà¤¨
à¤Ł à¤¸à¤°
Ġ7 28
Ġ8 17
Ġ13 97
Ġà¤ıà¤® à¤¹à¤°
ch i
6 24
88 3
à¤¸ à¤¶à¤°
à¤¬à¤° à¤ª
Ġà¤¡ à¤Ĺà¤®
Ġà¤ıà¤¬ à¤¬
8 24
16 04
Ġ(; ;)
96 2
/ )
8 28
Ġà¤ıà¤® à¤ıà¤²à¤¸
Ġ9 18
5 99
n t
8 12
z m
à¤ªà¤° à¤Łà¤²
Ġà¤ħà¤¸ à¤Ĺà¤°
à¤ıà¤« à¤Ī
66 2
84 3
Â° )
à¤¹ à¤²à¤¤
Ġ6 79
Ġ14 05
Î³ Î¹
6 92
à¤ģ ")
16 98
16 79
Ġà¤ªà¤² à¤Łà¤¤
Ġn e
à¤°à¤¨ à¤ħà¤µ
Ġ14 77
à¤°à¤¨ à¤Ĺà¤°
Ġ12 58
Ġ14 84
77 9
Ġà¤ķ à¤²à¤¬
à¤¯à¤¨ à¤¬
Ġ6 92
à¥¤" ("
Ġà¤ª à¤¥à¤¨
à¤¥ à¤ľ
à¤¦à¤° à¤¹
Ġ14 44
à¤Ĩà¤īà¤Ł à¤¸
85 4
XXXX XXXX
à¤Łà¤² à¤¬à¤°
Ġà¤¨à¤°à¤® à¤ª
à¤µà¤Ĺ à¤®à¤¨
16 78
87 4
à¤¾? ",
0 34
p o
Ġ13 06
95 2
ol l
8 86
Ġà¤ħà¤« à¤°
Ġn f
à¤Ĺ à¤ļà¤°
à¤¼ !
6 99
Ġ org
à¤ľ à¤°à¤®
Ġà¤ī à¤®à¤¨
Ġà¤ıà¤¸ à¤ıà¤²
97 3
m er
Ġà¤ľà¤¹ à¤®à¤¤
à¤ľà¤° à¤«
Ġ13 28
67 1
8 38
à¤ľ à¤²à¤°
à¤¨ à¤¬à¤¨
à¤Ĩ à¤¯à¤¤à¤¨
Ġ14 01
Ġà¤ľ à¤¯à¤²
Ġ12 12
05 9
à¤ıà¤µà¤° à¤Łà¤¨
Ġà¤ıà¤² à¤ıà¤¨à¤¡à¤¬
76 3
Ġ118 9
7 31
7 64
? ),
à¤ī à¤¡à¤µ
Ġ14 13
16 91
Ġ[ (
Ġund er
à¥ĩà¤Ĥ ',
Ġà¤¬à¤° à¤Ĺ
à¤ĵà¤µà¤° à¤µ
r na
Ġ6 82
Ġ9 55
,, à¥¤
Ø ¬
Ġ7 74
Ġ8 28
16 37
7 42
: "
Ġà¤Ĩà¤Ī à¤Ĩà¤Īà¤Ĩà¤Ī
ht ml
0 94
5 92
6 77
? ]
à¤ı à¤¡à¤¸
)à¥¤ ..
co le
Ġà¤ĺ à¤°à¤µ
96 8
67 3
Ġo ut
16 59
à¥Ģ] ,
à¤¥ à¤Īà¤¸
Ġ12 35
à¤ĩà¤® à¤µ
à¤¨à¤Ł à¤µ
78 3
Ġw ould
8 47
à¤ħ à¤ªà¤²
à¤ļ à¤²à¤®
à¤ĩ à¤ĵà¤¸
Ġ14 79
90 4
98 7
Ġà¤ıà¤µà¤° à¤²
Ġ28 00
95 7
Ġr es
0 32
Ġà¤ĩ à¤µà¤²
à¤¨à¤² à¤¸
Ġ. "
Ġ' ;
Ġ14 21
Ġ14 22
75 2
87 2
5 69
à¤¨ à¤§
à¤¥ à¤¨à¤²
à¤®à¤¤ à¤ªà¤¤
Ġ6 77
Ġ14 67
l Ã©
Ġà¤ķà¤® à¤¨
Ġ14 03
16 19
05 1
Ġ64 7
Ġà¤¸ à¤¬à¤¨
à¤¦ à¤ĸ
à¤¾) ",
à¥Īà¤Ĥ? "à¥¤
à¥Ģ.) -
66 3
9 45
Ġà¤² à¤ĸ
Ġà¤ĸ à¤µ
Ġ9 28
Ġg r
à¤² à¤Łà¤ķà¤¤
Ġ9 91
Ġ12 16
Ġ14 54
Ġ13 45
0 91
6 19
16 15
Ġ8 85
à¥ĭ" )à¥¤
0 77
Ġ13 32
à¤¼à¥ĩà¤Ĥ ",
) -"
Ġà¤§ à¤µà¤¨
à¤Łà¤² à¤¹
Ġ13 82
ev er
Ġà¤ı à¤°à¤¸
Ġ1 199
87 1
Ġ8 64
Ġ13 92
Ġà¤¦à¤® à¤ķà¤²
à¥Ģ %
Ġà¤¬à¤¨ à¤µ
Ġ7 33
Ġ8 43
Ġ14 04
16 92
97 1
78 4
0 44
8 11
Ġà¤¹ à¤¥à¤ķ
à¥Īà¥¤" )
16 94
Ġ75 2
h i
Ġà¤Ĩà¤Ī à¤ıà¤¸à¤ª
Ġ14 58
16 36
à¤£ à¤°
à¤ķ à¤Ŀ
16 07
8 36
Ġ14 69
16 06
7 29
Ġ14 65
16 96
05 2
9 24
à¤° à¤¶à¤¨
Ġ8 22
Ġ13 02
87 9
ĊĠĊĠĊĠĊĠ ĊĠĊĠĊĠĊĠ
7 23
Ġà¤Ĩ à¤¯à¤®
à¤µà¤° à¤ľ
Ġ9 19
99 1
à¤Ł à¤¡à¤²
Ġà¤« à¤¯
16 26
ÏĢ Îµ
à¤£ à¤ľ
Ġ14 59
à¤ħ à¤ªà¤¤à¤Ł
ĠÐ¼ Ð¾
Ġ7 36
Ġ7 72
Ġ8 16
Ġ13 37
16 87
à¤ıà¤« à¤µ
0 92
à¤¯ à¤¡à¤®
Ġ7 61
à¤ĸà¤¨ à¤¨à¤ķà¤°
Ġ14 14
Ġ13 26
Ġà¤Ĩà¤ĩ à¤¸à¤®
Ġ8 21
Ġ14 81
à¤Ĳ à¤¡
Ġ12 67
16 14
à¤°à¤ĸ à¤ª
à¤ıà¤ķ à¤¡
Ġ13 18
85 8
tt tt
à¤¯à¤¨ à¤Łà¤¨
à¤¸à¤® à¤µà¤°
à¤µà¤¨ à¤¤
Ġ12 84
Ġ11 01
Ġà¤ĵà¤² à¤¸
16 22
Ġs ub
74 3
Ġd is
à¤ī à¤ķà¤¸
Ġ7 62
Ġ9 21
94 3
8 96
à¤¼à¥ĩ ",
Ġà¤¹à¤° à¤²
Ġ8 35
16 64
16 73
à¤¨ à¤Ĺà¤²
à¤ı à¤¹à¤°
à¤ĩ à¤ıà¤¸
à¤°à¤® à¤Ĺ
Ġà¤Ĩà¤° à¤ıà¤²
78 2
0 87
à¤¬à¤² à¤¹
Ġ9 13
16 08
Ġà¤®à¤² à¤ª
0 46
14 50
Ġ* "
Ġà¤ıà¤¡à¤² à¤¸
e x
Ġ7 43
Ġ14 86
99 2
?" (
Ïĥ ÏĦ
Ð³ Ð¸
, /
Ġà¤§à¤¨ à¤¬
Ġà¤ıà¤µ à¤Ĺ
Ð½ Ñĭ
8 46
9 26
à¤¸à¤° à¤¸à¤¨
à¤ĩà¤ķà¤² à¤°
8 29
à¤¯ à¤ıà¤¸à¤ķ
Ġà¤¹ à¤ķà¤²à¤¬
à¤« à¤ļ
Ġà¤Ī à¤¯à¤°à¤¬
Ġà¤Ī à¤ıà¤ļà¤ıà¤«
Ġ13 31
15 68
95 1
Ġq f
6 37
Ġà¤ķà¤° à¤Ĺ
Ġ13 94
à¤¦à¤¶à¤® à¤²à¤µ
6 91
à¤ļà¤ķ à¤¶
05 3
a j
s ec
Ġà¤ıà¤ķ à¤¬
Ġà¤Ĩ à¤¹à¤¨
à¤¾à¥¤ à¥¤à¥¤"à¥¤
à¤¸à¤¨ à¤¸à¤¨
Ġ8 42
Ġb b
16 46
16 84
Ġà¤° à¤¶à¤®
à¤¼à¥Ģ "à¥¤
à¥Ģ" >
Ġ13 09
16 69
à¤¨ à¤¨à¤¸
à¤ķà¤² à¤ķà¤¤
Ġ6 74
96 7
à¤ģ "à¥¤
Ġà¤ĵ à¤²à¤¨
Ġ14 72
Ġ14 41
16 02
99 3
97 4
Ġ9 87
16 63
à¤ī à¤¯à¤°
Ġà¤¨à¤¹ à¤²
à¥ĩ" :
à¤Ĺà¤¸ à¤Ĺ
ig n
16 17
à¤ĩà¤¬à¤° à¤µ
0 69
7 66
9 33
à¤¾à¤ģ "à¥¤
Ġà¤Ĳ à¤®
à¤² à¤®à¤²
Ġà¤¸à¤° à¤µà¤°
Ġ12 99
Ġ14 62
Ġ13 35
16 68
ÏĢ Î±
à¤ķà¤¤à¤° à¤¨
à¤°à¤® à¤¬
Ġà¤®à¤¹ à¤¬
Ġà¤ıà¤« à¤Ĩà¤°
Ġ85 1
Î³ Î¿
f n
à¤¦ à¤Ł
à¤ķà¤° à¤ª
16 33
96 3
à¥ĭ à¤ģ
Ġ13 04
16 13
0 64
à¤¼à¤¾ '
à¤ķà¤° à¤¹
Ġ14 29
> )à¥¤
à¤Ĩ à¤®à¤¨
Ġ13 89
Ġ118 7
0 99
6 98
7 33
7 38
à¤ĩ à¤¥à¤®
à¤ªà¤¸ à¤²
Ġ12 29
16 53
à¤® à¤²à¤¨
Ġà¤Ī à¤¯à¤°à¤²
Ġp er
Ġ7 29
" ...
Ġà¤¡ à¤¨à¤ķ
16 74
85 6
à¤¯ à¤Ĺà¤¢
à¤ĩ à¤ĩà¤¥
à¤¡à¤¸ à¤Ĺ
94 7
5 93
9 22
à¤¨ à¤ħà¤°
Ġ14 56
in a
0 39
8 48
à¤¥ à¤°à¤µ
à¤°à¤® à¤ľ
Ġ13 11
à¤µà¤¨ à¤ĺ
à¤¨à¤ķ à¤ª
Ġ8 27
Ġ12 79
16 57
Ġà¤¹ à¤°à¤¸
à¤ĩ à¤¬à¤¸
à¤Ī à¤¡à¤¬
Ġ65 9
9 88
Ġ8 24
15 58
à¤ļà¤² à¤ķà¤°
Ġw ill
0 37
0 43
w n
Ġà¤Ĩ à¤ĵà¤Ł
Ġ9 95
88 1
à¤® à¤Ĺà¤°
Ġà¤¨ à¤¨à¤¸
Ġà¤ħà¤² à¤ª
Ġ7 19
0 98
0 41
b illion
à¤® à¤ªà¤°
Ġ13 56
à¤¿ !
à¤ļ à¤°à¤ķ
Ġà¤ľà¤¬ à¤²à¤ª
Ġ14 31
col or
Ġà¤¸à¤° à¤Ĺà¤¸
à¤ľà¤° à¤¡
Ġ14 89
96 1
at a
6 93
8 32
Ġ7 89
17 06
Ġy d
0 97
Ġà¤® à¤°à¤ľ
âĢ ľ
A A
Ġ6 93
Ġ12 27
0 76
8 26
Ġ12 66
Ġ80 4
7 98
à¤ķà¤² à¤ª
Ġ9 69
Ġ14 28
Ġà¤ıà¤¬à¤° à¤«
Ġ7 34
à¤ħ à¤²à¤°
Ġà¤¶ à¤ª
Ġ7 38
Ġ12 19
à¤§ à¤¨à¤¤
Ġ8 78
Ġ13 68
à¤ıà¤« à¤ĵ
à¤Ł à¤ķà¤¨
à¤¼ à¥Ģà¥¤"
Ġà¤ıà¤¨ à¤ıà¤ļ
Ġ8 67
Ġà¤ĳà¤¸ à¤Ĺ
à¤ıà¤² à¤ıà¤¨
Ġ14 37
Ġr ec
[ "
Ġ6 99
Ġ10 20
94 8
Ġà¤ĵ à¤¡à¤µ
10 80
7 49
Ġ1 201
Ġ7 81
Ġ12 44
Ġà¤ıà¤µà¤° à¤¸
os s
0 86
15 88
7 99
7 48
8 97
l es
à¤ħà¤¬ à¤ĸ
0 84
0 74
7 96
8 19
87 3
8 22
Ġ6 96
à¤īà¤¨ à¤ª
Ġ7 23
Ġ9 68
s m
Ġà¤ľà¤² à¤Ńà¤°
95 9
Ġà¤Ĩà¤ĵ à¤Ī
Ġà¤ª à¤ªà¤°
à¤Ń à¤°à¤ķà¤®
Ġà¤¸à¤ķ à¤°
Ġ9 22
Ġà¤¸à¤¬ à¤ľ
Ġ85 3
Ġ8 62
Ġ12 92
Ġà¤ķ à¤ªà¤ķ
à¤¬ à¤ªà¤¤
Ġà¤ľ à¤¯à¤¶
Ġ14 36
15 85
à¤¦ à¤¯à¤¨
Ġà¤¬ à¤ķà¤²à¤°
Ġ14 45
Ġ14 06
15 36
us e
à¤¯ à¤µà¤¨
à¤ªà¤¨ à¤ķà¤°
Ġà¤ıà¤² à¤ıà¤¸à¤¡
à¤ĩà¤¨ à¤ľ
Ġ10 60
94 1
ĠÃ¼ ber
Ġà¤ħà¤² à¤ľ
à¤¾" -"
Ġà¤ħà¤¬ à¤¬
Ġ12 77
Ġ11 11
Ġ14 08
94 2
0000 00
9 21
à¤ª à¤ļà¤°
Ġà¤ľ à¤ĺà¤¨
Ġà¤¨ à¤°à¤Ĺ
Ġà¤ĵà¤ªà¤¨ à¤ķ
à¤ªà¤° à¤Łà¤°
à¤Ĩà¤Ī à¤«
à¤¶à¤¨ à¤µ
Ġ12 17
à¤ĩà¤® à¤¶
à¤¹à¤° à¤¦
à¥Ģà¤Ĥà¥¤ '
Ġ12 72
à¤ªà¤£ à¤ķà¤°
à¤¿à¥¤ -
Ġà¤¶à¤Łà¤² à¤µà¤°
Ġà¤ļ à¤ķà¤µ
Ġà¤¬à¤° à¤Ľ
Ġ120 2
Ġ8 41
Ġ12 78
Ġ14 66
it ion
c i
Ġà¤ħ à¤ľà¤²
Ġ8 96
7 36
9 27
Ġ14 09
15 71
Ġm ade
à¤µà¤¨ à¤¹
à¤°à¤¯ à¤¸
à¤¨à¤¸ à¤ľ
Ġ8 66
Ġà¤°à¤ķ à¤®
Ġ13 24
84 9
Ġà¤¹ à¤ľà¤°
80 7
99 4
à¥Ĥà¤Ĥà¥¤ âĢĿ
l o
x a
Ġà¤ī à¤°à¤²
à¤¹à¤° à¤¸
Ġà¤ĵà¤µà¤° à¤¶
à¤ıà¤² à¤¡à¤¬
9 37
à¤¼ ]
à¤®à¤¨ à¤Ł
à¥Ĥ. )à¥¤
à¤¡à¤¨ à¤«
Ġ+ /
Ġd r
0 62
x s
Ġ1 198
Ġ12 98
à¥Ģ.) "
Ġb o
7 34
c f
Ġà¤µ à¤¨à¤µ
Ġà¤ķà¤ª à¤²à¤°
Ġ11 35
Ġ75 9
]] ]]
à¥¤ [
à¤ħ à¤¨à¤®
8 78
à¤Ĩ à¤¨à¤®
Ġ9 26
Ġ13 42
à¤īà¤¥ à¤ķ
Ġà¤ıà¤¨à¤ıà¤¸ à¤¬
Ġà¤¸ à¤¨à¤µ
Ġ7 46
Ġ8 44
Ġ14 68
Ġ13 55
95 3
9 13
Ġ9 73
à¥¤à¥¤ ]
Ġcom m
Ġ14 17
97 9
à¤¬ à¤«à¤°
à¤ĩà¤¨ à¤¯
à¤ĩà¤¡ à¤¸à¤¡
Ġ9 23
Ġ14 91
Ġ14 73
16 47
à¤Ł à¤¶à¤°
Ġ12 64
à¤Ł à¤®à¤¸
Ġ5 500
à¤°à¤µ à¤¦
à¤ħà¤² à¤¹
15 21
16 01
ar en
0 88
à¤¾à¤Ĥ ;
16 77
Ġ90 6
9 18
à¤¤ à¤ķà¤²
Ġà¤¸ à¤īà¤¦
Ġà¤ı à¤°à¤ľ
Ġ8 61
Ġ13 51
Ġ80 9
Ġ12 28
Ġ14 63
à¤¹à¤² à¤Ĺ
it ed
b ar
Û ĥ
à¥ĩ à¤ģ
à¤ª à¤¹à¤¨
à¤¸à¤¬ à¤ķ
7 46
Ġà¤ıà¤ķ à¤¨
à¤ĥ ;
Ġ8 69
Ġ9 72
Ġ Ñı
à¤µ à¤Ī
à¤ħ à¤®à¤²
à¤¸à¤¨ à¤«
Ġà¤ıà¤¨ à¤¨
Ġ8 23
Ġ13 91
15 72
16 39
à¤¬à¤² à¤²
Ġà¤Ł à¤ªà¤ķà¤¤
à¤Łà¤¬ à¤²
Ġ12 54
94 9
à¤ķà¤° à¤¡
Ġ6 71
15 95
7 97
à¤ħ à¤¦à¤®
Ġ12 83
16 93
7 93
à¤« à¤¨à¤¸
Ġà¤ħà¤¨ à¤Ń
à¤¤à¤¨ à¤ķà¤°
Ġ10 90
Ġà¤ħà¤« à¤ľà¤²
Ġ14 12
à¥Īà¤Ĥ" )à¥¤
à¤ħà¤¨à¤ķ à¤Ł
:::: ::::
Ġ HTTT
.) :
Ġe t
th ul
à¤Ł à¤ĳà¤«
Ġ11 38
à¥¤" -
à¤¹ à¤¡à¤°
ĠP M
Ġ7 78
à¤Ĺà¤¨ à¤¹
à¤°à¤¨ à¤¨
Ġà¤ľà¤² à¤ķ
Ġ[ -
Ġà¤Ĩ à¤ĩà¤®
95 6
Ġà¤ī à¤¯
Ġà¤ħà¤¨ à¤¸à¤°
à¤¼à¥ĩ ),
Ġ12 42
Ġre p
Ġà¤ľ à¤°à¤¦
à¤· à¤°à¤¹
à¤¹à¤° à¤Ĺ
Ġ14 24
Ġ13 23
à¤¹ à¤²à¤µ
Ġà¤® à¤¯à¤¨
Ġ9 34
Ġ14 39
. (
0 78
Ġ :
à¤ħ à¤ĸà¤°
Ġà¤ħà¤ķ à¤¥à¤¨
ĠT he
à¤Ĺ à¤¤à¤°
à¤« à¤°à¤¹
Ġà¤« à¤ľà¤°
Ġ6 91
Ġ8 34
Ġà¤ıà¤ļ à¤ıà¤¸à¤¬
Ġ120 5
Ġà¤°à¤¶ à¤¡
à¤ıà¤®à¤ıà¤¸ à¤¸
Ġ13 61
à¤ħà¤ª à¤µà¤°
0 89
à¤®à¤ķ à¤¸
Ġ6 89
0 93
à¤ĵ à¤Ĺà¤²
à¤ľà¤¨ à¤¶
Ġ8 37
Ġ8 76
Ġ8 79
Ġ12 94
Ġ12 76
Ġ13 17
Ġ13 98
ÃĹ "
à¤ª à¤Ĺà¤²
à¤ī à¤°à¤ķ
à¤ī à¤¸à¤²
Ġ12 48
Ġà¤ĺ à¤ľ
à¤ķà¤¸ à¤¬
0 81
8 76
à¤ª à¤¹à¤¨à¤¨
Ġà¤Ĺ à¤¨à¤²
Ġ14 52
ic t
à¤¤ à¤®à¤¨
Ġ11 25
Ġ13 41
8 31
Ġà¤ª à¤«à¤°
Ġà¤Ī à¤µà¤°
Ġà¤¶ à¤Łà¤¡
Ġ< "
98 9
Ġpr ov
à¤²à¤¯ à¤¬à¤¦
Ġ7 49
à¤®à¤¸ à¤µ
Ġ9 88
Ġ14 51
à¤Ĩà¤Ī à¤Ĩà¤°
15 93
à¤¡à¤¶ à¤Ł
0 73
8 34
Ġà¤¡ à¤¨à¤«
à¤¾à¤Ĥ '
Ġ8 47
à¤² à¤°à¤¹à¤®
Ġà¤¤à¤ķ à¤¸
Ġ9 93
à¤ķà¤Ł à¤¸
à¤Ĩ à¤¨à¤²
ÑģÐµÑģÐµ ÑģÐµÑģÐµ
à¤¸à¤° à¤²à¤¤
Ġà¤Ĳ à¤ļ
Ġ6 97
à¤²à¤¸ à¤¬à¤°
ĠÎ´ Î¹
Î³ Îµ
0 79
à¤¡ à¤¸à¤µ
Ðļ Ðµ
à¤² à¤Ĺà¤²
à¤Ĩ à¤¯à¤¶
Ġà¤ı à¤Ŀ
à¤¾à¥¤ >
à¤ľà¤° à¤°
Ġ8 82
Ġd h
Ġ7 95
à¤¸à¤¬à¤® à¤°
8 91
9 34
e e
à¤ħ à¤¥à¤ķ
Ġ14 18
Ġà¤ħ à¤¯à¤ª
Ġà¤¬ à¤°à¤¦
Ġà¤¨ à¤ķà¤®
à¥ĭà¤Ĥ )à¥¤
Ġ6 98
Ġ12 31
Ġ100 2
Ġà¤Ĩà¤ĩ à¤¶
à¤Īà¤ľ à¤Ĺà¤¤
0 61
Ġà¤ħà¤µ à¤¦
Ġ8 71
Ġ9 48
Ġ12 46
Ġ13 71
15 26
16 81
8 94
b p
Ġà¤¸à¤¹ à¤µ
Ġ9 66
à¤¹à¤² à¤ļà¤²
ĠÐ¼ Ð¸
0 72
Ġà¤® à¤ĺà¤°
Ġà¤¬ à¤ª
à¤Ĩà¤Ī à¤ıà¤®
à¤¬à¤² à¤Ī
Ġ14 19
15 99
ĠØ ¹
Ġà¤ĵ à¤ı
Ġ12 56
8 98
à¤°à¤£ à¤ķà¤°
Ġ9 76
Ġ13 84
à¤ħà¤ª à¤ĺà¤Łà¤¨
Ġthe ir
à¤¤ à¤ľà¤¨à¤¨
Ġ9 63
Ġsh all
Ġ" à¥¤à¥¤à¥¤
à¤ķà¤° à¤Ł
Ġc our
Ġà¤ĩ à¤ĸ
Ġà¤ĵ à¤īà¤²
15 59
Ġx f
er v
8 77
Ġà¤¸à¤° à¤Ĺà¤¨
Ġ6 94
à¤ĩ à¤¯à¤¨
à¤Ī à¤Łà¤°
à¤Łà¤° à¤¡à¤¨
à¤¾" /"
Ġ8 81
à¤²à¤® à¤¬à¤°
9 31
Ġà¤¨ à¤ĸà¤²
Ġ12 53
Ġ14 48
9 86
à¥Ģ ]"
à¤¸à¤¨ à¤Ł
Ġà¤ħà¤® à¤ľà¤¦
Ġ7 86
Ġ7 76
Ġ12 18
Ġ13 96
à¥ĩ" .
16 31
à¤°à¤¹à¤£ à¤ķà¤°
------------------------------------------------------------------------------------------------------------------------------------------------------------------------------------------------------------------------------------------------ ------------
9 28
Ġà¤ļ à¤°à¤¤
à¤¯à¤° à¤¨à¤²
Ġà¤¨à¤µ à¤¶à¤¬
Ġn c
7 000
à¤¯à¤¸ à¤ıà¤ķ
Ġ13 36
Ġ13 43
à¤¾à¤ĥ ..
à¤¼à¤¾ ")
à¤¨à¤¸ à¤¸
Ġ8 99
15 84
jjjjjjjj jjjjjjjj
8 39
à¤¡ à¤ĩà¤¨
Î½ Î±
à¤¯ à¤Łà¤²
à¥Ģà¤Ĥ ")
à¤¸à¤° à¤°
à¤ĩà¤¨ à¤¬à¤°
Ġ7 66
Ġ12 57
à¥Ģ) )
Ġà¤ĵà¤ªà¤¨ à¤°
à¤ıà¤¨à¤ıà¤¨à¤ıà¤¨à¤ıà¤¨à¤ıà¤¨à¤ıà¤¨à¤ıà¤¨à¤ıà¤¨ à¤ıà¤¨à¤ıà¤¨à¤ıà¤¨à¤ıà¤¨à¤ıà¤¨à¤ıà¤¨à¤ıà¤¨à¤ıà¤¨
ĠGM T
? !
à¤ı à¤°à¤ķ
à¤¹à¤° à¤ª
Ġà¤ıà¤® à¤ıà¤®
Ġ7 39
à¤ĩà¤® à¤¬
Ġà¤ıà¤° à¤°
Ġh à¤ı
Ġà¤ħ à¤¤à¤°
Ġà¤ı à¤ªà¤ķ
8 92
à¤¶à¤¨ à¤¸
Ġ9 41
Ġo ff
à¤² à¤¹à¤ķ
à¤Ł à¤ıà¤«
Ġà¤ħà¤¨ à¤Łà¤°à¤¬à¤°
à¤¯à¤® à¤°
Ġ12 61
Ġ13 13
Ġ[ '
à¥ĭ. "
à¤µ à¤²à¤¯
à¤Ł à¤®à¤²
à¤ī à¤ĩà¤²
Ġ7 94
Ġ9 33
Ġ14 42
15 73
or y
Ġà¤Ĩà¤° à¤ıà¤ļ
it a
thul hu
s ch
v p
à¤ħ à¤¸à¤¤à¤¤
ĠĠ Ġ
Ġ900 1
0 82
; ,
à¤¬ à¤¦à¤¨
Ġà¤ª à¤ļà¤¤
Ġà¤¶ à¤¦
ig a
7 39
Ġà¤° à¤¨à¤²
à¤²à¤¨ à¤¹
Ġà¤Ĭ à¤¨à¤µ
Ġ12 21
Ġ12 68
Ġ12 71
Ġ13 63
à¤ļ à¤²à¤¸
Ġà¤Ī à¤¡à¤¬
Ġ13 21
à¥Īà¥¤" -
Ġà¤¸à¤¬ à¤¡
! -
Ġ12 14
Ġ12 45
Ġ13 83
à¥ĩà¤Ĥà¤ĥ "
Ġh as
à¤¡à¤°à¤¸ à¤¨à¤µ
Ġà¤ĵ à¤¹à¤®
Ġà¤ıà¤¨ à¤ıà¤ıà¤¸
à¤¹ à¤ķà¤²
Ġ7 63
Ġ9 39
Ġa ss
à¤¸ à¤¹à¤°
à¤°à¤® à¤®
à¥ĩ. '
Ġà¤ıà¤¡ à¤¹
à¤ıà¤¨ à¤ĵà¤¸
Ġ14 57
Ġ13 87
15 87
Ġ119 1
b o
Ġb se
à¤£ à¤µà¤µ
Ġà¤Ĩ à¤ĵà¤ķ
à¤¨à¤ķ à¤®
15 53
Ġà¤ľà¤® à¤¶
Ġn d
Ġà¤ıà¤ı à¤ıà¤«
7 91
à¤¾à¥¤ /
à¤¾à¤Ĥ ",
à¤® à¤°à¤¬
à¤°à¤¦à¤° à¤«
Ġ11 47
Ġ14 49
15 65
Ġi f
Ġà¤ıà¤² à¤ıà¤¸à¤Ł
Ġà¤ĩà¤¨ à¤¨
Ġà¤¬à¤¹ à¤®
Ġw or
8 37
à¤¼ à¥¤"
à¤ł à¤¦
à¤·à¤® à¤ľ
à¤¹ à¤®à¤°
à¤ľ à¤Ĺà¤®
Ġ9 31
Ġ10 99
Ġ() :
ig h
Â £
à¤Ĺ à¤ĳà¤¨
à¤ĥ ..
Ġ13 62
Ġà¤ı à¤ľà¤°
Ġ14 33
à¥Īà¤Ĥ 'à¥¤
Ġà¤¹à¤ľ à¤¦
Ġ| "
Ġb p
à¥Ī! ",
/, /
Ġà¤ı à¤ıà¤¸
Ġ7 88
Ġ9 16
Ġà¤§à¤¨ à¤¶
à¤¶ à¤²à¤°
à¤ķà¤² à¤¡
Ġ8 63
Ġo ther
Ġ(Â §
à¤²à¤° à¤ª
Ġ9 61
\ ,
à¤¨ à¤¯à¤°
Ġ9 37
Ġ13 44
à¤ħà¤¨ à¤Łà¤°
Î» Î¿ÏĤ
Ġà¤ĵ à¤ĩà¤Ł
e f
Ø ²
à¤¹ à¤Ĺà¤¨
à¤£ à¤¦
Ġà¤ĩà¤¨ à¤ľ
Ġ8 29
Ġ13 73
Ġà¤¡à¤¬à¤² à¤¹
ing s
à¤¨à¤° à¤Ńà¤ķ
Ġà¤ıà¤¨ à¤ıà¤²à¤¸
Ġ9 43
à¥Ģ., "
Ã¡ s
à¤¨ à¤¹à¤¨
à¥ĩ' à¥¤
Ġà¤® à¤²à¤Ĺ
à¤ķà¤° à¤Ĺ
à¤ĩà¤² à¤Łà¤¸
Ġà¤¡à¤¬à¤² à¤¡
' t
à¤°à¤¬ à¤¤
15 63
Ġk bit
qu e
( *
; //
Ġà¤¹à¤¥ à¤ķà¤°à¤ĺ
à¤ĩà¤ªà¤° à¤µ
Ġ95 4
re t
à¤¨ à¤¨à¤µ
à¥¤ -"
à¤¼à¥Ģ )à¥¤
Ġà¤ıà¤² à¤µà¤°
Ġ8 18
Ġ13 65
Ġw à¤ı
Ġ75 8
à¤ĳ à¤¨à¤¸
15 78
Ġ80 7
Î³ Î±
g b
à¥ģ )à¥¤
à¤ħ à¤¸à¤¹
Ġ8 93
Ġ11 10
15 47
à¤Łà¤¸ à¤¡
Ġ9 98
Ġ12 87
Ġ14 07
Ġ13 52
Ġ8 31
à¤ıà¤¯à¤° à¤¬
c k
Ġ8 38
Ġà¤² à¤«
à¤µà¤° à¤Ĺ
Ġà¤Ĩà¤° à¤µà¤¨
Ġ7 93
Ġ9 81
Ġ10 75
à¤ıà¤ļ à¤Ĩà¤Īà¤µ
Ġ14 23
Ġà¤° à¤Ĺà¤²
à¤« à¤¯
Ġ7 82
Ġ202 9
15 75
Ġà¤Ŀà¤ªà¤ķ à¤¤
à¤ķ à¤ĩà¤¨
Ġà¤² à¤¨à¤°
Ġ7 71
à¤·à¤® à¤¯
Ġs i
à¤¸ à¤ıà¤²à¤µ
à¤ı à¤ªà¤¸
Ġà¤¹à¤¬ à¤¬
a Äį
Ġà¤ķà¤µà¤° à¤¡
à¤¨ à¤ıà¤ķ
Ġà¤® à¤°à¤¸
Ġ12 63
Ġ14 43
15 82
à¥Ī- '
à¤« à¤¤à¤¹
Ġ8 36
Ġ8 72
Ġs ec
à¤¹ à¤¬à¤°
à¤¹à¤° à¤¹
)à¥¤ )
Ġ12 26
Ġ14 47
15 66
Ġà¤ī à¤Ĺà¤²
Ġà¤¤ à¤¹à¤®
à¤°à¤ķ à¤µ
Ġ9 71
à¤² à¤¡à¤¸
Ġ13 78
Ġ85 2
Ġl ib
à¤Ł à¤Łà¤°
Ġ14 11
15 94
15 97
Ġq u
rr rr
à¤ĩà¤Ł à¤Ł
à¤²à¤µ à¤¸
Ġ7 97
Ġ8 92
à¤Ĩà¤īà¤Ł à¤¡
Ġwh at
15 64
en c
Ġ7 92
Ġm ay
à¤ªà¤² à¤«
à¤ıà¤¯à¤° à¤ª
ĠÐ¾ ÑĤÐµ
el f
ro p
Ġ Ð½Ð°
Ġà¤¨ à¤µà¤²
à¤Łà¤¨ à¤ª
16 71
Ã© r
à¤° à¤¥à¤°
à¤Ĺ à¤ĩà¤¨
à¤Ń à¤Łà¤ķà¤¤
Ã¡ r
z ek
à¤¸ à¤¶à¤ķ
Ġà¤ıà¤² à¤¬à¤°
Ġ8 83
Ġ14 32
Ġ85 8
11 11
Ġ9 92
h an
à¤Ĩ à¤ĩà¤¸à¤ķ
Ġ12 59
à¤īà¤¸ à¤Ł
Ġ95 1
!! !
Ġbg color
Ġà¤µ à¤®
à¤¯à¤® à¤ª
à¤¦à¤¨ à¤µ
à¤² à¤ªà¤¨
Ġà¤ĸ à¤²à¤ľ
Ġà¤ħà¤¸ à¤Ń
Ġà¤¸à¤¤ à¤²
Ġ12 88
Ġ14 26
Ġp art
Ġ85 4
ĠA M
Ġà¤ħ à¤¯à¤¦
à¤ĩà¤Ł à¤ª
Ġ8 77
à¤ĩà¤¡ à¤¹
âĢ² -
Ġ9 86
à¤¾? !
à¤¨ à¤¨à¤ķ
Ġ14 38
à¤īà¤¥ à¤Īà¤¸
le f
Î´ Î¿
F rance
à¤¼à¥ģ "
em ent
n n
à¥Īà¤Ĥà¥¤ ",
Ġ11 52
Ġ120 6
à¤Łà¤²à¤¨ à¤ļ
Ġà¤¨ à¤Ĺà¤µ
à¤Ĩ à¤ļà¤°à¤£
à¤¼ à¥ĩà¤Ĥà¥¤"
Ġà¤ħà¤¦ à¤µ
15 17
14 90
Ġ36 00
à¤° à¤²à¤¬
à¤Ī à¤¸à¤¬à¤°
Ġ9 32
sk i
à¤īà¤ª à¤¸à¤®
95 4
à¤¤ à¤ªà¤¸
à¤« à¤¥
à¤ľà¤¬ à¤²
Ġ7 64
Ġ8 48
in k
[[ [[
Ġà¤ħà¤® à¤°à¤¨
Ġs f
x iv
à¤° à¤¡à¤°
Ġà¤¬ à¤°à¤¹à¤®
Ġà¤µ à¤²à¤¦
Ġà¤ĩ à¤ĵà¤²
à¤ĺ à¤¦
Ġ12 36
Ġ12 73
Ġà¤ĵ à¤ıà¤¨
Ġà¤ĳ à¤Ĺà¤¬à¤°
Ġ8 86
) "à¥¤
y a
à¤¶à¤¨ à¤¨
Ġà¤Ĳ à¤Ł
12 50
à¤¾à¥¤" )
ul t
Ġà¤ķà¤® à¤°à¤ķ
Ġà¤ıà¤® à¤«
Ġ8 32
Ã© t
à¤¡ à¤Ĩà¤°
Ġà¤ľ à¤¦
à¥Ģ" /"
Ġ14 46
Ġà¤Ĩà¤¯à¤° à¤¨à¤ķ
à¤ıà¤µ à¤Ĺ
im a
Ġà¤ķ à¤¸à¤°
à¤¶ à¤¯à¤¶
Ġ7 98
Ġ7 69
Ġ14 16
ÑģÐ¸ Ðµ
à¤ı à¤°à¤µ
Ġà¤ªà¤° à¤¹à¤®
Ġ7 73
12 79
Ġà¤ªà¤µ à¤£
Ġ120 8
Ġà¤¶ à¤°à¤®à¤¨
Ġà¤ĵà¤ªà¤¨ à¤¬
ĠA C
Ġà¤ĩ à¤¬à¤°
Ġ12 38
à¤¡ à¤ķà¤Ł
Ġ12 52
Ġ14 34
Ġm ac
à¤ĵà¤ªà¤¨ à¤°
ow n
Ġà¤ĵ à¤²à¤µ
Ġ11 54
ĠXXX V
- ",
à¤¡ à¤Łà¤°
à¤¾à¤Ĥ à¤ĥ
à¤¬ à¤¸à¤°
à¤ªà¤° à¤¦
Ġà¤ķà¤¥ à¤ķ
Ġa p
à¤Ł à¤ªà¤°
à¤ħ à¤¯à¤¸
à¤ī à¤®à¤Ĺ
à¤§ à¤¹
à¤¾à¤Ĥ /
à¤µà¤° à¤°
Ġà¤ĵ à¤ĵ
13 50
à¤ļ à¤Łà¤¸
à¤² à¤¬à¤¸
Ġ7 500
à¤¤à¤¨ à¤¹
Ġ12 32
) )à¥¤
? "à¥¤
à¤ı à¤Ĺà¤¨
à¤Ī à¤µà¤°
Ġ14 27
Ġ13 69
à¥Ī) -
Ġ# #
Ġà¤ıà¤¸ à¤ıà¤¨à¤ª
Ġ8 49
à¥Ĥà¥¤ "
à¥ĩà¥¤" (
d l
Ġà¤Ĺ à¤ļ
à¤°à¤® à¤ľà¤¨à¤ķ
Ġ10 15
ĠXXX I
Ġ( :
à¤Ĳ à¤Ĺ
à¥ĭ) ;
Ġà¤¹ à¤¡à¤²à¤¸
Ġà¤ľ à¤¯à¤®
Ġ8 73
à¥Īà¤Ĥà¥¤' "
à¤ħà¤ľ à¤Ĺà¤°
Ã¼ ber
Ġà¤¸à¤® à¤Ń
Ġà¤Ĩà¤Ī à¤µà¤°
Ġ7 96
Ġ9 82
g s
Ġ ĊĠ
à¤ķà¤¨ à¤¸à¤¨
à¤¬ à¤¥
à¤ĳ à¤²à¤ľ
Ġà¤ĵ à¤ķà¤°
15 69
à¤²à¤Ĺ à¤ľ
ĠM ev
à¤ķà¤° à¤Łà¤¨
); //
Ġ95 9
à¤ļ à¤Łà¤°
Ġà¤ı à¤ĵà¤¨
Ġà¤īà¤¨ à¤°
Ġà¤ħà¤¨ à¤ļ
Ġà¤ħà¤¬ à¤ľ
15 76
Ġà¤Ĺà¤¦ à¤¹
Ġà¤ıà¤¸ à¤¡à¤¬
Ġà¤ıà¤¨ à¤¥
Ġ8 94
] )à¥¤
à¤² à¤¦à¤¹
Ġà¤¬à¤° à¤Ľà¤Ł
Ġ13 29
Ġ(" ")
Ġf t
Ġà¤¥ à¤µ
Ġ12 47
Ġ12 81
à¤Łà¤® à¤Ł
15 52
à¤ıà¤¶ à¤¬à¤°
an k
Ġà¤ıà¤² à¤ıà¤²
Ġ8 84
Ġ12 55
Ġ12 39
Ġ-- >
l and
à¤° à¤²à¤¨
à¤ªà¤° à¤ľà¤°
Ġx s
Ġà¤¢à¤ķ à¤ķà¤°
Ġà¤ª à¤ªà¤¡
15 35
fc b
à¤°à¤µ à¤¸
à¤¡à¤² à¤«
à¤ħà¤¦ à¤°à¤ķ
Ġ Ð»Ð¾
Ġà¤ĩ à¤¹à¤°
Ġ8 39
Ġ10 14
à¥ĩà¤Ĥ" ;
l ic
15 15
à¤µ à¤ķà¤²
Ġà¤¶à¤¹à¤° à¤µ
Ġà¤¬à¤Ł à¤°à¤ķà¤ª
Ġi ts
Ġà¤ıà¤ķ à¤Ń
à¤ķà¤² à¤¸à¤¨
à¥Ģà¤Ĥà¥¤ âĢĿ
Ġà¤ıà¤ı à¤®à¤¸
Ġà¤¸ à¤²à¤µ
Ġà¤ķà¤¨ à¤Ĺ
b j
à¤ħà¤¨ à¤¹
Ġ119 2
à¤Ĺ à¤ªà¤Ł
Ġ7 99
Ã¼ k
Ġ10 18
Ġ12 37
Ġ13 64
à¤² à¤ķà¤Ł
à¤¹ à¤°à¤¤
Ġ13 93
à¤ĩà¤® à¤¹
Ġ120 9
b g
à¤Ĭ à¤¸
à¤ıà¤ķ à¤¤à¤°à¤«
Ġ9 42
Ġ12 86
er t
15 83
Ġà¤Īà¤¯à¤° à¤ª
w o
Ġà¤¸à¤® à¤µ
15 81
à¤ħ à¤®à¤¨
Ġà¤¹à¤° à¤¬
Ġà¤ıà¤ľ à¤µà¤°
im e
Ġà¤ı à¤Ī
Ġà¤¦ à¤Ĺ
Ġ12 24
Ġk j
à¤¹ à¤²à¤ķ
15 86
Ġb x
à¤¯ à¤ĸ
à¤ī à¤¤à¤°à¤¨
Ġà¤ī à¤°à¤®
Ġà¤¥ à¤¨à¤¬à¤°
Ġà¤°à¤¹ à¤®à¤¤
10 16
15 91
à¤Ń à¤°à¤¨
Ġà¤ĵ à¤Łà¤®
Ġà¤ĳ à¤ľ
Ġ12 11
re e
el y
Ġst ate
Ġà¤µ à¤µ
à¤¼à¤¾ )à¥¤
Ġ10 95
à¤ĵà¤µà¤° à¤¡
Ä± k
à¤¬à¤° à¤¬à¤°
Ġ11 55
15 45
Ġà¤ıà¤¡ à¤Ł
15 42
on s
Ġ(âĢ² )
à¤¤ à¤¹à¤¸
à¤¥à¤° à¤ª
à¤°à¤ªà¤¤ à¤µ
à¤² à¤ħà¤ª
15 34
15 89
15 39
Ġà¤ĭà¤£ à¤ķà¤°
S T
Ġà¤® à¤ķà¤²
à¤ĩ à¤¬à¤¨
à¤ĵ à¤Ń
Ġm k
Ġà¤°à¤¶ à¤Łà¤¨
Ä± n
Ġà¤¸à¤°à¤µà¤¨ à¤¨
Ġà¤¬ à¤¸à¤¸
à¤Ĩ à¤¯à¤¸
Ġà¤ĩ à¤ķà¤°
Ġà¤¹à¤² à¤ĸ
Ġà¤®à¤ĸ à¤ļà¤ķà¤²
- [
Ġ( ?)
Ġà¤ħà¤§ à¤®
Ġ< =
Ġ9 84
à¤² à¤¸à¤²
Ġ8 89
à¤Ĺà¤¨ à¤Ł
à¤ħà¤¨ à¤µà¤°
à¤ľ à¤°à¤¹
à¤ħ à¤²à¤¨
à¤¦à¤° à¤¬à¤¨
Ġà¤®à¤§ à¤®
or s
Ġ Ð½Ðµ
Ġà¤ª à¤ļà¤¨
à¤ĩ à¤µà¤¨à¤°
à¤ĸ à¤°à¤ªà¤¤à¤µ
à¤¾à¤ģà¥¤ ..
is e
à¤¡ à¤ĳà¤²
à¤ļ à¤ľ
à¤¼à¥ĩ '
] ),
Ġ9 67
Ġk v
ÑģÑģÑģÑģÑģÑģÑģÑģÑģÑģÑģÑģÑģÑģÑģÑģ ÑģÑģÑģÑģÑģÑģÑģÑģÑģÑģÑģÑģÑģÑģÑģÑģ
à¤ Ĵ
Ġà¤Ĩ à¤¸à¤ķ
Ġà¤ĳ à¤¨à¤Ł
à¤Ŀ à¤¡
Ġ12 13
15 55
à¤īà¤¥ à¤µà¤°
Ġ"( )"
Ġà¤Ĩà¤īà¤Ł à¤Ĺ
Ġà¤ıà¤² à¤ĺ
à¤ªà¤¦ à¤§
Ïĥ Î±
Ġà¤ĩà¤¨ à¤¶
à¤µà¤° à¤µà¤°
à¤²à¤¬ à¤²
Ġ9 47
Ġà¤ł à¤£
Ġà¤°à¤¦à¤° à¤Ĺà¤²
r n
15 10
15 67
à¤Ĩà¤Īà¤ıà¤¸ à¤Ĩà¤Īà¤ıà¤¸
à¤² à¤¶à¤¨
Ġà¤¨ à¤Ĺà¤®
à¤ĥ à¤ĥ
à¤°à¤¹ à¤¤
Ġ' [
à¤ĩà¤¡ à¤ª
Ġ13 72
Ġà¤° à¤°
à¤ĺ à¤¹
Ġ9 46
Ġcom p
à¤ł à¤¹à¤°
à¤¸à¤° à¤Ł
Ġà¤ıà¤¸ à¤«
Ġ7 84
à¤Ĩà¤¨ à¤ļ
" }
à¤® à¤®à¤¨
Ġà¤ķà¤² à¤ª
Ġ12 22
Ġ12 62
15 25
Ġ120 7
à¤¡ à¤¬à¤¸
Ġà¤ħà¤° à¤Ĺ
Ġ7 83
à¥Ī" ]
Ġ85 9
ĊĠĊĠĊĠĊĠ ĊĠ
à¤¯ à¤¬à¤¦
à¥ģ "à¥¤
à¤¸à¤® à¤Ŀà¤ķà¤°
Ġ8 74
Ġ9 83
Ġà¤°à¤¸ à¤ľ
m g
Ġà¤¸ à¤¹à¤°
Ġà¤ľ à¤°à¤®
à¤¤à¤° à¤¸
à¤°à¤ĸ à¤®
at er
à¤¤ à¤¬à¤¦
à¤ı à¤¡à¤ķ
à¤· à¤¨
Ġ12 23
à¤ĩà¤¬à¤° à¤¬
Ġc p
à¥ĩà¤Ĥà¥¤ ]
Ġà¤ĩà¤² à¤®
Ġà¤° à¤«à¤¸
à¤ķà¤ª à¤Ł
Ġ"[ "
und s
à¤¨ à¤ļà¤²
à¤® à¤°à¤¸à¤¨
Ġà¤¦ à¤²à¤°
à¤Ī à¤ĵà¤¸
Ġ9 89
à¤ıà¤¨ à¤¸à¤¨
15 77
à¤ľà¤Ĺ à¤Ĺ
ÏĢ Î¹
à¤µà¤° à¤¥
Ġà¤Ĩà¤Ī à¤Ĩà¤Ī
Ġ9 94
Ġn ad
________________ ________________
à¤² à¤Łà¤²
Ġà¤ĵà¤µà¤° à¤Ĺ
à¤Ĵ à¤Ł
à¤¨ à¤¶à¤µ
Ġà¤ħ à¤²à¤¨à¤µ
à¤ī à¤¥à¤°
Ø ´
à¤ĩ à¤¥à¤°
Ġ13 57
à¥Ĥà¤Ĥ )
Ġà¤¸à¤² à¤Ĺà¤®
Ġa c
Ġà¤ĳ à¤¡à¤°
Ġà¤Ĩà¤Ĺ à¤®
Ġà¤¡à¤¬ à¤¬
15 27
"; )
à¤ľà¤° à¤Ĺ
################ ################
Ġ8 97
Ġ11 26
Ġs aid
à¤¥ à¤¨à¤°
à¥Īà¤Ĥà¥¤ -
à¤¨à¤¸ à¤¡
Ġà¤ķà¤¨ à¤ķà¤°
15 74
Ġà¤®à¤² à¤®à¤²
à¤²à¤Ń à¤¤à¤®
à¤Ĺ à¤Ĺà¤²
à¥Ģà¥¤ :
ect ion
...|...| ...|...|
à¤Ł à¤ľà¤¨
à¥¤ ","
Ġà¤° à¤«à¤¨
à¤¨à¤Ł à¤¸
, --
à¤¡ à¤¨à¤®
Ġ11 75
à¥Ī? !
Ġg re
à¤² à¤ªà¤°
Ġà¤ĵà¤° à¤¨
Ġ7 79
ĠÏĢ Î±
à¤¦ à¤¯à¤¹
Ġà¤ĩ à¤Ĺà¤²
Ġ8 87
Ġà¤® à¤ķà¤®
à¤¹à¤° à¤ľ
à¤ĵà¤µà¤° à¤¹
à¤Ĺà¤£ à¤ķà¤°
à¤ī à¤²à¤®
Ġà¤ĵ à¤Ĺà¤¬
Ġ85 7
à¥¤' "
à¤Ĥ ")
Ġ12 33
Ġ11 53
à¤¨ à¤²à¤¬
à¤¬ à¤¦à¤°
Ġà¤§ à¤¨à¤°
Ġ10 16
Ġ12 89
à¤ª à¤Ĺà¤¨
à¥ģ !
Ġ1 194
à¤¹à¤° à¤µ
Ġm ore
Ġ120 3
Ġà¤ıà¤®à¤ıà¤¸ à¤ıà¤ķ
ĠÃ¼r val
j a
à¤® à¤°à¤¤
à¤ľ à¤¯à¤°
Ġà¤« à¤¦à¤²
à¤¸à¤ķ à¤®
Ġà¤Ĩà¤Ī à¤Ĺ
à¤ħà¤¨ à¤Ĺ
à¥ĩ) -
Ġwh en
Ġà¤² à¤µà¤¸
Ġà¤¸à¤® à¤·
Ġà¤¬à¤° à¤¨
14 92
Ġà¤ıà¤®à¤ıà¤¸ à¤ıà¤¨
ar i
Ġà¤ķ à¤Łà¤®
à¤² à¤ļà¤¨
Ġà¤¯ à¤¡
à¥Īà¤Ĥà¥¤ [
à¤ıà¤¸ à¤ĵà¤¸
Ġ9 64
Ġ13 76
à¤ĩà¤ķà¤² à¤®
Ġx e
à¤ľà¤¨ à¤®
Ġà¤¶à¤° à¤«
Ġà¤ħà¤¹ à¤®à¤¤
à¤¯ à¤Ĺà¤°
à¤¶ à¤Łà¤°
à¤®à¤² à¤¸
Ġ11 73
Ġà¤¹à¤ľ à¤²à¤®
q i
Ġà¤ĵ à¤ıà¤¨à¤ľ
") :
à¥ĭ! '
Ġà¤ª à¤ľà¤²
Ġà¤Ĺ à¤¨à¤µ
à¤ħà¤² à¤¡
à¥Ĥà¤ģ /
| |
à¤ħ à¤°à¤¸
Â° ,
ĠØ ³
à¤ĩ à¤°à¤ķ
à¤ĩà¤ķà¤² à¤¸à¤¨
Ġk b
Ĺ ı
à¤®à¤ķ à¤¦
Ġ13 54
à¤Ĩ à¤¨à¤¹
à¤Ī à¤¥à¤°
à¤Ĩà¤ĩ à¤ľà¤¨à¤¹
à¤¸à¤® à¤µ
Ġ12 93
y l
à¥ĩà¤Ĥà¥¤ -
15 16
Ġf e
Ġo p
à¤Łà¤² à¤Ł
Ġ12 49
Ġà¤ĳà¤° à¤«
à¤ľ à¤°à¤ķà¤°
Ġà¤ª à¤Łà¤ķ
à¥Ģà¥¤ (
Ġà¤ķà¤² à¤®à¤¨
à¥ī. "
Ġà¤¨ à¤²à¤¬
Ġà¤ħà¤ª à¤ľ
Ġ13 34
à¤Ĺà¤° à¤ľ
Ġà¤ıà¤¡ à¤«
Ġà¤Ĩà¤¶ à¤²à¤°
Ġà¤¤ à¤²à¤¬
Ġ8 68
Ġà¤¬à¤¦ à¤¹
Ġà¤ı à¤Ĩà¤°à¤ıà¤²
à¤°à¤¨ à¤¬à¤°
Ġ9 38
âĢ ĺ
à¤ĩ à¤ĵà¤¡
à¤Ī à¤¤
Ġà¤ĵ à¤¨à¤°
Ġs ome
H L
x v
Ġà¤® à¤®à¤¤
Ġà¤« à¤°à¤¦
à¤¤à¤° à¤µà¤°
!" "
er ed
à¤ģ ?
à¤®à¤° à¤ľ
Ġ13 38
à¤¿" ),
à¤ĩà¤ªà¤° à¤«
Ġ7 91
Ġ8 91
ĠHTTP S
Ġ( [[
al ly
ĠÅį sh
. à¥¤,
Ġà¤¸ à¤¸à¤¸
à¤ĩ à¤ıà¤¨
à¤ĵ à¤µà¤²
Ġd id
Ġ() -
à¤° à¤ĸà¤¨
à¤ı à¤°à¤¹
Ġà¤ıà¤² à¤®à¤µ
Ġ9 79
es e
ic k
ul a
à¤¨ à¤¯à¤ķ
à¤Ł à¤ļà¤¡
Ġà¤ħ à¤°à¤¸à¤²
Ġ13 59
Ġà¤ĩ à¤¶à¤ķ
à¤ĵ à¤Ĩà¤°
Ġ13 79
ĊĠĊĠĊĠĊĠ ĊĠĊĠ
Ġ( âī¤
à¤Łà¤° à¤¶à¤®
Ġà¤¹à¤° à¤ľ
Ġà¤®à¤¶ à¤¹à¤¦
à¤ıà¤¶ à¤¬
à¥Īà¤Ĥ" -
à¤µà¤² à¤¸
Ġ90 210
Ġà¤® à¤ķà¤¬
à¤ħ à¤°à¤²
à¤ĩ à¤¦à¤°
Ġà¤ĵ à¤ıà¤¡
Ġ10 54
à¤°à¤Ł à¤Ĺà¤°
ĠN a
k t
à¥ĭ --
Ġà¤ıà¤ķ à¤¸à¤¦à¤¨
Ġ11 77
Ġ13 58
15 41
15 79
à¤¼à¤¾ "à¥¤
à¤µà¤² à¤ľ
à¥¤ âĢĻ
Ġà¤Ĩ à¤«à¤°
ation al
à¤¸ à¤Łà¤²
Ġà¤ī à¤ıà¤®
à¤®à¤¤ à¤¸
Ġà¤ħà¤¨ à¤ķà¤Ł
Ġ65 00
Ġ âĢ¢
Ġà¤ıà¤¨ à¤ıà¤²
à¥ĩ. )à¥¤
Ġ12 51
15 24
à¥Ĥ" ),
Ġ33 00
à¤¦à¤¯ à¤ĺ
Ġc et
Ġ ),
Ġà¤Ł à¤ķà¤¨
à¤Ĩà¤° à¤ı
15 62
à¤Ĩà¤Ĩà¤Ĩà¤Ĩà¤Ĩà¤Ĩà¤Ĩà¤Ĩ à¤Ĩà¤Ĩà¤Ĩà¤Ĩà¤Ĩà¤Ĩà¤Ĩà¤Ĩ
Ġà¤ļ à¤Ĺà¤¤
à¤ģ ;"
à¤ľà¤¨ à¤ķà¤°à¤£
Ġà¤Ī à¤ļà¤²
Ġà¤ħà¤ª à¤ļà¤¨
à¤¨à¤¸ à¤µ
Ġ11 39
Ġ13 19
Ġ13 67
Ġ[[ [
! ")
à¤¹ à¤²à¤¬
à¤ĩ à¤ķà¤¡
Ġà¤¬à¤° à¤ª
Ġ9 74
à¤Ĩ à¤ĩà¤ª
à¥Ĥà¤Ĥà¥¤ '
c z
à¤ķà¤² à¤¬à¤°
15 19
Ġ00 1
à¤ıà¤¸à¤ı à¤Ĩà¤Īà¤¡
Ã¶ z
Ġà¤ħà¤¬ à¤¹
à¤ıà¤¨ à¤Ī
Ġ12 43
in ity
or f
Ġà¤ıà¤² à¤Ĩà¤°à¤Ł
Ã¼ m
Ġi o
Ġ ers
à¤£ à¤ķà¤°
Ġà¤¸à¤¤ à¤¸
à¤ģà¥¤ ..
à¤ıà¤¶ à¤«
Äģ n
zek i
à¤°à¤¨ à¤¡
à¤¾? "à¥¤
à¤² à¤Ĺà¤®
à¤ħ à¤Ľ
Ġà¤« à¤¥
à¤ķà¤°à¤£ à¤ľ
Ġ85 6
à¤ĩ à¤¥à¤µ
à¤¯à¤µ à¤¤
15 56
à¤¤ à¤ľà¤¨à¤ķ
à¤¦ y
Ġà¤Ĩà¤Ī à¤ıà¤¸à¤ı
Ġà¤¸à¤®à¤° à¤«
Ðļ Ð¸
ĠN C
à¤ļ à¤¸à¤¬
à¤Ĳ à¤°
Ġ13 39
à¤ıà¤Ł à¤ª
Ġà¤ĩà¤¶ à¤°à¤µ
à¥Ģ. ?
Ġà¤ĵ à¤¡à¤²
à¤¸à¤µ à¤®
Ġà¤ıà¤®à¤ı à¤ıà¤ļ
Ġà¤ħà¤² à¤Ł
à¤®à¤¤ à¤¨
Ġ9 77
Ġ13 66
Ġstat es
à¤ľ à¤²à¤ķ
Ġà¤¹à¤ļ à¤¸à¤¨
à¤¸ à¤¡à¤ķ
Ġà¤¡ à¤¨à¤ķà¤¨
Ġà¤ĳ à¤¥
Ġà¤ıà¤² à¤¸à¤¨
à¤īà¤² à¤Ł
Ġt e
Ġl aw
Ġà¤ī à¤®à¤¸
à¤¼à¥ģ -
ar s
)- (
ĠÑģÐ¾ ÑĤÐµ
à¤°à¤¦à¤° à¤¹
15 61
Ġà¤ªà¤°à¤® à¤Ł
Ġà¤ħà¤¶ à¤¦
m d
à¤¶à¤ª à¤Ĺ
à¥ĩ' )
Ġà¤ķà¤« à¤²à¤¨
k o
Ġà¤¹ à¤¨à¤®
000 1
à¤¹à¤¨ à¤µ
à¤¹à¤¨ à¤¦
Ġ13 74
Ġc t
ĠL a
à¤¼à¤¼à¤¼à¤¼à¤¼à¤¼à¤¼à¤¼à¤¼à¤¼à¤¼à¤¼à¤¼à¤¼à¤¼à¤¼ à¤¼à¤¼à¤¼à¤¼à¤¼à¤¼à¤¼à¤¼à¤¼à¤¼à¤¼à¤¼à¤¼à¤¼à¤¼à¤¼
à¤ĵ à¤¸à¤®
Ġà¤ªà¤² à¤Łà¤µ
à¤ļ à¤°à¤¸
à¥ī ",
Ġà¤ĳ à¤µ
Ġ11 57
à¤¸à¤° à¤¬à¤°
Ġà¤Ĭ à¤¤
Ġà¤Ńà¤Ĺà¤µ à¤¦
Ġ95 3
h ome
à¤ı à¤¹à¤¸
Ġ11 48
Ġ# "
à¥Ģà¥¤.. ]
Îº Î¹
Ġà¤¸à¤® à¤¹
Ġà¤ħà¤Ĺà¤° à¤µ
n s
à¤¾à¥¤ à¥¤
Ġà¤¦à¤² à¤ľ
à¤ĩà¤®à¤¨ à¤¸à¤¨
Ġ95 8
Ġà¤ĵ à¤²à¤¬
,,,, ,
à¤ĵà¤ĵà¤ĵà¤ĵà¤ĵà¤ĵà¤ĵà¤ĵà¤ĵà¤ĵà¤ĵà¤ĵà¤ĵà¤ĵà¤ĵà¤ĵà¤ĵà¤ĵà¤ĵà¤ĵà¤ĵà¤ĵà¤ĵà¤ĵà¤ĵà¤ĵà¤ĵà¤ĵà¤ĵà¤ĵà¤ĵà¤ĵ à¤ĵà¤ĵà¤ĵà¤ĵà¤ĵà¤ĵà¤ĵà¤ĵà¤ĵà¤ĵà¤ĵà¤ĵà¤ĵà¤ĵà¤ĵà¤ĵà¤ĵà¤ĵà¤ĵà¤ĵà¤ĵà¤ĵà¤ĵà¤ĵà¤ĵà¤ĵà¤ĵà¤ĵà¤ĵà¤ĵà¤ĵà¤ĵ
. ------------------------------------------------------------------------------------------------------------------------------------------------------------------------------------------------------------------------------------------------
u ch
Ġ }
Ġà¤¸ à¤ĺà¤¨à¤¤
à¤· à¤²
à¤ĺ à¤ľ
Ġà¤ĵ à¤¸à¤¨
Ġr na
Ġà¤¹ à¤°à¤µ
à¤ĵ à¤ĩà¤¨
Ġ9 49
Ġ10 98
à¤¿- "
Ġà¤®à¤¹ à¤¨
à¤¸ à¤ıà¤®à¤ıà¤²
à¤¡à¤² à¤¹
Îµ Ïĥ
Ġà¤¬ à¤®à¤°
Ġà¤ı à¤Ĩà¤°à¤ıà¤¸
Ġà¤Ī à¤Ĩà¤°à¤ª
à¤Ĩà¤Ī à¤ıà¤«
b i
g i
Ġà¤ĩ à¤¡à¤²
à¤¾à¤ģ ]
à¤µà¤¤ à¤®
Ġ11 24
à¤ıà¤¸à¤Ĩà¤° à¤ĵ
ØŃ Ùħ
n er
12 30
c p
Îµ ÏĤ
Ġz n
Ġ ÑĩÐ°
à¤°à¤® à¤¤
Ġ11 71
à¤°à¤Ĺà¤®à¤¨ à¤¶
à¤° à¤Ļ
à¤¾à¥¤ :
à¤ķà¤² à¤¶
Ġ10 25
ÑģÑģ Ð¾
à¤ªà¤° à¤ĳà¤°
à¥¤à¥¤ à¥¤"
à¤ıà¤µ à¤²à¤¨
Î½ Î¿
à¤¦ à¤¸à¤¬
Ġà¤ħà¤° à¤¶à¤¦
Ġex p
Ġà¤¨à¤¨à¤ķ à¤Ī
à¤¬ à¤¹à¤¤
à¤Ł à¤ıà¤¯à¤°
à¤« à¤¡à¤ķ
Ġà¤ĵ à¤®à¤²
à¤ĩà¤® à¤®
Ġà¤Ĩà¤ĩà¤µà¤° à¤¸à¤¨
à¤«à¤°à¤¨ à¤¨
Ġà¤ıà¤ķ à¤°à¤¸
Ġà¤Ī à¤ıà¤¸
Ġ11 15
de ild
à¤ĵ à¤ĸ
à¤ıà¤ķ à¤µ
Ġ11 37
Ġ[ ,
s a
à¤ľ à¤°à¤¸à¤¨
Ġà¤ı à¤ıà¤¨à¤ıà¤¸
à¤¸à¤® à¤¶
Ġà¤«à¤° à¤Ĺ
Ġ11 56
Ġà¤¹à¤ľ à¤°à¤¤
à¥Ģà¥¤ ","
Ġ118 4
à¤¸à¤®à¤Ŀ à¤¦
f ter
à¤® à¤ķà¤²
à¤°à¤¸ à¤ķ
15 54
Ġthe m
Ġà¤¹ à¤¡à¤²
Ġ11 79
Ġl o
y d
à¤ª à¤Łà¤®
10 66
A C
à¤° à¤¨à¤²
Ġ1 195
Ġà¤ıà¤¡ à¤¬à¤°
er m
à¥Ģ? âĢĿ
z a
Ġà¤ı à¤Ĩà¤°à¤ª
à¥ĩ ]]
à¥ĩà¥¤ "à¥¤
à¤ĩà¤® à¤°à¤®
Ġà¤¡ à¤°à¤ķà¤°
à¤ķà¤° à¤ľ
Ġ11 18
15 28
Ġà¤µà¤° à¤µà¤°
à¥Īà¤Ĥ, '
Ġ10 11
Ġ11 27
Ġà¤ĩ à¤ľà¤¸
Ġà¤¸à¤® à¤°à¤¸
Ġà¤ıà¤« à¤ıà¤¸à¤µ
à¥Ĥà¤ģ )
Ġ95 2
à¤Ĺ à¤¸à¤°
Ġà¤¬ à¤²à¤µ
Ġà¤° à¤¸à¤µ
à¤²à¤¬ à¤Ł
Ġà¤Ī à¤¸à¤¨
Ġà¤ķà¤² à¤¦
à¤īà¤Ł à¤ľ
Ġp o
ÑģÑģ Ð¸
ÛĮ ÙĨ
à¤ķ à¤¬à¤²
Ġà¤® à¤¨à¤µ
à¤¬ à¤Łà¤°
13 40
à¤µà¤° à¤ļ
à¤°à¤¶ à¤®
à¤ıà¤² à¤Ĩà¤Ī
ĠÃ Ń
Ġn g
y ear
à¤¾à¥¤ à¥¤à¥¤"
Ġà¤ħà¤¬ à¤µ
Ġà¤¹ à¤¸à¤°à¤²
à¤ıà¤¸ à¤ıà¤«à¤ıà¤²
le ct
Ġ100 5
h p
à¤ľ à¤Ĺà¤¨
à¤¾!" (
;;;;;;;;;;;;;;;; ;;;;;;;;;;;;;;;;
à¤ħ à¤¨à¤°
Ġà¤ħà¤¨ à¤¬à¤°
Ġà¤ĩà¤¨ à¤ļ
Ġ13 53
â ĨĴ
Ġà¤ıà¤² à¤¦
à¤Ĺ à¤®à¤ķ
Ġ( \
Ġà¤ĵ à¤¹à¤°
à¤¨à¤² à¤ķ
an c
Ġà¤ĵ à¤¥à¤®
15 37
à¤¼à¥ĩà¤Ĥ ;
Ġà¤ĵà¤® à¤ĺ
n y
Ġà¤ĵ à¤ªà¤Ł
Ġ11 02
Ġ"( )
Ġp re
Ġo ur
à¤¨ à¤ıà¤ľ
Ġà¤Ĳ à¤µ
s deild
Ġà¤Ķ à¤®
à¤¨à¤ķ à¤Ł
à¤£à¤¨ à¤Ĺà¤°
à¤īà¤² à¤Ŀà¤¨
à¤ħ à¤¨à¤µ
Ġd ec
à¤«à¤°à¤¸ à¤¨à¤µ
Ġà¤¦ à¤¨
à¥Īà¥¤ à¥¤à¥¤"
Ġà¤®à¤¨ à¤¬
Ġ95 7
l s
Ġà¤¡ à¤¨à¤°
à¤°à¤« à¤¸
Ġà¤ĵà¤µà¤° à¤°à¤¨
Åį zeki
x viii
Ġà¤ľà¤² à¤ļ
à¤ıà¤ļ à¤ıà¤ļ
. |
w a
à¤ħ à¤°à¤¹
Ġ10 12
à¤ıà¤¸à¤ıà¤¸ à¤¬
à¤² à¤¹à¤²
Ġà¤« à¤¦
Ġ11 74
Ġg u
Ġà¤ľ à¤¯à¤¨
à¤£ à¤Ĺ
ĠXXX X
Ġ11 66
à¤² à¤Łà¤ķ
Ġà¤¡ à¤²à¤µ
à¤Ĩà¤Ī à¤¡à¤¬
à¤¹ à¤µà¤°
à¤ªà¤¨ à¤¬à¤°
Ġà¤Ĭ à¤µ
Ġ11 16
à¤¶ à¤°à¤®
Ġà¤ħ à¤¬à¤¸
à¥Īà¤Ĥà¥¤ ]"
Ġà¤¬à¤¨ à¤ķ
Ġà¤ĵ à¤ĩà¤¸
Ġà¤Ĩà¤Ī à¤ıà¤¨
Ġà¤ıà¤¶ à¤Ł
ar r
Ïģ Î¹Î½
à¥ĩà¥¤.. ]
a ÄŁ
à¥ĩ >
à¤¯à¤¨ à¤ķà¤°
Ġà¤Ĩà¤° à¤ı
Ġ8 98
Ġ"" ),
10 10
Ġà¤ĵà¤ıà¤¸ à¤¸
>- <
à¤« à¤°à¤ķ
à¤ªà¤° à¤ĳà¤ķ
à¤¼à¥Ģ ]]
Ġ12 69
cc cc
Ã³ w
Ġà¤°à¤¨ à¤ħà¤µ
Ġà¤® à¤ķà¤µ
Ġ10 85
Ġi nd
Ġ118 6
à¤¯à¤ķ à¤¨
20 30
à¤Łà¤² à¤¡
Ïģ Î¿Î½
à¤ī à¤ªà¤ķ
à¤Ī à¤²à¤°
à¤Ĭ à¤¬
m n
à¤¡ à¤Ŀ
à¤ĩ à¤ļà¤¨
à¤ĵ à¤ļà¤¨
Ġà¤Ĺ à¤°à¤¬
.) )
à¤® à¤ľà¤²
Ġ11 13
à¤¤à¤² à¤Ľà¤Ł
"à¥¤ à¥¤à¥¤
à¤ĩ à¤ĵà¤®
à¤¼à¤¾ /
à¤¾' ),
Ġà¤Ĩà¤« à¤¤
à¤Ī à¤ıà¤ķ
Ġà¤ķà¤² à¤ľ
Ġ11 65
15 12
y le
Ġà¤¬ à¤Łà¤®
à¤Ń à¤ļ
Ġà¤ĵà¤ªà¤¨ à¤ľ
à¤¼" ),
Ġà¤ķ à¤Łà¤²à¤«
Ġ1 193
Ġà¤ħà¤ª à¤ļà¤¯
Ġ100 3
Ġà¤Ńà¤°à¤¤ à¤¨
à¤ł à¤¡
à¤¯à¤² à¤°à¤®
ÃĤÃĤÃĤÃĤÃĤÃĤÃĤÃĤÃĤÃĤÃĤÃĤÃĤÃĤÃĤÃĤÃĤÃĤÃĤÃĤÃĤÃĤÃĤÃĤÃĤÃĤÃĤÃĤÃĤÃĤÃĤÃĤÃĤÃĤÃĤÃĤÃĤÃĤÃĤÃĤÃĤÃĤÃĤÃĤÃĤÃĤÃĤÃĤÃĤÃĤÃĤÃĤÃĤÃĤÃĤÃĤÃĤÃĤÃĤÃĤÃĤÃĤÃĤÃĤ ÃĤÃĤÃĤÃĤÃĤÃĤÃĤÃĤÃĤÃĤÃĤÃĤÃĤÃĤÃĤÃĤÃĤÃĤÃĤÃĤÃĤÃĤÃĤÃĤÃĤÃĤÃĤÃĤÃĤÃĤÃĤÃĤÃĤÃĤÃĤÃĤÃĤÃĤÃĤÃĤÃĤÃĤÃĤÃĤÃĤÃĤÃĤÃĤÃĤÃĤÃĤÃĤÃĤÃĤÃĤÃĤÃĤÃĤÃĤÃĤÃĤÃĤÃĤÃĤ
h h
à¤¹ à¤¤à¤ķ
à¤ı à¤¶à¤°
à¤Ĩ à¤ľà¤®
à¤ªà¤² à¤ª
Ġà¤Ĩà¤ĩ à¤µà¤¨
Ïĩ Î¹
Ġà¤ıà¤¨ à¤¸à¤°
Ġà¤¨à¤µ à¤¸
à¥ĩà¤Ĥà¥¤ à¥¤à¥¤
ÄŁ lu
à¤ħ à¤¬à¤¨
à¤ĵ à¤¬à¤°à¤¸
à¤Ľ à¤¤à¤°
à¤ĺ à¤Łà¤¤
à¤°à¤² à¤ķ
à¤°à¤² à¤¸
à¤¼à¥ĭà¤Ĥ -
à¥Ĥ" -
ÏģÎ¹ ÏĤ
à¤Ĺà¤Ĺà¤¨ à¤ļ
k ov
Ġ11 63
Ġà¤Ĩà¤¸à¤¨ à¤¸
, ),
à¤ķ à¤Ĺà¤µ
Ġà¤ĩ à¤µà¤¤
à¤ļà¤°à¤® à¤ª
fr ac
Ġà¤Ķ à¤²à¤¸
à¤¾" );
à¤ħà¤Ń à¤¦
Ġr o
ÏĨ Î¹
Ġà¤ªà¤° à¤²
Ġà¤¯ à¤¶à¤µ
Ġ68 000
................................................................................................................................................................................................................................ ................
à¤¯ à¤¸à¤®
Ġà¤Ł à¤¹à¤²à¤¤
Ġà¤Ī à¤ĳà¤¨
à¤ĩà¤Ł à¤®à¤°
Ġ11 43
Ġ100 8
à¥ĭ .)
Ġ10 93
Ġ31 00
ta in
à¤ı r
Ġ1 197
à¤ľà¤² à¤Ĺ
Ġa cc
for e
x b
à¤°à¤¨ à¤«
Ġà¤ķà¤¥ à¤ķà¤²
z h
à¤¿ ',
à¤²à¤¨ à¤ķà¤°
Ġ11 22
Ġ11 36
15 38
Ġb d
ay s
Ġ11 76
à¤ľà¤ķ à¤µ
à¥¤à¥¤ à¥¤"à¥¤
ov e
ĠÏĨ Î¹
à¤¨ à¤Łà¤²
Ġà¤īà¤¨ à¤Ĺ
Ġ118 8
ĠÃ¼rval sdeild
Ġ10 96
Ġ11 64
15 43
Ġà¤¸à¤¨ à¤ª
p or
Ġà¤ķ à¤¸à¤¬
Ġà¤ıà¤¨ à¤¶
à¤īà¤Ł à¤¸
Ġà¤¤ à¤¨à¤ķ
Ġà¤ĵ à¤Ĺà¤¨
à¤ħà¤® à¤°à¤¤
à¤² à¤§
à¥Ĥ )"
Ġà¤« à¤¹
Ġ20 31
à¤¸à¤° à¤¨à¤°
ay a
Ġon ly
à¤ķ à¤Łà¤ķ
à¤ı à¤°à¤¬
à¤ı à¤ıà¤ļ
à¤¨à¤° à¤Ł
à¤¾- (
à¤Ĺà¤¨ à¤ľ
15 32
Î¿ Î¹
Ġsh ould
à¤¬ à¤Ľà¤¡
à¤Ĳ à¤ľ
Ġà¤ıà¤µà¤° à¤®
à¤ĳ à¤²à¤¸
à¤ķà¤¡ à¤¬
Ġ10 67
à¤®à¤° à¤Ĺ
Ġà¤ĩà¤° à¤ª
Ġà¤Ĩà¤ĩ à¤ļà¤®
Ġà¤Ī à¤¹
Ġ118 3
p os
ch r
ĠXX IV
Ġà¤¦ à¤²à¤µ
à¥Īà¤Ĥ" ),
u ct
à¤Ĩ à¤ķà¤®
à¤¦à¤° à¤ľ
Ġ10 81
an i
Ġà¤ķ à¤ªà¤°
à¤¤ à¤¹à¤°
à¤ħ à¤ľà¤¯
à¤Ĭ à¤Ł
à¤°à¤¦ à¤²
15 13
c zy
à¥Ī ]à¥¤
Ġà¤ħ à¤¯à¤¨
Ġà¤° à¤®à¤¤
Ġà¤īà¤® à¤µ
à¤ħà¤¸à¤® à¤®
t on
Ġ á¼Ģ
Ġà¤ĩ à¤Ĺà¤¨
Ġà¤Ī à¤ĵà¤ķ
à¤ĩà¤² à¤¬à¤°
15 49
à¤Ĩà¤¨ à¤¶
el d
c on
n m
Ġà¤ľ à¤¸à¤µ
Ġà¤¸à¤® à¤°à¤µ
à¤¯à¤¯à¤¨ à¤¶
Ġb f
Ġà¤° à¤īà¤«
Ġà¤Ĩà¤° à¤Ĺ
Ġà¤ħà¤ķ à¤µ
Ġà¤¬à¤° à¤ĸ
à¤ľà¤° à¤¬à¤°
Ġ11 41
ar a
Ġà¤ľ à¤ķà¤°
Ġà¤ĵ à¤¹à¤ķ
à¤Ŀ à¤ªà¤ķ
Ġà¤ĳà¤¸ à¤¬
Ġà¤īà¤Ľ à¤²à¤¨
à¤Ĩà¤¸ à¤µà¤¨
ĠÅį k
e z
à¤® à¤Łà¤²
Ġà¤ĳ à¤²à¤µ
à¥Ĥà¤ģ ")
Ġth an
ri st
} ;
à¤¹ à¤¨à¤¸
Ġà¤ĳà¤« à¤ķ
e g
à¤ħ à¤ľà¤®
Ġ11 07
Ġst r
1 150
Î» Î·
Ġà¤Ĳ à¤²à¤¨
15 46
à¤°à¤ĸ à¤µ
- #
à¤¡ à¤ıà¤¸
Ġà¤ķà¤° à¤ľ
Ġà¤¹à¤° à¤«
> /
Ġà¤® à¤°à¤µ
à¤ľ à¤ĸ
à¤ı à¤°à¤¸
à¤ģ !"
à¤ĳ à¤¶à¤µ
Ġ10 31
15 23
Ð½Ð¸ Ñı
Ġà¤ıà¤² à¤¹
à¤¤à¤¨ à¤Ľ
Ġà¤ªà¤¤à¤¨ à¤¶
Ġ ÑĢÐ°
à¤Ī à¤Łà¤ķ
15 09
à¥Īà¤Ĥ?" (
à¤¦ à¤«
à¤¥ à¤®à¤°
Ġà¤Ĺ à¤¨à¤ª
à¤¶à¤° à¤¥
d w
à¤ľ à¤¯à¤¸
à¤ĩ à¤Łà¤°à¤ª
à¤ĵ à¤Ĩ
15 57
Î¿ Ïģ
Ġ{ {
à¤ľ à¤Ĺà¤¦
Ġà¤¦ à¤°à¤Ń
à¤« à¤¦à¤²
Ġà¤ĸ à¤«
à¤ĳ à¤®
10 11
à¤¸à¤ł à¤µ
; -
15 22
." (
Ġà¤® à¤«à¤²à¤°
Ġà¤¯ à¤®à¤Ĺ
à¤Ĺà¤° à¤¡
Ġs r
à¥Ģ"| %
Ã º
Ġà¤ī à¤Ŀ
Ġà¤¤à¤¨ à¤ĸ
ĠWW II
Ġmcl aren
Ġà¤¬ à¤ķà¤¬
Ġx or
Ġ ÑĤ
à¤ı à¤ıà¤¸à¤Ł
Ġà¤¯ à¤µà¤°
à¤§à¤¨ à¤ķà¤°
Ġ10 88
Ġà¤Ĩà¤ªà¤¤ à¤¨
ur n
Ġ ;
à¤ī à¤ĩà¤¸
à¤Ń à¤¯à¤Ń
Ġà¤ªà¤° à¤¬
Ġà¤ĳ à¤Łà¤°
à¤ĩà¤¨ à¤¶
à¤¸à¤ķ à¤Ł
14 60
am a
%%%% %%%%
Ġà¤Ĩ à¤ĵà¤¸
à¤ħà¤¸ à¤¹à¤¨
Ð¼ Ñĥ
ut ion
â Ĺı
Ġà¤ı à¤¸à¤¨
Ġ10 71
Ġ10 13
aa aa
à¤Łà¤² à¤ľ
15 33
à¤¾), "
Ġb l
Ġà¤®à¤¦à¤° à¤¹
à¤¯à¤° à¤¹à¤®
à¤Ĭ à¤ľ
à¤¹à¤® à¤ľ
Ġ11 06
à¤īà¤¥ à¤¬à¤°
Ġà¤ķà¤² à¤ļ
15 51
à¥Ģà¤ĥ :
Ġ118 1
Ġà¤ľ à¤¯à¤µ
Ġà¤ĵ à¤ıà¤®
Ġà¤¸à¤° à¤¸à¤°
à¥ĩ. à¥¤
Ġà¤ıà¤¶ à¤¡
Ġb el
Ġà¤¬à¤¬à¤² à¤Ĺà¤®
à¤¡ à¤¦
à¤¼ !"
à¤ģ '
Ġ10 17
Ġxii ii
à¤¸à¤° à¤µà¤°
à¤¨à¤° à¤¨
14 53
on y
Ġn r
s g
à¤° à¤°à¤¹
Ġà¤ı à¤¹à¤²à¤°
Ġà¤ıà¤« à¤ıà¤²
Ġà¤ĩà¤® à¤¬
à¥ĩà¤Ĥ) -
Ġà¤²à¤µ à¤¡
Ġk w
Ġ"+ "
Ġ >
à¤ıà¤® à¤ıà¤ļ
à¥ĩà¤Ĥ" -
à¥Ī" :
ll ll
à¤² à¤ľà¤¨
Ġà¤¥ à¤ķà¤¨
Ġà¤ĺà¤° à¤ĺà¤°
Ġà¤ĵà¤² à¤¸à¤¨
14 70
Ã¼ d
] à¥¤..
à¤¦à¤° à¤°
à¥ĩà¤Ĥà¥¤ .
15 44
} à¥¤
ov ern
à¤ªà¤° à¤¶
Ġ11 46
Ġà¤¨ à¤¤à¤¨
Ġà¤ħà¤¨ à¤¯
k k
Ù ī
à¤Ł à¤ĳà¤°
à¤®à¤ķ à¤ķà¤°à¤£
Ġx m
ĠÏĩ Î¹Î½
à¤ĩ à¤µà¤¶
Ġà¤ıà¤ķ à¤¬à¤°
à¤¾à¥¤ ;
Ġà¤ĳ à¤²à¤¨
ĠÑģÐµ ÑĢ
Ġà¤®à¤ķà¤¸ à¤¦
Ġkn ow
Ġà¤īà¤¦ à¤®
Ġà¤ıà¤¡ à¤ľà¤¸
15 29
15 08
Ġà¤ªà¤¥à¤¨ à¤®à¤¥
à¤² à¤ļà¤ķ
Ġà¤¨ à¤Ĺà¤¨
Ġà¤¶ à¤ķà¤°
Ġ20 32
à¤¯à¤² à¤ª
Ġà¤¹à¤ľ à¤ľ
Ġà¤Ĩà¤īà¤Ł à¤µ
! !"
d o
à¤Ł à¤ĩ
à¤¡ à¤ıà¤¨
Ġà¤ħà¤° à¤¦
Ġ29 00
à¤Ĩà¤īà¤Ł à¤«
ÑĢÐ¸ Ñı
Ġà¤ľ à¤¯à¤¤
Ġà¤° à¤®à¤«
à¤ĩ à¤Ĺà¤®
Ġ11 19
Ġà¤ıà¤ľ à¤²
à¤¾! ,
dd dd
à¤¼ à¥Ĥ-
Ġà¤ıà¤ļ à¤ıà¤ļ
Ġ11 31
k w
an e
à¤¬ à¤¸à¤ķ
Ġà¤ħ à¤¯à¤µ
Ġà¤¨ à¤ķà¤µ
Ġà¤ı à¤¹à¤²
Ġà¤ĳà¤« à¤Ł
à¤ľà¤® à¤¹à¤²
h d
à¤°à¤® à¤ķà¤°
Ġà¤ıà¤² à¤ıà¤ļ
Ġà¤¬à¤¦ à¤ĸ
Ð½ ÑĤ
Ġ118 2
à¤² à¤¹à¤¸
Ġà¤ĵà¤ıà¤¸ à¤Ī
ut e
) );
à¤ª à¤¥à¤°
Ġà¤¹ à¤¶à¤¨
Ġà¤®à¤¹ à¤ķ
Ġà¤ħà¤ķ à¤¬
à¤Ĩà¤° à¤Ī
Ġ_ ,
i ff
à¤¦ re
Ġà¤ľ à¤Ĺà¤®
à¤ĸ à¤°à¤¨
Ġà¤¯ à¤µà¤ķ
Ġà¤ıà¤® à¤ıà¤¸à¤ı
Ġ11 45
Ð³ Ñĥ
n ess
à¤° à¤ªà¤°
Ġ11 05
12 60
ĠÃ ¨
Ġ à¤Ĵà¤Ł
à¤° à¤¡à¤²
Ġà¤ħ à¤¸à¤ķ
Ġà¤ĳ à¤¸à¤®
à¤Ŀ à¤°
à¤Ŀ à¤²
Ġ11 28
ĠÎ± Î½
Ãİ le
à¤ħ à¤¦à¤¨
Ġà¤ī à¤ĩà¤¨
à¥Ģ, -
Ġ' \
14 80
p ar
Ġà¤µ à¤¡à¤ķ
à¥ĩ, '
Ġà¤ĳà¤« à¤¶
st e
Ġà¤¹ à¤¨à¤¯
à¤¥ à¤Łà¤¨
Ġà¤ļ à¤ķà¤²
h o
à¤£à¤¨ à¤ķà¤°
Ġ11 08
Ġc is
rop ri
y t
z n
à¤ĵ à¤²à¤¨
à¤¬à¤² à¤«
à¤Ķ à¤«
Ġà¤ĳ à¤ªà¤ķ
à¤ĩà¤¨ à¤¹à¤°
à¤®à¤° à¤°
14 40
Ġ100 4
Ġà¤ĩà¤ļ à¤®
h s
Ġà¤® à¤Ĺà¤¦
à¤ı à¤ıà¤®à¤¡
Ġà¤ĩ à¤ĵà¤µ
à¥Ģà¥¤ ]
Ġà¤Ī à¤ıà¤®à¤ıà¤¸
12 40
Ġà¤¸à¤¬à¤® à¤°
Ġà¤ı à¤Īà¤ıà¤¸
Ġà¤ĳ à¤¥à¤°
Ġà¤Ī à¤Ĺà¤¨
à¤ıà¤ķ à¤¸
Ġ(Ìĥ )
Ġà¤¹ à¤¬à¤°
Ġà¤° à¤¨à¤¬
à¥Ģ. ")
Ġà¤ħà¤° à¤ľ
15 48
Ġà¤¸à¤¨ à¤Ĺ
15 01
v ol
Ġà¤ıà¤² à¤ıà¤¨
à¤®à¤¤ à¤²
Ġà¤«à¤° à¤«
à¤®à¤°à¤£ à¤ķ
à¤ıà¤¬à¤° à¤¹
à¤¨ à¤ĩà¤¨à¤«
Ġà¤¨ à¤Łà¤ľ
Ġà¤ıà¤² à¤ıà¤²à¤ª
à¤ĩà¤¡ à¤ĩ
à¤°à¤² à¤®
i le
Ġà¤¸ à¤ªà¤°
à¤ī à¤µà¤°
Ġ10 35
à¤ķà¤ł à¤«
à¤ī à¤ļà¤¨
Ġà¤ī à¤°à¤µ
à¤Ĩ à¤°à¤²
Ġà¤ĩ à¤ľà¤¨
à¤ĺ à¤¸
à¤µà¤° à¤ķà¤°
à¤µà¤¨ à¤Ĺ
Ġà¤Ī à¤¡à¤°
à¤°à¤¦ à¤¯
Ġà¤ıà¤¸à¤ıà¤¸ à¤¡
à¤² à¤ªà¤Ł
à¤¾" à¥¤"
Ġ38 00
, ;
Ġà¤ĵà¤° à¤¬
14 20
Ġà¤ıà¤ı à¤ıà¤ļ
Ġ ed
Ġà¤° à¤¥à¤¬
Ġà¤¬à¤¹ à¤®à¤¨
à¤°à¤« à¤²à¤ķ
Ġà¤°à¤¨ à¤«
l Ã¡
l ov
20 26
Ġ10 77
Ġ10 87
à¥ĩà¤Ĥà¥¤" "
Ġapp ropri
zm ir
Ġwà¤ı s
à¤Ŀ à¤Łà¤ķ
Ġ10 91
à¤ħà¤¨ à¤¦
à¤¨à¤¬ à¤ķà¤²
à¤® à¤īà¤¦
à¤Ĺ à¤¬à¤¨
Ġà¤ī à¤°à¤¹
Ġà¤ªà¤° à¤ļ
Ġ1 196
à¤ĵ à¤§à¤®
à¤ıà¤¸ à¤ıà¤²à¤¸
y ard
à¤¤à¤° à¤§
15 05
à¤Īà¤¸ à¤¡
Ġin it
à¤Ĺ à¤®à¤¸
Ġr el
à¤· à¤¹à¤°à¤£
à¤§ à¤¦
à¤°à¤² à¤Łà¤¨
Ð½ Ñĥ
à¤£ à¤¶
à¤ıà¤¨ à¤Īà¤ª
à¤īà¤Ł à¤µ
Ġr b
à¤ľ à¤ħà¤ª
à¤¬ à¤ļà¤¨
à¤ī à¤¡à¤²
Ġà¤¸à¤® à¤°à¤¹
Ġà¤ĵ à¤ķà¤ª
à¤ıà¤® à¤ıà¤«
à¥Īà¥¤.. .
for m
à¤¦ à¤°à¤ķ
à¤Ł à¤°à¤ķà¤²
Ġà¤¸à¤¤ à¤ª
Ġà¤ķ à¤¯à¤²
Ġx c
à¥ĭ! ",
Ġà¤¬à¤°à¤¤ à¤¤
Â·Â· Â·Â·
à¤ıà¤ıà¤ıà¤ı à¤ıà¤ıà¤ıà¤ı
à¤ıà¤² à¤ıà¤ļ
à¤ıà¤¨ à¤Ĩà¤Ī
14 85
Ġb j
Ġr em
Ġà¤ıà¤¨à¤ıà¤¸ à¤ıà¤«
à¤² à¤ķà¤²
Ġà¤ī à¤®à¤ķ
Ġ" );
Ġà¤Ł à¤ªà¤ķ
à¤ıà¤² à¤«
ĠX I
ĠÄį aÄį
à¥¤ >
Ġà¤ħ à¤¥à¤°
15 03
ĠâĢ² )
Ġà¤ıà¤µà¤° à¤¸à¤¨
Ġà¤« à¤¹à¤¦
Ġà¤ķà¤¹ à¤²à¤°
à¤µà¤¹à¤¨ à¤ķà¤°
Ġup on
à¤¥ à¤°à¤ķ
Ġà¤¶ à¤®à¤²
Ġà¤¤ à¤²à¤¤
Ġ11 21
Ġb jÃ¶rn
Ġà¤¨ à¤Łà¤¸
à¤°à¤¶ à¤µ
-- "
Ġà¤ĵà¤µà¤° à¤ĳà¤²
1 185
à¤ī à¤ī
à¥ĩà¥¤ )à¥¤
Ġ10 23
Ġ10 42
à¤Ĩà¤° à¤ĵà¤¸
15 04
12 34
Ġ Ñĩ
à¤ī à¤°à¤²
à¤īà¤¨ à¤¸à¤¨
Ġà¤¬à¤² à¤¹
Ġ11 72
as h
Ġà¤Ńà¤°à¤¤ à¤ª
à¤ĵ à¤ķà¤µ
Ġà¤ħà¤¸ à¤µ
Ġs s
u de
à¤¸à¤® à¤¨à¤°
el and
à¤¶ à¤µà¤°
Ġà¤¡à¤¬ à¤¨
à¤«à¤ľ à¤Ī
Ġ11 23
Ðµ ÑĢ
Ġà¤ıà¤®à¤ıà¤¸ à¤¡
Ġà¤µ à¤¸à¤¨
Ġ11 61
Ġc ould
Ġy our
Ġun ited
à¤Ĺ à¤Łà¤°
à¤Ĩ à¤¬à¤¨
à¤ĵ à¤ªà¤²
à¤ĩà¤Ł à¤¸à¤µ
Ġ11 42
Ġà¤ıà¤° à¤Łà¤¨
Ðµ ÑĤÐµ
Ø§ Ø±
c n
à¥Īà¥¤ à¥¤
à¥Ģà¤Ĥ ]
à¤ªà¤¸ à¤Ł
l ib
à¤ľà¤¨ à¤¨à¤µ
à¤®à¤² à¤®
à¤ĩà¤¡ à¤Ĩà¤īà¤Ł
Î´ Î±
ÙĦ ÛĮ
b le
d s
Ġà¤ħà¤ª à¤¸à¤°à¤£
à¤°à¤Ń à¤¦
à¤īà¤¨ à¤¡
à¥Ī", "
Ġà¤ı à¤Ĩà¤°à¤¸
Ġà¤¦ à¤¬à¤¨
met oo
Ġcour t
à¤£ à¤ľà¤¨à¤¨
Ġà¤¡ à¤®à¤¸
Ġà¤ļà¤° à¤ĸ
Ġ11 69
à¤ķ à¤ĸ
Ġà¤ķà¤° à¤®à¤¨
à¤²à¤¯ à¤§
à¤°à¤¹ à¤¬
à¤ķà¤¨ à¤Ĺ
Ð»Ð¸ Ñı
ga in
à¤¡ à¤¡à¤²
à¤£à¤¨ à¤«à¤²
f o
10 50
à¤¯à¤£ à¤Ĺ
à¤¾?" (
d p
i ed
m w
Ġà¤ı à¤¬à¤¨
Ġ" ÃĹ"
Ġb ud
m ath
à¤ļ à¤°à¤¬
à¥Ģ, '
Ġ10 68
Ġà¤Ĺà¤ľ à¤ªà¤¤
Ġà¤Ĺ à¤²à¤¨
Ġà¤¡ à¤ľà¤¨
à¥ĩà¥¤ ",
Ġà¤¹à¤® à¤®
à¥Ģà¤ĥ )
ir st
ØŃÙħ Ø¯
à¤¯ à¤°à¤£
à¤°à¤® à¤Ł
Ġà¤ħà¤ª à¤«
Ġ5 200
Ġà¤¨à¤µ à¤²à¤¨
21 00
à¤ıà¤Ł à¤ľ
Ġd b
Ġà¤ıà¤¸à¤ıà¤¸ à¤Ł
u z
à¤ķà¤¸ à¤²
à¤Ĩà¤° à¤ıà¤ļ
à¥Īà¥¤.. [
Ġe ver
à¤² à¤®à¤ķ
à¤µ à¤¡à¤¨
à¤Ł à¤¦
à¤Ł à¤¸à¤µ
à¥Į ",
à¤¸à¤ķ à¤¸
Ġà¤ħà¤® à¤¹
à¥ĩ] ,
) ]|
à¤ļ à¤Łà¤µ
Ġà¤¤ à¤ªà¤¨
à¥Īà¤Ĥà¥¤ (
Ġà¤¸à¤² à¤Ĺ
Ġ- (
oc k
n r
à¤® à¤Ĺà¤²
Ġà¤ĳ à¤¯
à¤Ĺà¤² à¤Ĺ
Ġà¤¹à¤® à¤µ
ii c
Ġb ec
Ġr m
âī¤ -
Ġ Ú
à¤¨ à¤¬à¤²
à¥Ĥ ',
Ġà¤ļ à¤ľ
Ġ10 97
Ġ11 67
Ġp res
Ġcoc u
à¤² à¤ĸà¤¨à¤Ĭ
f s
n b
à¤¥ à¤µà¤°
à¤¯à¤¨ à¤¤
à¤¼à¤¾à¥¤ ..
) |
Ġà¤® à¤¬à¤°
Ġà¤Ĺ à¤¨à¤¨
à¤ªà¤¨ à¤ķ
à¤²à¤Ĺ à¤¢
Ġà¤¨à¤Ĺ à¤Ł
à¥ĩà¤Ĥà¥¤.. "
Ġà¤ĵ à¤¬à¤°à¤µ
à¤°à¤¶ à¤µà¤°
Ġ10 84
à¤ķà¤Ł à¤²à¤°
à¤ī à¤¨à¤¤
Ġà¤ĩ à¤¡à¤°
à¥Īà¥¤ :
Ġà¤« à¤¨à¤ķ
Ġà¤¦à¤®à¤¨ à¤¸à¤°
Ðļ Ñĥ
à¤Ī à¤Ī
Ġà¤īà¤¨ à¤¸à¤°
à¤¯à¤° à¤¹à¤¸
à¤Ĩà¤¨ à¤¯
Ġà¤ıà¤µà¤° à¤¹
à¤ķà¤ľ à¤Ī
Ġà¤ıà¤¸à¤ıà¤¸ à¤ľ
Ġà¤ıà¤®à¤Ĩà¤° à¤Ĩà¤Ī
Ġà¤ıà¤¸ à¤ĵà¤¸
à¤ļà¤° à¤ļ
id ed
Ġ(+ )
Ġà¤¹ à¤¨à¤°
à¤ĵ à¤ıà¤«
à¤¬à¤¨ à¤«
Ġ'( '
Ġ ---
à¤Ń à¤¡
ov ice
ĊĠĊĠĊĠĊĠ ĊĠĊĠĊĠ
à¤ī à¤ĸ
Ġà¤ħà¤² à¤¹à¤®
Ġ100 9
Ġà¤Ĩ à¤°à¤®
Ġ< -
Ġà¤¹à¤¦ à¤¸
99 99
à¤ľ à¤ķà¤°à¤£
Ġà¤¹ à¤°à¤¤
Î² Î¿
9 000
à¤ī à¤¦à¤°
à¥Īà¤Ĥà¥¤ |
Ġ11 78
à¤ĩà¤ª à¤Ĩà¤īà¤Ł
ĠÅį ta
Ġà¤µ à¤¨à¤¹
12 80
Ã¼ n
ĠÏĢ Îµ
ĠÃ© cole
à¤Ł à¤«à¤°
Ġà¤² à¤ĸà¤¨
Ġ11 44
;" >
ĠXXX III
à¤¿ ?
à¥ĩà¤Ĥ ],
Ġà¤Ĩà¤ĩ à¤Ĺà¤°
ik e
b ul
Ġà¤ľ à¤Ĺà¤°
Ġà¤Ł à¤¸à¤ķ
Ġ' ),
à¤¾)à¥¤ "
Ġp e
Ġà¤ħ à¤¥à¤¬
Ġà¤ĵ à¤¹à¤¸
Ġà¤ĳ à¤°à¤¬
à¤īà¤¨ à¤¬à¤°
Ġ11 29
Ġr rna
à¤ıà¤¯à¤° à¤¬à¤¸
g t
Ġà¤µà¤¨ à¤Ĺ
à¤īà¤ª à¤ª
Ġl xx
à¤° à¤Łà¤µ
Ġà¤ķ à¤²à¤¯
à¤¯ à¤£à¤ª
à¤¹ à¤¬à¤²
Ġà¤¯ à¤®à¤ķ
Ġà¤ĳ à¤ķà¤°
Ġà¤¸à¤¹ à¤Ĺà¤²
à¤ĩà¤Ł à¤¸à¤¨
Ġ10 55
Ġ11 14
35 00
Ġp ur
d i
à¤ħ à¤¹à¤¸
à¤¸à¤° à¤ľ
Ġà¤ĵ à¤ĩà¤ķ
Ġ11 34
Ġà¤ħà¤« à¤¶à¤°
100 8
à¥ĭà¤Ĥ !"
Ġà¤ī à¤°à¤«
15 31
ĠÎ ¶
à¤ıà¤¯à¤° à¤¡
Ġj ust
ĠÏĦÎµ Î½
A D
Ġà¤ª à¤£à¤ľ
à¤°à¤µ à¤ª
à¤īà¤¸ à¤Ĺ
Ġ100 6
à¥Ī)à¥¤ "
Ġâ ģĦ
Ġcon s
(* )
à¤¹ à¤¨à¤ķ
Ġà¤ķà¤° à¤®à¤¨à¤²
Ġà¤ĩ à¤¡à¤¸
Ġà¤īà¤¨ à¤²
à¤¾à¤ģ ?"
13 70
Ġ20 99
Ġf o
Ġfor m
à¤ªà¤µà¤¨ à¤ļà¤ķ
va il
Ġà¤ª à¤Ŀ
à¤ī à¤²à¤¸
Ġà¤Ń à¤Łà¤¨
à¥ĩ, à¥¤
Ġà¤¤à¤² à¤¹
er r
Ġ(; ;;
à¥Īà¥¤.. ,
à¤Ī à¤ĸ
Ġà¤ħà¤¬ à¤¶
Ġx j
à¥Ī? ","
k b
en g
Ġà¤Łà¤ļ à¤ª
ĠUT c
à¤¯ à¤Ĺà¤®
à¤ı à¤Ĩà¤°à¤ıà¤¸
Ġà¤¨ à¤ļà¤®
à¤ªà¤¨ à¤¶
Ġà¤īà¤ª à¤ªà¤¤
Ġà¤ıà¤ļ à¤ıà¤²
à¤¸à¤¬ à¤¨
Ġa gain
am p
------------------------------------------------------------------------------------------------------------------------------------------------------------------------------------------------------------------------------------------------ --------
x ix
Ġà¤µ à¤¨à¤°
à¥ĭà¥¤ )
à¤ĭ à¤Ĺ
\ \
à¤® à¤ªà¤²
à¤ı à¤Ĺà¤²
Ġà¤Ł à¤°à¤®
à¤¼à¥ĩ /
Ġà¤ıà¤¬à¤° à¤¸
Ġk z
ap p
Ġ"= "
à¤Ī à¤Ĩà¤°
Ġà¤Ĩ à¤ĩà¤«
Ġà¤ħà¤ª à¤ª
à¤Ĩà¤¨ à¤Ŀ
Ġg overn
à¤ħ à¤ķà¤°
Ġà¤ļ à¤¹
Ġà¤ıà¤¸ à¤ıà¤¸à¤ıà¤¸
à¥Ģ) ",
Ġd w
l iga
à¥Īà¤Ĥà¥¤ ","
à¥Ģ" -"
à¤¥à¤¨ à¤¸à¤¨
Ġ11 62
Ġh ow
Ġg l
ĠF A
t l
Ġà¤¸ à¤¨à¤¨
à¤Łà¤° à¤¨à¤°
à¤ĩà¤® à¤ª
Ġà¤ķà¤Ł à¤¹à¤²
à¤¾' ;
Ġm ust
Ġf c
Ġxy z
à¤ī à¤¸à¤µ
Ġà¤Ĭ à¤¤à¤µ
à¤¤à¤°à¤£ à¤ķà¤°
- /
Ġà¤īà¤ª à¤¶à¤®à¤¨
Ġà¤ĵà¤° à¤¡
à¤¡à¤² à¤ª
Ġ10 65
Ġ10 73
Ġà¤ľà¤² à¤ļà¤ķ
à¤ıà¤¨ à¤ĵ
15 14
15 11
an n
ic al
ĠĠĠĠĠĠĠĠ ĠĠĠĠĠĠĠĠ
Ġgo od
Ġà¤ĵ à¤¡à¤®
Ġà¤ķà¤² à¤¬à¤°
13 20
Ġ100 7
s n
à¤¤ à¤¬à¤°
Ġà¤ħ à¤ľà¤°
à¤Ĺà¤® à¤ª
Ñģ ÑĤ
x vi
Ġà¤° à¤²
Ġà¤Ĩ à¤ĩà¤¬à¤°
Ġ' "
in n
Ġà¤ªà¤¥ à¤Ń
Î² Î±
à¤¸à¤° à¤¹
à¤¥à¤° à¤«
ĠÑģÐ¸ Ñı
Ġà¤¶ à¤ļ
Ġ11 51
Ġà¤Ĩà¤ĩ à¤ĵ
Ġv t
Ġf Ã©
Ġà¤¹à¤²à¤® à¤¹
à¤Ĺà¤ľà¤¨ à¤ķà¤¤
a f
l k
à¤ıà¤Łà¤° à¤®
e xe
à¤¸ à¤Ĩà¤īà¤Ł
à¤ª à¤Ĺà¤¢
Ġà¤ª à¤²à¤¸
Ġà¤µà¤° à¤²
Ġl l
Ġà¤īà¤²à¤Ł à¤ķà¤°
? )à¥¤
à¥ĭà¤Ĥ à¥¤..
Ġ10 45
à¤ķà¤Ł à¤ª
Ġ11 03
Ġv er
Ġp ol
c u
Ġà¤ľ à¤Ī
Ġà¤ħ à¤ĸà¤²
à¤Ī à¤¶à¤¨
Ġ10 76
Ġ"" :
Ġà¤ıà¤ļ à¤ıà¤¸à¤Ĩà¤°
Ġ11 58
Ġp h
Ġà¤²à¤µà¤² à¤ķ
à¤ıà¤®à¤ıà¤® à¤ıà¤®à¤ıà¤®
à¤¿ );
à¤² à¤ķà¤¸
à¤¦ à¤ķà¤¨
à¤ĩà¤Ł à¤²à¤Łà¤¨
Ġà¤¹à¤Ł à¤¸à¤¨
à¤Ĩà¤°à¤Ĩà¤° à¤Ĩà¤°à¤Ĩà¤°
Ġxf inity
i Äį
à¤¹ à¤¦à¤°
à¤Ł à¤¸à¤¬
à¤¶ à¤¤à¤ķ
à¤¼ à¥ĩà¤Ĥ)
à¤²à¤° à¤ħà¤ª
Ġà¤Ĳ à¤¶à¤¬
à¤¾à¥¤" .
à¥Ĥà¤ģ '
Ġc thulhu
Ġà¤īà¤§ à¤®
Ġ(' ),
Ġ(" -
à¤¹à¤¸ à¤²à¤°
Ġà¤Ĩà¤ĩ à¤ıà¤ıà¤ıà¤«
x g
à¤ĩ à¤°à¤«
Ġà¤ķà¤° à¤¶
Ġà¤¬à¤¨ à¤¹
à¤ıà¤¸ à¤ıà¤¨à¤ıà¤¸
à¤¡à¤² à¤µà¤°
à¤¨à¤¨ à¤«
12 90
st it
Ġin to
v g
à¤¡ à¤ħà¤¬
Ġà¤° à¤¨à¤®
à¤ī à¤²à¤ķ
Ġà¤Ŀ à¤ķà¤Ŀ
à¤Ī à¤ıà¤¸à¤Ĩà¤°
Ġà¤ľà¤² à¤§
ĠÐļ Ñĥ
f an
à¤Ń à¤¸
Ġa vail
Ġr f
à¥ĭ! âĢĿ
à¤ıà¤²à¤¨ à¤¸
à¤Ĩà¤Īà¤Ĩà¤Ī à¤Ĩà¤Ī
Ġre g
Ġ( à¥¤
Ġà¤Ł à¤µà¤°
Ġà¤ľà¤² à¤ľà¤¨
Ġà¤ķà¤Ł à¤ľ
., "
Î¬ Ïģ
à¥ĩà¤Ĥ, ,,à¥¤
à¤ħà¤¨ à¤ļ
al t
à¥Īà¤Ĥ! âĢĿ
à¤¶ à¤¹à¤¤
Ġà¤ī à¤¹à¤°
Ġ" Ìĥ
Ġà¤¡ à¤ª
Ġ10 46
Ġ11 12
à¤¾à¤ĥ )
st an
à¤¨ à¤¡à¤²
or m
ter n
c al
Ġà¤ķ à¤¦à¤µ
à¤² à¤Łà¤®
à¤ı à¤¶à¤µ
,,,, ,,
à¤¡ à¤ķà¤¨
à¤ī à¤Ŀ
à¤Ĳ à¤¬
Ġà¤®à¤¨ à¤¡
à¤µà¤°à¤£ à¤ķ
à¤ªà¤² à¤Ĺ
15 06
à¤¸ à¤µà¤¨
à¤« à¤ķà¤°
Ġà¤ķà¤° à¤¹
à¤ķà¤² à¤ľ
à¤Ńà¤Ĺ à¤µà¤¦
120 4
f ul
Ġà¤ĩ à¤°à¤¸
Ã© s
ĠÎº Î±
à¤Ĺ à¤¨à¤ķ
à¤°à¤® à¤«
Ġà¤ĵ à¤²à¤°
à¤Ŀ à¤²à¤ķ
Ġà¤ħà¤µ à¤Ĺ
à¤¾à¥¤.. ",
Ġx u
Ġa fter
Ġf f
à¤¸ à¤ħà¤ª
Ġà¤¬à¤ľ à¤ķ
12 20
dddd ff
à¤ħ à¤Łà¤ķ
à¤Ĩ à¤°à¤¨
Ġà¤ĵ à¤¥à¤¨
à¤®à¤² à¤¹
15 02
12 12
Ġà¤ıà¤®à¤ıà¤¸ à¤µ
y m
à¤ķ à¤µà¤¨
à¤¤ à¤Łà¤µà¤°
Ġà¤¡ à¤°à¤¬
à¤°à¤¸ à¤¬à¤°
Ġà¤Ĩà¤° à¤ıà¤¸à¤µ
à¤ĩà¤¸ à¤«
Ġ11 49
d b
Ġ O
à¤ıà¤¸ à¤«
à¤¾! .
Îº Îµ
à¤¨ à¤²à¤¨
à¤ª à¤Łà¤ķ
à¤°à¤£ à¤¬
à¥ĩà¥¤ ),
à¤¬à¤² à¤Łà¤¨
Ġà¤Ĩà¤ĩ à¤Ĺà¤²
à¤¾à¥¤.. [
Ġà¤¹ à¤²à¤¬
à¤¤à¤¨ à¤µ
Ġ10 72
// /
T ub
à¤Ĥ )"
à¤Ī à¤Ĩà¤°à¤ª
Ġà¤ĩ à¤Łà¤µ
à¤ł à¤Ĺà¤¤
Ġà¤Ī à¤¬à¤°
Ġ10 57
à¤¡à¤¨ à¤¨
Ġà¤®à¤¨ à¤ļ
à¤ľà¤² à¤ļà¤°
13 92
à¥Ĥà¤ģ --
Ġà¤ķà¤¡ à¤ª
Ġm o
Ġr g
à¤¿)à¥¤ )à¥¤
Ġà¤® à¤¦à¤²
à¥ĩ, -
Ġà¤¸à¤° à¤«à¤°
à¤²à¤® à¤¡
Ġà¤Ĩà¤īà¤Ł à¤¹
Ġf l
an a
k y
Ġà¤ķ à¤µà¤¯
à¤Ĩ à¤¨à¤¸
", )
à¤µà¤ª à¤¦
à¤¨à¤Ĺ à¤¢
Ġ650 2
ÏĦÎµ Î½
à¤¬ à¤¹à¤®
Ġà¤ı à¤µà¤Ł
Ġà¤ı à¤ĵà¤Ł
à¤®à¤¤ à¤Ń
Ġv ery
ÏĦ Î·
ou Tub
s b
à¤° à¤ł
à¤Ĥ "à¥¤
à¤¯ à¤¦à¤¨
à¤¦ à¤¬à¤¦
à¤ı à¤¶à¤ķ
à¤ı à¤¡à¤¬
à¤ī à¤®à¤²
à¤Łà¤° à¤¬à¤¸
---- --
à¤ľà¤Ĺ à¤¢
Ġà¤Īà¤Ĺà¤² à¤Łà¤¨
Ġo ver
à¤Ĺ à¤¸à¤¬
Ġà¤¹ à¤°à¤Ń
Ġà¤ħà¤¨ à¤¶
Ġà¤ħà¤ķ à¤¤
13 30
Ã© j
à¤ĩ à¤¥à¤¨
à¤ıà¤° à¤Ł
Ġr n
Î´ Z
à¤ı à¤ıà¤¨
Ġà¤ľ à¤Ĺà¤²
Ġà¤¦ à¤¶à¤¹à¤°
à¤¾à¤Ĥ )à¥¤
Ġà¤Ł à¤ļà¤¬
Ġ10 19
à¤ľ à¤¯à¤®
Ġà¤ķà¤° à¤ª
Ġà¤īà¤ª à¤ļà¤°
à¤Łà¤ķ à¤µà¤°
à¥ĩ; "
ĠÎ± Ïģ
Ġà¤¦ à¤¶à¤°à¤¥
à¤ķà¤° à¤°
Ġà¤¸à¤¹ à¤Ĺ
Ġ10 21
Ġ10 38
Ġà¤¸à¤¨ à¤¥
Ġ[.] à¥¤à¥¤]
à¤¦ à¤²à¤¬
à¤®à¤¨ à¤¹
à¤ıà¤¸ à¤ıà¤Ł
Ġà¤ıà¤° à¤«
Ġh à¤Ĩà¤Ī
k g
r w
à¤¶ à¤ªà¤¸
Ġ10 28
Ġà¤ıà¤ª à¤µà¤°
14 30
Ġà¤¸à¤¬ à¤¥
à¤ĩà¤« à¤«
Ġ34 00
Ġà¤ľà¤¯ à¤ļ
à¤² à¤ĸà¤°
Ġà¤® à¤®à¤°
Ġà¤¹ à¤ķà¤¨
à¤ī à¤¹à¤°
Ġà¤¤ à¤¤à¤®
Ġà¤ĵ à¤®à¤¦
à¤²à¤¬ à¤ķ
Ġà¤ĩà¤® à¤¹
à¤¼à¥ĭ )
Ġ11 33
Ġ[ *
à¤ķ à¤¶à¤°
Ġà¤ª à¤²à¤®
Ġà¤Ĩ à¤¶à¤²
à¤ıà¤¸à¤ı à¤®à¤¸
Ġà¤īà¤¬ à¤°à¤ķà¤°
Ġavail able
' :
r c
à¤ļ à¤¥à¤¨
à¤Ĳ à¤®
à¤°à¤ľ à¤¯
à¤ıà¤¡ à¤ª
à¤ħà¤ķ à¤¶
à¥Īà¥¤.. )
à¥Īà¤Ĥ! '
Ġse e
à¤¹ à¤ł
à¤¿" -
Î¼ Î±
à¤® à¤ıà¤ķ
Ġà¤īà¤¨à¤¸ à¤ł
à¤¾! !
à¥Ī?" "
iv is
//////////////// ////////////////
à¤¦ à¤®à¤¨à¤ķ
à¤ı à¤®à¤²
Ġà¤¤à¤ķ à¤®
Ġ10 61
à¥Ģ! '
à¤® à¤ľà¤¨
à¤ı à¤¸à¤®
à¤ĵ à¤Ĩà¤°à¤ľ
Ġ11 32
Ġà¤ļà¤Ł à¤Ĺ
on t
Ġp g
Ã¼ l
Ġà¤ıà¤ķ à¤¸à¤®
à¤²à¤° à¤²
à¤°à¤¦à¤° à¤Łà¤¨
Ġ8 500
à¤¾- ,
à¤ħà¤¶ à¤°à¤«
ĠØ £
k h
r l
à¤² à¤¡à¤®
à¤Ĺ à¤°à¤¸à¤¨
Ġà¤¬à¤¡ à¤ľ
Ġd er
à¤ıà¤¬ à¤°à¤ķ
ĠÄįesk Ã©
Ġà¤² à¤²à¤¨
Ġà¤° à¤¨à¤¨
à¤ľà¤¨ à¤Ĺà¤°
ĠÃ¶ ster
k l
à¤® à¤°à¤¶
Ġà¤« à¤°à¤¹à¤®
Ġà¤ħà¤¬ à¤ķ
Ġ10 22
Ġ },
à¤¨ à¤®à¤¤
à¤ļ à¤®à¤¨
Ġà¤ĩ à¤¬à¤²
à¤ĵ à¤°à¤µ
Ġà¤ķà¤® à¤°à¤ªà¤Ł
Ġà¤¸à¤° à¤¯
Ġi mp
ÑĤÐ¸ Ñı
ĠØ¨ ÙĨ
à¤¦ à¤µà¤ª
à¤ı n
__ _
à¤¦ à¤¥
à¤ĩà¤Ł à¤¹à¤°
Ġ10 64
à¤¾à¥¤" -
Ġn ew
sec ond
d en
Ø ¦
Ġà¤ĸ à¤¶
Ġà¤ıà¤¨ à¤ıà¤µ
à¤Ĺà¤¨ à¤Łà¤¨
Ġ11 59
Ġa g
à¤Łà¤¸à¤¨ à¤µ
ch o
à¤ħà¤ħà¤ħà¤ħà¤ħà¤ħà¤ħà¤ħ à¤ħà¤ħà¤ħà¤ħà¤ħà¤ħà¤ħà¤ħ
t z
à¤¸ à¤Ĺà¤¨
Ġà¤ı à¤µà¤ķ
Ġ4 200
Ġà¤ĵà¤° à¤ľ
à¥Īà¤Ĥ; "
à¤ĵà¤° à¤Ł
Ðµ ÑĤ
à¥Īà¤Ĥ? !
Ġà¤ıà¤ķà¤µà¤ļà¤¨ à¤¤
Ġà¤ıà¤¨ à¤ıà¤«
Ġ10 63
at t
a ir
à¤ıà¤¸à¤Ĩà¤° à¤Ł
Ġab out
g ed
à¤¨à¤ķ à¤¤
Ġà¤ªà¤¦ à¤®
à¤¾) .
à¤ĩà¤ªà¤° à¤¡
,,,, à¥¤
ĠÅį ts
\ )
Ġà¤° à¤¸à¤ª
à¥ĩà¤Ĥ, '
à¤ıà¤ķ à¤ª
à¤ľà¤° à¤Ł
Ġ11 04
14 94
"- (
Ð½Ð° Ñģ
m ac
r u
à¤¤ à¤Łà¤°
Ġà¤® à¤ĸà¤¦
Ġà¤¡ à¤µà¤°
Ġà¤Ĩà¤° à¤ıà¤ļà¤ıà¤¸
à¤ĩà¤¡ à¤°à¤¹
Ð¾ v
n ot
Ġà¤īà¤¨ à¤Ĺà¤°
à¤ĵ à¤Łà¤°
Ġ10 94
Ġà¤°à¤¤ à¤¨à¤ķ
S P
à¤Ī à¤Ĺà¤°
à¤¨à¤¸à¤¨ à¤µ
Ã© g
ĠÄįaÄį ak
d er
Ġà¤ī à¤¥à¤°
à¤Ĩ à¤¯à¤²
Ġà¤Ĩ à¤¨à¤¨
à¥Ĥ. "
à¤¨à¤¤à¤® à¤µ
$$$$ $$$$
à¤ĩ à¤Ĺà¤¸
à¤Ĩ à¤²à¤°
Ġà¤ĩ à¤ĵà¤®
Ġà¤µà¤° à¤¸
Ġ11 09
à¤²à¤Ĺ à¤ķ
x vii
à¤¤ à¤µà¤°
Ġà¤ª à¤¨à¤®
à¤ĵ à¤ī
à¤¯à¤ķ à¤£
Ġà¤ħà¤Ĺ à¤°à¤¤à¤²
ĠÃħ ker
à¤ķ à¤ľà¤°
à¥Ģà¥¤ /
à¤Ĩà¤Ī à¤Ĩà¤°à¤ıà¤¸
.- "
ĠØ ¬
à¥¤à¥¤à¥¤ ]
y e
à¤¨ à¤Ń
à¤ª à¤¬à¤²
Ġà¤® à¤¡à¤«
Ġà¤ī à¤Īà¤Ĺ
Ġà¤ĵ à¤ĸà¤®
à¤¨à¤« à¤ľ
Ġ* à¥¤
oug ht
à¤² à¤¶à¤®
Ġà¤¹ à¤¦à¤®
à¤¡ à¤µà¤²
Ġà¤Ķ à¤¡
Ġ10 58
à¤Ĩà¤Ī ng
r ss
z l
à¤ªà¤° à¤¯
Ġ10 69
à¤ıà¤ļ à¤ıà¤¸à¤ı
Ġà¤ĵà¤ª à¤°à¤®
Ġt s
Ġà¤¸à¤°à¤® à¤¤
gr am
Ġ(? -
ĠÅįsh ima
Ġà¤¨à¤µ à¤Ĺ
Â° -
ic s
j pg
à¤¯à¤² à¤Łà¤¨
th ing
Ġà¤¹à¤°à¤Ń à¤ľà¤¨
o ÄŁlu
z d
à¤¶à¤¨ à¤ľ
à¤µà¤¨ à¤¶
Ġà¤ıà¤¸ à¤ıà¤¸à¤ı
à¤¯à¤² à¤µ
à¤¹à¤² à¤¹
à¤ĵà¤µà¤° à¤°
Ġch ar
à¥ģ "),
à¤ĵ à¤¸à¤µ
à¥Ģà¤Ĥà¥¤ ,
Ġà¤ĵà¤ªà¤¨ à¤Ĺ
Ġà¤ıà¤ļà¤Ĩà¤° à¤¡à¤¬
à¤· à¤¹
Ġà¤¯ à¤®à¤²
Ġà¤¬à¤¦ à¤¹à¤µ
le t
et er
1 180
k d
à¤ĸ à¤¶
à¤ħà¤² à¤ª
13 80
Ġt ime
à¤ıà¤¯à¤° à¤®
à¤ħà¤Ł à¤ķà¤²
Ã³ dz
] à¥¤"
Ġ Ð³Ð¾
Ġà¤° à¤«à¤²
à¤« à¤µà¤°
à¤« à¤¤à¤µ
Ġà¤ĵ à¤²à¤ķ
à¤®à¤° à¤ª
en er
Ġà¤¹à¤ļ à¤°à¤¸à¤¨
Ġà¤¦à¤¹à¤¨ à¤¶
res und
XXXXXXXX XXXXXXXX
ĠNC AA
v o
à¤¸ à¤ļà¤²
à¤¸ à¤Ĩà¤Īà¤µ
Ġà¤ıà¤² à¤ıà¤¨à¤ª
Ġà¤¬à¤¡ à¤²
Ġ10 59
12 70
à¤ıà¤ļ à¤ıà¤ķ
à¤ıà¤Ł à¤Ł
Ġth en
Ġde f
à¤° à¤ļà¤ķ
Ġà¤® à¤Łà¤²
à¤ĩà¤¡ à¤°à¤µ
-- >
14 95
Ġ() "
Ġà¤ıà¤µà¤° à¤ķ
à¤ħà¤ªà¤¶ à¤¬
Ġà¤µ à¤Ŀ
!" ("
Ã¼m qi
i er
Ġb et
Ġà¤ĵà¤ī à¤ıà¤¸
à¤¿ à¤¼
à¤¹ à¤Ĺà¤¢
Ġà¤¤ à¤¨à¤µ
Ġà¤ĩ à¤°à¤¨
Ġà¤ĳ à¤²à¤¬
Ġ10 92
à¤¾à¤ĥ '
14 15
Ġà¤ıà¤µà¤° à¤¨
ĠÃİ lÃ©
c is
à¤ľ à¤«à¤°
14 10
Ġn h
ĠÃ¼ st
czy ca
q f
à¤® à¤£à¤µ
à¤µ à¤¯à¤µ
Ġà¤¥ à¤®à¤¨
à¤Ĩ à¤¹à¤²
at z
ĠÃ© t
ry ry
b t
à¤¯ à¤²à¤¬
à¤¬ à¤ķà¤¨
Ġà¤ı à¤°à¤®
à¤Ĺà¤² à¤«
à¥Ĥà¤Ĥ '
à¤²à¤® à¤¹
") )
à¤¯ à¤ªà¤¤
à¤ª à¤ĳà¤«
Ġà¤® à¤ľà¤°
Ġà¤ĵ à¤ıà¤²
Ġà¤Ĩà¤° à¤ıà¤¨à¤ľ
Ġ10 78
à¤¾à¤ĥ --
à¥ģ ]
à¤ħ à¤µà¤¨
à¤ħ à¤¸à¤¹à¤ľ
Ġà¤¡ à¤¨à¤¬à¤°
à¥Ģà¥¤ |
à¤ķà¤² à¤µà¤°
Ġà¤Ī à¤ıà¤¸à¤ıà¤²
Ġ10 33
Ġà¤ľ à¤ľà¤®
Ġà¤ıà¤ķ à¤°à¤²
Ġà¤Ĩà¤° à¤ıà¤«à¤¸
Ġ11 68
à¤¾à¥¤.. .
Ġà¤ĭà¤· à¤Ń
Ġà¤ı à¤Łà¤°à¤¬à¤°
Ġà¤Ĺ à¤²à¤¹
Ġà¤Ĩà¤¯ à¤²à¤°
10 70
Ġ80 86
Ġà¤ıà¤®à¤ıà¤¸ à¤Ĩà¤Ī
ent s
Î¹Îº Î¿
ĠY ouTub
b an
à¤ª à¤µà¤²
à¥Ģà¥¤ ")
13 60
Ġ44 00
à¤ļ à¤ĵà¤µà¤°
Ġà¤īà¤¦ à¤¯à¤¨
à¤ĩà¤² à¤ľ
à¤¹à¤¨ à¤ľ
à¤¹à¤¦ à¤¤
à¤ıà¤®à¤ıà¤¸ à¤¡
et a
Ø± ÛĮ
à¤¤ à¤Łà¤°à¤ķ
à¤ĩ à¤ıà¤ľ
à¤¾à¥¤ -"
Ġà¤ĵ à¤īà¤¤
à¤Ĺà¤° à¤µà¤¨
à¤ĩà¤« à¤¹
Ġ80 80
ÑĢÐ° Ñģ
à¤Ł à¤ı
à¤¥ à¤ħà¤ª
Ġà¤ı à¤Łà¤¨à¤¬à¤°
à¤®à¤¨ à¤Ĺ
Ġ0 600
à¤¼à¥ĩà¤Ĥ !
à¥ĩ! '
ÃŃ n
Ġà¤ĩà¤® à¤ľ
or n
à¤ľà¤¯à¤¨ à¤Ĺà¤°à¤®
) ")
à¤ļ à¤¦à¤¨
Ġà¤ı à¤ıà¤²à¤¸
à¤ĩ à¤ļà¤°
à¤ĺ à¤¬
à¤°à¤¸ à¤µà¤ķ
à¤°à¤¬ à¤²à¤¤
Ġà¤ħà¤ľ à¤®à¤²
Ġà¤Ĩà¤ĩà¤¸ à¤¬à¤°
Ġm b
à¤¯à¤Ń à¤Ł
à¤ªà¤« à¤Ĺ
ss on
. "à¥¤
à¤Ł à¤¶à¤¨
à¤¾à¥¤ ","
à¤¾, --
à¥Ģ- '
à¥Ģ- à¥¤
Ġ10 44
à¤° à¤Łà¤®
à¤² à¤°à¤¸à¤¨
à¥ĭ ]]
Ġà¤Ĺ à¤¨à¤«
Ġà¤ī à¤ıà¤¡
à¤°à¤£ à¤ķ
Ġà¤ĳ à¤¸à¤²
à¤ļà¤° à¤«
Ġ() )
à¤²à¤« à¤¸
Ġth r
ĠÎ¸ Îµ
ĠØ§ÙĦ Ø
Ġà¤¸à¤® à¤ª
15 18
ÑĩÐ¸ Ð½
Ġà¤ı à¤ĳà¤¨
à¤¡à¤° à¤¬à¤¨
Ġà¤Ĳ à¤ªà¤²
Ġà¤¹à¤° à¤ªà¤¨
à¤Łà¤« à¤ľ
à¤¸à¤¹ à¤Ń
à¥Ģ] à¥¤
à¥ĭ! "à¥¤
Ġà¤ħà¤° à¤¨à¤²
à¤ıà¤¡ à¤Ĺ
à¤¤à¤°à¤« à¤²à¤ķ
Ġà¤ĩà¤®à¤° à¤ľ
Ġ Ä±
à¤µ à¤¬à¤°
Ġà¤¨ à¤¨à¤²
Ġà¤¡ à¤¯
à¤®à¤² à¤ª
à¤¸à¤¬ à¤ľ
b es
b jÃ¶rn
u al
à¤¡ à¤ļà¤°
Ġà¤ĳ à¤¨à¤«
Ġà¤ıà¤¨ à¤ıà¤ļà¤ıà¤¸
Ġ11 17
à¤¹à¤² à¤ĸ
Ġf irst
ĠÑģÐ° ÑĢÑĥ
ow er
if ic
b is
à¤¨ à¤¨à¤®
à¤¡ à¤ıà¤¨à¤«
à¤ī à¤ļà¤²
Ġà¤īà¤ª à¤¹à¤®
à¤Ĺà¤² à¤ľ
à¤ĩà¤ķ à¤¹
à¤īà¤¸ à¤«
Ġc ol
Ġs at
og y
à¤¤ à¤¡
Ġà¤ħ à¤ĺà¤²
Ġà¤ļ à¤ĸà¤¨
Ġà¤ħà¤² à¤¶
Ġe c
g er
à¤£ à¤Ń
Ñģ ÑĤÐµ
100 7
à¥Ģ? '
Ġà¤ķ à¤ªà¤¸
à¤Ĺ à¤Ľ
à¤Ĺ à¤¶à¤¨
à¤¤à¤¨ à¤Ĺà¤°
Ġ10 34
à¤ĩà¤ªà¤° à¤¥
Ġth ose
Ġà¤Ĩà¤°à¤ıà¤¨ à¤ıà¤²à¤Ĩà¤Ī
w ich
Ġ10 62
Ġx a
g ress
à¤¹ à¤²à¤¸
Ġà¤Ķ à¤ķ
à¤ĩ à¤ļà¤ķ
à¤¨à¤ķ à¤µ
Ġ' >
Ġ00 7
à¤ĳà¤Ĺà¤¸ à¤¬à¤°
Ġà¤ķ à¤¸à¤¦
à¥Īà¤Ĥà¥¤ âĢĻ
à¤ĳ à¤¨à¤¬
Ġà¤®à¤¹ à¤ľ
Ġà¤Ĩà¤° à¤¨
Ġà¤Ĩà¤¸ à¤²à¤°
à¤ıà¤¸à¤ıà¤¸ à¤ı
Ã³ n
0000 0000
c an
x n
à¤² à¤ĺà¤®
à¥ĩà¤Ĥ 'à¥¤
Ġà¤ĩà¤¸ à¤µ
14 99
Ġ[ <
Ġk Ïī
à¥Ĥ à¥ĩà¤Ĥ
Ġ10 89
à¥Ĥà¤Ĥ ?"
à¤Ĺà¤® à¤«
à¤ĵà¤µà¤° à¤ķ
re ich
Ïĩ Î¿
Ġgovern ment
à¤ªà¤° à¤¬à¤°
à¤ĥ :
Ġà¤ħà¤Ĺ à¤¨
Ġ10 52
à¤²à¤¡ à¤¹
Ġsu pp
à¤¹à¤¹ à¤¹à¤¹
Ġà¤ī à¤°à¤¦
à¤· à¤Ł
Ġà¤īà¤¨ à¤ª
à¥Į .
à¤µà¤° à¤¦
à¤°à¤¬ à¤Ł
Ġà¤®à¤ķ à¤Ĺ
Ġà¤Ĩà¤ĩà¤¸ à¤¹
Ġn p
à¤¾] |
à¤¹ à¤«à¤ª
à¤Ĺ à¤°à¤¤
à¤Ķ à¤ľ
Ġà¤ıà¤¡ à¤®à¤¸
à¤¥ à¤®à¤¨
à¤ī à¤ıà¤¨
à¤ĳ à¤°à¤µ
Ġà¤®à¤¹ à¤²à¤°
à¤Ĭ à¤¬à¤¡
à¤®à¤² à¤ľ
à¤«à¤° à¤Ł
Ġà¤ıà¤ľ à¤«
---- -
Ġd c
à¤Ĺ à¤¡à¤²
Ġà¤ī à¤¦à¤°
Ġà¤ĳ à¤®à¤¨
Ġ' ]
Ġ10 74
à¤ıà¤² à¤®à¤°
à¤Ĩà¤° à¤ıà¤®à¤ıà¤¸
à¤ıà¤¬ à¤Ł
ĠXXX IV
à¤ī à¤¡à¤®
à¤§ à¤µà¤°
Ġy ear
Ïĥ Î¿
.] ..]
ĠÎº Î¿
Ġà¤°à¤£ à¤¬
à¤¡ à¤¸à¤¬
à¤¡ à¤¶à¤®
Ġà¤ĵ à¤¸à¤°
Ġà¤ĵ à¤¡à¤¬
à¤¾" >
à¤ıà¤¨ à¤µà¤°
à¤Ĥà¥¤ ..
Ġch f
à¤¿)à¥¤ ),
w ard
à¤¶ à¤°à¤µ
à¤§ à¤¤à¤®
à¤®à¤¨ à¤«
à¤°à¤¬ à¤¡
Ġà¤Ŀ à¤ªà¤Ł
à¤«à¤° à¤¡
14 98
à¤²à¤ķà¤° à¤¸à¤¨
in eland
Ġà¤ħ à¤¹à¤¤
Ġ20 48
at in
ist r
Ġcon t
Ġlo ok
p ro
à¤¥ à¤¬à¤¸
Ġ10 47
à¤µà¤§ à¤°
ist ance
! --
, >
o de
à¤ı à¤¤à¤¨
Ġà¤° à¤Łà¤ķ
à¤¯à¤¨ à¤¡
Ġà¤ĵ à¤¯à¤°
tttt tttt
p art
à¤ĵ à¤²à¤¸
Ġà¤īà¤ª à¤ªà¤°à¤®
à¤ľà¤° à¤¥
à¤²à¤ķ à¤µ
th or
à¤ħ à¤¤à¤°
à¤ī à¤Ĺà¤¸
Ġà¤Ĺ à¤°à¤µ
Ġ( à¥¤..
à¤Ĺà¤° à¤¦
à¤¾", "
Ġ(, ;)
à¥ĩ! âĢĿ
à¤Ł à¤Łà¤²
à¤Łà¤¨ à¤Ĺà¤°
Ġà¤¹à¤² à¤¬à¤°
à¤Ĺ à¤µà¤¨
Ġ10 27
Ġà¤¬à¤ľ à¤«
Ġà¤ĵà¤² à¤ľ
à¥Ģ/ >
à¤µà¤°à¤ª à¤«
at o
. ;"|
P al
à¤Łà¤° à¤¨à¤²
à¤ĥ ),
à¤¨à¤µ à¤Ĺà¤ł
Ġà¤ĩà¤² à¤ļ
d h
à¤ı t
à¤²à¤µ à¤ľ
Ġ10 79
10 37
13 90
Ïĥ Îµ
Îº Î¿ÏĤ
i en
à¤ľ à¤Ń
à¤¦ à¤¤à¤¨
à¤ı à¤¸à¤¨
à¤ĸ à¤ĸ
à¤¬à¤¦ à¤²à¤¨
à¤ĵà¤µà¤° à¤ļà¤°
u x
à¤¸ à¤ıà¤«à¤ıà¤²
Ġà¤ª à¤Łà¤µ
à¤Ł à¤Łà¤¸
à¤¼" -
Ġ00 4
Ġà¤Ĩà¤²à¤® à¤Ĺ
met er
Ġ ent
à¤¶à¤¨ à¤ķà¤°
Ġ10 32
à¤ıà¤¯à¤° à¤Ł
Ġe l
à¥ĩà¤Ĥ! ",
Ã¡ l
Ġà¤ıà¤®à¤ıà¤² à¤ı
12 16
à¥Ģ.) )
à¤ıà¤¸à¤ıà¤¸ à¤ıà¤«
ps wich
Ġà¤® à¤Ĺà¤¨
à¤Ł à¤¹à¤²
à¤¡ à¤¡à¤¨
à¤Łà¤° à¤ıà¤ķ
Ġà¤ĵ à¤Łà¤ķ
à¤ķà¤¤ à¤®à¤ķà¤°à¤£
à¤īà¤ª à¤«
Ïģ Î¯
f er
Ġà¤¦ à¤Ł
Ġà¤ĩà¤¸ à¤¡
Ġà¤ĳà¤² à¤ª
it s
ĠÅį ita
( (
à¤²à¤¨ à¤¬à¤°
ÑģÐµ ÑĤÐµ
Î¸ Îµ
yyyy yyyy
Ġà¤¹ à¤Ĺà¤²
à¤Ĩ à¤°à¤¤
Ġà¤ħà¤¬ à¤¦à¤²
Ġà¤Ĺà¤£ à¤ª
13 10
Ġf unds
{ \
Ġà¤Ĺ à¤²à¤µ
Ġà¤Ĩ à¤¶à¤ķ
26 00
à¥Īà¥¤.. ",
Ġg od
d em
Ġà¤ª à¤¬à¤¨
Ġà¤Ķà¤° à¤ľ
à¥Ģà¤Ĥ -"
à¤ªà¤² à¤ľ
15 07
14 93
13 33
Ġ- "
m on
Ġà¤¹ à¤¬à¤ķ
Ġà¤ľ à¤®à¤¤
Ġà¤Ī à¤ıà¤«à¤ıà¤²
Ġà¤ıà¤¨ à¤ıà¤¬
14 97
Ġà¤ħà¤ĸ à¤¤à¤°
à¤¾/ >
à¥Īà¤Ĥà¥¤ ]
Ġà¤Ĭ à¤«
Ġ10 56
à¤·à¤¯ à¤¶
Ġà¤ĵà¤² à¤«
à¥ĩà¥¤' "
Ã¨ re
d g
à¤Ĩ à¤īà¤²
à¥Ģà¥¤ [
100 00
112 7
Ù ¾
à¤¨à¤¸ à¤ļ
à¥ĩà¤Ĥà¥¤ ",
à¤ĩà¤¡ à¤ľ
ÃĤÃĤ ÃĤ
à¤ıà¤®à¤ıà¤¸ à¤Ł
ic z
' ]
Ġà¤Ĺ à¤Łà¤¨à¤¬à¤°
à¤Ĩ à¤°à¤®
Ġà¤¸à¤¹ à¤¬à¤¦
Ġd on
Ġà¤ıà¤®à¤ıà¤¸ à¤Ī
Ø§ Ùħ
Ġà¤ĵ à¤¹à¤¤
à¤Ĺà¤° à¤¬à¤°
Ġà¤Ĩà¤Ī à¤Ĩà¤°à¤Ł
)à¥¤ <
!" )à¥¤
à¤ıà¤®à¤Ī à¤ıà¤®
j ect
Ġ Ð»Ð°
à¤ı à¤µà¤°à¤®
Ġà¤ı à¤µà¤¸
à¥Ģ.) :
Ġ48 00
à¤Ĩà¤ĩ à¤Ĺà¤²
ul ar
x o
à¤¡ à¤ıà¤¯à¤°
à¤ħ à¤¹à¤µ
Ġà¤¬ à¤ķà¤¸
à¤īà¤² à¤Ŀ
à¥¤" ),
à¤¸à¤¹ à¤ª
Ġp ers
ĠØ ´
m r
s w
s z
à¥¤ </
à¤¬à¤° à¤¶
Ġà¤ıà¤¸ à¤ıà¤¨
à¤īà¤¸ à¤¡
à¤ľà¤² à¤¸
Ġà¤²à¤µ à¤Ĺ
Ïģ Î¬
ĠÑģÐµ ÑĢÐµ
Ġà¤¸ à¤°à¤¤
à¤ī à¤¸à¤ª
à¥Ģ- (
à¤Ĩà¤¨ à¤«
à¤ıà¤®à¤ıà¤¸ à¤ľ
l ed
v r
Ġà¤ıà¤¸ à¤ıà¤®
Ġà¤Ī à¤Ĩà¤°
12 71
à¤Łà¤¸ à¤¹
à¥¤.. ",
Ġà¤ıà¤®à¤ıà¤¸ à¤Ł
Ġxl iii
à¤ıà¤ĵ à¤ıà¤²
b u
Ġà¤¡ à¤®à¤¨
Ġà¤ĵ à¤ıà¤¸à¤ı
Ġ10 49
à¤²à¤® à¤Łà¤°
Ġà¤īà¤²à¤Ŀ à¤¤
a e
à¤µ à¤ªà¤¨
Ġà¤ľ à¤ķà¤°à¤¬à¤°
Ġà¤ħ à¤¯à¤¡
à¤Ī à¤ĵà¤ª
à¤µà¤° à¤¸à¤¨
Ġà¤¸à¤¬ à¤Ĺ
à¤ª à¤ĵà¤µà¤°
Ġà¤ª à¤ªà¤¸
Ġà¤ı à¤°à¤¶
à¤Ĩ à¤ķà¤²
Ġà¤ļ à¤°à¤ķ
à¤īà¤¡ à¤°à¤¹
Ġà¤īà¤° à¤¡
à¤¶à¤¬ à¤ķà¤²à¤°
à¤ħà¤« à¤¸
if e
1 130
à¤Ł à¤°à¤ķà¤Ł
à¤£ à¤µà¤°
à¤ľà¤² à¤¡à¤®à¤°
à¤¬à¤¨ à¤Ł
Ġbud Ã©j
v t
à¤² à¤Ĺà¤¸
Ġà¤ıà¤² à¤ıà¤®à¤ıà¤¸
à¤ĩà¤® à¤ıà¤ķ
Ġà¤ĩà¤Ĺ à¤¬
ĠbudÃ©j ovice
à¤ı à¤ıà¤¡
à¤¡ à¤µà¤¨
Ġà¤ī à¤²à¤¬
Ġà¤¥ à¤¬
à¤¹à¤° à¤Ł
Ġà¤ħà¤¤ à¤¹
à¥Ģ) /
12 15
à¥Ī) ",
' à¥¤"
u res
à¤¿ !"
à¤ĥ /
à¤®à¤² à¤°à¤ķ
à¤µà¤ľ à¤¸
à¤°à¤ļ à¤«
Ġà¤¸à¤¨ à¤¡à¤¬
Ġà¤ħà¤ĸ à¤®à¤¤
Ġà¤ĩà¤¸ à¤°à¤²
à¤®à¤¸ à¤¬à¤°
Ġt wo
à¤¨à¤¸à¤® à¤µ
à¤Ĥ !
à¤® à¤¸à¤ķ
Ġà¤° à¤¶à¤ķ
Ġà¤ħà¤ķ à¤ª
Ġà¤¦à¤² à¤¹à¤¨
13 77
13 05
à¤ıà¤« à¤Ĩà¤Ī
24 00
stan bul
à¤µ à¤Łà¤°
à¤¡à¤° à¤Ĩà¤°
Ġà¤ķà¤¨ à¤¯
Ġà¤ķ à¤²à¤¤
Ġà¤¹ à¤¹
à¤ķà¤¨ à¤ª
Ġà¤¬à¤² à¤Ĺà¤®
Ġ10 53
à¤¿à¥¤ .
à¤¿ ')
à¤Ĺ à¤®à¤°
à¤ı l
à¤¯à¤® à¤²
à¥Ĥ" .
:::::::: ::::::::
à¤ıà¤² à¤¹
Ġà¤ıà¤ļ à¤ıà¤¸à¤Ł
à¤¸à¤®à¤° à¤Ł
Î½ Î¹
ac re
xy z
h am
à¥ĩà¤Ĥ ]à¥¤
à¤Ī à¤ķà¤²
Ġà¤ªà¤° à¤®à¤¹
Ġà¤ļ à¤¤à¤°
à¤ĵ à¤µà¤¨
Ġà¤ĵ à¤ľà¤²
Ġà¤ķà¤² à¤¹à¤°
Ġà¤ħà¤¦ à¤¦
Ġà¤ķà¤Ł à¤Ł
Ġb bc
ĠÐ¾ ÑĢ
ĠÐ¾ ÑĤÐ¾
à¤Łà¤°à¤ķ à¤²à¤°
à¤¸à¤®à¤Ŀ à¤¨
g n
à¤¨ à¤ªà¤²
Ġà¤ª à¤Ĺà¤°
Ġà¤ı à¤ıà¤ļ
à¤¹à¤® à¤¸à¤¨
à¤¬à¤¨ à¤ľ
12 41
à¤¨à¤¬ à¤¶
Ġà¤ªà¤²à¤Ł à¤ķà¤°
Ġxl viii
Ġ Äĵ
à¤¨ à¤ĺà¤®
à¤ĳ à¤²à¤Ĺ
à¤¸à¤² à¤ķà¤°
Ġà¤ķà¤ª à¤®à¤ª
13 85
Ġno w
à¤ıà¤¨à¤Ĩà¤° à¤ıà¤ļ
à¤Ł à¤¹à¤®
Ġ( -"
à¤¤à¤ķ à¤®
à¤¹à¤¨ à¤¶
Ġ10 83
ĠÃĤ u
Ġà¤ıà¤Ł à¤²à¤¬
en e
et t
z r
à¤ĸ à¤¤à¤¨
Ġà¤ļ à¤¯à¤¨à¤¶
Ġà¤Ĩà¤Ī à¤ıà¤¸à¤Ĩà¤°à¤ĵ
à¤ĩà¤¡ à¤ħà¤°
Ġt re
el s
à¤ĩ à¤ĵà¤°
à¤¾à¥¤ </
à¥ĩà¥¤ (
Ġà¤ĵ à¤¤à¤ª
Ġà¤ħà¤« à¤¶
à¤¾! -
Î³ Î¿ÏĤ
à¤īà¤Ń à¤¯à¤²
2 200
Ġà¤ĵ à¤ĺà¤®
à¤µà¤¤ à¤¶
Ġ"( '
ĠØ Ń
ĠÙħ ØŃÙħØ¯
Î ¶
à¤ī à¤«à¤°
Ġà¤Ĭ à¤¡
à¤ľà¤° à¤ľ
à¤ıà¤® à¤ĵ
à¤¸à¤ļ à¤¸
Ġ56 00
; ),
c b
j Ã¶
Ġà¤ĵ à¤Ĩà¤Ī
Ġà¤Ī à¤ĵà¤¡
à¤ĩà¤² à¤¥
à¤°à¤¨ à¤ľ
à¤Łà¤¤ à¤®à¤¤
à¤¤à¤² à¤¹à¤Ł
Ġà¤Ĺà¤ľ à¤Ł
Ã© cole
Ġà¤¦ à¤ĸ
Ġà¤ĩ à¤¬à¤¨
à¤ĩà¤¸ à¤Ĺ
Ġà¤¤à¤¬ à¤ķ
à¤ħà¤ª à¤¡
ĠÎ³ Îµ
à¤ķ à¤¦à¤²
Ġà¤Ĺ à¤®à¤°
14 67
à¤ħà¤¨ à¤§
Ġc ar
Ġà¤ıà¤µà¤° à¤¬
Ġn um
à¥Īà¥¤à¥¤à¥¤ ]
d n
m t
Ġà¤ª à¤Ĺà¤²
Ġà¤ı à¤Łà¤®à¤µ
à¥ĩà¥¤ ]
Ġ10 37
Ġà¤ĵà¤ªà¤¨ à¤Ĺà¤²
Ġr t
117 0
à¤¸à¤ıà¤² à¤Ĩà¤°
iiii iiii
Ġà¤® à¤Łà¤¸
à¥Īà¥¤ ","
à¤¦à¤° à¤Ł
à¤¨à¤° à¤Ĺ
à¥Ģ- ,
ff de
à¤® à¤ħà¤ª
à¤ĳ à¤ļ
à¤ķà¤² à¤Ł
14 25
âĢ² ,
Ġ| ...|...|
Ġ37 00
Ġà¤ıà¤«à¤ıà¤® à¤Ĩà¤°à¤Ĩà¤Ī
Ð½ Ñģ
ĠX II
Ġà¤¡à¤Ĺà¤® à¤Ĺ
= =
ê ¯
à¤¸ à¤¶à¤¨
à¤« à¤°à¤¬
à¤Ĩ à¤ĩà¤Ł
Ġà¤§ à¤°à¤®
Ġà¤Ĩà¤Ī à¤ıà¤²à¤¸
à¤Ĩà¤ī à¤Łà¤¬
à¤¼à¥ĩ )à¥¤
à¤¨à¤® à¤¥
Ġà¤ĵà¤Ł à¤ľ
Ġà¤ĳ à¤²à¤ķ
Ġà¤ħà¤® à¤°à¤²
Ġà¤¦à¤° à¤ľ
à¥Ĥ. à¥¤
Ġ10 26
Ġà¤ıà¤¡ à¤¡
Ġo wn
y p
Ġ Ð½Ð¸
à¤ľ à¤Łà¤²
à¤¡ à¤ªà¤®
à¤ĵ à¤ıà¤¨
Ġà¤Ĩà¤¦ à¤®à¤ķà¤¦
à¤ħà¤² à¤µà¤°
14 55
Ġà¤ķà¤Ł à¤ħà¤µ
Ġv c
à¤Ĺà¤Ĺ à¤Ĺà¤Ĺ
r z
à¤Łà¤¬ à¤²à¤«
14 83
à¤¾à¥¤" <
à¤µà¤¯à¤¨ à¤ķà¤°
Ġr c
Ġà¤ıà¤® à¤ıà¤ļ
Ġà¤Ī à¤¤
à¤«à¤° à¤°
à¥Ĥà¤ģ "à¥¤
Ġp t
te x
ĠÃ¼st ÃŃ
> à¥¤
Ġà¤¸ à¤¤à¤¨
Ġà¤¬ à¤ł
Ġà¤¶ à¤«à¤¹
à¤ģ |
Ġà¤ĵ à¤¡à¤¨
à¤¦à¤¨ à¤¯
Ġth ese
Ġà¤ıà¤« à¤ıà¤¸à¤¬
à¤®à¤° à¤Ł
Ġà¤ıà¤ļ à¤ıà¤¨à¤ķ
ĠI S
Î± ÏĤ
le y
à¤Ĩà¤°à¤ıà¤² à¤¡
Å ĵ
à¥¤ );
Ġà¤Ĩ à¤Ĭ
Ġà¤ļ à¤ķà¤°
Ġà¤¡ à¤Ĺà¤¬
à¥Ģà¤Ĥ );
à¤Łà¤° à¤¯
à¤§à¤¨ à¤¶
à¥Ī? )
Ġ Ð»
Ġà¤ī à¤¶à¤°
Ġà¤ıà¤ķ à¤²à¤¤
à¥ī à¤ĥ
à¤Łà¤° à¤¥à¤µ
in c
Ġ000 1
à¥Ģ! ",
Ġ(+ /-
Ġà¤ķ à¤¸à¤¤
à¤¦ à¤ªà¤¨
à¤§ à¤Ĺà¤¯
à¤®à¤ķ à¤¨
à¥Īà¥¤" .
14 75
Ġà¤ĵà¤ª à¤¥
Ð¾ Ñĩ
Ġ(; ,)
us h
Ġ(+ )-
Ġà¤¬ à¤ķà¤«
Ġà¤ı à¤ıà¤ª
à¤ī à¤ı
à¤ī à¤®à¤¯
Ġà¤ľà¤¨ à¤®
à¤¬à¤¸ à¤¬
Ġà¤ħà¤ļ à¤®
14 35
13 28
à¤¾? -
Ġà¤¬ à¤ĺ
Ġà¤µ à¤¸à¤²
Ġà¤² à¤µà¤¨
à¤¹à¤¤ à¤²
Ġà¤ħà¤¬ à¤Ĺ
à¤®à¤¸ à¤«
14 71
à¤ıà¤¯à¤° à¤«
et s
à¤¿ --
à¥¤ --
Ġ20 33
Ġà¤¸à¤¹ à¤¦
Ġà¤ķà¤¨ à¤ļ
Ġx ml
Ġà¤¹à¤¨ à¤¬à¤²
à¥Ī! ,
ĠM ar
p c
y r
à¤ľ à¤Ĺà¤¤
Ġà¤ĩ à¤¹à¤¸
à¤¸à¤® à¤¦
à¤µà¤¨ à¤¨
à¤Ĺà¤¨ à¤ª
Ġ10 41
14 66
à¥Ĩ à¤Ĥ
Ġà¤Ĺ à¤¨à¤®
à¤Ĩ à¤Ĺà¤°
à¤Ĺà¤¨ à¤¬à¤°
à¤ıà¤¨ à¤ıà¤¸à¤¡
à¤ıà¤Ĺ à¤®
à¤īà¤¥ à¤¡
âĢ² "
à¤ĩà¤¡à¤° à¤ľ
Ġ68 00
ÑģÐµ ÑĢ
ĠÃ¡ gu
o unt
Ġà¤¸à¤® à¤¥
à¤ĵ à¤Łà¤¸
à¥ĩà¤Ĥ, -
à¤°à¤¸ à¤¬
Ġà¤Ĭ à¤Ĺ
23 00
Ġin c
itt ac
à¤Ĺ à¤ľà¤²
Ġà¤ħ à¤ĸà¤¤
Ġ( !
à¤«à¤² à¤¦
à¤¿" ;
à¤ıà¤¯à¤° à¤µ
Ġch rist
ĠÃ¼r Ã¼mqi
à¤ķà¤®à¤¤ à¤¯
" ?
Ġ Ð»Ðµ
à¤®à¤¨ à¤¸à¤¨
à¤ĩà¤Ł à¤¡
Ġà¤ĳà¤¸ à¤¬à¤°
Ġà¤ıà¤®à¤ıà¤¸ à¤ıà¤«
à¥ĭ? '
t xt
à¤² à¤ľà¤ķ
Ġà¤® à¤Ŀ
à¥ĩà¥¤ [
Ġ# ,
à¤ıà¤¨à¤ı à¤ıà¤¸
Ġà¤ıà¤²à¤® à¤¹à¤°
à¤Ĩà¤ī à¤Łà¤ķ
Ã¶n Ã¼
------------------------------------------------------------------------------------------------------------------------------------------------------------------------------------------------------------------------------------------------------------ --
à¤¨ à¤°à¤¹
à¥Ģ Â·
à¤Ĺ à¤µà¤²
à¤ı à¤ĵà¤¨
Ġà¤ħ à¤¹à¤¦
Ġà¤¨ à¤²à¤Ĺ
Ġà¤² à¤µà¤ļ
à¤ĩ à¤Łà¤°à¤¸
à¤µà¤° à¤¸à¤®
à¤¬à¤° à¤¦
à¤°à¤® à¤°à¤¹
à¤¡à¤° à¤ļ
à¤ıà¤ļ à¤ıà¤®
à¤ĵà¤µà¤° à¤¬
Ġ316 6
à¤¨ à¤¬à¤¸
à¤ĩ à¤ļà¤®
à¤¯à¤° à¤µà¤°
à¤¯à¤¤ à¤¸
à¤µà¤¤ à¤¤
à¤¼à¥ĩà¤Ĥ -
à¤ĵà¤µà¤° à¤¸
Ġà¤Ĩà¤¯à¤°à¤¨ à¤Łà¤¨
à¥į à¥¤,
Ġà¤® à¤ľà¤¨
à¥Ģà¤Ĥ --
Ġà¤ļà¤° à¤¨
à¥Īà¤Ĥ! "à¥¤
rss sf
] ]"
r m
Ġà¤ľ à¤°à¤ķ
Ġà¤ħ à¤ļà¤¨
à¤ī à¤Ĺà¤¤
Ġà¤ıà¤¨ à¤ıà¤ļà¤ıà¤²
à¤¾" ]
Ġo l
à¤ļà¤®à¤ķ à¤¨
ÑĤÐ¸ Ð½
d x
Ġà¤Ĺ à¤¦à¤°
à¤ĩ à¤°à¤¬
à¤īà¤¡à¤° à¤«
!! !!
à¤Ĩà¤Īà¤ıà¤¸ à¤Ĩà¤Īà¤ıà¤²
a il
p df
s in
Ġà¤ª à¤¸à¤°
Ġà¤µ à¤¦
Ġà¤¸à¤¬ à¤¹
à¤ĳ à¤ĩà¤¸
Ġà¤Ī à¤¸à¤ª
Ġà¤ªà¤¨ à¤¥
Ġc la
Ġm t
ÑĩÐµ Ð½
ro w
Ġà¤ª à¤¨à¤ķ
Ġ10 51
Ġ(" [
14 78
à¤ªà¤¦ à¤Ń
Ġ"( <
à¥Īà¤Ĥ! ",
Ġrh ineland
jjjjjjjjjjjjjjjj jjjjjjjjjjjjjjjj
l st
r g
à¤ķ à¤µà¤²
à¤° à¤Ĺà¤¸
à¤¬ à¤¨à¤ķ
à¤ı à¤ıà¤«à¤¸
à¤¡ à¤ıà¤²
à¤¥ à¤®à¤¨à¤¸
à¤ħ à¤¬à¤²
Ġà¤ĵ à¤ĩà¤¨
Ġà¤ħà¤ķ à¤®
à¤ķà¤¡ à¤°à¤®
à¤¾' -
à¥ĭ) :
Î¿ y
ĠS k
à¤¿ >
à¤¨ à¤¡à¤®
Ġà¤¯ à¤Łà¤°
à¤¼à¤¾ !
Ġà¤ĳ à¤°à¤¨
Ġà¤ħà¤® à¤ķ
Ġ10 48
Ġ10 43
à¤²à¤ķ à¤ķà¤°à¤£
à¤¼à¥ĭà¤Ĥ )
à¤Ĩà¤Ī à¤²
14 88
Ġà¤¹à¤¦ à¤¦
100 2
Ġs c
Ġ[, ]
? ,
à¥ĭà¤Ĥ .
Ġà¤ī à¤²à¤µ
à¤Ĩ à¤ĩà¤¬à¤°à¤µ
Ġà¤īà¤¤ à¤¸
à¤Ĳ à¤Ł
à¤Ĭ à¤ª
?? ??
Ê¼Ê¼Ê¼Ê¼Ê¼Ê¼Ê¼Ê¼Ê¼Ê¼Ê¼Ê¼Ê¼Ê¼Ê¼Ê¼Ê¼Ê¼Ê¼Ê¼Ê¼Ê¼Ê¼Ê¼Ê¼Ê¼Ê¼Ê¼Ê¼Ê¼Ê¼Ê¼ Ê¼Ê¼Ê¼Ê¼Ê¼Ê¼Ê¼Ê¼Ê¼Ê¼Ê¼Ê¼Ê¼Ê¼Ê¼Ê¼Ê¼Ê¼Ê¼Ê¼Ê¼Ê¼Ê¼Ê¼Ê¼Ê¼Ê¼Ê¼Ê¼Ê¼Ê¼Ê¼
Ġprov ided
Ġ ÑĢÐ¾
à¤ı à¤¥à¤®
à¤ļ à¤²à¤¬
à¤ī à¤ĩà¤¨
à¤ªà¤° à¤µà¤°
Ġà¤ĩà¤¨ à¤¸à¤¬
à¤²à¤ķ à¤¶
Ġ- à¤¾
Ġe v
al s
)) ))
Ġà¤ıà¤®à¤ıà¤² à¤ıà¤²
Ġthr ough
à¤¯ à¤Ī
ĠØ ±
à¤ıà¤¨à¤ıà¤¨à¤ıà¤¨à¤ıà¤¨à¤ıà¤¨à¤ıà¤¨à¤ıà¤¨à¤ıà¤¨à¤ıà¤¨à¤ıà¤¨à¤ıà¤¨à¤ıà¤¨à¤ıà¤¨à¤ıà¤¨à¤ıà¤¨à¤ıà¤¨ à¤ıà¤¨à¤ıà¤¨à¤ıà¤¨à¤ıà¤¨à¤ıà¤¨à¤ıà¤¨à¤ıà¤¨à¤ıà¤¨à¤ıà¤¨à¤ıà¤¨à¤ıà¤¨à¤ıà¤¨à¤ıà¤¨à¤ıà¤¨à¤ıà¤¨à¤ıà¤¨
] ",
à¤µ à¤ĺà¤°
Ġà¤ª à¤ķà¤°
à¤ħ à¤¸à¤¤
à¤ī à¤¡à¤¬
à¥Īà¥¤ ;
à¤ĵ à¤Łà¤²
Ġà¤ĵ à¤°à¤ķ
Ġà¤ıà¤® à¤ļ
13 89
à¤ıà¤ļ à¤¡à¤¬
Ġm on
ĠØ ª
em ber
P M
b en
j e
v c
Ġà¤ķ à¤Ŀ
Ġà¤Ķà¤° à¤®
à¥Ģ. (
à¤¾à¤ģ ]]
à¤ªà¤² à¤ıà¤ķ
45 00
Ġe st
à¥Ī!" (
Ġà¤ıà¤Ĩà¤° à¤ıà¤«
Ġà¤® à¤Łà¤ķ
Ġà¤®à¤¹ à¤µ
à¤¨à¤® à¤¯
Ð¸ Ñĩ
à¤ħà¤°à¤¬ à¤ªà¤¤
ĠÎ»Î¿ Î´Z
o z
Ġà¤® à¤¡à¤ķ
à¤ı à¤¬à¤¸
à¥ģ à¥¤"
à¤¸à¤® à¤Ł
à¤ıà¤ķ à¤°à¤®
à¤īà¤¸ à¤¹
à¤¡à¤¬ à¤ķ
Ñģ ÑĤÐ¾
à¤ħà¤¦ à¤¦
Ø§ Ø¯
Ġxl ii
à¤ ½
Ġà¤® à¤ĸà¤²
à¤ħ à¤¸à¤®à¤°
à¤®à¤¤ à¤ķà¤°
Ġà¤ħà¤ª à¤ļà¤°
Ġà¤īà¤² à¤ª
à¥Īà¥¤" -"
à¤ķà¤® à¤«
à¤ľà¤¯ à¤¶
)- >
p f
Ġà¤ĩà¤¨ à¤ķà¤°
Ġà¤ľà¤² à¤ĺà¤°
à¥Ī? -
is m
à¤ļà¤¯à¤¨ à¤ķà¤°
Ġ ÑĩÐ¾
à¤ĵ à¤ıà¤¸à¤¸
Ġà¤Ī à¤µà¤²
à¤ıà¤¨ à¤ıà¤¡
à¤¾à¥¤" ("
à¥¤.. ,
Ġr r
Ġr y
Ġà¤ĵà¤¶à¤¨ à¤¸
ivis ie
à¤« à¤¨à¤µ
à¤¾; )
à¤Ĥ. "
à¤ĳà¤¨ à¤¡
it Ã©
Ġà¤¨à¤¯à¤¨ à¤¤
! =
Ġà¤¦ à¤®à¤¯
Ġà¤ĵ à¤Ŀ
Ġà¤¶à¤¬ à¤¨à¤®
Ġbe fore
à¤³ à¤£
ĠXXXVI i
,à¥¤.. ,
Ġ ÙĨ
à¤ķ à¤¢
à¤µà¤² à¤ļ
à¤Ĭ à¤®
Ġ10 36
Ġà¤¨à¤ķ à¤¬
Ġ# '
Ġc os
-" "
at al
Ġq t
) }
à¤¸ à¤Ĩà¤Īà¤Ĩà¤Ī
Ġà¤² à¤Łà¤°
à¥ī '
à¤Ĩà¤¨ à¤ª
ÎŃ Î½
à¤ĩà¤Ĺà¤² à¤¥
r b
à¤Ĺ à¤ķà¤Ł
à¤ĩ à¤¥à¤¨à¤¶
Ġà¤¤ à¤¹à¤²
Ġà¤ļ à¤®à¤¨
à¤°à¤® à¤¦
Ġà¤ĵ à¤ıà¤¸à¤ıà¤¸
à¤²à¤® à¤ª
à¥Ī; -
14 96
13 07
Ġb n
]] à¥¤
à¤ıà¤®à¤ıà¤² à¤ıà¤²
Ġco ce
à¤Ł à¤Ĩà¤°
Ġà¤Ĺ à¤¬à¤°
à¤¤à¤° à¤¹
Ġà¤ĵ à¤ķà¤¨
à¤ıà¤¨ à¤Ĩà¤°à¤ıà¤¸
Ġp ar
à¤ľ à¤ĺ
Ġà¤ıà¤² à¤ıà¤ļà¤ıà¤¸
10 24
13 46
Ġc s
)/ (
ĠÃ¼ sk
met re
à¤ª à¤¸à¤ķ
Ġà¤ª à¤ĺ
à¤°à¤® à¤Ĺà¤¤
à¤¸à¤° à¤¡
12 25
à¤Łà¤¸ à¤«
Ġm p
ub lic
. ;)
à¤Ĺà¤° à¤ĺà¤°
Ġ10 29
à¤ĩà¤ª à¤µà¤°
à¥Ī? ,
al a
Ø¨ Ø¯
ĠXXVI i
à¤ª à¤ªà¤°
à¤Ĺ à¤ķà¤¨
à¤ĵ à¤¥à¤®
Ġà¤Ĩà¤° à¤ıà¤¨à¤¸
à¤Łà¤ķ à¤®
Ġà¤Łà¤ķ à¤Łà¤ķ
d m
x m
à¤¦ à¤¹à¤²
à¤¶ à¤²à¤ķ
Ġà¤° à¤Ĺà¤°
Ġà¤¥ à¤Ł
Ġà¤ĩ à¤¯à¤°à¤²
à¤ªà¤¨ à¤¸
à¤Łà¤¨ à¤ķà¤°
Ġà¤ıà¤® à¤ıà¤®à¤ıà¤®
12 82
à¤ħà¤¬ à¤µ
Ġb s
ĊĠ Ċ
Ġà¤°à¤¶ à¤µà¤°
Ġà¤ħ à¤Łà¤µ
Ġà¤¤ à¤Ĺ
à¤ł à¤¶
Ġà¤ħà¤² à¤ĸ
Ġà¤Ī à¤ĵà¤°
Ġà¤Ĩà¤ĩ à¤ĵà¤Ł
,, ,à¥¤
Ġs y
ÏĨ Î¿
à¤ıà¤¸ à¤Īà¤ĵ
à¤¼à¥ĭ ",
Ġs q
Ġà¤ıà¤¸à¤ıà¤¸ à¤¬
ĠÎ´ Î¿
; '
e a
x u
Ġà¤ļ à¤ķà¤¨
à¥Ģ. à¥¤"
Ġà¤ħà¤¨ à¤Łà¤°à¤¹
à¤¯à¤ķ à¤®
à¤µà¤¨ à¤¡
12 10
ĠâĢ² ,
Ġ# ;
Ð½Ð° Ñı
h g
n Ê¼
à¤ķ à¤¦à¤¨
Ġà¤¸ à¤¨à¤ļ
à¤Ĺ à¤«à¤°
Ġà¤Ĺ à¤¨à¤¹
à¤¼ )"
à¤¼ ',
à¤¬à¤° à¤®à¤¤
à¤Ĭ à¤«
Ġà¤ıà¤« à¤«
Ġà¤Ĩà¤¯à¤° à¤¨à¤¬
11 10
Ġà¤¹à¤² à¤ļ
à¥Ĥà¤ģà¥¤ à¥¤à¥¤
Ġm r
à¤¸ à¤¦à¤ķ
à¤Ĺ à¤ıà¤ķà¤°
à¤¡ à¤¥à¤µ
à¤ĥ )à¥¤
à¤®à¤¸ à¤ĸ
à¤¹à¤¨ à¤ª
à¤¡à¤¬ à¤Ĺ
à¥Ģ! âĢĿ
Ġar t
ww ww
Ġass istance
] }
p x
à¤ķ à¤ªà¤°
à¤¦ à¤¶à¤¹à¤°
Ġà¤ª à¤¬à¤²
à¤ļ à¤°à¤¹
Ġà¤« à¤¨à¤«
à¤¥à¤¨ à¤ķà¤°
à¤ıà¤² à¤ļ
à¤¾' )à¥¤
à¤¾? )
it ies
ÏĦ Î¹Îº
Ġ ÑĢÐµ
Ġà¤¬ à¤ķà¤¥
Ġà¤ħ à¤¸à¤¨
à¤Łà¤² à¤Ĺ
Ġà¤¸à¤¬ à¤«
!" .
Ġ{ ""
Ġh p
uk ur
Ġco unt
Ġmc le
l in
m y
Ġ" âĪĴ
Ġ( ',
Ġà¤Ł à¤ªà¤ķà¤¨
Ġà¤ıà¤¨ à¤¯
Ġà¤Ĩà¤¶ à¤°
à¤°à¤ª à¤Łà¤²
à¤ĩà¤« à¤¶
à¥ĭ) -
ĠÑģÐ°ÑĢÑĥ Ð½Ð°Ñģ
à¤ĵ à¤¬à¤¨
à¥Īà¤Ĥà¥¤ à¥¤à¥¤"à¥¤
Ġà¤®à¤¤ à¤ª
13 71
Ġà¤¸à¤¬ à¤¤
Ġn av
Ġg t
ov iic
112 6
Ġà¤Ĩà¤Īà¤ĵ à¤ıà¤®
Ġà¤ķ à¤«à¤°
à¤ľ à¤®à¤¨
Ġà¤Ł à¤ļà¤²
à¤²à¤¬ à¤¦
à¤ľà¤² à¤Łà¤¨
14 79
13 37
à¤µà¤Ĺ à¤¢
op le
ÑģÐµÑģÐµÑģÐµÑģÐµ ÑģÐµÑģÐµÑģÐµÑģÐµ
à¤° à¤ľà¤°
à¤ı à¤ıà¤®à¤Ł
Ġà¤ĳ à¤°à¤ķ
Ġà¤§ à¤¹à¤°
à¤Łà¤² à¤µà¤°
12 74
Ġà¤ªà¤² à¤Łà¤ķ
Ä± l
à¤ħ à¤ľà¤¨
Ġà¤ĩ à¤µà¤ľ
à¤Ľ à¤ª
en a
Ġh and
à¤ıà¤ļà¤ıà¤¸ à¤µ
Ã¼r k
Ġps ittac
b m
à¤¸ à¤ıà¤ļ
à¤Ĥ .,
Ġà¤ĩ à¤²à¤°
Ġà¤ĩ à¤ĵà¤¹
à¥Ģ. %
Ġà¤Ĳ à¤ķà¤®
Ġ10 39
à¤ĩà¤® à¤®à¤¨
à¥¤" )à¥¤
à¥Ī? ")
à¤¿) "
il y
Ã© d
à¤Ĩà¤Īà¤Ĩà¤Ī à¤¬
à¤²à¤¨ à¤ª
Ġà¤ĵ à¤Ĺà¤®
Ġà¤ĳ à¤ĩà¤²
Ġà¤ķà¤® à¤¹
Ġà¤ħà¤ª à¤łà¤¨
Ġà¤ıà¤« à¤Ī
à¤¶à¤² à¤ª
14 82
Ġà¤ļà¤ķ à¤ļà¤ķ
Ġm à¤ı
Ġl ong
Ġe ven
Ġ'( "
115 4
1 160
à¤¹ à¤¸à¤²
à¤Ł à¤¡à¤°
Ġà¤ĩ à¤¯à¤°à¤«
Ġà¤Ĭ à¤ª
13 03
à¤¡à¤¬ à¤Ł
Ġl n
Ġà¤«à¤°à¤¹ à¤¤
Ġhà¤ı d
Ġ Z
à¤¨ à¤¶à¤¨
à¤ĸ à¤¯
Ġa dd
Ġt i
Ġb t
at ter
wh at
Ġà¤Ķ à¤Ĺ
à¥Ģ" ]
14 84
14 06
13 36
Ġr x
l t
à¤ª à¤®à¤¨
à¥Ī ],
à¤¶à¤¨ à¤Ĺ
à¤¦à¤² à¤®
à¤Ĩà¤Ī à¤ıà¤¨
à¤®à¤¶ à¤¹
à¥¤.. "(
à¥ĩ? ",
! .
Ġà¤¶ à¤°à¤®
à¤£ à¤¯à¤¨
Ġà¤¸à¤« à¤¦à¤°
Ġà¤ıà¤¡ à¤ıà¤«
Ġà¤Ĩà¤® à¤¡
à¤¸à¤¬ à¤Ł
à¤²à¤Ń à¤Ń
ÏĦÎµ ÏĤ
Ã¼d ar
A N
à¤ķ à¤¦à¤°
à¤ķ à¤£à¤ķ
à¤¿ ]]
Ġà¤Ĺ à¤¨à¤ķ
à¤Ĩ à¤¥à¤²
Ġà¤Ĩ à¤ĩà¤¯
Ġà¤ĵ à¤®à¤¨
à¤¾. "
à¤¬à¤¨ à¤Ĺà¤°
à¥Ī" .
à¤ıà¤¡à¤® à¤¸à¤¨
ĠÑģÐµ ÑģÐµ
Ġau thor
à¤¨ à¤¡à¤°
à¤ĵ à¤²à¤°
à¥Ģà¤Ĥ ):
Ġà¤§ à¤²
Ġà¤ıà¤¨ à¤ıà¤¨
10 20
Ġà¤ĩà¤¬ à¤¬
à¤Ĩà¤Ĺ à¤ľà¤¨
Î² Î¹
ĠÅį t
k v
Ġà¤ĩ à¤ļà¤°
Ġà¤« à¤°à¤¸
à¤ĵ à¤¹à¤²
à¤ħà¤² à¤¶
Ġà¤ĵà¤¹ à¤¶
Ġb m
st em
oll ow
1 190
g es
v el
à¤¸ à¤¹à¤²
à¥¤ |
à¤Ķ à¤ļ
à¥Īà¤Ĥ, -
Ġever y
F L
à¤¬à¤° à¤°
à¤·à¤£ à¤¶
14 81
Ġà¤®à¤ķ à¤¦
Ð¾ Ð½
Î½ Îµ
120 6
à¤° à¤ıà¤¡
à¤ľ à¤ľà¤®
à¤Ł à¤ĸà¤¨
à¤¶ à¤Ĩà¤īà¤Ł
à¤ĩ à¤¬à¤®
Ġà¤« à¤¨à¤¹
à¤ģ ":
Ġà¤īà¤¦ à¤²
à¤¯à¤² à¤¡
Ġl ike
h tt
à¤ª à¤Ī
à¤ª à¤¸à¤°
à¤¶ à¤µà¤¨
à¤ĩ à¤ĵà¤ª
Ġà¤ĵ à¤ķà¤Ł
à¤£à¤¤ à¤¯
g h
à¤ķ à¤ĳà¤²
à¤¶ à¤ĸ
Ġà¤ĩ à¤°à¤²
à¤ıà¤ļ à¤ıà¤¨
à¤ī à¤Ńà¤°
à¤Ī à¤¸à¤¨
Ġà¤¸à¤¹ à¤¤
Ġ10 82
12 35
13 47
13 08
Ġs l
Ġw r
Ġà¤ıà¤¨à¤ıà¤¸à¤ı à¤Ĩà¤Īà¤¡
à¤µ à¤¸à¤°
Ġà¤¦ à¤ĸà¤²
Ġà¤ĵ à¤§
Ġà¤ħà¤ª à¤¸à¤¨
à¤ĩà¤® à¤«
12 72
Ġà¤ıà¤¬ à¤¡
à¤¯à¤°à¤¡ à¤¹à¤²
. âĢĶ
à¤¦ à¤µà¤°
Ġà¤µà¤° à¤¦à¤°
à¥ĩ, ,
Ġà¤Ĩà¤° à¤ıà¤¸à¤¡
.) /
Ġm n
Ã© e
l er
Ġà¤ĵ à¤¨à¤¡
à¤ĩà¤¡ à¤Ł
à¤¡à¤¨ à¤Ĩà¤Ī
à¤¾) )
14 69
Î± Ïĥ
Ġq b
à¤²à¤¹à¤° à¤¦
à¤¸à¤° à¤¯
Ġà¤ĵ à¤®à¤ķ
à¤²à¤° à¤«
Ġà¤ħà¤ª à¤ıà¤¨
h y
à¤ľ à¤¯à¤²à¤ķ
à¤Ķ à¤°à¤¤
à¤« à¤°à¤ľ
Ġà¤Ĩà¤¯ à¤¶à¤°
à¤ĩà¤ķà¤² à¤¸
à¤¼" ;
à¥ĩà¤Ĥ! '
à¤ĵà¤ªà¤¨ à¤¸
Ïĩ Î¹Î½
ib le
Ġà¤ļà¤¹ à¤ļà¤¹
v an
à¥ĭ >
à¥ĭ ')
à¤ı à¤ĵà¤²
Ġà¤° à¤¶à¤¬
Ġà¤ĵ à¤µà¤¸
Ġà¤ħà¤ª à¤ļ
Ġà¤ķà¤¨ à¤ľ
à¥ĭ" /"
Ġar r
c ent
v n
Ġà¤ļ à¤°à¤¸
Ġà¤ħà¤¨ à¤ĩ
à¤¼à¥Ģ ]
Ġà¤ıà¤®à¤ıà¤¸ à¤¬
ĠÃ¶ vp
Ġà¤ķ à¤¬à¤°
à¥Ī ')
à¤ļ à¤¸à¤²
à¤ī à¤¡à¤ķ
Ġà¤¬à¤¨ à¤¸
à¤ĳ à¤¨à¤ķ
12 58
à¤ķà¤® à¤µ
gg gg
ĠÃİlÃ© czyca
atin ate
w xr
à¤¸ à¤¸à¤°
Ġà¤ı à¤¥à¤®
à¤ī à¤ħà¤°
à¤ĳ à¤«à¤²
Ġà¤ıà¤¸ à¤ıà¤¨à¤ķ
à¤¬à¤² à¤ľ
13 48
Ġà¤ĵà¤ªà¤¨ à¤¶
Ð¾ ÑĢ
Ġà¤ıà¤¬à¤° à¤¬
Ġk t
ÏĦ Î¯
à¤Ĩà¤¯à¤° à¤¨à¤¸
ou se
red ivisie
,,,,,,,,,,,,,,,,,,,,,,,,,,,,,,,,,,,,,,,,,,,,,,,,,,,,,,,,,,,,,,,, ,,,,,,,,,,,,,,,,,,,,,,,,,,,,,,,,,,,,,,,,,,,,,,,,,,,,,,,,,,,,,,,,
a use
à¥ģ !"
à¤£ à¤¸à¤®
à¤ĵ à¤Ĩà¤Ī
à¥Ģ. à¥¤,
à¤®à¤¨ à¤ª
Ġà¤ĺà¤° à¤¬
14 54
Ġc ase
-------------------------------------------------------------------------------------------------------------------------------------------------------------------------------------------------------------------------------- ------------
\ '
à¤Ł à¤¹à¤°
à¤Ĩ à¤²à¤ķ
à¥Į ")
Ġà¤ıà¤¨ à¤ıà¤¸à¤Ĩà¤°
à¥Īà¥¤" ("
14 61
à¤¨à¤¹ à¤¬
Ġd fb
Ġà¤Ĳà¤¶ à¤¡
Ġà¤Ĩà¤ĵ à¤Ĺ
iv es
ÑģÐ¸ Ð½
bb bb
ĠÐ° Ð»Ðµ
Ġà¤« à¤¨à¤¸
à¤¼à¤¾ ?
à¤¸à¤® à¤¥
Ġà¤¹à¤°à¤« à¤¨à¤®
i ous
Ø µ
Ġà¤ĩ à¤°à¤¶
Ġà¤« à¤¶
Ġà¤¡ à¤ļà¤°
Ġà¤Ĳ à¤¹
Ġà¤īà¤® à¤ĸ
Ġà¤¤à¤¤ à¤ľ
Ġ| ...|
Ġpro gram
' );
