{
  "version": "1.0",
  "truncation": null,
  "padding": null,
  "added_tokens": [
    {
      "id": 0,
      "content": "<|endoftext|>",
      "single_word": false,
      "lstrip": false,
      "rstrip": false,
      "normalized": false,
      "special": true
    },
    {
      "id": 1,
      "content": "<|im_start|>",
      "single_word": false,
      "lstrip": false,
      "rstrip": false,
      "normalized": false,
      "special": true
    },
    {
      "id": 2,
      "content": "<|im_end|>",
      "single_word": false,
      "lstrip": false,
      "rstrip": false,
      "normalized": false,
      "special": true
    }
  ],
  "normalizer": {
    "type": "Sequence",
    "normalizers": [
      {
        "type": "NFC"
      },
      {
        "type": "Replace",
        "pattern": {
          "Regex": "\\s+"
        },
        "content": " "
      }
    ]
  },
  "pre_tokenizer": {
    "type": "Metaspace",
    "replacement": "▁",
    "prepend_scheme": "first",
    "split": true
  },
  "post_processor": {
    "type": "TemplateProcessing",
    "single": [
      {
        "Sequence": {
          "id": "A",
          "type_id": 0
        }
      }
    ],
    "pair": [
      {
        "Sequence": {
          "id": "A",
          "type_id": 0
        }
      },
      {
        "Sequence": {
          "id": "B",
          "type_id": 0
        }
      }
    ],
    "special_tokens": {
      "<|endoftext|>": {
        "id": "<|endoftext|>",
        "ids": [
          0
        ],
        "tokens": [
          "<|endoftext|>"
        ]
      },
      "<|im_end|>": {
        "id": "<|im_end|>",
        "ids": [
          2
        ],
        "tokens": [
          "<|im_end|>"
        ]
      },
      "<|im_start|>": {
        "id": "<|im_start|>",
        "ids": [
          1
        ],
        "tokens": [
          "<|im_start|>"
        ]
      }
    }
  },
  "decoder": {
    "type": "Metaspace",
    "replacement": "▁",
    "prepend_scheme": "first",
    "split": true
  },
  "model": {
    "type": "BPE",
    "dropout": null,
    "unk_token": "<|endoftext|>",
    "continuing_subword_prefix": null,
    "end_of_word_suffix": null,
    "fuse_unk": false,
    "byte_fallback": false,
    "ignore_merges": false,
    "vocab": {
      "<|endoftext|>": 0,
      "<|im_start|>": 1,
      "<|im_end|>": 2,
      " ": 3,
      "!": 4,
      "\"": 5,
      "#": 6,
      "$": 7,
      "%": 8,
      "&": 9,
      "'": 10,
      "(": 11,
      ")": 12,
      "*": 13,
      "+": 14,
      ",": 15,
      "-": 16,
      ".": 17,
      "/": 18,
      "0": 19,
      "1": 20,
      "2": 21,
      "3": 22,
      "4": 23,
      "5": 24,
      "6": 25,
      "7": 26,
      "8": 27,
      "9": 28,
      ":": 29,
      ";": 30,
      "<": 31,
      "=": 32,
      ">": 33,
      "?": 34,
      "@": 35,
      "A": 36,
      "B": 37,
      "C": 38,
      "D": 39,
      "E": 40,
      "F": 41,
      "G": 42,
      "H": 43,
      "I": 44,
      "J": 45,
      "K": 46,
      "L": 47,
      "M": 48,
      "N": 49,
      "O": 50,
      "P": 51,
      "Q": 52,
      "R": 53,
      "S": 54,
      "T": 55,
      "U": 56,
      "V": 57,
      "W": 58,
      "X": 59,
      "Y": 60,
      "Z": 61,
      "[": 62,
      "\\": 63,
      "]": 64,
      "^": 65,
      "_": 66,
      "`": 67,
      "a": 68,
      "b": 69,
      "c": 70,
      "d": 71,
      "e": 72,
      "f": 73,
      "g": 74,
      "h": 75,
      "i": 76,
      "j": 77,
      "k": 78,
      "l": 79,
      "m": 80,
      "n": 81,
      "o": 82,
      "p": 83,
      "q": 84,
      "r": 85,
      "s": 86,
      "t": 87,
      "u": 88,
      "v": 89,
      "w": 90,
      "x": 91,
      "y": 92,
      "z": 93,
      "{": 94,
      "|": 95,
      "}": 96,
      "~": 97,
      "£": 98,
      "¥": 99,
      "§": 100,
      "«": 101,
      "®": 102,
      "°": 103,
      "±": 104,
      "·": 105,
      "»": 106,
      "Â": 107,
      "Ã": 108,
      "Å": 109,
      "Ç": 110,
      "Î": 111,
      "×": 112,
      "Ø": 113,
      "á": 114,
      "â": 115,
      "ã": 116,
      "å": 117,
      "æ": 118,
      "ç": 119,
      "è": 120,
      "é": 121,
      "í": 122,
      "î": 123,
      "ñ": 124,
      "ó": 125,
      "ö": 126,
      "ù": 127,
      "ú": 128,
      "ü": 129,
      "ā": 130,
      "č": 131,
      "đ": 132,
      "ē": 133,
      "ğ": 134,
      "ĩ": 135,
      "ī": 136,
      "İ": 137,
      "ı": 138,
      "ł": 139,
      "ō": 140,
      "œ": 141,
      "š": 142,
      "ť": 143,
      "ũ": 144,
      "ž": 145,
      "ƒ": 146,
      "ț": 147,
      "ɐ": 148,
      "ɑ": 149,
      "ɾ": 150,
      "ʃ": 151,
      "ʼ": 152,
      "ˈ": 153,
      "ː": 154,
      "̃": 155,
      "̈": 156,
      "Π": 157,
      "ά": 158,
      "έ": 159,
      "ί": 160,
      "α": 161,
      "β": 162,
      "γ": 163,
      "δ": 164,
      "ε": 165,
      "ζ": 166,
      "η": 167,
      "θ": 168,
      "ι": 169,
      "κ": 170,
      "λ": 171,
      "μ": 172,
      "ν": 173,
      "ο": 174,
      "π": 175,
      "ρ": 176,
      "ς": 177,
      "σ": 178,
      "τ": 179,
      "φ": 180,
      "χ": 181,
      "ω": 182,
      "ύ": 183,
      "К": 184,
      "а": 185,
      "в": 186,
      "г": 187,
      "д": 188,
      "е": 189,
      "и": 190,
      "й": 191,
      "л": 192,
      "м": 193,
      "н": 194,
      "о": 195,
      "п": 196,
      "р": 197,
      "с": 198,
      "т": 199,
      "у": 200,
      "х": 201,
      "ч": 202,
      "ш": 203,
      "ы": 204,
      "я": 205,
      "і": 206,
      "ե": 207,
      "պ": 208,
      "ս": 209,
      "տ": 210,
      "،": 211,
      "؛": 212,
      "ء": 213,
      "آ": 214,
      "أ": 215,
      "ؤ": 216,
      "إ": 217,
      "ئ": 218,
      "ا": 219,
      "ب": 220,
      "ت": 221,
      "ث": 222,
      "ج": 223,
      "ح": 224,
      "خ": 225,
      "د": 226,
      "ذ": 227,
      "ر": 228,
      "ز": 229,
      "س": 230,
      "ش": 231,
      "ص": 232,
      "ض": 233,
      "ط": 234,
      "ظ": 235,
      "ع": 236,
      "غ": 237,
      "ف": 238,
      "ق": 239,
      "ك": 240,
      "ل": 241,
      "م": 242,
      "ن": 243,
      "و": 244,
      "ى": 245,
      "ي": 246,
      "ّ": 247,
      "ٗ": 248,
      "ٹ": 249,
      "ٽ": 250,
      "پ": 251,
      "چ": 252,
      "ڈ": 253,
      "ڊ": 254,
      "ڑ": 255,
      "ژ": 256,
      "ک": 257,
      "ڪ": 258,
      "گ": 259,
      "ں": 260,
      "ھ": 261,
      "ہ": 262,
      "ۃ": 263,
      "ی": 264,
      "ے": 265,
      "ऀ": 266,
      "ँ": 267,
      "ं": 268,
      "ः": 269,
      "ऄ": 270,
      "अ": 271,
      "आ": 272,
      "इ": 273,
      "ई": 274,
      "उ": 275,
      "ऊ": 276,
      "ऋ": 277,
      "ऌ": 278,
      "ऍ": 279,
      "ऎ": 280,
      "ए": 281,
      "ऐ": 282,
      "ऑ": 283,
      "ऒ": 284,
      "ओ": 285,
      "औ": 286,
      "क": 287,
      "ख": 288,
      "ग": 289,
      "घ": 290,
      "ङ": 291,
      "च": 292,
      "छ": 293,
      "ज": 294,
      "झ": 295,
      "ञ": 296,
      "ट": 297,
      "ठ": 298,
      "ड": 299,
      "ढ": 300,
      "ण": 301,
      "त": 302,
      "थ": 303,
      "द": 304,
      "ध": 305,
      "न": 306,
      "ऩ": 307,
      "प": 308,
      "फ": 309,
      "ब": 310,
      "भ": 311,
      "म": 312,
      "य": 313,
      "र": 314,
      "ऱ": 315,
      "ल": 316,
      "ळ": 317,
      "ऴ": 318,
      "व": 319,
      "श": 320,
      "ष": 321,
      "स": 322,
      "ह": 323,
      "ऺ": 324,
      "ऻ": 325,
      "़": 326,
      "ऽ": 327,
      "ा": 328,
      "ि": 329,
      "ी": 330,
      "ु": 331,
      "ू": 332,
      "ृ": 333,
      "ॄ": 334,
      "ॅ": 335,
      "ॆ": 336,
      "े": 337,
      "ै": 338,
      "ॉ": 339,
      "ॊ": 340,
      "ो": 341,
      "ौ": 342,
      "्": 343,
      "ॎ": 344,
      "ॏ": 345,
      "ॐ": 346,
      "॑": 347,
      "॒": 348,
      "॓": 349,
      "॔": 350,
      "ॕ": 351,
      "ॖ": 352,
      "ॗ": 353,
      "क़": 354,
      "ख़": 355,
      "ग़": 356,
      "ज़": 357,
      "ड़": 358,
      "ढ़": 359,
      "फ़": 360,
      "य़": 361,
      "ॠ": 362,
      "ॡ": 363,
      "ॢ": 364,
      "ॣ": 365,
      "।": 366,
      "॥": 367,
      "०": 368,
      "१": 369,
      "२": 370,
      "३": 371,
      "४": 372,
      "५": 373,
      "६": 374,
      "७": 375,
      "८": 376,
      "९": 377,
      "॰": 378,
      "ॱ": 379,
      "ॲ": 380,
      "ॳ": 381,
      "ॴ": 382,
      "ॵ": 383,
      "ॶ": 384,
      "ॷ": 385,
      "ॸ": 386,
      "ॹ": 387,
      "ॺ": 388,
      "ॻ": 389,
      "ॼ": 390,
      "ॽ": 391,
      "ॾ": 392,
      "ॿ": 393,
      "ৰ": 394,
      "ੰ": 395,
      "ੱ": 396,
      "ಡ": 397,
      "ർ": 398,
      "ก": 399,
      "ช": 400,
      "พ": 401,
      "ภ": 402,
      "ร": 403,
      "ศ": 404,
      "า": 405,
      "ᱨ": 406,
      "ᱩ": 407,
      "ᱯ": 408,
      "ᱱ": 409,
      "ᱳ": 410,
      "ṽ": 411,
      "Ẫ": 412,
      "ẫ": 413,
      "ẽ": 414,
      "ỉ": 415,
      "ỹ": 416,
      "ἀ": 417,
      "‌": 418,
      "‎": 419,
      "–": 420,
      "—": 421,
      "‘": 422,
      "’": 423,
      "“": 424,
      "”": 425,
      "†": 426,
      "‡": 427,
      "•": 428,
      "′": 429,
      "⁄": 430,
      "€": 431,
      "₹": 432,
      "→": 433,
      "⇒": 434,
      "−": 435,
      "≤": 436,
      "▁": 437,
      "○": 438,
      "●": 439,
      "す": 440,
      "に": 441,
      "の": 442,
      "る": 443,
      "イ": 444,
      "ス": 445,
      "ダ": 446,
      "ブ": 447,
      "ラ": 448,
      "ン": 449,
      "上": 450,
      "也": 451,
      "人": 452,
      "体": 453,
      "佢": 454,
      "元": 455,
      "公": 456,
      "剧": 457,
      "厘": 458,
      "周": 459,
      "喇": 460,
      "坂": 461,
      "大": 462,
      "字": 463,
      "就": 464,
      "己": 465,
      "序": 466,
      "庭": 467,
      "我": 468,
      "戰": 469,
      "房": 470,
      "抗": 471,
      "捕": 472,
      "新": 473,
      "春": 474,
      "是": 475,
      "楚": 476,
      "槍": 477,
      "次": 478,
      "步": 479,
      "氏": 480,
      "汉": 481,
      "浪": 482,
      "清": 483,
      "的": 484,
      "睇": 485,
      "符": 486,
      "级": 487,
      "络": 488,
      "网": 489,
      "育": 490,
      "自": 491,
      "英": 492,
      "视": 493,
      "議": 494,
      "贵": 495,
      "赤": 496,
      "超": 497,
      "逮": 498,
      "間": 499,
      "阴": 500,
      "雄": 501,
      "集": 502,
      "频": 503,
      "鬥": 504,
      "ꯁ": 505,
      "ꯃ": 506,
      "ꯋ": 507,
      "ꯍ": 508,
      "ꯑ": 509,
      "ꯒ": 510,
      "ꯔ": 511,
      "ꯘ": 512,
      "ꯛ": 513,
      "ꯝ": 514,
      "ꯤ": 515,
      "ꯥ": 516,
      "ꯦ": 517,
      "ꯨ": 518,
      "기": 519,
      "늘": 520,
      "린": 521,
      "붉": 522,
      "오": 523,
      "은": 524,
      "일": 525,
      "지": 526,
      "챌": 527,
      "�": 528,
      "▁क": 529,
      "▁स": 530,
      "▁म": 531,
      "▁प": 532,
      "▁के": 533,
      "ें": 534,
      "्र": 535,
      "▁ह": 536,
      "या": 537,
      "▁में": 538,
      "र्": 539,
      "▁ज": 540,
      "ने": 541,
      "▁ब": 542,
      "▁व": 543,
      "▁अ": 544,
      "▁ए": 545,
      "ों": 546,
      "ार": 547,
      "▁ल": 548,
      "▁है": 549,
      "▁द": 550,
      "▁औ": 551,
      "▁और": 552,
      "▁र": 553,
      "▁ग": 554,
      "िक": 555,
      "▁उ": 556,
      "िया": 557,
      "▁की": 558,
      "▁थ": 559,
      "ता": 560,
      "▁न": 561,
      "▁को": 562,
      "▁से": 563,
      "्य": 564,
      "▁का": 565,
      "स्": 566,
      "▁एक": 567,
      "▁प्र": 568,
      "ान": 569,
      "ित": 570,
      "▁श": 571,
      "ना": 572,
      "▁1": 573,
      "▁कर": 574,
      "क्": 575,
      "▁आ": 576,
      "िए": 577,
      "▁स्": 578,
      "ला": 579,
      "िय": 580,
      "▁त": 581,
      "▁पर": 582,
      "▁इ": 583,
      "▁था": 584,
      "▁किया": 585,
      "▁सा": 586,
      "▁लिए": 587,
      "▁ने": 588,
      "्व": 589,
      "ले": 590,
      "न्": 591,
      "▁च": 592,
      "▁वि": 593,
      "▁है।": 594,
      "▁सं": 595,
      "▁\"": 596,
      "▁भ": 597,
      "▁य": 598,
      "▁गया": 599,
      "▁फ": 600,
      "▁2": 601,
      "ति": 602,
      "िस": 603,
      "ड़": 604,
      "▁ड": 605,
      "ल्": 606,
      "वा": 607,
      "ूप": 608,
      "▁हैं": 609,
      "▁सम": 610,
      "▁ट": 611,
      "िन": 612,
      "▁रूप": 613,
      "▁जा": 614,
      "ली": 615,
      "▁19": 616,
      "ंग": 617,
      "से": 618,
      "त्र": 619,
      "▁ख": 620,
      "▁(": 621,
      "हा": 622,
      "▁बा": 623,
      "▁हो": 624,
      "के": 625,
      "▁20": 626,
      "▁अप": 627,
      "री": 628,
      "ाम": 629,
      "का": 630,
      "▁जो": 631,
      "न्ह": 632,
      "नी": 633,
      "▁था।": 634,
      "ंड": 635,
      "▁साथ": 636,
      "रा": 637,
      "▁कि": 638,
      "ते": 639,
      "त्": 640,
      "क्ष": 641,
      "▁वा": 642,
      "िल": 643,
      "ती": 644,
      "▁इस": 645,
      "ोग": 646,
      "▁उन्ह": 647,
      "▁रा": 648,
      "ी.": 649,
      "ारा": 650,
      "स्ट": 651,
      "ुर": 652,
      "ार्": 653,
      "▁नि": 654,
      "ेल": 655,
      "▁द्व": 656,
      "▁थे": 657,
      "्ट": 658,
      "▁है,": 659,
      "्या": 660,
      "▁करने": 661,
      "▁जिस": 662,
      "▁पह": 663,
      "ेश": 664,
      "ीं": 665,
      "ाइ": 666,
      "कार": 667,
      "मा": 668,
      "▁हु": 669,
      "▁अन": 670,
      "▁स्थ": 671,
      "▁उन": 672,
      "▁ले": 673,
      "▁यह": 674,
      "▁भी": 675,
      "ोंने": 676,
      "▁द्वारा": 677,
      "वि": 678,
      "▁हैं।": 679,
      "की": 680,
      "▁अध": 681,
      "▁में,": 682,
      "्री": 683,
      "सा": 684,
      "▁बाद": 685,
      "ियों": 686,
      "ंत": 687,
      "▁दिया": 688,
      "▁उप": 689,
      "कि": 690,
      "▁क्": 691,
      "▁उन्होंने": 692,
      "ज़": 693,
      "ेर": 694,
      "ंद": 695,
      "▁तक": 696,
      "िका": 697,
      "सी": 698,
      "▁थी": 699,
      "ाप": 700,
      "में": 701,
      "टी": 702,
      "्रा": 703,
      "स्त": 704,
      "्यू": 705,
      "द्": 706,
      "ेन": 707,
      "▁वर्": 708,
      "ाल": 709,
      "▁घ": 710,
      "ष्ट": 711,
      "ूर्": 712,
      "▁201": 713,
      "ओं": 714,
      "▁विश": 715,
      "▁या": 716,
      "्स": 717,
      "▁जाता": 718,
      "▁अपने": 719,
      "रण": 720,
      "्रे": 721,
      "रे": 722,
      "▁पा": 723,
      "र्ड": 724,
      "▁छ": 725,
      "हीं": 726,
      "▁राज": 727,
      "▁दो": 728,
      "▁था,": 729,
      "िला": 730,
      "ारी": 731,
      "▁नहीं": 732,
      "ाय": 733,
      "िंग": 734,
      "▁दे": 735,
      "िव": 736,
      "खा": 737,
      "ंब": 738,
      "दी": 739,
      "भा": 740,
      "▁वे": 741,
      "▁कार्": 742,
      "मी": 743,
      "▁वह": 744,
      "्त": 745,
      "▁जी": 746,
      "▁फि": 747,
      "▁थे।": 748,
      "▁ओ": 749,
      "िश": 750,
      "ोल": 751,
      "ैन": 752,
      "द्ध": 753,
      "▁गए": 754,
      "▁गई": 755,
      "00": 756,
      "टर": 757,
      "्च": 758,
      "योग": 759,
      "▁मु": 760,
      "▁ऑ": 761,
      "▁कु": 762,
      "ब्": 763,
      "▁प्रति": 764,
      "▁अनु": 765,
      "▁सी": 766,
      "ूल": 767,
      "▁निर्": 768,
      "ोज": 769,
      "मान": 770,
      "▁स्ट": 771,
      "गा": 772,
      "▁कै": 773,
      "ोर": 774,
      "▁शाम": 775,
      "ैंड": 776,
      "▁उत्": 777,
      "▁क्ष": 778,
      "ौर": 779,
      "क्र": 780,
      "▁किया।": 781,
      "▁अधिक": 782,
      "म्": 783,
      "▁शामिल": 784,
      "▁हा": 785,
      "▁शुर": 786,
      "▁मह": 787,
      "ंप": 788,
      "▁मै": 789,
      "ंध": 790,
      "ीन": 791,
      "ोट": 792,
      "ेट": 793,
      "▁बना": 794,
      "ाना": 795,
      "▁यू": 796,
      "▁पहले": 797,
      "▁जब": 798,
      "▁पु": 799,
      "ृत": 800,
      "▁मा": 801,
      "▁उस": 802,
      "▁रह": 803,
      "िप": 804,
      "▁200": 805,
      "लय": 806,
      "ानी": 807,
      "रो": 808,
      "हर": 809,
      "वी": 810,
      "नों": 811,
      "ॉल": 812,
      "िट": 813,
      "भी": 814,
      "▁कार्य": 815,
      "▁उनके": 816,
      "▁बी": 817,
      "▁18": 818,
      "क्त": 819,
      "ियन": 820,
      "र्म": 821,
      "ीत": 822,
      "ेत्र": 823,
      "क्स": 824,
      "▁ध": 825,
      "र्ट": 826,
      "▁क्षेत्र": 827,
      "स्थ": 828,
      "▁अंत": 829,
      "▁लेक": 830,
      "▁उन्हें": 831,
      "तर": 832,
      "ाग": 833,
      "▁हुए": 834,
      "जी": 835,
      "▁सक": 836,
      "जन": 837,
      "ढ़": 838,
      "ंक": 839,
      "▁थी।": 840,
      "▁बार": 841,
      "स्क": 842,
      "ेड": 843,
      "▁संग": 844,
      "▁नाम": 845,
      "पा": 846,
      "▁जिसमें": 847,
      "▁उपयोग": 848,
      "ियो": 849,
      "▁करता": 850,
      "ड़ी": 851,
      "▁सु": 852,
      "जा": 853,
      "▁हैं,": 854,
      "▁लेकिन": 855,
      "बंध": 856,
      "ंत्र": 857,
      "ंच": 858,
      "▁3": 859,
      "यु": 860,
      "्ल": 861,
      "ंबर": 862,
      "ंट": 863,
      "मेर": 864,
      "कों": 865,
      "दा": 866,
      "▁अपनी": 867,
      "▁व्य": 868,
      "▁पूर्": 869,
      "▁वाले": 870,
      "▁विश्व": 871,
      "▁कई": 872,
      "देश": 873,
      "▁मार्": 874,
      "▁करते": 875,
      "सन": 876,
      "र्श": 877,
      "▁कार": 878,
      "▁प्रद": 879,
      "वे": 880,
      "▁वर्ष": 881,
      "्रीय": 882,
      "िण": 883,
      "▁हुआ": 884,
      "ीय": 885,
      "ाप्त": 886,
      "्यों": 887,
      "▁जै": 888,
      "▁बे": 889,
      "▁स्क": 890,
      "▁दौर": 891,
      "▁सब": 892,
      "▁यु": 893,
      "ूस": 894,
      "ष्": 895,
      "वर": 896,
      "ियर": 897,
      "र्थ": 898,
      "ड़ा": 899,
      "▁कम": 900,
      "ंस": 901,
      "▁समय": 902,
      "ोक": 903,
      "नि": 904,
      "▁अन्य": 905,
      "धार": 906,
      "▁जि": 907,
      "र्क": 908,
      "▁सि": 909,
      "▁अमेर": 910,
      "▁गया।": 911,
      "▁ब्र": 912,
      "▁कुछ": 913,
      "▁काम": 914,
      "ध्य": 915,
      "▁राज्य": 916,
      "ोन": 917,
      "द्या": 918,
      "कर": 919,
      "ष्ट्रीय": 920,
      "ुआ": 921,
      "▁टी": 922,
      "बा": 923,
      "▁सी.": 924,
      "▁किए": 925,
      "▁एस": 926,
      "▁हि": 927,
      "ेष": 928,
      "▁सबसे": 929,
      "▁दौरान": 930,
      "ून": 931,
      "▁शुरू": 932,
      "▁199": 933,
      "▁खेल": 934,
      "▁शा": 935,
      "ाइन": 936,
      "्ञ": 937,
      "ियम": 938,
      "मु": 939,
      "▁शहर": 940,
      "र्ष": 941,
      "▁कॉ": 942,
      "चार": 943,
      "▁लि": 944,
      "ूम": 945,
      "च्च": 946,
      "▁पू": 947,
      "ल्ड": 948,
      "ड़े": 949,
      "▁किया,": 950,
      "▁क्र": 951,
      "▁पै": 952,
      "ेंट": 953,
      "▁चु": 954,
      "िक्": 955,
      "▁बह": 956,
      "▁थे,": 957,
      "ुत": 958,
      "▁फिर": 959,
      "▁ही": 960,
      "▁उनकी": 961,
      "▁जन": 962,
      "्रै": 963,
      "िज": 964,
      "▁सह": 965,
      "▁होने": 966,
      "▁बीच": 967,
      "िता": 968,
      "ल्म": 969,
      "र्न": 970,
      "यर": 971,
      "द्यालय": 972,
      "▁ई": 973,
      "▁लोग": 974,
      "क्ति": 975,
      "▁पी": 976,
      "▁स्थित": 977,
      "▁पुर": 978,
      "▁जहा": 979,
      "▁खिला": 980,
      "शा": 981,
      "िकी": 982,
      "▁4": 983,
      "क्षा": 984,
      "▁परिव": 985,
      "▁अग": 986,
      "ंख": 987,
      "क्रम": 988,
      "▁सू": 989,
      "▁कहा": 990,
      "र्स": 991,
      "▁इसके": 992,
      "ज्ञ": 993,
      "प्र": 994,
      "वन": 995,
      "िक्ष": 996,
      "ाई": 997,
      "▁लग": 998,
      "हास": 999,
      "▁रो": 1000,
      "▁ली": 1001,
      "▁एल": 1002,
      "िम": 1003,
      "▁इसे": 1004,
      "▁तो": 1005,
      "र्व": 1006,
      "स्ता": 1007,
      "माण": 1008,
      "▁प्रत": 1009,
      "टन": 1010,
      "▁की।": 1011,
      "▁हाला": 1012,
      "▁अभ": 1013,
      "बी": 1014,
      "ुद": 1015,
      "▁पूर्व": 1016,
      "वल": 1017,
      "ॉन": 1018,
      "ुक": 1019,
      "▁बाद,": 1020,
      "▁जिसे": 1021,
      "रिक": 1022,
      "णा": 1023,
      "पूर्": 1024,
      "ुल": 1025,
      "▁एम": 1026,
      "तिहास": 1027,
      "▁स्थान": 1028,
      "▁प्राप्त": 1029,
      "▁5": 1030,
      "िग": 1031,
      "क्ट": 1032,
      "▁बै": 1033,
      "क्षिण": 1034,
      "भाव": 1035,
      "▁विशेष": 1036,
      "▁मान": 1037,
      "19": 1038,
      "▁जु": 1039,
      "▁मुख": 1040,
      "),": 1041,
      "लो": 1042,
      "श्च": 1043,
      "ेस": 1044,
      "ेम": 1045,
      "▁लिया": 1046,
      "▁दी": 1047,
      "▁198": 1048,
      "न्न": 1049,
      "▁श्र": 1050,
      "▁तर": 1051,
      "▁सद": 1052,
      "▁दूस": 1053,
      "▁स्व": 1054,
      "▁फिल्म": 1055,
      "▁कारण": 1056,
      "▁दक्षिण": 1057,
      "ूह": 1058,
      "▁आई": 1059,
      "लों": 1060,
      "▁बन": 1061,
      "पर": 1062,
      "▁जारी": 1063,
      "▁सकता": 1064,
      "▁एस.": 1065,
      "▁भाग": 1066,
      "वरी": 1067,
      "को": 1068,
      "ित्र": 1069,
      "▁शुरुआ": 1070,
      "▁करना": 1071,
      "बर": 1072,
      "▁टीम": 1073,
      "▁<": 1074,
      "▁अल": 1075,
      "▁न्यू": 1076,
      "▁बढ़": 1077,
      "र्ग": 1078,
      "▁गु": 1079,
      "यन": 1080,
      "▁स्प": 1081,
      "ंश": 1082,
      "▁प्रदर्श": 1083,
      "▁क्ल": 1084,
      "लैंड": 1085,
      "▁घर": 1086,
      "▁हिस्": 1087,
      "▁ला": 1088,
      "▁व्या": 1089,
      "त्म": 1090,
      "ॉर्ड": 1091,
      "▁सदस": 1092,
      "▁केंद": 1093,
      "विद्यालय": 1094,
      "मुख": 1095,
      "्रो": 1096,
      "▁एन": 1097,
      "▁ए.": 1098,
      "र्ज": 1099,
      "▁मूल": 1100,
      "20": 1101,
      "▁हुई": 1102,
      "▁सेवा": 1103,
      "▁एफ": 1104,
      "ल्स": 1105,
      "▁डी": 1106,
      "▁संगीत": 1107,
      "▁युद्ध": 1108,
      "ेक": 1109,
      "ंज": 1110,
      "▁थी,": 1111,
      "▁साम": 1112,
      "ुन": 1113,
      "▁तीन": 1114,
      "युक्त": 1115,
      "▁197": 1116,
      "▁प्रा": 1117,
      "स्प": 1118,
      "▁साल": 1119,
      "▁सभी": 1120,
      "ुट": 1121,
      "▁स्कूल": 1122,
      "▁जाने": 1123,
      "▁मुख्य": 1124,
      "ल्ब": 1125,
      "▁इन": 1126,
      "▁ता": 1127,
      "▁स्थाप": 1128,
      "▁भूम": 1129,
      "▁अव": 1130,
      "सार": 1131,
      "र्च": 1132,
      "िर": 1133,
      "▁क्यों": 1134,
      "▁होता": 1135,
      "डी": 1136,
      "▁समूह": 1137,
      "▁ऐ": 1138,
      "ेज": 1139,
      "un": 1140,
      "पाद": 1141,
      "काश": 1142,
      "▁विक": 1143,
      "▁तरह": 1144,
      "unk": 1145,
      "unk>": 1146,
      "▁कंप": 1147,
      "्ले": 1148,
      "▁6": 1149,
      "▁राष्ट्रीय": 1150,
      "▁पास": 1151,
      "▁रहे": 1152,
      "▁दिया।": 1153,
      "▁विश्वविद्यालय": 1154,
      "▁रहा": 1155,
      "\",": 1156,
      "▁आर": 1157,
      "एस": 1158,
      "▁मि": 1159,
      "टा": 1160,
      "करण": 1161,
      "भग": 1162,
      "▁क्योंकि": 1163,
      "ष्ठ": 1164,
      "▁चा": 1165,
      "▁लोगों": 1166,
      "गे": 1167,
      "▁पार्": 1168,
      "▁सर": 1169,
      "त्व": 1170,
      "▁दि": 1171,
      "▁<unk>": 1172,
      "न्म": 1173,
      "ोस": 1174,
      "ंति": 1175,
      "▁रिक": 1176,
      "ेशन": 1177,
      "▁प्रमुख": 1178,
      "मिक": 1179,
      "▁कला": 1180,
      "दान": 1181,
      "▁शुरुआत": 1182,
      "▁पहली": 1183,
      "▁दोनों": 1184,
      "वाद": 1185,
      "मार": 1186,
      "▁अंतर": 1187,
      "श्य": 1188,
      "▁अध्य": 1189,
      "▁लगभग": 1190,
      "▁ऊ": 1191,
      "▁केवल": 1192,
      "▁संघ": 1193,
      "डा": 1194,
      "ची": 1195,
      "▁'": 1196,
      "न्स": 1197,
      "्यु": 1198,
      "▁जैसे": 1199,
      "▁गै": 1200,
      "▁196": 1201,
      "▁महिला": 1202,
      "▁जिन्ह": 1203,
      "▁चै": 1204,
      "ूर": 1205,
      "लि": 1206,
      "▁छो": 1207,
      "▁निय": 1208,
      "चना": 1209,
      "▁टे": 1210,
      "द्य": 1211,
      "ोष": 1212,
      "▁निर्माण": 1213,
      "▁बो": 1214,
      "बॉल": 1215,
      "▁मिल": 1216,
      "ताओं": 1217,
      "▁चुना": 1218,
      "▁जीवन": 1219,
      "र्त": 1220,
      "▁संबंध": 1221,
      "▁पी.": 1222,
      "▁इतिहास": 1223,
      "▁बद": 1224,
      "▁जाना": 1225,
      "▁संयुक्त": 1226,
      "▁लगा": 1227,
      "▁पद": 1228,
      "▁ऑफ": 1229,
      "▁ना": 1230,
      "▁बि": 1231,
      "▁ओर": 1232,
      "च्": 1233,
      "▁रख": 1234,
      "▁केंद्र": 1235,
      "त्मक": 1236,
      "ील": 1237,
      "च्छ": 1238,
      "ंखला": 1239,
      "ृंखला": 1240,
      "▁प्रकाश": 1241,
      "▁डे": 1242,
      "▁बहुत": 1243,
      "गर": 1244,
      "धि": 1245,
      "▁दश": 1246,
      "▁श्रृंखला": 1247,
      "▁कार्यक्रम": 1248,
      "▁परि": 1249,
      "▁रिकॉर्ड": 1250,
      "धिक": 1251,
      "ंटी": 1252,
      "▁हम": 1253,
      "▁आम": 1254,
      "ब्ल": 1255,
      "फी": 1256,
      "▁माध्य": 1257,
      "स्टर": 1258,
      "▁अमेरिकी": 1259,
      "▁7": 1260,
      "▁अपना": 1261,
      "▁आव": 1262,
      "फल": 1263,
      "दार": 1264,
      "▁सैन": 1265,
      "▁एफ.": 1266,
      "▁परिवार": 1267,
      "▁वाली": 1268,
      "▁मो": 1269,
      "▁समुद": 1270,
      "▁आय": 1271,
      "इट": 1272,
      "ोजना": 1273,
      "-प": 1274,
      "▁दिखा": 1275,
      "शन": 1276,
      "गी": 1277,
      "▁मौ": 1278,
      "▁किस": 1279,
      "▁194": 1280,
      "जे": 1281,
      "▁बी.": 1282,
      "▁गीत": 1283,
      "▁खिलाफ": 1284,
      "▁ट्र": 1285,
      "प्": 1286,
      "-1": 1287,
      "▁रे": 1288,
      "ज्ञान": 1289,
      "▁नी": 1290,
      "▁एम.": 1291,
      "▁सदस्य": 1292,
      "▁जून": 1293,
      "ंकि": 1294,
      "▁व्यक्ति": 1295,
      "चे": 1296,
      "▁मृत": 1297,
      "▁होती": 1298,
      "▁गया,": 1299,
      "▁जिन": 1300,
      "▁जहाँ": 1301,
      "▁एल्ब": 1302,
      "▁रखा": 1303,
      "ोम": 1304,
      "▁उसे": 1305,
      "▁दशक": 1306,
      "रोप": 1307,
      "▁करती": 1308,
      "▁की,": 1309,
      "वीं": 1310,
      "▁ग्र": 1311,
      "स्कार": 1312,
      "▁शिक्ष": 1313,
      "▁रि": 1314,
      "▁प्रदर्शन": 1315,
      "वार": 1316,
      "ॉक": 1317,
      "▁उनका": 1318,
      "▁को,": 1319,
      "ियाई": 1320,
      "▁नए": 1321,
      "▁एल्बम": 1322,
      "स्ट्र": 1323,
      "▁गए।": 1324,
      "ॉट": 1325,
      "▁पार": 1326,
      "क्षण": 1327,
      "▁17": 1328,
      "▁चार": 1329,
      "पूर्ण": 1330,
      "▁8": 1331,
      "▁स्वा": 1332,
      "न,": 1333,
      "▁अमेरिका": 1334,
      "▁कोई": 1335,
      "ोड": 1336,
      "▁वै": 1337,
      "ल्प": 1338,
      "▁बारे": 1339,
      "▁डी.": 1340,
      "▁सम्": 1341,
      "ोर्ट": 1342,
      "▁पत्र": 1343,
      "▁195": 1344,
      "▁गा": 1345,
      "▁थीं": 1346,
      "▁शी": 1347,
      "▁माध्यम": 1348,
      "ंतिम": 1349,
      "▁चर्च": 1350,
      "मित": 1351,
      "▁प्रभाव": 1352,
      "▁क्लब": 1353,
      "ीड": 1354,
      "▁प्रश": 1355,
      "▁काउ": 1356,
      "लाई": 1357,
      "यास": 1358,
      "▁उत्पाद": 1359,
      "▁सेना": 1360,
      "▁शो": 1361,
      "▁पश्च": 1362,
      "▁(ज": 1363,
      "▁होते": 1364,
      "▁दिन": 1365,
      "▁मृत्यु": 1366,
      "ँकि": 1367,
      "▁202": 1368,
      "▁देख": 1369,
      "▁जबकि": 1370,
      "▁गो": 1371,
      "▁नौ": 1372,
      "▁कंपनी": 1373,
      "▁जाती": 1374,
      "▁दा": 1375,
      "एँ": 1376,
      "चा": 1377,
      "▁प्रदान": 1378,
      "▁पहु": 1379,
      "▁अंतिम": 1380,
      "▁9": 1381,
      "▁बंद": 1382,
      "000": 1383,
      "▁संस्क": 1384,
      "▁सरकार": 1385,
      "▁भा": 1386,
      "▁मे": 1387,
      "▁बनाया": 1388,
      "फो": 1389,
      "चाल": 1390,
      "▁हालाँकि": 1391,
      "▁एंड": 1392,
      "ही": 1393,
      "▁सित": 1394,
      "ंभ": 1395,
      "▁नव": 1396,
      "वें": 1397,
      "▁लंब": 1398,
      "▁झ": 1399,
      "▁उत्तर": 1400,
      "▁खे": 1401,
      "▁लीग": 1402,
      "▁समा": 1403,
      "▁पुरस्कार": 1404,
      "▁कह": 1405,
      "▁10": 1406,
      "वास": 1407,
      "ियाँ": 1408,
      "▁एन.": 1409,
      "धा": 1410,
      "▁छोट": 1411,
      "▁किसी": 1412,
      "मे": 1413,
      "▁आधार": 1414,
      "▁सो": 1415,
      "▁पुन": 1416,
      "▁चाह": 1417,
      "▁आर.": 1418,
      "▁अब": 1419,
      "▁अलग": 1420,
      ")।": 1421,
      "▁पहला": 1422,
      "▁शीर्ष": 1423,
      "▁आई.": 1424,
      "▁एड": 1425,
      "तिक": 1426,
      "▁फ्रा": 1427,
      "उन": 1428,
      "ेंस": 1429,
      "▁ज़": 1430,
      "पी": 1431,
      "कृत": 1432,
      "▁15": 1433,
      "▁समर्थ": 1434,
      "िन्न": 1435,
      "▁छोड़": 1436,
      "▁व्याप": 1437,
      "श्यक": 1438,
      "▁एल.": 1439,
      "ख्या": 1440,
      "▁ब्रिट": 1441,
      "म्प": 1442,
      "शिप": 1443,
      "▁था.": 1444,
      "▁जीत": 1445,
      "▁उच्च": 1446,
      "▁देश": 1447,
      "▁16": 1448,
      "ुष": 1449,
      "▁पुस्त": 1450,
      "▁मार्च": 1451,
      "मन": 1452,
      "-अ": 1453,
      "▁उसके": 1454,
      "▁संर": 1455,
      "▁फुट": 1456,
      "▁दौ": 1457,
      "मैन": 1458,
      "▁पेश": 1459,
      "▁लेख": 1460,
      "▁\"स": 1461,
      "रों": 1462,
      "▁महत्व": 1463,
      "▁विभा": 1464,
      "ब्ल्यू": 1465,
      "▁आवश्यक": 1466,
      "▁जॉन": 1467,
      "तों": 1468,
      "▁जे": 1469,
      "वेश": 1470,
      "▁प्रार": 1471,
      "▁वास्त": 1472,
      "▁लॉ": 1473,
      "▁फै": 1474,
      "▁चैंप": 1475,
      "▁लोक": 1476,
      "▁बदल": 1477,
      "▁ती": 1478,
      "▁कान": 1479,
      "▁जन्म": 1480,
      "डे": 1481,
      "▁टी.": 1482,
      "▁छा": 1483,
      "्रह": 1484,
      "▁व्यव": 1485,
      "▁उत्त": 1486,
      "ज़न": 1487,
      "▁इसका": 1488,
      "▁193": 1489,
      "त्रा": 1490,
      "▁बु": 1491,
      "िकास": 1492,
      "▁\"ए": 1493,
      "▁मॉ": 1494,
      "हत": 1495,
      "▁बच्च": 1496,
      "▁प्रकार": 1497,
      "▁परिण": 1498,
      "▁मार्ग": 1499,
      "धान": 1500,
      "▁काउंटी": 1501,
      "▁हालांकि": 1502,
      "▁सितंबर": 1503,
      "गत": 1504,
      "ीप": 1505,
      "▁घोष": 1506,
      "ैक": 1507,
      "▁मार": 1508,
      "▁मध्य": 1509,
      "ष्ट्र": 1510,
      "ूद": 1511,
      "▁परिणाम": 1512,
      "क्टू": 1513,
      "सत": 1514,
      "▁जनवरी": 1515,
      "▁चैंपियन": 1516,
      "▁से,": 1517,
      "क्टूबर": 1518,
      "▁बड़े": 1519,
      "त्ति": 1520,
      "धित": 1521,
      "▁मई": 1522,
      "▁प्रत्य": 1523,
      "▁जुलाई": 1524,
      "▁दृ": 1525,
      "-स": 1526,
      "गो": 1527,
      "▁अक्टूबर": 1528,
      "वादी": 1529,
      "▁समाप्त": 1530,
      "बो": 1531,
      "रोध": 1532,
      "ब्र": 1533,
      "मेंट": 1534,
      "▁जर्म": 1535,
      ",000": 1536,
      "▁प्रो": 1537,
      "ड़क": 1538,
      "▁खा": 1539,
      "▁दूसरे": 1540,
      "विक": 1541,
      "हाय": 1542,
      "बल": 1543,
      "▁ऑस्ट्र": 1544,
      "▁प्रतिश": 1545,
      "लेज": 1546,
      "्रैल": 1547,
      "▁सत्र": 1548,
      "▁अगस्त": 1549,
      "▁शै": 1550,
      "▁लिए,": 1551,
      "ोजित": 1552,
      "िस्ट": 1553,
      "▁अप्रैल": 1554,
      "इस": 1555,
      "▁एकल": 1556,
      "▁12": 1557,
      "ंग्रे": 1558,
      "तंत्र": 1559,
      "▁फुटबॉल": 1560,
      "▁जिसका": 1561,
      "▁जिन्होंने": 1562,
      "▁स्टेशन": 1563,
      "▁देने": 1564,
      "▁सहाय": 1565,
      "▁प्रतिनि": 1566,
      "▁प्रतिशत": 1567,
      "बर्ग": 1568,
      "▁(1": 1569,
      "▁राष्ट्र": 1570,
      "िसंबर": 1571,
      "▁विकास": 1572,
      "▁नवंबर": 1573,
      "▁माम": 1574,
      "▁रॉ": 1575,
      "ानीय": 1576,
      "ेद": 1577,
      "▁विभ": 1578,
      "▁चौ": 1579,
      "▁दिसंबर": 1580,
      "ॉर्क": 1581,
      "प्ता": 1582,
      "▁गई।": 1583,
      "▁फर": 1584,
      "▁सीज़न": 1585,
      "▁वाप": 1586,
      "▁सूची": 1587,
      "▁(19": 1588,
      "ब्दी": 1589,
      "▁चित्र": 1590,
      "नो": 1591,
      "▁अस": 1592,
      "ल्ट": 1593,
      "▁वर्षों": 1594,
      "▁चार्": 1595,
      "▁स्थानीय": 1596,
      "था": 1597,
      "▁जिससे": 1598,
      "▁चुनाव": 1599,
      "▁शता": 1600,
      "▁अनुसार": 1601,
      "ठन": 1602,
      "▁विभिन्न": 1603,
      "वान": 1604,
      "लीन": 1605,
      "▁अला": 1606,
      "▁\"द": 1607,
      "▁देता": 1608,
      "कारी": 1609,
      "▁तब": 1610,
      "▁संचाल": 1611,
      "▁पि": 1612,
      "▁हालाँकि,": 1613,
      "फ्ट": 1614,
      "▁लै": 1615,
      "िको": 1616,
      "▁पत्": 1617,
      "गा।": 1618,
      "▁डिज": 1619,
      "▁स्थापित": 1620,
      "ँच": 1621,
      "रित": 1622,
      "▁पो": 1623,
      "्राष्ट्रीय": 1624,
      "▁वाला": 1625,
      "िकांश": 1626,
      "▁छात्र": 1627,
      "▁शताब्दी": 1628,
      "-क": 1629,
      "▁जॉ": 1630,
      "▁पर्": 1631,
      "▁रू": 1632,
      "लेख": 1633,
      "▁प्रारंभ": 1634,
      "▁ब्रा": 1635,
      "▁अधिकार": 1636,
      "▁कॉलेज": 1637,
      "▁(ए": 1638,
      "बे": 1639,
      "▁लु": 1640,
      "▁अधिकांश": 1641,
      "▁सकते": 1642,
      "▁सेंट": 1643,
      "▁अंतर्राष्ट्रीय": 1644,
      "▁ब्ल": 1645,
      "▁संस्करण": 1646,
      "▁संद": 1647,
      "▁महत्वपूर्ण": 1648,
      "वाई": 1649,
      "सि": 1650,
      "ेंड": 1651,
      "▁बाहर": 1652,
      "▁प्रत्येक": 1653,
      "ुनिया": 1654,
      "▁कैर": 1655,
      "▁वित": 1656,
      "काल": 1657,
      "▁सर्व": 1658,
      "▁भार": 1659,
      "▁तै": 1660,
      "इन": 1661,
      "▁स्थापना": 1662,
      "▁तहत": 1663,
      "▁छोटे": 1664,
      "▁जान": 1665,
      "▁जाते": 1666,
      "▁चला": 1667,
      "▁दिया,": 1668,
      "▁डब्ल्यू": 1669,
      "ाइट": 1670,
      "▁वर्ण": 1671,
      "▁प्रारंभिक": 1672,
      "ट्ट": 1673,
      "▁पुरुष": 1674,
      "▁योग": 1675,
      "▁हुए,": 1676,
      "▁गति": 1677,
      "▁बैंड": 1678,
      "▁शिक्षा": 1679,
      "▁रंग": 1680,
      "स्थित": 1681,
      "▁मिश": 1682,
      "▁वर्त": 1683,
      "हन": 1684,
      "मति": 1685,
      "▁आस": 1686,
      "णी": 1687,
      "ायर": 1688,
      "▁यूरोप": 1689,
      "कर्": 1690,
      "▁हिस्सा": 1691,
      "▁तीस": 1692,
      "तीय": 1693,
      "▁कभी": 1694,
      "षा": 1695,
      "▁कप": 1696,
      "▁क्व": 1697,
      "नेट": 1698,
      "▁भूमिका": 1699,
      "▁दिखाई": 1700,
      "▁\"अ": 1701,
      "ृति": 1702,
      "एं": 1703,
      "▁फरवरी": 1704,
      "▁लौ": 1705,
      "▁विज्ञान": 1706,
      "▁पहुंच": 1707,
      "▁एच": 1708,
      "▁सुर": 1709,
      "▁नदी": 1710,
      "दि": 1711,
      "▁समर्थन": 1712,
      "ग्": 1713,
      "▁स्थिति": 1714,
      "र्भ": 1715,
      "▁अध्ययन": 1716,
      "ूत": 1717,
      "ब्द": 1718,
      "▁बनाने": 1719,
      "▁आगे": 1720,
      "▁प्रकाशित": 1721,
      "▁डि": 1722,
      "▁11": 1723,
      "हार": 1724,
      "या।": 1725,
      "▁सार्व": 1726,
      "▁अच्छ": 1727,
      "▁संस्थ": 1728,
      "..": 1729,
      "▁ऑस्ट्रेल": 1730,
      "▁दु": 1731,
      "फ़": 1732,
      "▁खो": 1733,
      "सित": 1734,
      "▁वर्तमान": 1735,
      "▁निर्देश": 1736,
      "▁रही": 1737,
      "द्योग": 1738,
      "▁बेट": 1739,
      "▁बढ़ा": 1740,
      "▁जाए": 1741,
      "▁\"प": 1742,
      "णाली": 1743,
      "▁हॉ": 1744,
      "▁उल्": 1745,
      "उंड": 1746,
      "र-": 1747,
      "▁रेल": 1748,
      "▁चल": 1749,
      "▁14": 1750,
      "▁घोषणा": 1751,
      "▁समान": 1752,
      "▁रेड": 1753,
      "टक": 1754,
      "▁\"क": 1755,
      "▁\"म": 1756,
      "▁फ़": 1757,
      "▁191": 1758,
      "▁सामान": 1759,
      "▁तुल": 1760,
      "▁निक": 1761,
      "▁पार्टी": 1762,
      "▁पूरी": 1763,
      "▁प्रयास": 1764,
      "▁तक,": 1765,
      "यों": 1766,
      "▁मज": 1767,
      "▁न्या": 1768,
      "▁13": 1769,
      "जूद": 1770,
      "▁प्रणाली": 1771,
      "▁उत्तरी": 1772,
      "▁बता": 1773,
      "रि": 1774,
      "वाह": 1775,
      "▁विल": 1776,
      "▁नियु": 1777,
      "▁भूमि": 1778,
      "▁द्वीप": 1779,
      "▁स्तर": 1780,
      "ल्फ": 1781,
      "▁ठ": 1782,
      "त्त": 1783,
      "▁इसकी": 1784,
      "▁संप": 1785,
      "बद्ध": 1786,
      "टना": 1787,
      "▁योजना": 1788,
      "▁192": 1789,
      "▁विस्त": 1790,
      "▁राजनी": 1791,
      "▁सम्मान": 1792,
      "▁खु": 1793,
      "▁उत्पादन": 1794,
      "▁साथ,": 1795,
      "▁हिस्से": 1796,
      "▁सीमा": 1797,
      "▁करियर": 1798,
      "▁सै": 1799,
      "ियोग": 1800,
      "▁पे": 1801,
      "▁मैच": 1802,
      "िमी": 1803,
      "▁माना": 1804,
      "डो": 1805,
      "ॉम": 1806,
      "▁लाइ": 1807,
      "तः": 1808,
      "▁स्वी": 1809,
      "▁पुल": 1810,
      "धिकार": 1811,
      "जनिक": 1812,
      "▁हे": 1813,
      "▁सफल": 1814,
      "▁प्रवेश": 1815,
      "▁जिसने": 1816,
      "▁यू.": 1817,
      "▁ब्रिटिश": 1818,
      "यॉर्क": 1819,
      "▁संख्या": 1820,
      "-ब": 1821,
      "िक्स": 1822,
      "▁अफ": 1823,
      "नात": 1824,
      "▁इं": 1825,
      "▁प्रबंध": 1826,
      "▁लिख": 1827,
      "▁प्रसार": 1828,
      "▁बनाए": 1829,
      "▁उद्": 1830,
      "जर": 1831,
      "क,": 1832,
      "▁स्वतंत्र": 1833,
      "▁\"\"": 1834,
      "कल": 1835,
      "स्त्र": 1836,
      "▁अलावा": 1837,
      "▁तुलना": 1838,
      "▁आप": 1839,
      "श्": 1840,
      "▁महा": 1841,
      "▁सार्वजनिक": 1842,
      "ूट": 1843,
      "▁पता": 1844,
      "▁सड़क": 1845,
      "▁चैंपियनशिप": 1846,
      "ोजन": 1847,
      "▁जी.": 1848,
      "▁मद": 1849,
      "▁करके": 1850,
      "क्सर": 1851,
      "▁पीछ": 1852,
      "▁जीव": 1853,
      "▁वापस": 1854,
      "-ए": 1855,
      "▁2010": 1856,
      "उस": 1857,
      "▁पूरा": 1858,
      "▁आध": 1859,
      "▁कुल": 1860,
      "-2": 1861,
      "इड": 1862,
      "▁सामान्य": 1863,
      "▁ड्र": 1864,
      "▁लड़ा": 1865,
      "▁मंत्र": 1866,
      "▁दर्श": 1867,
      "▁आयोजित": 1868,
      "▁इमार": 1869,
      "▁इसमें": 1870,
      "▁दौरान,": 1871,
      "▁डा": 1872,
      "▁न्यूयॉर्क": 1873,
      "फा": 1874,
      "द्व": 1875,
      "ँव": 1876,
      "▁जिनमें": 1877,
      "▁मी": 1878,
      "लेट": 1879,
      "ृत्व": 1880,
      "लिए": 1881,
      "▁कना": 1882,
      "मि": 1883,
      "साय": 1884,
      "▁(\"": 1885,
      "▁टेली": 1886,
      "▁अक्सर": 1887,
      "▁\"ब": 1888,
      "▁लौट": 1889,
      "▁ग्रे": 1890,
      "▁हस्ता": 1891,
      "▁आवश्यकता": 1892,
      "▁तौर": 1893,
      "▁बर्": 1894,
      "▁सर्": 1895,
      "▁जिसके": 1896,
      "▁गाँव": 1897,
      "▁भीतर": 1898,
      "राज": 1899,
      "तृत्व": 1900,
      "▁अध्यक्ष": 1901,
      "सिल": 1902,
      "▁ई.": 1903,
      "ताल": 1904,
      "क्षित": 1905,
      "▁बात": 1906,
      "▁यात्रा": 1907,
      "▁अर्थ": 1908,
      "-सा": 1909,
      "▁प्रतियोग": 1910,
      "राब": 1911,
      "▁चिक": 1912,
      "हाँ": 1913,
      "▁पर,": 1914,
      "▁चि": 1915,
      "▁ची": 1916,
      "्ला": 1917,
      "▁जल": 1918,
      "▁थीं।": 1919,
      "▁नियुक्त": 1920,
      "▁गण": 1921,
      "गल": 1922,
      "भव": 1923,
      "▁तट": 1924,
      "ानांत": 1925,
      "पास": 1926,
      "▁प्रशा": 1927,
      "▁इसलिए": 1928,
      "▁माइ": 1929,
      "▁खुद": 1930,
      "▁संदर्भ": 1931,
      "लिन": 1932,
      "मत": 1933,
      "▁नेतृत्व": 1934,
      "वरण": 1935,
      "▁अनुमति": 1936,
      "▁चाहिए": 1937,
      "हरण": 1938,
      "▁2011": 1939,
      "▁मजब": 1940,
      "▁लिखा": 1941,
      "▁डॉ": 1942,
      "हित": 1943,
      "▁सौ": 1944,
      "डल": 1945,
      "▁कलाकार": 1946,
      "झा": 1947,
      "▁पक्ष": 1948,
      "▁नियम": 1949,
      "▁बज": 1950,
      "▁क्षेत्रों": 1951,
      "▁प्रशिक्ष": 1952,
      "▁दुनिया": 1953,
      "जिक": 1954,
      "▁खिलाड़ी": 1955,
      "ॉलर": 1956,
      "▁खोज": 1957,
      "ात": 1958,
      "▁आयु": 1959,
      "▁विकसित": 1960,
      "▁नई": 1961,
      "म्मी": 1962,
      "▁शादी": 1963,
      "▁इतिहास।": 1964,
      "▁डिजाइन": 1965,
      "▁2012": 1966,
      "श्व": 1967,
      "कर्ष": 1968,
      "ड़ों": 1969,
      "मेल": 1970,
      "▁कानून": 1971,
      "▁2016": 1972,
      "ोप": 1973,
      "▁वर्ग": 1974,
      "▁इंग": 1975,
      "▁2014": 1976,
      "▁नियंत्र": 1977,
      "▁जॉर्ज": 1978,
      "द्धा": 1979,
      "मार्": 1980,
      "हरी": 1981,
      "षद": 1982,
      "त्या": 1983,
      "-साथ": 1984,
      "▁संबंधित": 1985,
      "धारित": 1986,
      "▁गए,": 1987,
      "▁अभि": 1988,
      "▁प्ले": 1989,
      "▁बड़ी": 1990,
      "▁लाइन": 1991,
      "र,": 1992,
      "र्प": 1993,
      "▁एप": 1994,
      "जों": 1995,
      "▁जीता": 1996,
      "ोव": 1997,
      "▁2013": 1998,
      "▁रिप": 1999,
      "▁ढ": 2000,
      "▁भाषा": 2001,
      "यालय": 2002,
      "▁बॉ": 2003,
      "▁दिए": 2004,
      "कालीन": 2005,
      "▁रै": 2006,
      "▁युवा": 2007,
      "▁2015": 2008,
      "दे": 2009,
      "▁शब्द": 2010,
      "▁प्रजा": 2011,
      "ित्": 2012,
      "▁जाप": 2013,
      "िड": 2014,
      "बादी": 2015,
      "▁गोल": 2016,
      "पति": 2017,
      "▁साथ-साथ": 2018,
      "क्षर": 2019,
      "▁विस्तार": 2020,
      "▁हैः": 2021,
      "▁हार": 2022,
      "▁मदद": 2023,
      "▁पश्चिमी": 2024,
      "▁25": 2025,
      "▁ग्री": 2026,
      "▁2018": 2027,
      "▁पिता": 2028,
      "▁भू": 2029,
      "▁नीचे": 2030,
      "▁समुदाय": 2031,
      "▁जिन्हें": 2032,
      "▁अंग्रे": 2033,
      "▁जिले": 2034,
      "बर्ट": 2035,
      "▁अनुसार,": 2036,
      "▁लाग": 2037,
      "▁पुस्तक": 2038,
      "▁खंड": 2039,
      "▁गाय": 2040,
      "▁औसत": 2041,
      "▁मिला": 2042,
      "▁आबादी": 2043,
      "▁विचार": 2044,
      "▁शि": 2045,
      "ास": 2046,
      "ॉप": 2047,
      "तिहासिक": 2048,
      "▁2019": 2049,
      "प्त": 2050,
      "िना": 2051,
      "▁सहयोग": 2052,
      "▁प्रस्त": 2053,
      "-19": 2054,
      "▁हुआ।": 2055,
      "\")": 2056,
      "▁विरोध": 2057,
      "▁नॉ": 2058,
      "▁पीछे": 2059,
      "▁चे": 2060,
      "▁व्यक्तिगत": 2061,
      "▁2017": 2062,
      "▁2020": 2063,
      "▁उदा": 2064,
      "▁अति": 2065,
      "▁स्नात": 2066,
      "▁सहित": 2067,
      "मर": 2068,
      "▁लिया।": 2069,
      "▁वृ": 2070,
      "▁2008": 2071,
      "ियोजना": 2072,
      "▁स्टी": 2073,
      "जार": 2074,
      "▁2009": 2075,
      "▁आलो": 2076,
      "▁डब्ल्यू.": 2077,
      "▁परिवर्त": 2078,
      "▁बिना": 2079,
      "▁अभी": 2080,
      "▁महिलाओं": 2081,
      "रल": 2082,
      "▁परियोजना": 2083,
      "▁विलियम": 2084,
      "ंकन": 2085,
      "▁स्थानांत": 2086,
      "ेवर": 2087,
      "▁फ्रांस": 2088,
      "▁190": 2089,
      "िंगटन": 2090,
      "▁30": 2091,
      "केट": 2092,
      "▁पश्चिम": 2093,
      "व्य": 2094,
      "▁अफ्री": 2095,
      "ितीय": 2096,
      "II": 2097,
      "डियो": 2098,
      "ट्र": 2099,
      "धित्व": 2100,
      "ानों": 2101,
      "▁श्रे": 2102,
      "▁लड़": 2103,
      "चित": 2104,
      "टे": 2105,
      "▁प्रतिनिधित्व": 2106,
      "▁परी": 2107,
      "▁अगले": 2108,
      "▁देखा": 2109,
      "ग्र": 2110,
      "िकों": 2111,
      "▁प्रतियोगिता": 2112,
      "नीय": 2113,
      "राने": 2114,
      "ाइल": 2115,
      "▁अंक": 2116,
      "▁एच.": 2117,
      "▁करें": 2118,
      "धी": 2119,
      "▁डॉलर": 2120,
      "ाइड": 2121,
      "उट": 2122,
      "▁ऐतिहासिक": 2123,
      "▁एक्स": 2124,
      "विजन": 2125,
      "पाल": 2126,
      "म्मीद": 2127,
      "ंसी": 2128,
      "▁उल्लेख": 2129,
      "प्ताह": 2130,
      "परी": 2131,
      "ुड": 2132,
      "्यता": 2133,
      "ियान": 2134,
      "▁छह": 2135,
      "▁ट्रै": 2136,
      "▁में।": 2137,
      "▁जर्मन": 2138,
      "▁उम्मीद": 2139,
      "▁लेने": 2140,
      "▁राजनीतिक": 2141,
      "▁पृ": 2142,
      "▁परिषद": 2143,
      "▁दूर": 2144,
      "▁फ्ल": 2145,
      "▁उदाहरण": 2146,
      "▁नाग": 2147,
      "▁सकती": 2148,
      "▁माल": 2149,
      "▁वी.": 2150,
      "▁हार्": 2151,
      "▁कोश": 2152,
      "▁पेशेवर": 2153,
      "▁2007": 2154,
      "गन": 2155,
      "टो": 2156,
      "▁व्यापक": 2157,
      "टिन": 2158,
      "ंथ": 2159,
      "▁तैया": 2160,
      "▁विभाग": 2161,
      "ॉस": 2162,
      "▁अंग्रेजी": 2163,
      "वरूप": 2164,
      "मो": 2165,
      "▁विद्यालय": 2166,
      "▁प्रस्तुत": 2167,
      "▁विष": 2168,
      "फोर्ड": 2169,
      "ाइनल": 2170,
      "▁पूरे": 2171,
      "ूरी": 2172,
      "▁मत": 2173,
      "▁हैंः": 2174,
      "▁अलावा,": 2175,
      "्यान": 2176,
      "▁समी": 2177,
      "▁आसपास": 2178,
      "रब": 2179,
      "▁यून": 2180,
      "कु": 2181,
      "▁इमारत": 2182,
      "ंदन": 2183,
      "यू": 2184,
      "▁लड़ाई": 2185,
      "▁हासिल": 2186,
      "▁आकार": 2187,
      "▁देते": 2188,
      "▁पांच": 2189,
      "्रेड": 2190,
      "पन": 2191,
      "▁(2": 2192,
      "▁ऐसा": 2193,
      "▁मन": 2194,
      "▁सैन्य": 2195,
      "▁राजा": 2196,
      "▁189": 2197,
      "▁दल": 2198,
      "-ज": 2199,
      "▁पूर्वी": 2200,
      "स्टन": 2201,
      "स्ताव": 2202,
      "स्ती": 2203,
      "ियल": 2204,
      "िष्ट": 2205,
      "▁आग": 2206,
      "विड": 2207,
      "▁स्नातक": 2208,
      "▁गि": 2209,
      "▁व्यक्त": 2210,
      "▁अंततः": 2211,
      "▁खरी": 2212,
      "▁बने": 2213,
      "एल": 2214,
      "▁ध्यान": 2215,
      "▁सुधार": 2216,
      "▁उसी": 2217,
      "▁शैली": 2218,
      "▁रु": 2219,
      "▁पिछ": 2220,
      "-आ": 2221,
      "र्य": 2222,
      "ठा": 2223,
      "▁टेलीविजन": 2224,
      "▁संभाव": 2225,
      "▁फॉ": 2226,
      "प्रिय": 2227,
      "श्रे": 2228,
      "▁मैक": 2229,
      "▁कोर": 2230,
      "▁बड़ा": 2231,
      "कट": 2232,
      "▁है।\"": 2233,
      "क्रिय": 2234,
      "चान": 2235,
      "दमी": 2236,
      "▁साइ": 2237,
      "क्षम": 2238,
      "लग": 2239,
      "▁पढ़": 2240,
      "क्रिया": 2241,
      "ड्": 2242,
      "▁अवधि": 2243,
      "▁इका": 2244,
      "▁2021": 2245,
      "▁अर्": 2246,
      "स्वरूप": 2247,
      "▁हस्ताक्षर": 2248,
      "▁पहा": 2249,
      "▁2006": 2250,
      "▁स्पष्ट": 2251,
      "▁परिणामस्वरूप": 2252,
      "▁बच्चों": 2253,
      "द्धि": 2254,
      "▁स्थानांतरित": 2255,
      "▁उसकी": 2256,
      "▁पानी": 2257,
      "▁समाज": 2258,
      "म्र": 2259,
      "सम": 2260,
      "▁लंदन": 2261,
      "्लैंड": 2262,
      "एस।": 2263,
      "हरा": 2264,
      "▁खेला": 2265,
      "▁प्रस्ताव": 2266,
      "या,": 2267,
      "▁\"ह": 2268,
      "तार": 2269,
      "ियर।": 2270,
      "▁21": 2271,
      "▁पाठ": 2272,
      "▁वीड": 2273,
      "▁दौड़": 2274,
      "▁यूरोपीय": 2275,
      "▁मिस": 2276,
      "▁कैथ": 2277,
      "▁सूत्र": 2278,
      "▁ताकि": 2279,
      "▁हवाई": 2280,
      "▁समझ": 2281,
      "▁24": 2282,
      "▁चर": 2283,
      "▁भर": 2284,
      "▁\"आ": 2285,
      "वर्ड": 2286,
      "स्की": 2287,
      "ाइम": 2288,
      "▁नेट": 2289,
      "▁उपल": 2290,
      "▁उद्देश": 2291,
      "कर्ता": 2292,
      "▁घटना": 2293,
      "तम": 2294,
      "▁संग्रह": 2295,
      "▁नागरिक": 2296,
      "लर": 2297,
      "वासी": 2298,
      "▁रहने": 2299,
      "▁सदस्यों": 2300,
      "म्ब": 2301,
      "▁पर्या": 2302,
      "▁संचालन": 2303,
      "▁शाही": 2304,
      "ग्री": 2305,
      "▁राष्ट्रपति": 2306,
      "▁लंबे": 2307,
      "ारे": 2308,
      "▁वीडियो": 2309,
      "▁फ्र": 2310,
      "स्था": 2311,
      "▁कोच": 2312,
      "▁के.": 2313,
      "▁उसने": 2314,
      "ित्सा": 2315,
      "▁लोकप्रिय": 2316,
      "▁आए": 2317,
      "▁है;": 2318,
      "▁कमी": 2319,
      "ंसीसी": 2320,
      "▁अनुस": 2321,
      "▁सुरक्षा": 2322,
      "▁नगर": 2323,
      "▁दूसरा": 2324,
      "▁गिर": 2325,
      "तौर": 2326,
      "▁फी": 2327,
      "▁आमतौर": 2328,
      "▁(जन्म": 2329,
      "▁धर्म": 2330,
      "▁शोध": 2331,
      "▁उपलब्": 2332,
      "▁बजाय": 2333,
      "▁संरचना": 2334,
      "▁मिली": 2335,
      "▁शक्ति": 2336,
      "▁अद": 2337,
      "▁पूर्ण": 2338,
      "▁कोल": 2339,
      "▁पड़": 2340,
      "▁भाई": 2341,
      "ड़ियों": 2342,
      "श्रेष्ठ": 2343,
      "▁पत्रिका": 2344,
      "▁अभियान": 2345,
      "पे": 2346,
      "▁रेडियो": 2347,
      "▁इंग्लैंड": 2348,
      "▁दूसरी": 2349,
      "िवी": 2350,
      "द्धांत": 2351,
      "▁रक्षा": 2352,
      "पूर्व": 2353,
      "ियस": 2354,
      "▁सहायक": 2355,
      "▁हर": 2356,
      "स्तान": 2357,
      "▁फ्रांसीसी": 2358,
      "▁पाल": 2359,
      "नाम": 2360,
      "▁क्षम": 2361,
      "▁रहते": 2362,
      "ंडल": 2363,
      "▁रेलवे": 2364,
      "िकन": 2365,
      "▁_": 2366,
      "▁ऊपर": 2367,
      "▁प्रक्रिया": 2368,
      "▁188": 2369,
      "धिकारिक": 2370,
      "र्ती": 2371,
      "▁तरी": 2372,
      "▁उम्र": 2373,
      "तियों": 2374,
      "▁महान": 2375,
      "▁सात": 2376,
      "▁सके": 2377,
      "▁हॉल": 2378,
      "▁टै": 2379,
      "▁एज": 2380,
      "▁उपकरण": 2381,
      "जित": 2382,
      "▁मैन": 2383,
      "▁दर": 2384,
      "स्थिति": 2385,
      "ी,": 2386,
      "ुनिक": 2387,
      "स्को": 2388,
      "माजिक": 2389,
      "▁सामाजिक": 2390,
      "▁बचा": 2391,
      "▁सफ": 2392,
      "धन": 2393,
      "▁रखने": 2394,
      "▁विमान": 2395,
      "▁निका": 2396,
      "▁सम्मेल": 2397,
      "▁पेर": 2398,
      "मात्र": 2399,
      "्रिया": 2400,
      "▁सप्ताह": 2401,
      "षण": 2402,
      "▁चिकित्सा": 2403,
      "▁नामित": 2404,
      "▁(स": 2405,
      "▁कार्यालय": 2406,
      "▁ग्रा": 2407,
      "▁पार्क": 2408,
      "▁री": 2409,
      "▁इंज": 2410,
      "▁संके": 2411,
      "▁गैर-": 2412,
      "▁आधिकारिक": 2413,
      "▁शु": 2414,
      "▁गेम": 2415,
      "थम": 2416,
      "▁चले": 2417,
      "▁कर्म": 2418,
      "▁डिवी": 2419,
      "ायी": 2420,
      "▁स्थल": 2421,
      "▁मेज": 2422,
      "▁ये": 2423,
      "▁2022": 2424,
      "▁चरण": 2425,
      "▁व्यापार": 2426,
      "▁समाचार": 2427,
      "स्थ्य": 2428,
      "▁मॉडल": 2429,
      "▁पुनर्": 2430,
      "▁ध्व": 2431,
      "▁बस": 2432,
      "ेटा": 2433,
      "लाह": 2434,
      "▁आयर": 2435,
      "--": 2436,
      "▁पक": 2437,
      "▁यदि": 2438,
      "▁परिस": 2439,
      "े,": 2440,
      "▁2000": 2441,
      "ुओं": 2442,
      "तान": 2443,
      "सास": 2444,
      "▁सर्वश्रेष्ठ": 2445,
      "▁जहां": 2446,
      "सान": 2447,
      "▁सहायता": 2448,
      "▁वी": 2449,
      "▁रोक": 2450,
      "थमिक": 2451,
      "▁ऑस्ट्रेलिया": 2452,
      "▁स्कॉट": 2453,
      "▁फैस": 2454,
      "▁प्रेर": 2455,
      "विध": 2456,
      "▁मिन": 2457,
      "▁किए।": 2458,
      "▁स्वास्थ्य": 2459,
      "▁पुलिस": 2460,
      "स्वी": 2461,
      "▁जीवन।": 2462,
      "विधा": 2463,
      "▁विदेश": 2464,
      "▁प्री": 2465,
      "▁निष्": 2466,
      "ं।": 2467,
      "▁शीर्षक": 2468,
      "▁\"ज": 2469,
      "▁22": 2470,
      "▁पुरुषों": 2471,
      "▁सक्षम": 2472,
      "धे": 2473,
      "▁निर्मा": 2474,
      "न्यास": 2475,
      "▁100": 2476,
      "ार्थ": 2477,
      "▁बल्": 2478,
      "▁फा": 2479,
      "▁बोर्ड": 2480,
      "▁संगठन": 2481,
      "▁इंड": 2482,
      "▁खेलों": 2483,
      "ेप": 2484,
      "201": 2485,
      "वर्क": 2486,
      "▁ओल": 2487,
      "शी": 2488,
      "▁प्रसि": 2489,
      "न।": 2490,
      "▁प्रतिक": 2491,
      "▁स्पेन": 2492,
      "म्न": 2493,
      "टल": 2494,
      "▁बनाई": 2495,
      "▁=": 2496,
      "शील": 2497,
      "▁प्राथमिक": 2498,
      "▁डिवीजन": 2499,
      "▁2005": 2500,
      "स्थाप": 2501,
      "▁186": 2502,
      "ोह": 2503,
      "▁डेन": 2504,
      "रेट": 2505,
      "▁तैयार": 2506,
      "ेम्स": 2507,
      "▁तकनी": 2508,
      "▁अस्प": 2509,
      "क्टर": 2510,
      "▁आदेश": 2511,
      "ष्टि": 2512,
      "▁मही": 2513,
      "एन": 2514,
      "▁परीक्षण": 2515,
      "ार्ड": 2516,
      "▁मीटर": 2517,
      "सर": 2518,
      "▁पाया": 2519,
      "▁हाई": 2520,
      "ूक": 2521,
      "▁कहानी": 2522,
      "▁द्वितीय": 2523,
      "▁समित": 2524,
      "-प्र": 2525,
      "▁सुविधा": 2526,
      "▁कैरियर।": 2527,
      "▁लेखक": 2528,
      "▁टा": 2529,
      "▁प्रशासन": 2530,
      "▁सामना": 2531,
      "▁23": 2532,
      "▁संग्र": 2533,
      "भाग": 2534,
      "▁सिद्धांत": 2535,
      "▁0": 2536,
      "▁जल्": 2537,
      "▁वन": 2538,
      "▁स्टू": 2539,
      "▁सामग्री": 2540,
      "▁मैं": 2541,
      "▁निम्न": 2542,
      "▁दक्षिणी": 2543,
      "▁विशिष्ट": 2544,
      "ंसा": 2545,
      "▁गई,": 2546,
      "ड्र": 2547,
      "▁हाथ": 2548,
      "▁व्": 2549,
      "▁समीक्षा": 2550,
      "▁बच्चे": 2551,
      "ुग": 2552,
      "▁पॉल": 2553,
      "▁बाव": 2554,
      "▁महीने": 2555,
      "तन": 2556,
      "▁पत्नी": 2557,
      "चर": 2558,
      "हालय": 2559,
      "▁हरा": 2560,
      "▁केंद्रित": 2561,
      "▁एकमात्र": 2562,
      "▁ट्रैक": 2563,
      "▁क्यू": 2564,
      "▁क्षमता": 2565,
      "▁अदाल": 2566,
      "ंदी": 2567,
      "खित": 2568,
      "▁डाय": 2569,
      "सेना": 2570,
      "▁उपलब्ध": 2571,
      "▁संग्रहालय": 2572,
      "▁बावजूद": 2573,
      "यल": 2574,
      "ंघ": 2575,
      "▁घा": 2576,
      "▁पहचान": 2577,
      "-पश्च": 2578,
      "▁मीड": 2579,
      "▁निर्धारित": 2580,
      "▁सामने": 2581,
      "▁तुर": 2582,
      "▁स्टूडियो": 2583,
      "लेन": 2584,
      "▁बैठ": 2585,
      "▁चाल": 2586,
      "राज्य": 2587,
      "▁स्वीकार": 2588,
      "▁दावा": 2589,
      "▁187": 2590,
      "▁संस्थान": 2591,
      "र्निया": 2592,
      "▁कब्": 2593,
      "ोलिक": 2594,
      "▁सक्रिय": 2595,
      "र्ण": 2596,
      "शल": 2597,
      "▁पड़ा": 2598,
      "▁समुद्र": 2599,
      "ंडर": 2600,
      "ड़ने": 2601,
      "▁अका": 2602,
      "शो": 2603,
      "फेस": 2604,
      "▁रिपोर्ट": 2605,
      "थर": 2606,
      "▁(अ": 2607,
      "▁आकर्ष": 2608,
      "▁मैरी": 2609,
      "▁प्रभावित": 2610,
      "ंदर": 2611,
      "▁कनाडा": 2612,
      "▁कैलि": 2613,
      "▁हटा": 2614,
      "▁आधारित": 2615,
      "क्षक": 2616,
      "▁तीसरे": 2617,
      "▁फाइनल": 2618,
      "िप्": 2619,
      "एम": 2620,
      "▁डिग": 2621,
      "ल्क": 2622,
      "▁कार्यों": 2623,
      "▁लाल": 2624,
      "शिया": 2625,
      "ज़ी": 2626,
      "ियत": 2627,
      "▁ओ.": 2628,
      "िसोड": 2629,
      "फील्ड": 2630,
      "▁छात्रों": 2631,
      "▁प्रसिद्ध": 2632,
      "▁सम्मेलन": 2633,
      "▁जेम्स": 2634,
      "▁आठ": 2635,
      "सिक": 2636,
      "▁उद्देश्य": 2637,
      "▁आर्थ": 2638,
      "▁पिछले": 2639,
      "▁निदेश": 2640,
      "नाइट": 2641,
      "▁व्यवसाय": 2642,
      "▁मानव": 2643,
      "।\"": 2644,
      "▁जग": 2645,
      "▁आधुनिक": 2646,
      "्रीट": 2647,
      "▁नियंत्रण": 2648,
      "जेता": 2649,
      "▁वहाँ": 2650,
      "▁हाउस": 2651,
      "▁कृ": 2652,
      "▁सेट": 2653,
      "▁सफेद": 2654,
      "▁2004": 2655,
      "ेंज": 2656,
      "▁अधिकारी": 2657,
      "▁पैर": 2658,
      "▁पाँच": 2659,
      "▁निर्ण": 2660,
      "▁काफी": 2661,
      "▁नेटवर्क": 2662,
      "▁क्ला": 2663,
      "ोंट": 2664,
      "फोर्निया": 2665,
      "-म": 2666,
      "▁कमा": 2667,
      "▁मजबूत": 2668,
      "▁निवास": 2669,
      "▁मीडिया": 2670,
      "▁नया": 2671,
      "▁रिली": 2672,
      "▁26": 2673,
      "▁बच": 2674,
      "▁कठ": 2675,
      "चित्र": 2676,
      "▁उपस्थिति": 2677,
      "▁भारत": 2678,
      "▁पहले,": 2679,
      "▁वॉ": 2680,
      "निर्": 2681,
      "▁पृष्ठ": 2682,
      "▁जांच": 2683,
      "चि": 2684,
      "50": 2685,
      "▁अभिने": 2686,
      "यं": 2687,
      "▁छोटी": 2688,
      "कड़ी": 2689,
      "▁प्रशिक्षण": 2690,
      "▁एपिसोड": 2691,
      "ेरे": 2692,
      "▁आलोचना": 2693,
      "▁गठन": 2694,
      "िवृ": 2695,
      "▁पोल": 2696,
      "स्पर्": 2697,
      "्वा": 2698,
      "▁जैसा": 2699,
      "▁डिग्री": 2700,
      "▁कैलिफोर्निया": 2701,
      "▁नौसेना": 2702,
      "्न": 2703,
      "▁संकेत": 2704,
      "▁बेस": 2705,
      "▁निजी": 2706,
      "▁भारतीय": 2707,
      "▁28": 2708,
      "▁क्या": 2709,
      "र्द": 2710,
      "▁जहाज": 2711,
      "ों,": 2712,
      "गण": 2713,
      "िनो": 2714,
      "विष": 2715,
      "▁पं": 2716,
      "वानिवृ": 2717,
      "▁27": 2718,
      "▁उत्प": 2719,
      "▁वर्णित": 2720,
      "▁1990": 2721,
      "▁लाभ": 2722,
      "▁एंज": 2723,
      "▁धन": 2724,
      "▁प्रबंधन": 2725,
      "▁फिल": 2726,
      "▁सफलता": 2727,
      "लै": 2728,
      "ामी": 2729,
      "रिक्त": 2730,
      "▁मेल": 2731,
      "▁भे": 2732,
      "▁हमला": 2733,
      "▁प्रतिस्पर्": 2734,
      "ेंडर": 2735,
      "िकोण": 2736,
      "नेस": 2737,
      "▁रात": 2738,
      "▁सेवानिवृ": 2739,
      "▁क्रा": 2740,
      "▁हत्या": 2741,
      "▁संपत्ति": 2742,
      "▁थी.": 2743,
      "हम": 2744,
      "▁\"ड": 2745,
      "▁समुद्री": 2746,
      "▁समिति": 2747,
      "▁पुराने": 2748,
      "▁नियमित": 2749,
      "▁ते": 2750,
      "▁निभा": 2751,
      "▁किंग": 2752,
      "▁आरोप": 2753,
      "▁गर्म": 2754,
      "▁हुआ,": 2755,
      "▁योगदान": 2756,
      "▁अतिरिक्त": 2757,
      "▁तुरंत": 2758,
      "▁प्रथम": 2759,
      "▁एथ": 2760,
      "▁चीनी": 2761,
      "ोंग": 2762,
      "▁पैदा": 2763,
      "▁ईसा": 2764,
      "ेलू": 2765,
      "▁अनुमान": 2766,
      "▁प्रती": 2767,
      "▁दस": 2768,
      "-अलग": 2769,
      "क्रमण": 2770,
      "भूम": 2771,
      "ैनल": 2772,
      "िनियम": 2773,
      "दारी": 2774,
      "लिखित": 2775,
      "कृति": 2776,
      ".5": 2777,
      "▁अच्छी": 2778,
      "ट्स": 2779,
      "▁मामले": 2780,
      "ंटे": 2781,
      "्यिक": 2782,
      "▁विफल": 2783,
      "आई": 2784,
      "▁पदक": 2785,
      "ामा": 2786,
      "वां": 2787,
      "▁अलग-अलग": 2788,
      "र्जा": 2789,
      "ूनी": 2790,
      "आर": 2791,
      "▁आया": 2792,
      "ंपरिक": 2793,
      "▁नुक": 2794,
      "ियां": 2795,
      "▁केंद्रीय": 2796,
      "त्री": 2797,
      "▁स्वयं": 2798,
      "्रांस": 2799,
      "फ्त": 2800,
      "▁नै": 2801,
      "▁प्रतिक्रिया": 2802,
      "▁बेटे": 2803,
      "▁()": 2804,
      "▁उद्या": 2805,
      "▁बताया": 2806,
      "▁करे": 2807,
      "परीत": 2808,
      "वेल": 2809,
      "▁ऑस्ट्रेलियाई": 2810,
      "▁वास्तव": 2811,
      "▁मंच": 2812,
      "▁हुई।": 2813,
      "दों": 2814,
      "▁मैदान": 2815,
      "▁माँ": 2816,
      "▁वेस्ट": 2817,
      "▁घरेलू": 2818,
      "▁जगह": 2819,
      "संख": 2820,
      "भूमि": 2821,
      "▁टो": 2822,
      "▁मंत्री": 2823,
      "▁संस": 2824,
      "▁विपरीत": 2825,
      "▁मौजूद": 2826,
      "▁अदालत": 2827,
      "▁नुकसान": 2828,
      "ोलन": 2829,
      "▁अनुबंध": 2830,
      "ूर्ना": 2831,
      "गा,": 2832,
      "▁फैसला": 2833,
      "विन": 2834,
      "▁तु": 2835,
      "ूर्नामेंट": 2836,
      "पालिका": 2837,
      "्टी": 2838,
      "▁शे": 2839,
      "▁उड़": 2840,
      "▁पस": 2841,
      "▁संचालित": 2842,
      "ंडा": 2843,
      "फर": 2844,
      "स्या": 2845,
      "▁फे": 2846,
      "▁अधिकारियों": 2847,
      "▁उद्योग": 2848,
      "▁\"ग": 2849,
      "▁बेटी": 2850,
      "लाइन": 2851,
      "त्ता": 2852,
      "▁इसने": 2853,
      "राव": 2854,
      "▁टूर्नामेंट": 2855,
      "▁अर्ज": 2856,
      "▁हेन": 2857,
      "▁जिम्": 2858,
      "▁मांग": 2859,
      "▁लागू": 2860,
      "▁मामलों": 2861,
      "▁बेह": 2862,
      "▁स्रो": 2863,
      "▁कॉल": 2864,
      "▁1980": 2865,
      "▁हाल": 2866,
      "▁इंटर": 2867,
      "▁वास्तविक": 2868,
      "▁दृश्य": 2869,
      "▁सां": 2870,
      "▁सीट": 2871,
      "▁सुपर": 2872,
      "-कभी": 2873,
      "▁II": 2874,
      "▁डेविड": 2875,
      "▁चौथ": 2876,
      "निक": 2877,
      "▁दुर्": 2878,
      "▁वायु": 2879,
      "▁नामक": 2880,
      "▁निदेशक": 2881,
      "▁पारंपरिक": 2882,
      "विष्य": 2883,
      "स\"": 2884,
      "▁बाजार": 2885,
      "▁कवि": 2886,
      "और": 2887,
      "▁रेखा": 2888,
      "▁दर्ज": 2889,
      "रासत": 2890,
      "▁रोग": 2891,
      "▁नंबर": 2892,
      "वै": 2893,
      "▁$": 2894,
      "▁2003": 2895,
      "▁गल": 2896,
      "▁अधिनियम": 2897,
      "-0": 2898,
      "सों": 2899,
      "▁संपाद": 2900,
      "▁बिक": 2901,
      "▁बिंद": 2902,
      "फे": 2903,
      "▁\"एक": 2904,
      "▁क्रम": 2905,
      "र्नर": 2906,
      "▁(प": 2907,
      "▁खेले": 2908,
      "स्ला": 2909,
      "▁बहु": 2910,
      "▁दी।": 2911,
      "ीनियर": 2912,
      "▁आंद": 2913,
      "▁बैंक": 2914,
      "▁बेल": 2915,
      "▁वृद्धि": 2916,
      "▁अनुभव": 2917,
      "लेक्ट": 2918,
      "मित्व": 2919,
      "▁सम्मानित": 2920,
      "▁उपन्यास": 2921,
      "▁नोट": 2922,
      "▁शासन": 2923,
      "▁सुन": 2924,
      "भाल": 2925,
      "गी।": 2926,
      "▁विषय": 2927,
      "वेन": 2928,
      "▁खिता": 2929,
      "▁रिच": 2930,
      "ल,": 2931,
      "▁निर्माता": 2932,
      "▁जर्मनी": 2933,
      "▁आज": 2934,
      "▁प्रांत": 2935,
      "▁रन": 2936,
      "▁जीन": 2937,
      "▁खिताब": 2938,
      "स्य": 2939,
      "्यार": 2940,
      "▁ज्ञ": 2941,
      "▁जिला": 2942,
      "ट्": 2943,
      "▁थॉम": 2944,
      "▁किन": 2945,
      "िप्प": 2946,
      "बि": 2947,
      "▁29": 2948,
      "▁लिया,": 2949,
      "▁युग": 2950,
      "▁इंजीनियर": 2951,
      "▁\"न": 2952,
      "▁50": 2953,
      "▁नाटक": 2954,
      "▁प्ल": 2955,
      "गे।": 2956,
      "▁बोल": 2957,
      "हरे": 2958,
      "▁होना": 2959,
      "▁लो": 2960,
      "्वी": 2961,
      "▁मू": 2962,
      "▁भविष्य": 2963,
      "▁चार्ट": 2964,
      "▁पोर्ट": 2965,
      "▁मिलियन": 2966,
      "▁संघीय": 2967,
      "▁हुए।": 2968,
      "▁प्रोफेस": 2969,
      "▁लकड़ी": 2970,
      "▁2002": 2971,
      "▁सूचीबद्ध": 2972,
      "▁देशों": 2973,
      "▁जापान": 2974,
      "▁दिखाया": 2975,
      "शास्त्र": 2976,
      "▁आने": 2977,
      "▁स्वामित्व": 2978,
      "▁डो": 2979,
      "▁लगाया": 2980,
      "▁रचना": 2981,
      "▁विजेता": 2982,
      "▁झील": 2983,
      "▁किया.": 2984,
      "▁अभिन": 2985,
      "▁विभाजित": 2986,
      "ज़ा": 2987,
      "क्शन": 2988,
      "▁बिल": 2989,
      "▁देती": 2990,
      "गाह": 2991,
      "सव": 2992,
      "▁ओलंप": 2993,
      "ौन": 2994,
      "▁प्रेरित": 2995,
      "▁1970": 2996,
      "▁नगरपालिका": 2997,
      "▁नो": 2998,
      "▁श्रेणी": 2999,
      "▁मंज": 3000,
      "मारी": 3001,
      "▁रॉक": 3002,
      "▁उससे": 3003,
      "▁कभी-कभी": 3004,
      "िएटर": 3005,
      "▁2001": 3006,
      "▁चरित्र": 3007,
      "▁संय": 3008,
      "-द": 3009,
      "शु": 3010,
      "▁मिनट": 3011,
      "यान": 3012,
      "▁[": 3013,
      "्म": 3014,
      "▁दृष्ट": 3015,
      "▁विध": 3016,
      "ीक": 3017,
      "▁खाड़ी": 3018,
      "▁समस्या": 3019,
      "▁कोशिश": 3020,
      "▁विद": 3021,
      "▁गणराज्य": 3022,
      "▁हवा": 3023,
      "▁मान्यता": 3024,
      "गणना": 3025,
      "▁परिवर्तन": 3026,
      "▁दोस्त": 3027,
      "उथ": 3028,
      "▁स्ट्रीट": 3029,
      "▁याद": 3030,
      "वुड": 3031,
      "▁सजा": 3032,
      "▁लगातार": 3033,
      "▁निम्नलिखित": 3034,
      "▁अनुर": 3035,
      "▁ब्रे": 3036,
      "ोटा": 3037,
      "▁रहे।": 3038,
      "▁अस्पताल": 3039,
      "▁अकादमी": 3040,
      "▁स्थानों": 3041,
      "स,": 3042,
      "शायर": 3043,
      "▁रूसी": 3044,
      "▁सीमित": 3045,
      "्रैंक": 3046,
      "▁जनगणना": 3047,
      "▁निर्णय": 3048,
      "▁जिम्मे": 3049,
      "▁प्रसारित": 3050,
      "▁चीन": 3051,
      "▁तर्क": 3052,
      "▁क्षेत्रीय": 3053,
      "▁जीता।": 3054,
      "▁सॉ": 3055,
      "▁चार्ल्स": 3056,
      "▁सैनिकों": 3057,
      "त्य": 3058,
      "झे": 3059,
      "▁दृष्टिकोण": 3060,
      "▁प्रयोग": 3061,
      "पात": 3062,
      "ायद": 3063,
      "▁जोड़ा": 3064,
      "▁(18": 3065,
      "▁दिनों": 3066,
      "▁निर्मित": 3067,
      "▁दर्शा": 3068,
      "विले": 3069,
      "▁विशेषता": 3070,
      "▁सलाह": 3071,
      "शिंगटन": 3072,
      "30": 3073,
      "पो": 3074,
      "▁रोड": 3075,
      "▁वस्त": 3076,
      "▁पेट": 3077,
      "▁संत": 3078,
      "▁मूल्य": 3079,
      "▁लुई": 3080,
      "▁ऋ": 3081,
      "क्ष्य": 3082,
      "▁जंग": 3083,
      "▁डेटा": 3084,
      "▁परिसर": 3085,
      "▁निर्वा": 3086,
      "िशप": 3087,
      "▁क्रॉस": 3088,
      "▁खिलाड़ियों": 3089,
      "▁रोमन": 3090,
      "▁विकल्प": 3091,
      "▁इससे": 3092,
      "▁मुद्": 3093,
      "▁मेजब": 3094,
      "▁शुरुआती": 3095,
      "▁\"फ": 3096,
      "▁थीं,": 3097,
      "दर्श": 3098,
      "ारात्मक": 3099,
      "ार्ट": 3100,
      "▁प्रतिबंध": 3101,
      "ज्ञानिक": 3102,
      "▁था;": 3103,
      "▁प्रीम": 3104,
      "दल": 3105,
      "▁भारी": 3106,
      ".1": 3107,
      "▁31": 3108,
      "माने": 3109,
      "राध": 3110,
      "▁जनरल": 3111,
      "▁कार्ड": 3112,
      "कारों": 3113,
      "कू": 3114,
      "▁अफ्रीकी": 3115,
      "▁त्र": 3116,
      "▁बल": 3117,
      "▁गुण": 3118,
      "▁चुन": 3119,
      "मार्ग": 3120,
      "▁संभव": 3121,
      "षि": 3122,
      "▁कारण,": 3123,
      "▁प्रोफेसर": 3124,
      "▁जानकारी": 3125,
      "-पश्चिम": 3126,
      "▁मुक": 3127,
      "▁मिश्र": 3128,
      "▁शरी": 3129,
      "▁थिएटर": 3130,
      "▁स्कोर": 3131,
      "▁मूर्": 3132,
      "▁ठीक": 3133,
      "स्का": 3134,
      "सल": 3135,
      "▁अभ्या": 3136,
      "शाली": 3137,
      "▁ऑन": 3138,
      "▁करी": 3139,
      "क्वा": 3140,
      "मिथ": 3141,
      "▁टेक्": 3142,
      "किल": 3143,
      "▁संशो": 3144,
      "▁थॉमस": 3145,
      "▁चाहिए।": 3146,
      "▁स्वतंत्रता": 3147,
      "▁गृ": 3148,
      "इल": 3149,
      "▁प्रतिस्पर्धा": 3150,
      "▁संदर्भित": 3151,
      "र्फ": 3152,
      "▁गं": 3153,
      "▁प्रसारण": 3154,
      "ेंद": 3155,
      "▁शिका": 3156,
      "िया,": 3157,
      "▁अड्": 3158,
      "▁ब्रिटेन": 3159,
      "▁ओलंपिक": 3160,
      "पल": 3161,
      "▁श्री": 3162,
      "नाइटेड": 3163,
      "▁जैक": 3164,
      "▁चलता": 3165,
      "▁रिलीज़": 3166,
      "▁बाहरी": 3167,
      "▁पहुँच": 3168,
      "▁समझौ": 3169,
      "कृतिक": 3170,
      "▁इरा": 3171,
      "▁छोटा": 3172,
      "▁शाखा": 3173,
      "▁पॉ": 3174,
      "▁आंत": 3175,
      "▁उसका": 3176,
      "▁\"व": 3177,
      "ंजन": 3178,
      "▁कब्जा": 3179,
      "घा": 3180,
      "▁व्याव": 3181,
      "▁प्रजाति": 3182,
      "▁क्रिस्ट": 3183,
      "▁संघर्ष": 3184,
      "▁इट": 3185,
      "▁साथी": 3186,
      "▁वेब": 3187,
      "ोरि": 3188,
      "▁हों": 3189,
      "▁बेच": 3190,
      "▁अल्ब": 3191,
      "▁उम्मीदवार": 3192,
      "किंग": 3193,
      "▁चयन": 3194,
      "सूस": 3195,
      "▁भौ": 3196,
      "▁डिज़": 3197,
      "▁अग्र": 3198,
      "भीर": 3199,
      "ंधान": 3200,
      "▁प्रदर्शित": 3201,
      "▁जिसकी": 3202,
      "िफ": 3203,
      "▁आर्थिक": 3204,
      "ुगतान": 3205,
      "▁जवा": 3206,
      "▁मर": 3207,
      "▁मौसम": 3208,
      "▁मंद": 3209,
      "▁1999": 3210,
      "ल्या": 3211,
      "ैम": 3212,
      "चारिक": 3213,
      "दाय": 3214,
      "▁बिंदु": 3215,
      "ूदी": 3216,
      "▁टिप्प": 3217,
      "ैड": 3218,
      "▁अनुसंधान": 3219,
      "▁दौरा": 3220,
      "▁यूनाइटेड": 3221,
      "▁1960": 3222,
      "ंत्रिक": 3223,
      "▁उद्यान": 3224,
      "▁40": 3225,
      "▁रेस": 3226,
      "\"।": 3227,
      "▁व्याख्या": 3228,
      "डाई": 3229,
      "▁वंश": 3230,
      "▁होगा।": 3231,
      "रीय": 3232,
      "▁स्ट्र": 3233,
      "▁खोला": 3234,
      "▁प्रीमियर": 3235,
      "सो": 3236,
      "▁बिता": 3237,
      "▁तेजी": 3238,
      "▁टीमों": 3239,
      "▁हेनरी": 3240,
      "▁शरीर": 3241,
      "र्षिक": 3242,
      "▁कांग्रे": 3243,
      "▁भाव": 3244,
      "▁वर्णन": 3245,
      "ित्व": 3246,
      "▁पीटर": 3247,
      "▁मैक्स": 3248,
      "▁भुगतान": 3249,
      "▁साहित": 3250,
      "▁कथ": 3251,
      "▁टुक": 3252,
      "▁अभ्यास": 3253,
      "▁कैसे": 3254,
      "चन": 3255,
      "न्नत": 3256,
      "▁गंभीर": 3257,
      "-ग": 3258,
      "▁इलेक्ट": 3259,
      "▁जापानी": 3260,
      "िश्च": 3261,
      "▁परिवहन": 3262,
      "स्कृत": 3263,
      "▁पालन": 3264,
      "ेनिया": 3265,
      "ेंच": 3266,
      "संख्या": 3267,
      "▁बिज": 3268,
      "▁184": 3269,
      "▁रॉबर्ट": 3270,
      "▁उठा": 3271,
      "▁विरासत": 3272,
      "▁वरि": 3273,
      "त्कार": 3274,
      "▁वरिष्ठ": 3275,
      "ार्मिक": 3276,
      "▁कार्यक्रमों": 3277,
      "ापन": 3278,
      "▁कलाकारों": 3279,
      "▁बहा": 3280,
      "▁बंदर": 3281,
      "ियाना": 3282,
      "▁पौ": 3283,
      "▁आंदोलन": 3284,
      "▁ऊर्जा": 3285,
      "▁शायद": 3286,
      "▁उड़ान": 3287,
      "▁ट्रेन": 3288,
      "सेन": 3289,
      "▁विश्वास": 3290,
      "▁एयर": 3291,
      "कर्ताओं": 3292,
      "▁लेकर": 3293,
      "▁ज्या": 3294,
      "-व": 3295,
      "्राम": 3296,
      "▁हू": 3297,
      "ो,": 3298,
      "ारों": 3299,
      "▁185": 3300,
      "▁आवास": 3301,
      "-3": 3302,
      "▁सके।": 3303,
      "▁रखा।": 3304,
      "▁आंतरिक": 3305,
      "▁अभिनय": 3306,
      "दन": 3307,
      "▁विवरण": 3308,
      "▁माइकल": 3309,
      "िनी": 3310,
      "▁वर्गी": 3311,
      "▁हथ": 3312,
      "▁लाख": 3313,
      "▁महल": 3314,
      "▁शिक": 3315,
      "▁बेहतर": 3316,
      "▁जनसंख्या": 3317,
      "▁नेता": 3318,
      "▁ऑल": 3319,
      "ें।": 3320,
      "▁मछ": 3321,
      "▁\"ल": 3322,
      "▁नामा": 3323,
      "▁परिभा": 3324,
      "ौद्योग": 3325,
      "▁टीवी": 3326,
      "जिन": 3327,
      "▁\"ट": 3328,
      "▁घु": 3329,
      "▁घंटे": 3330,
      "▁न्याय": 3331,
      "स्ते": 3332,
      "बन": 3333,
      "▁प्राकृतिक": 3334,
      "▁उपा": 3335,
      "▁उल्लेखनीय": 3336,
      "्स\"": 3337,
      "▁पत्थर": 3338,
      "▁कृषि": 3339,
      "▁आत्म": 3340,
      "ल्टन": 3341,
      "▁1998": 3342,
      "रिया": 3343,
      "▁बावजूद,": 3344,
      "▁मिट": 3345,
      "▁संरक्षण": 3346,
      "▁संस्कृति": 3347,
      "▁विज्ञ": 3348,
      "▁अपराध": 3349,
      "जि": 3350,
      "िवार": 3351,
      "▁अफ्रीका": 3352,
      "▁रेज": 3353,
      "▁अप्र": 3354,
      "तालवी": 3355,
      "▁तत्व": 3356,
      "▁है)": 3357,
      "▁जीवित": 3358,
      "▁प्रौद्योग": 3359,
      "▁सत": 3360,
      "-ह": 3361,
      "राधिक": 3362,
      "▁मुक्त": 3363,
      "▁मानक": 3364,
      "▁मिशन": 3365,
      "▁सिर": 3366,
      "▁\"र": 3367,
      "▁संभावना": 3368,
      "▁पोस्ट": 3369,
      "▁फ्री": 3370,
      "▁विद्रो": 3371,
      "▁नस्": 3372,
      "िस्तान": 3373,
      "▁कंपन": 3374,
      "▁कनाडाई": 3375,
      "▁अच्छा": 3376,
      "▁मील": 3377,
      "▁घाटी": 3378,
      "सेल": 3379,
      "िल्व": 3380,
      "▁भागी": 3381,
      "दियों": 3382,
      "धानी": 3383,
      "ज्य": 3384,
      "▁तरीके": 3385,
      "▁मजबूर": 3386,
      "▁प्राच": 3387,
      "ोग्रा": 3388,
      "▁मनोर": 3389,
      "▁इंजन": 3390,
      "▁गृह": 3391,
      "लेक्": 3392,
      "▁कैरोल": 3393,
      "▁योग्य": 3394,
      "▁डिज़ाइन": 3395,
      "▁पहाड़ी": 3396,
      "▁कांग्रेस": 3397,
      "▁हिट": 3398,
      "▁संगठ": 3399,
      "▁कानूनी": 3400,
      "▁चित्रित": 3401,
      ".2": 3402,
      "▁बनने": 3403,
      "▁फिल्मों": 3404,
      "▁यहूदी": 3405,
      "▁कैथोलिक": 3406,
      "▁है.": 3407,
      "ल्ला": 3408,
      "▁खराब": 3409,
      "शाला": 3410,
      "▁वाशिंगटन": 3411,
      "▁समूहों": 3412,
      "ॉय": 3413,
      "पचारिक": 3414,
      "▁ऐसे": 3415,
      "▁जे.": 3416,
      "▁सच": 3417,
      "▁1,": 3418,
      "▁(क": 3419,
      "▁निर": 3420,
      "े।": 3421,
      "▁गठ": 3422,
      "क्षेप": 3423,
      "▁धार्मिक": 3424,
      "▁1996": 3425,
      "▁इकाई": 3426,
      "▁कमान": 3427,
      "▁इतालवी": 3428,
      "▁स्मार": 3429,
      "▁मंदिर": 3430,
      "▁स्वागत": 3431,
      "▁आइ": 3432,
      "▁संसद": 3433,
      "▁पृष्ठभूमि": 3434,
      "▁गायक": 3435,
      "▁ग्ल": 3436,
      "पूर्ति": 3437,
      "दम": 3438,
      "▁ड्यू": 3439,
      "▁जाएगा।": 3440,
      "यह": 3441,
      "बोर्ड": 3442,
      "▁निच": 3443,
      "▁पर्याप्त": 3444,
      "न\"": 3445,
      "ंगा": 3446,
      "▁न्याया": 3447,
      "▁आन": 3448,
      "▁विदेशी": 3449,
      "▁1997": 3450,
      "▁इनकार": 3451,
      "▁बढ़ावा": 3452,
      "▁पाठ्य": 3453,
      "▁गव": 3454,
      "्लेषण": 3455,
      "धीश": 3456,
      "▁वैन": 3457,
      "▁दीवार": 3458,
      "▁संपर्क": 3459,
      "▁बंदरगाह": 3460,
      "णिज": 3461,
      "▁वार्षिक": 3462,
      "▁भावना": 3463,
      "ौती": 3464,
      "▁सेवानिवृत्त": 3465,
      "स्कृतिक": 3466,
      "▁प्रतिस्थाप": 3467,
      "▁विन": 3468,
      "ृत्ति": 3469,
      "▁सोव": 3470,
      "▁आर्ट": 3471,
      "िटल": 3472,
      "▁जेल": 3473,
      "▁कप्ता": 3474,
      "▁जनवरी,": 3475,
      "तना": 3476,
      "▁इसी": 3477,
      "प्ट": 3478,
      "▁जोड़": 3479,
      "गु": 3480,
      "▁स्पेनिश": 3481,
      "िमेंट": 3482,
      "▁स्मिथ": 3483,
      "▁ईसाई": 3484,
      "▁रिचर्ड": 3485,
      "2)": 3486,
      "डम": 3487,
      "▁एट": 3488,
      "▁कब्र": 3489,
      "ृत्य": 3490,
      "▁पर्य": 3491,
      "▁सीधे": 3492,
      "▁लंबी": 3493,
      "▁सेवाओं": 3494,
      "कालय": 3495,
      "स्केट": 3496,
      "▁पात्र": 3497,
      ".3": 3498,
      "▁अट": 3499,
      "डर": 3500,
      "ैट": 3501,
      "▁जीती": 3502,
      "लीय": 3503,
      "▁चैनल": 3504,
      "▁इकाइ": 3505,
      "▁मार्च,": 3506,
      "कर,": 3507,
      "▁रिकॉर्डिंग": 3508,
      "कालिक": 3509,
      "वाल": 3510,
      "ली,": 3511,
      "ोरी": 3512,
      "चु": 3513,
      "▁मालिक": 3514,
      "▁इला": 3515,
      "▁मात्रा": 3516,
      "▁कार्यकाल": 3517,
      "ामीण": 3518,
      "ोषण": 3519,
      "ई.": 3520,
      "शि": 3521,
      "▁पेरिस": 3522,
      "ंतर": 3523,
      "▁पैमाने": 3524,
      "▁पुस्तकालय": 3525,
      "▁प्रमाण": 3526,
      "▁टेक्सास": 3527,
      "ारोह": 3528,
      "▁संभावित": 3529,
      "3)": 3530,
      "▁विशेषज्ञ": 3531,
      "▁शेष": 3532,
      "ैनिक": 3533,
      "रिस": 3534,
      "जनक": 3535,
      "▁ग्रीन": 3536,
      "▁वीं": 3537,
      "ॉड": 3538,
      "▁सुझा": 3539,
      "▁आवा": 3540,
      "भर": 3541,
      "▁नम": 3542,
      "▁एडम": 3543,
      "-फ": 3544,
      "▁भेजा": 3545,
      "एच": 3546,
      "▁जवाब": 3547,
      "्राज्य": 3548,
      "▁सोवियत": 3549,
      "▁गीतों": 3550,
      "▁रुचि": 3551,
      "▁दबा": 3552,
      "तु": 3553,
      "▁कहा,": 3554,
      "▁गुजर": 3555,
      "▁जीतने": 3556,
      "▁समारोह": 3557,
      "▁वाणिज": 3558,
      "▁विक्ट": 3559,
      "▁मार्क": 3560,
      "▁ग्रामीण": 3561,
      "▁पाए": 3562,
      "▁कौ": 3563,
      "▁आयोग": 3564,
      "▁समर्प": 3565,
      "दर": 3566,
      "▁प्रशंसा": 3567,
      "ाइप": 3568,
      "▁जीवनी": 3569,
      "▁अल्": 3570,
      "5)": 3571,
      "स्व": 3572,
      "सेफ": 3573,
      "▁नष्ट": 3574,
      "▁जिम्मेदार": 3575,
      "▁गतिविध": 3576,
      "▁जल्द": 3577,
      "▁दूरी": 3578,
      "ंशिक": 3579,
      "षित": 3580,
      "▁जूनियर": 3581,
      "▁उत्पन्न": 3582,
      "▁महसूस": 3583,
      "4)": 3584,
      "▁खेलने": 3585,
      "▁माता": 3586,
      "▁प्रतिष्ठ": 3587,
      "एस.": 3588,
      "▁\"श": 3589,
      "▁बिशप": 3590,
      "िंट": 3591,
      "▁ग्रैंड": 3592,
      "▁व्यवहार": 3593,
      "▁मेट": 3594,
      "▁लॉस": 3595,
      "▁लाइव": 3596,
      "▁सरकारी": 3597,
      "ूफ": 3598,
      "ढ़ि": 3599,
      "▁कार्यकारी": 3600,
      "▁साम्राज्य": 3601,
      "ं,": 3602,
      "लिंग": 3603,
      "▁प्रचार": 3604,
      "स्फ": 3605,
      ".4": 3606,
      "▁पहल": 3607,
      ".7": 3608,
      "▁डेव": 3609,
      "ष्ण": 3610,
      "▁सितंबर,": 3611,
      "िल्स": 3612,
      "▁पुनः": 3613,
      "▁वित्त": 3614,
      "▁वालों": 3615,
      "▁फिल्": 3616,
      "कीय": 3617,
      "▁दोष": 3618,
      "वर्ती": 3619,
      "▁रूस": 3620,
      "▁मश": 3621,
      "▁शिवि": 3622,
      "▁मुकद": 3623,
      "▁निकट": 3624,
      "▁बिक्री": 3625,
      "कूल": 3626,
      "▁सर्वो": 3627,
      "▁एश": 3628,
      "▁बल्कि": 3629,
      ".6": 3630,
      "▁अस्थ": 3631,
      "▁प्राय": 3632,
      "▁लागत": 3633,
      "1)": 3634,
      "▁थो": 3635,
      "▁कॉम": 3636,
      "▁राजमार्ग": 3637,
      "्तीय": 3638,
      "एँ।": 3639,
      "▁बलों": 3640,
      "▁अनुकूल": 3641,
      "▁प्रेस": 3642,
      "▁ह्यू": 3643,
      "गम": 3644,
      "▁फो": 3645,
      "▁इलेक्ट्र": 3646,
      "▁सुझाव": 3647,
      "▁मुझे": 3648,
      "▁(म": 3649,
      "विच": 3650,
      "▁नृत्य": 3651,
      "घु": 3652,
      "्रेस": 3653,
      "▁ब्लैक": 3654,
      "ेशा": 3655,
      "खाने": 3656,
      "▁पैदल": 3657,
      "▁मोर": 3658,
      "ल्सन": 3659,
      "वेयर": 3660,
      "▁रखते": 3661,
      "हे": 3662,
      "▁हमले": 3663,
      "▁बर": 3664,
      "ोध": 3665,
      "िटार": 3666,
      "एफ": 3667,
      "तांत्रिक": 3668,
      "▁आकर्षित": 3669,
      "▁एस्ट": 3670,
      "िकल": 3671,
      "▁स्टेड": 3672,
      "▁जून,": 3673,
      "▁रेजिमेंट": 3674,
      "▁अरब": 3675,
      "▁वित्तीय": 3676,
      "ग्न": 3677,
      "▁भेज": 3678,
      "▁चट्ट": 3679,
      "▁अक्टूबर,": 3680,
      "▁ट्यू": 3681,
      "▁चू": 3682,
      "▁बास्केट": 3683,
      "▁दौरे": 3684,
      "▁गे": 3685,
      "▁न्यायाधीश": 3686,
      "▁कक्षा": 3687,
      "▁हुई,": 3688,
      "▁रूढ़ि": 3689,
      "▁पदो": 3690,
      "▁स्क्वा": 3691,
      "-4": 3692,
      "▁साइट": 3693,
      "▁फ्रैंक": 3694,
      "▁किनारे": 3695,
      "▁मई,": 3696,
      "▁चोट": 3697,
      "▁1995": 3698,
      "ंदा": 3699,
      ".8": 3700,
      "▁सूचना": 3701,
      "▁प्रौद्योगिकी": 3702,
      "शेष": 3703,
      "ंगिक": 3704,
      "▁खरीद": 3705,
      "▁साझा": 3706,
      "▁दुक": 3707,
      "▁चालक": 3708,
      "ंडे": 3709,
      "▁1950": 3710,
      "▁निर्देशन": 3711,
      "▁यहाँ": 3712,
      "िशा": 3713,
      "▁वर्जिन": 3714,
      "▁सांस्कृतिक": 3715,
      "्रेट": 3716,
      "▁जुलाई,": 3717,
      "▁दिसंबर,": 3718,
      "▁निवेश": 3719,
      "▁स्थिर": 3720,
      "▁वितरण": 3721,
      "▁हथिया": 3722,
      "▁मोटर": 3723,
      "▁कवर": 3724,
      "ालय": 3725,
      "▁बट": 3726,
      "▁कार्र": 3727,
      "ता,": 3728,
      "▁(200": 3729,
      "▁निकल": 3730,
      "▁अप्रैल,": 3731,
      "डोर": 3732,
      "▁ज्यादा": 3733,
      "▁पसंद": 3734,
      "कल्प": 3735,
      "10": 3736,
      "▁प्रतिनिधि": 3737,
      "▁1994": 3738,
      "▁बीच,": 3739,
      "▁आर्": 3740,
      "▁ब्रांड": 3741,
      "क्सी": 3742,
      "▁नक": 3743,
      "▁नीति": 3744,
      "▁पाठ्यक्रम": 3745,
      "▁निभाई": 3746,
      "▁1992": 3747,
      "▁सौंप": 3748,
      "-पिता": 3749,
      "▁प्रव": 3750,
      "▁रहता": 3751,
      "▁नवंबर,": 3752,
      "वो": 3753,
      "▁स्वीड": 3754,
      "▁काले": 3755,
      "ैसे": 3756,
      "▁धार": 3757,
      "▁जिनके": 3758,
      "▁चुने": 3759,
      "▁आपूर्ति": 3760,
      "बाजी": 3761,
      "▁कट": 3762,
      "▁लोकतांत्रिक": 3763,
      "▁रोज": 3764,
      "निर्माण": 3765,
      "ॉक्स": 3766,
      "▁पुष्टि": 3767,
      "▁स्रोत": 3768,
      "▁अनुवाद": 3769,
      "नाया": 3770,
      "▁कथा": 3771,
      "▁संस्थाप": 3772,
      "▁प्राचीन": 3773,
      "-उ": 3774,
      "8)": 3775,
      "▁आयरलैंड": 3776,
      "र्की": 3777,
      "▁विवाद": 3778,
      "▁अर्जित": 3779,
      "▁लगाने": 3780,
      "ड़ित": 3781,
      "▁प्रधान": 3782,
      "▁वेल्स": 3783,
      "िटी": 3784,
      "चीत": 3785,
      "▁जोर": 3786,
      "▁कार्रवाई": 3787,
      "▁बास्केटबॉल": 3788,
      "▁माता-पिता": 3789,
      "▁रोम": 3790,
      "डेन": 3791,
      "▁व्यावसाय": 3792,
      "▁निवासी": 3793,
      "▁स्मारक": 3794,
      "▁नर": 3795,
      "च्छा": 3796,
      "▁डेल": 3797,
      "▁हद": 3798,
      "नाव": 3799,
      "▁कंप्यू": 3800,
      "6)": 3801,
      "लांट": 3802,
      "▁तंत्र": 3803,
      "▁बातचीत": 3804,
      "▁ऋण": 3805,
      "▁लिए।": 3806,
      "▁एडवर्ड": 3807,
      "▁क्रिस": 3808,
      "▁प्यार": 3809,
      "▁गुला": 3810,
      "▁खुला": 3811,
      "लन": 3812,
      "▁वोट": 3813,
      "▁प्लेट": 3814,
      "सु": 3815,
      "▁रण": 3816,
      "▁टाइम": 3817,
      "घाटन": 3818,
      "-श": 3819,
      "▁स्टार": 3820,
      "-वि": 3821,
      "▁राजकु": 3822,
      "7)": 3823,
      "▁कैन": 3824,
      "▁में)": 3825,
      "▁टिप्पणी": 3826,
      "हो": 3827,
      ".9": 3828,
      "▁विद्रोह": 3829,
      "गोल": 3830,
      "▁(201": 3831,
      "हान": 3832,
      "▁विधान": 3833,
      "▁गोली": 3834,
      "ोटे": 3835,
      "स्टा": 3836,
      "-ट": 3837,
      "उंट": 3838,
      "िग्रह": 3839,
      "▁एंजिल्स": 3840,
      "▁डु": 3841,
      "-पूर्व": 3842,
      "▁\"प्र": 3843,
      "गति": 3844,
      "▁बिजली": 3845,
      "▁चौथे": 3846,
      "▁मेड": 3847,
      "▁छोड़ने": 3848,
      "र\"": 3849,
      "▁गठबंध": 3850,
      "कृ": 3851,
      "▁तेल": 3852,
      "▁देखभाल": 3853,
      "िसे": 3854,
      "▁तल": 3855,
      "▁धारा": 3856,
      "▁स्का": 3857,
      "ोना": 3858,
      "गार": 3859,
      "▁समय,": 3860,
      "हाइट": 3861,
      "री,": 3862,
      "िश्चित": 3863,
      "▁हमेशा": 3864,
      "▁चम": 3865,
      "▁मतदान": 3866,
      "▁गवर्नर": 3867,
      "▁किए,": 3868,
      "ोत्": 3869,
      "▁ऐसी": 3870,
      "▁बाल": 3871,
      "▁अधिग्रह": 3872,
      "▁थे.": 3873,
      "▁पट्ट": 3874,
      "▁शहरों": 3875,
      "बेल": 3876,
      "यस्क": 3877,
      "▁उपन": 3878,
      "▁म्यू": 3879,
      "ब्रा": 3880,
      "▁टाउन": 3881,
      "▁रणनी": 3882,
      "----": 3883,
      "▁1993": 3884,
      "जीलैंड": 3885,
      "▁अगस्त,": 3886,
      "▁सचिव": 3887,
      "▁कक्ष": 3888,
      "▁पंख": 3889,
      "▁बदला": 3890,
      "▁लॉन्": 3891,
      "▁पर्यावरण": 3892,
      "▁शांति": 3893,
      "▁व्यावसायिक": 3894,
      "▁राजधानी": 3895,
      "-र": 3896,
      "▁मिट्टी": 3897,
      "बाद": 3898,
      "सं": 3899,
      "िवेश": 3900,
      "▁वैज्ञानिक": 3901,
      "▁साब": 3902,
      "▁लेन": 3903,
      "▁पति": 3904,
      "श्चित": 3905,
      "▁ध्वनि": 3906,
      "▁जैसी": 3907,
      "▁सतह": 3908,
      "मेट": 3909,
      "▁कोशिका": 3910,
      "धारणा": 3911,
      "▁रहा।": 3912,
      "ह्न": 3913,
      "▁धी": 3914,
      "▁आक्रमण": 3915,
      "▁घरों": 3916,
      "ंटर": 3917,
      "द्वीप": 3918,
      "▁गिटार": 3919,
      "-18": 3920,
      "▁संरक्षित": 3921,
      "▁बदलकर": 3922,
      "भावी": 3923,
      "▁संचार": 3924,
      "विल": 3925,
      "▁अंदर": 3926,
      "र्सी": 3927,
      "▁मनो": 3928,
      "चारियों": 3929,
      "▁स्टेडियम": 3930,
      "▁समर्पित": 3931,
      "▁कप्तान": 3932,
      "द्र": 3933,
      "ंद्र": 3934,
      "▁मास्टर": 3935,
      "▁बनी": 3936,
      "ार्टर": 3937,
      "▁शिकागो": 3938,
      "▁व्यक्तियों": 3939,
      "▁भोजन": 3940,
      "▁माप": 3941,
      "▁मिले": 3942,
      "▁जुड़े": 3943,
      "▁सारा": 3944,
      "▁बम": 3945,
      "▁कर्मचारियों": 3946,
      "▁1989": 3947,
      "▁वो": 3948,
      "▁जोसेफ": 3949,
      "▁न्यूजीलैंड": 3950,
      "▁काल": 3951,
      "▁अलेक्": 3952,
      "▁लैटिन": 3953,
      "यात": 3954,
      "▁नियंत्रित": 3955,
      "▁1991": 3956,
      "टिल": 3957,
      "क\"": 3958,
      "र्नल": 3959,
      "ज्": 3960,
      "▁आलोच": 3961,
      "▁भ्र": 3962,
      "▁तूफ": 3963,
      "ज़र": 3964,
      "▁Â": 3965,
      "▁वकी": 3966,
      "▁स्थायी": 3967,
      "ोरिया": 3968,
      "▁लघु": 3969,
      "▁फिन": 3970,
      "ुआन": 3971,
      "▁एनी": 3972,
      "लब": 3973,
      "▁सेमी": 3974,
      "▁लियो": 3975,
      "▁नाइट": 3976,
      "न्ट": 3977,
      "▁हिस्सों": 3978,
      "▁चर्चा": 3979,
      "▁साक्षा": 3980,
      "▁विश्लेषण": 3981,
      "▁ड्राइ": 3982,
      "▁डाल": 3983,
      "▁फरवरी,": 3984,
      "▁प्रगति": 3985,
      "▁निश्चित": 3986,
      "ढ़ी": 3987,
      "▁शेर": 3988,
      "▁अंग": 3989,
      "▁दर्शकों": 3990,
      "▁अत्य": 3991,
      "....": 3992,
      "ल्टी": 3993,
      "ेंग": 3994,
      "▁प्रशंस": 3995,
      "▁अर": 3996,
      "▁फोट": 3997,
      "▁अवधारणा": 3998,
      "वित्र": 3999,
      "▁राजने": 4000,
      "▁मार्टिन": 4001,
      "▁183": 4002,
      "▁गार्ड": 4003,
      "▁दफ": 4004,
      "▁सहयोगी": 4005,
      "▁गलत": 4006,
      "▁विवाह": 4007,
      "▁मशीन": 4008,
      "▁पकड़": 4009,
      "▁घोषित": 4010,
      "▁लक्ष्य": 4011,
      "▁ब्रिग": 4012,
      "▁हल्": 4013,
      "िकेट": 4014,
      "▁दवा": 4015,
      "▁गोल्ड": 4016,
      "▁लेबल": 4017,
      "▁2023": 4018,
      "्यो": 4019,
      "▁कंप्यूटर": 4020,
      "▁पैरिश": 4021,
      "सी।": 4022,
      "▁\"के": 4023,
      "▁लंबाई": 4024,
      "लेस": 4025,
      "कृष्ट": 4026,
      "▁चाहते": 4027,
      "जीव": 4028,
      "ंडी": 4029,
      "▁तकनीकी": 4030,
      "▁प्रकाशन": 4031,
      "ानो": 4032,
      "▁तरह,": 4033,
      "▁गिरफ्त": 4034,
      "ीकरण": 4035,
      "▁हैं;": 4036,
      "ॉग": 4037,
      "▁रानी": 4038,
      "▁वाइ": 4039,
      "ेलर": 4040,
      "ायल": 4041,
      "▁गठबंधन": 4042,
      "▁ब्राउन": 4043,
      "वस्था": 4044,
      "▁हस्त": 4045,
      "60": 4046,
      "▁उद्घाटन": 4047,
      "▁नॉर्": 4048,
      "ंजी": 4049,
      "▁(ब": 4050,
      "-ड": 4051,
      "▁लाइस": 4052,
      "▁गर्": 4053,
      "▁एंट": 4054,
      "▁रिस": 4055,
      "सायन": 4056,
      "▁फ्रे": 4057,
      "▁उपचार": 4058,
      "हां": 4059,
      "▁सर्वोच्च": 4060,
      "चारी": 4061,
      "▁खत": 4062,
      "▁मनोरंजन": 4063,
      "ंपरा": 4064,
      "▁संगीतकार": 4065,
      "िग्": 4066,
      "थि": 4067,
      "▁संभा": 4068,
      "▁बस्ती": 4069,
      "धारण": 4070,
      "▁दान": 4071,
      "▁कविता": 4072,
      "▁स्म": 4073,
      "▁ज्यादातर": 4074,
      "▁श्रमिक": 4075,
      "किन": 4076,
      "▁राजनीति": 4077,
      "▁इनमें": 4078,
      "-ऑ": 4079,
      "▁प्रजातियों": 4080,
      "▁आउट": 4081,
      "ला,": 4082,
      "स्ट्रा": 4083,
      "वेक्षण": 4084,
      "म्म": 4085,
      "पट": 4086,
      "▁ऑर्": 4087,
      "▁क्ले": 4088,
      "ॉर्म": 4089,
      "▁मछली": 4090,
      "▁कहते": 4091,
      "िने": 4092,
      "ोरिडा": 4093,
      "क्ता": 4094,
      "ल्यांकन": 4095,
      "▁बैठक": 4096,
      "▁उनमें": 4097,
      "▁घो": 4098,
      "▁दिव": 4099,
      "▁अत्यधिक": 4100,
      "▁संसा": 4101,
      "▁शिकार": 4102,
      "▁विलय": 4103,
      "▁करीब": 4104,
      "▁देखने": 4105,
      "▁साक्षात्कार": 4106,
      "कश": 4107,
      "▁वाह": 4108,
      "▁सह-": 4109,
      "ियानो": 4110,
      "▁वापसी": 4111,
      "▁औपचारिक": 4112,
      "▁कंपनियों": 4113,
      "▁इटली": 4114,
      "▁प्रण": 4115,
      "▁अलेक्ज": 4116,
      "▁दिल": 4117,
      "▁किमी": 4118,
      "▁भवन": 4119,
      "▁निवासियों": 4120,
      "▁कोड": 4121,
      "मंड": 4122,
      "मीटर": 4123,
      "▁खेलते": 4124,
      "▁′": 4125,
      "▁तीसरी": 4126,
      "▁होटल": 4127,
      "्राट": 4128,
      "▁बाइ": 4129,
      "▁फिलिप": 4130,
      "▁अड्डे": 4131,
      "▁तीसरा": 4132,
      "▁जीते": 4133,
      "▁निरंतर": 4134,
      "▁\"उ": 4135,
      "्यालय": 4136,
      "▁परिभाषित": 4137,
      "▁गर्मियों": 4138,
      "▁ऊपरी": 4139,
      "ोब": 4140,
      "वरों": 4141,
      "▁व्ह": 4142,
      "▁प्रभावी": 4143,
      "▁आर्म": 4144,
      "▁एंटी": 4145,
      "▁\"वि": 4146,
      "▁प्रकृति": 4147,
      "▁व्यवस्था": 4148,
      "▁श्रम": 4149,
      "▁दस्ता": 4150,
      "▁विप": 4151,
      "▁फूल": 4152,
      "▁प्रे": 4153,
      "्वे": 4154,
      "▁जेन": 4155,
      "ंता": 4156,
      "▁ताप": 4157,
      "▁साउथ": 4158,
      "▁शिविर": 4159,
      "▁लंबा": 4160,
      "▁करा": 4161,
      "▁बढ़ाने": 4162,
      "▁गईं।": 4163,
      "▁व्हाइट": 4164,
      "▁मोन": 4165,
      "▁निचले": 4166,
      "▁यूएस": 4167,
      "▁फ्लोरिडा": 4168,
      "▁गतिविधियों": 4169,
      "ेंसी": 4170,
      "ष्म": 4171,
      "▁बदलने": 4172,
      "दायिक": 4173,
      "▁वर्जिनिया": 4174,
      "▁ति": 4175,
      "▁रूढ़िवादी": 4176,
      "▁सभा": 4177,
      "▁60": 4178,
      "▁ओह": 4179,
      "बारी": 4180,
      "▁ब्लू": 4181,
      "▁उत्कृष्ट": 4182,
      "ेंटी": 4183,
      "▁प्ला": 4184,
      "▁एर": 4185,
      "िप्त": 4186,
      "▁बहन": 4187,
      "बह": 4188,
      "▁राज्यों": 4189,
      "▁अनि": 4190,
      "▁आदि": 4191,
      "मीन": 4192,
      "ोरो": 4193,
      "▁डच": 4194,
      "▁क्रे": 4195,
      "जू": 4196,
      "ना,": 4197,
      "▁प्रबंधक": 4198,
      "मारे": 4199,
      "9)": 4200,
      "▁गैल": 4201,
      "▁लेखन": 4202,
      "▁यौन": 4203,
      "्ज़": 4204,
      "▁1988": 4205,
      "ोइस": 4206,
      "▁डेम": 4207,
      "द्वंद": 4208,
      "▁बचाव": 4209,
      "▁तूफान": 4210,
      "▁लाइसेंस": 4211,
      "▁आयोजन": 4212,
      "ोलॉ": 4213,
      "िब": 4214,
      "्स,": 4215,
      "▁दी,": 4216,
      "▁मेजबानी": 4217,
      "▁परंपरा": 4218,
      "▁भंड": 4219,
      "▁निर्देशित": 4220,
      "कै": 4221,
      "▁प्रशासनिक": 4222,
      "िच": 4223,
      "▁जटिल": 4224,
      "▁पाद": 4225,
      "▁मिड": 4226,
      "▁रखता": 4227,
      "ी।": 4228,
      "▁शराब": 4229,
      "▁रोकने": 4230,
      "साइट": 4231,
      "▁साबित": 4232,
      "चल": 4233,
      "सेट": 4234,
      "▁डिजिटल": 4235,
      "▁प्रतिद्वंद": 4236,
      "▁मना": 4237,
      "▁गेंद": 4238,
      "पोल": 4239,
      "▁मूल्यांकन": 4240,
      "▁विविध": 4241,
      "▁जोड़ी": 4242,
      "▁ऊंच": 4243,
      "▁\"इ": 4244,
      "▁नौका": 4245,
      "ंव": 4246,
      "▁पुरानी": 4247,
      "▁समझौते": 4248,
      "▁जहाजों": 4249,
      "वायु": 4250,
      "▁आदमी": 4251,
      "तियाँ": 4252,
      "▁मुख्यालय": 4253,
      "▁मंत्रालय": 4254,
      "-आधारित": 4255,
      "▁तला": 4256,
      "▁वयस्क": 4257,
      "▁अभिनेता": 4258,
      "लम": 4259,
      "▁आयरिश": 4260,
      "ब्ब": 4261,
      "▁पीड़ित": 4262,
      "ेरियन": 4263,
      "आउट": 4264,
      "श्विक": 4265,
      "▁ब्रिगेड": 4266,
      "बर्न": 4267,
      "डब्ल्यू": 4268,
      "▁कैम": 4269,
      "▁भर्ती": 4270,
      "▁सही": 4271,
      "▁फ्रेंच": 4272,
      "▁सहमत": 4273,
      "▁वास्तुक": 4274,
      "▁संस्थापक": 4275,
      "▁लुईस": 4276,
      "वेदन": 4277,
      "▁सम्राट": 4278,
      "80": 4279,
      "द्द": 4280,
      "ायक": 4281,
      "▁(199": 4282,
      "▁सर्वेक्षण": 4283,
      "▁विरोधी": 4284,
      "▁गया.": 4285,
      "▁तेज": 4286,
      "▁जुड़ा": 4287,
      "▁साथ।": 4288,
      "िकट": 4289,
      "▁पवित्र": 4290,
      "▁फाउंड": 4291,
      "लियों": 4292,
      "▁करें।": 4293,
      "लीप": 4294,
      "▁एथलेट": 4295,
      "मय": 4296,
      "▁चलने": 4297,
      "▁विद्व": 4298,
      "ाइयों": 4299,
      "ंकित": 4300,
      "▁बेसबॉल": 4301,
      "▁इंजीनियरिंग": 4302,
      "डेल": 4303,
      "्रीम": 4304,
      "बैक": 4305,
      "▁1987": 4306,
      "▁फें": 4307,
      "▁x": 4308,
      "▁दबाव": 4309,
      "▁सोल": 4310,
      "ग्रा": 4311,
      "▁रोमा": 4312,
      "▁ट्रे": 4313,
      "▁हैं।\"": 4314,
      "▁स्वर्ण": 4315,
      "▁कथित": 4316,
      "▁प्रारूप": 4317,
      "▁कव": 4318,
      "▁सलाहकार": 4319,
      "▁1930": 4320,
      "ग्रह": 4321,
      "▁उद्य": 4322,
      "▁जल्दी": 4323,
      "▁उत्सव": 4324,
      "▁घटनाओं": 4325,
      "खंड": 4326,
      "▁ग्रीष्म": 4327,
      "▁दस्तावे": 4328,
      "▁निष्कर्ष": 4329,
      "▁संबंधों": 4330,
      "घर": 4331,
      "▁इस्ती": 4332,
      "▁पड़ा।": 4333,
      "▁पेशकश": 4334,
      "▁लगता": 4335,
      "हाउस": 4336,
      "▁अवसर": 4337,
      "▁ट्रांस": 4338,
      "घटना": 4339,
      "▁अनुरोध": 4340,
      "मीर": 4341,
      "▁+": 4342,
      "ल्ली": 4343,
      "▁ग्रह": 4344,
      "▁शिक्षक": 4345,
      "▁पढ़ा": 4346,
      "ोग्राम": 4347,
      "ंका": 4348,
      "▁सीनेट": 4349,
      "▁कर्मचारी": 4350,
      "▁पाई": 4351,
      "▁वार": 4352,
      "▁1940": 4353,
      "▁की.": 4354,
      "िगन": 4355,
      "▁दिशा": 4356,
      "▁संबद्ध": 4357,
      "▁पत": 4358,
      "▁विभाजन": 4359,
      "साहित": 4360,
      "ेरो": 4361,
      "▁1986": 4362,
      "▁टॉ": 4363,
      "▁अल्प": 4364,
      "▁चिह्न": 4365,
      "▁दुकान": 4366,
      "ल्पना": 4367,
      "▁कैरोलिना": 4368,
      "रीन": 4369,
      "▁बुला": 4370,
      "▁अधिग्रहण": 4371,
      "▁घायल": 4372,
      "ोसिए": 4373,
      "▁सकारात्मक": 4374,
      "▁निर्देशक": 4375,
      "स्म": 4376,
      "▁वाणिज्यिक": 4377,
      "ोने": 4378,
      "▁धात": 4379,
      "▁पूछ": 4380,
      "▁भंडार": 4381,
      "▁वास्तुकला": 4382,
      "▁निर्भर": 4383,
      "▁मौत": 4384,
      "क्षिप्त": 4385,
      "बू": 4386,
      "ए।": 4387,
      "ुत्": 4388,
      "▁डू": 4389,
      "ंतरण": 4390,
      "▁ब्राजी": 4391,
      "▁वैकल्प": 4392,
      "▁वैकल्पिक": 4393,
      "▁#": 4394,
      "▁अस्वी": 4395,
      "▁बौ": 4396,
      "▁खोल": 4397,
      "▁बनाता": 4398,
      "ानु": 4399,
      "-न": 4400,
      "▁देव": 4401,
      "▁पृथ": 4402,
      "ोफ": 4403,
      "ित्स": 4404,
      "पु": 4405,
      "डनी": 4406,
      "यक": 4407,
      "▁सुरक्षित": 4408,
      "▁स्वि": 4409,
      "ये": 4410,
      "टीक": 4411,
      "रक": 4412,
      "स्टम": 4413,
      "▁स्कूलों": 4414,
      "▁स्त": 4415,
      "बिन": 4416,
      "▁चली": 4417,
      "ंधन": 4418,
      "-6": 4419,
      "▁चुनौती": 4420,
      "▁मारे": 4421,
      "▁सुबह": 4422,
      "▁अच्छे": 4423,
      "▁1984": 4424,
      "▁लौटने": 4425,
      "▁खेला।": 4426,
      "▁एजेंट": 4427,
      "▁जू": 4428,
      "डाउन": 4429,
      "▁एकत्र": 4430,
      "▁मंडल": 4431,
      "वादियों": 4432,
      "▁प्रयासों": 4433,
      "▁क्वा": 4434,
      "▁क्वार्टर": 4435,
      "ार्क": 4436,
      "ुनियादी": 4437,
      "▁1985": 4438,
      "▁मैट": 4439,
      "▁आंशिक": 4440,
      "▁जलवायु": 4441,
      "बरी": 4442,
      "▁गुप्त": 4443,
      "▁सिटी": 4444,
      "▁टेन": 4445,
      "▁लेते": 4446,
      "▁आइस": 4447,
      "निस्ट": 4448,
      "▁एलि": 4449,
      "▁ग्रीष्मकालीन": 4450,
      "ैक्स": 4451,
      "▁जीवनी।": 4452,
      "▁दुर्घटना": 4453,
      "ेलो": 4454,
      "सू": 4455,
      "▁प्रणाल": 4456,
      "▁रोल": 4457,
      "-5": 4458,
      "नर": 4459,
      "▁विज": 4460,
      "▁नॉर्वे": 4461,
      "ार्म": 4462,
      "पेरा": 4463,
      "सभा": 4464,
      "▁तत्": 4465,
      "-7": 4466,
      "▁एसोसिए": 4467,
      "स्फोट": 4468,
      ".0": 4469,
      "करी": 4470,
      "▁मिला।": 4471,
      "▁आता": 4472,
      "▁प्रभ": 4473,
      "▁प्रदर्शनी": 4474,
      "नन": 4475,
      "▁तस्वी": 4476,
      "▁जॉर्जिया": 4477,
      "▁कार्ल": 4478,
      "▁साहित्य": 4479,
      "▁स्टे": 4480,
      "▁शहरी": 4481,
      "▁छत": 4482,
      "▁हॉकी": 4483,
      "▁रेट": 4484,
      "▁बुनियादी": 4485,
      "▁1920": 4486,
      "किया": 4487,
      "▁फाउंडेशन": 4488,
      "▁करियर।": 4489,
      "▁वैश्विक": 4490,
      "▁गुर": 4491,
      "-9": 4492,
      "▁हालांकि,": 4493,
      "▁अपे": 4494,
      "न्ड": 4495,
      "▁65": 4496,
      "▁संक्षिप्त": 4497,
      "▁तुर्की": 4498,
      "▁स्प्र": 4499,
      "▁प्रतिस्थापित": 4500,
      "▁वास्तु": 4501,
      "▁सिने": 4502,
      "▁बेटा": 4503,
      "▁परमाण": 4504,
      "कंड": 4505,
      "▁नमू": 4506,
      "ेडी": 4507,
      "▁असम": 4508,
      "▁पर्व": 4509,
      "िवर्स": 4510,
      "्रल": 4511,
      "▁अनुप्र": 4512,
      "ग्बी": 4513,
      "▁बाकी": 4514,
      "▁संपादक": 4515,
      "▁था।\"": 4516,
      "▁द्वार": 4517,
      "ल्टर": 4518,
      "▁फर्म": 4519,
      "▁लेफ्ट": 4520,
      "▁पड़ोस": 4521,
      "▁मिली।": 4522,
      "▁मुद्दों": 4523,
      "▁एंड्र": 4524,
      "▁फील्ड": 4525,
      "▁\"मै": 4526,
      "ोमा": 4527,
      "▁समकालीन": 4528,
      "ोनिया": 4529,
      "▁योग्यता": 4530,
      "वेट": 4531,
      "▁स्क्वाड्र": 4532,
      "40": 4533,
      "न्या": 4534,
      "बेथ": 4535,
      "ेंटर": 4536,
      "▁विस्फोट": 4537,
      "डु": 4538,
      "▁1983": 4539,
      "▁यात्री": 4540,
      "▁अस्त": 4541,
      "▁पेन": 4542,
      "▁ज्ञान": 4543,
      "▁देखते": 4544,
      "▁बनाया।": 4545,
      "▁सॉफ्ट": 4546,
      "राधिकारी": 4547,
      "▁ब्राजील": 4548,
      "▁कोलंब": 4549,
      "▁छोर": 4550,
      "खर": 4551,
      "श्ती": 4552,
      "क्सिको": 4553,
      "▁डोम": 4554,
      "▁प्रोत्": 4555,
      "▁अटलांट": 4556,
      "▁निकाल": 4557,
      "▁35": 4558,
      "▁आधे": 4559,
      "▁पदार्थ": 4560,
      "▁अगर": 4561,
      "ुए": 4562,
      "▁निगम": 4563,
      "▁वृत्त": 4564,
      "▁स्टॉक": 4565,
      "▁32": 4566,
      "र्मन": 4567,
      "▁है\"": 4568,
      "▁(आ": 4569,
      "▁अंतरिक्ष": 4570,
      "▁भी,": 4571,
      "ब्रिज": 4572,
      "▁औद्योग": 4573,
      "▁मस्": 4574,
      "▁सामु": 4575,
      "▁न्यायालय": 4576,
      "▁उत्तराधिकारी": 4577,
      "▁महीन": 4578,
      "ड़कियों": 4579,
      "▁बाय": 4580,
      "▁लैंड": 4581,
      "▁1982": 4582,
      "ठी": 4583,
      "ंटो": 4584,
      "▁सुना": 4585,
      "जोर": 4586,
      "रप": 4587,
      "म\"": 4588,
      "▁एंग": 4589,
      "▁180": 4590,
      "।एस।": 4591,
      "▁इस्ला": 4592,
      "▁विशाल": 4593,
      "▁सामुदायिक": 4594,
      "र्तन": 4595,
      "▁प्रशांत": 4596,
      "ल्ज": 4597,
      "स्टीन": 4598,
      "▁टूट": 4599,
      ",2": 4600,
      "▁ताल": 4601,
      "▁अलेक्जेंडर": 4602,
      "▁ओपेरा": 4603,
      "▁राजनेता": 4604,
      "▁शौ": 4605,
      "▁वेबसाइट": 4606,
      "▁गहरा": 4607,
      "्यूट": 4608,
      "▁तापमान": 4609,
      "▁फ्रेड": 4610,
      "▁आए।": 4611,
      "▁अस्थायी": 4612,
      "▁जुड़": 4613,
      "▁क्रो": 4614,
      "वाना": 4615,
      "▁1979": 4616,
      "▁रग्बी": 4617,
      "मोर": 4618,
      "▁1945": 4619,
      "न्व": 4620,
      "▁पत्रकार": 4621,
      "थन": 4622,
      "र्ना": 4623,
      "▁नाट": 4624,
      "▁बेन": 4625,
      "▁1972": 4626,
      "▁संभवतः": 4627,
      "▁थे;": 4628,
      "▁आर्क": 4629,
      "क्ल": 4630,
      "▁एशियाई": 4631,
      "▁गैस": 4632,
      "दू": 4633,
      "▁भिन्न": 4634,
      "न्नी": 4635,
      "स्टी": 4636,
      "▁19वीं": 4637,
      "▁काउंटी,": 4638,
      "▁मानना": 4639,
      "लभ": 4640,
      "व्यवस्था": 4641,
      "गरीय": 4642,
      "िरा": 4643,
      "▁वु": 4644,
      "▁ऑनलाइन": 4645,
      "चेस्टर": 4646,
      "▁वस्तुओं": 4647,
      "▁खि": 4648,
      "▁माउंट": 4649,
      "▁पॉप": 4650,
      "▁जोड़े": 4651,
      "▁राम": 4652,
      "दय": 4653,
      "-इ": 4654,
      "▁यूनानी": 4655,
      "▁किले": 4656,
      "ंत्रित": 4657,
      "▁माध्यमिक": 4658,
      "12": 4659,
      "▁विपरीत,": 4660,
      "▁बजे": 4661,
      "▁श्रेय": 4662,
      "▁चक्र": 4663,
      "ब्स": 4664,
      "▁कहान": 4665,
      "▁रद्द": 4666,
      "▁एसोसिएशन": 4667,
      "▁(या": 4668,
      "▁स्टीव": 4669,
      "वत्ता": 4670,
      "▁पढ़ाई": 4671,
      "▁मेक्सिको": 4672,
      "्स्की": 4673,
      "▁गतिवि": 4674,
      "▁बटाल": 4675,
      "▁धातु": 4676,
      "▁यॉर्क": 4677,
      "-8": 4678,
      "▁काट": 4679,
      "▁बने।": 4680,
      "▁मिश्रित": 4681,
      "▁हेल": 4682,
      "दृ": 4683,
      "टीन": 4684,
      "▁!": 4685,
      "▁अना": 4686,
      "जरा": 4687,
      "ट्रिक": 4688,
      "▁बंदूक": 4689,
      "▁आनंद": 4690,
      "▁इमारतों": 4691,
      "▁सटीक": 4692,
      "▁जिम": 4693,
      "▁ऑक्स": 4694,
      "▁रिहा": 4695,
      "▁इकाइयों": 4696,
      "▁गरी": 4697,
      "▁वकील": 4698,
      "▁(एक": 4699,
      "▁रखा,": 4700,
      "▁डबल": 4701,
      "▁1974": 4702,
      "▁कैप": 4703,
      "क्राम": 4704,
      "▁अर्थव्यवस्था": 4705,
      "शनल": 4706,
      "▁पेंस": 4707,
      "▁I": 4708,
      "▁सिडनी": 4709,
      "▁परेश": 4710,
      "▁ग्राह": 4711,
      "ला।": 4712,
      "▁मैचों": 4713,
      "अप": 4714,
      "▁कदम": 4715,
      "▁182": 4716,
      "▁ब्यू": 4717,
      "▁पुस्तकों": 4718,
      "▁इलेक्ट्रॉन": 4719,
      "▁क्रू": 4720,
      "▁गतिविधि": 4721,
      "▁ग्ले": 4722,
      "▁डाउन": 4723,
      "ुव": 4724,
      "▁सिं": 4725,
      "▁45": 4726,
      "▁परमाणु": 4727,
      "▁जनता": 4728,
      "भू": 4729,
      "ामान": 4730,
      "▁नवी": 4731,
      "▁\"च": 4732,
      "लाइ": 4733,
      "▁थाः": 4734,
      "▁ज्ञात": 4735,
      "▁जॉनसन": 4736,
      "टोम": 4737,
      "▁बाधा": 4738,
      "िस्को": 4739,
      "▁प्रतिभा": 4740,
      "▁चिह्नित": 4741,
      "▁हमारे": 4742,
      "ाव": 4743,
      "▁प्रशिक्षित": 4744,
      "▁विषयों": 4745,
      "▁गुणवत्ता": 4746,
      "वर्": 4747,
      "▁टू": 4748,
      "▁औद्योगिक": 4749,
      "▁खरीदा": 4750,
      "▁बीज": 4751,
      "पूर्वक": 4752,
      "▁1976": 4753,
      "▁सत्रों": 4754,
      "▁राजकुमार": 4755,
      "▁उल्ल": 4756,
      "ारीख": 4757,
      "▁बजा": 4758,
      "▁जोन्स": 4759,
      "▁संकल": 4760,
      "▁पृथ्वी": 4761,
      "▁1975": 4762,
      "▁नॉर्थ": 4763,
      "▁1981": 4764,
      "▁त्व": 4765,
      "जो": 4766,
      "▁एशिया": 4767,
      "70": 4768,
      "▁रूपा": 4769,
      "रन": 4770,
      "▁वाहन": 4771,
      "▁प्रेम": 4772,
      "▁दुश्": 4773,
      "▁बर्फ": 4774,
      "म,": 4775,
      "▁दू": 4776,
      "▁खाद्य": 4777,
      "▁कब्रिस्तान": 4778,
      "जत": 4779,
      "▁लिंग": 4780,
      "▁पाकि": 4781,
      "▁इच्छा": 4782,
      "▁भूगोल": 4783,
      "▁टोर": 4784,
      "▁अल्फ": 4785,
      "▁समग्र": 4786,
      "▁एना": 4787,
      "▁1968": 4788,
      "▁अधिकतम": 4789,
      "िनेंट": 4790,
      "पौर": 4791,
      "▁तारीख": 4792,
      "▁किंगडम": 4793,
      "▁डॉक्टर": 4794,
      "▁वस्तु": 4795,
      "▁ठहरा": 4796,
      "▁छिप": 4797,
      "▁स्कॉटलैंड": 4798,
      "▁यूनियन": 4799,
      "▁द्वीपों": 4800,
      "▁सन": 4801,
      "▁1978": 4802,
      "▁अर्ध": 4803,
      "▁भग": 4804,
      "▁शूट": 4805,
      "▁फैला": 4806,
      "▁स्वागत।": 4807,
      "एक्स": 4808,
      "▁एजेंसी": 4809,
      "▁अल्बर्ट": 4810,
      "▁घन": 4811,
      "वलोक": 4812,
      "▁कमांडर": 4813,
      "नाल्ड": 4814,
      "जूदा": 4815,
      "▁परिवर्तित": 4816,
      "▁वर्गीकरण": 4817,
      "दारों": 4818,
      "▁अम": 4819,
      "िल्वेनिया": 4820,
      "▁बांध": 4821,
      "न्ना": 4822,
      "▁तथ": 4823,
      "▁मिस्र": 4824,
      "▁प्रभाग": 4825,
      "▁बॉक्स": 4826,
      "भार": 4827,
      "शे": 4828,
      "▁1973": 4829,
      "स्टिन": 4830,
      "▁भीड़": 4831,
      "ोषित": 4832,
      "▁तोड़": 4833,
      "▁एले": 4834,
      "▁बनाम": 4835,
      "▁पदोन्नत": 4836,
      "▁मारा": 4837,
      "▁अस्तित्व": 4838,
      "बु": 4839,
      "▁दोषी": 4840,
      ",5": 4841,
      "ॉर्ट": 4842,
      "िले": 4843,
      "▁शब्दों": 4844,
      "▁महापौर": 4845,
      "▁सेंटर": 4846,
      "िंग्स": 4847,
      "युद्ध": 4848,
      "▁भागीदारी": 4849,
      "▁1977": 4850,
      "ारीरिक": 4851,
      "ेह": 4852,
      "▁हाइ": 4853,
      "-ल": 4854,
      "िया\"": 4855,
      "नाश": 4856,
      "▁मौजूदा": 4857,
      "क्का": 4858,
      "ड़कों": 4859,
      "▁प्रि": 4860,
      "ींस": 4861,
      "▁ऊँ": 4862,
      "▁संयोजन": 4863,
      "मस": 4864,
      "फन": 4865,
      "▁गैर": 4866,
      "▁यो": 4867,
      "▁डाइ": 4868,
      "खिम": 4869,
      "▁पंजी": 4870,
      "-च": 4871,
      "▁पैट": 4872,
      "▁शिक्षा।": 4873,
      "▁बरा": 4874,
      "▁ओहियो": 4875,
      "ोनी": 4876,
      "▁होकर": 4877,
      "▁ग्ला": 4878,
      "ामान्य": 4879,
      "ड्स": 4880,
      "ीकृत": 4881,
      "▁जाया": 4882,
      "▁उचित": 4883,
      "▁जर्सी": 4884,
      "▁पोलैंड": 4885,
      "▁नामांकन": 4886,
      "टाउन": 4887,
      "18": 4888,
      "▁लेता": 4889,
      "▁वेन": 4890,
      "▁ड्रॉ": 4891,
      "▁केंट": 4892,
      "▁गिरफ्तार": 4893,
      "▁एलिस": 4894,
      "▁माइक्र": 4895,
      "▁रक्त": 4896,
      "▁विधानसभा": 4897,
      "▁डिस्क": 4898,
      "▁खुले": 4899,
      "▁1971": 4900,
      "▁पोप": 4901,
      "▁उद्यम": 4902,
      "▁वितरित": 4903,
      "▁विस्तृत": 4904,
      "▁हंग": 4905,
      "▁स्टेन": 4906,
      "▁किरा": 4907,
      "▁पैरा": 4908,
      "▁हाइड": 4909,
      "▁कमजोर": 4910,
      "▁फिलीप": 4911,
      "▁संशोधित": 4912,
      "▁मिलता": 4913,
      "▁अनुसरण": 4914,
      "शः": 4915,
      "परेशन": 4916,
      "▁अंकों": 4917,
      "▁वजन": 4918,
      "नार्ड": 4919,
      "▁स्क्वाड्रन": 4920,
      "▁80": 4921,
      "▁सुस": 4922,
      "▁इज़": 4923,
      "▁कोर्ट": 4924,
      "▁मिमी": 4925,
      "▁कठोर": 4926,
      "▁पाउंड": 4927,
      "▁पारित": 4928,
      "▁1969": 4929,
      "▁चाहता": 4930,
      "धिकरण": 4931,
      "▁उपनाम": 4932,
      "▁(एन": 4933,
      "▁यूरो": 4934,
      "▁|": 4935,
      "▁अवशेष": 4936,
      "▁पहुंचने": 4937,
      "▁शारीरिक": 4938,
      "लैंगिक": 4939,
      "विंग": 4940,
      "विधान": 4941,
      "▁डिप": 4942,
      "▁बदलाव": 4943,
      "▁गिल": 4944,
      "▁जोखिम": 4945,
      "कन": 4946,
      "▁ढा": 4947,
      "संत": 4948,
      "ोटो": 4949,
      "▁III": 4950,
      "▁राइ": 4951,
      "▁प्रणालियों": 4952,
      "ष्क": 4953,
      "्रीन": 4954,
      "▁संगठनों": 4955,
      "र्टन": 4956,
      "गी,": 4957,
      "▁ब्ले": 4958,
      "मेन": 4959,
      "-अमेर": 4960,
      "काय": 4961,
      "▁जिनका": 4962,
      "▁प्रवाह": 4963,
      "▁पकड़ने": 4964,
      "▁पिट": 4965,
      "▁महीनों": 4966,
      "▁कास्ट": 4967,
      "▁179": 4968,
      "रेख": 4969,
      "▁1967": 4970,
      "ग्रस्त": 4971,
      "▁स्थितियों": 4972,
      "ाइजी": 4973,
      "स्के": 4974,
      "▁\"ओ": 4975,
      "▁ईस्ट": 4976,
      "द्युत": 4977,
      "▁एम्": 4978,
      "नेल": 4979,
      "▁नवीनी": 4980,
      "▁डाक": 4981,
      "ोवा": 4982,
      "▁कैल": 4983,
      "रावट": 4984,
      "▁टॉम": 4985,
      "श्चर्य": 4986,
      "मार्क": 4987,
      "ेशनों": 4988,
      "▁ओवर": 4989,
      "▁विज्ञापन": 4990,
      "ें,": 4991,
      "▁लेफ्टिनेंट": 4992,
      "मिट": 4993,
      "कीर्ण": 4994,
      "▁रास्ते": 4995,
      "ंसर": 4996,
      "▁मानद": 4997,
      "▁अपेक्षा": 4998,
      "▁हट": 4999,
      "▁वार्ड": 5000,
      "11": 5001,
      "▁गिरावट": 5002,
      "▁करेगा।": 5003,
      "▁\"(": 5004,
      "▁ल्यू": 5005,
      "व्या": 5006,
      "▁सड़कों": 5007,
      "▁\"का": 5008,
      "ुरा": 5009,
      "▁लॉर": 5010,
      "▁पशु": 5011,
      "िरी": 5012,
      "▁शुल्क": 5013,
      "▁इस्तीफा": 5014,
      "▁होगा": 5015,
      "पुर": 5016,
      "ज्ञात": 5017,
      "▁कमांड": 5018,
      "▁मंजूरी": 5019,
      "▁उत्पत्ति": 5020,
      "ध्यक्ष": 5021,
      "▁फॉर": 5022,
      "▁हेड": 5023,
      "▁अस्वीकार": 5024,
      "▁हिल": 5025,
      "▁बारह": 5026,
      "▁पुरा": 5027,
      "▁(जिसे": 5028,
      "▁असमर्थ": 5029,
      "ठे": 5030,
      "▁अके": 5031,
      "िश्": 5032,
      "▁देना": 5033,
      "▁मिशिगन": 5034,
      "▁प्रतीक": 5035,
      "▁पुनर्निर्माण": 5036,
      "-एक": 5037,
      "▁उपकरणों": 5038,
      "बेक": 5039,
      "▁लॉर्ड": 5040,
      "▁सिस्टम": 5041,
      "▁संविधान": 5042,
      "वारी": 5043,
      "▁स्टेट": 5044,
      "▁स्टेशनों": 5045,
      "मिक्स": 5046,
      "बिया": 5047,
      "▁विधि": 5048,
      "फिया": 5049,
      "▁क्रिकेट": 5050,
      "▁सिंग": 5051,
      "▁खदान": 5052,
      "▁पुरस्कारों": 5053,
      "▁भगवान": 5054,
      "▁ईर": 5055,
      "▁1944": 5056,
      "▁अनुप्रयोग": 5057,
      "▁70": 5058,
      "▁चित्रों": 5059,
      "▁(उ": 5060,
      "▁रहे,": 5061,
      "▁सेमीफ": 5062,
      "ैंक": 5063,
      "▁श्रमिकों": 5064,
      "▁थेः": 5065,
      "▁तरफ": 5066,
      "▁तोप": 5067,
      "▁सैंड": 5068,
      "▁समझा": 5069,
      "ऑफ़": 5070,
      "▁सैनिक": 5071,
      "▁सुंदर": 5072,
      "▁सिल": 5073,
      "▁बटालियन": 5074,
      "-अप": 5075,
      "▁होम": 5076,
      "▁एलिजा": 5077,
      "▁लॉन्च": 5078,
      "▁पायल": 5079,
      "▁तकनीक": 5080,
      "▁सरा": 5081,
      "िनल": 5082,
      "▁सेकंड": 5083,
      "वनी": 5084,
      "15": 5085,
      "▁लिखे": 5086,
      "▁बोली": 5087,
      "क्षणिक": 5088,
      "गे,": 5089,
      "▁आंक": 5090,
      "▁ओपन": 5091,
      "▁ड्यूक": 5092,
      "▁लू": 5093,
      "धियों": 5094,
      "क्रामक": 5095,
      "▁(फ": 5096,
      "▁जला": 5097,
      "▁बनाते": 5098,
      "▁\"यह": 5099,
      "▁500": 5100,
      "▁मध्यम": 5101,
      "▁उत्तर-पश्चिम": 5102,
      "णन": 5103,
      "▁विद्युत": 5104,
      "▁दिए।": 5105,
      "▁अधिकारों": 5106,
      "▁लेखकों": 5107,
      "▁ब्रुक": 5108,
      "राष्ट्रीय": 5109,
      "▁राउंड": 5110,
      "▁स्टोर": 5111,
      "सीय": 5112,
      "▁पेंसिल्वेनिया": 5113,
      "जनन": 5114,
      "कॉम": 5115,
      "िस,": 5116,
      "▁क्रमशः": 5117,
      "वार्य": 5118,
      "▁मानचित्र": 5119,
      "जिस्टर": 5120,
      "▁शास्त्र": 5121,
      "▁हजार": 5122,
      "▁पायलट": 5123,
      "▁सीख": 5124,
      "ुद्ध": 5125,
      "▁सश": 5126,
      "▁दफनाया": 5127,
      "▁बढ़ती": 5128,
      "▁बोस्टन": 5129,
      "ंकिंग": 5130,
      "▁प्रोत्साहित": 5131,
      "▁यूनिवर्स": 5132,
      "▁ऑपरेशन": 5133,
      "▁लुइस": 5134,
      "▁नौकरी": 5135,
      "▁सीडी": 5136,
      "ोड़": 5137,
      "धनों": 5138,
      "▁1964": 5139,
      "यो": 5140,
      "▁शिखर": 5141,
      "▁विचारों": 5142,
      "▁क्षति": 5143,
      "िंग,": 5144,
      "▁ड्रा": 5145,
      "▁सेल": 5146,
      "▁अध्या": 5147,
      "▁पादरी": 5148,
      "▁परिवारों": 5149,
      "-बार": 5150,
      "▁उल्लंघ": 5151,
      "▁आश्चर्य": 5152,
      "▁1965": 5153,
      "ंबित": 5154,
      "▁विस्तारित": 5155,
      "▁ब्लॉक": 5156,
      "▁वसंत": 5157,
      "▁सिनेमा": 5158,
      "▁90": 5159,
      "▁टाइ": 5160,
      "▁डेट": 5161,
      "▁ऑर्के": 5162,
      "▁इलिन": 5163,
      "▁कने": 5164,
      "राइल": 5165,
      "▁झा": 5166,
      "▁तैनात": 5167,
      "केन": 5168,
      "ंचे": 5169,
      "▁सुनिश्चित": 5170,
      "मंडल": 5171,
      "▁पात्रों": 5172,
      "▁किश": 5173,
      "▁बचने": 5174,
      "म्मत": 5175,
      "ेंगे।": 5176,
      "▁रिज": 5177,
      "▁शैक्षणिक": 5178,
      "▁मिश्रण": 5179,
      "▁टैंक": 5180,
      "▁वॉन": 5181,
      "▁पुर्त": 5182,
      "▁आलोचकों": 5183,
      "▁पेंट": 5184,
      "▁(सी.": 5185,
      "▁हल": 5186,
      "▁रजिस्टर": 5187,
      "▁बर्लिन": 5188,
      "▁संक्रमण": 5189,
      "▁खीं": 5190,
      "▁अज्ञात": 5191,
      "म्फ": 5192,
      "▁चुनावों": 5193,
      "▁तनाव": 5194,
      "▁\",": 5195,
      "▁उद्ध": 5196,
      "▁सी.)": 5197,
      "लिक": 5198,
      "▁एवेन": 5199,
      "रोधी": 5200,
      "▁सेमीफाइनल": 5201,
      "▁मठ": 5202,
      "▁स्कॉटिश": 5203,
      "मंत्र": 5204,
      "▁फेंक": 5205,
      "▁बल्ले": 5206,
      "▁क्रांति": 5207,
      "गान": 5208,
      "▁चट्टान": 5209,
      "▁भौतिक": 5210,
      "▁बढ़ने": 5211,
      "ुप": 5212,
      "रे-": 5213,
      "▁प्रवास": 5214,
      "▁अक्ष": 5215,
      "▁समलैंगिक": 5216,
      "▁1966": 5217,
      "▁डेस": 5218,
      "▁तार": 5219,
      "▁चाहिए,": 5220,
      "▁संशोधन": 5221,
      "िन,": 5222,
      "हेम": 5223,
      "शान": 5224,
      "▁मुकदमा": 5225,
      "▁दर्शाता": 5226,
      "▁20वीं": 5227,
      "▁खर्च": 5228,
      "▁उदार": 5229,
      "▁विलियम्स": 5230,
      "▁रेसिंग": 5231,
      "▁पैन": 5232,
      "▁चढ़": 5233,
      "▁सरल": 5234,
      "िबंध": 5235,
      "र्नी": 5236,
      "त्मा": 5237,
      "ो\"": 5238,
      "▁इलिनोइस": 5239,
      "▁ऊंचाई": 5240,
      "▁विजय": 5241,
      "▁एवेन्यू": 5242,
      "▁मेरे": 5243,
      "स्ल": 5244,
      "▁1942": 5245,
      "▁सॉफ्टवेयर": 5246,
      "▁शान": 5247,
      "▁कॉमेडी": 5248,
      "ूली": 5249,
      "िबंधीय": 5250,
      "िव्य": 5251,
      "कटिबंधीय": 5252,
      "ष्णकटिबंधीय": 5253,
      "▁वाता": 5254,
      "फिक": 5255,
      "▁बू": 5256,
      "%)": 5257,
      "▁अपील": 5258,
      "सेट्स": 5259,
      "▁बेड़े": 5260,
      "▁नहीं।": 5261,
      "▁पियानो": 5262,
      "▁डेर": 5263,
      "▁फ़्रांस": 5264,
      "▁टोक": 5265,
      "▁घनत्व": 5266,
      "▁साइड": 5267,
      "ेरिया": 5268,
      "ंगत": 5269,
      "▁मों": 5270,
      "▁जंगल": 5271,
      "▁33": 5272,
      "ेरा": 5273,
      "▁मक": 5274,
      "▁तत्वों": 5275,
      "▁डॉ.": 5276,
      "▁उन्नत": 5277,
      "ोनिक": 5278,
      "▁प्रतीत": 5279,
      "▁\"को": 5280,
      "▁मारिया": 5281,
      "ंस्य": 5282,
      "▁होगी।": 5283,
      "▁फिलीपींस": 5284,
      "▁कोरिया": 5285,
      "▁किलो": 5286,
      "▁वातावरण": 5287,
      "▁उपाधि": 5288,
      "▁आमंत्रित": 5289,
      "शीलता": 5290,
      "▁आवाज": 5291,
      "▁अधीन": 5292,
      "ॉर्डन": 5293,
      "दाताओं": 5294,
      "जी.": 5295,
      "▁अवलोक": 5296,
      "स्लाव": 5297,
      "▁कौशल": 5298,
      "खिक": 5299,
      "▁कैंसर": 5300,
      "▁ए.)": 5301,
      "▁समृ": 5302,
      "ेदारी": 5303,
      "चुसेट्स": 5304,
      "▁समाधान": 5305,
      "▁अनिवार्य": 5306,
      "साचुसेट्स": 5307,
      "▁एलिजाबेथ": 5308,
      "्रैक": 5309,
      "▁नियमों": 5310,
      "▁जमीन": 5311,
      "▁जानी": 5312,
      "▁ऑर्केस्ट्रा": 5313,
      "-20": 5314,
      "▁चारों": 5315,
      "▁स्तंभ": 5316,
      "▁माइक": 5317,
      "▁हास्य": 5318,
      "िस\"": 5319,
      "र्स्ट": 5320,
      "▁परियोजनाओं": 5321,
      "ोसी": 5322,
      "▁समस्याओं": 5323,
      "▁प्रयोगशाला": 5324,
      "▁हराया।": 5325,
      "▁शरण": 5326,
      "ल\"": 5327,
      "▁संयंत्र": 5328,
      "▁फिल्मा": 5329,
      "▁कपड़े": 5330,
      "न्सन": 5331,
      "▁प्रोग्राम": 5332,
      "यार्ड": 5333,
      "▁तस्वीर": 5334,
      "▁ओक": 5335,
      "स्टिक": 5336,
      "टार": 5337,
      "▁बर्ग": 5338,
      "▁छवि": 5339,
      "▁पंक्ति": 5340,
      "▁पेड़": 5341,
      "▁(यू": 5342,
      "मै": 5343,
      "ंख्य": 5344,
      "▁कांस्य": 5345,
      "गरानी": 5346,
      "▁जूल": 5347,
      "ष्कार": 5348,
      "▁मोंट": 5349,
      "▁दक्षिण-पश्चिम": 5350,
      "▁विंग": 5351,
      "टीय": 5352,
      "▁कल्पना": 5353,
      "▁44": 5354,
      "▁वर्गीकृत": 5355,
      "चय": 5356,
      "▁बास": 5357,
      "▁एक्सप": 5358,
      "फॉर्म": 5359,
      "▁1941": 5360,
      "स्टार": 5361,
      "▁खुलासा": 5362,
      "ोग्राफी": 5363,
      "वंश": 5364,
      "▁उल्लंघन": 5365,
      "▁आया।": 5366,
      "▁तथ्य": 5367,
      "▁मैसाचुसेट्स": 5368,
      "ॉन्स": 5369,
      "प्स": 5370,
      "▁(198": 5371,
      "▁उत्पादों": 5372,
      "▁वियत": 5373,
      "▁शक्तिशाली": 5374,
      "▁बराबर": 5375,
      "▁(3": 5376,
      "▁बदले": 5377,
      "▁परेशान": 5378,
      "▁प्रोटीन": 5379,
      "▁मारने": 5380,
      "मंच": 5381,
      "▁एक्": 5382,
      "▁36": 5383,
      "▁खाली": 5384,
      "▁फिला": 5385,
      "▁चिकित्स": 5386,
      "▁निगरानी": 5387,
      "झेदारी": 5388,
      "▁रहा,": 5389,
      "इंग": 5390,
      "▁स्न": 5391,
      "फ्र": 5392,
      "▁वुड": 5393,
      "▁जनजा": 5394,
      "क्तियों": 5395,
      "▁मंग": 5396,
      "ेंटीना": 5397,
      "▁पृष्ठभूमि।": 5398,
      "ल्जियम": 5399,
      "र्ध": 5400,
      "स्तरा": 5401,
      "▁कठिन": 5402,
      "▁थोड़ा": 5403,
      "16": 5404,
      "▁अगली": 5405,
      "▁साझेदारी": 5406,
      "ल्पनिक": 5407,
      "▁कोरियाई": 5408,
      "▁अभिनेत्री": 5409,
      "▁ट्रा": 5410,
      "▁कॉर्प": 5411,
      "▁(ड": 5412,
      "वों": 5413,
      "▁लड़की": 5414,
      "▁निल": 5415,
      "▁पिक": 5416,
      "▁संदेह": 5417,
      "▁1948": 5418,
      "▁लिन": 5419,
      "▁विशेषताओं": 5420,
      "▁मिलने": 5421,
      "▁वृत्तचित्र": 5422,
      "दाता": 5423,
      "▁प्रोट": 5424,
      "14": 5425,
      "▁पीछा": 5426,
      "हम्म": 5427,
      "ॉन्": 5428,
      "पोर्ट": 5429,
      "णियों": 5430,
      "▁डर": 5431,
      "▁ली।": 5432,
      "▁निर्वाचन": 5433,
      "▁बोन": 5434,
      "त्तर": 5435,
      "रेज": 5436,
      "▁रंगमंच": 5437,
      "▁बनाना": 5438,
      "ii": 5439,
      "▁फार": 5440,
      "डेल्फ": 5441,
      "दूत": 5442,
      "▁विला": 5443,
      "▁करोड़": 5444,
      "बेन": 5445,
      "▁कॉन्": 5446,
      "▁ट्रॉ": 5447,
      "▁घास": 5448,
      "▁विक्टोरिया": 5449,
      "▁घुड़": 5450,
      "▁(एम": 5451,
      "▁1962": 5452,
      "▁कर्त": 5453,
      "▁मांस": 5454,
      "▁बहस": 5455,
      "क्ष्म": 5456,
      "▁खतरे": 5457,
      "▁इज़राइल": 5458,
      "▁सेवानिवृत्ति": 5459,
      "श्किल": 5460,
      "▁परिप": 5461,
      "▁रेस्तरा": 5462,
      "ंथी": 5463,
      "ई,": 5464,
      "▁बिग": 5465,
      "▁पुराना": 5466,
      "▁हैरिस": 5467,
      "▁कमरे": 5468,
      "▁पीढ़ी": 5469,
      "▁1943": 5470,
      "ूहिक": 5471,
      "दरलैंड": 5472,
      "▁कल": 5473,
      "दक": 5474,
      "िवारिक": 5475,
      "▁चेता": 5476,
      "75": 5477,
      "केल": 5478,
      "▁हस्तक्षेप": 5479,
      "ोलॉजी": 5480,
      "▁बढ़ते": 5481,
      "▁फुटबॉलर": 5482,
      "▁सुविधाओं": 5483,
      "▁दृढ़": 5484,
      "▁वाद्य": 5485,
      "▁बौद्ध": 5486,
      "▁रहती": 5487,
      "▁राय": 5488,
      "▁प्रतिबंधित": 5489,
      "-201": 5490,
      "▁वनस्प": 5491,
      "विज्ञान": 5492,
      "तायात": 5493,
      "▁एल्": 5494,
      "▁रहस्य": 5495,
      "▁शीत": 5496,
      "▁पहन": 5497,
      "ंतीय": 5498,
      "▁पर्वत": 5499,
      "हम्मद": 5500,
      "टीवी": 5501,
      "13": 5502,
      "स्थान": 5503,
      "▁प्रदर्शनों": 5504,
      "▁खेत": 5505,
      "टकथा": 5506,
      "▁नेताओं": 5507,
      "▁भाइयों": 5508,
      "▁बहाल": 5509,
      "▁विंड": 5510,
      "▁मतलब": 5511,
      "मिल": 5512,
      "▁कृत": 5513,
      "काब": 5514,
      "▁द्वि": 5515,
      "▁सोने": 5516,
      "▁मुश्किल": 5517,
      "▁1963": 5518,
      "▁पन": 5519,
      "िये": 5520,
      "▁कोलंबिया": 5521,
      "▁संकाय": 5522,
      "▁1939": 5523,
      "▁बैट": 5524,
      "▁हान": 5525,
      "▁जातीय": 5526,
      "नेटर": 5527,
      "सवार": 5528,
      "▁नागरिकों": 5529,
      "ंख्यिकी": 5530,
      "त्तियों": 5531,
      "▁कम्यु": 5532,
      "ैग": 5533,
      "▁अनुदान": 5534,
      "▁विल्सन": 5535,
      "किन्स": 5536,
      "▁बेल्जियम": 5537,
      "ज़,": 5538,
      "▁1946": 5539,
      "ब्रे": 5540,
      "▁अभिव्य": 5541,
      "▁किशोर": 5542,
      "▁यातायात": 5543,
      "▁तरीकों": 5544,
      "ंसक": 5545,
      "िसा": 5546,
      "▁इत": 5547,
      "▁प्रभावों": 5548,
      "▁खान": 5549,
      "▁टच": 5550,
      "-10": 5551,
      "▁धो": 5552,
      "▁रेटिंग": 5553,
      "▁सवार": 5554,
      "▁आह": 5555,
      "▁ग्रंथ": 5556,
      "▁(आई": 5557,
      "▁अटलांटिक": 5558,
      "▁हांग": 5559,
      "▁कोय": 5560,
      "▁\"वा": 5561,
      "▁टुकड़े": 5562,
      "ंदीदा": 5563,
      "▁इतिहासकार": 5564,
      "▁मस": 5565,
      "भौ": 5566,
      "▁टक": 5567,
      "▁हार्ड": 5568,
      "ख्त": 5569,
      "▁पटकथा": 5570,
      "-सी": 5571,
      "▁एकीकृत": 5572,
      "▁कहा।": 5573,
      "-सं": 5574,
      "▁खोजने": 5575,
      "▁शास्त्रीय": 5576,
      "हीन": 5577,
      "▁दरवा": 5578,
      "▁भूगोल।": 5579,
      "▁समुदायों": 5580,
      "▁टर्म": 5581,
      "▁नीं": 5582,
      "▁गज": 5583,
      "▁मानते": 5584,
      "हैम": 5585,
      "▁अतिथि": 5586,
      "▁संभाल": 5587,
      "क्सन": 5588,
      "▁ड्राइव": 5589,
      "▁लाने": 5590,
      "याँ": 5591,
      "▁बाउ": 5592,
      "21": 5593,
      "▁चूंकि": 5594,
      "▁मिलाकर": 5595,
      "▁नीदरलैंड": 5596,
      "▁आसानी": 5597,
      "सेव": 5598,
      "▁प्राधिकरण": 5599,
      "▁संकट": 5600,
      "▁सिन": 5601,
      "▁तैयारी": 5602,
      "धीरे": 5603,
      "▁प्रथा": 5604,
      "▁परिदृ": 5605,
      "▁34": 5606,
      "▁गहरे": 5607,
      "▁साहित्यिक": 5608,
      "ंठ": 5609,
      "िथ": 5610,
      "▁मोड़": 5611,
      "सिया": 5612,
      "हेड": 5613,
      "▁पैटर्न": 5614,
      "रे-धीरे": 5615,
      "र्पण": 5616,
      "क्रेन": 5617,
      "▁\"ला": 5618,
      "▁यहां": 5619,
      "▁हटाने": 5620,
      "वाही": 5621,
      "ल्डर": 5622,
      "▁हो।": 5623,
      "▁नैतिक": 5624,
      "▁कैट": 5625,
      "ागर": 5626,
      "▁बीमारी": 5627,
      "-17": 5628,
      "▁चिंता": 5629,
      "त्रियों": 5630,
      "▁सौंपा": 5631,
      "्वान": 5632,
      "व्यापी": 5633,
      "▁अपेक्षाकृत": 5634,
      "ाइक": 5635,
      "▁नामांकित": 5636,
      "कट्": 5637,
      "▁सामूहिक": 5638,
      "▁आवरण": 5639,
      "!\"": 5640,
      "श्यों": 5641,
      "ल्टा": 5642,
      "बामा": 5643,
      "▁बाढ़": 5644,
      "कट्ठा": 5645,
      "▁आरक्षित": 5646,
      "▁घोड़े": 5647,
      "▁से।": 5648,
      "हता": 5649,
      "▁1961": 5650,
      "▁पत्रों": 5651,
      "▁महाविद्यालय": 5652,
      "▁जेड": 5653,
      "ंकी": 5654,
      "▁फाइ": 5655,
      "▁होगा,": 5656,
      "▁संदेश": 5657,
      "▁भाषण": 5658,
      "-200": 5659,
      "▁(अब": 5660,
      "▁धीरे-धीरे": 5661,
      "▁(व": 5662,
      "▁बॉय": 5663,
      "▁(एन.": 5664,
      "▁दुर्लभ": 5665,
      "▁राजवंश": 5666,
      "▁प्रजातियाँ": 5667,
      "्ज": 5668,
      "▁स्वीडिश": 5669,
      "▁(जो": 5670,
      "▁इकट्ठा": 5671,
      "ई।": 5672,
      "▁सोम": 5673,
      "▁कुश्ती": 5674,
      "▁दक्षिण-पूर्व": 5675,
      "▁प्रस्तावित": 5676,
      "▁फिलाडेल्फ": 5677,
      "▁भव्य": 5678,
      ",6": 5679,
      "ैश": 5680,
      ",19": 5681,
      "▁उपाध्यक्ष": 5682,
      "क्व": 5683,
      "▁करेंगे।": 5684,
      "▁मेजबान": 5685,
      "▁(न": 5686,
      "▁आत्मा": 5687,
      "▁दैनिक": 5688,
      "▁पसंदीदा": 5689,
      "मोंट": 5690,
      "▁वायर": 5691,
      "▁जोड़ने": 5692,
      "▁वें": 5693,
      "▁प्रांतीय": 5694,
      "▁अर्जेंटीना": 5695,
      "▁शानदार": 5696,
      "▁चेतावनी": 5697,
      "▁प्रतिष्ठित": 5698,
      "नाक": 5699,
      "▁घुड़सवार": 5700,
      "▁अनुरूप": 5701,
      "ब्बी": 5702,
      "▁अमेरिकन": 5703,
      "िसन": 5704,
      "िज़": 5705,
      "▁निपट": 5706,
      "▁ट्व": 5707,
      "▁इंक": 5708,
      "▁(द": 5709,
      "पेक्ष": 5710,
      "चालित": 5711,
      "▁डेनियल": 5712,
      "देशी": 5713,
      "▁दोहरा": 5714,
      "▁1947": 5715,
      "बीसी": 5716,
      "▁मेट्रो": 5717,
      "िडे": 5718,
      "▁टिकट": 5719,
      "▁कारणों": 5720,
      "नी,": 5721,
      "▁आक्रामक": 5722,
      "▁मीन": 5723,
      "ट्ज़": 5724,
      "टारियो": 5725,
      "ओंटारियो": 5726,
      "▁गी": 5727,
      "ियाँ।": 5728,
      "माउथ": 5729,
      "▁टूर": 5730,
      "▁सूर्": 5731,
      "▁वास्तुकार": 5732,
      "▁रही।": 5733,
      "▁सीनेटर": 5734,
      "▁ईंधन": 5735,
      "▁भाषाओं": 5736,
      "▁उपयुक्त": 5737,
      "न्होंने": 5738,
      "▁शिक्षण": 5739,
      "▁पड़ता": 5740,
      "▁जमा": 5741,
      ",4": 5742,
      "▁पारिवारिक": 5743,
      "▁सूक्ष्म": 5744,
      "▁खड़ा": 5745,
      "▁दुश्मन": 5746,
      "ेक्ट": 5747,
      "17": 5748,
      "▁बगल": 5749,
      "▁हथियार": 5750,
      "▁रेंज": 5751,
      "▁समन्व": 5752,
      "▁गोला": 5753,
      "▁रवाना": 5754,
      "▁अवै": 5755,
      "▁कैम्": 5756,
      "▁1956": 5757,
      "▁स्लो": 5758,
      "▁कहना": 5759,
      "ंछ": 5760,
      "ॉर्न": 5761,
      "थी": 5762,
      "▁प्रतियोगिताओं": 5763,
      "▁समर्थित": 5764,
      "▁असामान्य": 5765,
      "ल्श": 5766,
      "▁संवाद": 5767,
      "▁पाकिस्तान": 5768,
      "▁जैज़": 5769,
      "▁1958": 5770,
      "्ड": 5771,
      "▁\"ऑ": 5772,
      "▁स्वर": 5773,
      "सन,": 5774,
      "▁हराया": 5775,
      "राम": 5776,
      "▁लड़कियों": 5777,
      "▁सांता": 5778,
      "▁विनाश": 5779,
      "राल": 5780,
      "▁उज": 5781,
      "▁विल्": 5782,
      "▁मनुष": 5783,
      "▁संस्कार": 5784,
      "▁व्युत्": 5785,
      "▁64": 5786,
      "▁अनुमानित": 5787,
      "▁हल्के": 5788,
      "▁जीता,": 5789,
      "ले,": 5790,
      "▁आते": 5791,
      "▁आश": 5792,
      "▁प्यू": 5793,
      "र्ब": 5794,
      "पनिवेश": 5795,
      "▁संधि": 5796,
      "▁गणना": 5797,
      "-जैसे": 5798,
      "▁\"और": 5799,
      "▁निरी": 5800,
      "▁महामारी": 5801,
      "▁रिश्": 5802,
      "राक": 5803,
      "ैप": 5804,
      "▁क्लार्क": 5805,
      "्रम": 5806,
      "▁नकारात्मक": 5807,
      "▁सवारी": 5808,
      "▁नवीनीकरण": 5809,
      "▁स्टील": 5810,
      "लु": 5811,
      "▁ओंटारियो": 5812,
      "▁वेल": 5813,
      "▁सहयोगियों": 5814,
      "▁हथियारों": 5815,
      "स्टोन": 5816,
      "▁प्रभावशाली": 5817,
      "▁रणनीति": 5818,
      "▁सदस्यता": 5819,
      "▁पक्षी": 5820,
      "▁कीमत": 5821,
      "क्रे": 5822,
      "िस्क": 5823,
      "▁प्रजनन": 5824,
      "▁समर्थक": 5825,
      "▁आख": 5826,
      "▁आदर्श": 5827,
      "▁कंट": 5828,
      "90": 5829,
      "▁असफल": 5830,
      "▁कब्जे": 5831,
      "▁बोर": 5832,
      "▁इंडियाना": 5833,
      "विवार": 5834,
      "▁गेट": 5835,
      "▁अनुक्रम": 5836,
      "फार": 5837,
      "▁शुद्ध": 5838,
      "▁अग्रणी": 5839,
      "▁1959": 5840,
      "सक": 5841,
      "▁राशि": 5842,
      "▁इम": 5843,
      "▁केप": 5844,
      "▁ग्रेड": 5845,
      "▁कम्युनिस्ट": 5846,
      "▁मुकदमे": 5847,
      "िकियों": 5848,
      "ोसिस": 5849,
      "▁डेविस": 5850,
      "▁इंटरनेट": 5851,
      "िलों": 5852,
      "▁आलोचनात्मक": 5853,
      "▁काल्पनिक": 5854,
      "ियट": 5855,
      "▁गणित": 5856,
      "▁बाई": 5857,
      "▁जैव": 5858,
      "▁लिखित": 5859,
      "▁38": 5860,
      "क्षिक": 5861,
      "जात": 5862,
      "▁वर्ष,": 5863,
      "▁फ्रेडरिक": 5864,
      "ापुर": 5865,
      "▁कोलो": 5866,
      "▁स्क्रीन": 5867,
      "▁छाप": 5868,
      "▁उजागर": 5869,
      "▁धारणा": 5870,
      "▁रेस्तरां": 5871,
      "▁वाय": 5872,
      "-पश्चिमी": 5873,
      ",3": 5874,
      "▁देर": 5875,
      "▁1957": 5876,
      "▁सहमति": 5877,
      "तंक": 5878,
      "▁विश्वविद्यालय,": 5879,
      "▁दायर": 5880,
      "▁बताता": 5881,
      "ैंट": 5882,
      "▁मॉन्": 5883,
      "ात्मक": 5884,
      "र्मित": 5885,
      "▁\"मु": 5886,
      "▁चलाने": 5887,
      "▁प्रतिद्वंद्वी": 5888,
      "▁हित": 5889,
      "▁काली": 5890,
      "▁प्लेऑफ़": 5891,
      "▁दर्शन": 5892,
      "▁(ग": 5893,
      "बार": 5894,
      "▁एरिक": 5895,
      "▁मार्गदर्श": 5896,
      "ोत्सव": 5897,
      "कांग": 5898,
      "▁बैक": 5899,
      "पनिवेशिक": 5900,
      "वादक": 5901,
      "▁हमें": 5902,
      "▁कोट": 5903,
      "▁टेलर": 5904,
      "▁सर्दियों": 5905,
      "▁ब्रायन": 5906,
      "निर्मित": 5907,
      "▁लड़कों": 5908,
      "▁रॉयल": 5909,
      "▁स्रोतों": 5910,
      "▁खंडों": 5911,
      "धानिक": 5912,
      "▁हार्ट": 5913,
      "▁बेर": 5914,
      "ोसाइ": 5915,
      "▁महास": 5916,
      "रेटर": 5917,
      "▁(17": 5918,
      "▁शर्त": 5919,
      "▁समृद्ध": 5920,
      "▁खार": 5921,
      "ेज़": 5922,
      "▁1949": 5923,
      "व्र": 5924,
      "▁मेह": 5925,
      "▁बचाने": 5926,
      "▁कहीं": 5927,
      "▁द्र": 5928,
      "▁जानवरों": 5929,
      "▁फोर्ट": 5930,
      "▁जुड़ी": 5931,
      "▁विविधता": 5932,
      "▁डैन": 5933,
      "--------": 5934,
      "▁धम": 5935,
      "▁उष्णकटिबंधीय": 5936,
      "रेस": 5937,
      "▁डिक": 5938,
      "▁परिणामों": 5939,
      "▁फ्रांसिस": 5940,
      "▁रिव": 5941,
      "ंगी": 5942,
      "▁संबो": 5943,
      "▁सौदे": 5944,
      "▁कोविड": 5945,
      "ज,": 5946,
      "▁कैम्प": 5947,
      "▁इजरा": 5948,
      "▁चैपल": 5949,
      "मांड": 5950,
      "डन": 5951,
      "सनीय": 5952,
      "▁1918": 5953,
      "▁बाद।": 5954,
      "▁ब्यूरो": 5955,
      "▁प्रतिरोध": 5956,
      "▁मैंने": 5957,
      "▁पांचवें": 5958,
      "▁सशस्त्र": 5959,
      "▁पड़ोसी": 5960,
      "▁(और": 5961,
      "▁साइकिल": 5962,
      "▁मिया": 5963,
      "▁स्क्र": 5964,
      "धों": 5965,
      "▁कहता": 5966,
      "▁खेले।": 5967,
      "िसी": 5968,
      "द्रा": 5969,
      "ूनों": 5970,
      "▁टाउनशिप": 5971,
      "▁ओरे": 5972,
      "▁समापन": 5973,
      "▁एल्बम,": 5974,
      "▁लड़ने": 5975,
      "खे": 5976,
      "▁\"मैं": 5977,
      "▁साह": 5978,
      "▁रोबर्ट": 5979,
      "▁निरा": 5980,
      "ोरा": 5981,
      "▁इंडोने": 5982,
      "यत": 5983,
      "▁1955": 5984,
      "▁एक,": 5985,
      "▁महासा": 5986,
      "▁गहराई": 5987,
      "▁गिन": 5988,
      "▁किया;": 5989,
      "25": 5990,
      "डिया": 5991,
      "▁यूके": 5992,
      "▁एक्स.": 5993,
      "▁माय": 5994,
      "▁गर्भ": 5995,
      "▁मेन": 5996,
      "यिक": 5997,
      "▁मल": 5998,
      "स्कर": 5999,
      "▁1952": 6000,
      "▁संस्करणों": 6001,
      "▁स्वीडन": 6002,
      "श्वे": 6003,
      "▁भंग": 6004,
      "▁क्लासिक": 6005,
      "▁वर्षीय": 6006,
      "लीफ": 6007,
      "▁पहाड़ों": 6008,
      "किट": 6009,
      "▁वनस्पति": 6010,
      "▁लिखते": 6011,
      "कोव": 6012,
      "▁बीस": 6013,
      "▁पुनर": 6014,
      "▁निर्माताओं": 6015,
      "▁जिनकी": 6016,
      "िली": 6017,
      "पने": 6018,
      "▁उपाय": 6019,
      "▁उनसे": 6020,
      "ुता": 6021,
      "▁ध्वस्त": 6022,
      "▁रिंग": 6023,
      "बरा": 6024,
      "ौरी": 6025,
      "▁आवाज़": 6026,
      "▁1953": 6027,
      "▁जादू": 6028,
      "दीय": 6029,
      "▁अर्हता": 6030,
      "▁आकर्षण": 6031,
      "▁स्टैंड": 6032,
      "▁लिखा,": 6033,
      "▁बजट": 6034,
      "▁मसौ": 6035,
      "▁दृष्टि": 6036,
      "वर्थ": 6037,
      "▁1954": 6038,
      "▁फोन": 6039,
      "▁अनुप": 6040,
      "▁खारिज": 6041,
      "दिन": 6042,
      "▁महोत्सव": 6043,
      "▁अवैध": 6044,
      "▁बुक": 6045,
      "क्षकों": 6046,
      "▁क्लबों": 6047,
      "▁व्यवस्थित": 6048,
      "ोर्ट्स": 6049,
      "▁छुट": 6050,
      "वट": 6051,
      "▁लोकतंत्र": 6052,
      "▁अंडर": 6053,
      "▁आह्वान": 6054,
      "........": 6055,
      "▁उपभ": 6056,
      "प्ले": 6057,
      "ंटों": 6058,
      "▁37": 6059,
      "ैल": 6060,
      "▁लिमिट": 6061,
      "▁बयान": 6062,
      "▁ब्रैड": 6063,
      "-16": 6064,
      "▁लिंक": 6065,
      "लाइट": 6066,
      "▁दीर्": 6067,
      "याब": 6068,
      "फारिश": 6069,
      "▁पहुंचा": 6070,
      "पत्र": 6071,
      "ार्टमेंट": 6072,
      "▁हिंसा": 6073,
      "▁कर्": 6074,
      "▁जंगली": 6075,
      "▁सिफारिश": 6076,
      "▁प्रत्यक्ष": 6077,
      "एम.": 6078,
      "-अमेरिकी": 6079,
      "▁आपराधिक": 6080,
      "खी": 6081,
      "▁गार": 6082,
      "▁निको": 6083,
      "च्छेद": 6084,
      "▁फिलाडेल्फिया": 6085,
      "ज्ञा": 6086,
      "▁मॉड": 6087,
      "▁लाया": 6088,
      "▁तत्कालीन": 6089,
      "न्हें": 6090,
      "▁एथलेटिक": 6091,
      "▁प्लॉट": 6092,
      "जु": 6093,
      "▁परीक्षा": 6094,
      "▁मार्शल": 6095,
      "▁किलोमीटर": 6096,
      "▁मेर": 6097,
      "▁अंतर्": 6098,
      "▁जनसा": 6099,
      "डी।": 6100,
      "▁साउंड": 6101,
      "▁नहर": 6102,
      "रियाई": 6103,
      "रसन": 6104,
      "▁गायन": 6105,
      "▁जीती।": 6106,
      "चक": 6107,
      "वधान": 6108,
      "प्ताहिक": 6109,
      "ँचाई": 6110,
      "▁ड्रे": 6111,
      "▁संस्थानों": 6112,
      "ंगे": 6113,
      "▁आतंक": 6114,
      "िस्थित": 6115,
      "▁बॉब": 6116,
      "-12": 6117,
      "गेट": 6118,
      "-ऑफ": 6119,
      "▁उद्देश्यों": 6120,
      "▁लिखी": 6121,
      "▁छोड़कर": 6122,
      "▁कहानियों": 6123,
      "▁भूरे": 6124,
      "▁1919": 6125,
      "▁हर्": 6126,
      "▁उत्स": 6127,
      "▁निकोल": 6128,
      "▁मानसिक": 6129,
      "▁मुद्दे": 6130,
      "▁टचडाउन": 6131,
      "▁पर।": 6132,
      "▁भाग्य": 6133,
      "▁इंगित": 6134,
      "▁लिमिटेड": 6135,
      "▁वर्णन।": 6136,
      "▁हूँ": 6137,
      "ूसरे": 6138,
      "▁आपको": 6139,
      "▁ठोस": 6140,
      "▁खड़े": 6141,
      "▁फेम": 6142,
      "ियर्स": 6143,
      "▁फीट": 6144,
      "▁औपनिवेशिक": 6145,
      "▁परिदृश्य": 6146,
      "▁सवाल": 6147,
      "वादा": 6148,
      "अल": 6149,
      "▁यूक्रेन": 6150,
      "▁स्ल": 6151,
      "▁मिलती": 6152,
      "▁कार्ट": 6153,
      "▁यार्ड": 6154,
      "णिक": 6155,
      "▁मिलकर": 6156,
      "▁मोब": 6157,
      "▁पतन": 6158,
      "▁लिखने": 6159,
      "▁ऊँचाई": 6160,
      "▁कोविड-19": 6161,
      "▁हमलों": 6162,
      "▁कुलीन": 6163,
      "▁स्टीफन": 6164,
      "▁उल": 6165,
      "फोन": 6166,
      "▁आए,": 6167,
      "▁रक्षक": 6168,
      "▁(197": 6169,
      "▁प्रतिनिधियों": 6170,
      "▁आया,": 6171,
      "क्या": 6172,
      "▁फार्म": 6173,
      "विश्व": 6174,
      "▁अर्थशास्त्र": 6175,
      "खाव": 6176,
      "▁प्रशंसकों": 6177,
      "▁घटक": 6178,
      "र्टो": 6179,
      "▁42": 6180,
      "▁उभ": 6181,
      "▁निशान": 6182,
      "ंघम": 6183,
      "▁(4": 6184,
      "नेसोटा": 6185,
      "▁चौथी": 6186,
      "र्तमान": 6187,
      "▁रसायन": 6188,
      "▁हस्ताक्ष": 6189,
      "▁300": 6190,
      "ोसाइटी": 6191,
      "ंक्शन": 6192,
      "▁फ्रेम": 6193,
      "▁1938": 6194,
      "▁दोप": 6195,
      "▁थी;": 6196,
      "ेला": 6197,
      "र्टर": 6198,
      "▁उपयोगकर्ता": 6199,
      "▁दोपहर": 6200,
      "▁चेक": 6201,
      "▁गैलरी": 6202,
      "▁ब्रेक": 6203,
      "▁मरम्मत": 6204,
      "▁मैक्सिकन": 6205,
      "▁जीवा": 6206,
      "▁रिश्ते": 6207,
      "ुका": 6208,
      "तीत": 6209,
      "▁लिप": 6210,
      "▁घट": 6211,
      "▁ओटोम": 6212,
      "▁खनन": 6213,
      "▁बीमार": 6214,
      "▁विस्क": 6215,
      "▁चरम": 6216,
      "▁दृश्यों": 6217,
      "▁तटीय": 6218,
      "▁क्वे": 6219,
      "▁कैथेड": 6220,
      "▁खाते": 6221,
      "नतम": 6222,
      "▁पारिस्थित": 6223,
      "▁सिल्व": 6224,
      "▁इतना": 6225,
      "▁सफलतापूर्वक": 6226,
      "▁सीमाओं": 6227,
      "▁ड्रै": 6228,
      "▁दोस्तों": 6229,
      "▁आती": 6230,
      "▁1936": 6231,
      "▁काला": 6232,
      "▁रचनात्मक": 6233,
      "▁178": 6234,
      "ोनियन": 6235,
      "▁जेर": 6236,
      "नेड": 6237,
      "▁राहत": 6238,
      "▁पोलिश": 6239,
      "▁महाद्वीप": 6240,
      "▁ऑप": 6241,
      "▁चंद्र": 6242,
      "युग": 6243,
      "नेसी": 6244,
      "▁प्रक्षेप": 6245,
      "▁चलाया": 6246,
      "▁उपनिवेश": 6247,
      "▁इकाइयाँ": 6248,
      "शय": 6249,
      "▁कैम्ब्रिज": 6250,
      "▁1951": 6251,
      "स्टेंट": 6252,
      "▁अमीर": 6253,
      "▁संसदीय": 6254,
      "▁खेला,": 6255,
      "र्जन": 6256,
      "▁बुल": 6257,
      "िन्स": 6258,
      "▁जोस": 6259,
      "▁पावर": 6260,
      "▁यात्रियों": 6261,
      "▁पिछली": 6262,
      "▁शॉट": 6263,
      "▁उतर": 6264,
      "▁है)।": 6265,
      "▁पेपर": 6266,
      "▁लार्": 6267,
      "▁कर्नल": 6268,
      "ÂÂ": 6269,
      "▁1917": 6270,
      "▁फु": 6271,
      "▁वाटर": 6272,
      "म्पसन": 6273,
      "▁हड्": 6274,
      "▁नर्स": 6275,
      "▁गायब": 6276,
      "▁स्वचालित": 6277,
      "▁तीव्र": 6278,
      "▁ए।": 6279,
      "▁मामला": 6280,
      "▁कियाः": 6281,
      "ट्रैक": 6282,
      "सायनिक": 6283,
      "▁महासागर": 6284,
      "ितना": 6285,
      "▁भले": 6286,
      "▁पीएच": 6287,
      "साद": 6288,
      "▁आर्थर": 6289,
      "▁नामों": 6290,
      "▁कठिना": 6291,
      "उड": 6292,
      "▁संकीर्ण": 6293,
      "टेन": 6294,
      "▁फ्ले": 6295,
      "▁ग्रेट": 6296,
      "बोट": 6297,
      "बी.": 6298,
      "▁अभिव्यक्ति": 6299,
      "▁\"ख": 6300,
      "▁खतर": 6301,
      "्यारह": 6302,
      "▁टाइम्स\"": 6303,
      "▁पिच": 6304,
      "▁फॉर्म": 6305,
      "▁(20": 6306,
      "▁नस्ल": 6307,
      "▁तलाश": 6308,
      "▁स्थलों": 6309,
      "▁पर्यटन": 6310,
      "तिष्क": 6311,
      "▁जाएगा": 6312,
      "▁मेयर": 6313,
      "▁फैल": 6314,
      "▁रूपों": 6315,
      "▁सोसाइटी": 6316,
      "▁अल-": 6317,
      "▁अध्याय": 6318,
      "▁बनाया,": 6319,
      "र्डर": 6320,
      "▁हांगकांग": 6321,
      "रखाव": 6322,
      "▁अंतराल": 6323,
      "▁रखरखाव": 6324,
      "कक्ष": 6325,
      "▁बंध": 6326,
      "▁सूचित": 6327,
      "▁\"कै": 6328,
      "राडो": 6329,
      "▁जाति": 6330,
      "▁दशकों": 6331,
      "ाचार": 6332,
      "▁नौकर": 6333,
      "▁एलेन": 6334,
      "▁व्युत्प": 6335,
      "▁मीनार": 6336,
      "▁चित्रकार": 6337,
      "▁इलेक्ट्रॉनिक": 6338,
      "ह्": 6339,
      "▁रेन": 6340,
      "▁टीमें": 6341,
      "वृत्ति": 6342,
      "▁कामयाब": 6343,
      "लांग": 6344,
      "▁झू": 6345,
      "राल्ड": 6346,
      "▁योजनाओं": 6347,
      "्लो": 6348,
      "▁फिट": 6349,
      "लोड": 6350,
      "▁विद्वान": 6351,
      "▁सोच": 6352,
      "▁बजाय,": 6353,
      "▁रीड": 6354,
      "▁मुफ्त": 6355,
      "िग्ग": 6356,
      "▁1.": 6357,
      "▁हाथों": 6358,
      "▁कारक": 6359,
      "▁चित्रण": 6360,
      "▁आवि": 6361,
      "▁न्यूनतम": 6362,
      "द्वितीय": 6363,
      "▁शेयर": 6364,
      "ंती": 6365,
      "-15": 6366,
      "▁सिंगापुर": 6367,
      "▁अश्वे": 6368,
      "▁1937": 6369,
      "▁हॉट": 6370,
      "ौग": 6371,
      "▁हस्ताक्षरित": 6372,
      "▁क्री": 6373,
      "दाई": 6374,
      "ोलो": 6375,
      "बाज": 6376,
      "▁पीट": 6377,
      "▁कुशल": 6378,
      "▁साप्ताहिक": 6379,
      "▁अनुपात": 6380,
      "▁घे": 6381,
      "▁ग्यारह": 6382,
      "▁नियुक्ति": 6383,
      "-से": 6384,
      "▁स्मृति": 6385,
      "▁एसिड": 6386,
      "▁प्रोड": 6387,
      "▁लाइट": 6388,
      "▁कारों": 6389,
      "▁एनि": 6390,
      "▁केन": 6391,
      "▁फेर": 6392,
      "▁मुद्र": 6393,
      "▁बहुमत": 6394,
      "▁इरादा": 6395,
      "कता": 6396,
      "▁कट्ट": 6397,
      "बोर्ड\"": 6398,
      "▁जैसे-जैसे": 6399,
      "▁गर्मी": 6400,
      "▁1900": 6401,
      "▁रविवार": 6402,
      "▁विनियम": 6403,
      "तृ": 6404,
      "▁रूपांतरण": 6405,
      "संहार": 6406,
      "▁चेहरे": 6407,
      "▁बढ़त": 6408,
      "▁गुफा": 6409,
      "▁थाई": 6410,
      "▁दिन,": 6411,
      "▁कोशिकाओं": 6412,
      "न्नति": 6413,
      "▁पौधों": 6414,
      "▁दावे": 6415,
      "▁चरणों": 6416,
      "▁तहत,": 6417,
      "▁1914": 6418,
      "▁गईं,": 6419,
      "▁मुर": 6420,
      "▁39": 6421,
      "▁निकाला": 6422,
      "▁विस्कॉन्स": 6423,
      "च्छिक": 6424,
      "▁75": 6425,
      "▁इस्लामी": 6426,
      "वैज्ञानिक": 6427,
      "▁पल": 6428,
      "क्षी": 6429,
      "ुला": 6430,
      "▁पैसे": 6431,
      "▁150": 6432,
      "ज़े": 6433,
      "र्स\"": 6434,
      "गांठ": 6435,
      "▁दिग्ग": 6436,
      "वाहक": 6437,
      "धारा": 6438,
      "▁स्प्रिंग": 6439,
      "▁नाव": 6440,
      "▁जियो": 6441,
      "▁जाएगा,": 6442,
      "▁आसान": 6443,
      "▁में\"": 6444,
      "▁डै": 6445,
      "भौमिक": 6446,
      "▁एस.)": 6447,
      "22": 6448,
      "▁वर्षा": 6449,
      "ंकर": 6450,
      "▁स्की": 6451,
      "परिव": 6452,
      "▁राजन": 6453,
      "▁अड्डा": 6454,
      "ंतु": 6455,
      "▁संबोधित": 6456,
      "लीवुड": 6457,
      "▁एंटोन": 6458,
      "ुलन": 6459,
      "▁आई।": 6460,
      "ताब": 6461,
      "वैधानिक": 6462,
      "▁देखी": 6463,
      "▁लड़के": 6464,
      "▁जानते": 6465,
      "▁कोने": 6466,
      "▁तंत्रिका": 6467,
      "▁टन": 6468,
      "▁पंजीकृत": 6469,
      "▁आयुक्त": 6470,
      "▁पीले": 6471,
      ",8": 6472,
      "हाई": 6473,
      "▁है\",": 6474,
      "वार्ड": 6475,
      "▁रासायनिक": 6476,
      "स्टेड": 6477,
      "बिल": 6478,
      "लीट": 6479,
      "▁फ्रांसिस्को": 6480,
      "▁48": 6481,
      "▁एक-द": 6482,
      "▁पूल": 6483,
      "▁समाय": 6484,
      "▁सोचा": 6485,
      "▁दाय": 6486,
      "▁ग्रेग": 6487,
      "्लाई": 6488,
      "▁कॉर्न": 6489,
      "▁रखे": 6490,
      "चेल": 6491,
      "▁समानता": 6492,
      "▁\"से": 6493,
      "▁प्रतिबद्ध": 6494,
      "▁ब्रॉड": 6495,
      "ख्": 6496,
      "▁(आई.": 6497,
      "▁\"य": 6498,
      "▁मैनचेस्टर": 6499,
      "ैंग": 6500,
      "बुक": 6501,
      "▁नस्लीय": 6502,
      "▁अली": 6503,
      "▁निभाई।": 6504,
      "▁प्लॉट।": 6505,
      "▁मोट": 6506,
      "▁ग्राफ": 6507,
      "▁आवेदन": 6508,
      "्टर": 6509,
      "▁इसा": 6510,
      "▁स्वयंसेव": 6511,
      "▁विशेषज्ञता": 6512,
      "▁उत्तरा": 6513,
      "ुम": 6514,
      "▁हड़": 6515,
      "ोरियन": 6516,
      "▁देशी": 6517,
      "▁\"बिल": 6518,
      "ज़ो": 6519,
      "▁नील": 6520,
      "रूप": 6521,
      "▁अनुकूलित": 6522,
      "▁पांड": 6523,
      "▁(;": 6524,
      "▁वैध": 6525,
      "ॉइड": 6526,
      "्वर": 6527,
      "▁डीन": 6528,
      "▁देरी": 6529,
      "▁शैक्षिक": 6530,
      "▁गए.": 6531,
      "हाला": 6532,
      "ज\"": 6533,
      "-\"": 6534,
      "▁पुनर्ग": 6535,
      "▁'ए": 6536,
      "▁विस्कॉन्सिन": 6537,
      "▁कैथेड्रल": 6538,
      "थल": 6539,
      "▁मेलबर्न": 6540,
      "▁लिव": 6541,
      "क्वि": 6542,
      "ज़\"": 6543,
      "▁वेतन": 6544,
      "▁वर्षगांठ": 6545,
      "धारी": 6546,
      "▁(ए.": 6547,
      "मंत्री": 6548,
      "▁टेल": 6549,
      "▁अनुमो": 6550,
      "म्बर": 6551,
      "करार": 6552,
      "▁कार्यकर्ता": 6553,
      "▁सीन": 6554,
      "▁कुत्": 6555,
      "▁उत्सा": 6556,
      "▁मोबाइल": 6557,
      "ना\"": 6558,
      "▁*": 6559,
      "▁(जैसे": 6560,
      "▁कान्": 6561,
      "▁अंध": 6562,
      "▁टोरंटो": 6563,
      "▁चौथा": 6564,
      "▁दें": 6565,
      "▁भूमिकाओं": 6566,
      "▁लव": 6567,
      "▁हिंद": 6568,
      "स्टे": 6569,
      "▁सिर्फ": 6570,
      "▁नहीं,": 6571,
      "▁बसने": 6572,
      "▁नाटकीय": 6573,
      "▁1935": 6574,
      "▁यू।एस।": 6575,
      "▁रिलीज": 6576,
      "▁धोखा": 6577,
      "▁400": 6578,
      "▁बरकरार": 6579,
      "▁टोनी": 6580,
      "▁हैम्प": 6581,
      "▁कहाः": 6582,
      "▁मार्गों": 6583,
      "▁लोह": 6584,
      "▁निष्क्रिय": 6585,
      "▁टावर": 6586,
      "▁\"यू": 6587,
      "▁गोद": 6588,
      "▁जोहान": 6589,
      "क्ले": 6590,
      "▁विपणन": 6591,
      "▁काग": 6592,
      "▁(ट": 6593,
      "ट्जर": 6594,
      "▁कोलम्ब": 6595,
      "ना।": 6596,
      "▁आपात": 6597,
      "▁नींव": 6598,
      "▁मूर": 6599,
      "्यूब": 6600,
      "▁डाला": 6601,
      "▁वियतनाम": 6602,
      "शिष्ट": 6603,
      "▁49": 6604,
      "▁आविष्कार": 6605,
      "▁रोगियों": 6606,
      "▁परिणामस्वरूप,": 6607,
      "▁रुक": 6608,
      "मोन": 6609,
      "▁सिंड": 6610,
      "मिल्टन": 6611,
      "▁\"स्": 6612,
      "▁ट्रिप": 6613,
      "▁1933": 6614,
      "▁कारा": 6615,
      "▁गिनती": 6616,
      "▁गाने": 6617,
      "▁कानूनों": 6618,
      "▁मेजर": 6619,
      "िनस": 6620,
      "▁समझौता": 6621,
      "्टन": 6622,
      "▁मूर्तिक": 6623,
      "▁मुकाब": 6624,
      "शियन": 6625,
      "▁हुआ.": 6626,
      "▁ताइ": 6627,
      "▁एक-दूसरे": 6628,
      "▁सी।": 6629,
      "▁फॉक्स": 6630,
      "▁अभिया": 6631,
      "▁स्वर्ग": 6632,
      "▁ईरान": 6633,
      "सिस": 6634,
      "▁कान्सास": 6635,
      "वेंट": 6636,
      "▁निरीक्षण": 6637,
      "्रेडिट": 6638,
      "▁नियोजित": 6639,
      "▁डार्": 6640,
      "▁निकाय": 6641,
      "▁1929": 6642,
      "▁मस्तिष्क": 6643,
      "▁सार": 6644,
      "▁1910": 6645,
      "▁क्ली": 6646,
      "▁डॉन": 6647,
      "▁शौकिया": 6648,
      "▁निर्वासन": 6649,
      "▁हेर": 6650,
      "▁गईं": 6651,
      "▁घात": 6652,
      "▁तरीका": 6653,
      "▁चोरी": 6654,
      "▁ओटोमन": 6655,
      "पुट": 6656,
      "▁सिद्धांतों": 6657,
      "▁एंथ": 6658,
      "▁मालिकों": 6659,
      "वली": 6660,
      "▁ऑक्सी": 6661,
      "▁\"ले": 6662,
      "▁अद्वितीय": 6663,
      "▁गोल्फ": 6664,
      "▁दिला": 6665,
      "▁होंगे।": 6666,
      "▁घूम": 6667,
      "ियांग": 6668,
      "▁विफलता": 6669,
      "▁बुलाया": 6670,
      ",7": 6671,
      "▁जिलों": 6672,
      "▁सुरंग": 6673,
      "ामर्श": 6674,
      "गाली": 6675,
      "▁ग्वा": 6676,
      "▁ड्राफ्ट": 6677,
      "▁उपग्रह": 6678,
      "▁मर्": 6679,
      "इंट": 6680,
      "▁पैट्रिक": 6681,
      "लिस": 6682,
      "▁टेर": 6683,
      "▁उत्तर-पूर्व": 6684,
      "िल्म": 6685,
      "▁मैरीलैंड": 6686,
      "िगत": 6687,
      "▁देखें": 6688,
      "▁खेती": 6689,
      "▁नरसंहार": 6690,
      "▁शिप": 6691,
      "▁संरचनाओं": 6692,
      "▁विमानों": 6693,
      "▁1928": 6694,
      "▁घिरा": 6695,
      "▁मिसौरी": 6696,
      "▁नवा": 6697,
      "ब्ला": 6698,
      "ाम्": 6699,
      "▁लिंकन": 6700,
      "▁प्रावधान": 6701,
      "▁रेग": 6702,
      "▁\"मा": 6703,
      "▁व्यापारी": 6704,
      "▁-": 6705,
      "▁पाउ": 6706,
      "पूर्वी": 6707,
      "▁(196": 6708,
      "▁43": 6709,
      "▁अब्द": 6710,
      "▁नाइजी": 6711,
      "▁ग्रहण": 6712,
      "▁तोपखाने": 6713,
      "▁वेने": 6714,
      "▁लिथ": 6715,
      "▁क्लै": 6716,
      "▁सिक्": 6717,
      "ीं।": 6718,
      "▁घेराब": 6719,
      "्रास": 6720,
      "▁जनसांख्यिकी": 6721,
      "▁सेवाएं": 6722,
      "ून्य": 6723,
      "▁पंखों": 6724,
      "▁जुटा": 6725,
      "र्ता": 6726,
      "▁मंजिला": 6727,
      "कोश": 6728,
      "हारिक": 6729,
      "ंटा": 6730,
      "▁रैंकिंग": 6731,
      "▁लहर": 6732,
      "▁हैरी": 6733,
      "वीय": 6734,
      "▁उपनगर": 6735,
      "वासीय": 6736,
      "जान": 6737,
      "▁एव": 6738,
      "▁मूर्ति": 6739,
      "▁फल": 6740,
      "▁रिपब्ल": 6741,
      "ेंसर": 6742,
      "▁मुद्रा": 6743,
      "▁यूनिवर्सिटी": 6744,
      "▁सारांश": 6745,
      "▁परामर्श": 6746,
      "▁टेनिस": 6747,
      "▁1934": 6748,
      "▁नायक": 6749,
      "पै": 6750,
      "▁ऑग": 6751,
      "▁निष्पाद": 6752,
      "▁अर्ल": 6753,
      "▁कमीशन": 6754,
      "जल": 6755,
      "▁युवाओं": 6756,
      "िओ": 6757,
      "ृदय": 6758,
      "▁करना।": 6759,
      "गाव": 6760,
      "▁घों": 6761,
      "वाधिकार": 6762,
      "▁दिख": 6763,
      "▁सिंह": 6764,
      "▁गार्": 6765,
      "▁दिए,": 6766,
      "▁एस्प": 6767,
      "▁राइट": 6768,
      "▁चो": 6769,
      "▁रिया": 6770,
      "▁पौधे": 6771,
      "म्पियन": 6772,
      "▁कलात्मक": 6773,
      "▁लड़ाकू": 6774,
      "ट्जरलैंड": 6775,
      "अर": 6776,
      "▁इंजनों": 6777,
      "▁दर्द": 6778,
      "▁गौ": 6779,
      "िसिप": 6780,
      "स्लो": 6781,
      "▁संसाधन": 6782,
      "23": 6783,
      "्रोम": 6784,
      "गमन": 6785,
      "लिस्ट": 6786,
      "▁रजत": 6787,
      "ोजक": 6788,
      "▁रंगीन": 6789,
      "▁सार्वभौमिक": 6790,
      "▁पदों": 6791,
      "▁पहाड़": 6792,
      "▁अपनाया": 6793,
      "▁मध": 6794,
      "▁पदोन्नति": 6795,
      "ेयर": 6796,
      "▁(प्र": 6797,
      "▁था)": 6798,
      "▁इंडोनेशिया": 6799,
      "▁हरे": 6800,
      "▁वाई": 6801,
      "▁छठे": 6802,
      "सी,": 6803,
      "▁घेराबंदी": 6804,
      "▁भरा": 6805,
      "▁रैप": 6806,
      "▁ड्रम": 6807,
      "ुंग": 6808,
      "▁हैमिल्टन": 6809,
      "▁एलन": 6810,
      "▁इवान": 6811,
      "यंत्र": 6812,
      "रेखा": 6813,
      "▁मिलर": 6814,
      "▁पढ़ने": 6815,
      "▁क्रेडिट": 6816,
      "स्पद": 6817,
      "▁केने": 6818,
      "▁इसलिए,": 6819,
      "र्गन": 6820,
      "्सबर्ग": 6821,
      "क्के": 6822,
      "▁संसाधनों": 6823,
      "▁कॉलेज,": 6824,
      "▁ट्रॉफी": 6825,
      "▁अतीत": 6826,
      "▁असा": 6827,
      "▁स्वाद": 6828,
      "▁चिकित्सक": 6829,
      "ंतिक": 6830,
      "▁सेंट।": 6831,
      "▁कांच": 6832,
      "चालन": 6833,
      "▁सैम": 6834,
      "▁अंड": 6835,
      "गोलिक": 6836,
      "▁यी": 6837,
      "▁1922": 6838,
      "▁सर्किट": 6839,
      "यस": 6840,
      "▁नार": 6841,
      "मुएल": 6842,
      "▁ताक": 6843,
      "जीब": 6844,
      "▁एंड्रयू": 6845,
      "▁चमक": 6846,
      "▁1924": 6847,
      "▁चौड़ा": 6848,
      "▁सांस": 6849,
      "▁विक्रे": 6850,
      "▁आवासीय": 6851,
      "▁उप-": 6852,
      "र्चे": 6853,
      "▁सूर्य": 6854,
      "▁भाप": 6855,
      "तक": 6856,
      "▁अकेले": 6857,
      "िटर": 6858,
      "▁£": 6859,
      "लास": 6860,
      "▁चूक": 6861,
      "▁प्रेरणा": 6862,
      "▁(5": 6863,
      "ोल्ड": 6864,
      "▁लगे": 6865,
      "▁आँ": 6866,
      "कोप": 6867,
      "▁ग्लास": 6868,
      "▁यूट": 6869,
      "▁लेना": 6870,
      "ियों,": 6871,
      "▁शांत": 6872,
      "▁1921": 6873,
      "जुट": 6874,
      "▁प्रतिस्थापन": 6875,
      "▁गई.": 6876,
      "▁पुरस्कार।": 6877,
      "▁साफ": 6878,
      "▁ग्रो": 6879,
      "▁बार-बार": 6880,
      "▁एल.)": 6881,
      "▁दलों": 6882,
      "सलमान": 6883,
      "▁स्वदेशी": 6884,
      "▁संदर्भ।": 6885,
      "▁फोर्ड": 6886,
      "▁फिनिश": 6887,
      "▁परिचित": 6888,
      "▁समानांत": 6889,
      "▁भेड़": 6890,
      "▁इंच": 6891,
      "तिकी": 6892,
      "विदों": 6893,
      "▁सर्ब": 6894,
      "▁बचपन": 6895,
      "▁पी.)": 6896,
      "▁पहुँ": 6897,
      "कंप": 6898,
      "▁देखे": 6899,
      "▁मानवाधिकार": 6900,
      "▁हृदय": 6901,
      "▁फ्लोर": 6902,
      "▁परिवर्तनों": 6903,
      "▁छाया": 6904,
      "चलित": 6905,
      "नास": 6906,
      "म्पियनशिप": 6907,
      "▁1927": 6908,
      "▁संप्र": 6909,
      "▁चुंब": 6910,
      "▁राजनयिक": 6911,
      "▁नियो": 6912,
      "▁धु": 6913,
      "▁बढ़ाया": 6914,
      "▁सूच": 6915,
      "िटो": 6916,
      "▁वैल": 6917,
      "-और": 6918,
      "▁1932": 6919,
      "▁संरक्षक": 6920,
      "▁अपार्टमेंट": 6921,
      "▁ग्राहकों": 6922,
      "ॉफ्ट": 6923,
      "▁आनुव": 6924,
      "▁पूंजी": 6925,
      "▁लोहे": 6926,
      "▁आंख": 6927,
      "▁स्विट्जरलैंड": 6928,
      "दित": 6929,
      "नु": 6930,
      "▁जैविक": 6931,
      "▁सच्च": 6932,
      "णों": 6933,
      "श्म": 6934,
      "▁टैग": 6935,
      "▁स्वामी": 6936,
      "▁चलती": 6937,
      "संख्य": 6938,
      "▁वाहनों": 6939,
      "▁परिभाषा": 6940,
      "▁जेफ": 6941,
      "▁विधे": 6942,
      "▁पड़ा,": 6943,
      "▁कारखाने": 6944,
      "▁रियो": 6945,
      "▁नीले": 6946,
      "▁\"बिलबोर्ड\"": 6947,
      "▁1916": 6948,
      "▁रक्षात्मक": 6949,
      "ियंस": 6950,
      "▁बैल": 6951,
      "राइट": 6952,
      "▁है।..": 6953,
      "रेन": 6954,
      "▁नवीन": 6955,
      "▁1912": 6956,
      "▁1915": 6957,
      "45": 6958,
      "यनों": 6959,
      "म्स": 6960,
      "ुलर": 6961,
      "▁संगीतकारों": 6962,
      "▁संकलन": 6963,
      "▁है।एस।": 6964,
      "▁खरीदने": 6965,
      "▁जंक्शन": 6966,
      "र्या": 6967,
      "▁प्रार्थ": 6968,
      "र्स,": 6969,
      "▁डूब": 6970,
      "▁ढांचे": 6971,
      "▁धर्मशास्त्र": 6972,
      "▁एंडरसन": 6973,
      "▁टेक": 6974,
      "▁पर्यवे": 6975,
      "▁ब्रिज": 6976,
      "ता\"": 6977,
      "▁जाए।": 6978,
      "▁छव": 6979,
      "▁ओक्": 6980,
      "▁i": 6981,
      "▁प्रकार,": 6982,
      "▁चैम्पियनशिप": 6983,
      "▁कार्लो": 6984,
      "▁पैनल": 6985,
      "▁सूची।": 6986,
      "▁एथलेटिक्स": 6987,
      "▁अस्पष्ट": 6988,
      "▁कॉक": 6989,
      "ली\"": 6990,
      "▁एक्सप्रेस": 6991,
      "ोत्तर": 6992,
      "जाने": 6993,
      "ोटाइप": 6994,
      "▁आरोपों": 6995,
      "युगीन": 6996,
      "▁जैक्सन": 6997,
      "▁मेस": 6998,
      "▁किताब": 6999,
      "▁1923": 7000,
      "जक": 7001,
      "▁उड़ा": 7002,
      "▁नाज़ी": 7003,
      "▁1925": 7004,
      "▁55": 7005,
      "▁व्यक्तित्व": 7006,
      "आन": 7007,
      "क्यू": 7008,
      "िकाओं": 7009,
      "जिश": 7010,
      "िवल": 7011,
      "ंडो": 7012,
      "▁विध्व": 7013,
      "▁दाह": 7014,
      "▁राजस्व": 7015,
      "त्मिक": 7016,
      "▁बैरो": 7017,
      "▁राज्यपाल": 7018,
      "▁लक्षण": 7019,
      "▁फोर": 7020,
      "▁1931": 7021,
      "▁मंजिल": 7022,
      "▁बमबारी": 7023,
      "्यात्मिक": 7024,
      "▁आगमन": 7025,
      "क्रेनी": 7026,
      "▁प्रायद्वीप": 7027,
      "कालत": 7028,
      "▁सबूत": 7029,
      "▁ट्रम्प": 7030,
      "▁एस्टेट": 7031,
      "▁स्के": 7032,
      "▁बीमा": 7033,
      "▁उपहार": 7034,
      "▁रोजगार": 7035,
      "▁फैशन": 7036,
      "35": 7037,
      "ैक्ट": 7038,
      "▁बर्न": 7039,
      "सिन": 7040,
      "▁फूलों": 7041,
      "▁गरीब": 7042,
      "▁प्रतिष्ठा": 7043,
      "▁क्रोए": 7044,
      "दानिक": 7045,
      "▁वकालत": 7046,
      "▁क्वी": 7047,
      "▁अवर": 7048,
      "▁एकजुट": 7049,
      "▁\"सा": 7050,
      "▁आर.>": 7051,
      "चरण": 7052,
      "▁ओरेगन": 7053,
      "रद": 7054,
      "हि": 7055,
      ",0": 7056,
      "▁पनडु": 7057,
      "▁पहुँचा": 7058,
      "▁उत": 7059,
      "ोस्ट": 7060,
      "िमंडल": 7061,
      "▁अचान": 7062,
      "▁आराम": 7063,
      "▁अभिय": 7064,
      "व्यों": 7065,
      "▁ठहराया": 7066,
      "▁46": 7067,
      "▁रास्ता": 7068,
      "▁घाट": 7069,
      "जारी": 7070,
      "ल्ल": 7071,
      "▁भौगोलिक": 7072,
      "▁ऑर": 7073,
      ",9": 7074,
      "ठार": 7075,
      "▁\"आई": 7076,
      "▁मोल": 7077,
      "▁प्रिंस": 7078,
      "▁बरो": 7079,
      "▁बुद्धि": 7080,
      "▁प्रतिस्पर्धी": 7081,
      "▁औसतन": 7082,
      "▁स्विस": 7083,
      "▁खुश": 7084,
      "\"),": 7085,
      "▁मुसलमान": 7086,
      "▁क्रिसमस": 7087,
      "▁दरब": 7088,
      "▁प्रिंट": 7089,
      "▁(र": 7090,
      "▁निधन": 7091,
      "-ओ": 7092,
      "▁ज़ा": 7093,
      "▁दिवस": 7094,
      "▁अज़": 7095,
      "▁शासनकाल": 7096,
      "▁फेयर": 7097,
      "-का": 7098,
      "▁1926": 7099,
      "▁भंडारण": 7100,
      "▁स्तन": 7101,
      "▁देकर": 7102,
      "▁ऑस्ट्रिया": 7103,
      "▁प्रतिद्वंद्व": 7104,
      "▁डगल": 7105,
      "▁अश्वेत": 7106,
      "▁पूरक": 7107,
      "ट्टा": 7108,
      "▁नीत": 7109,
      "▁क्यू.": 7110,
      "▁निंदा": 7111,
      "▁फायर": 7112,
      "▁खुफिया": 7113,
      "निष्ठ": 7114,
      "ियनों": 7115,
      "▁गोलीबारी": 7116,
      "▁कोलोराडो": 7117,
      "▁खतरा": 7118,
      "सेस्टर": 7119,
      "माना": 7120,
      "▁कैस": 7121,
      "-14": 7122,
      "▁समानांतर": 7123,
      "▁भूमिगत": 7124,
      "ाप्": 7125,
      "▁जोड़ता": 7126,
      "▁टुकड़ों": 7127,
      "▁हंस": 7128,
      "सेक्स": 7129,
      "िलो": 7130,
      "▁शहर,": 7131,
      "▁बार्": 7132,
      "▁मोंटे": 7133,
      "▁बाधित": 7134,
      "▁निकटता": 7135,
      "ुना": 7136,
      "▁अभियानों": 7137,
      "▁मध्ययुगीन": 7138,
      "आर.": 7139,
      "▁ऑफ़": 7140,
      "ट्रियल": 7141,
      "▁बेचा": 7142,
      "माल": 7143,
      "▁करना,": 7144,
      "▁प्रकट": 7145,
      "▁किसान": 7146,
      "▁दवाओं": 7147,
      "▁माइन": 7148,
      "▁एह": 7149,
      "मिन": 7150,
      "ूड": 7151,
      "कोस": 7152,
      "ू,": 7153,
      "▁पाइप": 7154,
      "ग्रो": 7155,
      "▁तह": 7156,
      ");": 7157,
      "▁पुर्तगाली": 7158,
      "टन,": 7159,
      "स्ले": 7160,
      "▁\"हम": 7161,
      "▁कैदियों": 7162,
      "रा,": 7163,
      "▁बगी": 7164,
      "स्तर": 7165,
      "▁कॉन": 7166,
      "▁बेटे,": 7167,
      "लाका": 7168,
      "▁उगा": 7169,
      "ियन्स": 7170,
      "▁लैंग": 7171,
      "▁सैमुएल": 7172,
      "▁रैंक": 7173,
      "थान": 7174,
      "▁इंटरने": 7175,
      "▁भीतर,": 7176,
      "▁मले": 7177,
      "▁वॉल": 7178,
      "ंतिकारी": 7179,
      "▁\"सी": 7180,
      "ब्बे": 7181,
      "200": 7182,
      "▁स्ट्रै": 7183,
      "▁स्थानांतरण": 7184,
      "▁संवैधानिक": 7185,
      "्रु": 7186,
      "▁लॉरेंस": 7187,
      "▁जनसांख्यिकी।": 7188,
      "णु": 7189,
      "▁समाजवादी": 7190,
      "▁गू": 7191,
      "▁प्रार्थना": 7192,
      "▁सत्ता": 7193,
      "▁वफा": 7194,
      "▁लेडी": 7195,
      "▁खड़ी": 7196,
      "▁सिए": 7197,
      "▁अंतरराष्ट्रीय": 7198,
      "▁वाल्टर": 7199,
      "▁बैंग": 7200,
      "▁बांग": 7201,
      "▁वादा": 7202,
      "▁परिस्थित": 7203,
      "लाहोमा": 7204,
      "▁ऊँची": 7205,
      "▁बनाती": 7206,
      "▁प्रतिबि": 7207,
      "▁177": 7208,
      "▁जीवाश्म": 7209,
      "डेट": 7210,
      "▁केंटकी": 7211,
      "▁(ओ": 7212,
      "▁\"स्ट": 7213,
      "▁भागीदार": 7214,
      "▁अलगाव": 7215,
      "▁भरने": 7216,
      "▁नैदानिक": 7217,
      "▁चिप": 7218,
      "भु": 7219,
      "▁निकलने": 7220,
      "▁(जिस": 7221,
      "जीवन": 7222,
      "▁उद्धृत": 7223,
      "▁एंटोनियो": 7224,
      "▁तिर": 7225,
      "िनबर्ग": 7226,
      "▁बारी": 7227,
      "▁गुट": 7228,
      "▁पेड": 7229,
      "ामिन": 7230,
      "▁पहच": 7231,
      "▁उम्मीदवारों": 7232,
      "▁47": 7233,
      "▁गलती": 7234,
      "वासित": 7235,
      "▁अध्यक्षता": 7236,
      "ाधिकार": 7237,
      "▁टि": 7238,
      "▁पदार्थों": 7239,
      "▁हवाला": 7240,
      "▁निर्यात": 7241,
      "र्टी": 7242,
      "-पोषण": 7243,
      "ंवद": 7244,
      "▁एलेक्स": 7245,
      "▁मार्गरेट": 7246,
      "▁गोर": 7247,
      "▁गोल्डन": 7248,
      "▁जिम्मेदारी": 7249,
      "▁गैरी": 7250,
      "जीवित": 7251,
      "▁त्वचा": 7252,
      "▁कड़ी": 7253,
      "▁पूर्वोत्तर": 7254,
      "▁पूजा": 7255,
      "▁उपभो": 7256,
      "ानिया": 7257,
      "▁गरीबी": 7258,
      "वादास्पद": 7259,
      "▁प्रक्रियाओं": 7260,
      "▁शक्तियों": 7261,
      "▁मिली,": 7262,
      "▁भागों": 7263,
      "▁दिया.": 7264,
      "▁अवलोकन": 7265,
      "यी": 7266,
      "▁कंपनी,": 7267,
      "▁\"सु": 7268,
      "▁चार्टर": 7269,
      "▁विधेयक": 7270,
      "▁राष्ट्रमंडल": 7271,
      "▁रणनीतिक": 7272,
      "▁स्पोर्ट्स": 7273,
      "▁राजदूत": 7274,
      "▁मेम": 7275,
      "पीड़": 7276,
      "▁बाएं": 7277,
      "▁परे": 7278,
      "▁फिल्में": 7279,
      "▁फैसले": 7280,
      "▁खाने": 7281,
      "फ.": 7282,
      "24": 7283,
      "▁(16": 7284,
      "▁आध्यात्मिक": 7285,
      "िप्ट": 7286,
      "▁बर्क": 7287,
      "▁देगा।": 7288,
      "▁गृहयुद्ध": 7289,
      "▁परत": 7290,
      "▁पत्रिकाओं": 7291,
      ".5%": 7292,
      "▁1890": 7293,
      "वलैंड": 7294,
      "▁तीनों": 7295,
      "▁फ्यू": 7296,
      "तल": 7297,
      "र्षक": 7298,
      "▁मनुष्यों": 7299,
      "▁अध्ययनों": 7300,
      "▁अचानक": 7301,
      "▁भूकंप": 7302,
      "घात": 7303,
      "बिट": 7304,
      "▁मामूली": 7305,
      "हांत": 7306,
      "▁कांग": 7307,
      "ॉफ": 7308,
      "▁(एस.": 7309,
      "प्ताहांत": 7310,
      "▁कूप": 7311,
      "▁तकनीकों": 7312,
      "▁साक्ष्य": 7313,
      "▁पेड़ों": 7314,
      "▁लाइनों": 7315,
      "▁41": 7316,
      "▁रॉबि": 7317,
      "ल्डिंग": 7318,
      "मती": 7319,
      "स्लिम": 7320,
      "▁विवादास्पद": 7321,
      "▁विघ": 7322,
      "-यार्ड": 7323,
      "▁लोकप्रियता": 7324,
      "सरों": 7325,
      "▁मिसिसिप": 7326,
      "▁आद": 7327,
      "▁जूनियर।": 7328,
      "निर्देश": 7329,
      "▁दीवारों": 7330,
      "िं": 7331,
      "▁ग्लेन": 7332,
      "▁सुल": 7333,
      "▁अंश": 7334,
      "▁युगल": 7335,
      "▁एमी": 7336,
      "▁बताती": 7337,
      "ंभव": 7338,
      "ुलिप": 7339,
      "▁विद्वानों": 7340,
      "▁(वि": 7341,
      "▁बेसिन": 7342,
      "ोर्ड": 7343,
      "▁एकड़": 7344,
      "पेट": 7345,
      "▁दोहरे": 7346,
      "ंजलि": 7347,
      "▁ट्रेड": 7348,
      "ूलन": 7349,
      "▁हाइड्र": 7350,
      "▁पेटेंट": 7351,
      "▁ह्यूस्टन": 7352,
      "▁क्वीन्स": 7353,
      "▁उत्पादित": 7354,
      "▁कॉलोनी": 7355,
      "शाही": 7356,
      "▁अपमान": 7357,
      "▁यूक्रेनी": 7358,
      "▁निर्वासित": 7359,
      "▁पट्टी": 7360,
      "▁किल": 7361,
      "▁साइमन": 7362,
      "▁भौतिकी": 7363,
      "▁टेस्ट": 7364,
      "लान": 7365,
      "▁1913": 7366,
      "▁व्यावहारिक": 7367,
      "-13": 7368,
      "▁निर्वाचित": 7369,
      "▁श्वे": 7370,
      "▁कॉमिक": 7371,
      "▁बढ़ता": 7372,
      "▁पूछता": 7373,
      "▁प्रिक्स": 7374,
      "लेखन": 7375,
      "▁भविष्यवा": 7376,
      "▁जर": 7377,
      "बै": 7378,
      "▁रखी": 7379,
      "▁किंवद": 7380,
      "मास": 7381,
      "ूदियों": 7382,
      "▁लिट": 7383,
      "▁घेर": 7384,
      "▁दरवाजे": 7385,
      "▁परिणाम।": 7386,
      "▁मोड": 7387,
      "▁लिंड": 7388,
      "▁थियो": 7389,
      "▁प्राइ": 7390,
      "▁श्रद्धा": 7391,
      "▁हॉप": 7392,
      "▁विस": 7393,
      "▁बैटरी": 7394,
      "ाप्ति": 7395,
      "-प्रदान": 7396,
      "▁पूर्ववर्ती": 7397,
      "▁करीबी": 7398,
      "▁उठाया": 7399,
      "▁पारिस्थितिकी": 7400,
      "▁असह": 7401,
      "▁इलाज": 7402,
      "▁शूटिंग": 7403,
      "▁शैलियों": 7404,
      "▁रखती": 7405,
      "र्तक": 7406,
      "▁(एम.": 7407,
      "▁\"इस": 7408,
      "ा,": 7409,
      "ेन,": 7410,
      "▁छात्रवृत्ति": 7411,
      "▁कार्बन": 7412,
      "स्पर": 7413,
      "फेल": 7414,
      "▁हजारों": 7415,
      "▁डी।": 7416,
      "▁रॉय": 7417,
      "रोह": 7418,
      "▁वाल": 7419,
      "▁हॉवर्ड": 7420,
      "▁महानगरीय": 7421,
      ")\"": 7422,
      "▁इर": 7423,
      "▁हराकर": 7424,
      "▁तालिका": 7425,
      "्रिक": 7426,
      "नात्मक": 7427,
      "▁मिलान": 7428,
      "▁\"स्प": 7429,
      "▁नस्लों": 7430,
      "▁नॉर": 7431,
      "व्यमान": 7432,
      "निहित": 7433,
      "▁मंड": 7434,
      "▁खुदरा": 7435,
      "टिक": 7436,
      "▁शून्य": 7437,
      "▁कौन": 7438,
      "▁इराक": 7439,
      "▁ऑडियो": 7440,
      "▁बुश": 7441,
      "▁स्कूल,": 7442,
      "▁डगलस": 7443,
      "▁आलोचक": 7444,
      "▁किम": 7445,
      "▁परिचालन": 7446,
      "दान-प्रदान": 7447,
      "▁हार्वर्ड": 7448,
      "▁बाउल": 7449,
      "▁(,": 7450,
      "रोड": 7451,
      "ंसिल": 7452,
      "स्से": 7453,
      "▁रखना": 7454,
      "▁एल्बमों": 7455,
      "▁सेव": 7456,
      "▁जुआन": 7457,
      "िएट": 7458,
      "▁सप्ताहांत": 7459,
      "▁आदान-प्रदान": 7460,
      "ुत्व": 7461,
      "▁वाद्ययंत्र": 7462,
      "▁स्ला": 7463,
      "▁बताते": 7464,
      "▁बोलने": 7465,
      "▁पालन-पोषण": 7466,
      "▁उच्चतम": 7467,
      "▁क्रिया": 7468,
      "ॉर": 7469,
      "▁तलाक": 7470,
      "▁ब्रह्": 7471,
      "▁'अ": 7472,
      "▁टेप": 7473,
      "▁हारने": 7474,
      "▁डोमिन": 7475,
      "▁मॉन्ट्रियल": 7476,
      "▁नीला": 7477,
      "▁ग्राहक": 7478,
      "▁अनिश्चित": 7479,
      "▁पुजारी": 7480,
      "▁प्रवि": 7481,
      "र्बी": 7482,
      "▁निलंबित": 7483,
      "▁अमेरिकियों": 7484,
      "▁ऑर्डर": 7485,
      "ोको": 7486,
      "सेस": 7487,
      "▁संगठित": 7488,
      "वाक": 7489,
      "▁1911": 7490,
      "▁अन्यथा": 7491,
      "रोन": 7492,
      "▁(श": 7493,
      "्यवाद": 7494,
      "▁स्टोन": 7495,
      "▁पक्षियों": 7496,
      "ार्शन": 7497,
      "▁वाणिज्य": 7498,
      "▁बनाए।": 7499,
      "▁मिला,": 7500,
      "कार्ड": 7501,
      "का,": 7502,
      "▁लड़ी": 7503,
      "▁नेशनल": 7504,
      "▁योद्धा": 7505,
      "▁एस।": 7506,
      "▁टिम": 7507,
      "ुई": 7508,
      "▁बव": 7509,
      "▁साजिश": 7510,
      "▁पांडुलिप": 7511,
      "▁18वीं": 7512,
      "▁लक्षित": 7513,
      "▁चीज": 7514,
      "▁हंगरी": 7515,
      "ोआ": 7516,
      "▁बेचने": 7517,
      "साइड": 7518,
      "भि": 7519,
      "▁मृत्यु।": 7520,
      "▁कथान": 7521,
      "▁टोल": 7522,
      "फ्ल": 7523,
      "यत्त": 7524,
      "▁बांग्ला": 7525,
      "दिष्ट": 7526,
      "▁खुदाई": 7527,
      "▁धमकी": 7528,
      "▁विय": 7529,
      "ित्ति": 7530,
      "▁अवसाद": 7531,
      "व्स": 7532,
      "▁समन्वय": 7533,
      "▁पोषित": 7534,
      "▁मानकों": 7535,
      "▁2.": 7536,
      "▁कनेक्ट": 7537,
      "▁कंट्री": 7538,
      "ता।": 7539,
      "▁रोश": 7540,
      "▁सीखने": 7541,
      "▁भ्रष्ट": 7542,
      "▁जानवर": 7543,
      "▁मियामी": 7544,
      "ली।": 7545,
      "▁52": 7546,
      "▁अवसरों": 7547,
      "ंडों": 7548,
      "-को": 7549,
      "मैन,": 7550,
      "▁लक्ष": 7551,
      "▁ऑक्सफोर्ड": 7552,
      "▁भाई,": 7553,
      "▁लगाए": 7554,
      "▁\"क्र": 7555,
      "▁भी।": 7556,
      "▁प्रधानमंत्री": 7557,
      "न्सी": 7558,
      "ल्टिक": 7559,
      "▁पिन": 7560,
      "▁केबल": 7561,
      "▁सीटें": 7562,
      "▁IV": 7563,
      "ंटन": 7564,
      "▁अंतः": 7565,
      "▁पैक": 7566,
      "▁प्रमाणित": 7567,
      "▁प्रायोजित": 7568,
      "पंथी": 7569,
      "▁स्काउट": 7570,
      "▁कुर": 7571,
      "▁ओलिव": 7572,
      "-इन": 7573,
      "▁(6": 7574,
      "▁साउंडट्रैक": 7575,
      "▁इंटरनेशनल": 7576,
      "▁\"आप": 7577,
      "▁1908": 7578,
      "▁हता": 7579,
      "▁दुर": 7580,
      "▁श्रद्धांजलि": 7581,
      "▁त्रुट": 7582,
      "▁पाप": 7583,
      "▁भागने": 7584,
      "▁मैग्": 7585,
      "▁छेद": 7586,
      "बोर्न": 7587,
      "▁शिकारी": 7588,
      "▁देखता": 7589,
      "▁कोष": 7590,
      "▁आश्व": 7591,
      "▁किराए": 7592,
      "▁बेड": 7593,
      "▁शिला": 7594,
      "▁मास्को": 7595,
      "समर्पण": 7596,
      "▁ताला": 7597,
      "सायों": 7598,
      "▁क्रांतिकारी": 7599,
      "▁तय": 7600,
      "शियाई": 7601,
      "▁अवरोध": 7602,
      "▁संल": 7603,
      "िंघम": 7604,
      "▁किक": 7605,
      "▁ओक्लाहोमा": 7606,
      "▁ब्रह्मांड": 7607,
      "▁मतों": 7608,
      "▁दीर्घ": 7609,
      "▁डॉक्ट": 7610,
      "▁चुनावी": 7611,
      "पीड़न": 7612,
      "▁चिली": 7613,
      "ेनबर्ग": 7614,
      "▁व्यवसायों": 7615,
      "▁ओर,": 7616,
      "▁वित्तप": 7617,
      "▁डब्ल्यू।": 7618,
      "▁नमूने": 7619,
      "▁अफगान": 7620,
      "▁विवाहित": 7621,
      "▁सदन": 7622,
      "ेंजर": 7623,
      "फ्रे": 7624,
      "▁उपलब्धि": 7625,
      "▁भित्ति": 7626,
      "▁शिकायत": 7627,
      "-199": 7628,
      "बेस": 7629,
      "▁आश्र": 7630,
      "▁याच": 7631,
      "▁जाँच": 7632,
      "▁(ह": 7633,
      "▁संभालने": 7634,
      "▁जेस": 7635,
      "▁मैके": 7636,
      "▁पहचाना": 7637,
      "▁क्षतिग्रस्त": 7638,
      "▁टोक्यो": 7639,
      "▁बनाई।": 7640,
      "▁यहूदियों": 7641,
      "▁फ़्ल": 7642,
      "ियाँ,": 7643,
      "▁आत्मसमर्पण": 7644,
      "▁ताज": 7645,
      "▁एडिनबर्ग": 7646,
      "▁भूमध्य": 7647,
      "विस": 7648,
      "▁फ़्रैंक": 7649,
      "▁गुलाब": 7650,
      "▁नाविक": 7651,
      "▁इलाकों": 7652,
      "▁नक्": 7653,
      "▁मुलाका": 7654,
      "▁\"हा": 7655,
      "▁बंग": 7656,
      "▁शीतकालीन": 7657,
      "▁असाधारण": 7658,
      "▁शन": 7659,
      "लाभ": 7660,
      "धर": 7661,
      "▁रिजर्व": 7662,
      "शर": 7663,
      "▁गुजरता": 7664,
      "▁(ल": 7665,
      "▁इजरायल": 7666,
      "▁लॉन्ग": 7667,
      "▁मिन्": 7668,
      "▁कूद": 7669,
      "▁हॉलीवुड": 7670,
      "▁मुलाकात": 7671,
      "▁अहम": 7672,
      "▁नारा": 7673,
      "▁राक्ष": 7674,
      "्विन": 7675,
      "▁रैंड": 7676,
      "हल": 7677,
      "▁हेली": 7678,
      "▁1880": 7679,
      "▁सितारों": 7680,
      "▁पत्नी,": 7681,
      "▁केली": 7682,
      "ंटिक": 7683,
      "▁मिसिसिपी": 7684,
      "▁ट्रेनों": 7685,
      "▁सैक": 7686,
      "।..": 7687,
      "लैंड,": 7688,
      "▁इंट": 7689,
      "जिंग": 7690,
      "गोस्लाव": 7691,
      "वर्स": 7692,
      "ोवो": 7693,
      "▁आपातकालीन": 7694,
      "▁जूरी": 7695,
      "▁परिचय": 7696,
      "▁तत्काल": 7697,
      "▁शिलालेख": 7698,
      "▁अद्य": 7699,
      "▁इस्": 7700,
      "▁दादा": 7701,
      "▁प्रशंसक": 7702,
      "▁उभर": 7703,
      "▁अमी": 7704,
      "▁लियोन": 7705,
      "▁प्यूर्टो": 7706,
      "▁शनिवार": 7707,
      "▁पॉली": 7708,
      "▁तरल": 7709,
      "▁हैं\"": 7710,
      "खास्त": 7711,
      "कास्ट": 7712,
      "ेव": 7713,
      "▁अपहरण": 7714,
      "▁स्वायत्त": 7715,
      "▁हाफ": 7716,
      "▁द्रव्यमान": 7717,
      "▁पेट्र": 7718,
      "▁सुनाई": 7719,
      "वीडी": 7720,
      "▁विश्वविद्यालयों": 7721,
      "▁सिव": 7722,
      ".3%": 7723,
      "▁कि.": 7724,
      "▁है),": 7725,
      "▁आकर्षक": 7726,
      "▁महिलाएं": 7727,
      "▁दार्शन": 7728,
      "▁मैड": 7729,
      "▁बारिश": 7730,
      "▁गाँवों": 7731,
      "▁बर्म": 7732,
      "▁वाहक": 7733,
      "▁शिक्षकों": 7734,
      "म्बा": 7735,
      "▁डॉक्टरेट": 7736,
      "▁आधा": 7737,
      "▁ऑस्ट्रियाई": 7738,
      "▁राजकुमारी": 7739,
      "▁54": 7740,
      "▁बर्खास्त": 7741,
      "▁मिशेल": 7742,
      "▁मी.": 7743,
      "▁समायोजित": 7744,
      "▁काउंसिल": 7745,
      "िक्ट": 7746,
      "▁हैं.": 7747,
      "▁प्रवृत्ति": 7748,
      "▁आखिरी": 7749,
      "▁चीजों": 7750,
      "▁मैथ": 7751,
      "▁स्लै": 7752,
      "▁क्वालीफ": 7753,
      "▁बाज़": 7754,
      "▁अल्पसंख्य": 7755,
      "▁कवरेज": 7756,
      "▁\"रा": 7757,
      "▁प्रभुत्व": 7758,
      "▁से)": 7759,
      "▁घड़ी": 7760,
      "▁(195": 7761,
      "▁फेस्ट": 7762,
      "ैली": 7763,
      "▁आवश्यकताओं": 7764,
      "▁मध्यस्थ": 7765,
      "पोलिस": 7766,
      "▁क्रिस्टो": 7767,
      "▁आदिवासी": 7768,
      "▁अंडे": 7769,
      "▁वही": 7770,
      "ज़ु": 7771,
      "▁<बी.": 7772,
      "परिवार": 7773,
      "▁\"न्यू": 7774,
      "▁विश्वसनीय": 7775,
      "▁फेल": 7776,
      "▁प्रोग्रामिंग": 7777,
      "▁फोटोग्रा": 7778,
      "▁टार": 7779,
      "क्ताओं": 7780,
      "हिता": 7781,
      "▁कोचिंग": 7782,
      "्यूप": 7783,
      "▁व्ला": 7784,
      ".1%": 7785,
      "री\"": 7786,
      "▁मुस्लिम": 7787,
      "▁चर्चों": 7788,
      "▁\"मे": 7789,
      "ंदर्य": 7790,
      "▁भूत": 7791,
      "▁मार्गदर्शन": 7792,
      "▁जेट": 7793,
      "ड्ढ": 7794,
      "▁ईंट": 7795,
      "▁रंगों": 7796,
      "▁निया": 7797,
      "▁छुट्टी": 7798,
      "▁तमिल": 7799,
      "▁देखरेख": 7800,
      "▁संवेदन": 7801,
      "▁करने,": 7802,
      "▁इमारतें": 7803,
      "▁चांदी": 7804,
      "▁परीक्षणों": 7805,
      "▁घंटों": 7806,
      "▁कटौती": 7807,
      "▁स्काई": 7808,
      "▁एहसास": 7809,
      "▁दर्शाया": 7810,
      "▁पिता,": 7811,
      "▁क्यूबा": 7812,
      "▁रिपब्लिकन": 7813,
      "▁उत्ते": 7814,
      "▁टाइट": 7815,
      "▁श्व": 7816,
      "▁(इ": 7817,
      "▁विज्ञानी": 7818,
      "<unk>": 7819,
      "▁स्थान।": 7820,
      "▁सुविधाएं": 7821,
      "▁थॉ": 7822,
      "▁(15": 7823,
      "▁(यू.": 7824,
      "कास": 7825,
      "हालांकि": 7826,
      "▁भरी": 7827,
      "▁पिय": 7828,
      "▁फीचर": 7829,
      "मल": 7830,
      "▁पुनर्जीवित": 7831,
      "▁एकीकरण": 7832,
      "▁लगा।": 7833,
      "भाग्य": 7834,
      "▁आयात": 7835,
      "लेम": 7836,
      "▁दूसरों": 7837,
      "▁भेद": 7838,
      "साइ": 7839,
      "▁जॉर्डन": 7840,
      "▁(सी": 7841,
      "िजोना": 7842,
      "▁पुनर्व": 7843,
      "▁टेनेसी": 7844,
      "ला\"": 7845,
      "-जो": 7846,
      "▁दृढ़ता": 7847,
      "िंगर": 7848,
      "▁आहार": 7849,
      ".2%": 7850,
      "मक": 7851,
      "▁रोस": 7852,
      "▁निकटतम": 7853,
      "27": 7854,
      "▁सीटों": 7855,
      "▁चाचा": 7856,
      "▁डेला": 7857,
      "वाय": 7858,
      "-रे": 7859,
      "▁ट्रस्ट": 7860,
      "33": 7861,
      "िशन": 7862,
      "▁समीक्षाओं": 7863,
      "▁एग": 7864,
      "▁सर्ज": 7865,
      "▁नती": 7866,
      "▁\"त": 7867,
      "▁पीठ": 7868,
      "▁कार्यशाला": 7869,
      "ोरेट": 7870,
      "ंख्यिक": 7871,
      "▁सके,": 7872,
      "ंख्यिकीय": 7873,
      "▁भाल": 7874,
      "▁ज्व": 7875,
      "▁आशा": 7876,
      "▁चुके": 7877,
      "▁श्वेत": 7878,
      "▁कर्ट": 7879,
      "▁नदियों": 7880,
      "▁इंडी": 7881,
      "▁सापेक्ष": 7882,
      "▁\"एल": 7883,
      "▁जब्त": 7884,
      "▁(पी.": 7885,
      "▁सातवें": 7886,
      "▁कराया": 7887,
      "न्मूलन": 7888,
      "गास": 7889,
      "▁तारा": 7890,
      "▁स्तरों": 7891,
      "▁लाप": 7892,
      "▁क्लीवलैंड": 7893,
      "▁हड़ताल": 7894,
      "भुत": 7895,
      "▁इल": 7896,
      "▁ऑड": 7897,
      "▁51": 7898,
      "▁अख": 7899,
      "▁जीते।": 7900,
      "?\"": 7901,
      "▁डन": 7902,
      "▁केंद्रों": 7903,
      "▁अजीब": 7904,
      "टाइम": 7905,
      "▁बेंज": 7906,
      "ूं": 7907,
      "▁गन": 7908,
      "▁कल्या": 7909,
      "▁यंग": 7910,
      "▁ली,": 7911,
      "द्भुत": 7912,
      "्यून": 7913,
      "्वाला": 7914,
      "▁गुना": 7915,
      "▁समकक्ष": 7916,
      "▁त्यो": 7917,
      "पाट": 7918,
      "▁त्योहार": 7919,
      "एक": 7920,
      "▁मार्ट": 7921,
      "▁गड्ढ": 7922,
      "▁कमाई": 7923,
      "▁गुड": 7924,
      "▁1905": 7925,
      "द्म": 7926,
      "स्न": 7927,
      "लाभकारी": 7928,
      "▁भिक्ष": 7929,
      "▁जुन": 7930,
      "▁कैद": 7931,
      "▁मनाने": 7932,
      "गाल": 7933,
      "▁छिपा": 7934,
      "्लेष": 7935,
      "▁\"भ": 7936,
      "▁सांप": 7937,
      "▁बहि": 7938,
      "जतन,": 7939,
      "▁गों": 7940,
      "िरल": 7941,
      "िटा": 7942,
      "▁कोन": 7943,
      "्रॉ": 7944,
      "▁कैथरीन": 7945,
      "▁बी।": 7946,
      "▁मलेशिया": 7947,
      "▁दिग्गजों": 7948,
      "▁कथानक": 7949,
      "▁\"पी": 7950,
      "▁पारी": 7951,
      "▁परिक": 7952,
      "▁उत्पादन।": 7953,
      "▁पहने": 7954,
      "▁खतरनाक": 7955,
      "िंग\"": 7956,
      "▁साथ)": 7957,
      ".6%": 7958,
      "ंबा": 7959,
      "िस्ती": 7960,
      "▁1906": 7961,
      "▁पी।": 7962,
      "▁डेक": 7963,
      "यड": 7964,
      "▁रोगी": 7965,
      "रपूल": 7966,
      "48": 7967,
      "िश्चियन": 7968,
      "▁गाइड": 7969,
      "दूर": 7970,
      "▁डोनाल्ड": 7971,
      "▁नतीजतन,": 7972,
      "▁आई,": 7973,
      "▁फैली": 7974,
      "ड़े।": 7975,
      "▁उपयोगकर्ताओं": 7976,
      "ोजे": 7977,
      "▁लिबर": 7978,
      "▁आर्ट्स": 7979,
      "विया": 7980,
      "▁हिरासत": 7981,
      "बॉय": 7982,
      "क्ला": 7983,
      "▁मुक्के": 7984,
      "▁पारगमन": 7985,
      "जेंट": 7986,
      "▁संदिग्": 7987,
      "▁घातक": 7988,
      "▁अल्ट": 7989,
      "▁गैर-लाभकारी": 7990,
      "▁53": 7991,
      "▁176": 7992,
      "▁ऋतु": 7993,
      "कला": 7994,
      "डैम": 7995,
      ",500": 7996,
      "▁रसो": 7997,
      "▁सिम्फ": 7998,
      "▁आनुवंशिक": 7999,
      "ान्त": 8000,
      "▁रेत": 8001,
      "▁अमेरिकी,": 8002,
      "थे": 8003,
      "▁मुड़": 8004,
      "बिशप": 8005,
      "▁सौंदर्य": 8006,
      "26": 8007,
      "▁डेनमार्क": 8008,
      "विले,": 8009,
      "िमा": 8010,
      "ायन": 8011,
      "▁विकेट": 8012,
      "▁बेकर": 8013,
      "▁मतदाताओं": 8014,
      "▁दंड": 8015,
      "▁यीशु": 8016,
      "म्बो": 8017,
      "ंद्रह": 8018,
      "▁प्रकाशनों": 8019,
      "▁पैके": 8020,
      "▁आपके": 8021,
      "▁लैप": 8022,
      "▁जनजाति": 8023,
      "▁घुमा": 8024,
      "्ली": 8025,
      "▁1907": 8026,
      "▁गिरा": 8027,
      "▁आवृत्ति": 8028,
      "▁चर्च,": 8029,
      "▁विमानन": 8030,
      "▁ऑस्टिन": 8031,
      "▁फ्रंट": 8032,
      "▁अपवाद": 8033,
      "▁\"कु": 8034,
      "▁ट्रिपल": 8035,
      "जेताओं": 8036,
      "निच": 8037,
      "▁ताकत": 8038,
      "▁नीतियों": 8039,
      "▁घुस": 8040,
      "▁हड्डी": 8041,
      "▁1870": 8042,
      "▁व्यवसायी": 8043,
      "▁आकाश": 8044,
      "ज़्": 8045,
      "▁स्टा": 8046,
      "▁रोमांच": 8047,
      ".7%": 8048,
      "उन्होंने": 8049,
      "रत": 8050,
      "28": 8051,
      "▁विकलांग": 8052,
      "▁मुक्ति": 8053,
      "▁56": 8054,
      "▁विद्यालयों": 8055,
      "▁एब": 8056,
      "▁ऑफिस": 8057,
      "-ख": 8058,
      "▁यौग": 8059,
      "▁कोण": 8060,
      "चेरे": 8061,
      "ौपचारिक": 8062,
      "हना": 8063,
      "▁लास": 8064,
      "ोमे": 8065,
      "▁बैन": 8066,
      "▁175": 8067,
      "▁\"रे": 8068,
      "▁स्थानिक": 8069,
      "▁प्रोडक्शन": 8070,
      "▁प्लेटफॉर्म": 8071,
      "▁ज्वाला": 8072,
      "▁अनुभ": 8073,
      "▁कल्याण": 8074,
      "▁गिनी": 8075,
      "दीन": 8076,
      "▁बिली": 8077,
      "ौल": 8078,
      "▁पहलुओं": 8079,
      "▁डायोसिस": 8080,
      "▁अवश": 8081,
      "▁बहती": 8082,
      "▁थ्र": 8083,
      "▁मिनेसोटा": 8084,
      ".8%": 8085,
      "▁बैरन": 8086,
      "▁शरणार्थ": 8087,
      "▁लेती": 8088,
      "ुप्त": 8089,
      "▁एक्शन": 8090,
      "छा": 8091,
      "▁चीज़": 8092,
      "▁कि\"": 8093,
      "▁आयोवा": 8094,
      "▁गिटारवादक": 8095,
      "स्थापित": 8096,
      "▁खुल": 8097,
      "▁एंथनी": 8098,
      "माग": 8099,
      "▁अद्यतन": 8100,
      "▁बल्लेबाजी": 8101,
      "ब्लास्ट": 8102,
      "▁सिस": 8103,
      "▁पला": 8104,
      "कां": 8105,
      "▁तरंग": 8106,
      "▁हमारी": 8107,
      "▁\"मुझे": 8108,
      "ैम्प": 8109,
      "चस्प": 8110,
      "ेंद्र": 8111,
      "▁निकोलस": 8112,
      "▁1909": 8113,
      "▁घुट": 8114,
      "▁केविन": 8115,
      "▁डिजाइनर": 8116,
      "ब्रुक": 8117,
      "▁कू": 8118,
      "पथ": 8119,
      "▁किया।\"": 8120,
      "िज्म": 8121,
      "▁करेगा": 8122,
      "भूति": 8123,
      "▁जुड़वां": 8124,
      "▁तक।": 8125,
      "▁उधार": 8126,
      "▁पंद्रह": 8127,
      "ब्बा": 8128,
      "ंपति": 8129,
      "▁सितारे": 8130,
      "▁प्राइम": 8131,
      "▁सिखा": 8132,
      "99": 8133,
      "▁स्पिन": 8134,
      "▁छि": 8135,
      "▁आर्द": 8136,
      "▁एल्ग": 8137,
      "▁(i": 8138,
      "▁वॉकर": 8139,
      "▁उदाहरणों": 8140,
      "▁मैका": 8141,
      "▁राइफल": 8142,
      "▁इतनी": 8143,
      "▁प्रगतिशील": 8144,
      "▁सदी": 8145,
      "▁(नी": 8146,
      "▁कैरियर": 8147,
      "ढ़े": 8148,
      "▁प्राथमिकता": 8149,
      "▁रॉकेट": 8150,
      "▁सोशल": 8151,
      "▁कैमर": 8152,
      "ई\"": 8153,
      "▁क्रिश्चियन": 8154,
      "▁आपदा": 8155,
      "मार्ट": 8156,
      "इयों": 8157,
      "▁बचे": 8158,
      "▁दंपति": 8159,
      "▁खुली": 8160,
      "▁हस्तांतरण": 8161,
      "▁मुहम्मद": 8162,
      "▁मूल्यों": 8163,
      "▁मदर": 8164,
      "क्कर": 8165,
      "तत्व": 8166,
      "थिक": 8167,
      "▁पत्ते": 8168,
      "िलर": 8169,
      "▁डेनिस": 8170,
      "▁कनेक्टिकट": 8171,
      "स्टीट": 8172,
      "▁परिस्थितियों": 8173,
      "▁विजेताओं": 8174,
      "▁\"और\"": 8175,
      "गीर": 8176,
      "▁हो,": 8177,
      "▁ग्रीस": 8178,
      "हत्या": 8179,
      "▁1904": 8180,
      "▁वाट": 8181,
      "▁रोमांटिक": 8182,
      "▁पुस्तकें": 8183,
      "संस्क": 8184,
      "▁किसानों": 8185,
      "ुरी": 8186,
      "▁पक्षों": 8187,
      "▁यूगोस्लाव": 8188,
      "▁v": 8189,
      "38": 8190,
      "▁लिवरपूल": 8191,
      "▁फर्श": 8192,
      "स्तानी": 8193,
      "ारू": 8194,
      "▁लगी": 8195,
      "▁चचेरे": 8196,
      "▁अवशेषों": 8197,
      "▁याचिका": 8198,
      "▁वर्ल्ड": 8199,
      "▁सौर": 8200,
      "▁गणतंत्र": 8201,
      "▁बल्ग": 8202,
      "▁देखा।": 8203,
      "▁सला": 8204,
      "▁खिल": 8205,
      "▁सकें।": 8206,
      "यान्व": 8207,
      "▁वाइल्ड": 8208,
      "▁मेडिकल": 8209,
      "▁पूर्णकालिक": 8210,
      ".9%": 8211,
      "▁परा": 8212,
      "▁मस्जि": 8213,
      "▁दर्जा": 8214,
      "-11": 8215,
      "▁वेश": 8216,
      "36": 8217,
      "ेंशन": 8218,
      "त्विक": 8219,
      "▁गुणों": 8220,
      "▁गहरी": 8221,
      "▁नजर": 8222,
      "▁सैक्स": 8223,
      "▁हिंदू": 8224,
      "▁कर्तव्यों": 8225,
      "▁मौलिक": 8226,
      "▁सेनाओं": 8227,
      "▁सैकड़ों": 8228,
      "▁डेवल": 8229,
      "▁पहाड़ियों": 8230,
      "▁आर्कबिशप": 8231,
      "▁गवाही": 8232,
      "▁डीवीडी": 8233,
      "ल्य": 8234,
      "▁छूट": 8235,
      "▁तलवार": 8236,
      "ैंस": 8237,
      "▁व्यास": 8238,
      "▁रही,": 8239,
      "ंके": 8240,
      "▁फार्": 8241,
      "▁कॉमिक्स": 8242,
      "्यव": 8243,
      "▁नु": 8244,
      "▁वाक": 8245,
      "▁जाएगी।": 8246,
      "▁आंकड़ों": 8247,
      "▁लेखा": 8248,
      "ड़की": 8249,
      "▁संबंधी": 8250,
      "▁पागल": 8251,
      "▁युद्धपो": 8252,
      "▁हैर": 8253,
      "▁हितों": 8254,
      "▁(पूर्व": 8255,
      "▁चट्टानों": 8256,
      "बॉक्स": 8257,
      "▁कार्यान्व": 8258,
      "▁संभाला।": 8259,
      "तावास": 8260,
      "▁उन्मूलन": 8261,
      "▁आर्द्र": 8262,
      "ल्स,": 8263,
      "▁फ्रै": 8264,
      "▁शोर": 8265,
      "▁मुखर": 8266,
      "▁एन्": 8267,
      "▁खींच": 8268,
      "85": 8269,
      "▁निबंध": 8270,
      "वॉ": 8271,
      "▁c": 8272,
      "▁पैसा": 8273,
      "▁बराम": 8274,
      "▁(<unk>": 8275,
      "▁अनुभवी": 8276,
      "व,": 8277,
      "▁मॉल": 8278,
      "शंस": 8279,
      "खद": 8280,
      "भासी": 8281,
      "▁लैस": 8282,
      "▁बेल्ट": 8283,
      "▁एम्ब": 8284,
      "-स्ट": 8285,
      "▁जर्नल": 8286,
      ".4%": 8287,
      "▁हैम": 8288,
      "▁उपवि": 8289,
      "▁दूतावास": 8290,
      "▁जाएंग": 8291,
      "▁भालू": 8292,
      "▁भविष्यवाणी": 8293,
      "▁नाय": 8294,
      "▁रॉबिन्सन": 8295,
      "▁भती": 8296,
      "बसे": 8297,
      "टरियों": 8298,
      "▁हफ्त": 8299,
      "टका": 8300,
      "▁तेर": 8301,
      "▁अनौपचारिक": 8302,
      "वानी": 8303,
      "▁निराशा": 8304,
      "▁बर्नार्ड": 8305,
      "▁संलग्न": 8306,
      "ूला": 8307,
      "▁कबी": 8308,
      "▁मसौदा": 8309,
      "▁मैदानों": 8310,
      "▁पोशा": 8311,
      "▁मित्र": 8312,
      "▁बच्चा": 8313,
      "▁मैग": 8314,
      "तात्विक": 8315,
      "▁चढ़ाई": 8316,
      "वा,": 8317,
      "▁ट्यून": 8318,
      "ने,": 8319,
      "▁व्याख्यान": 8320,
      "षी": 8321,
      "37": 8322,
      "▁बढ़कर": 8323,
      "▁बने,": 8324,
      "ारो": 8325,
      "स्टीट्यूट": 8326,
      "▁पदभार": 8327,
      "▁बांग्लादेश": 8328,
      "▁अपर": 8329,
      "▁कॉर्पोरेट": 8330,
      "▁मसी": 8331,
      "▁मैर": 8332,
      "▁वेल्श": 8333,
      "▁दिलचस्प": 8334,
      "▁प्रथाओं": 8335,
      "ड\"": 8336,
      "ोश": 8337,
      "▁कोले": 8338,
      "▁1901": 8339,
      "47": 8340,
      "मेरे": 8341,
      "▁उतार": 8342,
      "▁दार्शनिक": 8343,
      "ियोल": 8344,
      "▁हॉर्न": 8345,
      "एए": 8346,
      "▁57": 8347,
      "ंसे": 8348,
      "▁पंच": 8349,
      "▁गवाह": 8350,
      "ूर्ण": 8351,
      "ताधिकार": 8352,
      "▁रसेल": 8353,
      "▁$1": 8354,
      "▁कर्तव्य": 8355,
      "',": 8356,
      "▁स्थिरता": 8357,
      "▁कीट": 8358,
      "▁फिलिस्ती": 8359,
      "▁महाद्वीपीय": 8360,
      "▁है-": 8361,
      "▁मैक्": 8362,
      "▁इन्": 8363,
      "▁1902": 8364,
      "▁पुरातात्विक": 8365,
      "▁लुइसियाना": 8366,
      "▁\"ब्ल": 8367,
      "▁झर": 8368,
      "▁हूं": 8369,
      "▁ग्राउंड": 8370,
      "ेनियाई": 8371,
      "▁b": 8372,
      "▁वियना": 8373,
      "▁चार्ल": 8374,
      "बान": 8375,
      "ार्प": 8376,
      "▁1903": 8377,
      "29": 8378,
      "वत": 8379,
      "▁ज्वालामुख": 8380,
      "▁इश": 8381,
      "▁इरादे": 8382,
      "▁मौका": 8383,
      "▁पाय": 8384,
      "▁सम्मान।": 8385,
      "▁हफ्तों": 8386,
      "क्षेत्र": 8387,
      "▁पुत्र": 8388,
      "▁स्क्वायर": 8389,
      "ुंड": 8390,
      "▁काउंट": 8391,
      "▁कार्यान्वयन": 8392,
      "▁श्रृंखलाओं": 8393,
      "▁और,": 8394,
      "▁जे।": 8395,
      "▁पार्षद": 8396,
      "स्वा": 8397,
      "▁(च": 8398,
      "▁शल्य": 8399,
      "▁प्रेमी": 8400,
      "▁कोयला": 8401,
      "▁प्रोटे": 8402,
      "▁मण": 8403,
      "46": 8404,
      "▁चेन": 8405,
      "▁पार्श्व": 8406,
      "नी\"": 8407,
      "-डी": 8408,
      "86": 8409,
      "er": 8410,
      "▁खेलना": 8411,
      "▁दस्तावेज़": 8412,
      "ए,": 8413,
      "ठित": 8414,
      "▁आयाम": 8415,
      "कांक": 8416,
      "▁फिल्मांकन": 8417,
      "▁पेंटिंग": 8418,
      "▁गुलाम": 8419,
      "▁बस्त": 8420,
      "▁करनी": 8421,
      "▁जितना": 8422,
      "▁पूंछ": 8423,
      "▁व्यंजन": 8424,
      "▁अराज": 8425,
      "▁ट्राइ": 8426,
      "▁160": 8427,
      "▁शाह": 8428,
      "▁व्हील": 8429,
      "▁पेल": 8430,
      "▁नॉट": 8431,
      "वेस्ट": 8432,
      "▁चाहती": 8433,
      "र्डिन": 8434,
      "▁ग्रै": 8435,
      "▁सर्क": 8436,
      "रिच": 8437,
      "▁दरबार": 8438,
      "ियास": 8439,
      "▁अंडा": 8440,
      "▁निहित": 8441,
      "▁इन्हें": 8442,
      "्सन": 8443,
      "▁अंतर्निहित": 8444,
      "ियन,": 8445,
      "▁बुरी": 8446,
      "▁पोषण": 8447,
      "लू": 8448,
      "सेंट": 8449,
      "▁आश्रय": 8450,
      "▁पॉइंट": 8451,
      "▁लक्ष्यों": 8452,
      "▁अनुकरण": 8453,
      "▁मेरी": 8454,
      "▁कर्मियों": 8455,
      "राबरी": 8456,
      "विग": 8457,
      "ुति": 8458,
      "▁एजेंस": 8459,
      "▁युद्धों": 8460,
      "▁मौखिक": 8461,
      "▁संश": 8462,
      "▁लिथुआन": 8463,
      "▁फसल": 8464,
      "▁1,000": 8465,
      "▁मताधिकार": 8466,
      "▁इंस्टीट्यूट": 8467,
      "▁संकेतों": 8468,
      "▁लंग": 8469,
      "▁ब्रूस": 8470,
      "▁कहने": 8471,
      "स्ट्रो": 8472,
      "▁प्रस्थान": 8473,
      "▁(7": 8474,
      "▁किनारों": 8475,
      "▁विरासत।": 8476,
      "्यजीव": 8477,
      "▁मुद्रित": 8478,
      "▁हराने": 8479,
      "फेर": 8480,
      "▁सारांश।": 8481,
      "▁दाहिने": 8482,
      "▁ईस्वी": 8483,
      "▁आत्महत्या": 8484,
      "▁पुरातत्व": 8485,
      "▁प्रकरण": 8486,
      "लंका": 8487,
      "▁निर्दिष्ट": 8488,
      "▁अभिलेख": 8489,
      "▁फेड": 8490,
      "▁बराबरी": 8491,
      "▁अवरुद्ध": 8492,
      "▁क्षमताओं": 8493,
      "ढ़ियों": 8494,
      "हासन": 8495,
      "▁सदस्य,": 8496,
      "विद": 8497,
      "▁बंदू": 8498,
      "▁ऑरल": 8499,
      "र्जी": 8500,
      "▁66": 8501,
      "▁पूर्व-": 8502,
      "-उप": 8503,
      "▁वेर": 8504,
      "▁वोल": 8505,
      "44": 8506,
      "सेड": 8507,
      "▁मुकाबला": 8508,
      "▁जागीर": 8509,
      "▁मुर्रे": 8510,
      "▁पनडुब्बी": 8511,
      "▁गिरोह": 8512,
      "▁क्षेत्र,": 8513,
      "▁पूर्वा": 8514,
      "▁कार्टर": 8515,
      "िट्ज़": 8516,
      "▁समारोहों": 8517,
      "▁दस्ते": 8518,
      "▁मजा": 8519,
      "▁श्रीमती": 8520,
      "▁कुत्ते": 8521,
      "राणिक": 8522,
      "▁250": 8523,
      "▁डक": 8524,
      "▁'आ": 8525,
      "ारण": 8526,
      "बर्ग,": 8527,
      "39": 8528,
      "▁पीड़ितों": 8529,
      "▁रेम": 8530,
      "दमिक": 8531,
      "इडर": 8532,
      "▁त्रिकोण": 8533,
      "▁जनमत": 8534,
      "▁संघों": 8535,
      "▁फोटोग्राफी": 8536,
      "▁कुक": 8537,
      "▁चुना।": 8538,
      "▁डल्ला": 8539,
      "▁वन्यजीव": 8540,
      "▁टेट": 8541,
      "▁द्वारा,": 8542,
      "▁हिस्प": 8543,
      "▁था।एस।": 8544,
      "बेर": 8545,
      "▁पुनर्गठन": 8546,
      "▁उत्तर-पश्चिमी": 8547,
      "▁बगीचे": 8548,
      "▁58": 8549,
      "▁(के": 8550,
      "▁गढ़": 8551,
      "▁होकर,": 8552,
      "▁प्रभारी": 8553,
      "वहन": 8554,
      "ं.": 8555,
      "▁होल": 8556,
      "▁लूप": 8557,
      "▁बंधन": 8558,
      "िटे": 8559,
      "▁क्रिस्टोफर": 8560,
      "▁डबलिन": 8561,
      "स्टो": 8562,
      "▁शर्तों": 8563,
      "▁\"बे": 8564,
      "▁खाता": 8565,
      "▁ब्ला": 8566,
      "▁अधिकृत": 8567,
      "▁अंडर-": 8568,
      "त्रिम": 8569,
      "▁अभिजात": 8570,
      "▁दाख": 8571,
      "कांस": 8572,
      "थित": 8573,
      "▁सिविल": 8574,
      "▁मास": 8575,
      "▁पोशाक": 8576,
      ",,": 8577,
      "कॉप": 8578,
      "ग्रे": 8579,
      "▁व्यस्त": 8580,
      "▁खबर": 8581,
      "▁रोशनी": 8582,
      "▁ट्रेल": 8583,
      "▁वाम": 8584,
      "▁उग": 8585,
      "▁क्रिस्टल": 8586,
      "र्ध्वा": 8587,
      "▁चिंत": 8588,
      "▁समीकरण": 8589,
      "▁के,": 8590,
      "▁रस": 8591,
      "▁एफ।": 8592,
      "डार": 8593,
      "▁हेलेन": 8594,
      "▁गुरु": 8595,
      "▁फीफा": 8596,
      "नामी": 8597,
      "▁शरद": 8598,
      "▁गिरफ्तारी": 8599,
      "▁प्रकोप": 8600,
      "32": 8601,
      "ग्स": 8602,
      "▁जॉनी": 8603,
      "▁शिश": 8604,
      "ेंगे": 8605,
      "▁लैंडिंग": 8606,
      "▁संस्कृत": 8607,
      "▁(बाद": 8608,
      "▁मल्टी": 8609,
      "▁निष्का": 8610,
      "▁लेबर": 8611,
      "ोउ": 8612,
      "▁खनि": 8613,
      "लित": 8614,
      "▁तेरह": 8615,
      "सले": 8616,
      "▁उठाने": 8617,
      "▁अपराधों": 8618,
      "ेटर": 8619,
      "▁शिल्प": 8620,
      "▁120": 8621,
      "▁चुका": 8622,
      "▁क्रीक": 8623,
      "▁85": 8624,
      "95": 8625,
      "ट्ज": 8626,
      "▁फिनलैंड": 8627,
      "▁\"ने": 8628,
      "ंबे": 8629,
      "▁दिखाने": 8630,
      "▁भेदभाव": 8631,
      "▁टर्मिनल": 8632,
      "▁17वीं": 8633,
      "▁ताइवान": 8634,
      "▁असमान": 8635,
      "▁कट्टरप": 8636,
      "▁वर्दी": 8637,
      "▁ड्रैगन": 8638,
      "▁ब्रुकलिन": 8639,
      "▁पूछताछ": 8640,
      "▁शिक्षित": 8641,
      "▁प्रयोगात्मक": 8642,
      "▁बहाली": 8643,
      "▁श्रीलंका": 8644,
      "ैर": 8645,
      "ूची": 8646,
      "▁अरबी": 8647,
      "ंज़": 8648,
      "▁एकल,": 8649,
      "▁गया;": 8650,
      "▁दोस्ती": 8651,
      "▁विधाय": 8652,
      "▁\"थ": 8653,
      "ेन\"": 8654,
      "▁फ्रेंचाइजी": 8655,
      "रास": 8656,
      "▁सूचकांक": 8657,
      "ियन\"": 8658,
      "▁विज्ञान,": 8659,
      "▁ब्लूज़": 8660,
      "रक्षा": 8661,
      "▁फीन": 8662,
      "▁पॉलिश": 8663,
      "▁(एल": 8664,
      "फ्": 8665,
      "▁प्रतियोगी": 8666,
      "दह": 8667,
      "त्सु": 8668,
      "▁मातृ": 8669,
      "िक,": 8670,
      "▁\"बी": 8671,
      "▁बेटी,": 8672,
      "▁सर्वस": 8673,
      "▁सराहना": 8674,
      "्यूल": 8675,
      "▁सुल्": 8676,
      "धुनिक": 8677,
      "▁चावल": 8678,
      "▁संपत्तियों": 8679,
      "▁सिंहासन": 8680,
      "▁नवाचार": 8681,
      "फिल": 8682,
      "▁संग्रहीत": 8683,
      "ोनो": 8684,
      ",200": 8685,
      "▁उपविजेता": 8686,
      "▁इब्": 8687,
      "▁करेंगे": 8688,
      "▁1898": 8689,
      "▁भावनात्मक": 8690,
      "▁मनोवैज्ञानिक": 8691,
      "ोरियल": 8692,
      "िसिया": 8693,
      "▁चौक": 8694,
      "चुर": 8695,
      "मेशन": 8696,
      "माला": 8697,
      "▁लेबन": 8698,
      "▁95": 8699,
      "▁सेंट्रल": 8700,
      "िरण": 8701,
      "▁खोलने": 8702,
      "▁प्रशिक्षक": 8703,
      "▁तैरा": 8704,
      "▁बाग": 8705,
      "▁बाघ": 8706,
      "▁फांसी": 8707,
      "श्न": 8708,
      "▁रुख": 8709,
      "स्तरीय": 8710,
      "▁डेनिश": 8711,
      "▁प्रत्या": 8712,
      "▁एनिमेट": 8713,
      "▁गोता": 8714,
      "▁बिट": 8715,
      "ोन,": 8716,
      "▁हिंसक": 8717,
      "▁बेहद": 8718,
      "ीयर": 8719,
      "▁रोजर": 8720,
      "42": 8721,
      "▁ईगल": 8722,
      "▁दोग": 8723,
      "र्ध्वाधर": 8724,
      "▁खिड़की": 8725,
      "▁भावनाओं": 8726,
      "▁साइन": 8727,
      "पेश": 8728,
      "▁प्रास": 8729,
      "▁त्वरित": 8730,
      "▁वर्गों": 8731,
      "▁1860": 8732,
      "▁प्रश्न": 8733,
      "ॉन्ग": 8734,
      "▁एम।": 8735,
      "▁मोहम्मद": 8736,
      "▁अल्पकालिक": 8737,
      "▁उपयोगी": 8738,
      "88": 8739,
      "▁मोटे": 8740,
      "▁गाड़ी": 8741,
      "▁170": 8742,
      "▁डोर": 8743,
      "▁जमी": 8744,
      "▁ऑरलियन्स": 8745,
      "कॉ": 8746,
      "िंटन": 8747,
      "▁गुंब": 8748,
      "▁बंदूकों": 8749,
      "▁हैम्पशायर": 8750,
      "▁संदिग्ध": 8751,
      "म्बल": 8752,
      "बूझ": 8753,
      "▁विकास।": 8754,
      "▁a": 8755,
      "ोला": 8756,
      "▁पुनर्ज": 8757,
      "▁\"रो": 8758,
      "▁प्राग": 8759,
      "▁यादृ": 8760,
      "▁यादृच्छिक": 8761,
      "▁मेरा": 8762,
      "▁छवियों": 8763,
      "▁पेज": 8764,
      "▁लॉज": 8765,
      "▁ट्रक": 8766,
      "▁विक्टोरियन": 8767,
      "▁देशभ": 8768,
      "▁मेटा": 8769,
      "▁कोह": 8770,
      "▁मैक्सिको": 8771,
      "-विरोधी": 8772,
      "▁फिलिस्तीन": 8773,
      "▁प्रकाशक": 8774,
      "▁झी": 8775,
      "ंस्टर": 8776,
      "▁लात": 8777,
      "ज्ञानिकों": 8778,
      "मा,": 8779,
      "क्यांश": 8780,
      "▁प्रासंगिक": 8781,
      "▁दो-": 8782,
      "▁हिप": 8783,
      "फार्म": 8784,
      "टी,": 8785,
      "▁\"पर": 8786,
      "▁कम्प": 8787,
      "▁खाना": 8788,
      "िन\"": 8789,
      "▁संतुलन": 8790,
      "▁वुल्फ": 8791,
      "▁बैले": 8792,
      "▁आंदोल": 8793,
      "▁प्रक्षेपण": 8794,
      "▁पौराणिक": 8795,
      "ोर्टर": 8796,
      "▁मूल्यवान": 8797,
      "▁म्यूजिक": 8798,
      "▁स्केट": 8799,
      "▁कि,": 8800,
      "सी.": 8801,
      "49": 8802,
      "▁शुक्र": 8803,
      "▁अल्फ्रेड": 8804,
      "गार्ड": 8805,
      "▁दीर्घकालिक": 8806,
      "▁और\"": 8807,
      "▁अस्थिर": 8808,
      "संस्करण": 8809,
      "फ\"": 8810,
      "▁क्लो": 8811,
      "▁लिखा।": 8812,
      "िस्": 8813,
      "▁उपभोक्ता": 8814,
      "▁थॉम्पसन": 8815,
      "श्त": 8816,
      "▁अग्रभाग": 8817,
      "्राय": 8818,
      "बूझकर": 8819,
      "▁साव": 8820,
      "▁ब्रॉडवे": 8821,
      "▁अहमद": 8822,
      "▁निकासी": 8823,
      "क्टी": 8824,
      "▁3.": 8825,
      "▁कृत्रिम": 8826,
      "ोपल": 8827,
      "▁बिंदुओं": 8828,
      "वासन": 8829,
      "▁थे।\"": 8830,
      "लाल": 8831,
      "▁उत्परिव": 8832,
      "-ले": 8833,
      "▁भेजने": 8834,
      "▁ब्रै": 8835,
      "सिना": 8836,
      "▁भैंस": 8837,
      "▁जोना": 8838,
      "▁हिस्सेदारी": 8839,
      "▁जरूर": 8840,
      "ों\"": 8841,
      "▁करके,": 8842,
      "▁दुकानों": 8843,
      "▁व्याकरण": 8844,
      "▁जागर": 8845,
      "▁रिचमंड": 8846,
      "▁ग्राम": 8847,
      "▁प्रान्त": 8848,
      "उनके": 8849,
      "ध्व": 8850,
      "▁चार्ली": 8851,
      "▁न्यायिक": 8852,
      "▁मस्जिद": 8853,
      "▁डाकघर": 8854,
      "▁मिलते": 8855,
      "▁समझने": 8856,
      "ब्दिक": 8857,
      "▁यूट्यूब": 8858,
      "▁मिथ": 8859,
      "▁भ्रम": 8860,
      "की,": 8861,
      "▁आग्रह": 8862,
      "हट्ट": 8863,
      "▁बिताया।": 8864,
      "▁भरे": 8865,
      "क्स,": 8866,
      "ज्ञानी": 8867,
      "▁ई।": 8868,
      "▁टूटने": 8869,
      "प्ल": 8870,
      "▁रहीं": 8871,
      "▁वान": 8872,
      "▁कार्यालयों": 8873,
      "फ़ोर्ड": 8874,
      "ोंड": 8875,
      "▁ट्राम": 8876,
      "▁संपादन": 8877,
      "▁इस्लाम": 8878,
      "34": 8879,
      "▁शपथ": 8880,
      "▁\",\"": 8881,
      "▁ब्रिस्ट": 8882,
      "▁मिचेल": 8883,
      "▁\"में": 8884,
      "▁टाय": 8885,
      "▁दांत": 8886,
      "-थ": 8887,
      "▁बीट": 8888,
      "▁क्रूर": 8889,
      "एँ,": 8890,
      "▁अलाबामा": 8891,
      "▁शोधकर्ताओं": 8892,
      "▁एली": 8893,
      "▁तैर": 8894,
      "▁एडमिरल": 8895,
      "▁हेलीकॉप": 8896,
      "▁ऊर्ध्वाधर": 8897,
      "▁लोम": 8898,
      "▁1899": 8899,
      "▁खाई": 8900,
      "▁इब्न": 8901,
      "▁अग्": 8902,
      "▁उदय": 8903,
      "▁अनुया": 8904,
      "▁हेम": 8905,
      "▁ढंग": 8906,
      "ताई": 8907,
      "▁पीटर्स": 8908,
      "जे.": 8909,
      "ब्लो": 8910,
      "▁की;": 8911,
      "▁कैरी": 8912,
      "▁समर्थकों": 8913,
      "▁वाक्यांश": 8914,
      "▁सोलह": 8915,
      "▁ओस": 8916,
      "▁ग्लासगो": 8917,
      "वॉल": 8918,
      "▁बाह": 8919,
      "ेनियन": 8920,
      "▁10,000": 8921,
      "▁माफी": 8922,
      "▁आकृति": 8923,
      "▁गले": 8924,
      "▁प्रोटेस्टेंट": 8925,
      "▁इतने": 8926,
      "वेज": 8927,
      "▁लोग,": 8928,
      "पाती": 8929,
      "▁बाजारों": 8930,
      "▁ग्राहम": 8931,
      "▁क्वीन्सलैंड": 8932,
      "कार्य": 8933,
      "▁विधायी": 8934,
      "▁कारकों": 8935,
      "▁स्विच": 8936,
      "▁होगी": 8937,
      "▁अनुपस्थिति": 8938,
      "ियोन": 8939,
      "▁रैली": 8940,
      "▁जागरूक": 8941,
      "▁अविश्व": 8942,
      "▁स्वच्छ": 8943,
      "▁सूट": 8944,
      "▁(10": 8945,
      "जनरल": 8946,
      "▁विकिरण": 8947,
      "▁उर": 8948,
      "▁घुटने": 8949,
      "▁फ्रैंकलिन": 8950,
      "वह": 8951,
      "▁एज़": 8952,
      "▁अर्कांस": 8953,
      "उन,": 8954,
      "ट्रिक्स": 8955,
      "▁ओब्लास्ट": 8956,
      "▁एडी": 8957,
      "▁सपाट": 8958,
      "▁एल्गोरि": 8959,
      "शित": 8960,
      "▁नौकाओं": 8961,
      "ेल,": 8962,
      "▁महासंघ": 8963,
      "▁वसीय": 8964,
      "▁एस्क": 8965,
      "▁क्रूज": 8966,
      "▁शाखाओं": 8967,
      "▁करेगा,": 8968,
      "ूसलम": 8969,
      "▁ताई": 8970,
      "▁बला": 8971,
      "तरंज": 8972,
      "▁समूह,": 8973,
      "▁बेबी": 8974,
      "लेड": 8975,
      "▁स्पीड": 8976,
      "▁बंगाल": 8977,
      "▁अकादमिक": 8978,
      "▁डॉ।": 8979,
      "▁प्रस्तुति": 8980,
      "▁चौदह": 8981,
      "▁टोपी": 8982,
      "▁गतिशील": 8983,
      "▁श्रेणियों": 8984,
      "▁पुनर्म": 8985,
      "ज्जित": 8986,
      "▁नाइ": 8987,
      "▁ब्रों": 8988,
      "▁मिले।": 8989,
      "▁खेले,": 8990,
      "▁मासिक": 8991,
      "31": 8992,
      "▁बेंजामिन": 8993,
      "▁सिग": 8994,
      "▁वैगन": 8995,
      "▁गायिका": 8996,
      "सैन": 8997,
      "▁2-1": 8998,
      "▁बिन": 8999,
      "▁आश्चर्यजनक": 9000,
      "41": 9001,
      "▁परिपक्व": 9002,
      "▁प्लेटफार्म": 9003,
      "▁तालाब": 9004,
      "▁अद्भुत": 9005,
      "▁76": 9006,
      "▁बाईं": 9007,
      "ेषण": 9008,
      "▁प्या": 9009,
      "▁तीर": 9010,
      "वाट": 9011,
      "ंटम": 9012,
      "▁नैश": 9013,
      "▁मसीह": 9014,
      "दाद": 9015,
      "लगभग": 9016,
      "▁पहुंचे": 9017,
      "▁डीजे": 9018,
      "▁हटने": 9019,
      "ंतुकों": 9020,
      "चेंज": 9021,
      "▁पुर्तगाल": 9022,
      "▁ऑटो": 9023,
      "▁कपड़ों": 9024,
      "▁नारी": 9025,
      "▁धीमी": 9026,
      "▁सहस": 9027,
      "▁दूध": 9028,
      "▁59": 9029,
      "▁केनेडी": 9030,
      "्रॉइट": 9031,
      "▁स्ट्रीम": 9032,
      "ंदाज": 9033,
      "▁बोग": 9034,
      "ान,": 9035,
      "▁अल्पसंख्यक": 9036,
      "▁डर्बी": 9037,
      "▁नकली": 9038,
      "▁मोर्चे": 9039,
      "▁लूट": 9040,
      "▁स्पेक्ट": 9041,
      "-21": 9042,
      "रबै": 9043,
      "▁लॉग": 9044,
      "▁सिवाय": 9045,
      "राई": 9046,
      "▁देवता": 9047,
      "▁जन्मदिन": 9048,
      "ड़िया": 9049,
      "▁(9": 9050,
      "म्बर्ग": 9051,
      "▁\"बा": 9052,
      "/या": 9053,
      "▁अनुष्ठ": 9054,
      "▁फेस": 9055,
      "▁टेबल": 9056,
      "▁वायरस": 9057,
      "▁बैरी": 9058,
      "ियु": 9059,
      "▁इलेक्ट्रिक": 9060,
      "▁मैकडो": 9061,
      "▁घटकों": 9062,
      "▁वहां": 9063,
      "▁जानबूझकर": 9064,
      "▁साथियों": 9065,
      "▁महार": 9066,
      "▁पर्यावरणीय": 9067,
      "▁दावों": 9068,
      "▁हड": 9069,
      "▁नेवा": 9070,
      "▁बेली": 9071,
      "▁नोवा": 9072,
      "▁खेलता": 9073,
      "▁मोज": 9074,
      "▁अनुप्रयोगों": 9075,
      "▁निकालने": 9076,
      "▁एनिमेटेड": 9077,
      "▁छद्म": 9078,
      "▁प्रतीक्षा": 9079,
      "▁गैर-स": 9080,
      "▁गिरने": 9081,
      "▁लय": 9082,
      "कृतियों": 9083,
      "▁प्रसंस्करण": 9084,
      "लीस": 9085,
      "ोमो": 9086,
      "▁एंजाइम": 9087,
      "▁नॉर्मन": 9088,
      "▁निपटने": 9089,
      "▁उत्पीड़न": 9090,
      "▁डॉक": 9091,
      "हिला": 9092,
      "▁रिपोर्टर": 9093,
      "▁विषा": 9094,
      "▁अनुमोदित": 9095,
      "▁किंवदंती": 9096,
      "▁पहलू": 9097,
      "▁कंक": 9098,
      "▁धकेल": 9099,
      "▁पेरू": 9100,
      "ुद्धार": 9101,
      "▁चौड़े": 9102,
      "▁1896": 9103,
      "▁कराई": 9104,
      "▁सीधा": 9105,
      "▁चक": 9106,
      "मुक्त": 9107,
      "▁यॉर्कशायर": 9108,
      "▁लिबरल": 9109,
      "▁सप": 9110,
      "▁पुनरुत्": 9111,
      "▁पट्टे": 9112,
      "▁उंग": 9113,
      "▁लॉक": 9114,
      "▁\"नि": 9115,
      "▁'स": 9116,
      "कर्मी": 9117,
      "----------------": 9118,
      "▁दस्तावेजों": 9119,
      "▁गुंबद": 9120,
      "कार,": 9121,
      "कीपर": 9122,
      "▁अभिनेताओं": 9123,
      "बस": 9124,
      "ागार": 9125,
      "स्टर्स": 9126,
      "भेद": 9127,
      "▁अवकाश": 9128,
      "बाउंड": 9129,
      "▁बीयर": 9130,
      "पीड": 9131,
      "▁ब्रद": 9132,
      "▁प्रतिबिंबित": 9133,
      "▁होगी,": 9134,
      "▁आगंतुकों": 9135,
      "▁उद्यानों": 9136,
      "▁दर्शक": 9137,
      "▁निर्धारण": 9138,
      "▁मेगा": 9139,
      "▁क्षेत्रफल": 9140,
      "वती": 9141,
      "▁मनोविज्ञान": 9142,
      "थाक": 9143,
      "▁जड़": 9144,
      "▁जैकब": 9145,
      "▁फर्ना": 9146,
      "▁r": 9147,
      "▁दूत": 9148,
      "▁अक्षम": 9149,
      "▁पेय": 9150,
      "▁बर्ट": 9151,
      "▁सुसज्जित": 9152,
      "▁पुनरुद्धार": 9153,
      "▁लेंस": 9154,
      "▁आयन": 9155,
      "▁मिलिश": 9156,
      "▁स्वे": 9157,
      "ोसा": 9158,
      "▁डालने": 9159,
      "▁नमूना": 9160,
      "▁बक": 9161,
      "काशी": 9162,
      "▁विदेशों": 9163,
      "▁विलुप्त": 9164,
      "▁बॉल": 9165,
      "▁वरीय": 9166,
      "▁नॉर्ड": 9167,
      "▁समझाया": 9168,
      "गेन": 9169,
      "▁एफएम": 9170,
      "▁सेर": 9171,
      "▁मंगल": 9172,
      "▁नाइजीरिया": 9173,
      "▁600": 9174,
      "▁देवी": 9175,
      "र्सन": 9176,
      "▁चालू": 9177,
      "▁लोर": 9178,
      "▁फेलो": 9179,
      "ंबंध": 9180,
      "89": 9181,
      "▁रैखिक": 9182,
      "▁विनि": 9183,
      "बुल": 9184,
      "▁स्व-": 9185,
      "▁फेस्टिवल": 9186,
      "थाकथित": 9187,
      "▁रिको": 9188,
      "▁उत्साह": 9189,
      "▁संभाला": 9190,
      "▁एरिजोना": 9191,
      "कारियों": 9192,
      "स्टाइल": 9193,
      "ंकु": 9194,
      "ुएला": 9195,
      "▁लिफ्ट": 9196,
      "▁मंत्रिमंडल": 9197,
      "▁वफादार": 9198,
      "▁कनेक्शन": 9199,
      "मास्टर": 9200,
      "▁नमक": 9201,
      "क्को": 9202,
      "▁1895": 9203,
      "म्पा": 9204,
      "▁शतरंज": 9205,
      "▁वैली": 9206,
      "ाना,": 9207,
      "▁रेव": 9208,
      "▁मांसपेश": 9209,
      "▁ग्रिफ": 9210,
      "▁ध्वज": 9211,
      "यात्मक": 9212,
      "▁शासक": 9213,
      "▁जाल": 9214,
      "▁1897": 9215,
      "ख्ता": 9216,
      "ेंको": 9217,
      "▁वेनिस": 9218,
      "▁हल्की": 9219,
      "▁शॉ": 9220,
      "▁मैनहट्ट": 9221,
      "▁गौर": 9222,
      "▁साधन": 9223,
      "▁प्रांतों": 9224,
      "▁99": 9225,
      "▁असंभव": 9226,
      "▁डेमोक": 9227,
      "ब्रू": 9228,
      "▁m": 9229,
      "ंतजार": 9230,
      "▁थोड़ी": 9231,
      "▁आप्र": 9232,
      "वेली": 9233,
      "▁जश्न": 9234,
      "▁\"बह": 9235,
      "स्ट्री": 9236,
      "▁\"अमेर": 9237,
      "▁राजाओं": 9238,
      "▁जोश": 9239,
      "▁भ्रष्टाचार": 9240,
      "▁बहाद": 9241,
      "िकार": 9242,
      "▁लिब": 9243,
      "▁केंद्र,": 9244,
      "▁विघटन": 9245,
      "▁विश्लेष": 9246,
      "▁बुर": 9247,
      "▁\"।": 9248,
      "फेल्ड": 9249,
      "▁बाल्टी": 9250,
      "▁ईरानी": 9251,
      "▁इंतजार": 9252,
      "▁तोड़ने": 9253,
      "रीना": 9254,
      "▁\"ज़": 9255,
      "बी,": 9256,
      "▁\"सं": 9257,
      "▁विरोधियों": 9258,
      "शास्त्री": 9259,
      "▁हैंड": 9260,
      "▁वित्तपोषण": 9261,
      "जेन": 9262,
      "ेटिक": 9263,
      "जीवी": 9264,
      "ंजक": 9265,
      "▁चौरा": 9266,
      "▁सीनियर": 9267,
      "ंगीत": 9268,
      "▁V": 9269,
      "▁रिफ": 9270,
      "▁पतवार": 9271,
      "▁यांत्रिक": 9272,
      "▁\"डी": 9273,
      "▁अर्कांसस": 9274,
      "बली": 9275,
      "▁जन्मे": 9276,
      "▁संरचनात्मक": 9277,
      "▁गया)": 9278,
      "िटन": 9279,
      "मिंग": 9280,
      "▁नौकायन": 9281,
      "▁अग्न": 9282,
      "▁विज्ञाप": 9283,
      "▁जय": 9284,
      "▁1850": 9285,
      "हाइड": 9286,
      "▁1000": 9287,
      "▁जेसन": 9288,
      "▁संहिता": 9289,
      "▁वॉट": 9290,
      "▁गुजरने": 9291,
      "▁में.": 9292,
      "िलियन": 9293,
      "रात": 9294,
      "▁इनडोर": 9295,
      "................": 9296,
      "न्नीस": 9297,
      "▁पत्रकारिता": 9298,
      "ाइनों": 9299,
      "▁चंद्रमा": 9300,
      "▁ब्रिस": 9301,
      "▁अक": 9302,
      "▁चिंतित": 9303,
      "▁दया": 9304,
      "म्बे": 9305,
      "▁वीर": 9306,
      "▁धनुष": 9307,
      "▁चाय": 9308,
      "▁घंटी": 9309,
      "▁ज़ी": 9310,
      "धड़ी": 9311,
      "▁बालों": 9312,
      "▁व्यापारिक": 9313,
      "▁वाइन": 9314,
      "▁जीवों": 9315,
      "थार्थ": 9316,
      "▁पुनर्निर्मित": 9317,
      "▁मूर्तिकला": 9318,
      "▁गॉर्डन": 9319,
      "▁(बी": 9320,
      "▁नाटकों": 9321,
      "ल्डन": 9322,
      "िगर": 9323,
      "▁देखें।": 9324,
      "▁\"पा": 9325,
      "▁धूम": 9326,
      "होल्म": 9327,
      "▁जन्मे,": 9328,
      "▁खेतों": 9329,
      "▁ट्यूब": 9330,
      "▁जेरूसलम": 9331,
      "लीग": 9332,
      "सेलो": 9333,
      "▁पंजीकरण": 9334,
      "▁(एफ.": 9335,
      "▁वक्र": 9336,
      "▁बेचे": 9337,
      "▁और/या": 9338,
      "▁(ई.": 9339,
      "वालिया": 9340,
      "▁दास": 9341,
      "▁बैपट": 9342,
      "▁समरूप": 9343,
      "▁को\"": 9344,
      "▁ऑप्ट": 9345,
      "▁बढ़े": 9346,
      "▁अराजकता": 9347,
      "▁उप-प्र": 9348,
      "नाई": 9349,
      "▁बेटों": 9350,
      "▁दर्शाती": 9351,
      "▁1-0": 9352,
      "ोइ": 9353,
      "▁किंग्स": 9354,
      "▁संवे": 9355,
      "व्स्की": 9356,
      "▁एस्": 9357,
      "▁विक्टर": 9358,
      "▁उद्धरण": 9359,
      "ब्रो": 9360,
      "▁टुकड़ा": 9361,
      "▁\"डे": 9362,
      "▁सहित)": 9363,
      "ोगा": 9364,
      "▁संपादित": 9365,
      "▁प्रतिमा": 9366,
      "▁विद्रोही": 9367,
      "दायक": 9368,
      "▁स्टेनली": 9369,
      "▁रिपोर्टों": 9370,
      "विज्ञानी": 9371,
      "▁सेवन": 9372,
      "फ्री": 9373,
      "▁पवन": 9374,
      "ू\"": 9375,
      "▁वॉली": 9376,
      "▁ऑल-": 9377,
      "िंग।": 9378,
      "▁विद्रोहियों": 9379,
      "▁यान": 9380,
      "▁सिल्वर": 9381,
      "ोल्फ": 9382,
      "▁कार्ब": 9383,
      "▁प्रश्": 9384,
      "▁सांख्यिकीय": 9385,
      "▁कक्षाओं": 9386,
      "▁लूथर": 9387,
      "▁हंगेरियन": 9388,
      "▁सुनवाई": 9389,
      "▁टैक": 9390,
      "▁मैने": 9391,
      "▁तस्क": 9392,
      "▁सेन": 9393,
      "इव": 9394,
      "▁कॉर्ड": 9395,
      "▁सख्त": 9396,
      "▁क्वेबेक": 9397,
      "नेन": 9398,
      "▁क्रिस्टी": 9399,
      "▁अज़रबै": 9400,
      "▁एथलीट": 9401,
      "43": 9402,
      "▁डेट्रॉइट": 9403,
      "▁सिम्फनी": 9404,
      "▁कॉफी": 9405,
      "प्प": 9406,
      "▁मेहमान": 9407,
      "▁रॉबिन": 9408,
      "▁रिट": 9409,
      "▁पिट्सबर्ग": 9410,
      "▁कुंजी": 9411,
      "▁कार्लोस": 9412,
      "ले-ब": 9413,
      "▁निदान": 9414,
      "▁रहना": 9415,
      "▁पदनाम": 9416,
      "▁गुजरती": 9417,
      "▁पोते": 9418,
      "▁भिन्नता": 9419,
      "ंजा": 9420,
      "▁एसी": 9421,
      "▁वाक्य": 9422,
      "▁नवीनतम": 9423,
      "▁प्राप्तकर्ता": 9424,
      "िगो": 9425,
      "हार्ट": 9426,
      "▁प्रतियां": 9427,
      "▁चाहे": 9428,
      "▁कहानियाँ": 9429,
      "▁हिस्पैनिक": 9430,
      "▁उत्तराधिकार": 9431,
      "▁67": 9432,
      "वेक": 9433,
      "▁बलात्कार": 9434,
      "▁खुशी": 9435,
      "रबंद": 9436,
      "▁मौर": 9437,
      "▁थाईलैंड": 9438,
      "▁बैपटिस्ट": 9439,
      "▁\"एन": 9440,
      "▁बाधाओं": 9441,
      "▁भ्रमित": 9442,
      "िन्": 9443,
      "▁स्नान": 9444,
      "▁ओप": 9445,
      "ंशा": 9446,
      "▁सारे": 9447,
      "▁प्रदेश": 9448,
      "▁कीः": 9449,
      "▁कोलम्बिया": 9450,
      "ट्टी": 9451,
      "▁कागज": 9452,
      "ोव्स्की": 9453,
      "ग्रेड": 9454,
      "▁बैठने": 9455,
      "रेखण": 9456,
      "▁परेड": 9457,
      "▁न्यायाधीशों": 9458,
      "▁ब्रिस्टोल": 9459,
      "▁96": 9460,
      "▁1889": 9461,
      "▁डिफ": 9462,
      "▁काफ": 9463,
      "▁लीगा": 9464,
      "▁वास्तविकता": 9465,
      "87": 9466,
      "▁खगोल": 9467,
      "▁तस्वीरें": 9468,
      "▁पंजा": 9469,
      "▁सुल्तान": 9470,
      "▁था)।": 9471,
      "▁अल्फा": 9472,
      "बिनेट": 9473,
      "▁लेखों": 9474,
      "पी।": 9475,
      "▁1893": 9476,
      "▁77": 9477,
      "▁सार्ज": 9478,
      "▁\"स्व": 9479,
      "▁नेपोल": 9480,
      "▁आगामी": 9481,
      "▁माओ": 9482,
      "▁सीरियाई": 9483,
      "-स्तरीय": 9484,
      "▁उच्चारण": 9485,
      "रोसा": 9486,
      "्याग": 9487,
      "▁\"अन": 9488,
      "▁धोखाधड़ी": 9489,
      "लेशन": 9490,
      "ूठी": 9491,
      "▁प्रतिभाग": 9492,
      "▁विषाक्त": 9493,
      "पलट": 9494,
      "▁चिं": 9495,
      "▁सुधारों": 9496,
      "▁मुकुट": 9497,
      "▁1892": 9498,
      "फील्डर": 9499,
      "शासन": 9500,
      "▁सरकारों": 9501,
      "▁\"ना": 9502,
      "▁(डी.": 9503,
      "▁कों": 9504,
      "▁पूछा": 9505,
      "▁उपयोगिता": 9506,
      "▁मिसाइल": 9507,
      "▁खजाने": 9508,
      "▁फेन": 9509,
      "▁टर्न": 9510,
      "▁कैंप": 9511,
      "▁टाइम्स": 9512,
      "ियमित": 9513,
      "क्लि": 9514,
      "▁बिस्तर": 9515,
      "स्ली": 9516,
      "▁एफ.)": 9517,
      "▁लोड": 9518,
      "▁गियर": 9519,
      "ोकर": 9520,
      "टिंग": 9521,
      "▁\"ई": 9522,
      "▁चूह": 9523,
      "▁टेलीफोन": 9524,
      "ान्": 9525,
      "▁अनाज": 9526,
      "ल्स\"": 9527,
      "▁रूम": 9528,
      "▁मैड्र": 9529,
      "▁दिवालिया": 9530,
      "▁मोरिस": 9531,
      "▁मंगोल": 9532,
      "तापूर्ण": 9533,
      "लेखा": 9534,
      "चिक": 9535,
[...]
