<|endoftext|>	0
<|im_start|>	0
<|im_end|>	0
<0x00>	0
<0x01>	0
<0x02>	0
<0x03>	0
<0x04>	0
<0x05>	0
<0x06>	0
<0x07>	0
<0x08>	0
<0x09>	0
<0x0A>	0
<0x0B>	0
<0x0C>	0
<0x0D>	0
<0x0E>	0
<0x0F>	0
<0x10>	0
<0x11>	0
<0x12>	0
<0x13>	0
<0x14>	0
<0x15>	0
<0x16>	0
<0x17>	0
<0x18>	0
<0x19>	0
<0x1A>	0
<0x1B>	0
<0x1C>	0
<0x1D>	0
<0x1E>	0
<0x1F>	0
<0x20>	0
<0x21>	0
<0x22>	0
<0x23>	0
<0x24>	0
<0x25>	0
<0x26>	0
<0x27>	0
<0x28>	0
<0x29>	0
<0x2A>	0
<0x2B>	0
<0x2C>	0
<0x2D>	0
<0x2E>	0
<0x2F>	0
<0x30>	0
<0x31>	0
<0x32>	0
<0x33>	0
<0x34>	0
<0x35>	0
<0x36>	0
<0x37>	0
<0x38>	0
<0x39>	0
<0x3A>	0
<0x3B>	0
<0x3C>	0
<0x3D>	0
<0x3E>	0
<0x3F>	0
<0x40>	0
<0x41>	0
<0x42>	0
<0x43>	0
<0x44>	0
<0x45>	0
<0x46>	0
<0x47>	0
<0x48>	0
<0x49>	0
<0x4A>	0
<0x4B>	0
<0x4C>	0
<0x4D>	0
<0x4E>	0
<0x4F>	0
<0x50>	0
<0x51>	0
<0x52>	0
<0x53>	0
<0x54>	0
<0x55>	0
<0x56>	0
<0x57>	0
<0x58>	0
<0x59>	0
<0x5A>	0
<0x5B>	0
<0x5C>	0
<0x5D>	0
<0x5E>	0
<0x5F>	0
<0x60>	0
<0x61>	0
<0x62>	0
<0x63>	0
<0x64>	0
<0x65>	0
<0x66>	0
<0x67>	0
<0x68>	0
<0x69>	0
<0x6A>	0
<0x6B>	0
<0x6C>	0
<0x6D>	0
<0x6E>	0
<0x6F>	0
<0x70>	0
<0x71>	0
<0x72>	0
<0x73>	0
<0x74>	0
<0x75>	0
<0x76>	0
<0x77>	0
<0x78>	0
<0x79>	0
<0x7A>	0
<0x7B>	0
<0x7C>	0
<0x7D>	0
<0x7E>	0
<0x7F>	0
<0x80>	0
<0x81>	0
<0x82>	0
<0x83>	0
<0x84>	0
<0x85>	0
<0x86>	0
<0x87>	0
<0x88>	0
<0x89>	0
<0x8A>	0
<0x8B>	0
<0x8C>	0
<0x8D>	0
<0x8E>	0
<0x8F>	0
<0x90>	0
<0x91>	0
<0x92>	0
<0x93>	0
<0x94>	0
<0x95>	0
<0x96>	0
<0x97>	0
<0x98>	0
<0x99>	0
<0x9A>	0
<0x9B>	0
<0x9C>	0
<0x9D>	0
<0x9E>	0
<0x9F>	0
<0xA0>	0
<0xA1>	0
<0xA2>	0
<0xA3>	0
<0xA4>	0
<0xA5>	0
<0xA6>	0
<0xA7>	0
<0xA8>	0
<0xA9>	0
<0xAA>	0
<0xAB>	0
<0xAC>	0
<0xAD>	0
<0xAE>	0
<0xAF>	0
<0xB0>	0
<0xB1>	0
<0xB2>	0
<0xB3>	0
<0xB4>	0
<0xB5>	0
<0xB6>	0
<0xB7>	0
<0xB8>	0
<0xB9>	0
<0xBA>	0
<0xBB>	0
<0xBC>	0
<0xBD>	0
<0xBE>	0
<0xBF>	0
<0xC0>	0
<0xC1>	0
<0xC2>	0
<0xC3>	0
<0xC4>	0
<0xC5>	0
<0xC6>	0
<0xC7>	0
<0xC8>	0
<0xC9>	0
<0xCA>	0
<0xCB>	0
<0xCC>	0
<0xCD>	0
<0xCE>	0
<0xCF>	0
<0xD0>	0
<0xD1>	0
<0xD2>	0
<0xD3>	0
<0xD4>	0
<0xD5>	0
<0xD6>	0
<0xD7>	0
<0xD8>	0
<0xD9>	0
<0xDA>	0
<0xDB>	0
<0xDC>	0
<0xDD>	0
<0xDE>	0
<0xDF>	0
<0xE0>	0
<0xE1>	0
<0xE2>	0
<0xE3>	0
<0xE4>	0
<0xE5>	0
<0xE6>	0
<0xE7>	0
<0xE8>	0
<0xE9>	0
<0xEA>	0
<0xEB>	0
<0xEC>	0
<0xED>	0
<0xEE>	0
<0xEF>	0
<0xF0>	0
<0xF1>	0
<0xF2>	0
<0xF3>	0
<0xF4>	0
<0xF5>	0
<0xF6>	0
<0xF7>	0
<0xF8>	0
<0xF9>	0
<0xFA>	0
<0xFB>	0
<0xFC>	0
<0xFD>	0
<0xFE>	0
<0xFF>	0
▁के	-3.23416
,	-3.43331
।	-3.44794
▁में	-3.48878
▁	-3.52161
▁और	-3.9854
1	-4.09775
▁की	-4.22191
▁है	-4.23677
0	-4.33123
▁को	-4.35646
▁से	-4.38853
▁एक	-4.43025
.	-4.48867
2	-4.51919
▁का	-4.67911
9	-4.69322
▁था	-4.83696
-	-4.84967
▁किया	-4.8787
▁लिए	-4.8924
▁ने	-4.99232
▁गया	-5.02912
▁"	-5.04829
"	-5.05144
▁पर	-5.1204
▁हैं	-5.27869
8	-5.30464
▁रूप	-5.32539
▁(	-5.40578
5	-5.48348
3	-5.49934
▁साथ	-5.54127
4	-5.55867
7	-5.56676
6	-5.57216
▁जो	-5.6138
▁कि	-5.65929
)	-5.67154
▁थे	-5.73315
▁करने	-5.75809
ों	-5.82024
▁द्वारा	-5.88662
▁यह	-5.89727
▁बाद	-5.94932
▁भी	-5.9908
▁दिया	-5.9969
▁उन्होंने	-6.01343
▁थी	-6.02729
▁तक	-6.09305
▁कर	-6.18596
▁जाता	-6.20469
▁अपने	-6.2141
र	-6.2318
न	-6.23825
▁नहीं	-6.28731
ी	-6.32205
▁हो	-6.34239
▁वह	-6.36589
▁गए	-6.38229
▁इस	-6.42435
▁गई	-6.45176
स	-6.4598
▁शामिल	-6.48048
▁या	-6.52868
▁पहले	-6.54797
▁वे	-6.55534
▁उनके	-6.62615
▁सी	-6.6543
▁ए	-6.67037
ल	-6.67597
▁उन्हें	-6.69392
▁हुए	-6.70449
क	-6.73854
▁जिसमें	-6.75694
▁करता	-6.76997
म	-6.78712
▁लेकिन	-6.80167
▁कई	-6.82557
▁अपनी	-6.82565
▁वाले	-6.82775
▁उपयोग	-6.82934
▁दो	-6.85239
▁अधिक	-6.85558
▁करते	-6.85689
▁हुआ	-6.87123
▁जब	-6.92998
ना	-6.93752
ता	-6.93939
▁समय	-6.93977
ा	-6.95181
▁डी	-6.96231
▁अन्य	-6.96556
▁कुछ	-6.97468
▁क्षेत्र	-6.97871
्स	-6.98467
▁राज्य	-6.99051
;	-6.99952
▁किए	-7.021
▁सबसे	-7.02922
▁दौरान	-7.02972
▁शुरू	-7.04562
▁काम	-7.04751
▁कम	-7.076
▁उनकी	-7.11011
▁फिर	-7.11851
▁शहर	-7.12046
▁होने	-7.12978
▁बीच	-7.13089
▁ही	-7.13164
▁एस	-7.1358
ट	-7.17394
▁इसके	-7.19099
▁नाम	-7.19119
▁जा	-7.20189
▁इसे	-7.20742
▁जिसे	-7.23934
▁कहा	-7.2429
▁बार	-7.25956
द	-7.26091
▁बी	-7.26636
ए	-7.27888
ने	-7.28414
▁प्राप्त	-7.29174
>	-7.30606
▁पी	-7.30954
सी	-7.31185
▁लिया	-7.31251
▁एम	-7.32506
▁जारी	-7.33794
▁वर्ष	-7.3387
▁सकता	-7.34622
▁<	-7.362
▁पूर्व	-7.36396
▁करना	-7.36603
▁आई	-7.3661
ई	-7.37186
प	-7.37376
▁तो	-7.3761
▁कारण	-7.38089
ो	-7.39163
▁यू	-7.39788
ड	-7.43262
unk	-7.43465
▁जाने	-7.43823
▁फिल्म	-7.43905
▁सभी	-7.4403
▁साल	-7.44358
ब	-7.44597
ली	-7.44737
▁एफ	-7.45772
▁स्थान	-7.45982
▁होता	-7.46108
▁हुई	-7.46458
▁राष्ट्रीय	-7.46631
▁एन	-7.46769
▁तीन	-7.46948
▁पास	-7.47013
े	-7.47072
▁मुख्य	-7.4714
▁एल	-7.47269
▁तरह	-7.4778
▁रहे	-7.4881
ः	-7.48969
▁रहा	-7.49431
▁विश्वविद्यालय	-7.50718
▁दी	-7.51112
▁लोगों	-7.51304
▁युद्ध	-7.51314
▁क्योंकि	-7.51799
▁शुरुआत	-7.52282
▁स्कूल	-7.52577
▁खेल	-7.52596
▁पहली	-7.52752
▁टीम	-7.52833
▁दोनों	-7.54053
▁ओ	-7.54066
▁प्रमुख	-7.54323
▁लगभग	-7.54449
ले	-7.5447
▁उस	-7.54672
ज	-7.5581
▁केवल	-7.56034
▁जैसे	-7.56253
/	-7.56285
व	-7.56671
री	-7.57114
▁ले	-7.57219
▁आर	-7.57436
▁अ	-7.57511
▁'	-7.57626
),	-7.58729
▁दक्षिण	-7.59014
▁निर्माण	-7.59188
▁बन	-7.59297
ला	-7.59751
▁संयुक्त	-7.60033
▁संगीत	-7.60482
▁जाना	-7.60757
रा	-7.61889
▁जीवन	-7.61894
▁समूह	-7.62523
▁ओर	-7.62654
▁मूल	-7.63082
▁टी	-7.63731
का	-7.64519
▁भाग	-7.64661
▁स्थित	-7.6478
ग	-7.65421
िंग	-7.65479
▁बहुत	-7.65906
▁अमेरिकी	-7.66425
▁सेवा	-7.66495
ज़	-7.66699
▁कार्य	-7.66896
▁वाली	-7.67911
▁श्रृंखला	-7.694
▁अंत	-7.70006
▁इतिहास	-7.70352
▁खिलाफ	-7.70927
▁ऑफ	-7.71153
च	-7.71292
▁दशक	-7.71991
▁रखा	-7.72249
▁होती	-7.72344
▁जहाँ	-7.72361
▁विशेष	-7.72632
नी	-7.73739
मा	-7.74282
▁घर	-7.74336
ह	-7.74499
▁करती	-7.74854
▁उनका	-7.75092
एस	-7.7578
▁नए	-7.76077
▁आम	-7.76247
▁अमेरिका	-7.76653
▁परिवार	-7.7684
▁उसे	-7.77333
बी	-7.77856
▁थीं	-7.78622
▁सदस्य	-7.78719
▁माध्यम	-7.78978
▁बारे	-7.79498
वीं	-7.79647
▁अपना	-7.79647
ंग	-7.79881
▁मृत्यु	-7.80002
▁प्रदर्शन	-7.80026
▁कोई	-7.80263
▁एल्बम	-7.80803
▁कंपनी	-7.80947
फ	-7.8118
▁होते	-7.81524
वा	-7.81993
▁इन	-7.82135
ओ	-7.82277
▁जबकि	-7.82394
▁प्रदान	-7.82408
▁अंतिम	-7.83083
'	-7.83095
▁बनाया	-7.83116
▁चार	-7.834
▁ई	-7.83447
को	-7.83854
▁लीग	-7.8423
▁विश्व	-7.84864
▁रिकॉर्ड	-7.85012
▁हालाँकि	-7.8514
▁उत्तर	-7.86178
▁कार्यक्रम	-7.86799
डी	-7.87053
▁क्लब	-7.87222
▁सेना	-7.87953
▁पहला	-7.87994
▁किसी	-7.88131
▁अलग	-7.89504
▁मार्च	-7.91929
त	-7.91931
▁गीत	-7.9227
▁जाती	-7.93842
श	-7.93911
▁जी	-7.94193
▁अब	-7.95437
",	-7.95842
▁उसके	-7.95918
▁इसका	-7.96362
ती	-7.96627
▁पुरस्कार	-7.96696
▁जून	-7.97462
▁काउंटी	-7.9773
ते	-7.98021
के	-7.98348
गा	-7.98349
▁सितंबर	-7.99298
ियों	-7.99468
▁प्रकार	-7.99975
▁जनवरी	-8.00116
या	-8.00317
▁मई	-8.00549
▁हालांकि	-8.0068
▁जुलाई	-8.00943
रो	-8.00971
▁केंद्र	-8.00988
▁अक्टूबर	-8.01322
।"	-8.01425
▁बड़े	-8.01518
.)	-8.01771
मैन	-8.0203
%	-8.02849
▁वी	-8.03161
▁अगस्त	-8.03225
▁समाप्त	-8.03408
थ	-8.03915
▁उच्च	-8.04052
ित	-8.04285
▁दूसरे	-8.04865
िक	-8.05592
▁चर्च	-8.05733
▁अप्रैल	-8.05834
▁स्टेशन	-8.06269
▁जिसका	-8.06568
▁नवंबर	-8.07022
▁प्रतिशत	-8.07405
िया	-8.07605
▁जिन्होंने	-8.07667
▁जॉन	-8.07836
▁दिसंबर	-8.0785
▁देने	-8.0817
▁सीज़न	-8.0881
▁द	-8.08817
ें	-8.09096
▁वर्षों	-8.09882
▁स्थानीय	-8.09964
▁विकास	-8.10314
▁एकल	-8.10321
टा	-8.10344
▁अनुसार	-8.10351
▁विभिन्न	-8.10755
▁सरकार	-8.10809
▁संघ	-8.11013
▁जन्म	-8.11362
▁दिन	-8.11572
▁जिससे	-8.11596
▁वाला	-8.12397
▁स्थापित	-8.12486
▁तब	-8.1264
वें	-8.12953
▁शताब्दी	-8.13294
य	-8.13778
▁अंतर्राष्ट्रीय	-8.13951
▁अधिकांश	-8.14012
▁देता	-8.14327
▁सकते	-8.15021
▁महत्वपूर्ण	-8.1511
▁स्थापना	-8.15156
नो	-8.15222
▁प्रत्येक	-8.15389
सा	-8.15488
▁महिला	-8.15601
▁कॉलेज	-8.15614
▁प्रारंभिक	-8.15665
▁तहत	-8.1574
लो	-8.16085
▁न	-8.166
▁जाते	-8.16964
▁प्रति	-8.17054
▁बाहर	-8.17069
▁डब्ल्यू	-8.17268
▁बैंड	-8.17485
▁हिस्सा	-8.18006
वे	-8.1813
▁दिखाई	-8.18956
▁फरवरी	-8.18973
ओं	-8.19167
▁फुटबॉल	-8.19572
▁विज्ञान	-8.1969
▁नदी	-8.19727
▁ली	-8.20354
▁समर्थन	-8.20398
▁अध्ययन	-8.20424
▁कभी	-8.20751
▁प्रकाशित	-8.20929
रे	-8.21284
▁शिक्षा	-8.21367
▁स्थिति	-8.21432
जी	-8.21563
▁बनाने	-8.21625
कर	-8.21673
र्स	-8.21736
▁वर्तमान	-8.21796
▁सेंट	-8.21825
▁एच	-8.22477
▁आगे	-8.22516
▁जे	-8.22687
▁कला	-8.23044
▁रही	-8.23049
▁जीत	-8.23586
▁छोड़	-8.23921
एक	-8.24343
▁चुनाव	-8.24406
▁घोषणा	-8.2449
से	-8.2454
▁एंड	-8.24805
▁उन	-8.25072
▁शो	-8.25218
▁सत्र	-8.25723
▁संस्करण	-8.25933
▁पार्टी	-8.25994
▁उत्तरी	-8.26061
▁प्रणाली	-8.2608
▁उत्पादन	-8.26279
▁पूरी	-8.26558
▁भूमि	-8.27092
▁इसकी	-8.27447
▁करियर	-8.27674
बा	-8.2774
पी	-8.28378
टी	-8.28909
▁कुल	-8.29647
▁माना	-8.2971
▁ब्रिटिश	-8.29783
▁प्रवेश	-8.30284
ियन	-8.30479
▁मार्ग	-8.30619
िस	-8.30709
ि	-8.30737
▁जिसने	-8.31168
वी	-8.31178
▁बनाए	-8.31492
▁छोटे	-8.31804
)।	-8.31867
▁व्यक्ति	-8.32332
▁सार्वजनिक	-8.3255
िन	-8.3257
▁आधार	-8.32603
▁ला	-8.32626
▁अलावा	-8.3276
▁चैंपियनशिप	-8.32804
एन	-8.34011
स्ट	-8.34149
▁करके	-8.34322
की	-8.34409
▁स्तर	-8.3465
▁पता	-8.34994
▁पूरा	-8.35158
▁आ	-8.35165
▁सामान्य	-8.35524
▁आयोजित	-8.35572
▁संख्या	-8.35675
▁इसमें	-8.35932
▁वापस	-8.35984
▁हिस्से	-8.36064
▁न्यूयॉर्क	-8.3641
▁जिनमें	-8.36477
▁तुलना	-8.36763
▁बंद	-8.36864
▁अक्सर	-8.37082
▁भूमिका	-8.3709
▁भीतर	-8.37702
▁इ	-8.37948
▁बे	-8.38196
▁मध्य	-8.38214
टो	-8.38545
▁समान	-8.38559
▁आवश्यकता	-8.39022
▁नियुक्त	-8.39091
डो	-8.39483
▁जिसके	-8.39489
▁सड़क	-8.39659
सन	-8.40436
▁तौर	-8.40468
▁लोग	-8.4052
साथ	-8.40849
▁शीर्ष	-8.41098
▁अनुमति	-8.41401
▁नेतृत्व	-8.41557
▁आयु	-8.42488
▁चाहिए	-8.42651
▁इसलिए	-8.42766
▁दुनिया	-8.43001
▁खिलाड़ी	-8.43204
▁हे	-8.43446
क्स	-8.44113
▁क्षेत्रों	-8.44307
▁विकसित	-8.44758
▁कप	-8.44849
▁योजना	-8.44949
▁नई	-8.45246
मो	-8.45539
▁कानून	-8.45593
▁न्यू	-8.4563
▁गैर	-8.46441
ं	-8.46478
▁यात्रा	-8.46505
▁संबंधित	-8.46601
▁जीता	-8.47139
▁शादी	-8.47586
▁बड़ी	-8.47687
▁संबंध	-8.47949
▁वि	-8.48115
▁मो	-8.48244
▁गाँव	-8.48376
▁जिले	-8.48535
▁दिए	-8.48596
▁लिखा	-8.49043
▁अध्यक्ष	-8.49462
ंड	-8.49672
▁आबादी	-8.49745
▁मदद	-8.50248
▁बना	-8.50451
▁पश्चिमी	-8.50613
▁उप	-8.50717
▁जिन्हें	-8.50801
▁("	-8.50944
▁नीचे	-8.51249
▁""	-8.51272
▁पिता	-8.51578
▁बदल	-8.51768
▁सहित	-8.51829
")	-8.51842
▁प्रयास	-8.52061
▁व्यक्तिगत	-8.52125
▁हैः	-8.5236
▁सूची	-8.52484
▁देश	-8.52487
▁वर्ग	-8.52513
▁मैच	-8.53618
▁महिलाओं	-8.53916
▁पुस्तक	-8.54391
▁प्रतिनिधित्व	-8.54446
▁अभी	-8.54459
डा	-8.54472
▁खुद	-8.54509
▁बिना	-8.54675
▁द्वीप	-8.54934
▁पीछे	-8.54996
उ	-8.55088
▁जर्मन	-8.55132
एँ	-8.55433
▁पश्चिम	-8.55573
अ	-8.55685
स्	-8.55773
▁ऐतिहासिक	-8.55989
▁सीमा	-8.56105
▁तट	-8.5614
▁डॉलर	-8.5626
▁गोल	-8.56328
▁अगले	-8.56382
▁परिषद	-8.56467
आ	-8.56568
मी	-8.56799
▁प्रभाव	-8.56882
▁स्नातक	-8.57016
▁देखा	-8.57185
▁डिजाइन	-8.57283
▁लाइन	-8.5753
▁चला	-8.57852
डे	-8.57917
▁छह	-8.57956
यर	-8.58075
वर	-8.5822
एल	-8.5824
▁पेशेवर	-8.58529
▁रे	-8.5884
▁राजनीतिक	-8.58863
▁सकती	-8.58912
▁रंग	-8.58939
▁व्यापक	-8.5903
▁लेने	-8.5927
▁अल	-8.5934
▁पद	-8.59803
टन	-8.60273
▁मे	-8.6046
पा	-8.60557
▁अंग्रेजी	-8.60663
ीय	-8.60856
▁लंदन	-8.60986
▁बो	-8.61214
▁हैंः	-8.61496
जा	-8.61594
▁पूरे	-8.61613
▁म	-8.61643
लैंड	-8.61919
▁सैन्य	-8.62077
ू	-8.62252
▁आसपास	-8.62298
▁आकार	-8.62418
ख	-8.62613
यू	-8.62777
▁लड़ाई	-8.62827
▁कै	-8.63153
▁हासिल	-8.63169
तौर	-8.63182
▁बने	-8.63463
▁पूर्वी	-8.63485
▁होगा	-8.63578
▁हार	-8.63649
एम	-8.64023
▁ऐसा	-8.64098
▁औसत	-8.6429
▁देते	-8.64358
▁सा	-8.64361
▁चुना	-8.64567
▁टेलीविजन	-8.64754
▁ध्यान	-8.64888
जन्म	-8.65005
▁सि	-8.65125
▁अवधि	-8.65256
▁उसी	-8.65331
ेन	-8.65626
▁डे	-8.657
▁विभाग	-8.66092
▁अंततः	-8.66276
इ	-8.66297
▁बड़ा	-8.66309
▁हस्ताक्षर	-8.66374
▁पार्क	-8.66749
▁युवा	-8.66885
▁प	-8.67144
▁सूत्र	-8.67225
▁खेला	-8.67244
ंट	-8.67316
▁पार	-8.6749
जो	-8.67723
▁मार	-8.67801
▁शैली	-8.6794
▁खोज	-8.68136
मे	-8.68147
▁बच्चों	-8.68236
▁परिणामस्वरूप	-8.68327
जे	-8.68348
▁स्थानांतरित	-8.68358
▁पानी	-8.68545
▁हवाई	-8.68559
▁पे	-8.68929
▁संचालन	-8.68936
▁यूरोपीय	-8.68937
▁राष्ट्रपति	-8.69827
▁उदाहरण	-8.7046
▁कैरियर	-8.70629
▁ये	-8.70641
▁विद्यालय	-8.70845
▁उसकी	-8.70943
गो	-8.70967
टे	-8.71103
▁समुदाय	-8.71125
▁ताकि	-8.71313
▁सहायक	-8.71323
▁सदस्यों	-8.71433
▁शाही	-8.71458
▁अभियान	-8.71707
▁रहने	-8.71966
▁वीडियो	-8.72084
▁दौड़	-8.72237
▁लंबे	-8.72316
▁आए	-8.7232
▁दूसरा	-8.72329
▁_	-8.7238
▁भाषा	-8.72702
▁सुधार	-8.72916
▁राजा	-8.7296
▁हर	-8.73304
▁विस्तार	-8.73348
▁दल	-8.73491
बे	-8.73592
▁बजाय	-8.73642
ण	-8.73752
▁ट्रैक	-8.7378
▁इंग्लैंड	-8.74232
▁रेडियो	-8.74346
▁पाया	-8.74484
▁उसने	-8.74814
▁रेलवे	-8.74924
▁ह	-8.75005
आई	-8.75156
▁दूसरी	-8.75167
लर	-8.75174
▁स्पष्ट	-8.75276
▁रहते	-8.75321
:	-8.75375
▁इमारत	-8.7567
▁प्रस्तुत	-8.75702
▁लेखक	-8.76059
▁उम्र	-8.76124
▁सुरक्षा	-8.76349
▁संगठन	-8.76567
▁शीर्षक	-8.76773
▁भाई	-8.76926
▁मैक	-8.76927
▁फ्रांसीसी	-8.77033
▁ऊपर	-8.77204
▁सह	-8.77565
▁सामाजिक	-8.77807
▁सके	-8.78126
▁खंड	-8.78158
▁सु	-8.78168
▁आधिकारिक	-8.78236
▁चिकित्सा	-8.78278
▁बात	-8.78562
▁जॉर्ज	-8.78569
▁नामित	-8.78572
▁सप्ताह	-8.7881
▁रखने	-8.79064
▁चले	-8.79163
▁हॉल	-8.79465
▁दूर	-8.79804
सो	-8.79856
▁विलियम	-8.80097
ियो	-8.80231
▁डिवीजन	-8.80302
▁समाचार	-8.80315
▁ऑस्ट्रेलिया	-8.80651
▁संग्रह	-8.80933
▁रो	-8.81437
▁मिला	-8.81452
▁प्रतियोगिता	-8.81611
दा	-8.81664
▁स्वास्थ्य	-8.81789
▁यदि	-8.81879
▁जहां	-8.81903
▁सर्वश्रेष्ठ	-8.82013
▁=	-8.82126
▁आया	-8.82212
▁सहायता	-8.82235
▁स्थल	-8.82326
लिन	-8.82637
▁बेटे	-8.82767
▁जाएगा	-8.82846
▁मॉडल	-8.82874
कार	-8.83527
▁परियोजना	-8.83589
▁लौट	-8.83599
▁मीटर	-8.83663
▁पत्र	-8.83923
ौ	-8.84196
▁पुरुषों	-8.84237
▁बच्चे	-8.84243
▁छात्र	-8.84267
▁हाई	-8.84353
▁विचार	-8.84475
टर	-8.84534
▁तैयार	-8.84546
▁बनाई	-8.84625
▁खेलों	-8.84637
▁अंक	-8.84697
▁कु	-8.84768
▁सक्षम	-8.84769
▁स्वतंत्र	-8.85139
▁पुलिस	-8.85149
▁शब्द	-8.8516
बो	-8.85369
▁सैन	-8.85792
्ट	-8.85858
▁द्वितीय	-8.85973
▁गेम	-8.8601
▁मिली	-8.86347
▁सम्मेलन	-8.86592
▁समाज	-8.87128
▁बताया	-8.87242
ु	-8.87296
▁सामग्री	-8.87306
▁दक्षिणी	-8.87314
▁कहानी	-8.87422
▁फाइनल	-8.87488
▁लोकप्रिय	-8.87844
▁संग्रहालय	-8.87846
▁संस्थान	-8.88036
▁एकमात्र	-8.88184
कु	-8.88262
▁पूर्ण	-8.88539
▁पुरुष	-8.88642
▁केंद्रित	-8.88655
▁पत्नी	-8.8868
नि	-8.88748
▁महीने	-8.88871
▁सामना	-8.88906
▁कोच	-8.89138
▁क्षमता	-8.89196
▁स्टूडियो	-8.89295
▁भर	-8.89372
▁जल	-8.89463
▁कनाडा	-8.89493
ेट	-8.89573
▁निर्धारित	-8.89985
▁नेटवर्क	-8.90074
▁पत्रिका	-8.90547
▁मु	-8.90607
▁बस	-8.90673
▁सामने	-8.90716
आर	-8.90734
▁पहचान	-8.90746
▁समुद्र	-8.90801
▁कार्यालय	-8.90906
▁स	-8.90969
▁बावजूद	-8.90988
▁तीसरे	-8.91137
▁दावा	-8.9117
▁सम्मान	-8.91217
▁प्रबंधन	-8.9127
▁सात	-8.91357
▁बोर्ड	-8.9139
ल्स	-8.91478
▁गो	-8.91616
▁पहुंच	-8.91625
▁छात्रों	-8.91713
▁प्रसिद्ध	-8.91763
एं	-8.91856
▁जेम्स	-8.91983
▁कार्यों	-8.92077
▁प्रभावित	-8.92183
▁उद्देश्य	-8.92183
हा	-8.92407
▁आधारित	-8.9252
▁डि	-8.9258
▁अंतर	-8.92681
इन	-8.9286
▁अधिकारी	-8.92914
▁फ्रांस	-8.92926
▁संकेत	-8.92927
▁नया	-8.92979
▁भारत	-8.93048
▁हाउस	-8.93069
▁जहाज	-8.93177
▁रात	-8.93216
▁लि	-8.93371
▁लगाया	-8.934
▁मीडिया	-8.93426
▁कमी	-8.93454
▁सो	-8.93497
▁मजबूत	-8.93581
▁सफेद	-8.93661
▁पिछले	-8.93869
पो	-8.93915
▁अर्थ	-8.94002
इस	-8.94135
▁रक्षा	-8.94191
▁वर्णन	-8.9428
▁नियंत्रण	-8.94337
▁मंत्री	-8.94359
कभी	-8.94395
▁काफी	-8.94423
▁वहाँ	-8.94504
▁प्रक्रिया	-8.94527
▁शोध	-8.9496
▁संपत्ति	-8.94995
▁गठन	-8.95064
वेल	-8.95146
▁डिग्री	-8.95229
▁स्वीकार	-8.95247
▁कैलिफोर्निया	-8.95256
▁आदेश	-8.95298
▁उपस्थिति	-8.953
▁जांच	-8.95318
▁मिल	-8.95401
▁प्रशिक्षण	-8.95404
्	-8.95599
▁नौसेना	-8.95674
▁अधिकार	-8.95684
गी	-8.9578
▁उ	-8.95793
▁विशिष्ट	-8.95796
अलग	-8.95898
▁समिति	-8.96157
▁दौर	-8.96205
▁निदेशक	-8.96219
▁भारतीय	-8.96235
▁पदक	-8.96238
▁पांच	-8.9632
▁सक्रिय	-8.96964
▁आधुनिक	-8.97011
▁रि	-8.97022
▁हम	-8.97102
▁लाल	-8.97116
▁एपिसोड	-8.9715
▁जैसा	-8.97264
▁वर्णित	-8.97418
▁ब	-8.97419
वादी	-8.97544
▁कार	-8.97696
वि	-8.97778
▁कलाकार	-8.97878
▁ग	-8.98394
▁प्रथम	-8.98613
▁पाँच	-8.98684
▁पड़ा	-8.98868
▁छोटी	-8.989
▁पक्ष	-8.99017
स्टर	-8.99067
▁दे	-8.99118
▁नियमित	-8.9914
▁एक्स	-8.9915
▁क्या	-8.99298
▁संदर्भ	-8.99349
▁अतिरिक्त	-8.99569
▁पुराने	-8.99607
▁समुद्री	-8.99667
और	-8.99935
र्ट	-9.00477
▁निजी	-9.00543
▁पैदा	-9.00776
▁अदालत	-9.00844
न्स	-9.01071
▁तुरंत	-9.01282
▁केंद्रीय	-9.01291
▁मामले	-9.01464
▁गईं	-9.01559
▁शक्ति	-9.01765
जन	-9.01835
▁ऑस्ट्रेलियाई	-9.01865
▁अच्छी	-9.0189
▁प्राथमिक	-9.02055
▁घरेलू	-9.02324
▁चरण	-9.02385
▁डो	-9.0245
▁परिणाम	-9.02568
▁पो	-9.02597
▁विरोध	-9.02777
▁चीनी	-9.02906
▁मंच	-9.02907
ध	-9.02908
▁अनुबंध	-9.02931
▁परीक्षण	-9.02948
ंस	-9.03115
▁मौजूद	-9.03146
▁नुकसान	-9.03233
▁व्यापार	-9.03402
▁डॉ	-9.03598
▁माँ	-9.03653
▁()	-9.03672
▁जगह	-9.03825
▁संचालित	-9.04004
▁दिखाया	-9.04142
▁विपरीत	-9.04181
▁डेविड	-9.04234
▁यूरोप	-9.04237
▁उपलब्ध	-9.04286
ल्ड	-9.04348
▁मैं	-9.04425
▁मा	-9.04459
▁सफल	-9.0447
▁बेटी	-9.04511
▁अधिकारियों	-9.0453
▁खेले	-9.04645
▁रॉक	-9.04774
▁वास्तव	-9.04834
▁टूर्नामेंट	-9.05091
▁मामलों	-9.05101
▁पि	-9.05172
▁लागू	-9.05186
्य	-9.0525
गन	-9.05264
▁दृश्य	-9.05313
▁फैसला	-9.05783
▁परिसर	-9.05822
▁इसने	-9.05844
ट्स	-9.05912
▁योगदान	-9.0615
▁नामक	-9.06153
▁अधिनियम	-9.0618
रि	-9.06499
▁पारंपरिक	-9.06549
▁रोमन	-9.06693
वाद	-9.0671
▁नंबर	-9.06837
▁गति	-9.07001
ियर	-9.07031
ची	-9.07123
▁$	-9.07145
दार	-9.0721
र्ड	-9.07495
▁प्रो	-9.07636
▁सम्मानित	-9.07639
▁करें	-9.07683
▁नागरिक	-9.07686
▁दस	-9.07687
पूर्व	-9.07814
▁नि	-9.07904
▁युग	-9.07926
▁वृद्धि	-9.08192
▁आज	-9.08216
▁जिला	-9.0828
▁लो	-9.08399
बर्ग	-9.08642
▁मान्यता	-9.08797
ड़	-9.08847
वो	-9.08847
▁धर्म	-9.08944
▁परिवर्तन	-9.08977
▁निर्माता	-9.08983
▁विषय	-9.09038
र्	-9.09156
लि	-9.09357
▁जर्मनी	-9.09476
▁महान	-9.09506
▁सिद्धांत	-9.09543
▁आठ	-9.09658
▁खिताब	-9.09781
वां	-9.09791
▁देशों	-9.09792
▁बा	-9.09807
▁वेस्ट	-9.09886
▁खो	-9.09917
▁रोड	-9.09957
▁गणराज्य	-9.10052
पे	-9.10209
▁लकड़ी	-9.10248
▁सूचीबद्ध	-9.10261
▁जापान	-9.10419
▁मै	-9.10421
▁संघीय	-9.10438
▁मिलियन	-9.10531
]	-9.10619
▁नगरपालिका	-9.10702
▁प्रोफेसर	-9.10966
▁दर्ज	-9.10991
▁झील	-9.11142
▁चार्ट	-9.11233
▁थॉमस	-9.11469
▁व्यवसाय	-9.1147
▁स्वामित्व	-9.1149
▁आय	-9.11634
मर	-9.11647
पश्चिम	-9.11664
▁विजेता	-9.11779
ेस	-9.11856
▁प्रस्ताव	-9.12012
ंक	-9.12207
▁ना	-9.12271
प्र	-9.12315
▁जनगणना	-9.12408
▁क	-9.12431
▁खाड़ी	-9.12475
▁आने	-9.12554
▁विभाजित	-9.12655
▁स्ट्रीट	-9.128
▁रिपोर्ट	-9.12889
▁मि	-9.12912
▁हाल	-9.12928
▁उपकरण	-9.12933
▁अकादमी	-9.12982
▁श्रेणी	-9.13125
▁होना	-9.13129
▁प्रेरित	-9.13181
▁निम्नलिखित	-9.13188
▁मैरी	-9.13616
▁मानव	-9.13846
▁उससे	-9.13956
फोर्ड	-9.14125
▁चरित्र	-9.1413
▁समीक्षा	-9.14206
▁स्	-9.14424
भ	-9.14447
लेट	-9.14451
▁मिनट	-9.14933
▁सीमित	-9.15059
▁चीन	-9.15094
▁मांग	-9.1512
▁देती	-9.15164
▁स्थानों	-9.15178
▁पॉल	-9.15202
▁जनरल	-9.1524
▁संरचना	-9.15263
▁बल	-9.15302
शा	-9.15334
▁अस्पताल	-9.15342
▁क्षेत्रीय	-9.15342
▁सुपर	-9.15353
▁प्रसारित	-9.15367
▁लगातार	-9.15398
▁मैदान	-9.1544
▁लॉ	-9.15593
▁रूसी	-9.15699
▁पेश	-9.15849
▁नौ	-9.15893
▁निर्णय	-9.15974
▁उद्यान	-9.15982
▁हत्या	-9.16204
▁वा	-9.1623
▁रन	-9.1627
▁हमला	-9.16518
र्न	-9.16522
▁दिनों	-9.16636
▁जोड़ा	-9.16652
▁दृष्टिकोण	-9.16761
गर	-9.16777
▁बु	-9.16812
▁जूनियर	-9.16841
▁प्र	-9.16863
▁निर्मित	-9.16987
फ़	-9.17011
▁विमान	-9.17113
▁लाभ	-9.17303
▁सैनिकों	-9.17316
▁कोशिश	-9.17359
▁पुल	-9.17418
▁खिलाड़ियों	-9.17437
पर	-9.17628
▁उद्योग	-9.17634
सु	-9.17963
▁शुरुआती	-9.18366
▁बैंक	-9.1855
▁आवश्यक	-9.18813
ेल	-9.18857
▁थिएटर	-9.18909
▁प्रतिक्रिया	-9.18969
▁लगा	-9.18977
ियस	-9.19277
▁अफ्रीकी	-9.19338
▁इससे	-9.19344
▁तर्क	-9.1937
▁टो	-9.19437
एफ	-9.19534
▁पा	-9.1958
▁वायु	-9.19774
▁हटा	-9.19835
मन	-9.20011
रिया	-9.2005
▁प्रजाति	-9.20065
▁नो	-9.20345
▁हाथ	-9.20367
▁नाटक	-9.20441
▁स्वतंत्रता	-9.2051
▁जानकारी	-9.20516
▁भारी	-9.20585
▁धन	-9.2062
▁ओलंपिक	-9.20676
िल	-9.21017
▁फे	-9.21165
▁महल	-9.21454
िका	-9.2149
ियाँ	-9.21555
▁रिलीज़	-9.21599
▁संदर्भित	-9.21685
▁प्रतिस्पर्धा	-9.21736
▁प्रसारण	-9.21804
▁अभ्यास	-9.22118
▁वास्तविक	-9.22167
▁ब्रिटेन	-9.22187
्ड	-9.2226
▁ठीक	-9.22304
▁चार्ल्स	-9.22533
▁छोटा	-9.22539
▁बाजार	-9.22862
▁दर	-9.22987
▁आप	-9.2299
▁आंदोलन	-9.23004
▁आरोप	-9.23119
▁लु	-9.23143
ज़ा	-9.23144
▁जीन	-9.23156
▁जिसकी	-9.23254
▁सर	-9.23364
▁उल्लेख	-9.23415
नर	-9.23448
▁परिवहन	-9.23676
विक	-9.23678
▁मौसम	-9.23698
▁कब्जा	-9.23808
▁पालन	-9.23856
▁मी	-9.2394
▁अनुसंधान	-9.2395
▁क्यू	-9.23955
▁यूनाइटेड	-9.24114
▁बाहरी	-9.24132
▁सफलता	-9.24333
▁प्रदर्शित	-9.24388
▁आर्थिक	-9.24568
डेन	-9.24649
▁दौरा	-9.24797
स्क	-9.24839
▁हेनरी	-9.2503
▁प्रांत	-9.25036
मु	-9.25048
▁बिंदु	-9.25078
▁शरीर	-9.2527
▁लेकर	-9.25461
▁चलता	-9.25758
▁खोला	-9.25799
▁साथी	-9.25901
a	-9.26093
▁उसका	-9.2612
र्क	-9.26302
▁बेहतर	-9.26628
▁कलाकारों	-9.26637
▁टीमों	-9.26652
▁कांग्रेस	-9.26665
▁सिर	-9.26736
कै	-9.26899
▁हि	-9.26928
▁वरिष्ठ	-9.27277
▁विरासत	-9.27337
▁पत्थर	-9.27342
▁तेजी	-9.27346
▁अनुभव	-9.27361
▁कार्यक्रमों	-9.27504
▁चयन	-9.2753
ष	-9.27536
बल	-9.27671
▁जापानी	-9.27721
▁ऊर्जा	-9.27722
मान	-9.27795
▁भुगतान	-9.27801
▁मानक	-9.27912
▁जनसंख्या	-9.28105
▁कैसे	-9.28478
▁गायक	-9.28547
▁कैथोलिक	-9.28622
▁सहयोग	-9.28657
▁अभिनय	-9.28708
▁मील	-9.28729
▁चैंपियन	-9.2877
ज़ी	-9.28936
▁बि	-9.29338
▁घंटे	-9.29383
लिंग	-9.29437
▁आलोचना	-9.2951
▁उपन्यास	-9.29676
▁आंतरिक	-9.29706
▁उल्लेखनीय	-9.29743
शी	-9.29878
चे	-9.29984
▁संस्कृति	-9.30127
▁विकल्प	-9.30253
ास	-9.30366
दी	-9.30369
▁शायद	-9.30528
ल्	-9.3071
गे	-9.30742
▁हराया	-9.30756
हो	-9.30758
▁माइकल	-9.30934
▁क्रॉस	-9.30978
▁टीवी	-9.30987
▁विवरण	-9.31165
▁पीटर	-9.31209
ोस	-9.31334
▁उड़ान	-9.31432
▁प्राकृतिक	-9.31501
▁संरक्षण	-9.31622
रु	-9.31627
ात्मक	-9.31647
▁कार्यकाल	-9.31841
फील्ड	-9.31851
▁सेट	-9.319
▁घाटी	-9.31931
डर	-9.32026
चा	-9.32047
▁कृषि	-9.3205
▁अफ्रीका	-9.32075
▁डेटा	-9.32246
▁डिज़ाइन	-9.32256
यो	-9.32267
▁कनाडाई	-9.32269
।..	-9.32432
्टन	-9.32731
▁जीवित	-9.32753
निक	-9.32819
▁श	-9.32901
▁गा	-9.32925
▁फिल्मों	-9.33209
▁इंजन	-9.33302
पूर्ण	-9.33453
▁अच्छा	-9.33494
▁मुक्त	-9.33519
▁प्रेस	-9.33604
▁कमान	-9.33615
▁शासन	-9.33726
▁संपर्क	-9.3377
▁व्यवहार	-9.33791
▁संसद	-9.33798
म्प	-9.33848
▁वाशिंगटन	-9.3388
▁लंबी	-9.33883
▁घटना	-9.33944
▁विफल	-9.3402
▁समूहों	-9.34027
▁पहाड़ी	-9.3413
▁आग	-9.34188
▁[	-9.34327
िस्ट	-9.34343
▁कानूनी	-9.34401
▁खराब	-9.34408
▁ग्रीन	-9.34418
गु	-9.34541
▁धार्मिक	-9.34627
▁टे	-9.34692
▁प्रीमियर	-9.34793
▁भविष्य	-9.34827
▁बनने	-9.3485
▁रेल	-9.34899
▁गिर	-9.35002
▁इतालवी	-9.35047
▁यहूदी	-9.35138
▁तरीके	-9.35242
▁चि	-9.35242
▁योग्य	-9.35252
▁वार्षिक	-9.35339
▁चित्रित	-9.35352
▁मेल	-9.35509
▁मूल्य	-9.35583
सि	-9.35615
▁स्वयं	-9.35714
▁पोस्ट	-9.3575
▁इकाई	-9.35783
▁ग्रे	-9.35822
विले	-9.35872
▁ऐसे	-9.35883
▁मजबूर	-9.35935
▁स्टार	-9.35971
्यू	-9.35981
▁वन	-9.36008
▁विदेशी	-9.36122
▁संघर्ष	-9.36145
i	-9.36273
▁जेल	-9.36389
▁बढ़ावा	-9.36502
▁रुचि	-9.36519
▁सेवानिवृत्त	-9.36623
▁स्वागत	-9.36642
▁स्मारक	-9.36652
▁अनुमान	-9.36743
▁लॉस	-9.3689
बर	-9.37097
▁विश्वास	-9.37144
▁पर्याप्त	-9.37223
वन	-9.37261
ेंस	-9.37296
▁इनकार	-9.37439
▁सेवाओं	-9.37587
▁माता	-9.3761
▁टेक्सास	-9.37613
▁त	-9.37615
▁बिल	-9.37637
ंच	-9.37799
▁रेड	-9.37867
फा	-9.37935
पिता	-9.37939
▁बढ़	-9.37971
▁पृष्ठभूमि	-9.37992
▁नेता	-9.38072
▁मालिक	-9.38316
▁सै	-9.38342
▁पुस्तकालय	-9.38375
▁सीधे	-9.3865
▁स्पेनिश	-9.38656
▁डु	-9.38695
▁पेरिस	-9.38884
▁गवर्नर	-9.39132
▁चित्र	-9.39133
▁रिकॉर्डिंग	-9.39258
▁फ	-9.39295
▁उम्मीद	-9.39364
▁सोवियत	-9.39395
▁गंभीर	-9.3951
▁करेगा	-9.39526
▁ईसाई	-9.39558
▁चैनल	-9.39648
▁लाख	-9.39668
▁नोट	-9.39673
▁मार्क	-9.39979
▁शेष	-9.40069
▁मात्रा	-9.40083
नेट	-9.40172
▁बहु	-9.40255
ोन	-9.40282
▁संभावित	-9.40337
▁पाए	-9.40373
▁ग्रामीण	-9.40663
▁पैमाने	-9.40762
▁आयोग	-9.40932
लु	-9.40968
▁गीतों	-9.41094
▁आपूर्ति	-9.41132
ंज	-9.41284
▁इसी	-9.41503
▁जीवनी	-9.41557
▁लागत	-9.41598
▁जवाब	-9.41737
▁साम्राज्य	-9.41818
▁भेजा	-9.42035
▁ऑल	-9.4211
▁लाइव	-9.42359
▁कॉ	-9.42534
▁व्यक्त	-9.42715
▁दूरी	-9.4272
▁रूस	-9.42729
▁मैन	-9.42764
▁प्रशासन	-9.42779
▁खेलने	-9.42791
ाई	-9.42816
▁जीतने	-9.42873
▁बाल	-9.42901
सं	-9.42975
▁नृत्य	-9.43063
▁कार्यकारी	-9.43097
▁बिशप	-9.43127
▁उत्पन्न	-9.43211
▁स्कोर	-9.43238
▁ग्रैंड	-9.43349
विल	-9.4335
यह	-9.43381
▁याद	-9.4344
▁स्मिथ	-9.43478
▁प्रकाश	-9.43644
e	-9.43649
▁प्रशंसा	-9.4366
ठ	-9.43713
हम	-9.43759
▁आवास	-9.43839
▁अरब	-9.43886
▁प्रकाशन	-9.43911
मि	-9.44096
▁नष्ट	-9.44271
▁उम्मीदवार	-9.44435
मेन	-9.44461
▁संभावना	-9.44526
▁सरकारी	-9.4456
वुड	-9.44665
▁पुनः	-9.44715
▁गै	-9.44915
▁प्यार	-9.44954
▁बलों	-9.44997
▁गु	-9.45005
▁रेखा	-9.45156
▁रॉबर्ट	-9.45157
▁बिक्री	-9.45403
▁निर्देशन	-9.45457
▁मंदिर	-9.4555
▁महसूस	-9.45758
▁नीति	-9.45973
▁हिट	-9.46026
▁बेच	-9.46028
▁हद	-9.46058
▁राष्ट्र	-9.46092
▁व	-9.462
▁राजमार्ग	-9.46376
▁वित्तीय	-9.46667
▁चालक	-9.46683
▁चुने	-9.46691
▁सुझाव	-9.46742
▁आकर्षित	-9.46778
▁पैदल	-9.46807
▁वालों	-9.47055
कि	-9.47076
▁रेजिमेंट	-9.47163
▁भोजन	-9.47227
▁किनारे	-9.47249
▁निभाई	-9.47303
▁सूचना	-9.47309
▁प्रबंधक	-9.47421
▁बल्कि	-9.47596
▁प्रौद्योगिकी	-9.47681
▁हवा	-9.47693
▁रखते	-9.4771
▁दौरे	-9.4773
▁रा	-9.47746
▁प्रतिनिधि	-9.47769
▁वितरण	-9.47773
▁जीती	-9.47843
▁हमले	-9.47845
ीकरण	-9.47879
▁अल्	-9.47961
सर	-9.48212
▁कवर	-9.48238
s	-9.48446
▁सांस्कृतिक	-9.48456
▁बेल	-9.48482
सिया	-9.48525
▁होगी	-9.48586
▁स्रोत	-9.49063
▁मुझे	-9.49216
▁विशेषता	-9.4928
▁कप्तान	-9.49335
▁वैन	-9.49546
▁आयरलैंड	-9.49569
ट्रो	-9.49686
▁रिचर्ड	-9.49687
▁लोकतांत्रिक	-9.497
▁ऋण	-9.49734
▁बंदरगाह	-9.4983
▁जिनके	-9.49914
▁बास्केटबॉल	-9.49955
▁अर्जित	-9.49959
▁आइ	-9.50107
▁निवासी	-9.5019
ंडा	-9.50206
▁जिस	-9.5026
▁जिम्मेदार	-9.50275
▁ज़	-9.50335
▁रहता	-9.50441
▁वेल्स	-9.50488
▁यहाँ	-9.50556
▁साइट	-9.50662
▁पसंद	-9.50679
▁एड	-9.50825
ेज	-9.5083
▁ब्लैक	-9.5084
▁साझा	-9.51047
▁ध्वनि	-9.51049
▁बिजली	-9.51054
▁लै	-9.5107
▁मार्टिन	-9.5109
▁मिट्टी	-9.5124
प्स	-9.51294
▁लगाने	-9.51352
रू	-9.51502
▁प्राचीन	-9.51565
▁पुष्टि	-9.51633
्र	-9.519
▁जल्द	-9.51985
▁री	-9.51993
▁एंजिल्स	-9.52007
▁सतह	-9.5202
▁कार्रवाई	-9.52335
▁पति	-9.52371
लिस	-9.52406
डेल	-9.52406
▁मिशन	-9.52427
▁मिले	-9.52443
एच	-9.52541
हे	-9.52722
▁दोस्त	-9.5302
▁बातचीत	-9.53154
▁वोट	-9.53335
▁बर्	-9.53473
▁शहरों	-9.53503
बैक	-9.53525
▁शाखा	-9.53631
▁बदलकर	-9.53713
ेंट	-9.53772
▁चौथे	-9.53838
एक्स	-9.53923
▁शि	-9.53923
▁मतदान	-9.54063
▁ब्राउन	-9.54169
▁सीट	-9.5417
▁दा	-9.54315
▁व्यावसायिक	-9.54354
बु	-9.54395
▁राजधानी	-9.5442
▁सचिव	-9.54442
▁गठबंधन	-9.5445
▁जैक	-9.54492
▁सब	-9.54533
▁ड	-9.54664
▁वैज्ञानिक	-9.54672
▁सहयोगी	-9.54732
ेड	-9.54756
▁ऐसी	-9.54761
▁जोसेफ	-9.54805
ल्ट	-9.54856
▁देखभाल	-9.54887
ियम	-9.54985
▁छोड़ने	-9.55031
▁घरों	-9.55131
घ	-9.5526
▁पहुँच	-9.55309
▁डेल	-9.55316
न्	-9.5558
जैसे	-9.55634
▁लघु	-9.55663
▁इटली	-9.55689
▁संरक्षित	-9.55891
▁संचार	-9.55907
▁हमेशा	-9.56111
▁जैसी	-9.56189
▁ऑ	-9.5624
▁लेबल	-9.56288
▁स्टेडियम	-9.56345
▁निर्देशक	-9.56374
▁समर्पित	-9.56553
▁व्यक्तियों	-9.56605
▁आयोजन	-9.56655
फे	-9.56746
▁न्यूजीलैंड	-9.56825
▁हिस्सों	-9.56829
▁दान	-9.56871
▁टि	-9.56986
▁शिकागो	-9.57029
पुर	-9.57053
▁जुड़े	-9.57062
शन	-9.57086
▁ब्रांड	-9.57288
▁होटल	-9.57475
▁II	-9.57663
▁सुविधा	-9.57752
▁कर्मचारियों	-9.57785
▁ज	-9.57814
▁मास्टर	-9.57844
▁वर्	-9.57881
▁स्थायी	-9.57926
▁वीं	-9.57959
्या	-9.58038
▁वै	-9.58163
▁गि	-9.58478
▁काले	-9.58604
मोर	-9.587
▁साक्षात्कार	-9.58787
अप	-9.5882
डि	-9.58939
▁कंप्यूटर	-9.59114
▁तूफान	-9.59125
▁करेंगे	-9.59213
▁नियंत्रित	-9.59376
▁लेखन	-9.59522
डब्ल्यू	-9.59552
▁तकनीकी	-9.59651
▁एयर	-9.59787
▁दर्शकों	-9.59961
▁गलत	-9.59979
▁विश्लेषण	-9.60037
▁गे	-9.60054
▁मछली	-9.60214
▁लंबाई	-9.60215
▁घोषित	-9.60237
▁निश्चित	-9.60239
▁पैरिश	-9.60288
▁लक्ष्य	-9.60303
▁Â	-9.60362
स्टा	-9.6053
▁कमांडर	-9.60674
▁आक्रमण	-9.60686
बार	-9.60732
▁उद्घाटन	-9.60733
ोव	-9.60808
▁निवास	-9.60861
सेन	-9.60928
▁बस्ती	-9.60991
रों	-9.61142
▁चर्चा	-9.61162
▁उपचार	-9.61252
▁ख	-9.61258
गल	-9.61502
िनो	-9.61507
▁हा	-9.61651
▁सलाहकार	-9.61773
▁कॉल	-9.61822
ॉन	-9.61832
▁आर्	-9.61835
क्ष	-9.61933
ेशन	-9.61938
▁रानी	-9.61987
▁होकर	-9.62056
▁मनोरंजन	-9.62073
▁रोक	-9.62125
▁चाहते	-9.62188
▁निवेश	-9.62261
▁सर्वोच्च	-9.6248
▁अनुवाद	-9.625
▁श्री	-9.62529
ाइन	-9.62661
▁विवाद	-9.62803
▁शिविर	-9.62824
▁ट	-9.62884
▁किमी	-9.62911
▁सजा	-9.6295
▁अभिनेता	-9.62998
▁इनमें	-9.63094
▁वंश	-9.63124
फी	-9.6314
n	-9.63161
▁वर्जिनिया	-9.63218
▁उत्पाद	-9.63253
▁संस्थापक	-9.63331
▁लुईस	-9.63405
▁प्रजातियों	-9.63493
▁लेख	-9.63514
चर	-9.63554
▁संगीतकार	-9.63567
कन	-9.63595
▁संपादक	-9.63666
▁ज्यादातर	-9.63669
▁जीते	-9.63733
खा	-9.63788
▁भवन	-9.63817
▁वापसी	-9.6384
▁अंदर	-9.63968
स्को	-9.64022
दर	-9.64044
▁शराब	-9.64051
r	-9.64055
▁निवासियों	-9.64107
▁गैस	-9.64124
▁कक्ष	-9.64392
▁मंत्रालय	-9.64437
▁परिभाषित	-9.6452
▁जु	-9.64592
▁अप	-9.64651
m	-9.64709
बि	-9.64852
▁स्व	-9.64872
▁शिक्षक	-9.64928
▁विलय	-9.64979
▁औपचारिक	-9.6506
मेंट	-9.65097
▁छत	-9.65267
▁चे	-9.653
▁एडवर्ड	-9.65379
यों	-9.65383
▁अत्यधिक	-9.65417
▁खेलते	-9.65526
▁प्रचार	-9.65539
▁कंपनियों	-9.65625
▁अड्डे	-9.65694
▁उनमें	-9.657
आधारित	-9.65764
▁गर्मियों	-9.65782
▁पाठ्यक्रम	-9.65822
बर्ट	-9.65892
▁व्हाइट	-9.65903
▁मंडल	-9.65964
▁पु	-9.66012
▁तीसरी	-9.66103
▁करीब	-9.66152
ंडर	-9.66221
▁तीसरा	-9.66225
▁तेल	-9.66422
▁निचले	-9.66483
▁डिजिटल	-9.66537
▁ऊपरी	-9.66606
स्टे	-9.66693
▁फ्लोरिडा	-9.66744
शि	-9.66748
▁लंबा	-9.66939
हर	-9.67121
▁शांति	-9.67123
▁बहन	-9.67133
ंत	-9.67165
▁समारोह	-9.67204
▁स्पेन	-9.6721
▁गतिविधियों	-9.67224
▁व्यवस्था	-9.67254
▁बढ़ा	-9.67294
▁देखने	-9.67307
▁बढ़ाने	-9.67387
ार्ड	-9.67431
▁प्रकृति	-9.67483
▁सभा	-9.67484
▁कहते	-9.67518
हाउस	-9.67616
▁लोक	-9.67637
▁श्रम	-9.67678
▁प्रभावी	-9.67729
ंगा	-9.67738
▁रचना	-9.67745
▁मूल्यांकन	-9.67925
▁रूढ़िवादी	-9.6798
▁मेजबानी	-9.67985
▁चोट	-9.67988
▁घ	-9.68018
▁प्रशासनिक	-9.68096
▁माल	-9.68283
जर	-9.68365
म्ब	-9.68494
▁लाइसेंस	-9.68646
कॉम	-9.68651
▁निर्देशित	-9.68715
कल	-9.68781
ाइड	-9.68811
▁बदलने	-9.68872
रेन	-9.69136
▁पाठ	-9.69313
▁बचाव	-9.69373
▁अपराध	-9.69397
▁जोड़ी	-9.69709
धा	-9.69901
▁तेज	-9.69911
▁बेसबॉल	-9.69948
▁मोटर	-9.70011
िश	-9.70052
▁रखता	-9.70055
▁न्यायाधीश	-9.70089
c	-9.70111
▁जॉर्जिया	-9.70112
▁निगम	-9.70177
िम	-9.70182
▁राजनीति	-9.70334
▁मुख्यालय	-9.70416
स्टन	-9.70437
▁आयरिश	-9.70629
▁समझौते	-9.70688
▁न्याय	-9.70746
▁यौन	-9.70807
▁विरोधी	-9.70847
▁च	-9.70873
▁कार्ड	-9.71058
▁जहाजों	-9.71237
वेन	-9.71426
▁उत्सव	-9.7144
▁टै	-9.71443
▁सर्वेक्षण	-9.71595
▁स्वर्ण	-9.71604
िंगटन	-9.71714
▁प्रारूप	-9.71813
▁पकड़	-9.71829
▁खरीदा	-9.71835
▁पुरानी	-9.71871
▁वास्तुकला	-9.7188
▁विभाजन	-9.71943
▁एट	-9.72003
▁भर्ती	-9.72041
ोर	-9.7208
▁रोम	-9.72114
▁चली	-9.7212
▁रोकने	-9.72136
िट	-9.72216
▁चलने	-9.72238
▁पवित्र	-9.72243
▁सीनेट	-9.72246
क्	-9.72378
▁चल	-9.72465
▁बैठक	-9.72489
▁टिप्पणी	-9.72496
शे	-9.72512
▁नाइट	-9.7255
▁इंजीनियरिंग	-9.72635
▁दबाव	-9.72764
▁जोर	-9.72886
▁साबित	-9.73071
▁कविता	-9.73148
▁घायल	-9.73192
▁सम्राट	-9.73208
▁एकत्र	-9.7321
विन	-9.73247
▁मारे	-9.73258
▁जाए	-9.73366
▁राज्यों	-9.73398
इट	-9.7346
▁पाई	-9.73506
▁रु	-9.73618
ाया	-9.73643
▁अवसर	-9.73696
▁पेशकश	-9.73704
▁सही	-9.73733
ाना	-9.73776
▁डाय	-9.73802
▁कार्ल	-9.73853
▁फि	-9.73905
▁कथित	-9.73942
▁घटनाओं	-9.74009
▁संबंधों	-9.74033
▁सहमत	-9.74098
▁जल्दी	-9.74141
▁अनुरोध	-9.74207
▁द्वार	-9.74301
▁फर्म	-9.74369
▁रह	-9.7438
▁आदमी	-9.7448
▁दिशा	-9.74493
▁वैकल्पिक	-9.74516
▁लिखे	-9.74624
▁कैरोलिना	-9.74662
▁कर्मचारी	-9.74708
्रो	-9.74837
ाने	-9.74976
▁अधिग्रहण	-9.75024
▁समकालीन	-9.7514
▁स्कूलों	-9.75247
▁स्थिर	-9.75291
▁हिल	-9.7539
▁रै	-9.75402
▁साइ	-9.75437
लन	-9.75522
▁राजनेता	-9.75673
रिस	-9.75769
▁वाणिज्यिक	-9.75795
▁अवधारणा	-9.75836
▁वकील	-9.75895
▁ब्रे	-9.75951
मेट	-9.75961
▁ग्रीष्मकालीन	-9.75971
▁झ	-9.76081
▁नॉर्वे	-9.76099
▁#	-9.76104
▁पोर्ट	-9.76183
▁सकारात्मक	-9.76199
▁गुप्त	-9.76265
▁बनाता	-9.76329
t	-9.76357
▁सिटी	-9.76427
▁सुरक्षित	-9.76584
यन	-9.76587
▁वो	-9.76598
▁लगता	-9.76716
▁क्रम	-9.76765
▁सुबह	-9.76879
▁डच	-9.771
▁साउथ	-9.77161
▁लैटिन	-9.7729
▁गर्म	-9.77734
▁जलवायु	-9.77772
▁लौटने	-9.7778
ाव	-9.77783
▁बुनियादी	-9.77789
▁आंशिक	-9.77855
▁मार्	-9.77925
सेल	-9.77981
अब	-9.78001
▁हॉकी	-9.78058
▁वित्त	-9.78093
लोन	-9.78129
विस	-9.78147
▁गिल	-9.78262
▁अच्छे	-9.7834
▁साहित्य	-9.78488
ुआ	-9.78508
्क	-9.7863
▁फाउंडेशन	-9.78646
▁प्ले	-9.78647
▁प्रतीक	-9.78729
▁ट्रेन	-9.78811
▁कब्रिस्तान	-9.78814
▁विद्रोह	-9.78942
▁स्कॉट	-9.79045
▁लेते	-9.79151
▁प्रयासों	-9.79173
जि	-9.7922
▁भ	-9.79228
▁रोग	-9.79233
याँ	-9.79233
▁यात्री	-9.79235
▁व्याख्या	-9.79246
▁वैश्विक	-9.79287
क्यू	-9.79488
▁प्रदर्शनी	-9.79594
हि	-9.79615
▁शिकार	-9.79626
जिसे	-9.79657
▁फ्ल	-9.7966
ँ	-9.79818
कर्ता	-9.79922
▁रू	-9.79926
▁मुद्दों	-9.80017
▁ल	-9.80026
▁परमाणु	-9.80065
▁तुर्की	-9.80141
▁कट	-9.80171
▁योग्यता	-9.80174
▁बनी	-9.80291
स्की	-9.80325
लिया	-9.80402
▁संक्षिप्त	-9.8042
▁प्रतिस्थापित	-9.80437
शायर	-9.80609
▁मैट	-9.80719
ंद	-9.808
मिन	-9.80894
▁बेटा	-9.80958
▁शा	-9.80986
▁अलेक्जेंडर	-9.80996
टू	-9.81059
▁फ्रैंक	-9.81212
▁आर्ट	-9.81229
▁डाल	-9.81239
िव	-9.81244
▁मशीन	-9.81401
ीन	-9.81423
▁आता	-9.81477
▁रग्बी	-9.81481
▁सौ	-9.81613
▁नगर	-9.82102
▁ओपेरा	-9.82129
▁स्क्वाड्रन	-9.8214
▁छोर	-9.82219
▁सामुदायिक	-9.82272
रिन	-9.82276
र्म	-9.82277
र्ज	-9.82359
▁लेन	-9.824
▁जाया	-9.82452
▁ज्ञान	-9.82543
▁पर्यावरण	-9.82631
▁बेन	-9.82632
स्टीन	-9.82652
तु	-9.828
▁यूनियन	-9.82858
▁न्यायालय	-9.83044
▁मर	-9.83103
▁वेबसाइट	-9.8313
ॉ	-9.83142
▁दिल	-9.83254
▁बाकी	-9.83297
x	-9.83301
ज़ो	-9.83331
▁संत	-9.83407
▁कोर	-9.83465
▁अंडर	-9.83502
▁अंतरिक्ष	-9.83553
मेल	-9.83617
▁उत्तराधिकारी	-9.83659
▁फ्री	-9.83675
▁ईस्ट	-9.83692
▁आधे	-9.83722
्ज	-9.8373
▁ऑनलाइन	-9.83763
▁पॉप	-9.83863
▁यूनानी	-9.84093
▁एशियाई	-9.84142
▁देखते	-9.84154
▁चा	-9.84165
शो	-9.84426
ान	-9.84493
▁जोड़े	-9.845
▁संयोजन	-9.84569
▁फो	-9.84573
▁अगर	-9.84655
ुल	-9.84685
▁अन	-9.84701
▁अस्थायी	-9.8475
▁श्रेय	-9.84811
▁प्रशांत	-9.84849
कों	-9.84995
▁तापमान	-9.85001
्यु	-9.8529
▁पढ़ाई	-9.85294
ग्	-9.85302
बरी	-9.8538
▁बजे	-9.8539
▁माध्यमिक	-9.85573
▁वाहन	-9.856
▁वस्तुओं	-9.85668
▁मिलाकर	-9.85688
▁एसोसिएशन	-9.85904
लेन	-9.85932
▁ट्रे	-9.85993
्रा	-9.85997
▁समस्या	-9.86186
▁नामांकन	-9.86209
▁मिश्रित	-9.86255
्टर	-9.86294
▁ड्यूक	-9.86322
▁कदम	-9.86412
बू	-9.86448
बेल	-9.86466
ियां	-9.86504
▁अर्थव्यवस्था	-9.86595
▁होंगे	-9.86613
▁सिडनी	-9.86642
▁नियम	-9.86657
▁फील्ड	-9.86662
▁संभवतः	-9.8667
▁ऑन	-9.86687
चि	-9.86739
▁मौत	-9.86788
▁जनता	-9.86841
▁रद्द	-9.86842
▁धातु	-9.86891
▁महत्व	-9.87153
▁इकाइयों	-9.87233
▁आनंद	-9.87257
▁कमजोर	-9.8727
▁!	-9.87458
▁मानना	-9.87525
▁ज्ञात	-9.87634
▁संशोधन	-9.87664
▁पुस्तकों	-9.87703
ति	-9.87724
▁एजेंसी	-9.87792
▁गतिविधि	-9.87798
कू	-9.87879
▁फैला	-9.87972
▁दीवार	-9.87987
▁मैचों	-9.88138
▁मेक्सिको	-9.88323
▁कथा	-9.88341
▁इमारतों	-9.88349
▁I	-9.88372
▁ब्लॉक	-9.88426
▁भूगोल	-9.88434
▁गुणवत्ता	-9.885
▁बनाम	-9.88511
▁द्वीपों	-9.88558
▁फा	-9.8856
▁जॉनसन	-9.88621
सू	-9.88695
▁एशिया	-9.88706
स्त	-9.88722
हन	-9.88809
रिक	-9.88877
▁चिह्नित	-9.88974
▁बटालियन	-9.88986
▁पृथ्वी	-9.88986
फो	-9.89049
▁औद्योगिक	-9.89114
▁ब्रिगेड	-9.89174
फ्ट	-9.89218
▁खाद्य	-9.8922
▁जेन	-9.8924
ै	-9.89315
▁प्रशिक्षित	-9.89419
▁गार्ड	-9.89458
▁इच्छा	-9.89561
▁प्रधान	-9.89561
▁मौ	-9.89578
▁किंगडम	-9.89606
▁जोन्स	-9.89661
▁बच	-9.89715
▁सत्रों	-9.89725
▁चुनौती	-9.8975
▁अधिकतम	-9.89755
▁राजकुमार	-9.89756
▁हमारे	-9.89802
▁बांध	-9.89806
▁शहरी	-9.89965
▁पैर	-9.89973
्रे	-9.90008
▁पोप	-9.90024
▁अपील	-9.90116
ाल	-9.9015
▁विषयों	-9.90206
इल	-9.90337
▁ब्ल	-9.90364
▁बॉक्स	-9.90433
%)	-9.90448
▁ड्रॉ	-9.90489
पि	-9.90512
▁स्कॉटलैंड	-9.9054
▁डाला	-9.90542
में	-9.90544
पन	-9.90572
टेल	-9.90598
रस	-9.90622
▁बोल	-9.90643
▁किले	-9.90653
▁महापौर	-9.90682
फर	-9.90715
▁समग्र	-9.90878
वान	-9.9088
रेट	-9.9089
्त	-9.90955
▁डर	-9.91151
▁परिवर्तित	-9.9121
▁तारीख	-9.91279
▁प्रमाण	-9.91321
टिक	-9.91391
लाइन	-9.91402
▁वर्गीकरण	-9.91405
▁विज्ञापन	-9.91417
▁समझ	-9.91438
▁विशाल	-9.91526
ही	-9.9154
्री	-9.91598
▁संबद्ध	-9.91656
ड़ा	-9.91678
▁कोड	-9.91731
ंगे	-9.91765
टि	-9.91792
▁पदोन्नत	-9.91807
▁बोस्टन	-9.91942
▁ब्राजील	-9.91961
▁शुल्क	-9.91969
▁खरीद	-9.92004
सिस	-9.92049
्म	-9.92059
▁मारिया	-9.92089
▁कैप	-9.92108
▁प्रतिबंध	-9.92119
▁कैन	-9.92131
▁स्टे	-9.92173
▁कक्षा	-9.92241
स्टार	-9.92262
▁दोषी	-9.9232
सिन	-9.92348
▁ओहियो	-9.92399
नु	-9.92436
ॉक्स	-9.92438
▁विधानसभा	-9.92459
▁जिम	-9.92463
▁शब्दों	-9.9248
स्टो	-9.92547
मार	-9.92564
▁मिस्र	-9.92585
▁सेंटर	-9.92843
▁मारा	-9.92848
▁हल	-9.92887
▁जर्सी	-9.9297
▁टू	-9.9298
▁भागीदारी	-9.92995
▁अस्तित्व	-9.93098
▁तु	-9.93133
▁विस्तृत	-9.9315
▁सरल	-9.93168
▁गिटार	-9.93305
▁जुड़ा	-9.93496
▁मौजूदा	-9.9352
▁सन	-9.93596
्ज़	-9.93625
िडे	-9.93693
▁तथ्य	-9.93711
▁संभव	-9.9373
▁पोलैंड	-9.93739
▁काल	-9.93769
▁भावना	-9.94005
वल	-9.94135
किन	-9.94211
▁पाउंड	-9.94222
▁पड़ोस	-9.94275
▁शिखर	-9.94281
▁मिमी	-9.9433
▁अनुसरण	-9.94476
▁संशोधित	-9.94528
▁उपनाम	-9.94589
▁वितरित	-9.94593
▁अस्वीकार	-9.94613
▁निरंतर	-9.94771
▁टॉम	-9.94838
▁उचित	-9.94858
▁खुले	-9.9501
▁निर्भर	-9.95027
▁विधि	-9.9505
▁दुकान	-9.95101
बिन	-9.95102
▁ज़ा	-9.95163
▁क्र	-9.95185
सिल	-9.952
▁उत्कृष्ट	-9.95247
सल	-9.95328
▁जिनका	-9.95359
▁अंकों	-9.95417
▁वजन	-9.9542
▁प्रगति	-9.95548
▁पादरी	-9.95575
▁देना	-9.9561
▁टाइम्स	-9.9564
भा	-9.9567
▁क्रे	-9.95671
लीन	-9.95693
▁गिरफ्तार	-9.95741
▁प्रणालियों	-9.95786
▁मिलता	-9.95827
▁लाया	-9.95835
ल्फ	-9.95923
▁III	-9.95992
▁तकनीक	-9.96013
▁प्रवाह	-9.96036
▁गृह	-9.9611
▁संगठनों	-9.96123
मै	-9.96224
▁किंग	-9.96285
▁पेंसिल्वेनिया	-9.96295
▁मिशिगन	-9.96342
▁महीनों	-9.96373
▁बदलाव	-9.96437
▁पारित	-9.96459
▁कं	-9.9646
▁रेस	-9.96497
ट्ज़	-9.9675
▁पहुंचने	-9.96753
टाउन	-9.96874
▁शे	-9.96901
▁लेफ्टिनेंट	-9.9704
▁ओपन	-9.97088
▁स्थितियों	-9.97141
गत	-9.97225
▁परंपरा	-9.97234
▁लेता	-9.97263
▁कोलंबिया	-9.97338
डन	-9.97379
▁स्टोर	-9.97392
▁थाः	-9.97406
▁चित्रों	-9.97447
ैन	-9.97477
लेस	-9.97595
रियो	-9.97632
▁क्रांति	-9.97707
▁इस्तीफा	-9.9771
▁लिखी	-9.97813
▁जोखिम	-9.97818
▁माइक	-9.9791
▁वार्ड	-9.97917
▁शारीरिक	-9.97926
▁जान	-9.97983
▁पकड़ने	-9.9806
▁चाहता	-9.98067
ेज़	-9.98196
▁गिरावट	-9.98256
▁पै	-9.98288
▁उत्पत्ति	-9.9829
िना	-9.98293
▁विद्युत	-9.98318
▁रास्ते	-9.98432
▁सिस्टम	-9.98487
▁उपाधि	-9.985
▁स्टॉक	-9.9854
▁निर्देश	-9.98542
ब्रे	-9.98621
▁श्रमिकों	-9.98633
▁उपकरणों	-9.98701
अमेरिकी	-9.98724
▁क्रिस	-9.98822
सेट	-9.98829
▁देखें	-9.98843
▁लॉन्च	-9.98983
▁क्रिकेट	-9.98985
▁मंजूरी	-9.9903
चु	-9.99055
ंडे	-9.99082
▁समलैंगिक	-9.99228
▁संविधान	-9.99296
▁बर्फ	-9.99331
▁खा	-9.99342
▁अधिकारों	-9.99403
▁"(	-9.99404
▁सड़कों	-9.99426
▁बोली	-9.99509
▁पुरस्कारों	-9.99519
▁हॉ	-9.99807
था	-9.99832
▁पुनर्निर्माण	-9.99859
रेस	-9.9986
ेक्ट	-9.99881
▁गेंद	-9.99917
▁लिंग	-9.99947
▁तोड़	-9.99948
स्का	-10.0011
▁सेमीफाइनल	-10.0015
ड्स	-10.0027
▁पहुंचे	-10.0035
▁विलियम्स	-10.0036
▁डिस्क	-10.0043
▁लगे	-10.0046
▁वयस्क	-10.0048
▁मेरे	-10.005
गेट	-10.0051
▁संभाला	-10.0051
सम	-10.0055
▁दुर्घटना	-10.0055
▁गोली	-10.006
▁तरफ	-10.0069
▁धारा	-10.0074
▁कोर्ट	-10.0084
▁उन्नत	-10.0085
▁मध्यम	-10.0091
▁जिन	-10.0095
▁कॉमेडी	-10.0096
▁दफनाया	-10.0113
▁कैंसर	-10.0114
▁ऑपरेशन	-10.0125
▁जू	-10.0125
▁एल्	-10.0125
▁विवाह	-10.0136
▁राउंड	-10.014
पोर्ट	-10.0145
▁थ	-10.0156
िनी	-10.0165
▁पात्रों	-10.0166
▁रजिस्टर	-10.0172
▁असमर्थ	-10.0187
्थ	-10.0191
▁विदेश	-10.0193
▁सैनिक	-10.0194
▁जटिल	-10.0199
▁ब्रा	-10.0205
!"	-10.0218
▁पर्वत	-10.0221
▁माउंट	-10.0222
▁वास्तुकार	-10.0224
▁क्रमशः	-10.0235
▁स्टेट	-10.0236
▁स्टेशनों	-10.0236
▁प्री	-10.025
▁चै	-10.0251
▁लेखकों	-10.0259
▁फिलीपींस	-10.0262
▁छवि	-10.0263
म्स	-10.0269
▁वसंत	-10.0271
▁सेकंड	-10.0274
▁शैक्षणिक	-10.0278
ब्र	-10.0279
ल्ला	-10.0281
▁रखी	-10.0286
जेन	-10.0288
ाय	-10.0289
▁बर्लिन	-10.0295
▁प्रोटीन	-10.0301
▁भगवान	-10.0312
▁पेन	-10.0316
इक	-10.032
▁बढ़ती	-10.0332
ंगो	-10.0336
▁बनाते	-10.0336
▁नौकरी	-10.034
▁यो	-10.0346
▁अपनाया	-10.0354
मिया	-10.0355
ैक	-10.0356
▁प्रोत्साहित	-10.0367
▁नव	-10.0368
▁तैनात	-10.0374
▁लाइ	-10.0374
▁भीड़	-10.0377
▁स्कॉटिश	-10.038
▁विस्फोट	-10.0381
▁थेः	-10.0387
▁इलिनोइस	-10.0392
▁उल्लंघन	-10.0392
▁मठ	-10.0399
लू	-10.0402
▁राम	-10.0411
दो	-10.0413
▁आदि	-10.0427
▁रेसिंग	-10.0428
ांग	-10.043
▁एजेंट	-10.0432
▁अभिनेत्री	-10.0433
▁फी	-10.0435
▁बहस	-10.0436
▁विचारों	-10.0436
▁सुनिश्चित	-10.0436
निया	-10.0437
▁विक्टोरिया	-10.0439
k	-10.044
▁विस्तारित	-10.0441
पू	-10.0444
▁रिहा	-10.045
▁डेस	-10.0452
!	-10.0455
थे	-10.0463
▁एंटी	-10.0467
डल	-10.0468
▁जंगल	-10.0468
▁परिवारों	-10.047
▁वॉन	-10.0472
ुर	-10.0473
▁शाम	-10.0474
▁डा	-10.0474
▁बचने	-10.0481
▁चक्र	-10.0484
▁कोरिया	-10.0496
▁दर्शन	-10.0498
▁चलाया	-10.0502
▁ऑर्	-10.0502
झ	-10.0505
रल	-10.0507
▁चुनावों	-10.0516
▁x	-10.0529
▁सॉफ्टवेयर	-10.0532
▁सू	-10.0537
हेड	-10.055
उस	-10.0554
▁भौतिक	-10.0558
ोल	-10.0562
ंटे	-10.0578
▁स्वर	-10.0579
▁छोड़कर	-10.058
▁तंत्र	-10.0602
▁क्वा	-10.0603
▁निष्कर्ष	-10.0608
▁आवाज	-10.0614
▁तत्वों	-10.0616
▁शेर	-10.0617
▁बैक	-10.0623
क्ट	-10.0629
▁श्	-10.063
पल	-10.063
▁मिश्रण	-10.0631
▁मुकदमा	-10.0633
▁टैंक	-10.0634
▁उत्पादों	-10.0635
▁ऊंचाई	-10.0637
▁संधि	-10.0637
▁घनत्व	-10.0637
▁अज्ञात	-10.0639
▁क्वार्टर	-10.064
▁आलोचकों	-10.0644
मोन	-10.0647
▁बेड़े	-10.065
▁देगा	-10.0656
▁टूट	-10.0661
▁संयंत्र	-10.0667
▁बढ़ने	-10.0667
▁वेब	-10.0675
▁एवेन्यू	-10.0675
▁तत्व	-10.0676
▁मेजबान	-10.0676
▁क्ले	-10.0683
ाइट	-10.0692
▁दर्शाता	-10.0708
▁खर्च	-10.0716
▁इज़राइल	-10.0728
▁ब्लू	-10.0743
▁मोड़	-10.0754
▁एलिजाबेथ	-10.0755
▁ब्र	-10.0756
▁अर्ध	-10.0757
ट्र	-10.0764
▁कल	-10.0765
▁खान	-10.0766
टिन	-10.0768
▁फिलिप	-10.0768
▁जि	-10.0775
पश्चिमी	-10.0782
ेरा	-10.0799
▁ऑर्केस्ट्रा	-10.0803
हु	-10.0808
▁संकाय	-10.0815
स्व	-10.0819
▁जमीन	-10.0819
▁आमंत्रित	-10.0832
बिलबोर्ड	-10.0835
▁कल्पना	-10.084
पु	-10.0844
▁दवा	-10.0859
ून	-10.0859
▁कांस्य	-10.0863
▁समाधान	-10.087
▁फ्रेंच	-10.087
▁प्रतीत	-10.0874
▁मर्	-10.0877
▁परियोजनाओं	-10.0883
▁वातावरण	-10.0883
▁बयान	-10.0886
▁नॉर्थ	-10.0891
▁बै	-10.0893
िक्स	-10.0897
▁नियमों	-10.0898
ऑफ	-10.0899
▁अवलोकन	-10.0899
▁वर्गीकृत	-10.0906
▁अनिवार्य	-10.0907
▁गोल्ड	-10.0908
साइड	-10.0911
▁हास्य	-10.0916
▁समस्याओं	-10.0919
▁जमा	-10.0923
▁फ़	-10.0925
▁हूं	-10.0926
▁फुटबॉलर	-10.0926
▁जानी	-10.0926
▁तल	-10.093
डोर	-10.0937
▁निगरानी	-10.0945
▁कौशल	-10.0949
▁निर्वाचन	-10.0966
छ	-10.0968
▁साइड	-10.0972
▁मैसाचुसेट्स	-10.0973
▁घास	-10.0975
्टे	-10.0979
▁बराबर	-10.0984
▁पोल	-10.1001
▁बर्न	-10.1009
▁कठिन	-10.1017
▁नी	-10.1025
▁वृत्तचित्र	-10.1027
▁डॉक्टर	-10.103
▁एनी	-10.1033
▁पंक्ति	-10.1037
▁बुक	-10.1041
टीवी	-10.1046
▁खाली	-10.105
▁प्रयोगशाला	-10.1057
▁एना	-10.1066
▁क्लासिक	-10.1071
ंडो	-10.1075
▁कोरियाई	-10.1075
▁विशेषताओं	-10.1081
▁निकाल	-10.1081
▁कार्	-10.1082
▁सटीक	-10.1083
ॉय	-10.1085
▁साझेदारी	-10.1088
▁राय	-10.1092
▁पुनर्	-10.1093
▁ट्रांस	-10.1096
▁पीड़ित	-10.1104
लिक	-10.1108
▁डेनियल	-10.1109
्स्की	-10.1111
▁पेड़	-10.1113
बद्ध	-10.1117
लियन	-10.1126
▁हर्	-10.1127
▁पीढ़ी	-10.1128
यान	-10.1137
▁मिस	-10.1138
▁डेविस	-10.1156
▁विंग	-10.1157
▁करोड़	-10.1157
ार	-10.1161
▁यूएस	-10.1161
▁सेवानिवृत्ति	-10.1164
रान	-10.1177
▁उद्यम	-10.1181
▁कपड़े	-10.1187
्वे	-10.1187
रोन	-10.1198
स्टोन	-10.1198
▁संक्रमण	-10.1205
▁शक्तिशाली	-10.1216
▁भेज	-10.122
▁ज़े	-10.1221
ड़ी	-10.1227
▁बदले	-10.1231
▁बारह	-10.1235
▁रंगमंच	-10.1235
▁पुराना	-10.1235
यु	-10.1246
▁बैल	-10.1252
ेला	-10.126
्मा	-10.1261
भार	-10.1263
टेन	-10.1264
आउट	-10.1269
▁अर्जेंटीना	-10.1295
वेट	-10.1295
▁लू	-10.1307
▁जैज़	-10.1307
▁हाइ	-10.1308
▁रहती	-10.131
▁खेत	-10.132
रिच	-10.1323
▁सुविधाओं	-10.1328
धीरे	-10.1329
मैं	-10.1331
▁अगली	-10.1334
▁प्ल	-10.134
मोंट	-10.1342
▁थोड़ा	-10.1347
▁कोशिका	-10.135
▁ब्रेक	-10.1356
ीकृत	-10.136
▁पीछा	-10.1362
▁घटक	-10.1366
▁खुलासा	-10.1369
मंड	-10.1376
▁प्रतिबंधित	-10.1377
कुल	-10.138
▁सं	-10.1381
);	-10.1389
▁वाई	-10.1391
▁परेशान	-10.1391
▁प्रतिरोध	-10.1396
▁संदेह	-10.1396
▁कीमत	-10.1398
▁हथियार	-10.1403
▁रणनीति	-10.1404
▁भू	-10.1408
▁रेस्तरां	-10.141
▁पशु	-10.1411
ेर	-10.1417
▁खोल	-10.1418
राज	-10.1424
▁सोने	-10.1426
स्प	-10.1431
▁रॉयल	-10.1433
ट्रे	-10.1436
▁रेटिंग	-10.1442
▁बिताया	-10.1445
▁नागरिकों	-10.1445
कर्ताओं	-10.1445
िप	-10.1451
▁कठोर	-10.1453
▁बनाना	-10.146
▁लड़की	-10.1466
ेक	-10.1475
▁भाइयों	-10.1476
▁बहाल	-10.1477
▁फल	-10.1488
रण	-10.1489
▁बेल्जियम	-10.149
ंडी	-10.1491
▁कमरे	-10.1493
▁मारने	-10.1495
▁प्रजनन	-10.1499
▁विल	-10.15
▁पात्र	-10.1504
बाद	-10.1505
हीन	-10.1505
▁नीदरलैंड	-10.1507
▁चारों	-10.152
▁प्रभावों	-10.1527
▁नेताओं	-10.1531
▁अनुदान	-10.1533
▁प्रभाग	-10.1537
▁चिंता	-10.1539
▁हेल	-10.1541
चन	-10.1546
▁वस्तु	-10.1551
▁मिलने	-10.1552
▁विशेषज्ञ	-10.1552
▁खतरे	-10.1556
▁मतलब	-10.156
▁क्रा	-10.1561
▁बढ़ते	-10.1565
टल	-10.1565
▁देखी	-10.1566
▁विल्सन	-10.1569
चार	-10.1574
▁ओवर	-10.1576
▁समुदायों	-10.1577
▁हस्तक्षेप	-10.1585
▁टेलर	-10.1586
▁इंजीनियर	-10.159
▁इंक	-10.159
▁प्राधिकरण	-10.159
ूर	-10.1594
▁पैन	-10.1598
▁रक्त	-10.1598
▁ईंधन	-10.1612
▁यातायात	-10.1618
ंटा	-10.1618
▁ईसा	-10.1619
▁पटकथा	-10.1619
▁अटलांटिक	-10.162
▁पैटर्न	-10.1638
करण	-10.1641
प्रो	-10.1643
▁निशान	-10.1643
▁शास्त्रीय	-10.1645
▁पत्रों	-10.1645
▁तरीकों	-10.1647
▁पंख	-10.1651
▁प्रेम	-10.1653
▁अतिथि	-10.1658
▁विविधता	-10.1663
▁अव	-10.1676
▁एकीकृत	-10.1681
▁तैयारी	-10.1685
स्ट्री	-10.1686
▁सलाह	-10.1695
▁नामांकित	-10.1701
्को	-10.1704
u	-10.1709
▁सौंपा	-10.1711
▁मुश्किल	-10.1713
▁तनाव	-10.1716
▁लॉर्ड	-10.1718
▁टुकड़े	-10.1727
▁प्रजातियाँ	-10.1727
▁आसानी	-10.1728
▁आवरण	-10.173
▁प्रदर्शनों	-10.1736
▁हु	-10.174
▁सीडी	-10.1742
रॉन	-10.1745
▁परिदृश्य	-10.1757
मल	-10.1759
▁फिलाडेल्फिया	-10.1769
▁आरक्षित	-10.1772
▁बास	-10.1778
▁समर्थक	-10.1778
▁इतिहासकार	-10.1781
वह	-10.1785
▁चूंकि	-10.1786
▁राजवंश	-10.1786
्सन	-10.1786
▁टूर	-10.1787
▁संकट	-10.1791
▁प्रांतीय	-10.1796
▁साहित्यिक	-10.1799
▁प्रतिद्वंद्वी	-10.1801
▁अमेरिकन	-10.1803
▁प्लेट	-10.182
▁पेट	-10.182
▁बीमारी	-10.182
▁अपेक्षाकृत	-10.1821
▁भाषाओं	-10.1822
▁एव	-10.1824
▁मूर	-10.1825
▁गज	-10.1826
▁दुश्मन	-10.1834
▁एरिक	-10.1836
ब्स	-10.1841
▁बाढ़	-10.1843
▁घोड़े	-10.1846
▁हटाने	-10.1855
▁टिकट	-10.1856
न्यू	-10.1861
▁दुर्लभ	-10.1863
▁चू	-10.1865
▁माप	-10.187
्ले	-10.1874
▁भव्य	-10.1876
▁मानते	-10.188
▁असामान्य	-10.188
▁खोजने	-10.1881
▁ड्राइव	-10.1881
▁हेड	-10.1881
▁चैपल	-10.1884
▁फूल	-10.1886
▁गैलरी	-10.1893
्वा	-10.1894
▁यहां	-10.1897
▁उपाध्यक्ष	-10.1898
दे	-10.1901
▁लाने	-10.1902
▁धीरे	-10.191
थो	-10.1914
▁भाषण	-10.1916
▁स्वीडिश	-10.1917
▁सामूहिक	-10.1918
▁टा	-10.1919
▁पक्षी	-10.192
▁बीज	-10.1925
▁जोड़ने	-10.1927
केन	-10.1931
सेंट	-10.1932
ोक	-10.194
▁गहरे	-10.1941
ब्रा	-10.1942
▁अनुरूप	-10.1943
लक	-10.1948
▁पसंदीदा	-10.1955
▁प्रस्तावित	-10.1957
▁दैनिक	-10.1963
▁संदेश	-10.1968
▁चट्टान	-10.1968
ग्रा	-10.1975
▁चित्रकार	-10.1979
▁स्वीडन	-10.1992
▁प्रतिष्ठित	-10.1994
▁शिक्षण	-10.1997
क्टर	-10.2002
स्ट्रो	-10.2013
▁टाइ	-10.2015
िला	-10.2016
▁पाकिस्तान	-10.2019
▁बगल	-10.202
▁ओक	-10.2028
▁इकट्ठा	-10.2036
▁पड़ता	-10.2039
ज़े	-10.2042
▁अध्याय	-10.2043
▁एलिस	-10.2043
▁बाय	-10.2049
▁खड़ा	-10.2069
▁बंदूक	-10.2075
▁अमीर	-10.208
त्सु	-10.2081
कारी	-10.209
▁ग्रेड	-10.2095
▁स्क्रीन	-10.2101
बर्न	-10.2101
पै	-10.2111
▁सुंदर	-10.2114
▁चेतावनी	-10.2121
▁आक्रामक	-10.2122
▁सीनेटर	-10.2123
▁रवाना	-10.2124
▁सांता	-10.2132
▁पैरा	-10.2133
▁पारिवारिक	-10.2135
जु	-10.2136
्का	-10.214
▁अनुमानित	-10.2148
▁अल्बर्ट	-10.2148
बिया	-10.2153
है	-10.2162
▁प्रतियोगिताओं	-10.2163
▁य	-10.2165
▁घुड़सवार	-10.2173
▁नवीनीकरण	-10.2181
▁फार्म	-10.2183
▁सदस्यता	-10.2183
▁कुश्ती	-10.2193
▁क्लार्क	-10.2194
▁उठाया	-10.2195
▁गणना	-10.2196
▁शानदार	-10.2198
▁महामारी	-10.2201
▁बचा	-10.2202
स्टेड	-10.2204
▁उपयुक्त	-10.2204
▁सारा	-10.2207
▁विला	-10.2211
▁मिलकर	-10.2219
▁सौंप	-10.2225
्ल	-10.2228
्च	-10.2232
▁लड़कियों	-10.2233
▁हार्	-10.2237
▁ओंटारियो	-10.2238
▁संस्कार	-10.2249
ाइ	-10.2251
▁मना	-10.2254
ट्री	-10.226
▁समर्थित	-10.2261
▁बढ़ाया	-10.2267
▁पत्रकार	-10.2274
▁यॉर्क	-10.2276
▁गेट	-10.2278
▁स्टीफन	-10.2284
▁अनुक्रम	-10.2285
▁प्रभावशाली	-10.2286
▁अभिव्यक्ति	-10.2293
▁सवारी	-10.2302
▁अति	-10.2306
सिक	-10.231
▁अग्रणी	-10.2321
▁कब्जे	-10.2328
▁मेन	-10.2334
▁ज़ि	-10.2334
▁स्टील	-10.2339
▁फॉ	-10.2349
▁जैव	-10.2352
▁राशि	-10.2356
▁भंडार	-10.2359
▁फिल	-10.2364
▁फ्रेडरिक	-10.2364
▁लुई	-10.2365
▁मुकदमे	-10.2367
▁कहना	-10.2368
▁हल्के	-10.2369
▁विन	-10.2372
▁आदर्श	-10.2381
▁टाउन	-10.2388
▁इंटरनेट	-10.2391
▁मीनार	-10.2396
▁जानवरों	-10.2397
▁लिंक	-10.2404
▁अस	-10.2405
▁फोर्ट	-10.2408
▁हथियारों	-10.2413
ये	-10.2413
▁सहयोगियों	-10.2413
▁खदान	-10.2415
▁खंडों	-10.2417
▁ठहराया	-10.242
▁फ्रांसिस	-10.2421
▁स्टीव	-10.2427
▁आलोचनात्मक	-10.243
ोरा	-10.243
▁आते	-10.2439
▁ग्रि	-10.2442
▁लिखित	-10.2444
▁कारणों	-10.2456
प्ट	-10.2464
▁लगी	-10.2466
▁अधीन	-10.247
त्र	-10.2475
▁जेड	-10.2481
▁काल्पनिक	-10.2484
▁नकारात्मक	-10.2485
▁सहमति	-10.2488
ोट	-10.2493
▁उजागर	-10.2493
▁असफल	-10.2495
स्थ	-10.2502
▁प्लेऑफ़	-10.2505
▁कम्युनिस्ट	-10.2513
िड	-10.2513
▁सशस्त्र	-10.2516
▁लड़कों	-10.2518
▁डेव	-10.2518
▁क्ल	-10.2522
▁गायन	-10.2522
▁समापन	-10.2524
▁दायर	-10.2524
▁चलाने	-10.2526
▁ब्रायन	-10.2528
▁टाउनशिप	-10.2528
▁पायलट	-10.2536
वर्ड	-10.2544
▁ग्ल	-10.2548
▁फ्रेम	-10.2549
▁समृद्ध	-10.2553
रम	-10.2565
▁जुड़ी	-10.2569
▁तार	-10.257
ज़र	-10.2571
▁प्रयोग	-10.2571
▁जाएगी	-10.2574
रिंग	-10.2592
▁महाविद्यालय	-10.2592
ऊ	-10.2597
नल	-10.2598
▁वनस्पति	-10.2608
म्बर	-10.2609
▁शै	-10.2625
▁कोविड	-10.2626
▁जाति	-10.2645
▁ब्यूरो	-10.265
यार्ड	-10.2656
▁रोबर्ट	-10.2663
▁पड़ोसी	-10.2664
▁सर्दियों	-10.2668
▁अंग	-10.2668
जिन	-10.2676
नन	-10.268
▁दृष्टि	-10.2684
▁स्रोतों	-10.269
▁देर	-10.2694
न्ना	-10.2698
डिया	-10.2703
▁कवि	-10.2705
▁ति	-10.2705
्सी	-10.2706
ग्राफ	-10.2707
नाम	-10.2711
म्	-10.2727
▁पाल	-10.273
▁फै	-10.2733
डिंग	-10.2738
▁हार्ट	-10.274
▁कहीं	-10.2752
▁चेक	-10.2752
▁उष्णकटिबंधीय	-10.2761
▁जीव	-10.2761
▁मार्शल	-10.2766
▁गहराई	-10.277
▁बाधा	-10.2774
▁होम	-10.2781
▁पांचवें	-10.2786
▁आउट	-10.279
▁बजट	-10.2794
▁सौदे	-10.2795
वर्थ	-10.2796
ियल	-10.2797
▁हमें	-10.2801
▁जिनकी	-10.2802
▁आवाज़	-10.281
▁निर्माताओं	-10.2814
ऑ	-10.2819
ानो	-10.2821
▁प्लॉट	-10.2822
फ्रे	-10.2825
▁आकर्षण	-10.2827
▁भंग	-10.2829
▁टेक	-10.2833
▁यूके	-10.284
ल्प	-10.2845
▁पतन	-10.2847
▁संस्करणों	-10.2863
▁बचाने	-10.2868
▁लड़ने	-10.287
▁पहल	-10.2873
▁महासागर	-10.2874
▁मामला	-10.2876
क्रम	-10.2876
▁वुड	-10.2878
▁बॉब	-10.2882
▁पैनल	-10.2887
▁जनसांख्यिकी	-10.289
शु	-10.2893
स्ट्र	-10.2894
अर	-10.2897
▁खनन	-10.2901
▁नाव	-10.2904
ट्रि	-10.2907
▁गौ	-10.2912
▁सॉ	-10.2917
▁निकाला	-10.2922
▁पहाड़ों	-10.293
रन	-10.2931
▁मैंने	-10.2932
▁संरक्षक	-10.2935
▁डबल	-10.2937
▁ध्वस्त	-10.2941
▁परिणामों	-10.2942
▁जंगली	-10.2943
केट	-10.295
▁अवैध	-10.2952
▁एथलेटिक	-10.2957
▁बुलाया	-10.2957
कस	-10.2958
सभी	-10.2958
▁सोच	-10.2966
▁फेंक	-10.2975
▁अर्ल	-10.2978
▁खारिज	-10.2987
▁प्रत्यक्ष	-10.2993
हेम	-10.2995
▁ऊँचाई	-10.2998
▁आपराधिक	-10.3003
▁रखे	-10.3009
▁टावर	-10.301
▁विजय	-10.3011
▁महोत्सव	-10.3015
▁लिखते	-10.302
▁वर्षीय	-10.3021
स्ट्रा	-10.3024
▁बढ़े	-10.3025
▁आह्वान	-10.3025
▁रिंग	-10.3029
▁क्लबों	-10.3029
ज़ु	-10.3034
▁भूरे	-10.3037
▁रक्षक	-10.3039
हित	-10.3047
▁बताता	-10.3049
▁क्लै	-10.3049
▁राज	-10.3054
▁फीट	-10.3069
▁आवेदन	-10.3074
रेल	-10.308
▁सिफारिश	-10.3081
▁लाइट	-10.3083
▁उनसे	-10.3087
▁अर्हता	-10.3092
▁तलाश	-10.3095
ड़े	-10.31
▁यूरो	-10.31
▁कुलीन	-10.3102
▁गुण	-10.3106
▁परीक्षा	-10.3106
▁मृत	-10.3108
▁निक	-10.311
▁मेजर	-10.3117
दूसरे	-10.3123
▁किलोमीटर	-10.3125
▁बक	-10.3133
▁टोरंटो	-10.3133
चो	-10.3135
▁व्यवस्थित	-10.3136
वास	-10.3145
कम	-10.3148
िता	-10.3149
▁कहानियों	-10.3151
हल	-10.3158
▁भिन्न	-10.3159
▁चिकित्सक	-10.316
▁दोस्तों	-10.3164
▁तत्कालीन	-10.3169
मिल	-10.317
वर्स	-10.317
शिप	-10.3174
▁ग्रेट	-10.3174
▁सैंड	-10.3177
▁हूँ	-10.3181
▁लिमिटेड	-10.3187
▁यूक्रेन	-10.3187
▁समानता	-10.319
▁रोस	-10.3192
▁उद्देश्यों	-10.3192
प्ल	-10.3195
▁अंतराल	-10.3206
▁सोल	-10.321
वै	-10.3217
▁टचडाउन	-10.3224
प्ले	-10.3226
▁संस्थानों	-10.3232
▁कहता	-10.3233
क्र	-10.3234
्टी	-10.3237
▁नहर	-10.3239
▁फ़्ल	-10.3247
▁सिनेमा	-10.3248
विच	-10.3252
▁वाइ	-10.3254
▁जन्मे	-10.3256
▁इंगित	-10.3278
▁लिखने	-10.3278
▁बॉय	-10.3278
▁खड़े	-10.3287
▁सवाल	-10.3291
▁औपनिवेशिक	-10.3302
▁स्ल	-10.3303
▁चरम	-10.3303
▁इंटर	-10.3308
टिंग	-10.331
▁मानसिक	-10.3311
▁मुद्दे	-10.3315
डु	-10.3316
▁हिंसा	-10.3316
ाग	-10.3319
▁निकल	-10.3323
▁बेस	-10.3325
▁ताल	-10.3347
▁यु	-10.3348
▁भाग्य	-10.3352
▁पर्यटन	-10.3353
▁मरम्मत	-10.3356
िको	-10.3361
शिया	-10.3362
▁क्लो	-10.3362
▁आर्थर	-10.3362
▁मैक्सिकन	-10.337
▁वें	-10.3374
▁तटीय	-10.3375
▁स्प	-10.3384
▁कर्नल	-10.3393
▁सकें	-10.34
▁यात्रियों	-10.3403
▁पेपर	-10.3403
▁ठोस	-10.3404
▁चौथी	-10.3408
▁क्रो	-10.341
ब्ब	-10.3413
द्ध	-10.3413
▁डेर	-10.3419
बन	-10.3421
▁प्रतिनिधियों	-10.3423
▁इकाइयाँ	-10.3428
▁कामयाब	-10.343
▁फॉर	-10.3432
▁संसदीय	-10.3434
▁हमलों	-10.3442
ाइल	-10.3451
ुंग	-10.3453
▁जातीय	-10.3459
जल	-10.346
▁सीमाओं	-10.3461
▁फैल	-10.3463
ब्ल	-10.3465
▁खुला	-10.3466
▁संकलन	-10.3479
▁कारक	-10.3488
▁उपयोगकर्ता	-10.3491
▁विफलता	-10.3497
▁फेम	-10.3499
ंका	-10.3502
▁कैम्ब्रिज	-10.3506
▁दोपहर	-10.3508
ेरो	-10.3517
▁फोन	-10.3527
▁ब्रो	-10.3528
▁हांगकांग	-10.3529
▁मंजिल	-10.3532
▁स्वचालित	-10.3534
▁लियोन	-10.3535
ढ़	-10.354
▁टॉ	-10.3543
त्त	-10.3546
▁लिन	-10.3551
▁प्रशंसकों	-10.3553
▁सैम	-10.3556
▁पियानो	-10.3558
तो	-10.3559
▁खाते	-10.3569
▁हॉट	-10.3572
▁पिछली	-10.3575
नान	-10.3582
वार	-10.3582
▁कॉर्	-10.3585
ॉक	-10.3588
▁कैथेड्रल	-10.3588
▁पोलिश	-10.3592
▁मेट्रो	-10.3592
▁रचनात्मक	-10.3594
▁विपणन	-10.3594
▁इतना	-10.3598
ड्रा	-10.36
▁अनुकूल	-10.3601
▁मेयर	-10.3604
▁चो	-10.3606
▁सोसाइटी	-10.3609
▁मिलती	-10.3612
▁दृश्यों	-10.3615
▁सवार	-10.362
ंजा	-10.362
▁सिंगापुर	-10.3622
▁मुफ्त	-10.3626
▁मन	-10.3627
▁सफलतापूर्वक	-10.3628
▁शुद्ध	-10.363
▁ड्रम	-10.363
▁आपको	-10.3633
▁गायब	-10.3637
▁हुईं	-10.364
एट	-10.3642
▁ची	-10.3643
▁प्रिंट	-10.3647
बै	-10.365
▁पावर	-10.3655
▁ओटोमन	-10.3656
▁पौधों	-10.3658
िग	-10.3661
फिल	-10.3662
▁राहत	-10.3666
▁इलेक्ट्रॉनिक	-10.3669
▁टीमें	-10.367
हान	-10.3719
▁रसायन	-10.3726
▁टेनिस	-10.374
नस	-10.3745
▁आत्म	-10.3749
▁संकीर्ण	-10.3752
▁यार्ड	-10.3758
बिल	-10.3759
▁स्क	-10.3781
▁अनुपात	-10.3786
फै	-10.3793
दि	-10.3793
ंप	-10.3795
▁नायक	-10.3805
▁अली	-10.381
ष्ट	-10.3813
▁भले	-10.3814
▁किशोर	-10.3817
▁रखरखाव	-10.3821
▁पीले	-10.3823
▁अड्डा	-10.3841
्टा	-10.3848
▁मिलर	-10.3853
▁मान	-10.3853
▁रेन	-10.3855
▁डाइ	-10.3856
▁जुड़	-10.386
यां	-10.3861
▁मिसौरी	-10.3868
▁ह्यू	-10.3871
▁ऑटो	-10.3873
▁नियुक्ति	-10.3875
लियो	-10.3877
व्य	-10.3881
▁हस्ताक्षरित	-10.3883
▁योजनाओं	-10.3884
▁काट	-10.3885
▁मोर	-10.3885
▁मिड	-10.3887
▁आती	-10.3903
▁कोल	-10.3904
▁स्थलों	-10.3904
▁इं	-10.3905
▁एलेन	-10.3906
टु	-10.3907
स्म	-10.3914
▁एसिड	-10.3917
▁रविवार	-10.3918
क्का	-10.3918
▁गणित	-10.3931
त्व	-10.3933
▁कुशल	-10.394
▁चित्रण	-10.3949
▁शॉट	-10.3949
▁ग्यारह	-10.395
र्थ	-10.3952
▁साप्ताहिक	-10.3954
▁सूक्ष्म	-10.396
▁पैक	-10.3966
▁फ्रांसिस्को	-10.3967
नेस	-10.3969
▁रूपांतरण	-10.3972
शील	-10.3972
लाइट	-10.3972
दान	-10.3978
▁सूचित	-10.398
▁कौ	-10.3982
उन्होंने	-10.3994
▁विशेषज्ञता	-10.4008
▁एलेक्स	-10.401
▁अनुकूलित	-10.4026
▁विद्वान	-10.4027
▁इरादा	-10.403
▁न्यूनतम	-10.4032
प्रा	-10.404
▁चरणों	-10.4041
▁आयुक्त	-10.4042
▁विस्कॉन्सिन	-10.4043
▁आत्मा	-10.4045
क्ल	-10.405
▁छ	-10.4056
▁वेतन	-10.4063
▁हाथों	-10.4064
▁बहुमत	-10.4068
ग्रे	-10.4072
▁आइस	-10.4073
दु	-10.4074
▁महा	-10.4085
▁वर्षा	-10.409
▁घेर	-10.4091
किंग	-10.4094
▁पंजीकृत	-10.4095
राम	-10.4099
▁चेहरे	-10.4103
▁रासायनिक	-10.4105
▁माइक्रो	-10.4109
मिक	-10.4109
▁आसान	-10.4119
पोल	-10.4123
्ला	-10.4125
▁गर्मी	-10.4129
▁स्मृति	-10.4131
▁हट	-10.4132
टोन	-10.4133
▁इस्लामी	-10.4138
▁तंत्रिका	-10.4138
▁राइट	-10.414
उप	-10.4147
▁देशी	-10.415
ेरिया	-10.4153
▁द्वि	-10.4154
रियन	-10.4156
▁पिक	-10.4159
▁दशकों	-10.4164
ब्रि	-10.4165
▁निकाय	-10.4167
▁डैन	-10.4168
▁कोशिकाओं	-10.4171
जक	-10.4175
▁काली	-10.4179
▁ग्रह	-10.418
▁अश्वेत	-10.4181
बेन	-10.4185
▁लहर	-10.4188
▁सबूत	-10.4188
ड्र	-10.4189
ट्टा	-10.4192
मार्क	-10.4196
▁लिंकन	-10.4196
▁रिलीज	-10.4197
▁डॉन	-10.4199
▁कारों	-10.4205
ीज़	-10.4207
लान	-10.4207
▁कार्यकर्ता	-10.4214
▁सुना	-10.4215
▁नस्लीय	-10.422
गम	-10.4221
▁पैसे	-10.4223
▁उदार	-10.4225
▁दें	-10.4236
▁संबोधित	-10.4241
ांत	-10.4242
▁पूल	-10.4243
प्प	-10.4255
▁मूर्ति	-10.4256
▁मैनचेस्टर	-10.4263
▁नामों	-10.4264
▁वु	-10.4265
▁वर्षगांठ	-10.4268
▁शैक्षिक	-10.4268
ुन	-10.4271
▁नाटकीय	-10.4274
िज	-10.428
क्रो	-10.4286
▁भूमिकाओं	-10.4287
र्ग	-10.429
ायर	-10.4295
▁नींव	-10.4298
▁चौथा	-10.4303
ट्टी	-10.4303
▁बम	-10.4307
▁जिलों	-10.4308
प्ला	-10.4313
बॉ	-10.4315
मू	-10.4325
कोव	-10.4326
▁शौकिया	-10.4329
▁दिवस	-10.4332
▁बरकरार	-10.4337
▁काला	-10.4337
▁लग	-10.4338
बोर्न	-10.4341
▁लड़के	-10.4344
▁सुन	-10.4346
ेनबर्ग	-10.4352
▁फॉक्स	-10.4359
▁आर्क	-10.4364
ाक	-10.4366
▁निर्वासन	-10.4368
▁मोबाइल	-10.4369
▁बसने	-10.437
▁सोचा	-10.4376
▁देरी	-10.4376
▁त्रि	-10.438
▁पौधे	-10.4394
▁प्रतिस्थापन	-10.4399
▁कान्सास	-10.4413
▁नै	-10.4417
▁मेलबर्न	-10.4422
▁बिताए	-10.4422
▁समझौता	-10.4425
▁हरे	-10.4431
▁टोनी	-10.4433
▁गोल्फ	-10.4437
▁सम	-10.446
▁राजनयिक	-10.4465
▁रिक	-10.4466
▁अर	-10.4468
▁डिक	-10.447
कार्ड	-10.4471
निंग	-10.4477
उन	-10.4479
▁प्रतिभा	-10.4479
▁ऑस्ट्रिया	-10.4481
फिन	-10.4488
▁निम्न	-10.4495
दक्षिण	-10.4498
▁देखे	-10.4499
्रु	-10.4503
▁बढ़त	-10.4514
कोर	-10.4515
निर्	-10.4516
▁लेना	-10.4517
▁मेड	-10.4518
▁पढ़	-10.4528
▁साइकिल	-10.4541
▁संसाधन	-10.4551
▁जैक्सन	-10.4554
▁रोगियों	-10.4558
▁गिनती	-10.4563
▁गाने	-10.4564
▁जानते	-10.457
▁ईरान	-10.4571
▁खेती	-10.4576
▁डाक	-10.4576
▁पदार्थ	-10.4579
▁निरीक्षण	-10.4581
ाऊ	-10.4586
▁सिर्फ	-10.4592
खंड	-10.4598
हेन	-10.4608
▁पैट्रिक	-10.461
▁मार्गों	-10.4611
ुक	-10.4612
▁संरचनाओं	-10.4613
स्टी	-10.4616
▁सिद्धांतों	-10.4618
▁धारणा	-10.4622
▁अद्वितीय	-10.4627
▁इंडियाना	-10.4628
▁नियोजित	-10.4629
वर्	-10.4631
▁मैरीलैंड	-10.4633
▁एंडरसन	-10.4634
▁रोल	-10.464
▁पिच	-10.4641
▁कैट	-10.4641
▁सर्	-10.4642
▁सदन	-10.4644
ंडल	-10.4645
▁व्यापारी	-10.466
▁डू	-10.4661
्व	-10.4663
▁कहाः	-10.4664
ोड	-10.4664
▁इंडोनेशिया	-10.4665
▁मंजिला	-10.4666
▁तरीका	-10.4667
▁प्रसार	-10.4667
▁निष्क्रिय	-10.467
ट्रा	-10.4674
▁ब्रैड	-10.4676
▁वियतनाम	-10.4676
र्टन	-10.4677
▁मस्तिष्क	-10.4677
▁सूर्य	-10.4679
गेन	-10.4683
स्ले	-10.4685
▁नरसंहार	-10.4688
▁उपग्रह	-10.4699
▁ड्राफ्ट	-10.4704
▁प्रवास	-10.4704
▁शूट	-10.4707
▁फैशन	-10.4711
पोषण	-10.4712
▁भरा	-10.4714
▁मोनो	-10.4715
▁माय	-10.4719
▁विमानों	-10.4723
▁कमीशन	-10.4727
ंब	-10.473
▁पंखों	-10.4732
▁फु	-10.4732
▁ग्रहण	-10.4732
▁फुट	-10.4738
▁सुरंग	-10.474
▁घिरा	-10.4745
▁मालिकों	-10.4765
▁डेम	-10.4765
पति	-10.4765
▁सेवाएं	-10.4765
▁क्रि	-10.4773
▁कानूनों	-10.4773
ताओं	-10.4782
बिट	-10.4783
▁ओरेगन	-10.4784
▁शिकायत	-10.4785
▁रैंकिंग	-10.479
▁संगीतकारों	-10.4794
मस	-10.4796
▁कलात्मक	-10.4803
▁सारांश	-10.4804
▁अनुप्रयोग	-10.4805
▁यूनिवर्सिटी	-10.4807
घर	-10.4808
▁इंजनों	-10.4814
▁चोरी	-10.4814
▁क्रेडिट	-10.4815
ेंगे	-10.4818
▁रजत	-10.4819
▁पॉली	-10.4822
हैम	-10.4823
▁पदोन्नति	-10.4824
म्बा	-10.4826
▁कराया	-10.4827
ॉल	-10.483
▁जंक्शन	-10.483
▁रुक	-10.4831
▁ट्रॉफी	-10.484
गि	-10.4851
िटी	-10.4851
फेन	-10.4867
रिट	-10.4871
▁छठे	-10.4876
ाह	-10.488
▁सिंह	-10.4888
▁परामर्श	-10.4888
▁मानचित्र	-10.4892
जू	-10.4892
▁सर्किट	-10.4899
▁युवाओं	-10.491
्चे	-10.4912
रियल	-10.4915
▁अकेले	-10.4915
▁झूठ	-10.4918
अभि	-10.4929
▁ब्रै	-10.4932
▁डीन	-10.4933
▁आवासीय	-10.4935
▁प्रकट	-10.4943
▁नीले	-10.4944
▁डिजाइनर	-10.4946
▁अतीत	-10.495
▁घेराबंदी	-10.4954
▁वोल्	-10.496
िर	-10.496
▁फिनिश	-10.4962
तन	-10.4963
गिन	-10.4966
▁टेप	-10.497
▁ग्लेन	-10.4971
▁नील	-10.4976
▁कॉन	-10.4978
ष्	-10.4981
▁हैमिल्टन	-10.4985
निस	-10.4987
▁लड़ाकू	-10.4988
▁बरो	-10.4992
ात	-10.4997
हार	-10.4998
▁नौका	-10.5003
▁हेलेन	-10.5009
▁म्यू	-10.5016
▁बचपन	-10.5017
बोर्ड	-10.5017
▁एंड्रयू	-10.5018
▁ढांचे	-10.5019
▁स्वदेशी	-10.5024
▁चाल	-10.5031
पाल	-10.5033
▁रंगीन	-10.5036
▁ड्रे	-10.5044
▁पहाड़	-10.5048
न्न	-10.5049
व्स	-10.5049
▁शांत	-10.5056
▁मैक्स	-10.5057
▁राजदूत	-10.5059
▁पदों	-10.5064
भाग	-10.5068
झा	-10.5075
▁तोपखाने	-10.5078
▁चूक	-10.5079
▁डेन	-10.5081
पिंग	-10.5081
▁ग्राहकों	-10.5084
▁नु	-10.5086
▁क्रिसमस	-10.5089
▁सार्वभौमिक	-10.5102
▁निभा	-10.5102
लै	-10.5102
▁स्विट्जरलैंड	-10.5112
▁कियाः	-10.5116
▁औसतन	-10.5121
▁इंच	-10.5126
▁भाप	-10.5127
▁हंस	-10.5135
र्श	-10.5137
▁संसाधनों	-10.5138
▁स्टै	-10.5143
टाइम	-10.5147
▁फेयर	-10.515
▁लोहे	-10.5156
नू	-10.5158
▁जैविक	-10.5158
▁शु	-10.5159
अपने	-10.5162
स्ता	-10.5165
▁एलन	-10.5169
म्म	-10.5178
▁स्विस	-10.518
▁चमक	-10.5183
ेंड	-10.5187
▁परिचित	-10.5188
त्मक	-10.5189
▁आनुवंशिक	-10.5192
प्रति	-10.5195
▁साफ	-10.5195
▁लैंड	-10.5199
▁ट्रि	-10.5204
▁पूंजी	-10.5206
▁फ्रे	-10.5207
▁पढ़ने	-10.5209
▁अवशेष	-10.5211
▁मांस	-10.5214
▁एथलेटिक्स	-10.5219
▁नॉर	-10.5229
▁प्रकाशक	-10.523
▁पूरक	-10.5232
▁ट्रस्ट	-10.5234
▁राइफल	-10.5254
▁पाय	-10.5264
▁वाहनों	-10.5265
▁वाल्टर	-10.5268
▁कारखाने	-10.5275
▁लव	-10.5278
ुला	-10.528
▁खुफिया	-10.5281
▁गुट	-10.5284
अधि	-10.5285
▁(;	-10.5289
▁हृदय	-10.529
सान	-10.5292
▁प्रायद्वीप	-10.5292
लॉ	-10.5295
▁राजस्व	-10.5301
थर	-10.5304
▁डाउन	-10.5304
▁अपार्टमेंट	-10.5304
▁परिभाषा	-10.5304
▁मानद	-10.5308
▁देकर	-10.5317
विशेष	-10.532
▁खेलना	-10.5326
▁कॉर्न	-10.5327
▁समानांतर	-10.5329
▁नाज़ी	-10.5335
▁रक्षात्मक	-10.5337
▁ट्रम्प	-10.5339
▁पुर्तगाली	-10.5341
▁दलों	-10.5343
▁चैम्पियनशिप	-10.5347
ंगी	-10.5351
▁आगमन	-10.5356
ेरी	-10.5357
आप	-10.5361
▁टेर	-10.5364
बेरी	-10.537
▁ब्रि	-10.5372
▁स्वामी	-10.5376
▁अस्पष्ट	-10.5378
ज़ोन	-10.5391
▁टाइम	-10.5397
▁चलती	-10.5399
▁आरोपों	-10.5401
▁एस्टेट	-10.5403
▁गरीब	-10.5413
▁तालिका	-10.5416
▁खरीदने	-10.5422
▁परिवर्तनों	-10.5427
▁हड़ताल	-10.5434
टोर	-10.5434
▁भौगोलिक	-10.5435
ग्राम	-10.544
ुरा	-10.5444
फि	-10.5444
▁लुइस	-10.5449
▁बेकर	-10.545
ब्रो	-10.5454
▁फूलों	-10.5457
▁डूब	-10.5458
ोला	-10.5463
▁ह्यूस्टन	-10.5468
व्यू	-10.5478
▁कांच	-10.5485
▁रियो	-10.5495
▁भंडारण	-10.5496
▁प्रतिष्ठा	-10.5498
▁क्वे	-10.5501
▁कीं	-10.5505
रत	-10.5508
▁जुआन	-10.5514
▁टन	-10.5515
▁स्पोर्ट्स	-10.5527
▁ब्रुक	-10.5528
▁बोर	-10.553
▁भूत	-10.5531
▁वकालत	-10.5535
स्पोर्ट	-10.5535
▁इमारतें	-10.5536
▁बीमा	-10.5543
▁लेक	-10.5549
▁बर	-10.5549
▁ताकत	-10.5549
बॉल	-10.5553
अनु	-10.5555
लोक	-10.556
▁राज्यपाल	-10.5563
▁उतर	-10.5563
्यो	-10.5565
▁पिन	-10.5566
▁प्रार्थना	-10.5571
▁साक्ष्य	-10.5572
▁बमबारी	-10.5572
▁रखना	-10.5578
▁बाउल	-10.5584
▁साइमन	-10.5588
पेट	-10.559
▁उपहार	-10.559
▁रोजगार	-10.5598
▁टोक्यो	-10.5601
▁शासनकाल	-10.5602
▁निधन	-10.5604
वादियों	-10.5606
क्क	-10.5607
▁मोड	-10.5613
▁इराक	-10.562
▁डगलस	-10.5623
▁भूमिगत	-10.5625
▁टेली	-10.5633
▁जोड़ता	-10.5634
▁रैंक	-10.5636
इज़	-10.5642
▁व्याख्यान	-10.5649
▁हार्ड	-10.565
रक	-10.565
▁निकटता	-10.5653
▁किसान	-10.5653
बेक	-10.5653
▁एकजुट	-10.5656
▁केंटकी	-10.5657
ंटो	-10.5673
▁कोलोराडो	-10.5676
ोनिया	-10.568
फोन	-10.5684
▁ब्रिज	-10.5688
▁टुकड़ों	-10.5694
▁व्यक्तित्व	-10.5697
▁वाटर	-10.5698
▁सुनाई	-10.5698
▁मार्गरेट	-10.5701
▁फिट	-10.5708
▁प्रतिस्पर्धी	-10.571
▁लोकतंत्र	-10.5713
जब	-10.5716
▁संवैधानिक	-10.573
▁बेचा	-10.5732
▁मू	-10.5734
पेन	-10.5734
▁अर्थशास्त्र	-10.5747
▁ट्रक	-10.575
▁बिग	-10.5758
मुझे	-10.5769
▁चार्टर	-10.577
▁टेल	-10.5771
▁वू	-10.5778
▁खतरा	-10.5782
▁ग्रो	-10.5782
▁आलोचक	-10.5786
▁दोहरा	-10.5788
बुक	-10.5793
▁वाहक	-10.5795
▁पहुंचा	-10.5798
नियन	-10.5801
▁मध्ययुगीन	-10.5803
▁भरने	-10.5805
थ्र	-10.5805
▁सत्ता	-10.5809
▁पट्टी	-10.581
▁ऑर्डर	-10.5817
▁फ्लोर	-10.5817
ेटर	-10.5821
▁गोल्डन	-10.5821
▁मुड़	-10.5822
▁निर्यात	-10.5826
▁एंटोनियो	-10.5827
▁ताज	-10.583
▁प्राइम	-10.5834
▁बौद्ध	-10.5834
टक	-10.5836
▁विधेयक	-10.584
रोधी	-10.5843
ऑन	-10.5845
श्	-10.5847
▁जीवाश्म	-10.5851
ारा	-10.5852
▁समाजवादी	-10.5853
▁कौन	-10.5853
▁सैमुएल	-10.5853
▁कार्बन	-10.5853
▁डै	-10.5854
▁टैग	-10.5856
इंड	-10.5863
▁ऑफ़	-10.5866
▁हराकर	-10.5869
▁पदार्थों	-10.5873
▁प्रिंस	-10.5874
▁हंगरी	-10.5875
टेक	-10.5877
▁बेसिन	-10.5877
▁फायर	-10.5878
▁खुश	-10.5878
▁स्थानांतरण	-10.5884
िये	-10.5888
वाह	-10.5891
▁अर्	-10.5892
▁निंदा	-10.5894
▁सिम	-10.5894
▁अचानक	-10.5897
▁चिली	-10.5898
▁उद्धृत	-10.59
▁लैंग	-10.5901
्फ	-10.5902
▁बर्ग	-10.5902
▁करेगी	-10.5907
▁जोस	-10.5908
ोंग	-10.5912
▁त्वचा	-10.5919
▁बैटरी	-10.5923
▁यूनि	-10.5928
विया	-10.5929
स्के	-10.593
▁सीटें	-10.5934
द्	-10.5935
▁ग्रंथ	-10.5937
▁उम्मीदवारों	-10.5939
▁नैदानिक	-10.5941
नोव	-10.5942
▁बाधित	-10.5945
▁अभियानों	-10.5946
▁तारा	-10.595
इर	-10.5953
▁बोन	-10.5955
▁लॉरेंस	-10.5956
▁आध्यात्मिक	-10.5958
▁क्रिस्ट	-10.5959
▁गृहयुद्ध	-10.5963
▁दवाओं	-10.5965
▁अलगाव	-10.5966
▁पूजा	-10.5968
▁पढ़ाया	-10.5969
▁खड़ी	-10.5971
रीन	-10.5976
▁रास्ता	-10.5978
ड्रि	-10.5979
▁युगल	-10.5982
ेना	-10.5982
जिंग	-10.5984
▁अंतरराष्ट्रीय	-10.5985
▁गरीबी	-10.5985
▁अध्यक्षता	-10.5986
▁मिन	-10.5987
▁अनु	-10.5988
▁फिल्में	-10.599
परि	-10.5993
ल्क	-10.5998
▁राष्ट्रमंडल	-10.5999
▁पक्षियों	-10.6002
▁मिलान	-10.6002
हू	-10.6004
▁लगाए	-10.6007
विज्ञान	-10.6014
पास	-10.6031
▁लोकप्रियता	-10.6037
▁गोलीबारी	-10.6042
बोट	-10.605
मिंग	-10.6053
▁पहुँचा	-10.6058
▁भरी	-10.6059
▁क्षण	-10.6066
▁मनुष्यों	-10.6069
ंध	-10.6071
▁हवाला	-10.6071
▁प्रेरणा	-10.6072
▁कैदियों	-10.6078
मिस	-10.6085
▁तकनीकों	-10.6096
▁बनाती	-10.6098
▁खुदरा	-10.6104
थम	-10.6106
▁यूक्रेनी	-10.6106
▁जिम्मेदारी	-10.6106
▁प्रशिक्षक	-10.6107
▁मामूली	-10.6111
▁बाएं	-10.6112
▁दरबार	-10.6114
▁पारिस्थितिकी	-10.6115
▁बॉ	-10.6119
▁गुफा	-10.6122
▁इंटरनेशनल	-10.6122
"),	-10.6124
शर	-10.6126
▁प्रवृत्ति	-10.6126
ज़्	-10.6127
▁प्रक्रियाओं	-10.6129
▁लेडी	-10.6131
▁शूटिंग	-10.6134
फेल	-10.6135
▁आविष्कार	-10.6137
िंस	-10.6137
ोलॉजी	-10.6138
्सबर्ग	-10.6139
▁स्टोन	-10.6142
▁निकलने	-10.6148
▁महानगरीय	-10.6148
▁भौतिकी	-10.6149
▁कू	-10.6153
ग्लो	-10.616
▁कड़ी	-10.6165
▁क्रिया	-10.6167
▁जै	-10.6169
▁पूर्वोत्तर	-10.6169
▁लड़ी	-10.617
▁पढ़ा	-10.6171
▁परिचालन	-10.6174
▁खाने	-10.6176
▁दीवारों	-10.618
▁चर	-10.618
▁फोटो	-10.618
एड	-10.6181
ेक्स	-10.6182
▁भूकंप	-10.6184
▁स्टैंड	-10.6186
ेयर	-10.6188
▁लैप	-10.619
बस	-10.6192
▁एप	-10.6192
▁जनजाति	-10.6194
यी	-10.6197
▁नेशनल	-10.6197
िफ	-10.6202
▁अवसाद	-10.6203
▁वादा	-10.6204
▁रहस्य	-10.6208
प्रदान	-10.6208
▁भागीदार	-10.6208
नियम	-10.621
▁वफादार	-10.6214
▁सामान	-10.6219
▁शून्य	-10.6221
▁पत्रिकाओं	-10.6228
▁ग्राहक	-10.623
▁मल	-10.6235
▁निकोलस	-10.6236
बेर	-10.624
▁रीड	-10.6243
▁गुड	-10.6243
▁शॉ	-10.6243
युक्त	-10.6245
▁लाइनों	-10.6251
ुआन	-10.6251
ीज	-10.6253
डू	-10.6255
▁ऊँची	-10.6259
▁फीचर	-10.6263
▁अरा	-10.6266
▁फैसले	-10.6274
▁नस्लों	-10.6275
▁बुश	-10.6275
्स्क	-10.6275
▁साउंडट्रैक	-10.6277
▁घाट	-10.6277
▁निर्वासित	-10.6281
▁फोर्ड	-10.6282
▁डेक	-10.6285
▁कॉलोनी	-10.6287
पिन	-10.6287
▁छात्रवृत्ति	-10.6289
▁प्रिक्स	-10.6294
▁वॉल	-10.6294
▁पेड़ों	-10.6298
▁खुदाई	-10.6304
▁भार	-10.6304
ोमा	-10.6307
▁विद्वानों	-10.6307
▁शक्तियों	-10.6307
▁गलती	-10.6308
▁फ्रि	-10.6311
स्तरीय	-10.6312
▁तस्वीर	-10.6316
▁उत्पादित	-10.6321
▁पेटेंट	-10.6323
▁प्रधानमंत्री	-10.6333
▁इलाज	-10.6335
▁सप्ताहांत	-10.634
वर्क	-10.6344
कॉ	-10.6345
▁डेनमार्क	-10.6347
▁विवादास्पद	-10.6348
▁परिचय	-10.6351
जिया	-10.6354
▁दरवाजे	-10.636
वर्ष	-10.6364
▁रख	-10.6367
ल्ल	-10.6369
▁दोहरे	-10.6377
▁फ्यू	-10.6381
लाभकारी	-10.6382
▁परे	-10.6382
परिवार	-10.6383
▁रखती	-10.6402
▁क्यों	-10.6407
▁शैलियों	-10.6422
ंगल	-10.6425
▁मॉन्ट्रियल	-10.6429
▁व्यावहारिक	-10.643
▁प्राथमिकता	-10.643
▁कॉन्	-10.6435
▁फिन	-10.6436
नेल	-10.6437
▁लॉन्ग	-10.6437
▁निर्वाचित	-10.6443
्से	-10.6451
▁स्तंभ	-10.6456
▁पूर्ववर्ती	-10.6458
▁आकर्षक	-10.6464
▁चचेर	-10.6466
▁पिट	-10.6468
▁हार्वर्ड	-10.6469
▁आधा	-10.6479
▁सीखने	-10.648
▁विविध	-10.6482
▁हॉर्न	-10.6485
▁मियामी	-10.6485
▁जॉर्डन	-10.6487
▁उच्चतम	-10.6491
▁मिसिसिपी	-10.6491
▁भागों	-10.6492
▁करीबी	-10.6494
▁साधन	-10.65
▁ऑडियो	-10.6502
▁हॉवर्ड	-10.6506
▁जादू	-10.6508
▁बढ़ता	-10.6509
गार्ड	-10.6516
▁गन	-10.6517
▁पृष्ठ	-10.6523
्टो	-10.6525
▁रणनीतिक	-10.6526
▁कुक	-10.6526
▁हैरिस	-10.6529
▁पुजारी	-10.653
▁फर	-10.6538
▁हों	-10.6541
कृत	-10.6544
▁बैट	-10.6546
▁अन्यथा	-10.6547
▁इल	-10.6553
▁अध्ययनों	-10.6557
▁गिटारवादक	-10.6561
▁फंस	-10.6562
▁बेचने	-10.6564
▁संगठित	-10.6566
▁क्रै	-10.6567
▁पुस्तकें	-10.6571
ॉट	-10.6571
▁ऑक्सफोर्ड	-10.6575
इड	-10.6581
▁हजारों	-10.6582
साइ	-10.6584
द्र	-10.6587
▁उपलब्धि	-10.6589
▁पॉ	-10.6594
▁बोलने	-10.6602
मिट	-10.661
▁प्रे	-10.6612
▁वाणिज्य	-10.6615
लिस्ट	-10.6615
▁कास्ट	-10.6624
▁मानकों	-10.6626
▁बू	-10.663
िंग्स	-10.6632
लम	-10.6635
▁व्यवसायी	-10.6638
▁मास्को	-10.6639
ेन्स	-10.6645
▁टायर	-10.665
▁गुजर	-10.6652
▁कथानक	-10.6654
▁गोर	-10.6658
▁एक्सप्रेस	-10.6659
▁ओक्लाहोमा	-10.6659
▁कंट्री	-10.6661
▁लक्षित	-10.6662
▁राइ	-10.6662
मेरे	-10.6664
▁गी	-10.6666
▁प्रायोजित	-10.6669
▁हारने	-10.6671
विंग	-10.6672
▁रिपब्लिकन	-10.668
रियर	-10.6681
ोआ	-10.6683
▁साजिश	-10.6685
▁स्काउट	-10.6685
▁फोर	-10.669
▁बताती	-10.6691
▁दोष	-10.67
▁स्पा	-10.6712
▁निलंबित	-10.6713
▁क्रिस्टल	-10.6716
▁श्रद्धांजलि	-10.6717
▁ट्रै	-10.6717
▁मैक्	-10.6721
▁प्रमाणित	-10.6727
▁चांदी	-10.6731
▁अंडे	-10.6732
बंद	-10.6733
▁यहूदियों	-10.6734
▁सितारों	-10.6737
▁प्रशंसक	-10.6738
▁अम	-10.6738
नॉ	-10.6741
▁छेद	-10.6742
▁आर्म	-10.6742
▁आदान	-10.6743
▁पोषित	-10.6744
▁एमी	-10.6745
ॉइड	-10.6746
ोना	-10.6749
ोनी	-10.6749
▁अमेरिकियों	-10.6749
▁शीतकालीन	-10.6759
▁बैरन	-10.676
▁बताते	-10.6762
▁एल्बमों	-10.6771
▁देख	-10.6771
▁तरल	-10.6772
▁आर्ट्स	-10.6775
▁बीस	-10.6775
▁ब्लूज़	-10.678
▁देंगे	-10.6784
खो	-10.6785
▁मतों	-10.6792
▁ग्रीस	-10.6794
▁टेस्ट	-10.6795
ंटन	-10.6795
▁एंजेल	-10.6796
▁अवसरों	-10.6799
▁समन्वय	-10.6799
▁छाया	-10.68
▁तय	-10.68
▁जब्त	-10.6801
धारी	-10.6801
▁विवाहित	-10.6803
▁एकड़	-10.6806
सिंग	-10.6807
▁इजरायल	-10.6808
स्लाव	-10.6808
फ्रा	-10.6812
▁कॉमिक्स	-10.6817
▁शिकारी	-10.6827
▁आपातकालीन	-10.6829
र्ब	-10.6834
ेलो	-10.6834
वर्ग	-10.6836
▁एडिनबर्ग	-10.6836
▁उत्पादक	-10.6839
▁किराए	-10.6849
विट	-10.6854
▁चुनावी	-10.6856
▁रिजर्व	-10.6861
▁वेन	-10.6864
ोसा	-10.6867
फू	-10.6867
▁क्रांतिकारी	-10.6871
वाई	-10.6871
▁मार्गदर्शन	-10.6879
▁आयात	-10.6879
▁गुलाब	-10.6882
▁कूद	-10.6883
▁संभालने	-10.6883
▁आत्मसमर्पण	-10.6889
▁हू	-10.689
▁ट्रेनों	-10.689
▁तीनों	-10.689
कोल	-10.6892
▁प्रोग्रामिंग	-10.6902
▁गैल	-10.6908
विज़	-10.6919
▁पर्यवेक्षक	-10.6921
▁बदला	-10.6925
▁एडम	-10.6928
▁अल्पसंख्यक	-10.6946
▁दर्शाया	-10.6946
तर	-10.695
रिल	-10.6952
▁पहचाना	-10.6953
टस	-10.6957
अल	-10.6958
वर्तमान	-10.696
धु	-10.6962
▁नाइ	-10.6963
▁बांग्लादेश	-10.6964
▁दीं	-10.6967
▁द्रव्यमान	-10.6968
▁दादा	-10.6968
गू	-10.6973
रूप	-10.6974
▁डन	-10.6977
ब्रुक	-10.6982
न्नी	-10.6982
▁धमकी	-10.6983
▁कैथरीन	-10.6983
▁तत्काल	-10.6984
▁जाँच	-10.6986
▁शिलालेख	-10.6991
▁ल्यू	-10.6997
▁टोल	-10.6997
ैंड	-10.6998
▁कोचिंग	-10.7
▁क्षतिग्रस्त	-10.7003
रेड	-10.7006
▁उठा	-10.7014
▁आखिरी	-10.7015
▁आवश्यकताओं	-10.7018
▁बारी	-10.7019
▁नमूने	-10.702
▁रेंज	-10.7023
देश	-10.7028
▁जूरी	-10.7031
▁खींच	-10.7032
▁छुट्टी	-10.7033
▁मोंटे	-10.7036
▁काउंसिल	-10.7037
.>	-10.7038
डिस	-10.7041
▁स्पिन	-10.7044
▁स्काई	-10.7046
डियो	-10.7052
▁बीमार	-10.7052
▁बायो	-10.7052
भाव	-10.7055
▁डॉक्टरेट	-10.7058
▁इलाकों	-10.7058
▁अद्यतन	-10.7059
▁i	-10.706
▁मैग	-10.7061
▁समायोजित	-10.7068
नाइट	-10.7068
▁बं	-10.707
▁टेनेसी	-10.7072
लाई	-10.7073
▁मुलाकात	-10.7075
▁ब्रह्मांड	-10.7078
रास	-10.7084
▁बह	-10.7085
▁आदिवासी	-10.7086
▁नं	-10.7091
▁घड़ी	-10.7091
▁हाफ	-10.7092
▁क्यूबा	-10.7093
▁शनिवार	-10.7095
▁वॉकर	-10.7096
हिल	-10.7097
क्सी	-10.7098
▁असाधारण	-10.7098
ॉस	-10.7101
▁गुजरता	-10.7102
▁डेनिस	-10.7102
▁फैली	-10.7103
▁सच	-10.7106
▁विमानन	-10.7109
▁निकट	-10.7114
▁रोगी	-10.7118
▁हॉलीवुड	-10.7119
▁मास	-10.712
▁चाचा	-10.7122
▁चीज़	-10.7129
गै	-10.7131
▁सार	-10.7132
▁प्यूर्टो	-10.7134
हालांकि	-10.7137
▁देखरेख	-10.7138
उल	-10.7141
ज़ि	-10.7151
▁नस्ल	-10.7152
कुछ	-10.7154
पेल	-10.7158
▁भागने	-10.7164
▁पेंटिंग	-10.7164
▁ईंट	-10.7166
▁घंटों	-10.7167
▁स्वाद	-10.7172
▁मुद्रा	-10.7172
▁रेत	-10.7175
▁जोहान	-10.7175
▁देखता	-10.7177
▁दर्द	-10.7179
▁चीजों	-10.718
▁दार्शनिक	-10.7181
▁व्यवसायों	-10.7185
▁याचिका	-10.7187
▁मुस्लिम	-10.7188
▁जानवर	-10.7189
▁परत	-10.7193
▁बारिश	-10.7201
▁मिशेल	-10.7205
▁निकटतम	-10.7207
▁लैस	-10.7208
▁इवान	-10.7211
▁ऑस्ट्रियाई	-10.7212
क्शन	-10.7222
▁विश्वविद्यालयों	-10.7225
▁गिनी	-10.7225
▁रंगों	-10.7227
मिर	-10.7228
▁प्रभुत्व	-10.7232
▁श्वेत	-10.7238
क्रे	-10.7242
डाउन	-10.7248
▁नदियों	-10.7256
▁एथ	-10.7257
▁सीटों	-10.7265
▁शिक्षकों	-10.727
▁कटौती	-10.7272
▁ट्रॉ	-10.7272
▁स्की	-10.7277
▁कवरेज	-10.7279
▁सुविधाएं	-10.7285
▁लास	-10.7287
▁पारगमन	-10.7301
▁अपहरण	-10.7303
मित	-10.7305
▁सोशल	-10.7305
क्वा	-10.7314
▁चर्चों	-10.7317
▁पहने	-10.7318
▁राजकुमारी	-10.7321
मास्टर	-10.7324
▁दृढ़ता	-10.7325
▁महिलाएं	-10.7328
मक	-10.7332
ब्रिज	-10.7334
गुआ	-10.7335
▁बिस्तर	-10.7337
▁आवृत्ति	-10.7337
▁घातक	-10.7337
न्ड	-10.734
▁परीक्षणों	-10.7342
व्हील	-10.7345
▁गुना	-10.7345
▁अला	-10.7345
▁तलाक	-10.735
▁भित्ति	-10.7351
▁अहमद	-10.7351
▁टर्मिनल	-10.7355
▁मुखर	-10.7358
फ्ले	-10.7364
फेल्ड	-10.737
▁ट्यूब	-10.7372
▁इस्लाम	-10.7376
▁ट्राइ	-10.7383
▁संवाद	-10.7386
ैट	-10.7387
▁आहार	-10.7408
▁बंधन	-10.7409
▁रेव	-10.7411
▁स्टी	-10.7412
▁पुनर्जीवित	-10.7423
▁समीक्षाओं	-10.7425
▁हरा	-10.743
▁फुल	-10.743
▁एस्	-10.7432
खु	-10.7435
▁मैके	-10.7436
▁समकक्ष	-10.7437
▁विज्ञानी	-10.7439
▁रॉड	-10.7439
टिस	-10.7442
▁कॉमिक	-10.7451
▁मलेशिया	-10.7452
▁ऑफिस	-10.7457
सियो	-10.746
वरी	-10.7463
▁कोने	-10.7467
▁केंद्रों	-10.7468
▁डायोसिस	-10.7468
▁गाँवों	-10.747
ल्म	-10.747
▁नैतिक	-10.7472
मास	-10.7473
▁फ्रंट	-10.7474
▁कल्याण	-10.7481
▁विनाश	-10.7482
ोव्स्की	-10.7485
▁बार्न	-10.7487
▁वैध	-10.7488
▁दिग्गजों	-10.7493
▁डोनाल्ड	-10.7494
▁क्लीवलैंड	-10.7498
फोर	-10.7498
▁जाएंगे	-10.7501
▁ट्रिपल	-10.7506
▁चुके	-10.7507
▁इलेक्ट्रिक	-10.751
▁नीतियों	-10.7512
▁पाइप	-10.7513
▁सातवें	-10.7515
वाल	-10.7515
चेन	-10.7516
▁कमाई	-10.7516
▁चेन	-10.7518
▁कब्र	-10.7518
हरा	-10.7525
नीय	-10.7533
▁दूसरों	-10.7535
िज्म	-10.7535
कोट	-10.7536
▁कह	-10.7538
▁बच्चा	-10.7541
मौ	-10.7541
ड्रे	-10.7542
▁वाय	-10.7548
▁पीठ	-10.7552
▁लौ	-10.7554
स्पर	-10.7557
▁सापेक्ष	-10.7561
म्बो	-10.7563
घन	-10.7564
▁नतीजतन	-10.7565
िलो	-10.7568
▁यंग	-10.757
▁शाह	-10.7571
▁धुन	-10.7575
▁(<	-10.7577
▁मिसाइल	-10.7586
▁ऋतु	-10.759
िटो	-10.759
बर्ड	-10.7591
लिब	-10.7592
▁उपयोगकर्ताओं	-10.7592
▁गाइड	-10.7594
▁शरण	-10.7601
▁बल्लेबाजी	-10.7605
▁एंथनी	-10.7605
▁वियना	-10.7608
गोर	-10.7608
टॉप	-10.7612
ंजी	-10.7613
िमा	-10.7614
▁स्ट्रै	-10.7621
▁केबल	-10.7625
▁खतरनाक	-10.7627
▁पड़	-10.7629
▁लगाई	-10.7632
त्स	-10.7632
▁ऑस्टिन	-10.7634
▁मोन	-10.7636
▁शी	-10.764
▁उन्मूलन	-10.7642
▁एहसास	-10.7648
▁कार्टर	-10.765
▁हिंदू	-10.7651
▁यीशु	-10.7654
▁हजार	-10.7654
▁खुली	-10.7657
▁स्तरों	-10.7669
▁विल्	-10.767
▁पैकेज	-10.767
▁चिप	-10.767
▁व्यास	-10.767
निन	-10.7671
▁सेमी	-10.7676
▁विकलांग	-10.7676
स्टिंग	-10.7676
▁कैद	-10.768
▁प्रकाशनों	-10.7681
▁शव	-10.7682
▁सौंदर्य	-10.7682
▁मतदाताओं	-10.7685
▁प्लेटफॉर्म	-10.7686
▁गाया	-10.7687
▁प्रोडक्शन	-10.7688
▁प्रि	-10.7691
्रू	-10.7702
ैं	-10.7703
▁बहती	-10.7705
▁रसेल	-10.7708
▁हड्डी	-10.7708
▁विद्यालयों	-10.7712
▁हिरासत	-10.7713
▁जेट	-10.7718
▁कैम	-10.7722
ल्टन	-10.7729
▁स्वर्ग	-10.7731
▁क्रीक	-10.7731
▁जुड़वां	-10.7738
▁पूछ	-10.7742
सै	-10.7745
▁बेक	-10.7751
ाउ	-10.7751
चिन	-10.7752
▁परिस्थितियों	-10.7756
▁फिनलैंड	-10.7758
चार्ज	-10.7761
▁सौर	-10.7763
▁कनेक्टिकट	-10.7764
▁बचे	-10.7767
मेड	-10.7767
▁एकीकरण	-10.7774
हरी	-10.7777
▁स्थिरता	-10.7784
▁पहलुओं	-10.7785
▁स्वा	-10.7787
▁प्रबंध	-10.7791
▁स्थानिक	-10.7792
▁पारी	-10.7794
▁बिली	-10.7797
▁ज़ो	-10.7807
▁एंट	-10.7808
▁हैरी	-10.781
च्छ	-10.7815
स्टिक	-10.7816
िज़	-10.7816
▁आकृति	-10.7816
▁मैदानों	-10.7819
त्	-10.7821
क्षेत्र	-10.7823
▁विकेट	-10.7827
▁प्रगतिशील	-10.7828
▁अपवाद	-10.7829
▁विद	-10.7831
▁प्रथा	-10.7834
▁तरंग	-10.7835
▁संदिग्ध	-10.7842
▁वैले	-10.7844
▁बढ़कर	-10.7853
▁साइन	-10.7853
▁मिनेसोटा	-10.7864
▁कोयला	-10.7865
ियर्स	-10.7873
▁रॉय	-10.7873
कोन	-10.7874
बेट	-10.7878
▁प्रतियोगी	-10.7892
▁फ्रेड	-10.7892
▁कार्डिनल	-10.7899
▁मुक्ति	-10.79
▁मनाने	-10.7906
▁बढ़ी	-10.7909
फिल्म	-10.7912
मैक	-10.7914
▁बैले	-10.7914
श्व	-10.7918
न्ट	-10.792
▁बुला	-10.7921
▁दावे	-10.7928
▁भालू	-10.7928
▁मुहम्मद	-10.7929
िकल	-10.7932
पत्र	-10.7932
▁सदी	-10.7942
▁कोट	-10.7954
▁आयोवा	-10.7963
क्रि	-10.7963
▁एपि	-10.7968
▁अजीब	-10.797
▁लिवरपूल	-10.7971
लेखन	-10.7976
▁ड्यू	-10.798
▁आर्कबिशप	-10.7983
▁नोवा	-10.7983
▁वार्	-10.7984
ंडेल	-10.7984
▁उधार	-10.7987
▁इम	-10.7993
▁डबलिन	-10.7995
▁दंपति	-10.7998
▁बाज़	-10.7998
िओ	-10.8002
▁अवशेषों	-10.8003
▁वार	-10.8005
▁पत्ते	-10.8005
इंग	-10.801
ेटेड	-10.8012
▁अल्फ्रेड	-10.8017
▁पंद्रह	-10.8018
बोन	-10.8019
▁एक्शन	-10.8022
▁प्रावधान	-10.8023
▁जर्नल	-10.8023
बुल	-10.8023
्यूट	-10.8029
▁एर	-10.803
▁क्रिश्चियन	-10.8032
शिन	-10.8034
▁सला	-10.8036
लिट	-10.8036
▁मस्जिद	-10.8044
▁गणतंत्र	-10.8046
त्य	-10.8049
पत	-10.8051
▁वर्ल्ड	-10.8052
▁वेल्श	-10.8052
ग्स	-10.8053
सॉ	-10.8056
▁हस्तांतरण	-10.8056
▁हंट	-10.806
टिया	-10.8064
▁मित्र	-10.8064
▁हमारी	-10.8065
▁प्रश्न	-10.8069
▁आपदा	-10.8074
▁लॉज	-10.8077
▁ड्रैगन	-10.8078
लाल	-10.808
▁संभाली	-10.8083
▁धर्मशास्त्र	-10.8084
▁रैप	-10.8084
ोप	-10.8084
गिल	-10.8087
▁आंकड़ों	-10.8087
▁मॉल	-10.809
▁गुणों	-10.8093
▁रोमांटिक	-10.8095
▁रॉबिन	-10.8096
▁डीवीडी	-10.8097
रोस	-10.8097
▁टेन	-10.8102
न्या	-10.8103
वेस्ट	-10.8106
राष्ट्रीय	-10.8106
▁कार्यान्वयन	-10.8107
ज्ञ	-10.8115
मेर	-10.8115
ैश	-10.8116
▁कोलम्बिया	-10.8121
▁दस्तावेज़	-10.8123
्लो	-10.8124
रॉक	-10.8126
▁हितों	-10.8129
ियाना	-10.8134
यल	-10.8134
▁विकार	-10.8134
▁रॉकेट	-10.8135
विरोधी	-10.8136
▁गहन	-10.8138
▁उदाहरणों	-10.814
▁फर्श	-10.8145
▁किसानों	-10.815
्न	-10.8151
▁अनौपचारिक	-10.8152
▁छूट	-10.8152
▁गहरी	-10.8154
ड्रो	-10.8154
▁गुलाम	-10.8159
पिया	-10.816
▁दर्जा	-10.8161
▁रॉबिन्सन	-10.8165
▁पूर्णकालिक	-10.8166
▁चौक	-10.817
▁सेनाओं	-10.817
▁स्ट्र	-10.8173
▁कॉर्पोरेट	-10.8174
▁रोशनी	-10.8174
बोरो	-10.8175
वु	-10.818
▁विजेताओं	-10.8183
▁लड़	-10.8186
▁पहाड़ियों	-10.8193
्नी	-10.8193
▁किम	-10.8195
▁आपके	-10.8197
▁सैकड़ों	-10.8199
रै	-10.8204
ब्बा	-10.8206
▁चुन	-10.8212
▁मेडिकल	-10.8214
▁भेड़	-10.8216
▁कर्तव्यों	-10.822
▁दूतावास	-10.8221
ानी	-10.8223
▁अक्ष	-10.8224
▁आंकड़े	-10.8226
▁इतनी	-10.8226
सबसे	-10.8231
निर्मित	-10.8234
▁आराम	-10.8237
घा	-10.8241
ज़ार	-10.8242
▁मौलिक	-10.8244
▁सितारे	-10.8244
▁रॉब	-10.8246
▁सेटिंग	-10.8248
▁चढ़ाई	-10.8251
चेस्टर	-10.8254
▁श्रमिक	-10.8255
▁न्यूज	-10.8256
▁निबंध	-10.8258
▁मनोवैज्ञानिक	-10.8259
▁चट्टानों	-10.8262
मॉ	-10.8267
वायर	-10.8269
▁मसौदा	-10.827
▁डाकघर	-10.827
फाइट	-10.8273
▁बैठे	-10.8274
्ली	-10.8275
▁स्क्वायर	-10.8276
ट्रैक	-10.828
▁इरादे	-10.8282
▁स्प्रिंग	-10.8283
▁पेंट	-10.8285
्वि	-10.8285
निर्देश	-10.8287
़	-10.8287
स्ट्रे	-10.8287
▁कर्मियों	-10.829
▁बर्नार्ड	-10.8292
कट	-10.8296
▁समझाया	-10.8298
▁भविष्यवाणी	-10.8301
▁आयन	-10.8302
▁संलग्न	-10.8307
▁लेती	-10.831
ेश	-10.8317
▁बहाली	-10.8319
बैंड	-10.8321
▁फिलिस्तीन	-10.8323
▁वॉ	-10.8323
▁हॉप	-10.8323
थि	-10.8324
▁संबंधी	-10.8325
मध्य	-10.8329
▁नमक	-10.8331
▁वन्यजीव	-10.8333
▁मूल्यों	-10.8338
▁एस्प	-10.834
ौन	-10.8341
▁पुरातात्विक	-10.8342
▁टु	-10.8343
▁बैठ	-10.8344
▁वाइल्ड	-10.8346
▁आयाम	-10.8352
▁मैग्	-10.8352
उत्तर	-10.8355
नम	-10.836
▁गवाही	-10.836
▁क्वि	-10.8361
▁अनुभवी	-10.8363
▁बेल्ट	-10.8365
▁दिलचस्प	-10.8366
▁गिरा	-10.8369
▁पूंछ	-10.8378
▁ईस्वी	-10.8379
शियन	-10.838
फाइ	-10.8386
▁क्वीन	-10.8388
▁ग्राउंड	-10.8388
▁कर्तव्य	-10.8392
▁प्रतिमा	-10.8393
िय	-10.8394
▁मसीह	-10.84
गेम	-10.8401
बॉक्स	-10.8404
▁ब्रूस	-10.8406
▁पक्षों	-10.8408
▁कागज	-10.8412
▁फसल	-10.8412
▁प्रा	-10.8415
▁कोष	-10.8418
▁इन्हें	-10.8419
ोवा	-10.8421
▁आश्रय	-10.8435
वेज	-10.8443
चित्र	-10.8446
▁पैसा	-10.8449
▁लुइसियाना	-10.8452
▁मौका	-10.8455
▁पॉइंट	-10.8457
▁फिल्मांकन	-10.8462
मीटर	-10.8463
यांग	-10.8466
▁समारोहों	-10.8467
▁चुका	-10.8471
▁प्रथाओं	-10.8474
वियन	-10.8479
▁पुत्र	-10.848
जिक	-10.8484
ाला	-10.8495
िए	-10.85
(	-10.8504
▁रस	-10.8508
▁रिज	-10.8511
▁भिन्नता	-10.8512
पूर्वी	-10.8515
ेशियन	-10.8516
िच	-10.8524
▁थॉम्पसन	-10.8528
▁पार्श्व	-10.8531
▁देवता	-10.8531
▁पोशाक	-10.8533
▁फ़ाइल	-10.8533
▁जितना	-10.8534
▁उपाय	-10.8536
▁श्रृंखलाओं	-10.8538
▁जेफ	-10.8538
▁महाद्वीपीय	-10.8542
▁क्वीन्सलैंड	-10.855
▁रॉ	-10.8562
▁बुल	-10.8563
राह	-10.8565
▁शल्य	-10.8568
▁तीव्र	-10.8571
ेरे	-10.8572
▁कैल	-10.8575
▁कैरोल	-10.8576
सिड	-10.8581
्रेस	-10.8582
▁मोटे	-10.8582
ड्यू	-10.8585
▁वायरस	-10.8592
▁ग्राफ	-10.8592
▁हफ्तों	-10.8592
▁ल्यूक	-10.8599
ेली	-10.8602
▁मेरी	-10.8602
हार्ट	-10.8606
▁लैंडिंग	-10.8606
▁लक्ष्यों	-10.8609
▁खाता	-10.861
▁उपनगर	-10.8613
▁वाल्	-10.8616
▁सिन	-10.8622
▁निर्दिष्ट	-10.8628
▁अंतर्निहित	-10.863
▁निहित	-10.863
▁सेंट्रल	-10.8633
▁अनुकरण	-10.8634
▁फेस्टिवल	-10.8635
▁इंस्टीट्यूट	-10.864
▁मताधिकार	-10.864
▁किनारों	-10.864
▁वही	-10.864
▁पनडुब्बी	-10.8648
▁क्रूज	-10.865
▁बॉल	-10.8652
▁एले	-10.8658
▁पुनर्गठन	-10.8658
▁रेगिस्तान	-10.8661
ेम	-10.8662
▁लूट	-10.8664
ज़िया	-10.8671
नौ	-10.8674
▁मुर्रे	-10.8675
माउथ	-10.8676
▁अभिजात	-10.8676
सुर	-10.8682
थ्रो	-10.8686
बंध	-10.8686
▁मुद्रित	-10.8687
▁निकासी	-10.8688
▁रूपों	-10.869
▁एडमिरल	-10.8691
ौर	-10.8693
▁प्रान्त	-10.8695
▁व्यंजन	-10.8699
▁सिविल	-10.8701
▁फोटोग्राफी	-10.8703
ाटा	-10.8708
स्कु	-10.8709
▁जनमत	-10.871
अन	-10.8715
▁प्रेमी	-10.8719
▁पार्ट	-10.8719
▁मौखिक	-10.872
▁प्रोग्राम	-10.8725
▁विध्वंसक	-10.8733
▁क्रिस्टोफर	-10.8738
▁ट्रेल	-10.8739
▁क्षमताओं	-10.874
्जे	-10.8742
▁दाहिने	-10.8743
▁मोंट	-10.8745
ंटी	-10.8746
ूट	-10.8747
मुख	-10.8748
▁बें	-10.8751
जिसमें	-10.8754
▁मुकाबला	-10.8756
ेस्ट	-10.876
▁आत्महत्या	-10.8763
▁श्रीमती	-10.8771
▁प्रकोप	-10.8773
▁गार	-10.8781
्ना	-10.8784
▁संपादन	-10.8784
▁शर्तों	-10.8786
▁मॉन्ट	-10.8788
▁शेल	-10.8789
▁वाक्य	-10.8791
▁शोर	-10.8793
▁उपविजेता	-10.8795
फ्ल	-10.8796
▁ज़ु	-10.88
▁गार्डन	-10.8801
बैंक	-10.8802
▁संतुलन	-10.8803
मूल	-10.8803
▁मोरिस	-10.8805
▁दस्ते	-10.8808
▁कॉक	-10.8808
▁जला	-10.8809
ायक	-10.881
▁पलट	-10.8811
र्च	-10.8814
▁भ्रम	-10.8815
▁आस	-10.8815
जिस	-10.8817
▁ग्र	-10.8819
▁बुरी	-10.8821
▁डॉक	-10.8822
▁ऐ	-10.8825
▁गिरोह	-10.8827
▁अनुकूलन	-10.8828
▁वर्दी	-10.8832
▁संघों	-10.8834
▁संग्रहीत	-10.8836
थी	-10.8837
▁शिल्प	-10.8837
▁मोहम्मद	-10.8841
▁श्रीलंका	-10.8842
▁प्रस्थान	-10.8852
▁गैरी	-10.8853
▁व्यस्त	-10.8854
▁पीड़ितों	-10.8854
▁रोजर	-10.8854
▁शरद	-10.8855
▁अधिकृत	-10.8856
▁अवरुद्ध	-10.8857
▁फीफा	-10.886
▁कहने	-10.8867
▁समीकरण	-10.8869
िंगर	-10.8872
राइड	-10.888
▁कुत्ते	-10.888
▁सिंहासन	-10.8881
▁खबर	-10.8886
▁लूप	-10.8887
वत	-10.8888
▁कैफे	-10.8889
▁मॉर	-10.8891
रियस	-10.8893
▁कैथ	-10.8895
▁चार्ली	-10.8897
▁जोड़	-10.8906
खी	-10.8906
▁प्रकरण	-10.8908
▁संकेतों	-10.8912
▁c	-10.8915
▁स्टेन	-10.8916
▁गिरफ्तारी	-10.8917
फिश	-10.8918
▁रैली	-10.8919
▁अरबी	-10.8923
▁चाहती	-10.8923
▁सका	-10.8927
▁एली	-10.8927
▁ताइवान	-10.8931
▁स्को	-10.8934
▁बराबरी	-10.8937
▁प्रक्षेपण	-10.8941
ज़ेन	-10.8941
▁पेरू	-10.8947
▁मेस	-10.8955
अल्	-10.8958
▁भेदभाव	-10.896
▁ब्रुकलिन	-10.8962
▁सूचकांक	-10.8963
डेड	-10.8963
क्षा	-10.8964
▁खनिज	-10.8968
▁इन्	-10.8968
▁खोलने	-10.8971
▁चावल	-10.8971
▁क्लि	-10.8975
ैक्ट	-10.8977
▁माइ	-10.898
▁मैक्सिको	-10.898
ैक्स	-10.8981
▁फ्रेंचाइजी	-10.8983
▁चाहे	-10.8986
▁लड़ा	-10.899
▁स्पि	-10.8996
क्वे	-10.8999
ाज़	-10.9001
▁ईगल	-10.9006
▁उठाने	-10.901
▁पोषण	-10.9012
ेव	-10.9014
▁दु	-10.9014
▁किंग्स	-10.9021
▁डेनिश	-10.9022
▁कहानियाँ	-10.9029
▁उपभोक्ता	-10.9031
▁ऑरलियन्स	-10.9032
▁जय	-10.9034
▁अल्पकालिक	-10.9038
डेट	-10.904
▁वैली	-10.9041
राज्य	-10.9043
▁विशेषताएँ	-10.9047
▁बौ	-10.9049
रसन	-10.9049
▁बगीचे	-10.9049
▁कार्यालयों	-10.905
▁उत्पीड़न	-10.9054
ग्न	-10.9055
▁लिंड	-10.9059
मत	-10.9061
▁सिम्फनी	-10.9063
खे	-10.9064
▁कन	-10.9065
▁अपराधों	-10.9066
▁तेरह	-10.9066
▁संपत्तियों	-10.9069
▁शिक्षित	-10.9072
कमांड	-10.9075
▁विधवा	-10.9082
▁उतार	-10.9082
लेकिन	-10.9085
देव	-10.9088
रोड	-10.9091
व्ह	-10.9094
▁ब्रॉडवे	-10.9096
▁न्यायिक	-10.9098
▁प्रयोगात्मक	-10.9102
▁हैम्पशायर	-10.9102
उनके	-10.9103
जियो	-10.9103
▁इको	-10.9103
▁पॉलिश	-10.9108
हॉ	-10.9109
▁म्यूजिक	-10.9109
▁लेबर	-10.911
▁दिखाने	-10.9111
जनरल	-10.9118
▁ऊर्ध्वाधर	-10.9123
▁पाप	-10.9124
▁सिख	-10.9131
▁प्रभारी	-10.9137
▁रुख	-10.915
▁युद्धों	-10.915
▁मिचेल	-10.9151
▁स्विच	-10.9153
▁दूत	-10.9154
ेरियन	-10.9159
▁व्याकरण	-10.9162
▁अद	-10.9164
▁बेली	-10.9168
▁फांसी	-10.9173
▁छवियों	-10.9178
▁प्रस्तुति	-10.9181
डियन	-10.9183
▁सेवाएँ	-10.9187
कॉन	-10.9187
▁जियो	-10.919
▁अग्रभाग	-10.9192
▁कैरी	-10.9195
तम	-10.9198
▁नवाचार	-10.9198
▁विक्टोरियन	-10.92
▁गतिविधियाँ	-10.9207
▁त्वरित	-10.9212
▁लेबनान	-10.9212
▁दोहराया	-10.9213
▁सुल्तान	-10.9214
▁जलाशय	-10.9216
▁प्रासंगिक	-10.9221
▁सोलह	-10.9222
▁कार्टून	-10.9223
▁हिस्सेदारी	-10.9226
▁यूट्यूब	-10.9228
▁शासक	-10.923
▁अल्फा	-10.9231
ज़ेल	-10.9233
▁सूट	-10.9237
▁मेरा	-10.9242
▁खोली	-10.9248
▁सराहना	-10.925
▁बैरी	-10.925
▁करनी	-10.9256
सार	-10.9258
▁देव	-10.9261
▁मूल्यवान	-10.9261
टेक्स	-10.9264
▁गाड़ी	-10.9268
लॉन	-10.9277
▁केविन	-10.9285
चाइ	-10.9285
ंडन	-10.9286
▁उदय	-10.9291
▁बाउ	-10.9294
आम	-10.9295
▁गुंबद	-10.9297
▁टूटने	-10.9297
▁जन्मदिन	-10.9298
ोलो	-10.9299
गुइ	-10.9299
▁आंख	-10.9301
▁हिप	-10.9302
▁छद्म	-10.9303
▁बाजारों	-10.9304
▁बेहद	-10.9306
▁कन्	-10.9307
पुरा	-10.9309
▁दीर्घकालिक	-10.9315
▁भावनात्मक	-10.9315
▁अस्थिर	-10.9317
▁भैंस	-10.9318
▁गहरा	-10.9319
▁लॉग	-10.9323
▁हराने	-10.9325
▁बंदूकों	-10.9328
▁वॉल्ट	-10.9329
▁हिंसक	-10.9329
▁केनेडी	-10.9329
बाजी	-10.933
▁इब्न	-10.9331
▁सिल्वर	-10.9331
▁पूछताछ	-10.9334
▁नॉर्मन	-10.9341
▁नौकाओं	-10.9342
▁दोस्ती	-10.9345
▁ब्यू	-10.9352
▁मूर्तिकला	-10.9354
▁वेनिस	-10.9356
▁खिड़की	-10.9357
ियट	-10.9358
▁त्रुटि	-10.9368
▁जॉनी	-10.9369
▁बेंजामिन	-10.9371
▁वाइन	-10.9373
▁","	-10.9374
्रिया	-10.9375
▁एश	-10.9377
▁पौराणिक	-10.9381
डम	-10.9382
▁वर्गों	-10.9382
▁फ्रैंकलिन	-10.9382
्टि	-10.9384
▁यादृच्छिक	-10.9387
▁ग्रेग	-10.9394
▁नमूना	-10.9395
▁पैट	-10.9401
ैप	-10.9402
▁कोण	-10.9402
▁महासंघ	-10.9403
▁शोधकर्ताओं	-10.9404
▁थाईलैंड	-10.9405
▁बिन	-10.9408
▁विधायी	-10.9411
▁रिवर	-10.9413
▁डर्बी	-10.9414
▁आग्रह	-10.9421
▁बिंदुओं	-10.9428
#	-10.9429
लगभग	-10.943
▁पोत	-10.9431
▁तस्वीरें	-10.9437
▁अनुपस्थिति	-10.9437
▁समझने	-10.9442
▁बंगाल	-10.9443
▁ओब्लास्ट	-10.9445
▁ग्लासगो	-10.9446
▁कृत्रिम	-10.9447
वर्त	-10.9449
▁अंश	-10.9459
▁भरे	-10.9459
थु	-10.9461
▁मेटा	-10.9463
▁लिखना	-10.9463
▁रिको	-10.947
▁टोपी	-10.9471
▁वाक्यांश	-10.9471
▁वृत्त	-10.9472
▁अलाबामा	-10.9473
▁चौ	-10.9474
▁दूध	-10.9478
▁दुकानों	-10.948
▁भेजे	-10.9482
लेम	-10.9487
▁शपथ	-10.9491
ियाई	-10.9498
ोइस	-10.9498
▁क्षेत्रफल	-10.9499
ऑक्स	-10.9502
▁नेपाल	-10.9503
हेल	-10.9504
▁अनिश्चित	-10.9504
▁गॉर्डन	-10.9509
▁ग्राम	-10.9513
फल	-10.9516
▁अकादमिक	-10.9518
जेस	-10.9521
▁प्रविष्टि	-10.9524
▁भेजने	-10.9526
▁मासिक	-10.9528
▁लिबरल	-10.953
▁पहलू	-10.9532
▁बर्खास्त	-10.9532
▁भावनाओं	-10.9538
▁तालाब	-10.9539
ढंग	-10.9541
लिम	-10.9541
लोंग	-10.9544
ट्ट	-10.9545
▁ग्लोब	-10.9549
▁घुटने	-10.955
▁सपाट	-10.955
▁विकिरण	-10.9555
▁क्वेबेक	-10.9559
िट्ज़	-10.956
▁मजाक	-10.9562
▁श्रेणियों	-10.9564
कार्य	-10.9566
▁स्लो	-10.9571
गोन	-10.9578
ग्ले	-10.958
ष्ठ	-10.958
▁रिचमंड	-10.9584
▁मोर्चे	-10.9586
कला	-10.9587
ग्ना	-10.9589
▁रहीं	-10.959
▁नाइजीरिया	-10.9594
▁वास्तविकता	-10.9596
▁ध्वज	-10.9598
▁समझा	-10.9601
आर्	-10.9601
▁शाखाओं	-10.9602
बहुत	-10.9605
▁कनेक्शन	-10.9605
▁समर्थकों	-10.9606
ैंक	-10.9608
▁डीजे	-10.961
▁आशा	-10.961
▁बेटों	-10.9611
लियर	-10.9615
▁अमा	-10.9624
▁पुर्तगाल	-10.9625
▁माफी	-10.9626
दाता	-10.9627
लीग	-10.9627
टै	-10.9628
स्टेल	-10.9635
ंश	-10.9642
▁टेबल	-10.9643
▁लायन	-10.9644
▁अर्कांसस	-10.9645
▁येल	-10.9647
▁वाल	-10.9648
▁चौदह	-10.9652
▁छाप	-10.9654
्ता	-10.9654
▁मनो	-10.9661
▁दिल्ली	-10.9664
शाफ्ट	-10.9664
▁परिपक्व	-10.9667
▁एंजाइम	-10.967
ैग	-10.9673
▁ग्राहम	-10.9674
▁नाक	-10.9674
प्रे	-10.9676
▁स्कि	-10.9677
▁गायिका	-10.9678
▁पूछा	-10.9678
▁आश्चर्यजनक	-10.9683
▁पोर्टलैंड	-10.9685
▁अनुमोदित	-10.969
▁पुनरुद्धार	-10.9692
▁धारक	-10.9692
▁एडम्स	-10.9693
क्सा	-10.9696
ड़ों	-10.9697
मोट	-10.9705
ारी	-10.9705
डॉ	-10.9705
▁अनुप्रयोगों	-10.9707
▁डोमेन	-10.9708
▁इतने	-10.9708
▁एनिमेटेड	-10.971
▁कारकों	-10.971
▁विक्रेता	-10.9716
ियास	-10.9718
▁निर्धारण	-10.9719
▁ब्रदर्स	-10.9719
वर्न	-10.972
कथा	-10.972
▁ढाल	-10.9721
ंज़	-10.9721
▁मैनहट्टन	-10.9723
▁सिवाय	-10.9723
▁लॉक	-10.9725
▁मिलते	-10.9727
▁माफ	-10.9733
▁हेलीकॉप्टर	-10.9739
▁कपड़ों	-10.9743
▁सुर	-10.9745
कोड	-10.9747
▁पेय	-10.9752
▁गले	-10.9755
▁बेबी	-10.9756
▁हल्की	-10.9756
▁टेलीफोन	-10.9758
▁जानबूझकर	-10.9759
▁उगा	-10.9762
▁किस	-10.9763
▁गोद	-10.9767
लेक	-10.977
िएट	-10.9771
▁ड्रमर	-10.9777
स्टि	-10.9777
▁दर्शक	-10.9777
ाधिकार	-10.9784
▁छिप	-10.9787
▁नकली	-10.9788
▁गार्	-10.979
▁धीमी	-10.9801
▁वहां	-10.9802
▁पेज	-10.9805
ंथ	-10.9808
▁अवकाश	-10.9814
▁आगंतुकों	-10.9818
▁दावों	-10.9818
▁घटकों	-10.982
▁कैम्प	-10.982
▁क्ली	-10.9827
▁लाइफ	-10.9828
▁विघटन	-10.9832
▁कैमरा	-10.9833
▁तिथि	-10.9837
▁निपटने	-10.9839
▁दस्तावेजों	-10.984
भूमि	-10.9841
▁अभिनेताओं	-10.9849
▁किंवदंती	-10.9849
समय	-10.9855
▁प्रोटेस्टेंट	-10.9858
▁मनोविज्ञान	-10.986
▁सीनियर	-10.986
कारों	-10.9865
इम	-10.9867
▁जैकब	-10.9869
▁पट्टे	-10.9869
▁अद्भुत	-10.987
टिल	-10.9871
▁हंगेरियन	-10.9877
▁खेलता	-10.9881
▁किल	-10.9882
▁लियो	-10.9882
▁अनुष्ठान	-10.9884
▁प्रतीक्षा	-10.9884
▁चढ़	-10.9885
प्त	-10.989
▁ऊतक	-10.989
▁विक्टर	-10.9892
▁सुसज्जित	-10.9893
▁उद्यानों	-10.9898
▁ऑर	-10.9898
▁प्लेस	-10.9898
▁गीतकार	-10.9901
▁प्राप्तकर्ता	-10.9902
▁विदेशों	-10.9906
राब	-10.9912
गिया	-10.9916
▁पर्यावरणीय	-10.9916
▁वित्तपोषण	-10.9917
▁नौकायन	-10.9918
▁चालू	-10.9923
▁वार्ता	-10.9926
▁प्यू	-10.9932
▁प्रसंस्करण	-10.9932
▁एडी	-10.9933
ंदा	-10.9939
▁स्नान	-10.9943
डिन	-10.9943
▁पूर्वज	-10.9943
▁सर्बिया	-10.9944
▁नरम	-10.9945
जर्मन	-10.9946
▁रैखिक	-10.9948
▁टिम	-10.9955
▁दृढ़	-10.996
▁बाईं	-10.996
▁राजाओं	-10.9966
▁भ्रष्टाचार	-10.9968
▁मंत्रिमंडल	-10.9968
डोन	-10.9968
▁निकालने	-10.9969
▁हटने	-10.9971
आइ	-10.9972
यर्स	-10.9973
▁खाई	-10.9976
▁सीमाएँ	-10.9979
▁सीधा	-10.9979
्नो	-10.998
स्टैड	-10.998
ालय	-10.9982
▁मैरि	-10.9985
▁स्टेनली	-10.9985
▁एरिजोना	-10.9986
▁झुक	-10.9988
▁यॉर्कशायर	-10.9989
▁कार्लोस	-10.9997
ल्ली	-10.9999
▁फंड	-11.0002
▁कराई	-11.0004
ैड	-11.0006
▁सेवन	-11.0008
िली	-11.0009
सिं	-11.001
ंगर	-11.0013
▁स्टो	-11.0013
▁शतरंज	-11.0014
गुए	-11.0015
▁अनाज	-11.0017
विद्	-11.0017
बढ़े	-11.0018
रोट	-11.0022
ंगु	-11.0022
▁विलुप्त	-11.0024
▁बलात्कार	-11.0026
ब्लो	-11.0026
मुरा	-11.0028
▁रहना	-11.0029
▁बीयर	-11.003
▁रिपोर्टर	-11.0032
क्वि	-11.0034
▁गियर	-11.0034
▁प्रतिबिंबित	-11.0035
▁अग्रदूत	-11.0037
फ़ा	-11.004
स्टाइल	-11.0041
▁ईरानी	-11.0042
हार्ड	-11.0042
येन	-11.0042
रॉय	-11.0047
▁ग्रीक	-11.0056
▁योग	-11.0062
▁बहा	-11.0069
▁रीमिक्स	-11.007
▁जश्न	-11.0071
▁चौड़े	-11.0071
छा	-11.0073
िरा	-11.0074
साइट	-11.0079
▁ट्यू	-11.0079
▁माइनर	-11.0082
जेड	-11.0084
डिक	-11.0085
▁इनडोर	-11.0086
▁विधान	-11.0087
निका	-11.009
▁प्रवर्तन	-11.0091
रेज़	-11.0093
▁प्रदेश	-11.0095
▁थोड़ी	-11.0103
▁गिरने	-11.0106
▁तलवार	-11.0106
▁ओस	-11.0109
▁बेचे	-11.0115
▁देवी	-11.0116
▁कूपर	-11.012
▁व्यापारिक	-11.012
▁प्रशासक	-11.0122
▁डालने	-11.0125
▁जीवों	-11.0126
बोर्ग	-11.0127
ॉफ	-11.0132
राइट	-11.0133
▁हिस्पैनिक	-11.0133
स्पे	-11.0136
▁अज़रबैजान	-11.0152
▁फॉर्मूला	-11.0156
फ्र	-11.0158
▁प्रतिबद्धता	-11.0159
▁पंजीकरण	-11.016
▁बार्ट	-11.0162
):	-11.0162
▁फिल्माया	-11.0163
▁विरोधियों	-11.0167
▁एफएम	-11.0174
▁बैपटिस्ट	-11.0175
ंजर	-11.0175
▁घंटी	-11.0175
▁दास	-11.0176
▁उत्साह	-11.0177
▁पत्रकारिता	-11.0179
▁डेट्रॉइट	-11.018
बर्	-11.0183
ंड्र	-11.0184
▁गतिशील	-11.0184
▁डार्	-11.0187
▁लिफ्ट	-11.0191
▁धकेल	-11.0194
▁एथलीट	-11.0196
▁सिं	-11.0196
▁ट्यून	-11.0198
▁संरचनात्मक	-11.0201
रक्षक	-11.0202
▁प्रांतों	-11.0203
▁सॉकर	-11.0207
ाड	-11.0211
▁यांत्रिक	-11.0212
▁उच्चारण	-11.0215
्द	-11.0219
▁जेसन	-11.0219
▁दंड	-11.0221
▁पांडुलिपि	-11.0222
▁असंभव	-11.0222
▁चंद्रमा	-11.0223
▁न्यायाधीशों	-11.0231
▁धनुष	-11.0234
▁पदनाम	-11.0234
▁गोला	-11.0237
▁ओटो	-11.0251
ोविक	-11.0252
▁मैड	-11.0253
▁मॉड्यूल	-11.0259
अमेरिकन	-11.0259
▁उपयोगी	-11.0263
▁डल्लास	-11.0264
र्प	-11.0264
▁संभाल	-11.0264
शक्ति	-11.0266
संगीत	-11.0267
▁निरंतरता	-11.0268
▁जुनून	-11.0269
▁लेंस	-11.0269
▁कोस्टा	-11.0274
▁निदान	-11.0274
शान	-11.0276
▁पिट्सबर्ग	-11.0277
धारण	-11.0278
र्टी	-11.0285
▁पतवार	-11.0286
▁तीस	-11.029
▁गुरु	-11.0293
गोस	-11.0298
▁रूम	-11.0305
्के	-11.0307
▁वक्र	-11.0308
▁बैठने	-11.0311
▁नकल	-11.0313
बान	-11.0316
▁पले	-11.0318
▁दर्शाती	-11.0318
▁चाय	-11.0321
क्ले	-11.0321
▁टुकड़ा	-11.0326
ार्ट	-11.0332
▁पुनर्निर्मित	-11.0333
▁लाए	-11.0336
▁ड्राइवर	-11.0338
केवल	-11.0339
▁पीएच	-11.034
▁एंड्रे	-11.0344
▁खेतों	-11.0346
▁सुनवाई	-11.0348
▁गतिशीलता	-11.035
▁नैतिकता	-11.0351
▁नारंगी	-11.0351
बियन	-11.0352
लोस	-11.0352
म्ब्र	-11.0357
▁शर्त	-11.0365
▁लेखों	-11.0365
Â	-11.0367
▁संपादित	-11.0371
▁कबीले	-11.0371
▁साथियों	-11.0371
गली	-11.0372
▁ब्रिस्टोल	-11.0377
▁प्रतियां	-11.0377
▁औ	-11.0381
▁आश्चर्य	-11.0384
▁चैंबर	-11.0385
निर्माण	-11.039
▁पोते	-11.0392
▁पार्कर	-11.0393
▁सांख्यिकीय	-11.0394
▁कैलेंडर	-11.0394
▁बहादुर	-11.0398
▁संहिता	-11.0402
▁संतान	-11.0403
▁अक्षर	-11.0403
▁लीगा	-11.041
▁तोड़ने	-11.0421
लमैन	-11.0422
स्ट्रि	-11.0423
कास्ट	-11.0423
▁जेरूसलम	-11.0425
▁कक्षाओं	-11.0426
▁रडार	-11.0427
संरेखण	-11.0429
▁अग्नि	-11.0439
क्लास	-11.044
▁मुसलमान	-11.0441
मीर	-11.0442
▁कुंजी	-11.0443
▁वंशज	-11.0444
▁उपयोगिता	-11.0444
वेयर	-11.0445
कार्	-11.0449
▁इंतजार	-11.0449
▁गुजरने	-11.0449
▁बचाया	-11.045
र्ण	-11.0452
▁ट्रेड	-11.0455
▁रिपोर्टों	-11.0457
्लि	-11.0458
कैंट	-11.0458
म्य	-11.0463
▁जॉय	-11.0464
▁भूमिकाएँ	-11.0467
रियम	-11.0469
▁नाटकों	-11.047
▁विद्रोहियों	-11.047
▁घोड़ों	-11.0476
▁एबी	-11.0477
▁अफगानिस्तान	-11.0478
शास्त्र	-11.0479
▁सख्त	-11.0479
▁मानवाधिकार	-11.0481
▁डेटाबेस	-11.0485
▁वरीयता	-11.0488
ल्डे	-11.0488
लस	-11.0492
न्य	-11.0494
कोस	-11.0495
योग	-11.0495
▁उद्धरण	-11.0498
ग्र	-11.0498
मोटो	-11.0504
▁रोबोट	-11.0507
▁नवीनतम	-11.0508
▁स्वयंसेवक	-11.0508
▁काटने	-11.0513
▁डेल्टा	-11.0513
माइन	-11.0515
वियर	-11.0517
▁भ्रमित	-11.0519
▁गेर	-11.0521
▁जाल	-11.0522
▁मनाया	-11.0522
िब	-11.0524
▁एजेंसियों	-11.0531
फ्री	-11.0533
▁संकलित	-11.0539
▁खुशी	-11.0544
▁क्लर्क	-11.0547
शैली	-11.0548
▁धोखाधड़ी	-11.0549
स्कोप	-11.055
▁कॉफी	-11.0551
▁आप्रवासन	-11.0553
▁विनियमन	-11.0553
▁फ़्रांसिस्को	-11.0555
▁नर	-11.0564
▁जेरी	-11.0565
▁xi	-11.057
यम	-11.0573
्मो	-11.0576
मिना	-11.0579
▁प्रतिभागियों	-11.0581
▁पागल	-11.0585
▁डाउनलोड	-11.0588
▁बचत	-11.0589
▁सुधारों	-11.059
▁विधायिका	-11.0592
▁परेड	-11.0595
भि	-11.0595
▁आगामी	-11.0596
▁मुकुट	-11.06
▁बाधाओं	-11.06
▁फाइल	-11.0616
▁बजा	-11.0616
▁बीजिंग	-11.0617
ग्ने	-11.0617
▁खजाने	-11.062
▁लॉयड	-11.062
ाब	-11.0621
▁खरीदी	-11.0622
▁बिट	-11.0622
एंड	-11.0624
तू	-11.0624
▁हान	-11.0625
▁बर्तन	-11.0626
▁विद्रोही	-11.0628
▁वक्ता	-11.0631
िगो	-11.0633
▁प्रोटोटाइप	-11.0634
▁मिनी	-11.0635
जॉन	-11.0639
▁उल्	-11.0639
▁टैकल	-11.0645
▁उत्सर्जन	-11.0646
▁क्लिंटन	-11.0649
▁हस्तियों	-11.065
बहन	-11.0651
▁कार्यशाला	-11.0651
▁उभर	-11.0658
▁चिंतित	-11.0658
▁पुनरुत्थान	-11.0658
▁अलास्का	-11.0661
▁इंडिया	-11.0661
▁एयरलाइन	-11.0662
▁सोनी	-11.0663
▁व्युत्पत्ति	-11.0682
निक्स	-11.0685
जियांग	-11.0686
▁मिलिशिया	-11.0694
▁कैरि	-11.0697
इरा	-11.07
ुम	-11.0703
शीर्षक	-11.0703
▁बल्लेबाज	-11.0704
नबर्ग	-11.0706
क्टो	-11.0707
फॉर्म	-11.0711
ॉप	-11.0713
खेल	-11.0719
बर्गर	-11.072
उत्	-11.0721
▁मुख्यधारा	-11.0722
ामा	-11.0723
नाथ	-11.0725
▁पोंट	-11.0726
रिड	-11.0727
▁जनजातियों	-11.0727
▁डिपो	-11.0728
रूम	-11.0728
बाह	-11.0728
वाटर	-11.0728
▁डाइगो	-11.0732
ुत	-11.0732
सोल	-11.0736
वर्ट	-11.0738
▁r	-11.0743
ियानो	-11.0743
▁लैं	-11.0745
ॉर्ड	-11.0745
▁नर्स	-11.0752
▁सारे	-11.0753
▁सूखे	-11.0755
▁सीरिया	-11.0755
नार	-11.0755
टॉन	-11.0755
▁हैरिसन	-11.0757
▁बालों	-11.0762
म्पटन	-11.0765
ल्डर	-11.0766
▁बर्मिंघम	-11.0773
▁खिड़कियों	-11.0775
पिक	-11.0776
▁प्रशिक्षु	-11.0777
<	-11.0778
▁फेर	-11.0778
▁बाइबल	-11.078
▁फॉर्म	-11.0781
▁गुजरती	-11.0782
▁ढलान	-11.0784
▁सर्व	-11.0788
्यून	-11.0789
▁अनुभवों	-11.0794
▁टकरा	-11.0795
▁संचरण	-11.0797
▁पीएचडी	-11.0799
▁यूएसए	-11.0807
ोटा	-11.081
▁अदालतों	-11.0811
▁उद्योगों	-11.0812
ार्थ	-11.0813
▁गर्भपात	-11.0813
वॉल	-11.0818
▁रिसॉर्ट	-11.0819
▁जॉ	-11.0819
किल	-11.082
▁स्तन	-11.0828
▁व्हेल	-11.0828
▁ब्रिसबेन	-11.0833
▁वर्तनी	-11.0834
▁सीरियाई	-11.0834
अंत	-11.0834
मोस	-11.084
▁टर्नर	-11.0841
▁किताबें	-11.0842
▁लिटिल	-11.0845
▁माई	-11.0845
केल	-11.085
▁परिकल्पना	-11.0854
जार	-11.0855
▁ऐप	-11.0859
▁तथाकथित	-11.0864
▁एंग	-11.0866
▁पकड़े	-11.087
▁सजावट	-11.0871
▁पतंग	-11.0876
िसा	-11.0877
आयामी	-11.0877
▁फोटोग्राफर	-11.0882
रिफ	-11.0883
▁हवेली	-11.0886
▁टाई	-11.0888
▁अनुचित	-11.0889
पॉप	-11.089
▁धन्यवाद	-11.089
▁उपस्थित	-11.0892
▁वाट	-11.0894
णा	-11.0896
▁लोगो	-11.0897
्रिक	-11.0897
ग्लि	-11.0898
▁सहानुभूति	-11.0903
▁मॉर्गन	-11.0903
▁[[	-11.0903
▁गर्दन	-11.0905
▁संतुष्ट	-11.0905
▁गश्ती	-11.0908
▁एडि	-11.0908
रोव	-11.091
ंदी	-11.091
▁व्युत्पन्न	-11.0911
ोविच	-11.0914
सिम	-11.0918
क्या	-11.092
ंकी	-11.092
गांव	-11.0921
लोव	-11.0921
▁दिमाग	-11.0921
ढ	-11.0923
▁चोटी	-11.0923
▁तारों	-11.0926
▁नज़र	-11.093
र्व	-11.0935
▁क्रेग	-11.0936
▁सरकारों	-11.0936
▁सौदा	-11.0939
▁वांग	-11.0939
ाज	-11.0941
▁जागीर	-11.0941
▁क्लॉ	-11.0943
▁फ़्रांस	-11.0946
ीं	-11.0947
":	-11.0947
नॉर्	-11.0947
पोलिस	-11.0951
बेस	-11.0951
▁वयस्कों	-11.0953
मंडल	-11.0953
▁चंद्र	-11.096
▁जासूस	-11.0963
शहर	-11.0964
▁अग्रिम	-11.0965
्ने	-11.0968
▁पिचर	-11.0969
▁एमएस	-11.097
▁एंग्लो	-11.0971
▁फ्लैट	-11.0977
▁जैकसन	-11.0977
▁अठारह	-11.0979
▁कम्प	-11.0981
▁उदारवादी	-11.0983
▁डकोटा	-11.0985
बॉय	-11.0987
▁खून	-11.0988
▁बोनस	-11.0989
थेन	-11.099
▁कठिनाई	-11.0993
▁मेमोरियल	-11.0993
▁स्वायत्त	-11.0994
▁वॉक	-11.0994
लॉक	-11.0995
▁गारंटी	-11.0996
▁रहित	-11.0999
▁बूट	-11.0999
राक	-11.0999
▁जोनाथन	-11.1
▁वैज्ञानिकों	-11.1001
मार्ट	-11.1004
तल	-11.1005
ेगा	-11.1005
▁जिम्मी	-11.1008
▁कैबिनेट	-11.101
ब्लि	-11.1011
▁बॉन्ड	-11.1012
▁वार्नर	-11.1017
▁चित्रकला	-11.1025
▁ऑक्सफ़ोर्ड	-11.1026
▁बजाया	-11.1029
▁वुल्फ	-11.103
▁लेखा	-11.1038
पार्ट	-11.104
म्बल	-11.1041
▁पैरों	-11.1042
▁तैराकी	-11.1042
▁निर्णायक	-11.1043
अव	-11.1047
बिक	-11.1047
त्रा	-11.105
▁पेनल्टी	-11.1051
▁कट्टरपंथी	-11.1055
▁अगला	-11.1066
ग्रस्त	-11.1069
▁स्टाफ	-11.1072
▁यात्राओं	-11.1079
मानव	-11.108
डेंट	-11.1085
▁लार्वा	-11.1085
▁रोज़	-11.1087
▁बिकने	-11.1089
ठा	-11.109
▁किर्क	-11.1093
▁ऑपरेटर	-11.1095
मिड	-11.1097
भाषी	-11.1097
▁फॉरवर्ड	-11.1098
ेबल	-11.1099
▁बेयर	-11.11
▁गंतव्य	-11.1103
▁पंच	-11.1103
ऑर्	-11.1104
बाय	-11.1105
▁मह	-11.1108
▁सहकारी	-11.1109
तरफा	-11.1111
स्ली	-11.1112
मृत्यु	-11.1113
▁दबा	-11.1116
म्बे	-11.1117
▁पट	-11.1119
▁राक्षस	-11.112
▁मार्को	-11.112
▁रोका	-11.1121
▁संकल्प	-11.1126
▁उतना	-11.1127
▁इलाका	-11.1128
फु	-11.1131
▁गुलाबी	-11.1132
▁जमीनी	-11.1134
िंक	-11.1138
▁भागीदारों	-11.1147
▁देखना	-11.1153
▁रोस्टर	-11.1154
रंग	-11.1158
िटा	-11.1159
निको	-11.1163
▁एलि	-11.1167
▁पथ	-11.1169
फेस	-11.117
्डेन	-11.1172
▁लिखाः	-11.1174
▁अभिलेखागार	-11.1177
▁प्लास्टिक	-11.1177
र्ना	-11.1178
▁सुनने	-11.1179
▁अनुच्छेद	-11.1181
▁पहनने	-11.1183
▁व्यापारियों	-11.1185
▁कीबोर्ड	-11.1186
▁स्नो	-11.119
▁रचित	-11.119
▁मण्डली	-11.1191
▁चौड़ा	-11.1192
सीजन	-11.1198
▁रश	-11.1201
र्स्ट	-11.1201
▁मोती	-11.1209
चेल	-11.1209
आज	-11.1212
गेल	-11.1212
▁ललित	-11.1213
▁कर्मी	-11.1213
स्कू	-11.1215
गर्ल	-11.1217
▁घाव	-11.1217
डाय	-11.1219
मंत्र	-11.1219
▁पियरे	-11.1219
शेल	-11.1225
▁लियोनार्ड	-11.1227
▁"[	-11.1229
लेक्स	-11.123
▁शॉर्ट	-11.1235
उच्च	-11.1238
▁वायलिन	-11.124
▁सऊदी	-11.1242
▁थियो	-11.1243
▁इलाके	-11.1244
▁प्रोटोकॉल	-11.1244
▁कैम्पबेल	-11.1245
▁पंजाब	-11.1249
▁एंड्रू	-11.1252
▁चाकू	-11.1252
▁पेरी	-11.1256
▁नियो	-11.1256
▁परंपराओं	-11.1257
▁मुद्दा	-11.1259
▁ब्रॉड	-11.1259
▁मैड्रिड	-11.1259
▁मानता	-11.126
▁रोसा	-11.1261
▁अटलांटा	-11.1261
▁लीड्स	-11.1264
थिया	-11.1265
▁चैलेंज	-11.1265
▁चिंताओं	-11.1266
सीज़न	-11.1272
पित	-11.1274
▁रिले	-11.1274
सिओ	-11.1275
▁एज	-11.1276
न्यूयॉर्क	-11.1278
▁पहुंची	-11.1279
▁ट्रेनें	-11.128
▁विश्वसनीय	-11.1282
▁केन्या	-11.1284
फ़ो	-11.129
किन्स	-11.1303
▁यि	-11.1305
▁आपत्ति	-11.1306
▁अम्	-11.1307
▁कब	-11.1308
▁मोटा	-11.1311
▁विनाशकारी	-11.1313
मिश	-11.1313
बारूद	-11.1314
▁कंक्रीट	-11.1323
▁मनोरंजक	-11.1327
▁बिक	-11.1327
युद्ध	-11.1334
▁निकास	-11.1335
▁कलाकृति	-11.1339
▁कैड	-11.1341
▁सालाना	-11.1342
▁इंटरफेस	-11.1342
▁ट्रा	-11.1346
▁राष्ट्रवादी	-11.1351
▁तख्तापलट	-11.1353
▁इलेक्ट्रो	-11.1355
▁फिलिप्स	-11.136
▁सड़कें	-11.1361
▁कहाँ	-11.1363
▁नेल्सन	-11.1363
▁डेली	-11.1363
]]	-11.1366
▁टेड	-11.1366
▁विषम	-11.1366
▁क्लाउड	-11.137
पीएस	-11.138
▁बनता	-11.138
▁पटरियों	-11.1393
▁टेरी	-11.1397
▁दफन	-11.1398
▁नोट्स	-11.1398
ांक	-11.1401
▁स्का	-11.1402
सोन	-11.1404
▁बिल्ली	-11.1404
लिना	-11.1405
ाते	-11.1406
▁नमूनों	-11.1411
जेंट	-11.1415
▁टिप्पणियों	-11.1417
▁प्रस्तुतियों	-11.142
विदों	-11.1421
▁कार्यरत	-11.1422
▁होनी	-11.1424
▁प्रवासियों	-11.1426
होल	-11.1426
▁गॉड	-11.1427
▁निभाने	-11.1428
▁अभयारण्य	-11.1428
▁चौड़ी	-11.1429
▁गोताखोर	-11.1434
ाउड	-11.1436
▁कारावास	-11.1437
ेटिक	-11.1438
▁मैट्रिक्स	-11.1441
जिल	-11.1442
▁पंप	-11.1443
▁बमवर्षक	-11.1443
▁मेहराब	-11.1443
वानी	-11.1443
िडा	-11.1444
▁रियल	-11.1447
ाउट	-11.1447
▁निपटान	-11.1453
क्रेट	-11.1454
स्कर	-11.1456
स्थान	-11.1456
ल्व	-11.1458
▁आधी	-11.1458
▁हालिया	-11.1459
्ति	-11.146
ोज	-11.1464
▁सोना	-11.1465
▁फार	-11.1465
▁उत्कृष्टता	-11.1469
▁बुद्ध	-11.1471
ंको	-11.1477
घु	-11.148
▁जुटाने	-11.148
जान	-11.1481
कुर	-11.1482
▁सांप	-11.1484
▁सुसान	-11.1484
▁मादा	-11.1485
▁गृहस्थ	-11.1485
▁बेंच	-11.1486
▁कॉलम	-11.1489
जनक	-11.1489
▁गाय	-11.149
तुल	-11.1493
▁बर्बाद	-11.1495
उन्मुख	-11.1504
वारा	-11.1505
▁म्यूनिच	-11.1508
टीम	-11.1511
▁संपादकीय	-11.1514
▁पंक	-11.1517
▁बख्तरबंद	-11.1517
▁समस्याएं	-11.1517
▁उपदेश	-11.1518
िकी	-11.152
▁इंड	-11.1522
ऐ	-11.1523
त्ता	-11.1524
▁बोस्निया	-11.1525
▁तमिल	-11.1525
▁बौद्धिक	-11.1527
्सा	-11.1527
्सेल	-11.1529
▁सिल्	-11.153
▁जागरूकता	-11.1539
▁ऑक्सीजन	-11.1539
▁कैसल	-11.154
▁बिजनेस	-11.1541
क्षण	-11.1541
▁तोप	-11.1542
विं	-11.1549
▁अज	-11.1551
▁शुष्क	-11.1561
▁आश्वस्त	-11.1567
▁सिग्नल	-11.1567
लुक	-11.1571
▁क्ला	-11.1581
बारी	-11.1582
▁ओवेन	-11.1584
▁विनिमय	-11.1584
▁इंजीनियरों	-11.1585
▁वॉलीबॉल	-11.1587
▁दरार	-11.1587
कैट	-11.1593
▁अफवाह	-11.1593
वोन	-11.1595
▁बागान	-11.1596
ब्ले	-11.1596
प्टो	-11.16
▁कवच	-11.1602
▁पैड	-11.1609
हॉल	-11.1609
▁सराय	-11.1611
स्तान	-11.1612
▁गर्व	-11.1613
▁लक्षण	-11.1613
▁मल्टी	-11.1613
▁अवशोषित	-11.1615
▁आघात	-11.1615
▁शुक्रवार	-11.1615
▁काउंट	-11.1616
▁कथाओं	-11.1616
ट्रिक	-11.1619
▁गूगल	-11.1622
बरा	-11.1622
▁ताई	-11.1624
ेट्स	-11.1625
वाक	-11.1627
▁दोहरी	-11.1629
मुक्त	-11.1633
ाता	-11.1635
▁जरूरतों	-11.1635
▁चुकी	-11.1635
▁वाद्ययंत्र	-11.1641
▁सांसद	-11.1643
▁सेवक	-11.1643
वास्तविक	-11.1643
▁उपरोक्त	-11.1644
▁आणविक	-11.1648
▁एसी	-11.1648
▁तस्करी	-11.165
▁कैदी	-11.1651
▁बरामद	-11.1651
▁कार्यकर्ताओं	-11.1652
ाबाद	-11.1656
▁आवंटित	-11.1659
▁प्रतिरक्षा	-11.1659
▁सैद्धांतिक	-11.1664
योंग	-11.1665
▁बेनेट	-11.1667
▁प्रिय	-11.1671
रात	-11.1671
▁बोल्ट	-11.1672
▁समितियों	-11.1678
▁टर्	-11.1681
मिनो	-11.1684
▁कार्यात्मक	-11.1687
गुर	-11.1687
▁ऑप	-11.1689
▁स्ट्रिंग	-11.1689
▁स्वयंसेवकों	-11.1694
I	-11.1694
किया	-11.1695
▁क्वार्टरबैक	-11.1699
बिस	-11.1701
▁संश्लेषण	-11.1701
▁छिपा	-11.1706
नोस	-11.1707
थन	-11.1707
भू	-11.1713
st	-11.1713
▁मध्यवर्ती	-11.1714
▁दुर्	-11.1718
▁बुजुर्ग	-11.1719
क्लो	-11.1722
▁बेटियाँ	-11.1722
▁ब्लेड	-11.1723
▁चक	-11.1723
फाई	-11.1723
▁मंगा	-11.1724
▁सम्मेलनों	-11.1725
▁सर्वर	-11.173
▁आठवें	-11.1731
▁एडमंड	-11.1732
टीसी	-11.1732
▁वाद्य	-11.1733
▁संकर	-11.1733
संरेखित	-11.1735
▁बैरो	-11.1735
▁बिलियन	-11.1739
▁उलट	-11.174
▁स्मार्ट	-11.1742
▁हौ	-11.175
र्टा	-11.1753
▁बेट	-11.1756
▁शेरिफ	-11.1757
ोसिस	-11.1759
▁स्पेस	-11.176
▁डीजल	-11.1766
▁जेफरसन	-11.1766
▁बटलर	-11.1769
▁उपन्यासों	-11.177
देह	-11.1773
▁निकोला	-11.1783
बरो	-11.1788
▁थि	-11.1791
▁गणितीय	-11.1792
▁चीजें	-11.1792
▁यौगिक	-11.1792
▁मोल	-11.1794
▁बाल्टीमोर	-11.181
▁दिव्य	-11.1813
▁गोलाकार	-11.1814
▁टकराव	-11.1816
▁ग्वा	-11.1816
दृश्य	-11.1818
टाइप	-11.1819
सुल	-11.1823
▁लगाते	-11.1824
▁ग्रंथों	-11.1825
▁हाइड्रो	-11.1826
द्द	-11.1827
▁ग्रिड	-11.1829
डेस	-11.1831
टाइट	-11.1832
▁साइप्रस	-11.1833
▁कार्यवाहक	-11.1838
▁अह	-11.1839
▁चालकों	-11.1839
▁उतरने	-11.1841
▁बैठकों	-11.1845
▁स्थगित	-11.1846
▁साक्षरता	-11.1853
▁ब्ला	-11.1853
▁फेंकने	-11.1856
▁स्टि	-11.1857
▁आभासी	-11.1858
प्रकार	-11.1858
▁ओल्ड	-11.1862
▁शेयर	-11.1862
▁शर्म	-11.1865
▁दर्शात	-11.1869
▁कॉलिन्स	-11.1872
चीफ	-11.1875
क्लिफ	-11.1876
▁मिशनरी	-11.188
▁जंग	-11.1881
धि	-11.1882
▁त्याग	-11.1885
▁अपशिष्ट	-11.1889
▁बाइ	-11.189
▁नेपोलियन	-11.1891
▁थीः	-11.1893
▁योद्धा	-11.1899
▁शिव	-11.1899
सुपर	-11.1903
▁फैले	-11.1903
▁अप्रत्याशित	-11.1905
धी	-11.1905
वोल	-11.1906
▁तटस्थ	-11.1908
▁पवन	-11.1908
▁गेज	-11.191
डॉन	-11.1911
लेखक	-11.1911
िडो	-11.1917
▁विंडोज	-11.1917
▁ग्लास	-11.1919
▁नियामक	-11.1925
ओवर	-11.1926
बास	-11.1927
▁मिडफील्डर	-11.1928
▁वेगास	-11.1931
▁यातना	-11.1933
र्फ	-11.1935
▁टर्मिनस	-11.1939
▁अकेला	-11.194
▁क्राउन	-11.1949
क्रा	-11.195
लॉस	-11.1951
▁पीटर्सबर्ग	-11.1952
▁तटों	-11.1952
ंदर	-11.1954
▁मतपत्र	-11.1955
▁ढेर	-11.1957
▁नास	-11.1958
▁शस्त्रागार	-11.1959
▁सर्जरी	-11.1959
▁बोल्ड	-11.1962
▁बैंगनी	-11.1964
नै	-11.1964
▁अल्बर्टा	-11.1965
▁अमेज़	-11.1967
▁ब्लॉग	-11.1968
फोर्ट	-11.1972
्चर	-11.1972
▁बीबीसी	-11.1976
आधुनिक	-11.1976
▁स्वे	-11.1979
सबर्ग	-11.1986
▁फ्लोरेंस	-11.1988
▁पचास	-11.1991
ंता	-11.1995
▁लिली	-11.1999
्विन	-11.1999
▁एनीमे	-11.2008
▁चोटों	-11.2013
▁अक्षरों	-11.2015
कॉन्	-11.2019
ट्टे	-11.2019
▁फीनिक्स	-11.2022
मुख्य	-11.2023
▁चेर	-11.2023
▁लेआउट	-11.2025
हाइ	-11.2027
मिक्स	-11.2027
▁बाइक	-11.2027
▁कविताओं	-11.2029
▁रॉबर्ट्स	-11.2033
▁एलियट	-11.2033
▁कॉर्क	-11.2035
▁प्रबंधित	-11.2037
▁उपायों	-11.2037
स्टेट	-11.2039
कोई	-11.2041
▁विशेषज्ञों	-11.2043
▁घूर्णन	-11.2044
▁टाइप	-11.2046
व्यापी	-11.2047
▁बिल्कुल	-11.2049
पार	-11.205
▁प्रतिबंधों	-11.2053
▁कतर	-11.2053
एसआर	-11.2056
▁रोमांच	-11.2057
आन	-11.2059
▁बता	-11.206
▁कहती	-11.2063
▁सर्बियाई	-11.2063
▁जर्मनों	-11.2072
क़	-11.2078
िजा	-11.208
▁रेखाओं	-11.2081
▁किरण	-11.2084
कॉल	-11.2084
▁बर्कले	-11.2091
▁विपक्ष	-11.2092
बोल	-11.2096
▁मर्फी	-11.2099
▁तहखाने	-11.2099
प्रजाति	-11.2102
▁हर्बर्ट	-11.2103
▁बेले	-11.2105
ज़ान	-11.2105
▁इनपुट	-11.2106
▁अभिनीत	-11.2106
▁माइक्रोसॉफ्ट	-11.2106
▁हमने	-11.2113
▁मत	-11.2115
▁ग्रैमी	-11.2115
▁स्टॉप	-11.2116
हाई	-11.2116
पॉल	-11.2117
▁सार्जेंट	-11.2118
▁राफ़	-11.2118
▁इस्तेमाल	-11.212
दाद	-11.2121
स्ट्रॉ	-11.2124
रेंट	-11.2127
▁बोलते	-11.213
▁ऑस्कर	-11.2132
▁गोदाम	-11.2134
▁आईं	-11.2135
▁सीटल	-11.2136
▁फ्लेम	-11.2141
▁जीनोम	-11.2146
▁तस्वीरों	-11.2147
▁क्षति	-11.215
▁हडसन	-11.215
▁पब्लिक	-11.215
▁अंग्रेजों	-11.2151
▁सिनसिनाटी	-11.2152
ब्रांड	-11.2154
जीवन	-11.2155
▁कैरो	-11.2155
▁विकृत	-11.2157
▁संवेदनशील	-11.2158
▁जोड़ती	-11.216
▁विनिर्माण	-11.2162
ॉम	-11.2165
▁प्रतियोगियों	-11.2166
▁नेब्रास्का	-11.2166
▁बनीं	-11.2167
▁ब्री	-11.2167
फ्यू	-11.2168
▁मलय	-11.2169
▁शू	-11.2169
▁मांसपेशियों	-11.2171
▁इस्पात	-11.2173
क्राफ्ट	-11.2176
▁खींचा	-11.2178
▁मध्यस्थता	-11.218
▁गोलकीपर	-11.218
▁अबू	-11.2181
इसे	-11.2184
▁अमूर्त	-11.2187
ाइज	-11.2189
्ग	-11.2189
मेक	-11.219
▁पहलवान	-11.2198
▁एंडी	-11.22
▁अंतरराज्यीय	-11.2201
▁लेजर	-11.2202
▁विराम	-11.2202
▁स्पे	-11.2206
▁इज	-11.2214
वेंट	-11.2214
▁त्योहार	-11.2216
▁मैकडोनाल्ड	-11.222
▁शोधकर्ता	-11.222
▁खाना	-11.2221
गणित	-11.2226
▁राल्फ	-11.2229
दिन	-11.223
▁कैटा	-11.2232
▁बिगड़	-11.2233
▁तुर्क	-11.2236
मार्	-11.224
▁मसा	-11.224
रेक	-11.2241
लेव	-11.2242
▁संचालक	-11.2243
▁कोयले	-11.2247
विग	-11.2247
शॉ	-11.2254
▁इलेक्ट्रॉन	-11.2255
सेस	-11.2255
इं	-11.2267
▁व्याख्याता	-11.2271
ल्यू	-11.2272
▁ऊँचा	-11.2272
▁विली	-11.2272
कान	-11.2275
स्पीड	-11.2276
▁निष्पादन	-11.2276
▁प्रचुर	-11.2278
ग्रेन	-11.228
▁क्रोएशिया	-11.2284
कर्म	-11.2286
सेक	-11.2287
▁नीला	-11.2287
▁प्रतिबद्ध	-11.2288
▁गुलामी	-11.229
▁भजन	-11.2291
▁अनंत	-11.2295
▁जिनसे	-11.2295
तीन	-11.2297
▁लिप	-11.2297
्यान	-11.2299
▁दांत	-11.2301
ोवो	-11.2304
▁पेड्रो	-11.2305
चार्	-11.2306
▁शोषण	-11.2307
▁डांस	-11.231
▁मेज	-11.2312
▁रब्बी	-11.2314
म्यू	-11.2319
▁लिपि	-11.2323
▁बुद्धिमान	-11.233
▁मेटल	-11.2334
सेफ	-11.2339
▁नर्तक	-11.2341
▁रोसेन	-11.2349
▁खरीदे	-11.235
▁दाखिल	-11.2352
▁सिंड्रोम	-11.2354
स्कॉट	-11.2354
्टिन	-11.2359
▁हुड	-11.2361
▁पंथ	-11.2366
दीन	-11.2367
▁अधिग्रहित	-11.2368
▁जबरन	-11.2371
▁उठाए	-11.2371
▁लगाना	-11.2376
▁जाली	-11.2377
▁डं	-11.2377
ाइम	-11.2378
▁मास्क	-11.2378
पहले	-11.2386
▁मोटरसाइकिल	-11.2387
ेसी	-11.2388
▁जीनस	-11.2388
चिया	-11.2389
▁बेलारूस	-11.2392
▁आखिरकार	-11.2396
▁इंग	-11.2397
▁शोक	-11.24
▁वंचित	-11.2401
▁सोमवार	-11.2401
▁अपनाने	-11.2404
▁पेट्र	-11.2405
मॉर्	-11.2411
▁प्रमुखता	-11.2414
प्लो	-11.242
▁चैंपियंस	-11.242
▁अपर्याप्त	-11.2423
▁ग्रेस	-11.2424
▁बहनों	-11.2427
▁भूमध्यसागरीय	-11.2427
िगन	-11.243
▁प्राणी	-11.2432
▁नाग	-11.2435
▁सेल्टिक	-11.2436
हरे	-11.2437
▁वैल	-11.2437
ल्डा	-11.2437
ट्रू	-11.2443
हुआ	-11.2443
साउंड	-11.2447
संस्थापक	-11.2447
पूल	-11.2448
▁विन्यास	-11.2449
ेय	-11.245
सिनो	-11.2453
▁तीर	-11.2454
▁पीपुल्स	-11.2454
ुका	-11.2457
▁मसौदे	-11.2458
▁घुमावदार	-11.2461
▁एजेंटों	-11.2467
ज़िन	-11.2471
▁अयोग्य	-11.2473
ेटा	-11.2474
▁कैनन	-11.2477
▁संस्मरण	-11.2478
▁यांग	-11.2479
स्पी	-11.2479
▁आवासों	-11.2481
झोउ	-11.2492
▁ओलिवर	-11.2492
स्टिन	-11.2493
▁डार्क	-11.2496
▁जीवंत	-11.2496
▁हुक	-11.2498
▁प्रवासी	-11.2499
▁डर्	-11.25
▁विकल्पों	-11.2502
▁चेस्टर	-11.2509
चित	-11.2509
टोप	-11.2512
▁एंडो	-11.2513
स्तर	-11.2516
बोर	-11.2517
▁अटॉर्नी	-11.2518
▁ओम	-11.252
▁कटाई	-11.2522
▁स्प्रिंग्स	-11.2526
ब्लैक	-11.2529
▁लैटिनो	-11.253
एयर	-11.2532
▁ग्री	-11.2536
▁अनियमित	-11.2538
▁एनीमेशन	-11.2538
▁हॉर्स	-11.2539
संचालित	-11.2542
▁मुक्केबाजी	-11.2542
▁चक्रवात	-11.2543
कैप	-11.2554
▁सीढ़ी	-11.2555
ैम्प	-11.2555
▁दक्षता	-11.2557
प्पा	-11.2558
▁लोड	-11.2559
▁निचली	-11.2559
▁हेक्टेयर	-11.2562
▁सागर	-11.2562
▁ग्राफिक	-11.2562
नोट	-11.2563
▁काफिले	-11.2564
▁सुलभ	-11.2567
अंतिम	-11.2567
▁निष्पादित	-11.2569
▁घोंसले	-11.2571
शिमा	-11.2573
▁खंडहर	-11.2575
▁जानता	-11.2576
▁लोकोमोटिव	-11.2579
स्पैन	-11.2579
▁कॉमन्स	-11.2581
▁फाइबर	-11.2582
स्पेक्ट	-11.2583
▁मापा	-11.2589
रिज	-11.2592
▁साओ	-11.2592
▁दमन	-11.2595
▁दुष्ट	-11.2603
▁पाने	-11.2606
▁चुंबकीय	-11.2606
▁लगने	-11.2609
▁क्विन	-11.261
यंत्र	-11.261
▁व्यंग्य	-11.261
▁दुर्व्यवहार	-11.2613
▁लापता	-11.2618
▁अप्रवासी	-11.262
▁जग	-11.2621
▁प्रवक्ता	-11.2622
▁जर्	-11.2624
▁स्नातकोत्तर	-11.2625
▁बीट	-11.2627
▁पुनर्जागरण	-11.263
लॉग	-11.2631
▁एथेंस	-11.2634
▁रूज़वेल्ट	-11.2635
श्रेणी	-11.2638
▁युद्धपोत	-11.2639
लिं	-11.2642
ंजे	-11.2643
in	-11.2643
▁मेले	-11.2645
▁ग्रेटर	-11.2646
ेंको	-11.2651
▁निराश	-11.2652
▁क्रूजर	-11.2655
▁मानवता	-11.2655
▁मैथ	-11.2656
▁बैंकिंग	-11.2656
▁अपमान	-11.2656
▁चिकन	-11.2659
▁देशभक्त	-11.2661
▁कठिनाइयों	-11.2662
ोग्राफी	-11.2667
▁आतंकवादी	-11.2669
▁आर्द्र	-11.267
व्यक्ति	-11.2673
▁आयरन	-11.2675
िद	-11.2675
विद	-11.2682
▁साधारण	-11.2683
▁मोरे	-11.2684
▁माला	-11.2685
▁गुल	-11.2687
▁टाइगर	-11.269
ैल	-11.2691
वाल्ड	-11.2692
▁क्लिप	-11.2694
्सविले	-11.2699
▁बस्तियों	-11.2703
िस्टिक	-11.2704
▁बॉबी	-11.2705
▁पर्यटक	-11.2705
ाद	-11.2708
▁जवाबी	-11.2708
द्दी	-11.271
▁समीक्षक	-11.271
▁वेलिंगटन	-11.2713
▁जाग	-11.2714
▁रोजर्स	-11.2716
▁बाथ	-11.2717
▁स्ट्रे	-11.2724
साई	-11.2725
▁झीलों	-11.2727
▁धावक	-11.273
कुरा	-11.2738
▁ह्यूग	-11.2741
▁सीखा	-11.2744
▁पाम	-11.2745
▁भरोसा	-11.2747
रेना	-11.2751
ट्रॉन	-11.2753
▁मेगा	-11.2756
ेनिया	-11.2756
▁लंगर	-11.2757
▁लौटे	-11.2758
▁पाठ्यक्रमों	-11.2759
ारो	-11.276
▁महासचिव	-11.2762
थैल	-11.2762
▁ब्रू	-11.2763
▁नौसैनिक	-11.2764
▁कैल्	-11.2767
▁बीम	-11.2769
▁एम्स्टरडैम	-11.2772
▁तिमाही	-11.2772
▁पाठकों	-11.2775
▁धोखा	-11.2777
▁लड़े	-11.2778
▁हानि	-11.2779
बस्टर	-11.2781
▁विशेषाधिकार	-11.2783
▁नीली	-11.2786
▁अब्राहम	-11.2789
इसके	-11.2792
▁झाड़ी	-11.2794
▁विज्ञापनों	-11.2795
▁बाड़	-11.2796
संस्कृत	-11.2796
िस्टो	-11.2799
▁एब	-11.2808
▁प्रतिकूल	-11.2809
▁यूईएफए	-11.2811
ग्रो	-11.2811
स्ती	-11.2812
▁पारा	-11.2814
▁पार्किंग	-11.2814
▁फेलोशिप	-11.2819
गॉ	-11.2819
▁कंपनियां	-11.2819
मैट	-11.282
नोर	-11.2822
er	-11.2823
मेरी	-11.2825
▁एग्	-11.2834
स्मो	-11.2836
िसन	-11.2839
्स्टन	-11.2841
फिक	-11.2841
▁रसोई	-11.2841
▁आजीवन	-11.2841
कॉर्प	-11.2843
▁यूगोस्लाविया	-11.2843
लिच	-11.2843
▁अमी	-11.2844
▁हार्डवेयर	-11.2844
सेक्स	-11.2847
सैन	-11.285
र्डिन	-11.2853
जै	-11.2854
महान	-11.2857
▁छड़	-11.2857
▁जावा	-11.2859
▁गैले	-11.2864
▁नाविक	-11.2868
▁शिविरों	-11.2877
▁ढांचा	-11.2878
▁नजरअंदाज	-11.2878
▁जानने	-11.2882
▁एपिस्कोपल	-11.2883
अमेरिका	-11.2893
▁टॉर्	-11.29
▁डिजाइनों	-11.2901
▁शेफ	-11.2903
▁कृत्यों	-11.2903
▁पीने	-11.2904
▁न्यूकैसल	-11.2906
▁मेला	-11.2906
▁सिएरा	-11.2908
▁पाइन	-11.2914
▁रहस्यमय	-11.2916
▁राव	-11.2917
▁प्रस्तावों	-11.2918
▁पड़े	-11.292
स्वा	-11.2921
▁संज्ञा	-11.2924
▁सीधी	-11.2926
▁पार्षद	-11.2927
▁ढका	-11.2927
▁भिक्षु	-11.2928
▁सांद्रता	-11.2928
▁दूरसंचार	-11.2931
राजा	-11.2934
राउंड	-11.294
▁मार्स	-11.2941
▁आंदोलनों	-11.2942
▁डेला	-11.2945
▁एरि	-11.2948
▁रीढ़	-11.2948
▁निकला	-11.2952
स्टु	-11.2953
▁उत्साही	-11.2954
ग्री	-11.2956
▁मिशनों	-11.2959
▁बैग	-11.2959
▁बल्गेरियाई	-11.296
▁मुहर	-11.2962
▁दंत	-11.2964
iii	-11.2965
▁समाप्ति	-11.2968
▁मैराथन	-11.2969
▁गिल्ड	-11.2969
्लर	-11.2972
म्पे	-11.2977
▁ज्वालामुखी	-11.2978
▁ज़्	-11.2978
▁गवाह	-11.298
▁इस्तीफे	-11.2981
▁बैरोनेट	-11.2987
जैसा	-11.2994
▁इतिहासकारों	-11.2994
घो	-11.2997
पैक	-11.2997
क्की	-11.2997
▁बंधक	-11.2998
स्टॉक	-11.2999
▁राइन	-11.3001
▁फैन	-11.3002
▁उड़	-11.3002
▁जंगलों	-11.3003
▁हिटलर	-11.3004
▁चौड़ाई	-11.3006
▁दिखाए	-11.3008
▁दलदल	-11.3009
फॉल	-11.3012
लिथ	-11.3024
▁मार्कस	-11.3025
▁नागरिकता	-11.3027
सियस	-11.3031
▁मद	-11.3033
▁धारावाहिक	-11.3037
▁एक्सचेंज	-11.3037
हर्स्ट	-11.3041
▁मोरा	-11.3044
▁जुआ	-11.3045
▁चतुर	-11.3045
▁ढूंढ	-11.3047
▁कवक	-11.3047
▁कृतियों	-11.3047
फिर	-11.3049
▁सपने	-11.3049
रेखा	-11.305
▁बेसल	-11.3052
▁अब्दुल	-11.3056
सामान्य	-11.3057
▁ट्राय	-11.3058
▁टारपीडो	-11.306
▁उपनिवेश	-11.306
▁वंशावली	-11.3062
▁क्लाइ	-11.3062
▁अलान	-11.3066
▁अनुमोदन	-11.307
्पा	-11.3074
मेरा	-11.3074
▁नामकरण	-11.3074
▁ट्रिनिटी	-11.3075
▁न्यास	-11.3077
▁हेराल्ड	-11.3082
▁स्तंभों	-11.3083
प्रेस	-11.3086
▁बवंडर	-11.3087
▁पाव	-11.3089
▁ग्रोव	-11.3089
ेथ	-11.309
▁स्क्व	-11.3093
हारा	-11.3102
▁रेफरी	-11.3103
▁प्रसारक	-11.3105
▁क्रोम	-11.311
▁कण	-11.3111
▁निष्कासित	-11.3116
▁प्लाजा	-11.3116
्रेट	-11.3117
▁ध्वनिक	-11.3117
लिंक	-11.3117
▁</	-11.312
▁डेमो	-11.3122
▁बोग	-11.3123
ेनी	-11.3126
▁वेनेज़ुएला	-11.3128
▁होस्ट	-11.313
▁मॉड	-11.3132
वू	-11.3133
▁शीत	-11.3133
स्टाउन	-11.3133
▁कट्टर	-11.3136
▁ट्राम	-11.3137
▁लक्षणों	-11.3139
▁चलाते	-11.314
▁शाब्दिक	-11.3145
ग्रि	-11.3147
▁उड़ा	-11.3147
▁स्कैन	-11.3151
▁नासा	-11.3152
▁जुर्माना	-11.3156
▁इजरायली	-11.3157
▁पाइ	-11.3164
▁व्लादिमीर	-11.3164
▁जड़ी	-11.3164
▁परवाह	-11.3167
▁महिलाएँ	-11.3169
▁उत्कीर्ण	-11.3169
ुअल	-11.317
गढ़	-11.317
वर्ती	-11.3171
▁कमरों	-11.3173
▁पीला	-11.3174
▁हावी	-11.3175
▁फॉल्स	-11.3175
▁बनावट	-11.318
ंबा	-11.3181
▁देवताओं	-11.3182
▁प्रश्नों	-11.3182
▁स्कै	-11.3186
▁अनुशासन	-11.3187
▁गैब्रियल	-11.319
ेंडर	-11.3191
▁स्टेनफोर्ड	-11.3192
▁शेख	-11.3197
▁परिपथ	-11.3198
▁शासित	-11.32
▁स्ट्रिप	-11.3203
▁सर्ब	-11.3205
▁कॉकस	-11.3207
▁सजाया	-11.3208
▁ओबामा	-11.3211
प्रभाव	-11.3216
▁महाद्वीप	-11.3217
▁शिशु	-11.3223
▁पुनर्वास	-11.3225
▁टार्	-11.3225
▁चुरा	-11.3226
▁गढ़	-11.3228
▁पुनरावृत्ति	-11.3229
▁स्टीवन	-11.3229
▁लोमड़ी	-11.3231
▁पुट	-11.3232
▁एल्डर	-11.3235
▁आकलन	-11.3236
▁ड्रामा	-11.3237
▁भय	-11.3238
▁उग्र	-11.324
क्ला	-11.3242
▁फारसी	-11.3244
्नि	-11.3244
▁शंघाई	-11.3244
सिर	-11.3246
▁मला	-11.325
दाताओं	-11.3251
त्रि	-11.3254
▁स्वरूप	-11.3256
▁लेनदेन	-11.3257
▁इवेंट	-11.3257
▁पेरे	-11.3263
▁तंग	-11.3264
विड	-11.3266
शू	-11.3267
िरो	-11.3273
▁माह	-11.3274
येव	-11.3274
▁विवेक	-11.3274
▁सहन	-11.3275
जेट	-11.3279
लैंड्स	-11.3279
▁भूल	-11.328
▁लय	-11.328
▁रैपर	-11.3282
▁कुख्यात	-11.3283
▁निलंबन	-11.3283
मैक्स	-11.3285
ुना	-11.3287
स्टिल	-11.3289
▁उपचुनाव	-11.3291
▁रिबाउंड	-11.3291
▁एग	-11.3294
▁वेने	-11.3299
गति	-11.33
म्पो	-11.3302
गियो	-11.3305
▁उपखंड	-11.3306
▁तीव्रता	-11.3307
▁इशारा	-11.3309
▁रायन	-11.331
▁दिवसीय	-11.331
▁कैमरे	-11.3311
▁हॉलैंड	-11.3311
▁नौकरियों	-11.3312
▁गुस्से	-11.3319
▁संप्रदाय	-11.3322
▁सफाई	-11.3322
▁पृष्ठों	-11.3323
▁नेवाडा	-11.3325
▁शूरवीर	-11.3327
र्नी	-11.3328
▁कुमार	-11.3341
▁विनिर्देश	-11.3341
म्मा	-11.3341
▁मलबे	-11.3341
▁सिनेमाघरों	-11.3345
▁रिश्ते	-11.3347
▁डब	-11.335
थॉर्न	-11.3351
▁सेल्सियस	-11.3353
रॉ	-11.3353
ेशिया	-11.3355
▁समाजशास्त्र	-11.3356
▁कैलि	-11.3359
▁बीटा	-11.3361
माइट	-11.3361
▁स्टॉ	-11.3362
्शन	-11.3363
वॉक	-11.3364
▁ध्रुव	-11.3365
▁घुसपैठ	-11.3366
नगर	-11.3367
▁जूलियन	-11.3368
▁शार्क	-11.3379
▁प्रायोजक	-11.3379
▁क्रू	-11.3383
त्या	-11.3385
▁रोमांस	-11.3386
▁व्यंजनों	-11.3389
▁वामपंथी	-11.339
▁जासूसी	-11.3392
िंस्की	-11.3393
डैम	-11.3397
गैर	-11.34
▁सत्रह	-11.3404
प्रिय	-11.3408
▁घाना	-11.341
▁कॉक्स	-11.3411
▁लेटर	-11.3411
▁लगती	-11.3412
पार्क	-11.3412
गोल	-11.3416
▁ग्रेगरी	-11.3418
▁मनुष्य	-11.3421
▁अखबार	-11.3424
an	-11.3427
▁धारण	-11.3432
▁प्रशासित	-11.3432
केंद्र	-11.3435
▁फ्लाई	-11.3436
प्लेन	-11.3438
▁रनवे	-11.3443
▁खेलती	-11.3444
▁डेलावेयर	-11.3448
िस्टा	-11.3449
ियु	-11.3449
जैक	-11.3454
▁बंदूकें	-11.3455
▁लैरी	-11.3456
फेयर	-11.3456
▁चुनौतियों	-11.3458
III	-11.3459
▁प्रदर्शनियों	-11.3461
▁सुनाया	-11.3463
रोल	-11.3464
इफ	-11.3465
क्रै	-11.3466
ुस	-11.3471
▁दर्पण	-11.3472
▁गौरव	-11.3472
▁मोंटाना	-11.3473
▁मुहाने	-11.3474
▁बैनर	-11.3479
▁जीवनकाल	-11.3482
▁स्कूली	-11.3484
▁इसाक	-11.349
▁विनियमित	-11.349
▁दिखाता	-11.349
▁कैरे	-11.3492
▁फुटेज	-11.3492
▁झंडे	-11.3493
▁जीतकर	-11.3495
▁लिख	-11.3497
▁मानवाधिकारों	-11.3498
▁जहर	-11.35
अस	-11.3503
मेकर	-11.3503
▁नीलामी	-11.3508
▁बट	-11.3511
शंस	-11.3512
▁उत्सुक	-11.3517
▁रेलरोड	-11.3518
▁डाकू	-11.3521
र्डो	-11.3523
▁प्लेटफार्मों	-11.3525
एल्बम	-11.3527
▁प्रसिद्धि	-11.3528
ेग	-11.3529
श्त	-11.3531
▁रत्न	-11.3538
▁बैंकों	-11.3541
▁कृतियाँ	-11.3544
▁जस्टिन	-11.3544
▁पीट	-11.3553
मारा	-11.3554
▁आदेशों	-11.3561
▁दुख	-11.3566
फन	-11.3567
▁नौवें	-11.3567
▁सुविधाजनक	-11.3568
▁निरस्त	-11.3568
▁प्रेमिका	-11.3571
▁अग्र	-11.3571
▁भयानक	-11.3575
▁असहमति	-11.3576
▁कुर्	-11.3581
▁लड़का	-11.3594
▁शेफील्ड	-11.3598
▁स्टीवर्ट	-11.3598
▁विंड	-11.3605
▁लगाता	-11.3608
▁हुसैन	-11.3613
▁वारन	-11.3616
▁ग्राफिक्स	-11.3616
▁अंतरिम	-11.3616
▁चालीस	-11.3621
लेंट	-11.3626
▁पला	-11.3627
मूल्य	-11.3628
कॉक	-11.3629
▁पहुँचने	-11.3632
▁सत्य	-11.3637
▁सोफिया	-11.3637
स्त्र	-11.364
ंसी	-11.3643
▁कॉर्ड	-11.3648
▁मैथ्यू	-11.3649
▁भूविज्ञान	-11.3657
ख्त	-11.3658
▁ट्विटर	-11.366
▁फोर्स	-11.366
टिव	-11.366
▁फ़ि	-11.3661
▁हार्वे	-11.3661
▁जुड़ाव	-11.3663
▁रोकथाम	-11.3664
▁वर्जिन	-11.3665
त्ते	-11.3667
▁प्रतिभागी	-11.3667
▁प्राग	-11.3667
▁ठंडा	-11.367
▁न्यूटन	-11.3671
▁गठित	-11.3672
▁आगंतुक	-11.3672
▁रेंजर्स	-11.3675
गीतकार	-11.3677
▁क्लेर	-11.3682
▁मतदाता	-11.3683
भेद	-11.3683
▁कैब	-11.3684
▁ऑटोमोबाइल	-11.3686
▁उभरते	-11.3687
▁आकाश	-11.3688
▁संक्षेप	-11.3689
▁आत्मकथा	-11.3689
▁टिप्पणीकार	-11.369
▁पराजित	-11.3691
▁स्केल	-11.3691
▁नॉट	-11.3691
▁दायरे	-11.3692
▁ज़ू	-11.3693
▁चमत्कार	-11.3696
▁विधियों	-11.3696
जुन	-11.3697
नील	-11.3699
संयुक्त	-11.37
▁नस्लवाद	-11.3702
▁बाइबिल	-11.3702
▁समर्पण	-11.3704
▁चट्टानी	-11.3707
▁वनों	-11.3708
कहा	-11.3709
▁पारस्परिक	-11.371
▁पाकिस्तानी	-11.371
▁ओह	-11.3712
▁अनुसूची	-11.3713
ग्लू	-11.3717
स्पॉट	-11.3728
▁संगमरमर	-11.3729
▁संगत	-11.373
▁खोपड़ी	-11.3732
▁पेट्रो	-11.3733
▁अना	-11.3736
▁मून	-11.3736
▁शेक्सपियर	-11.3737
▁वादक	-11.3738
कोलन	-11.3738
▁सोर	-11.374
▁मानवीय	-11.3741
िस्तान	-11.3742
वर्ण	-11.3742
िंद	-11.3742
▁आर्केड	-11.3744
▁लेह	-11.3746
मेरि	-11.3747
▁ईयर	-11.3748
▁इंडी	-11.3752
▁मूर्तियों	-11.3752
▁जूलिया	-11.3753
▁वॉशिंगटन	-11.3753
्मे	-11.3756
▁डायो	-11.3758
▁डिब्बे	-11.3762
▁इंद्र	-11.3763
▁चैनलों	-11.3764
▁दायित्व	-11.3764
टोरी	-11.3765
▁गृहनगर	-11.3767
ॉग	-11.3767
▁टाइल	-11.3769
▁डॉग	-11.3774
राई	-11.3775
▁समरूपता	-11.3778
▁कैरिबियन	-11.3781
▁ड्रीम	-11.3782
▁विपक्षी	-11.3782
▁किताब	-11.3783
सर्वश्रेष्ठ	-11.3791
▁निष्पक्ष	-11.3794
▁मोरक्को	-11.38
▁नर्सिंग	-11.3801
▁विशेषताएं	-11.3803
▁मेहमानों	-11.3809
▁चुनने	-11.3811
▁एर्	-11.3816
▁अनावरण	-11.3816
▁डेन्वर	-11.3816
▁राजी	-11.3817
दुनिया	-11.3818
ाइटिस	-11.3819
नेक	-11.3821
▁क्षैतिज	-11.3827
▁अवस्था	-11.3835
▁अपराधी	-11.3836
लिका	-11.3837
▁झिल्ली	-11.3841
▁तांबे	-11.3841
▁अभिलेख	-11.3845
▁स्क्र	-11.3845
श्री	-11.3846
लंबाई	-11.3848
▁क्वांटम	-11.3849
▁हाइड्रोजन	-11.3851
▁स्वस्थ	-11.3851
▁सहकर्मी	-11.3852
▁पिघल	-11.3853
यदि	-11.3854
▁खोने	-11.3855
ियोस	-11.3856
्रिज	-11.3857
▁उतन	-11.386
ग्रेड	-11.386
प्पी	-11.3863
निग	-11.3867
▁वियतनामी	-11.3868
▁कॉपीराइट	-11.3868
▁बजाने	-11.387
▁अन्वेषण	-11.3874
ट्	-11.3875
▁लुकास	-11.3876
डियम	-11.3876
▁माया	-11.3878
▁मिडिल	-11.388
▁कैरोलिन	-11.388
▁ज्वार	-11.3881
पोली	-11.3887
होल्ड	-11.3889
▁हल्का	-11.3889
▁चाप	-11.3892
▁तिहाई	-11.3895
▁सजावटी	-11.3898
▁डिप्लोमा	-11.3899
▁नाममात्र	-11.3899
▁मैडिसन	-11.3902
▁गेल	-11.3903
▁डोंग	-11.3905
▁कोलन	-11.3906
▁क्रोएशियाई	-11.3906
▁आइसो	-11.3912
▁मातृ	-11.3912
▁गर्भवती	-11.3912
▁मरणोपरांत	-11.3912
▁समा	-11.3914
क्रॉ	-11.3915
क्व	-11.3927
▁ग्व	-11.3927
▁खरीदारी	-11.3927
▁वाल्ड	-11.3928
▁तैर	-11.3931
▁विशिष्टता	-11.3932
▁गड्ढे	-11.3932
ड्डी	-11.3935
▁थोड़े	-11.3935
▁बैज	-11.3936
▁नट	-11.3936
▁प्रतिक्रियाओं	-11.3943
चेव	-11.3944
▁नॉर्ड	-11.3945
▁विजयी	-11.3949
रोज	-11.3949
▁उपलब्धियों	-11.3949
ंबो	-11.3949
▁खरगोश	-11.3954
▁जॉन्स	-11.3954
▁टॉमी	-11.3955
▁उग	-11.3955
▁जताई	-11.3957
▁फेसबुक	-11.3962
▁रिसीवर	-11.3962
▁फ्रीस्टाइल	-11.3966
▁मरने	-11.3967
▁गोर्	-11.3973
▁ओकलैंड	-11.3974
मुन	-11.3974
▁बंदरगाहों	-11.3976
▁बैक्टीरिया	-11.3979
▁टर्न	-11.398
▁उत्परिवर्तन	-11.3982
▁पनामा	-11.3982
▁रोमेनिया	-11.3982
▁विभागों	-11.3984
▁विरोधाभास	-11.3985
▁पतली	-11.3985
सिट	-11.3985
▁आउटलेट	-11.3989
▁हिरण	-11.3994
▁सहज	-11.3995
▁बाध्य	-11.3995
▁एप्पल	-11.3997
विशिष्ट	-11.3999
▁राग	-11.4001
▁टेलीग्राफ	-11.4008
हत	-11.4008
ब्रायन	-11.4009
धर	-11.4016
▁आकस्मिक	-11.4018
▁पियानोवादक	-11.4018
▁चुनी	-11.402
पंथ	-11.402
▁फ़्रैंको	-11.4022
▁चील	-11.4023
▁वैगन	-11.4024
यामा	-11.4028
▁मुर्	-11.4029
▁अपमानजनक	-11.4029
▁जलीय	-11.4032
▁महाकाव्य	-11.4035
▁कैसिनो	-11.4036
▁नौकर	-11.4037
▁वेदी	-11.4038
▁नैशविले	-11.4041
▁ऊन	-11.4042
▁सफ	-11.4043
▁एडेलाइड	-11.4043
▁मार्गदर्शक	-11.4045
▁साहसिक	-11.4046
▁प्रतिद्वंद्विता	-11.4046
▁टार	-11.4052
▁क्रूस	-11.4055
▁निकोल	-11.4056
▁मूर्तिकार	-11.406
▁ऑस्ट	-11.406
▁निकायों	-11.4063
▁अर्नेस्ट	-11.4069
▁एनजी	-11.4069
▁गैलि	-11.4073
▁अर्थात्	-11.4074
▁चौराहे	-11.4074
ैया	-11.4076
▁किरायेदार	-11.408
▁संक्रमित	-11.4085
▁खगोल	-11.4087
▁मापने	-11.4091
▁दोस्ताना	-11.4092
▁शब्दकोश	-11.4094
▁चार्लोटे	-11.4096
▁छठी	-11.4099
▁प्रदर्शनकारियों	-11.4099
▁मादक	-11.41
▁शरणार्थियों	-11.4102
जीन	-11.4103
टियन	-11.4105
▁परस्पर	-11.4105
प्रि	-11.4109
▁अंतःक्रिया	-11.4111
▁खोए	-11.4111
गीत	-11.4112
▁मकबरे	-11.4114
सौ	-11.4114
▁एसेक्स	-11.4116
▁लिथुआनिया	-11.4119
▁वेधशाला	-11.4122
▁पठार	-11.4122
▁पालिकाओं	-11.4125
▁सुसमाचार	-11.4128
चै	-11.4129
ेल्स	-11.4132
▁दाईं	-11.4133
▁चलाता	-11.4134
▁बॉस	-11.4135
अपनी	-11.4136
▁पदार्पण	-11.4145
▁ग्रेनेड	-11.4146
▁न्यूरो	-11.4147
▁कृष्ण	-11.4152
▁कक्षाएं	-11.4153
▁हिब्रू	-11.4157
▁कुलाधिपति	-11.4164
▁खोले	-11.4166
▁दुरुपयोग	-11.4173
▁प्रेस्बिटेरियन	-11.4173
्रोन	-11.4176
हॉप	-11.4177
▁टॉक	-11.4178
▁बेथ	-11.4178
▁रेंजर	-11.4179
जेल	-11.4179
▁प्रमेय	-11.4182
▁देगी	-11.4185
▁बताने	-11.4187
चीनी	-11.4189
प्रतिद्वंद्वियों	-11.419
फिला	-11.419
▁कपास	-11.4191
▁रूथ	-11.4192
टेरो	-11.4198
▁राजनेताओं	-11.4199
▁सिलेंडर	-11.4199
▁पत्रकारों	-11.42
ल्बी	-11.4201
▁ट्व	-11.4203
फास्ट	-11.4205
▁फ्लैश	-11.4208
▁सटीकता	-11.4209
▁क्रोधित	-11.4209
▁नोक	-11.4212
▁उत्तरार्ध	-11.4218
▁संस्कृतियों	-11.4221
▁रेमंड	-11.4223
▁अनाम	-11.4225
▁भटक	-11.4226
▁सुखद	-11.4227
▁वास्तुशिल्प	-11.4227
▁छठा	-11.4227
▁ऑक्	-11.4228
▁सैलून	-11.423
▁प्रतिकृति	-11.423
▁उदास	-11.4238
▁मका	-11.4238
▁एमिल	-11.4239
▁क्रूर	-11.4244
▁लौटते	-11.4249
▁डैनी	-11.4253
▁नफरत	-11.4253
प्टिक	-11.4254
▁ग्रु	-11.4255
स्कि	-11.426
मेयर	-11.426
▁गायकों	-11.4261
डेम	-11.4264
▁ब्रु	-11.4269
कॉनर	-11.4271
▁ऑड	-11.4271
▁ग्रुप	-11.4274
▁एज़	-11.4275
▁बेला	-11.4278
अभी	-11.4279
▁पलायन	-11.4282
हिरो	-11.4284
सिना	-11.4288
▁बोतल	-11.429
▁दौड़ने	-11.429
▁कार्यवाही	-11.4293
▁रोलिंग	-11.4299
काउंट	-11.43
ेटो	-11.4302
अन्य	-11.4302
फ़े	-11.4307
िन्स	-11.4307
▁भ्रूण	-11.431
नोवा	-11.431
▁सांस	-11.4313
▁डाउनटाउन	-11.4314
ज्जा	-11.4317
उदाहरण	-11.4317
नॉक	-11.4321
ल्विन	-11.4323
मेह	-11.4324
▁अमर	-11.4326
▁आर्मेनियाई	-11.4333
▁वेग	-11.4335
▁परिष्कृत	-11.4336
▁वर्मोंट	-11.4341
▁अभियोजक	-11.4342
▁तंबाकू	-11.4342
ंजो	-11.4347
▁एलिसन	-11.4351
▁चूना	-11.4352
▁मोल्ड	-11.4354
ोग	-11.4356
कैन	-11.4357
फ्लोर	-11.436
▁सामंजस्य	-11.4362
▁मूक	-11.4363
▁कितना	-11.4363
सैक्सन	-11.4363
▁हसन	-11.4369
सिला	-11.437
▁नवीनीकृत	-11.4371
▁अराजकता	-11.4372
फेस्ट	-11.4373
▁विश्लेषक	-11.4374
▁स्पर्श	-11.4374
किसी	-11.4375
▁भतीजे	-11.4377
▁हैम्बर्ग	-11.4385
▁रोकता	-11.439
▁ढक	-11.4393
▁धाराओं	-11.4394
मानी	-11.4395
▁समावेश	-11.4397
सॉफ्ट	-11.4404
▁ओल	-11.4407
▁हॉक	-11.4412
▁दम	-11.4414
▁मुद्रण	-11.4417
सिटी	-11.4418
▁रेक्टर	-11.4418
▁पकड़ा	-11.4419
▁शिपिंग	-11.442
▁फेरी	-11.4426
पोर	-11.4427
्नेस	-11.4431
▁ऑडिशन	-11.4432
▁फर्नीचर	-11.4432
▁वीरता	-11.4435
▁नैनो	-11.4437
▁विचारधारा	-11.4438
▁बैरल	-11.444
चेट	-11.4442
▁लौटता	-11.4443
▁चयापचय	-11.4443
▁उथल	-11.4444
णीय	-11.4445
▁पोलो	-11.4445
▁अल्ट्रा	-11.4446
्योर	-11.4446
▁सांख्यिकी	-11.4446
▁नशील	-11.4449
▁विक्रेताओं	-11.4451
▁अवधारणाओं	-11.4455
यूएस	-11.4456
िस्क	-11.4458
▁सचित्र	-11.4458
▁दस्तावेज	-11.4459
चौ	-11.446
न्ज़	-11.446
▁चौथाई	-11.4463
▁नाटककार	-11.4463
ॉड	-11.4465
फ्रॉ	-11.4468
▁प्रचलित	-11.447
▁पेंशन	-11.447
▁खुलने	-11.447
▁परियोजनाएं	-11.447
▁गोले	-11.4471
ऑफ़	-11.4474
▁मिन्नेसोटा	-11.4481
▁चयनित	-11.4489
महा	-11.4491
▁रोनाल्ड	-11.4491
▁खिला	-11.4497
▁एस्क	-11.4497
▁बलिदान	-11.4499
▁कल्	-11.45
▁कच्चे	-11.4502
▁नॉकआउट	-11.4502
▁खदानों	-11.4503
▁पाउ	-11.4504
ब्लू	-11.4505
िट्ज	-11.4506
▁भूख	-11.4507
▁गेंदबाजी	-11.4508
▁स्कोरिंग	-11.4512
र्नो	-11.4518
▁लातविया	-11.452
▁क्रिस्टी	-11.4527
▁सिक्के	-11.4531
▁इंडीज	-11.4534
▁आयताकार	-11.4534
▁नारीवादी	-11.4537
▁सर्वसम्मति	-11.4539
फ्रीड	-11.454
विवाह	-11.454
▁कलाकृतियों	-11.4541
▁घुमा	-11.4546
▁प्रतियों	-11.4549
मियो	-11.4551
▁अधीक्षक	-11.4552
▁रॉस	-11.4555
▁गुरुत्वाकर्षण	-11.4561
आयरलैंड	-11.4566
▁आयोजक	-11.4567
ॉन्ग	-11.4569
▁गड़बड़	-11.457
▁राष्ट्रों	-11.457
ii	-11.457
▁दांव	-11.4573
▁प्रतिनिधिमंडल	-11.4574
▁स्ट्रोक	-11.4575
▁मिलीं	-11.4578
दास	-11.4578
▁वकीलों	-11.4578
▁धर्मनिरपेक्ष	-11.4582
▁जुड़ने	-11.4583
ेलिया	-11.4586
▁दूरस्थ	-11.4586
डाइ	-11.4588
▁एडोल्फ	-11.459
▁प्रमाणन	-11.4591
▁गंभीरता	-11.4593
रोज़	-11.4594
▁आइलैंड	-11.4594
▁हीरे	-11.4595
▁बिताने	-11.4599
▁सच्चाई	-11.4599
▁उत्तराधिकार	-11.4602
▁छिद्र	-11.4605
▁अंतर्देशीय	-11.4608
▁पीढ़ियों	-11.4608
▁अभाव	-11.461
रेफ	-11.4614
जिसका	-11.4614
▁निराशाजनक	-11.4617
ट्रॉ	-11.4619
▁नग्न	-11.4619
क्रॉस	-11.4622
▁कैपिटल	-11.4626
नॉट	-11.4626
▁हत्याओं	-11.4627
▁नवीन	-11.463
▁रिग	-11.4642
▁शहीद	-11.4644
▁सुदूर	-11.4648
▁उद्यमों	-11.4649
▁निवर्तमान	-11.4649
▁थियोडोर	-11.4652
▁बाघ	-11.4652
▁प्रभागों	-11.4654
▁मिलवॉकी	-11.4656
▁कॉन्सर्ट	-11.4656
▁चिड़ियाघर	-11.4659
्की	-11.4661
पक्ष	-11.4662
▁बैरि	-11.4665
▁प्रोफ़ाइल	-11.4666
▁क्यूबेक	-11.4667
▁ग्लेशियर	-11.4667
ानु	-11.4668
ेले	-11.4668
लिपि	-11.4668
▁ओले	-11.4671
कोर्ट	-11.4672
▁तभी	-11.4673
पर्स	-11.4676
▁धीमा	-11.4677
▁स्टॉकहोल्म	-11.4677
धम	-11.4677
ॉर्ट	-11.4677
ऑल	-11.4679
▁अभिविन्यास	-11.4679
▁प्रौद्योगिकियों	-11.4679
▁डायना	-11.4683
ब्रू	-11.4684
▁बॉडी	-11.4686
▁सूडान	-11.4686
शेन	-11.4686
▁दस्तावेजीकरण	-11.4686
▁अवतार	-11.4689
▁दुर्घटनाग्रस्त	-11.4689
▁कलम	-11.4689
▁डोना	-11.4692
▁कार्लो	-11.4695
ब्लैंक	-11.4696
▁थक	-11.47
ग्रेव	-11.47
▁डिस्नी	-11.47
▁जोड़ते	-11.4701
ेश्वर	-11.4702
▁पुरातत्व	-11.4703
▁स्वाभाविक	-11.4703
▁भु	-11.4708
▁ट्यूमर	-11.4708
▁कटक	-11.471
▁रिपोर्टिंग	-11.4717
▁पत्थरों	-11.4717
रेज	-11.4718
▁एन्	-11.4718
▁बदलना	-11.4719
ह्यू	-11.4721
ज्व	-11.4722
▁चैरिटी	-11.4724
▁महीन	-11.4726
▁हाइपर	-11.4735
▁छापे	-11.4735
▁वृक्ष	-11.4736
स्क्रिप्ट	-11.4737
▁संरचनाएँ	-11.4738
ल्लाह	-11.474
ग्यू	-11.4741
रिम	-11.4743
स्मिथ	-11.4746
ॉल्ट	-11.4754
▁उपनगरीय	-11.4758
राव	-11.476
▁मेहनत	-11.4761
▁संगीतमय	-11.4764
▁नाटो	-11.4764
▁लाभों	-11.4765
व्यवस्थित	-11.4772
▁कर्टिस	-11.4773
▁उछाल	-11.4778
▁आदत	-11.4779
पोस्ट	-11.4782
▁ओएस	-11.4782
▁चलाई	-11.479
▁एनसीएए	-11.479
▁लैम्ब	-11.4791
▁चलते	-11.4792
हॉक	-11.4795
ानिया	-11.4796
▁हेग	-11.4797
▁बुर्ज	-11.4802
▁मुंबई	-11.4803
गोल्ड	-11.4809
▁लुप्तप्राय	-11.4809
फायर	-11.4809
▁निधि	-11.4811
▁बटन	-11.4814
▁जड़ों	-11.4814
ुइ	-11.4818
प्रभु	-11.482
फ्रै	-11.4821
ेटी	-11.4822
▁सोक्स	-11.4823
▁नियंत्रक	-11.4824
महिला	-11.4826
▁यांकी	-11.4829
▁कैडेट	-11.483
▁पर्दे	-11.483
▁बां	-11.483
▁संघर्षों	-11.483
▁अस्पतालों	-11.4832
▁कोपनहेगन	-11.4833
▁लाइनअप	-11.4833
▁मैनुअल	-11.4834
▁हेरफेर	-11.4839
▁ल्यूस	-11.484
▁मेंढक	-11.4847
▁इर्द	-11.4848
गिर्द	-11.4848
▁मस्क	-11.485
▁दासों	-11.4854
बिग	-11.4855
एसटी	-11.4855
▁खातों	-11.486
कोला	-11.4861
▁बर्तनों	-11.4865
डोम	-11.4866
▁सुलिवन	-11.4866
नियंत्रित	-11.4867
कोव्स्की	-11.4867
समूह	-11.4868
▁परोपकारी	-11.4874
▁स्कॉ	-11.4875
▁ट्वि	-11.4879
▁एंटरटेनमेंट	-11.4881
योन	-11.4883
ब्रॉ	-11.4897
▁यूजीन	-11.4898
▁हरित	-11.4898
▁नाविकों	-11.4899
▁मानदंडों	-11.4904
मार्केट	-11.4905
▁दुकानें	-11.4908
▁घटनाएं	-11.4911
▁इलेक्ट्रॉनिक्स	-11.4914
पार्	-11.4914
अर्	-11.4917
खिल	-11.4919
▁बासिस्ट	-11.4921
▁विनसेंट	-11.4923
▁सुंदरता	-11.4927
▁रिहाई	-11.4928
▁असमानता	-11.493
प्टेर	-11.4932
▁बहिष्कार	-11.4933
▁वेस्टमिंस्टर	-11.4933
▁हिल्स	-11.4937
▁अविश्वसनीय	-11.4943
▁संज्ञानात्मक	-11.4943
▁मेडिसिन	-11.4943
▁एंग्लिकन	-11.4946
▁झुंड	-11.4946
श्रम	-11.4947
▁क्रमिक	-11.495
▁गुजरते	-11.495
▁ब्लेक	-11.4952
▁बैन	-11.4953
▁टोही	-11.4954
▁रूपांकन	-11.4955
▁दोगुना	-11.4958
▁पड़ने	-11.496
▁चौकी	-11.496
हार्	-11.4964
▁बेड	-11.4972
▁पक	-11.4974
सैक	-11.4975
▁हेज़	-11.4979
िएंट	-11.498
▁हन्ना	-11.4994
▁निमंत्रण	-11.4995
दोनों	-11.5002
▁मैकिन	-11.5002
▁रूट	-11.5003
ंड्रा	-11.5004
▁प्रोत्साहन	-11.5004
▁डेमोक्रेटिक	-11.501
▁थोर	-11.501
▁मतभेद	-11.501
▁कॉस्	-11.5019
▁तलछट	-11.502
▁पाउलो	-11.502
▁समतल	-11.5026
▁मंगल	-11.5029
▁नाइजीरियाई	-11.503
▁पट्टिका	-11.5032
▁रेशम	-11.5033
▁मदर	-11.5034
▁दया	-11.5035
क्षेप	-11.5038
▁आतंकवाद	-11.5039
▁प्रदाता	-11.504
▁स्वीकृति	-11.5043
▁चेहरा	-11.5046
▁डायरी	-11.5047
▁कॉन्स्ट	-11.5048
▁आश्चर्यचकित	-11.505
कैम्प	-11.5053
नोटः	-11.5053
▁सिरे	-11.5053
▁आर्मेनिया	-11.5057
▁भाषाएँ	-11.5063
▁डोमिनिकन	-11.5064
▁नेत्र	-11.5067
▁उन्नीसवीं	-11.5071
▁एल्गोरिथ्म	-11.5075
▁प्रस्तुतकर्ता	-11.5078
▁खलनायक	-11.5078
▁एनबीए	-11.5079
▁निष्कर्षों	-11.5084
▁माली	-11.5086
मार्ग	-11.5086
स्थापना	-11.5087
इलेक्ट्र	-11.5091
▁पुस्तिका	-11.5091
▁मंत्रियों	-11.5091
▁नरक	-11.5092
फ्रेड	-11.5093
ग्रास	-11.5094
▁ज्यादा	-11.5094
▁शब्दावली	-11.5094
▁रिश्तेदार	-11.5094
▁बोझ	-11.5098
▁रयान	-11.5099
▁सितारा	-11.51
▁रीच	-11.51
▁नाराज	-11.5101
ोक्स	-11.5102
हमारे	-11.5104
ar	-11.5112
▁इम्प	-11.5117
▁दर्जन	-11.5118
▁वस्त्र	-11.5123
▁स्पष्टीकरण	-11.5125
▁कैश	-11.5127
▁गिबसन	-11.5131
▁पुनर्गठित	-11.5134
▁जटिलता	-11.5137
▁अनुयायियों	-11.5138
▁हाइड	-11.5144
▁कारें	-11.5145
▁विस्फोटक	-11.5145
प्रोफाइल	-11.515
▁सर्जन	-11.5153
पियो	-11.5155
▁अल्प	-11.5159
▁आरक्षण	-11.5164
▁प्रदूषण	-11.5166
र्के	-11.5169
ाणु	-11.5169
▁खुराक	-11.5169
▁पाते	-11.5173
▁दिखा	-11.5175
▁कर्ट	-11.5175
▁कैंप	-11.5175
▁ऑप्टिकल	-11.5179
जोंग	-11.518
घे	-11.5186
▁अय	-11.5188
▁चांग	-11.5191
▁कंधे	-11.5191
▁दुर्भाग्य	-11.5193
▁रोलैंड	-11.5203
▁उगांडा	-11.5205
▁अवा	-11.5206
टैक्स	-11.5211
▁बद	-11.5217
▁मजेदार	-11.5219
▁काउबॉय	-11.5222
▁खगोलीय	-11.5224
▁वैनकूवर	-11.5225
थियन	-11.5226
्फो	-11.5227
▁न्यूपोर्ट	-11.5229
▁मानदंड	-11.523
मैंने	-11.5231
▁प्लेयर	-11.5232
▁अनिगमित	-11.5235
▁धूप	-11.5238
▁एल्यूमीनियम	-11.5241
▁व्ला	-11.5246
▁स्टेफन	-11.5246
पिल	-11.5248
▁समीक्षाएँ	-11.5256
▁सैक्स	-11.5257
श्च	-11.5258
▁असेंबली	-11.526
▁एम्मा	-11.5268
▁खुल	-11.527
▁माओरी	-11.5276
धर्म	-11.5276
ोलॉजिकल	-11.5278
्बे	-11.5282
▁बास्क	-11.5283
▁अन्ना	-11.5289
▁नकद	-11.5291
▁बपतिस्मा	-11.5292
▁मार्सेल	-11.5294
▁पहना	-11.5295
▁गोपनीयता	-11.5298
▁स्ट्रीमिंग	-11.5298
▁स्पीडवे	-11.5302
▁प्रतिष्ठान	-11.5307
निर्धारित	-11.5307
ओसी	-11.5308
▁गर्भावस्था	-11.5308
▁बीसवीं	-11.5308
▁ब्रंसविक	-11.5311
▁निर्णयों	-11.5311
▁सुसंगत	-11.5312
▁बज	-11.5319
▁दिवंगत	-11.5321
▁स्टेज	-11.5324
▁दुश्मनों	-11.5325
▁पाठक	-11.533
हौ	-11.5332
▁हर्मन	-11.5335
▁स्केटिंग	-11.5336
▁विकर	-11.5342
▁कुत्तों	-11.5343
▁निर्भरता	-11.5344
▁बोर्डिंग	-11.5352
दर्शी	-11.5354
▁होल्	-11.5355
▁सेटों	-11.5357
▁वाल्व	-11.5358
▁क्रेन	-11.536
▁सोसायटी	-11.5362
▁प्रतिभाशाली	-11.5365
▁साइबर	-11.5365
▁समन्वयक	-11.5369
उनकी	-11.5374
▁दरकिनार	-11.5375
मैरी	-11.5377
▁पहुँचते	-11.5377
▁हवाओं	-11.538
▁अनुपस्थित	-11.5382
▁अंतर्	-11.5383
▁एरिया	-11.5385
्श	-11.5385
▁स्वभाव	-11.5386
▁तान	-11.539
लाव	-11.539
▁ईंटों	-11.5394
प्रकाश	-11.5397
स्केल	-11.5398
रानी	-11.5398
ग्लिया	-11.5405
िग्	-11.5411
▁माने	-11.5413
स्लो	-11.5414
▁राष्ट्रव्यापी	-11.5414
▁ऑरेंज	-11.5417
▁पंक्तियों	-11.5419
▁चिह्न	-11.542
▁सीज़र	-11.5425
▁मेसन	-11.5427
▁स्कोटिया	-11.543
▁मालवाहक	-11.543
▁रफ	-11.5434
▁माल्टा	-11.5435
▁पूर्वाग्रह	-11.5436
ूक	-11.5438
▁खुर	-11.544
▁सिम्पसन	-11.5442
▁बॉट	-11.5447
▁परेशानी	-11.545
▁पब	-11.5452
▁त्रिकोण	-11.5453
▁क्रिकेटर	-11.5455
▁इयान	-11.5455
▁विस्थापित	-11.5456
▁मुसलमानों	-11.5458
▁शरणार्थी	-11.5458
▁सभ्यता	-11.5461
▁ब्याज	-11.5462
▁सामरिक	-11.5462
▁जनादेश	-11.5465
▁उत्तेजना	-11.5468
▁कॉर्पोरेशन	-11.5468
▁वांछित	-11.5468
▁फैब	-11.5484
▁स्कोरर	-11.5487
▁रैपिड	-11.5487
▁लौह	-11.5488
▁मिलों	-11.5488
स्वतंत्र	-11.5493
▁कीमतों	-11.5494
▁पालतू	-11.5494
▁लड़ाकों	-11.5498
▁जैम	-11.55
▁प्रयोगों	-11.5503
▁मार्श	-11.5504
▁हिंदी	-11.5505
▁डिलीवरी	-11.5507
▁हस्त	-11.5512
भाषा	-11.5513
िस्म	-11.5516
▁बिखरे	-11.552
▁बढ़ई	-11.5523
▁संतों	-11.5524
कार्ट	-11.5524
▁अवरोधक	-11.5526
डेक्स	-11.5529
▁प्लेस्टेशन	-11.553
▁लिव	-11.5535
▁बुलेवार्ड	-11.5536
▁कैच	-11.5537
▁उपनगरों	-11.5539
होल्म	-11.5544
▁अचल	-11.5544
रीज़	-11.5545
▁पत्राचार	-11.5546
▁लाओ	-11.5549
▁डीएनए	-11.555
▁लटका	-11.5552
नीचे	-11.5554
ॉर्न	-11.5557
रिप्रेजेंटेटिव्स	-11.5562
▁ब्रिगेडियर	-11.5564
▁खत्म	-11.5565
अंग्रेजी	-11.557
▁शेड	-11.557
▁पेरि	-11.5571
▁अभियोजन	-11.5578
द्रा	-11.5582
▁व्र	-11.5587
फ़्ल	-11.5587
▁असम	-11.5589
▁अल्पाइन	-11.5592
▁लेगा	-11.5595
▁उन्नयन	-11.5598
▁समेकित	-11.5598
▁जमैका	-11.5601
वर्क्स	-11.5606
▁बढ़ाना	-11.5607
▁दक्षिणपूर्वी	-11.5608
▁असली	-11.5611
▁उभरा	-11.5613
▁पैच	-11.5614
▁प्रतिशोध	-11.5614
▁आदम	-11.5617
▁पड़ी	-11.5619
लिखित	-11.5627
▁खिड़कियाँ	-11.5628
▁शैतान	-11.5628
डोंग	-11.5629
▁सावधान	-11.5631
▁ट्रेलर	-11.5631
ोनियन	-11.5632
▁तबाह	-11.5632
▁टक्कर	-11.5637
▁गश्त	-11.5638
▁बेची	-11.5639
▁फलन	-11.564
▁प्रलेखित	-11.5641
▁पाता	-11.5641
हॉफ	-11.5641
▁अप्रकाशित	-11.5647
▁डियेगो	-11.5647
▁शेयरधारक	-11.5647
आकार	-11.5648
▁कार्डिफ	-11.5656
क्लि	-11.5659
▁पूर्वानुमान	-11.566
▁पाल्मर	-11.5661
▁ब्राजीलियाई	-11.5661
▁किग्रा	-11.5662
▁कैंटरबरी	-11.5664
▁संस्थापकों	-11.5666
▁नौवहन	-11.567
र्गो	-11.5673
▁निवेशकों	-11.5678
▁सिखाया	-11.5678
▁संबद्धता	-11.568
▁निष्ठा	-11.568
▁डिब्बों	-11.568
▁साल्वाडोर	-11.568
▁स्टोक	-11.5681
▁शाखाएँ	-11.5682
▁साम्यवादी	-11.5682
▁रैक	-11.5683
्रॉन	-11.5684
▁बेलग्रेड	-11.5684
▁अधिवक्ता	-11.5687
▁सिक्कों	-11.569
▁टिप	-11.5692
▁हानिकारक	-11.5707
▁फर्स्ट	-11.5708
सिल्व	-11.5708
प्रामाणिक	-11.5713
▁होम्स	-11.5717
▁मशीनों	-11.5717
▁फिशर	-11.5717
▁गिल्बर्ट	-11.5723
▁मजदूर	-11.5725
ग्ग	-11.5727
▁प्रवाल	-11.5728
स्क्रीन	-11.5728
▁बेटियों	-11.5729
▁डकैती	-11.5733
▁यूरोविजन	-11.5733
▁टम्पा	-11.5734
▁ग्रेनाइट	-11.5735
फ्रो	-11.5736
कौ	-11.574
▁स्पेक्ट्रम	-11.574
▁पुलों	-11.5741
▁बारबारा	-11.5743
्रिड	-11.5744
▁रिक्त	-11.5745
▁दावेदार	-11.5749
सांप्रदायिक	-11.575
▁तीरंदाज	-11.575
हॉर्न	-11.5753
▁सावधानीपूर्वक	-11.5753
पॉ	-11.5755
▁आर्कटिक	-11.5759
▁ब्रेट	-11.5767
▁संवाददाता	-11.5767
▁लीड	-11.5768
िसी	-11.5771
▁स्ट्रैट	-11.5772
टर्न	-11.5774
विश्व	-11.5775
पिट	-11.5776
ट्रांस	-11.5776
र्रे	-11.5781
अंक	-11.5781
▁मूर्ख	-11.5783
▁रहेगा	-11.5783
मेरिक	-11.5784
▁फॉरेस्ट	-11.5785
स्पो	-11.5785
्रम	-11.5791
▁रचनाओं	-11.5791
▁मॉडलिंग	-11.5793
अगर	-11.5793
▁कपड़ा	-11.5794
▁समर	-11.5795
▁कूल	-11.5797
▁योद्धाओं	-11.5797
▁बैरक	-11.5798
▁जादूगर	-11.5799
▁चीज	-11.58
रिको	-11.5801
▁घात	-11.5802
तब	-11.5804
▁शिष्य	-11.5806
▁पत्तियों	-11.581
शिंग	-11.5811
गरी	-11.5812
दुर	-11.5812
▁झांग	-11.5813
▁ब्लूम	-11.5815
प्रतिदिन	-11.582
▁उद्यमी	-11.5823
▁ब्रसेल्स	-11.5823
फुट	-11.5824
▁मोटी	-11.5827
▁युआन	-11.5828
▁सुलह	-11.5833
▁मास्टर्स	-11.5834
▁धूल	-11.5834
▁मारियो	-11.5837
पियन	-11.584
▁मिथक	-11.584
▁विषाक्त	-11.5841
▁मिर्च	-11.5842
▁पॉडकास्ट	-11.5843
▁डेवलपर्स	-11.5843
▁स्प्र	-11.5845
▁ब्रिट	-11.5848
पुल	-11.5848
मिथाइल	-11.5848
निट	-11.5849
▁क्षरण	-11.585
▁घोटाले	-11.5853
▁ट्रु	-11.5856
्डे	-11.5856
▁आकाशगंगा	-11.5857
शब्द	-11.586
▁लोच	-11.5863
▁धड़	-11.5864
▁स्वच्छता	-11.5865
▁इराकी	-11.5866
▁लिंच	-11.5866
स्कूल	-11.5867
▁शिक्षाविदों	-11.5869
▁संस्थागत	-11.5874
गौ	-11.5876
▁अक्षम	-11.588
▁रिश्तेदारों	-11.5882
▁यांत्रिकी	-11.5884
लोप	-11.5886
▁बुरा	-11.5887
ज्ञान	-11.5888
▁चां	-11.5897
धे	-11.5901
सोनिक	-11.5902
▁मार्कर	-11.5905
▁देवदार	-11.5906
▁सिंक	-11.5909
▁कविताएँ	-11.5909
▁कंसोल	-11.5911
▁फ़िल्म	-11.5914
जातीय	-11.5917
▁अग्निशमन	-11.5917
▁पदानुक्रम	-11.5917
▁सर्फ	-11.5917
▁दिग्गज	-11.5918
स्किन	-11.5919
▁फिलिपिनो	-11.5919
गुला	-11.5919
▁एमपी	-11.5926
▁तानाशाह	-11.5928
टिका	-11.5932
▁ओल्	-11.5933
▁तह	-11.5938
▁आर्म्स	-11.5942
▁स्लेट	-11.5946
▁अंगों	-11.5947
क्सटन	-11.5951
्जा	-11.5957
▁अल्मा	-11.5958
▁तुम	-11.5973
▁कंकाल	-11.5978
▁व्हिट	-11.5978
ुआंग	-11.5979
▁राफेल	-11.598
▁एंकर	-11.598
▁सिने	-11.5981
▁फासीवाद	-11.599
▁ओट्टावा	-11.5992
▁वॉर	-11.5994
▁स्टैंडिंग	-11.5994
▁वाष्प	-11.5995
ब्रिटिश	-11.6014
चैनल	-11.6014
▁स्त्री	-11.6015
▁नाशपाती	-11.6016
▁स्वेच्छ	-11.6016
▁एनवाई	-11.6017
▁चान	-11.6017
▁सेंसर	-11.6018
▁स्पेंसर	-11.6019
▁ड्रैग	-11.6021
▁प्रीमियरशिप	-11.6022
▁सल्	-11.6026
▁प्रणालियाँ	-11.6029
▁कैमरन	-11.603
▁टुकड़ी	-11.6033
आय	-11.6035
▁मॉस्को	-11.6037
▁मजदूरी	-11.6037
▁सेबास्टियन	-11.6043
्वी	-11.6043
श्र	-11.6045
▁ब्रैडफोर्ड	-11.6046
▁प्रोटो	-11.6049
▁त्रिकोणीय	-11.6052
▁आसन्न	-11.6054
▁नियोक्ता	-11.6054
▁बेड़ा	-11.6056
सर्व	-11.6057
▁रिप	-11.6059
▁जौ	-11.606
▁खपत	-11.6062
▁थर्	-11.6062
डॉर्फ	-11.6063
▁विनम्र	-11.6064
चू	-11.6065
यूरोपीय	-11.6067
▁कोसोवो	-11.6068
ुरी	-11.607
▁हत्यारे	-11.6071
▁वाद्ययंत्रों	-11.6071
प्लेक्स	-11.6071
▁स्टर्न	-11.6072
▁टॉर	-11.6072
▁नाथन	-11.6072
▁इरविन	-11.6074
▁ठंडे	-11.6075
▁सर्वकालिक	-11.6077
▁खतरों	-11.6081
मूर	-11.6081
टेम्प	-11.6082
निच	-11.6084
▁ठंडी	-11.6085
▁उर्	-11.6085
▁पांचवीं	-11.6087
▁प्लै	-11.6088
▁लेवी	-11.6088
▁ब्रोक	-11.609
▁बंदर	-11.6091
▁जलमार्ग	-11.6093
▁रबर	-11.6095
▁जोहानस	-11.6097
▁परिणामी	-11.6098
अफ्रीक	-11.61
ियंस	-11.6101
▁निराशा	-11.6101
▁वैधता	-11.6103
▁घूम	-11.6106
स्पा	-11.6109
ेंद्र	-11.6111
▁सगाई	-11.6112
▁परिमाण	-11.6115
ेरिक	-11.6119
सफेद	-11.6123
▁घने	-11.6128
सैंड	-11.6129
▁अप्रत्यक्ष	-11.6129
▁ऑक्सी	-11.6132
▁क्वालीफायर	-11.6132
स्थिति	-11.6134
▁फ्रैंकफर्ट	-11.6136
वंश	-11.6137
▁कथन	-11.6142
▁अंडाकार	-11.6146
▁झड़प	-11.615
▁आर्नोल्ड	-11.6153
▁भवनों	-11.6156
▁ताइ	-11.6163
▁ढील	-11.6164
पोड	-11.6165
▁बनाकर	-11.6166
▁पादप	-11.6166
▁सुगंध	-11.6167
▁स्टुआर्ट	-11.6171
▁टर्की	-11.6171
▁नींद	-11.6174
▁चक्कर	-11.6174
▁पायलटों	-11.6174
▁सिमोन	-11.6176
▁जेनी	-11.6177
▁मांगी	-11.6178
▁उपन्यासकार	-11.618
वृत्त	-11.6182
▁नक्काशी	-11.6187
स्पेस	-11.6187
▁तुलनात्मक	-11.6188
▁थोक	-11.6191
▁सहारा	-11.6191
स्मा	-11.6195
▁एडवर्ड्स	-11.6196
▁ताड़	-11.6202
▁उठ	-11.6202
▁घुस	-11.6206
▁पालक	-11.6218
सांस्कृतिक	-11.622
ाध्य	-11.6221
▁शासी	-11.6221
▁काउंटर	-11.6221
▁इडाहो	-11.6223
▁जड़	-11.6224
▁एम्प	-11.6226
▁आराधनालय	-11.6226
▁रोथ	-11.6228
स्पोर	-11.6228
▁छंद	-11.623
▁मजिस्ट्रेट	-11.623
लिड	-11.6234
▁स्लाइड	-11.6236
▁हनी	-11.6242
▁तिकड़ी	-11.6244
ंद्र	-11.6248
गोंग	-11.6252
▁विलो	-11.6253
▁पैलेस	-11.6253
▁ढकी	-11.6254
▁महानगर	-11.6256
आर्ट	-11.6258
▁टोंग	-11.626
▁स्ट्राइकर	-11.6261
दक्षिणपंथी	-11.6265
▁फेंका	-11.6267
▁एंड्रिया	-11.6267
▁महाप्रबंधक	-11.6268
▁बाइज़ैंटाइन	-11.6272
▁ट्रांसमीटर	-11.6272
▁बॉयलर	-11.6274
▁कुचल	-11.6276
▁उड़ाया	-11.6277
▁नशे	-11.6279
▁मौसमी	-11.6279
ग्रीन	-11.6279
▁झुकाव	-11.628
फुल	-11.6283
▁फर्	-11.6284
▁सर्कस	-11.6284
▁एल्क	-11.6286
▁विनाइल	-11.6287
सेना	-11.6288
▁विचित्र	-11.6294
▁लेस्ली	-11.6295
शीलता	-11.6306
बैट	-11.6307
पीपी	-11.6308
▁बीमारियों	-11.6308
▁ब्रेन	-11.631
▁क्षितिज	-11.631
▁मूसा	-11.6311
▁उज्ज्वल	-11.6314
▁असंतुष्ट	-11.6317
▁कणों	-11.6319
▁उड़ानों	-11.6321
▁साल्ट	-11.6324
▁शीट	-11.6324
समुद्र	-11.6328
कानून	-11.633
▁फर्डिनेंड	-11.6335
▁डेवोन	-11.6336
▁प्रशंसित	-11.6338
▁चंद	-11.6339
▁शिक्षाविद	-11.6342
▁प्या	-11.6342
▁प्रोसेसर	-11.6345
▁मेम्फिस	-11.6349
पेक	-11.635
विजन	-11.635
▁शंकु	-11.6352
▁दीवारें	-11.6352
▁चोर	-11.6353
▁चेरी	-11.6356
▁ओस्लो	-11.636
डोर्फ	-11.6363
▁इंटीरियर	-11.6374
विला	-11.6376
▁बनती	-11.6377
▁मंदिरों	-11.6377
▁सुनी	-11.6379
▁रेने	-11.6381
▁क्लेयर	-11.6384
▁कबूतर	-11.6388
▁निर्दोष	-11.6388
डॉक	-11.6388
▁एनालॉग	-11.6392
▁राख	-11.6395
▁अनुवादक	-11.6397
▁टमाटर	-11.6398
▁ऑकलैंड	-11.6398
बाख	-11.64
▁स्टोरी	-11.64
▁विंडसर	-11.6404
▁क्रोन	-11.6404
▁अंतर्दृष्टि	-11.6409
फिट	-11.6412
▁कमांडिंग	-11.642
▁लाता	-11.6424
▁क्षय	-11.6424
▁तैनाती	-11.643
▁जलडमरूमध्य	-11.643
▁टैक्सी	-11.6433
▁साहस	-11.6434
▁मोंटगोमेरी	-11.6437
▁सपना	-11.6441
▁नैन्सी	-11.6445
▁सोलोमन	-11.6452
होम	-11.6452
▁लिखीं	-11.6453
▁सोमर	-11.6456
▁निकलता	-11.6462
▁लाखों	-11.6464
▁गाते	-11.647
▁लॉरेन	-11.647
▁प्राचार्य	-11.6473
▁पड़ाव	-11.6473
लाह	-11.6475
चालित	-11.6475
▁बजाते	-11.6476
▁बारसेलोना	-11.6477
▁बेनेडिक्ट	-11.6477
ज़ियो	-11.6479
विना	-11.648
▁प्लैटिनम	-11.648
म्फ	-11.6483
ंघ	-11.6488
▁रिचर्डसन	-11.6489
▁खोजकर्ता	-11.6493
▁मौरिस	-11.6495
▁आंखों	-11.6497
ओह	-11.6498
▁पिस्तौल	-11.6498
▁वैचारिक	-11.6498
मिस्टर	-11.6498
▁पुनर्मिलन	-11.6502
▁मक्	-11.6504
▁नूर	-11.6504
▁यादों	-11.6508
ूंगा	-11.6509
▁मनीला	-11.6513
भुज	-11.6519
▁ट्रैप	-11.6521
अधिक	-11.6521
▁न्यूमैन	-11.6521
म्पा	-11.6522
▁गैली	-11.6525
▁लिसा	-11.6533
▁उपनिवेशों	-11.6536
▁मैन्युअल	-11.6538
▁स्टीवंस	-11.6539
▁संसाधित	-11.6545
शासन	-11.6549
ऑगस्ट	-11.6557
▁टर्बो	-11.6561
▁निकटवर्ती	-11.6563
▁डोमिनिक	-11.6565
▁लुडविग	-11.6566
▁इवांस	-11.6567
▁बाल्टिक	-11.6567
▁क्वालीफाइंग	-11.6574
▁भट्ट	-11.6578
▁स्प्रिंगफील्ड	-11.6583
▁मिर्	-11.6587
▁अपोलो	-11.6587
लाउ	-11.6589
पाठ	-11.6594
▁मॉर्निंग	-11.6599
कम्युनि	-11.6602
▁क्रीम	-11.661
▁एस्ट्रो	-11.6612
▁अपेक्षित	-11.6621
फ़्र	-11.6623
▁ऊष्मा	-11.6624
▁घनिष्ठ	-11.6624
▁नायकों	-11.6624
ेन्ड	-11.6625
▁उपलब्धता	-11.6629
▁फंक	-11.663
▁दसवें	-11.6635
▁रोवर्स	-11.6635
▁ब्रेस	-11.6638
मीडिया	-11.6639
▁पाला	-11.664
▁जिम्बाब्वे	-11.6642
▁पाइपलाइन	-11.6644
▁अब्द	-11.6645
गिर	-11.6646
▁भूवैज्ञानिक	-11.6646
▁महारानी	-11.6646
▁प्लाईमाउथ	-11.665
▁दुरहम	-11.665
▁जैमी	-11.6651
▁प्रतिभूति	-11.6655
▁निपटा	-11.6655
▁अंधे	-11.6656
▁मरीन	-11.6661
▁वैगनर	-11.6662
वॉच	-11.6662
▁टरबाइन	-11.6664
डोरा	-11.6665
ाइजेशन	-11.6667
▁मध्यस्थ	-11.667
▁बैच	-11.6671
▁हेंडरसन	-11.6672
कार्प	-11.6672
▁मौतों	-11.6673
▁नाभि	-11.6673
re	-11.6675
▁असंगत	-11.6679
ग्रह	-11.6682
▁स्वैच्छिक	-11.6682
▁एडमोंटन	-11.6682
▁बर्बर	-11.6684
ेटिव	-11.6686
▁न्यायाधिकरण	-11.6686
गोट	-11.6689
▁रूपरेखा	-11.6689
▁पिरामिड	-11.669
यथार्थवाद	-11.6693
▁मापदंड	-11.6697
▁प्रारंभ	-11.6701
▁रूकी	-11.6702
सात	-11.6707
▁थ्रिलर	-11.6708
▁तस्मानिया	-11.6709
▁संस्था	-11.671
माउंट	-11.6713
सेरा	-11.6715
▁तारे	-11.6716
▁मिल्टन	-11.6717
▁सूअर	-11.6721
रेली	-11.6721
▁कूटबद्ध	-11.6723
▁एड्रियन	-11.6723
▁रोमा	-11.6724
विश	-11.6726
र्गे	-11.6727
चिक	-11.6732
▁चेल्सी	-11.6737
▁मिच	-11.6738
it	-11.6743
▁वल्	-11.6744
▁मॉरिसन	-11.6748
▁विमोचन	-11.6748
▁अयस्क	-11.675
▁गुजरात	-11.6751
▁लूथरन	-11.6751
▁मक्का	-11.6752
गावा	-11.6755
शुद्ध	-11.6757
िड्स	-11.6757
जून	-11.6758
▁चाची	-11.6759
▁हार्पर	-11.676
▁स्टेम	-11.676
नहीं	-11.6762
▁सटे	-11.6762
▁समवर्ती	-11.6767
▁ट्रेंट	-11.6768
▁समक्ष	-11.6769
▁आर्मस्ट्रॉन्ग	-11.677
सेवा	-11.6776
▁मार्क्स	-11.678
▁गेंदबाज	-11.678
▁मुठभेड़	-11.6781
▁क्रॉसिंग	-11.6785
▁शिपयार्ड	-11.6785
▁बजाना	-11.6792
वाला	-11.6794
फ्लै	-11.6796
▁मिडलैंड	-11.6797
▁सीरीज़	-11.6801
▁दिखने	-11.6802
प्रमुख	-11.6802
▁बर्टन	-11.6803
हाइड्र	-11.681
▁बेघर	-11.6811
▁डंकन	-11.6812
फाइल	-11.6814
▁ज्यामिति	-11.6815
▁प्रेरक	-11.6819
▁वारविक	-11.6825
▁फ्रीड्रिच	-11.6826
▁सक्रियता	-11.6826
▁चौकड़ी	-11.6827
सेकंड	-11.6837
▁मुक्केबाज	-11.6838
▁झंडा	-11.6838
पक्षीय	-11.6839
▁अपेक्षा	-11.684
आर्क	-11.6841
▁पोर्टफोलियो	-11.6841
▁पहियों	-11.6841
▁क्लिनिक	-11.6845
▁आउटपुट	-11.6845
▁क्लेमेंट	-11.6848
चर्च	-11.6849
▁रिसेप्टर	-11.685
क्विन	-11.6853
▁विधानमंडल	-11.6856
▁जोड़कर	-11.6858
▁गाथागीत	-11.6859
▁घटनाएँ	-11.6861
कैम	-11.6862
▁अपराधियों	-11.6869
प्री	-11.687
▁हकदार	-11.687
▁जैन	-11.6872
▁लेफ्ट	-11.6873
▁बूथ	-11.6873
▁ग्वांग	-11.6874
▁न्यासी	-11.6874
▁आधुनिकीकरण	-11.6874
▁पाउडर	-11.6875
▁सूजन	-11.688
▁छाती	-11.6882
▁प्लस	-11.6882
▁बुधवार	-11.6885
▁हाइपो	-11.6888
▁स्प्	-11.6889
रूसी	-11.689
▁हमलावर	-11.6891
म्बी	-11.6892
▁ट्रेडमार्क	-11.6893
▁लूथर	-11.6895
▁आचरण	-11.6899
साकी	-11.6901
▁साइंस	-11.6904
▁असमान	-11.6906
वस्तु	-11.6913
श्रृंखला	-11.6914
▁जूते	-11.6914
▁पोस्टर	-11.6918
सिम्	-11.6919
▁परजीवी	-11.6919
िन्स्की	-11.692
▁आशीर्वाद	-11.6922
▁हताहतों	-11.6925
▁परिवेश	-11.6926
▁जोड़ों	-11.6927
▁अंशकालिक	-11.693
▁मंगोलिया	-11.6932
▁बर्क	-11.6932
▁रिएक्टर	-11.6934
▁झरनों	-11.6934
▁डची	-11.6935
▁मानचित्रण	-11.6935
▁स्वच्छ	-11.6937
▁इक्विटी	-11.6937
▁प्रस्तावना	-11.6941
▁किशोरों	-11.6941
कार्बो	-11.6952
▁रुडोल्फ	-11.6952
▁फेलिक्स	-11.6952
▁होंगी	-11.6954
▁दिखता	-11.696
▁डॉक्टरों	-11.6962
▁संतुलित	-11.6964
▁वाइड	-11.6967
▁विल्क	-11.6971
थेरेपी	-11.6971
▁स्वीकृत	-11.6976
▁डेवी	-11.6976
▁झरने	-11.6979
▁दफनाने	-11.698
वाहक	-11.6981
▁लार्	-11.6981
िंगहम	-11.6982
ह्न	-11.6983
िफॉर्म	-11.6985
▁दिवालियापन	-11.6987
▁मकई	-11.6987
▁संपदा	-11.699
चरण	-11.699
▁बैड	-11.6993
पृष्ठ	-11.6996
फूल	-11.6997
▁टेम्पल	-11.6997
बाज	-11.6999
स्टै	-11.7
▁अरु	-11.7
▁खलीफा	-11.7001
एडवेंचर	-11.7001
▁हॉपकिन्स	-11.7005
दिर	-11.7006
घंटा	-11.7007
▁लें	-11.7008
एफएम	-11.701
राजनीतिक	-11.7011
▁सदियों	-11.7013
▁वारंट	-11.7018
ग्नो	-11.702
▁किलोग्राम	-11.7024
▁कुएं	-11.7027
▁मैटथ्यू	-11.7035
▁एबर	-11.7037
स्ट्रोम	-11.7038
▁ड्रेक	-11.7038
▁वसीयत	-11.7039
▁पगडंडी	-11.7039
▁पकाने	-11.704
▁शिकारियों	-11.7043
▁गार्सिया	-11.7044
▁कश्मीर	-11.7046
्बो	-11.7054
▁पैतृक	-11.7054
▁वायरलेस	-11.7055
ेंसिस	-11.7058
▁संगम	-11.706
▁स्लैम	-11.7062
▁बेडफोर्ड	-11.7063
▁अशांति	-11.7066
▁रैम्स	-11.7067
▁अवार्ड्स	-11.7068
▁मोरो	-11.7069
▁वर्णमाला	-11.7069
▁प्रतियोगिताएँ	-11.707
▁साहसी	-11.7073
▁लीवर	-11.7074
en	-11.708
▁वॉयस	-11.7081
▁इंडो	-11.7081
▁दूरबीन	-11.7081
▁लिंडा	-11.7081
अफगान	-11.7088
▁कैनो	-11.709
उर्फ	-11.7093
▁प्रायोजन	-11.7096
पट्ट	-11.7098
▁मैनेजर	-11.71
▁उबर	-11.71
▁किराया	-11.7101
▁वस्तुएँ	-11.7101
▁बारोक	-11.7102
▁वोल्टेज	-11.7103
▁रिसाव	-11.7104
थियो	-11.7105
▁रियायत	-11.7107
सदस्य	-11.7108
▁पौधा	-11.7111
▁घोड़ा	-11.7115
▁डेब्यू	-11.7115
▁राजशाही	-11.7115
▁मैकेंजी	-11.7115
▁कप्तानी	-11.7117
▁नॉटिंघम	-11.7119
▁गुरुवार	-11.7119
▁स्टेप	-11.7123
▁फर्न	-11.7123
न्ने	-11.7124
▁स्लोवेनिया	-11.713
▁मंडप	-11.7132
▁सर्विस	-11.7134
मायो	-11.7137
▁एयरलाइंस	-11.7138
▁पहचानने	-11.7138
ुरो	-11.7139
▁स्कार्	-11.7139
▁विवादित	-11.7141
्जि	-11.7142
क्योंकि	-11.7144
▁एकेडमी	-11.7146
▁कॉर्नवॉल	-11.7146
▁इश	-11.7147
▁आग्नेयास्त्र	-11.7149
▁भिक्षुओं	-11.715
▁शयनकक्ष	-11.7153
▁कस्टम	-11.7153
▁लोकतंत्रवादियों	-11.7154
सही	-11.7164
▁निभाता	-11.717
▁बढ़ाता	-11.7171
▁पैरोडी	-11.7176
▁ढलानों	-11.7178
▁जनरेटर	-11.718
िटिक	-11.7183
▁लोपेज़	-11.7187
▁त्योहारों	-11.719
▁पाक	-11.7191
▁उल्लिखित	-11.7191
▁यकृत	-11.7196
िंगेन	-11.7202
▁परित्यक्त	-11.7203
▁कारखाना	-11.7207
▁ऐश	-11.7208
▁पेशे	-11.721
बाम	-11.7211
▁फ्राय	-11.7211
▁परिसंपत्तियों	-11.7211
▁छापा	-11.7213
प्वाइंट	-11.7218
शास्त्रीय	-11.7221
▁पर्यटकों	-11.7222
▁लाइब्रेरी	-11.7222
स्थल	-11.7224
▁रोचेस्टर	-11.7226
जिले	-11.7227
्शे	-11.7228
▁लात	-11.7229
▁गोरे	-11.7231
▁संभावनाओं	-11.7237
▁पोर्टल	-11.7243
▁दर्शाने	-11.7245
▁फर्नांडो	-11.7253
पैथ	-11.7254
▁रोमानिया	-11.7255
विध	-11.7257
ियॉन	-11.7258
वर्ल्ड	-11.726
▁आंत	-11.726
▁नॉरफोक	-11.7261
▁अनूठी	-11.7264
▁प्रचारित	-11.7271
▁सहस्राब्दी	-11.7272
▁रेखांकित	-11.7276
▁ब्राइटन	-11.7277
▁शांतिपूर्ण	-11.7279
▁इच्छुक	-11.728
▁जियोवन्नी	-11.728
▁अवरोधन	-11.7286
▁ओलिव	-11.7291
▁इब	-11.7293
मिनी	-11.7297
▁मैका	-11.7302
▁ड्रिल	-11.7306
त्ज़	-11.7308
▁कराने	-11.731
▁ईमेल	-11.7312
▁पीड़ा	-11.7314
▁शेरों	-11.7316
▁दबाने	-11.7316
▁रक्षकों	-11.7319
▁तेज़	-11.7319
पैन	-11.7319
इग	-11.7322
▁लुका	-11.7326
▁मानचित्रों	-11.7327
▁हाव	-11.733
पॉट	-11.7331
▁बुखार	-11.7331
▁धूम्रपान	-11.7338
ग्रै	-11.7338
पवित्र	-11.7339
▁अनुभाग	-11.7343
▁चैट	-11.7344
▁मदरसे	-11.7345
गुण	-11.7352
रिडे	-11.7355
▁मत्स्य	-11.7358
फोर्ब्स	-11.7358
▁मछलियों	-11.7362
▁युद्धविराम	-11.7362
गैल	-11.7363
दूर	-11.7363
▁त्रयी	-11.7366
▁जेनिफर	-11.7369
▁भेजी	-11.7371
▁बाघों	-11.7373
▁आवंटन	-11.7373
▁ऑर्थो	-11.7374
▁तिल	-11.7375
▁ट्रिब्यून	-11.7377
▁पहुंचाया	-11.7378
▁निपट	-11.7379
▁वाल्श	-11.7381
▁सौतेले	-11.7381
▁कृति	-11.7383
वास्तव	-11.7388
▁पूर्वव्यापी	-11.7388
▁गलियारे	-11.7389
▁दंडित	-11.7396
▁बहनें	-11.7396
स्कार	-11.7397
▁मातृभूमि	-11.7397
▁कुर्सी	-11.7399
ेक्शन	-11.7399
▁एबीसी	-11.7403
म्बर्ग	-11.7406
▁मोनरो	-11.7407
▁हाउ	-11.7407
▁इंजेक्शन	-11.7409
▁सकल	-11.7411
▁जड़ें	-11.7412
▁रिका	-11.7416
युग	-11.7416
▁वंशजों	-11.7416
▁बढ़ाकर	-11.7418
संवेदनशील	-11.7425
▁डेटिंग	-11.7428
न्डे	-11.7431
▁परीक्षक	-11.7432
▁सिंचाई	-11.7432
▁चूहों	-11.7432
▁छू	-11.7433
क्रिस्ट	-11.7435
▁आवर्ती	-11.7436
▁मैक्रो	-11.7438
▁योगदानकर्ता	-11.7442
क्वो	-11.7443
▁डेढ़	-11.7443
▁आइसलैंड	-11.7445
▁महारत	-11.7449
▁ग्रिफिन	-11.7449
▁फारस	-11.7451
▁विचलित	-11.7452
▁किशोरावस्था	-11.746
▁द्रव	-11.7463
▁दुल्हन	-11.7464
▁स्टार्टर	-11.7466
▁क्षुद्रग्रह	-11.7468
लैब	-11.747
लाइव	-11.7471
▁मार्था	-11.7472
▁बोइंग	-11.7476
▁रणनीतियों	-11.7479
▁संध्या	-11.7483
जॉर्ज	-11.7492
▁कंपन	-11.7493
इटालिया	-11.7499
▁दाल	-11.7505
डॉक्टर	-11.7506
राजनीतिज्ञ	-11.7507
▁समीक्षकों	-11.7507
▁आश्वासन	-11.7507
▁फाइन	-11.7507
▁आपसी	-11.7512
▁आभूषण	-11.7515
▁गला	-11.7515
▁ट्रिगर	-11.7515
▁स्विंग	-11.7517
[	-11.7517
▁महत्वाकांक्षी	-11.7519
हिर	-11.7521
▁ग्रिम	-11.7522
▁पांचवां	-11.7525
कंप	-11.7528
▁दाएं	-11.7535
▁डिस्कोग्राफी	-11.7536
▁क्लारा	-11.7543
▁लगते	-11.7544
धू	-11.7544
▁अब्दुल्ला	-11.7547
ाइड्स	-11.7547
▁आदिम	-11.7549
▁कामुक	-11.755
▁एक्सप्रेसवे	-11.7555
▁ध्रुवीय	-11.7558
टिना	-11.7559
▁लेखिका	-11.7559
क्रॉफ्ट	-11.7559
▁सोप	-11.7561
▁चिकित्सकों	-11.7563
्सवर्थ	-11.7564
्ज़ा	-11.7565
▁जैकेट	-11.7565
▁एंटोन	-11.7565
▁अप्रचलित	-11.7567
कलाकार	-11.7567
▁पढ़ाने	-11.757
जहां	-11.7574
▁उत्प्रेरक	-11.7575
केंद्रित	-11.7575
▁फाल्क	-11.7581
एचएस	-11.7583
िबल	-11.7591
▁समझौतों	-11.7595
्जो	-11.7596
स्टॉप	-11.7599
▁मशीनरी	-11.7599
▁चॉ	-11.7603
................	-11.7606
▁स्विफ्ट	-11.7607
▁जिमना	-11.7608
▁कैन्टन	-11.7609
▁प्रतीकात्मक	-11.7609
▁भाषाई	-11.7609
▁वसा	-11.7619
▁अनुयायी	-11.7623
डिस्	-11.7625
▁रेक्स	-11.7636
▁युद्धपोतों	-11.7639
=	-11.764
▁शौचालय	-11.7643
गर्भ	-11.7644
▁एडविन	-11.7645
▁उगता	-11.7645
▁अनावश्यक	-11.7647
▁निंटेंडो	-11.7647
▁शताब्दियों	-11.7647
▁बेलफास्ट	-11.7648
▁संप्रभु	-11.765
▁दरवाजों	-11.7651
▁प्रोडक्शंस	-11.7651
▁डिफेंस	-11.7651
गुड	-11.7653
▁सर्कल	-11.7657
▁कैंड	-11.766
▁दांतों	-11.7661
▁रिबन	-11.7662
▁मारियन	-11.7662
▁नागा	-11.7664
▁संचय	-11.7667
जैकोब	-11.7668
▁मवेशियों	-11.7671
बाल्ड	-11.7678
▁दौड़े	-11.7679
▁घटाकर	-11.7683
▁डेयरी	-11.7687
▁एंटीना	-11.7688
▁थंडर	-11.7688
परिवर्तन	-11.769
▁सर्वसम्मत	-11.7693
ज़ियर	-11.7697
▁चुनिंदा	-11.7699
▁सिल्वा	-11.7705
▁ऊँचे	-11.7711
▁लड़ते	-11.7712
▁ग्रांट	-11.7712
ाइयों	-11.7713
सरकारी	-11.7715
▁बोलिविया	-11.7715
▁प्रतिबिंब	-11.7716
ग्नि	-11.7719
▁विश्राम	-11.7719
▁सीक्वल	-11.7719
▁मुआवजे	-11.7723
ेंजर	-11.7724
▁मंगोल	-11.7725
बड़े	-11.7726
▁शासकों	-11.7727
▁स्वर्गदूत	-11.7727
II	-11.7731
▁ब्रेंट	-11.7731
▁उंगलियों	-11.7735
▁पड़ोसियों	-11.774
▁ह्यूगो	-11.7741
▁केनेथ	-11.7744
▁कूप	-11.7744
▁पासपोर्ट	-11.7745
▁ताजा	-11.7745
▁ज़िले	-11.7747
▁हमलावरों	-11.7747
▁कुंवारी	-11.7748
▁कॉन्वेंट	-11.7748
▁ज़ीलैंड	-11.7752
▁सीढ़ियों	-11.7756
▁अल्स्टर	-11.776
▁छिपाने	-11.7761
▁लेविन	-11.7765
▁तैराक	-11.7767
▁मिकी	-11.7768
▁ऑपरेटिंग	-11.7768
न्ह	-11.7769
ंभ	-11.777
▁चेसिस	-11.7772
फेड	-11.7773
शेव	-11.7773
स्पाइ	-11.7774
▁प्रावधानों	-11.7776
उत्पाद	-11.7778
▁प्रत्यारोपण	-11.778
▁एमिली	-11.7785
फॉर	-11.779
▁पेटी	-11.7792
▁बाग	-11.7793
ऊपर	-11.7794
▁डूबने	-11.7795
▁लेंगे	-11.7804
▁दुबई	-11.7805
शै	-11.7806
▁शार्प	-11.7806
लैंग	-11.7806
वीडियो	-11.7808
▁कार्यस्थल	-11.781
▁संवेदनशीलता	-11.7814
▁चमड़े	-11.7817
▁बोरिस	-11.7822
▁ड्राइविंग	-11.7824
▁सारी	-11.7824
▁कर्नाटक	-11.7833
▁झाड़ियों	-11.7837
ज़ोव	-11.784
▁नारा	-11.784
▁शक्तियाँ	-11.7842
▁प्रवर्तक	-11.7845
▁टैन	-11.7846
▁आठवीं	-11.7849
▁शेयरों	-11.785
▁नीग्रो	-11.7851
टॉम	-11.7855
▁पीटरसन	-11.7857
▁विशेषण	-11.786
▁फ़्रांसिस	-11.786
▁विसंगति	-11.7861
▁एयरो	-11.7864
▁स्लोवाकिया	-11.7865
▁विन्स	-11.7866
▁लिथुआनियाई	-11.7867
▁मनिटोबा	-11.787
▁विघटित	-11.787
वॉश	-11.7876
आत्म	-11.7878
▁कठोरता	-11.788
▁तमिलनाडु	-11.7882
संघ	-11.7885
▁आर्द्रभूमि	-11.7891
▁पिक्चर्स	-11.7893
▁रियासत	-11.7895
▁कार्लटन	-11.7897
▁कार्बनिक	-11.7897
▁फ़्रैंज़	-11.79
▁उभरे	-11.7909
▁प्रतिच्छेदन	-11.7911
▁हैलिफ़ैक्स	-11.7911
ोसिन	-11.7915
▁गोथिक	-11.7915
तापीय	-11.7916
▁पद्धतिवादी	-11.7916
▁अणु	-11.7917
▁चमकदार	-11.792
इरो	-11.792
▁यूगोस्लाव	-11.7921
▁एंटन	-11.7922
▁अभिन्न	-11.7928
▁पुनर्प्राप्ति	-11.7933
उत्तरी	-11.7938
▁नोटिस	-11.794
हेवन	-11.794
फॉस्फेट	-11.794
▁लॉरी	-11.7944
▁सवारों	-11.7947
▁पनबिजली	-11.7948
वोल्ट	-11.7949
▁इंटेल	-11.7952
लाइस	-11.7952
▁डार्विन	-11.7954
▁अलौकिक	-11.7957
ट्टो	-11.796
▁बाल्डविन	-11.7961
▁सूरज	-11.7961
▁संगठनात्मक	-11.7963
▁नास्कर	-11.7964
▁राष्ट्रवाद	-11.7965
▁सुख	-11.7965
▁नॉक्स	-11.7969
▁पैटरसन	-11.797
▁डिज़नी	-11.7973
▁रोलर	-11.7975
्ह	-11.7976
▁लिमा	-11.7979
▁प्रचारक	-11.7984
▁फ़्रैंकोइस	-11.7984
▁समझाने	-11.7984
▁धब्बे	-11.7986
ट्रै	-11.7987
▁चूहे	-11.799
▁डायलन	-11.7991
▁फसलों	-11.7995
▁अंगूठी	-11.7998
शायद	-11.7998
▁रुपये	-11.8002
▁बल्गेरिया	-11.8004
▁उखाड़	-11.8007
▁पट्टा	-11.8014
▁वलय	-11.8019
वार्ड	-11.8021
बाल्ट	-11.8025
▁जीतीं	-11.803
▁अभिलेखों	-11.803
निवास	-11.8032
▁धर्मार्थ	-11.8038
▁हार्डी	-11.8039
▁स्वायत्तता	-11.8039
सोर्स	-11.8042
▁सबवे	-11.8042
▁झगड़ा	-11.8048
▁सिसिली	-11.8053
▁फ़ीड	-11.8053
ग्लाइ	-11.8055
▁बांसुरी	-11.8057
▁उड़ने	-11.8059
फ्लाइंग	-11.8061
▁स्रोतः	-11.8063
▁इल्	-11.8067
▁रेखाएँ	-11.8069
कार्बन	-11.8069
श्क	-11.807
▁बाला	-11.8072
▁वुड्स	-11.8073
सूचक	-11.8074
▁तराजू	-11.8078
▁नेटफ्लिक्स	-11.8078
▁विस्थापन	-11.8078
▁प्रतियाँ	-11.8078
▁अक्षमता	-11.8081
▁बाल्टिमोर	-11.8082
▁सोमरसेट	-11.8082
▁ड्यूटी	-11.8085
▁पैसिफिक	-11.8086
▁कुओं	-11.8086
रोमन	-11.809
▁पकड़ना	-11.8091
उन्हें	-11.8093
▁बदलते	-11.8093
▁निरीक्षक	-11.8094
▁एस्टोनिया	-11.8095
▁गेहूं	-11.8099
▁एंथ	-11.81
▁एल्गोरिदम	-11.8103
▁यथार्थवादी	-11.8103
▁चर्चिल	-11.8105
▁अनजान	-11.8107
▁पहुँचता	-11.8111
▁कब्रों	-11.8111
▁वायरल	-11.8113
▁ऑस्	-11.8114
यहूदी	-11.8115
▁ताओ	-11.8117
▁पृष्ठीय	-11.8117
▁पहनाया	-11.812
स्क्	-11.8121
भूत	-11.8123
मोर्फ	-11.8125
▁हिच	-11.8128
शाही	-11.8129
▁बर्थ	-11.8131
▁पुनर्स्थापित	-11.8137
▁स्ट्राइकआउट	-11.8137
▁जूली	-11.8139
प्रेरित	-11.8141
लैटिन	-11.8149
्फ़	-11.815
▁फ़ु	-11.8153
▁पहनते	-11.8153
▁यूनेस्को	-11.8153
छोटे	-11.8154
सामाजिक	-11.8154
मैड	-11.8155
▁लिब्रे	-11.8155
रिटा	-11.8156
बार्ड	-11.8156
▁अभूतपूर्व	-11.8158
▁पुनर्विकास	-11.8158
▁कार्नेगी	-11.8158
▁दिवालिया	-11.8166
▁आपकी	-11.8169
▁व्यायामशाला	-11.817
▁विधायक	-11.817
▁राजपत्र	-11.8171
▁निर्वाचक	-11.8175
कोम्ब	-11.8177
▁रैट	-11.8179
▁फेफड़ों	-11.8179
▁विश्वकोश	-11.8179
▁परतों	-11.8179
▁लोहा	-11.8183
मूर्खतापूर्ण	-11.8183
▁महंगे	-11.8184
▁पैंट	-11.8187
▁ग्वाटेमाला	-11.8187
▁मैसेडोनिया	-11.8187
▁दंगों	-11.8188
कॉर्न	-11.819
▁ऑलम्यूजिक	-11.8191
▁बुद्धिमत्ता	-11.8191
▁सतर्क	-11.8192
▁जाहिर	-11.8193
निर्माता	-11.8198
ोइड	-11.8199
▁सिएटल	-11.8204
▁बहने	-11.8204
▁यौगिकों	-11.8205
▁माउंटेन	-11.8206
▁संस्थाओं	-11.8212
शॉट	-11.8216
पंक्ति	-11.8219
लिफ्ट	-11.8219
▁पार्षदों	-11.822
स्केप	-11.822
विलियम	-11.822
▁दुखद	-11.8224
बिना	-11.8225
सिफ	-11.8225
▁फुटपाथ	-11.8225
लंदन	-11.8226
▁वाइस	-11.8226
▁दीर्घा	-11.8227
▁लॉर्ड्स	-11.8227
▁हेलमेट	-11.8229
▁नोबेल	-11.8229
▁लिंडसे	-11.823
बाहन	-11.8231
▁विल्हेम	-11.8231
त्री	-11.8232
▁गेमप्ले	-11.8236
▁आँसू	-11.8238
▁धुंध	-11.8238
▁क्रॉफोर्ड	-11.8238
▁कैसि	-11.8238
▁गुस्ताव	-11.8243
▁रोटी	-11.8246
▁पारिस्थितिक	-11.8246
▁नाते	-11.8253
▁क्विंट	-11.8253
▁कॉलेजिएट	-11.8253
▁हिला	-11.8255
चुक	-11.8255
▁कैलगरी	-11.8256
थलग	-11.8264
पेज	-11.8268
▁मेगावाट	-11.8268
▁कैसा	-11.8269
▁लत	-11.8271
▁अनुवर्ती	-11.8273
▁रिश्वत	-11.8277
▁सब्सिडी	-11.8277
▁संभोग	-11.8277
फ्रेम	-11.8278
▁दिखाते	-11.8281
▁पेरेज़	-11.8282
▁इब्राहिम	-11.8285
▁क्षतिपूर्ति	-11.8285
▁वारसॉ	-11.8286
डोनेल	-11.8291
▁द्विवार्षिक	-11.8298
▁भक्ति	-11.8298
▁बदमाश	-11.8298
बूटियों	-11.8303
▁विध्वंस	-11.8306
▁मंगलवार	-11.8307
▁डार्ट	-11.831
▁जनेइरो	-11.8311
▁अनुपालन	-11.8311
▁अमीरात	-11.8313
▁ढुलाई	-11.8315
▁अश्लील	-11.832
▁ट्रेसी	-11.8321
डिट	-11.8323
▁तटरेखा	-11.8323
▁जूलियस	-11.8328
▁हेंड्रिक	-11.8328
▁कारोबार	-11.8329
▁नेपल्स	-11.8329
▁क्राइस्ट	-11.8332
▁लीसेस्टर	-11.8332
▁एटलांटा	-11.8337
▁बेस्ट	-11.8338
प्रेम	-11.8339
▁डोरोथी	-11.8341
▁संख्याएँ	-11.8343
▁जिं	-11.8344
ज़ियोन	-11.835
▁शॉपिंग	-11.8351
▁टेट्रा	-11.8351
▁उड़ानें	-11.8353
डिस्क	-11.8354
संख्या	-11.8355
▁मुट्ठी	-11.8358
▁ट्रिम	-11.8358
▁फिजी	-11.8359
▁क्षमा	-11.8364
▁स्नाइडर	-11.8371
▁स्टर्लिंग	-11.8376
कोविक	-11.8384
▁एरिज़ोना	-11.8384
▁यादगार	-11.8389
▁रसद	-11.839
▁स्वीकार्य	-11.8392
सैट	-11.8398
▁वीजा	-11.8398
फ्लाई	-11.8412
▁शत्रुता	-11.8414
▁गैरेज	-11.8416
मेटो	-11.8426
▁टिकाऊ	-11.8428
▁डाइऑक्साइड	-11.8432
लैग	-11.8433
▁विंटर	-11.8433
▁क्रमः	-11.8434
▁इमेजिंग	-11.8449
▁सुनहरे	-11.845
▁आत्माओं	-11.8452
▁अर्थशास्त्री	-11.8453
▁उपेक्षा	-11.8454
▁जेनेट	-11.8458
▁दलदली	-11.8458
▁पेट्रोलियम	-11.8459
▁सब्सट्रेट	-11.8462
अल्ब	-11.8463
▁मुंह	-11.8475
▁प्लाज्मा	-11.8476
युग्म	-11.8477
▁फ्रेंक	-11.8478
▁पैरालंपिक	-11.848
▁मेट्रोपॉलिटन	-11.848
न्याय	-11.8481
▁ज़ै	-11.8482
▁मुगल	-11.8482
आर्ग	-11.8483
▁अंगूर	-11.8486
युवा	-11.8487
▁कनिष्ठ	-11.8489
▁गुर्दे	-11.8489
----------------	-11.849
ज्ज	-11.8491
▁कॉर्नल	-11.8493
▁ठंड	-11.8495
▁चित्रकारी	-11.8497
▁गड्ढों	-11.8502
▁रूढ़िवादियों	-11.8502
ंबर	-11.8503
▁बाहों	-11.8504
ग्रुप	-11.8506
▁रोमांचक	-11.8508
▁सिटकॉम	-11.851
ers	-11.8513
▁अल्जेरिया	-11.8515
ग्रोव	-11.8515
हाउंड	-11.8517
▁राक्षसों	-11.8519
क्रिप्ट	-11.8521
लिवर	-11.8522
▁मेपल	-11.8522
▁इंडियानापोलिस	-11.8524
▁हेलसिंकी	-11.8528
टिक्स	-11.8534
▁मेडि	-11.8534
डिज	-11.8536
▁दायरा	-11.8537
▁रहेंगे	-11.8538
▁अल्बेनिया	-11.8541
▁स्लोवाक	-11.8547
प्रणाली	-11.8549
▁बेरोजगारी	-11.8551
▁कवियों	-11.8553
▁फ्रेसर	-11.8566
▁काइले	-11.857
▁डिप्टी	-11.8572
▁ब्लॉ	-11.8575
▁दाएँ	-11.8578
▁यमन	-11.858
▁अत्याचार	-11.8581
▁कारीगर	-11.8581
मणि	-11.8585
विट्ज़	-11.8596
▁बिल्डर	-11.8596
शास्त्री	-11.8599
▁क्यूरेटर	-11.8603
▁लाइनें	-11.8605
▁स्टड	-11.8607
$	-11.861
▁गुणसूत्र	-11.8616
▁जोरदार	-11.8618
▁उभयचर	-11.8621
▁सास्काटचेवन	-11.8621
▁शटल	-11.8622
▁सैंटो	-11.863
मार्च	-11.8632
▁परिसंघ	-11.8638
▁मूत्र	-11.8639
▁कैला	-11.8643
ंस्की	-11.8644
▁मधुर	-11.8647
कॉट	-11.8647
▁बैंग	-11.8649
पहली	-11.8654
▁नाभिक	-11.8657
कॉम्ब	-11.8663
▁असुरक्षित	-11.8665
▁हिमनद	-11.8665
://	-11.8665
▁सैक्सोफोन	-11.8665
▁कामुकता	-11.8668
▁पाठ्यपुस्तक	-11.8674
▁जुलूस	-11.8678
पुरुष	-11.8684
▁गुरिल्ला	-11.8687
▁स्टुअर्ट	-11.8687
▁सभागार	-11.8687
▁डिक्सन	-11.8689
▁निकलती	-11.8694
िंगहैम	-11.8696
▁तिरु	-11.8696
▁स्टैन	-11.8698
es	-11.8699
फ्रंट	-11.87
▁पॉलिन	-11.8701
ेलियन	-11.8702
▁जेनेवा	-11.8705
▁स्टीरियो	-11.8706
फोर्स	-11.871
▁चिन्ह	-11.871
▁नलिका	-11.8711
बुच	-11.8714
▁ईसाइयों	-11.8714
▁परिधि	-11.8718
▁क्लॉड	-11.8721
▁अविश्वास	-11.8723
स्क्यू	-11.8726
▁भड़क	-11.8728
▁परिसंचरण	-11.8732
▁अपरिवर्तनीय	-11.8741
▁शौकीन	-11.8741
▁वोंग	-11.8743
▁ऊंची	-11.8745
▁देखती	-11.8748
▁निषेध	-11.875
जिन्होंने	-11.875
▁फ्रॉम	-11.8754
▁छुट्टियों	-11.8754
स्पष्ट	-11.8756
▁रियलिटी	-11.8759
▁पायस	-11.876
▁जेफ्री	-11.8762
▁नवगठित	-11.8763
प्रत्येक	-11.8764
▁आपका	-11.8768
▁भूमध्य	-11.8769
मेटिक	-11.8772
▁पोषक	-11.8777
▁गुहा	-11.8777
▁जेराल्ड	-11.8781
▁चमकीले	-11.8786
लक्ष्य	-11.8787
▁पांडुलिपियों	-11.8792
▁क्रोध	-11.8792
▁सममित	-11.8793
पुट	-11.8794
▁करेंगी	-11.8798
▁भूखंड	-11.8804
बार्ब	-11.8808
▁फरमान	-11.8809
▁एटलस	-11.881
▁प्रभावशीलता	-11.8811
▁अकि	-11.8811
▁लिस्बन	-11.8813
▁रेखाचित्र	-11.8815
ुलु	-11.8818
▁आलू	-11.8819
▁मोर्	-11.8821
▁ताजे	-11.8825
ब्रिया	-11.8827
▁हफ	-11.883
▁जस्टिस	-11.8831
▁रोवर	-11.8832
▁वायुमंडलीय	-11.8832
▁सिंगल	-11.8832
▁किस्मों	-11.8836
कल्चर	-11.8838
▁लिनक्स	-11.8839
▁कौवे	-11.8839
▁नाबालिग	-11.884
▁फ़्रैंक	-11.8841
▁स्पाइक	-11.8842
▁ड्रॉप	-11.8842
▁अनाथ	-11.8849
▁सेवामुक्त	-11.885
▁सूख	-11.8851
▁स्मरण	-11.8854
रिं	-11.8861
▁कैंडी	-11.8866
हालाँकि	-11.8867
▁वितरक	-11.8867
▁हॉरर	-11.8868
शॉक	-11.8869
▁बचाता	-11.8869
▁सैंटोस	-11.887
▁ढके	-11.8871
▁माइंड	-11.8873
▁निर्देशांक	-11.8873
▁चेन्नई	-11.8876
▁दिख	-11.8877
▁छिड़	-11.8881
डेल्फ	-11.8883
▁शील्ड	-11.8885
▁सख्ती	-11.8885
▁संप्रभुता	-11.8887
तंत्र	-11.8889
▁मोटरवे	-11.889
▁स्प्रिंट	-11.8891
▁डरावनी	-11.8894
▁कतार	-11.8895
▁उपराष्ट्रपति	-11.8895
▁महाराष्ट्र	-11.8896
▁स्पर्धा	-11.8899
▁विचलन	-11.8899
▁हॉफमैन	-11.8899
डर्म	-11.8899
▁भेड़िया	-11.89
▁उठाते	-11.8901
प्रोट	-11.8902
ह्र	-11.8902
▁जोड़ना	-11.8907
स्प्रे	-11.8909
▁अल्बानिया	-11.8911
स्ट्रै	-11.8911
▁प्रागैतिहासिक	-11.8913
▁देखकर	-11.8917
अध्यक्ष	-11.8918
स्वीट	-11.8921
▁पोर्टुगल	-11.8922
▁संलयन	-11.8922
▁डाले	-11.8922
▁संयोग	-11.8923
भौतिक	-11.8923
▁विकासशील	-11.8925
▁रूपांतरित	-11.8926
▁भाला	-11.8929
▁खींचने	-11.893
▁गाथा	-11.8933
▁चुंबक	-11.8934
▁स्केच	-11.8935
▁ज्यामितीय	-11.8935
मूर्ति	-11.8937
रिकॉर्ड	-11.8938
▁विश्वसनीयता	-11.894
▁डायमंड	-11.8943
गामी	-11.8948
▁पशुधन	-11.8949
▁यकीन	-11.8949
्यूशन	-11.8949
▁वर्सेस्टर	-11.8954
▁सत्यापित	-11.8954
स्पिर	-11.8956
▁गद्य	-11.8958
▁गवाहों	-11.8961
▁पक्षपात	-11.8962
▁कितनी	-11.8964
विंड	-11.8965
▁माइल	-11.8967
▁सीईओ	-11.8968
▁बुरे	-11.8969
मिस्ट्री	-11.897
▁समृद्धि	-11.897
▁डेरेक	-11.8972
▁रीगन	-11.8974
बैर	-11.8974
▁सरदार	-11.8976
▁कोलम्बस	-11.8977
▁कथाएँ	-11.8977
▁मुर्गी	-11.8979
▁वॉट	-11.8979
▁मूर्तियाँ	-11.8979
▁नोआ	-11.8981
▁कारखानों	-11.8981
▁पिशाच	-11.8981
ोलॉजिस्ट	-11.8981
▁घूमता	-11.8985
शीर्ष	-11.8986
▁जातीयता	-11.8987
▁कॉम्	-11.8989
▁चेज़	-11.8989
▁अलबामा	-11.899
▁फिट्ज	-11.899
पुस्तक	-11.8993
▁पाँचवाँ	-11.8995
▁बिल्डिंग	-11.9004
प्लेट	-11.9007
▁लैंकेस्टर	-11.9009
▁उगाहने	-11.9013
र्टो	-11.9015
▁अल्बनी	-11.9018
▁मुकाबले	-11.9023
▁मनु	-11.9026
▁फेडरेशन	-11.9027
त्सा	-11.9035
▁नाइट्रोजन	-11.9036
▁निर्वहन	-11.9036
फ्रांस	-11.9044
▁न्यायपालिका	-11.9046
▁योजनाएं	-11.9046
▁स्लॉट	-11.9047
कॉर्ट	-11.9049
▁किंगस्टन	-11.9055
▁चेतना	-11.9055
आर्थिक	-11.9055
▁मोज़ेक	-11.906
पृष्ठभूमिः	-11.9062
▁गामा	-11.9063
▁निक्सन	-11.9063
▁घोंघे	-11.9069
▁प्रत्यय	-11.9069
▁रिकन	-11.907
पीटर	-11.9077
▁आँखों	-11.9078
▁श्मिट	-11.908
▁हर्जेगोविना	-11.9083
पॉड	-11.9085
▁स्टालिन	-11.9088
▁ग्रिफिथ	-11.9092
▁उपभोक्ताओं	-11.9095
▁वेशभूषा	-11.9097
मेजबान	-11.9098
▁बग	-11.91
▁क्लाइड	-11.9103
▁धर्मशास्त्रीय	-11.9103
आधुनिकतावाद	-11.9105
▁मरीना	-11.9107
ामाइन	-11.911
▁नाद	-11.9112
▁परिधान	-11.9115
▁धागे	-11.9115
▁रीमेक	-11.9117
▁बतख	-11.912
्गा	-11.9122
▁गर्ल्स	-11.913
▁म्यूज़	-11.9131
जिन्हें	-11.9137
▁पतले	-11.9144
▁विकासवादी	-11.9145
▁जोशुआ	-11.9148
▁गैबल	-11.915
▁फिल्टर	-11.9151
ग्यु	-11.9157
▁सवाना	-11.9157
मॉन्	-11.9161
▁मिशनरियों	-11.9162
फ्रैंक	-11.9162
▁एंड्रॉइड	-11.9166
▁अंदरूनी	-11.9166
▁पैट्र	-11.9169
महिलाओं	-11.9175
▁युवावस्था	-11.9176
फैंट	-11.9177
पुरुषों	-11.9177
▁ब्लेयर	-11.9178
▁मान्य	-11.9183
▁बुलडॉग	-11.9185
एमएलबी	-11.9187
डोंट	-11.9187
▁बताए	-11.919
साइक्ल	-11.9194
▁ओलंपिया	-11.9199
▁बूम	-11.9202
विश्वास	-11.9203
कंट्री	-11.9209
▁हेनरिक	-11.9209
रिओ	-11.9217
▁साउथम्प्टन	-11.9218
▁जेरेमी	-11.9218
▁कुवैत	-11.9223
जेनिक	-11.9227
वुमन	-11.9229
▁डेवलपर	-11.9232
▁गांधी	-11.9232
▁भांग	-11.9233
▁कार्डिनल्स	-11.9233
▁भुजा	-11.924
▁चॉकलेट	-11.9242
▁अर्न्स्ट	-11.9242
▁डोर्	-11.9244
▁स्तनधारियों	-11.9246
▁मुलर	-11.925
▁किफायती	-11.9251
▁रखें	-11.9252
▁जटिलताओं	-11.9252
▁इंडोनेशियाई	-11.9254
▁तितली	-11.9256
▁संख्यात्मक	-11.9256
▁प्रतिलेखन	-11.9258
▁मॉस	-11.9258
किर्क	-11.9258
▁कक्षीय	-11.926
▁पोर्टसमाउथ	-11.926
▁हड्डियों	-11.926
▁स्नेह	-11.9262
▁प्रतिष्ठानों	-11.9262
िलिया	-11.9263
▁दर्जनों	-11.9263
▁पद्धति	-11.9264
▁सड़े	-11.9265
▁घूमते	-11.927
ुलेटर	-11.927
्लु	-11.927
▁कॉम्पैक्ट	-11.9275
ेसिया	-11.9275
▁उटाह	-11.9279
िस्लाव	-11.9279
▁साइंसेज	-11.928
▁पोर्टो	-11.9281
ाइज़र	-11.9282
▁पियर्स	-11.9284
▁संयम	-11.9285
▁कार्निवल	-11.9289
डिग	-11.9294
▁मिश्र	-11.9303
▁कचरा	-11.9308
▁प्रतिज्ञा	-11.931
▁कैसर	-11.931
द्वीप	-11.9312
▁वर्गाकार	-11.9317
▁दिशाओं	-11.9318
▁गेलिक	-11.9318
▁समायोजन	-11.9322
▁नक्काशीदार	-11.9324
▁बटर	-11.9324
▁पुष्प	-11.9327
अंग्रेज़ी	-11.9331
क्यो	-11.9335
▁सज्जन	-11.9336
▁रोगजनक	-11.9338
▁बस्तियाँ	-11.9341
▁नाजुक	-11.9346
▁इवान्स	-11.9347
▁मंद	-11.9348
▁परिवर्तनशील	-11.9349
जहाँ	-11.935
▁वैटिकन	-11.9355
▁गंध	-11.9356
्रिन	-11.9363
फोल्ड	-11.9363
ुलो	-11.9363
▁अध्यादेश	-11.937
▁सामग्रियों	-11.937
▁रैंप	-11.9374
स्विले	-11.9377
▁राइडर	-11.9378
▁महत्वाकांक्षा	-11.9379
▁स्थलाकृति	-11.9379
पैड	-11.938
▁आकृतियों	-11.9381
▁विंडो	-11.9383
▁डाकुओं	-11.9389
▁ज्वालामुखीय	-11.939
▁सुर्रे	-11.9393
ic	-11.9394
दर्शक	-11.9395
▁अणुओं	-11.9397
ह्ल	-11.94
ड्रम	-11.94
▁डायरेक्ट	-11.9403
▁दयालु	-11.9404
▁लियोपोल्ड	-11.9408
▁फौ	-11.9411
▁चार्ल्सटन	-11.9412
िंडा	-11.9415
पुथल	-11.9418
निर्भर	-11.9419
▁चुप	-11.9419
महाविद्यालयी	-11.9426
▁आवेश	-11.9427
▁कोष्ठक	-11.9428
प्यार	-11.943
▁प्रचालक	-11.9432
▁स्टर्	-11.9435
▁दिलाया	-11.9437
▁मोलस्क	-11.9439
▁पैराशूट	-11.9441
▁बंगाली	-11.9442
स्टॉर्म	-11.9443
▁तर्कसंगत	-11.9452
▁मानविकी	-11.9454
▁टैप	-11.9459
▁ट्रेवर	-11.946
▁निविदा	-11.9461
▁सैल्मन	-11.9461
▁बुराई	-11.9462
▁अल्बानियाई	-11.9463
▁आवेदक	-11.9465
स्टेशन	-11.9474
▁ब्रुनो	-11.9487
नैतिक	-11.9489
सूत्र	-11.949
▁श्रवण	-11.9494
▁ईश्वर	-11.9495
▁ऑल्ट	-11.9495
▁स्थलीय	-11.9497
▁नैश	-11.9502
▁वसूली	-11.9504
▁पिछला	-11.9509
▁चैपमैन	-11.9514
▁निकलते	-11.9516
▁ताना	-11.9517
▁एंजेलो	-11.9519
▁पूर्वावलोकन	-11.9523
▁वसीयतनामा	-11.9523
ंट्ज़	-11.9525
▁क्रूज़	-11.9525
▁राजमिस्त्री	-11.9528
▁अखिल	-11.9532
ल्हा	-11.9535
▁विषाक्तता	-11.9536
िंटन	-11.9537
▁लोम्बार्ड	-11.9538
▁लंग	-11.9539
संगत	-11.954
▁स्कीइंग	-11.9544
▁इष्टतम	-11.9548
▁चुंबन	-11.9548
▁हमारा	-11.9551
▁चिकनी	-11.9552
▁रात्रिभोज	-11.9553
▁लीप्जिग	-11.9553
न्हा	-11.9554
▁घृणा	-11.9557
▁नदियाँ	-11.9562
▁हैंडबॉल	-11.9563
▁सूचियों	-11.9572
▁मार्टिनेज	-11.9573
भारत	-11.9574
▁सद्भाव	-11.9577
▁क्रु	-11.9579
▁नार्	-11.9581
▁सत्तारूढ़	-11.9582
▁शत्रुतापूर्ण	-11.9583
▁चुनौतीपूर्ण	-11.9584
ेव्स्की	-11.9585
फिक्स	-11.9586
▁ब्लै	-11.9589
▁चेकोस्लोवाकिया	-11.9589
▁लगाकर	-11.9591
▁व्यायाम	-11.9592
▁डौग	-11.9592
▁समोआ	-11.9596
▁शुभंकर	-11.9596
▁बागवानी	-11.9597
स्पिन	-11.9597
▁आविष्कारक	-11.96
▁साठ	-11.96
▁गढ़ा	-11.9601
▁मैक्सवेल	-11.9602
▁त्रासदी	-11.9606
▁पुनर्प्राप्त	-11.961
वेल्ड	-11.9616
▁मेकअप	-11.9616
▁बेदखल	-11.9621
▁लाभान्वित	-11.9621
▁तदनुसार	-11.9626
▁सूखी	-11.9632
▁तेलुगु	-11.9636
▁स्पेशल	-11.9636
▁विष	-11.9636
▁बर्च	-11.9641
▁जॉकी	-11.9641
रेडियो	-11.9646
▁जेनकिन्स	-11.9647
▁पौ	-11.9647
▁न्यूफाउंडलैंड	-11.965
▁उथले	-11.966
मेटाक्रिटिक	-11.966
▁ध्वन्यात्मक	-11.966
▁छिपे	-11.9662
गिटार	-11.9665
▁संपीड़न	-11.9665
▁एबॉट	-11.9666
▁प्रीस्टन	-11.9669
▁बिल्लियों	-11.967
▁अखंडता	-11.967
▁मंदी	-11.967
▁साम्यवाद	-11.9677
▁आयर्स	-11.9677
▁तिब्बती	-11.968
▁फिलहार्मोनिक	-11.968
▁निचला	-11.968
उपयोग	-11.968
▁पैडल	-11.969
▁छीन	-11.9693
हाइड्रो	-11.9697
▁मुँह	-11.97
▁वक्ताओं	-11.9701
▁साइकिलिंग	-11.9702
▁बहता	-11.9704
▁कचरे	-11.9704
▁अनुग्रह	-11.971
▁रूबी	-11.9713
▁ग्रैन	-11.9714
▁हाथीदांत	-11.9714
क्वेट	-11.9718
▁महिमा	-11.972
हॉस	-11.9722
▁टोयोटा	-11.9724
▁स्नैप	-11.9724
▁नकदी	-11.9726
▁लुभा	-11.9729
▁बैरेट	-11.9729
▁योशि	-11.9732
▁माल्ट	-11.9733
▁धोने	-11.9739
▁स्कैंडिनेविया	-11.9739
▁जलविभाजक	-11.974
हैंड	-11.9743
कॉप	-11.9743
मृत	-11.9745
▁दरवाजा	-11.9749
▁जिम्मेदारियों	-11.9749
▁डंडी	-11.9757
▁उत्तीर्ण	-11.9759
▁संवेदक	-11.9759
▁उलझ	-11.9767
▁गोलार्ध	-11.9774
▁नाट्य	-11.9774
▁पैरवी	-11.9779
साढ़े	-11.9779
ब्रिक	-11.9782
क्विट	-11.9783
▁मोनिका	-11.9788
▁अस्वीकृति	-11.9789
▁क्रिस्टीन	-11.9789
वोग	-11.9789
▁कार्यशालाओं	-11.9791
▁अक्षांश	-11.9794
▁सीबीएस	-11.9794
▁ड्यूश	-11.9796
▁लायक	-11.9797
▁प्रक्षेपित	-11.9799
▁<</	-11.9799
▁फ्लैग	-11.9799
▁होल्डिंग	-11.98
स्टैट	-11.9802
▁लाउड	-11.9807
▁ईर्ष्या	-11.9809
▁फाइब	-11.9809
▁उपोष्णकटिबंधीय	-11.9814
▁बिकीं	-11.9814
▁बोलियों	-11.9816
▁नॉर्डिक	-11.9816
▁होल्डिंग्स	-11.9818
▁लीडर	-11.982
▁मैत्रीपूर्ण	-11.9824
▁रुकने	-11.9824
▁स्टेक्स	-11.983
▁पूर्णांक	-11.9832
▁किराने	-11.9836
▁कैनबरा	-11.984
▁नॉर्टन	-11.9843
जबकि	-11.9843
ोइड्स	-11.9844
▁पहनी	-11.9844
▁बॉम्बे	-11.9844
ट्रिक्स	-11.9844
▁खनिकों	-11.9846
▁विश्वव्यापी	-11.9847
▁रेगे	-11.9849
राष्ट्र	-11.9852
▁छात्रावास	-11.9854
जापानी	-11.9854
▁ओबेर	-11.9857
पक्षपातपूर्ण	-11.9858
▁एंगेल	-11.9858
▁मकबरा	-11.9859
▁प्रतिक्रियाएँ	-11.986
ैंथ	-11.9863
▁दिलाई	-11.9865
प्पे	-11.9868
▁रेलमार्ग	-11.987
▁एल्म	-11.9872
▁पॉवेल	-11.9874
▁वर्चस्व	-11.9874
▁मौतें	-11.9874
जिग	-11.9874
▁स्थिरांक	-11.9875
गुप्त	-11.9877
मुद्रास्फीति	-11.9879
▁पेंगुइन	-11.9879
▁धुएँ	-11.9879
▁आत्मविश्वास	-11.9879
डॉट	-11.988
▁गैरीसन	-11.9881
▁लैप्स	-11.9883
वित्त	-11.9887
▁बैठकें	-11.9888
▁फिटनेस	-11.9895
▁कैमरों	-11.9896
लिसिस	-11.9899
▁प्रोविडेंस	-11.9899
यहाँ	-11.99
▁उत्तेजित	-11.9904
अभिभावक	-11.9909
▁निकोल्स	-11.9912
▁टाइटन्स	-11.9919
भगवान	-11.9921
▁प्रिंस्टन	-11.9923
▁बेसिलिका	-11.9924
▁ऑलिव	-11.9926
▁मेयो	-11.9931
▁एलिज़ाबेथ	-11.9934
▁मोंटेनेग्रो	-11.9934
▁सस्ते	-11.9934
▁ब्रह्म	-11.9934
▁रिची	-11.9935
▁पहिये	-11.9939
▁मॉनिटर	-11.9939
▁प्रशस्त	-11.9939
सिप	-11.9941
▁फ्रीमैन	-11.9943
▁डैश	-11.9952
▁वॉटसन	-11.9952
▁मेमोरी	-11.9954
▁लौरा	-11.9956
▁वर्नन	-11.9961
▁रैंडी	-11.9963
▁पुजारियों	-11.9964
▁लक्ज़मबर्ग	-11.9964
▁स्याही	-11.9964
▁प्लग	-11.9967
सार्वजनिक	-11.9973
▁संवहन	-11.9975
टैग	-11.9977
▁स्ट्राइक	-11.9979
▁सरणी	-11.998
▁टीकाकरण	-11.9985
▁दिखाती	-11.9995
पोर्	-12.0003
▁अधीनस्थ	-12.0007
▁प्रकाशस्तंभ	-12.001
▁श्वसन	-12.001
▁बर्गेन	-12.0011
▁ब्रोंकोस	-12.0014
नारायण	-12.0015
▁फ़िल्टर	-12.0015
ब्राइट	-12.0016
▁फाड़	-12.0016
▁मायर्स	-12.0027
▁शैवाल	-12.0032
▁कमोडोर	-12.0036
▁झटका	-12.0036
चंद्र	-12.0038
ध्वनि	-12.0038
at	-12.0039
जैक्स	-12.004
▁फोटोग्राफिक	-12.0041
▁रोजमर्रा	-12.0041
बाउंड	-12.005
▁जेरोम	-12.0051
▁मानकीकृत	-12.0057
▁सुदृढीकरण	-12.0066
km	-12.0066
▁मिलीग्राम	-12.0067
▁मिखाइल	-12.0071
▁क्रिस्टीना	-12.0072
▁उत्साहित	-12.0075
▁आइकन	-12.0077
▁बराक	-12.0079
शियल	-12.008
स्टैंड	-12.0083
▁सूक्ष्मजीव	-12.0087
▁साबुन	-12.0087
▁द्वीपवासी	-12.0087
▁प्लांट	-12.0087
अर्थ	-12.0096
।"(	-12.0098
▁हेन्स	-12.0101
▁ऑक्साइड	-12.0108
▁प्रदाताओं	-12.0109
लाइफ	-12.0111
्रिग	-12.0111
बढ़ी	-12.0115
▁कुरान	-12.0115
▁डायनासोर	-12.0117
▁बाएँ	-12.0118
▁धर्मयुद्ध	-12.012
▁ब्रायंट	-12.0123
▁जितनी	-12.0123
एक्शन	-12.0125
▁आरामदायक	-12.0128
▁मठाधीश	-12.0128
▁गुफाओं	-12.0129
▁स्तंभकार	-12.0132
▁स्टीलर्स	-12.0133
▁छाल	-12.0137
▁दोषसिद्धि	-12.0138
▁हताहत	-12.014
▁जुटाए	-12.0143
▁धमनी	-12.0143
▁क्रूरता	-12.0144
▁मुखौटा	-12.0148
▁स्टंट	-12.015
▁प्रविष्टियों	-12.0155
प्लास्ट	-12.0166
▁हार्लेम	-12.0167
▁लकीर	-12.0169
भोग	-12.0176
▁आतंक	-12.0182
▁डालते	-12.0189
्शा	-12.0194
▁निष्कासन	-12.0195
कविता	-12.0197
औ	-12.0197
स्थानीय	-12.0199
▁मैक्ले	-12.0199
▁बुल्गारिया	-12.0205
▁ट्यूनिसिया	-12.0205
▁ट्रंक	-12.0206
क्वीन	-12.0208
▁सटन	-12.0208
िंघम	-12.022
▁बुलाने	-12.022
▁बधिर	-12.0221
▁सर्पिल	-12.0221
पेड	-12.0222
▁सॉन्ग	-12.0224
वोल्फ	-12.023
▁तृतीयक	-12.023
▁टेक्नोलॉजी	-12.0231
▁ऑगस्टस	-12.0232
▁सराहा	-12.0237
▁रिसेप्टर्स	-12.0239
▁कुत्ता	-12.024
▁जंप	-12.0241
▁कंप्यूटिंग	-12.0242
▁ध्वनियों	-12.0245
▁धातुओं	-12.0245
▁भूरा	-12.0251
▁बदनाम	-12.0253
▁जलाने	-12.0255
▁उल्लू	-12.0258
▁प्रसव	-12.026
▁मौद्रिक	-12.0263
▁लैंगिक	-12.0266
▁पैकेट	-12.0267
▁हैदराबाद	-12.0268
▁गुणांक	-12.0269
▁सीडीपी	-12.0269
▁मैकार्थी	-12.0273
▁सियोल	-12.0284
फुटबॉलर	-12.0286
▁कठपुतली	-12.0289
▁श्वा	-12.0294
▁मिन्नेपोलिस	-12.0299
▁सिंध	-12.0301
▁कैमियो	-12.0308
▁एस्टोनियन	-12.031
▁मकड़ी	-12.031
▁ओवरटाइम	-12.0311
▁माउस	-12.0314
▁अंधेरे	-12.0319
▁डचेस	-12.0321
▁बेल्	-12.0324
▁नवजात	-12.0325
्स्का	-12.033
▁गुड़िया	-12.0331
▁जेसिका	-12.0336
क्लॉ	-12.0337
▁ज़ुरिच	-12.0337
▁धारणाओं	-12.0339
▁चट्टानें	-12.0339
▁क्रोक	-12.034
▁प्राइस	-12.0342
▁पाशा	-12.0346
▁जॉर्ग	-12.0351
▁दावत	-12.0354
जर्मेन	-12.0355
ब्लास्ट	-12.0356
स्वप्न	-12.0359
is	-12.0361
▁लैम्बर्ट	-12.0366
▁लैंकाशायर	-12.0367
▁अवरोध	-12.0369
▁सेमिनार	-12.037
▁रीति	-12.037
पुराने	-12.0372
▁मछुआरों	-12.0373
▁एम्बुलेंस	-12.0378
▁ज्ञापन	-12.0378
्चा	-12.0379
▁बारबरा	-12.0379
▁नोएल	-12.0382
▁रचनाएँ	-12.0383
▁अपतटीय	-12.0383
▁मधुमेह	-12.0383
▁यूरेनियम	-12.0383
माइकल	-12.0384
▁अटारी	-12.0389
क्वी	-12.0395
ोसॉरस	-12.0397
▁बजरी	-12.0397
▁अनजाने	-12.0401
▁आँकड़े	-12.0404
▁अकाल	-12.0404
▁आंध्र	-12.0415
कोशिकीय	-12.0415
ऑस्ट्रेलियाई	-12.0415
▁सिलि	-12.0416
▁बैडमिंटन	-12.042
धार्मिक	-12.0422
▁अल्बा	-12.0425
▁त्रिज्या	-12.0426
विषय	-12.0427
▁पंट	-12.0427
▁बल्ले	-12.043
चढ़ाव	-12.0431
▁एजुकेशन	-12.0436
▁फंतासी	-12.0436
▁प्रबल	-12.0439
▁बवेरिया	-12.0442
अक्ष	-12.0442
▁यूएसएसआर	-12.0442
▁नील्सन	-12.0443
▁सचेत	-12.0447
व्यवस्था	-12.0455
▁पुरस्कृत	-12.0457
▁घिरी	-12.0457
▁घाटियों	-12.0466
दैनिक	-12.0477
▁बूंद	-12.0478
▁ईमानदारी	-12.0479
▁राजप्रतिनिधि	-12.0479
▁डेमोक्रेट	-12.0479
इंटर	-12.0482
▁प्रताड़ित	-12.0484
▁अनिश्चितता	-12.0492
▁टोरोंटो	-12.0495
पहला	-12.0499
▁जेस्से	-12.05
▁वानिकी	-12.05
▁स्पार्टन	-12.0501
▁बीटल्स	-12.0503
▁मोर्टार	-12.0506
▁पैंथर्स	-12.0506
अक्सर	-12.051
▁इसाबेल	-12.051
▁विश्लेषणात्मक	-12.0511
▁शौक	-12.0513
▁उपभोग	-12.0513
▁लेनिन	-12.0513
▁घूमती	-12.0516
▁बिहार	-12.0517
▁विजिटिंग	-12.0522
▁रीडिंग	-12.0523
▁मीट्रिक	-12.0524
▁एलेनोर	-12.0525
▁जीवाणु	-12.0527
▁असहमत	-12.0536
▁रौ	-12.0537
हिट	-12.054
▁पंक्तियाँ	-12.0542
▁फेरारी	-12.0543
वाइज	-12.0548
मेट्रिक	-12.0548
▁वेश्या	-12.0554
▁अपोस्टोलिक	-12.0559
ायत	-12.0559
▁सिलाई	-12.056
▁फेरे	-12.0561
▁चढ़ने	-12.0562
▁मूवी	-12.0565
▁गैलो	-12.0567
सिलिया	-12.0569
▁सोमाली	-12.0575
ोपोड	-12.0578
आपके	-12.058
▁फाल्	-12.0583
▁पर्किन्स	-12.0586
▁सिंथ	-12.0599
▁गीले	-12.0601
▁इआन	-12.0608
▁एडिसन	-12.061
एनिमे	-12.061
▁जैकॉब्स	-12.0613
▁डुबो	-12.0619
▁फिसल	-12.0619
▁ग्रॉस	-12.062
▁उतारने	-12.0623
▁चश्मे	-12.0624
क्लोरो	-12.0624
डॉग	-12.0627
▁त्रिनिदाद	-12.0635
▁ब्रश	-12.0639
▁अक्षय	-12.0647
▁कंडक्टर	-12.0651
▁चौंका	-12.0652
▁मैक्सिम	-12.066
तिहाई	-12.0661
▁फॉस्फोर	-12.0663
▁ग्लैम	-12.0665
▁तार्किक	-12.0673
▁अपराजित	-12.0678
▁महमूद	-12.0678
▁इंटरचेंज	-12.0689
▁किलोवाट	-12.0689
▁हार्टफोर्ड	-12.0701
▁एडगर	-12.0704
▁मलयालम	-12.0705
▁कुटीर	-12.0705
▁रिंक	-12.0708
सोवियत	-12.071
▁नापसंद	-12.0711
वर्धित	-12.0711
▁डाउ	-12.0711
▁ट्वीट	-12.0711
।..]	-12.0712
▁आनुपातिक	-12.0716
▁एकाग्रता	-12.0716
▁हेरिटेज	-12.0716
▁मुख्यमंत्री	-12.0722
▁कैल्शियम	-12.0727
▁जिब्राल्टर	-12.0727
▁पेट्रोल	-12.0732
अंतर्राष्ट्रीय	-12.0732
▁रहस्योद्घाटन	-12.0733
▁सेंसरशिप	-12.0733
▁कॉर्नेल	-12.0735
▁डिपार्टमेंट	-12.0738
▁ओसाका	-12.0738
▁टिमोथी	-12.0744
▁सॉफ्टबॉल	-12.0749
▁एशले	-12.075
▁वाटसन	-12.075
क्लिक	-12.075
▁विशुद्ध	-12.0752
▁फ्लू	-12.0754
पाषाण	-12.0754
ग्लै	-12.0755
डक्ट	-12.0757
▁रिसर्च	-12.076
▁गरिमा	-12.076
▁मैडोना	-12.0761
▁द्वीपसमूह	-12.0763
▁क्रमबद्ध	-12.0764
▁अनिच्छुक	-12.0765
▁एलजीबीटी	-12.0765
▁जीमिना	-12.0776
▁मनोचिकित्सा	-12.0777
पारंपरिक	-12.0778
▁अंधेरा	-12.0779
रिज़ॉल्यूशन	-12.0782
▁ड्रेस्डेन	-12.0787
▁दाढ़ी	-12.0787
▁पीतल	-12.0789
▁पाब्लो	-12.0791
वैज्ञानिक	-12.0794
जिनमें	-12.0798
▁आउटडोर	-12.0801
▁सीमांत	-12.0803
▁खाती	-12.0805
▁विकृति	-12.0806
▁बार्सिलोना	-12.0809
▁संन्यास	-12.081
▁हॉज	-12.0811
▁सल्फर	-12.0816
▁वाइकिंग्स	-12.0818
▁पढ़ाते	-12.0819
▁पॉलिटेक्निक	-12.0826
▁पहेली	-12.0826
▁मॉरिस	-12.0832
▁भूस्खलन	-12.0837
▁बैठता	-12.0837
शॉप	-12.0837
▁लवण	-12.0839
▁सैंडर्स	-12.0842
▁गॉस्पेल	-12.0843
▁व्योमिंग	-12.0843
▁सोफी	-12.0847
संग्रह	-12.0852
प्रवाह	-12.0852
ड्रॉ	-12.0854
कनाडा	-12.0856
शाब्दिक	-12.0857
▁भोज	-12.0857
▁मनोरोग	-12.0859
वैक	-12.0862
▁सोडियम	-12.0867
▁रक्तस्राव	-12.087
▁मीठे	-12.087
▁कोलेमैन	-12.0874
▁दाख	-12.088
सिलेंडर	-12.0881
▁सेंटीमीटर	-12.0881
▁सर्वोपरि	-12.0887
▁सीमावर्ती	-12.0891
▁अप्रयुक्त	-12.0892
▁सिगरेट	-12.0892
कर्षण	-12.0901
सामने	-12.0903
▁सिंडिकेट	-12.0908
mi	-12.0912
▁प्रतिध्वनि	-12.0914
▁अपरिवर्तित	-12.092
▁मैसेडोनियन	-12.092
▁प्रीमियम	-12.092
▁अमान्य	-12.0921
▁रस्सी	-12.0922
▁निकारागुआ	-12.0926
▁जल्दबाजी	-12.0928
डेविड	-12.0931
▁नॉर्विच	-12.0931
▁लड़ाइयों	-12.0932
▁वायुमंडल	-12.0932
▁हिसाब	-12.0937
▁ब्रून	-12.0941
्निया	-12.0942
ियोलॉजी	-12.0943
▁बंधे	-12.0944
रॉबिन	-12.0944
प्रिंट	-12.0945
▁ड्रग्स	-12.095
▁संवादात्मक	-12.0952
▁असंतोष	-12.0954
▁जादुई	-12.0954
▁हारोल्ड	-12.0954
▁अनिच्छा	-12.0959
▁भृंग	-12.0959
▁इंडियन	-12.0962
▁इस्तांबुल	-12.0965
▁राजद्रोह	-12.0965
▁इसाबेला	-12.0966
क्रांति	-12.0966
▁झूल	-12.0975
ोफोन	-12.098
▁पठन	-12.0982
▁सिरिल	-12.0987
▁ताप	-12.0988
ल्ट्ज	-12.099
▁हॉकिन्स	-12.1
▁भरपाई	-12.1004
भविष्य	-12.1007
ड्रोम	-12.1009
▁मौकों	-12.1009
▁आतंकवादियों	-12.1011
▁सैक्सनी	-12.1013
▁मर्सिडीज	-12.1015
▁दिलाता	-12.1017
▁महंगा	-12.1017
▁अपलोड	-12.1021
▁अब्बास	-12.1025
▁रोशन	-12.1029
▁पॉटर	-12.1029
▁पनडुब्बियों	-12.1032
▁सर्वोत्तम	-12.1032
▁जेरार्ड	-12.1033
▁ड्राई	-12.1039
▁बंडल	-12.1042
▁मैग्नेट	-12.1042
▁बुनाई	-12.1044
रविवार	-12.1047
▁गैरकानूनी	-12.1049
▁जगुआर	-12.1049
▁नॉर्म	-12.106
▁बोलचाल	-12.1061
▁आंगन	-12.1061
▁उत्तराधिकारियों	-12.1061
▁बिरादरी	-12.1066
▁गोमेज़	-12.1066
▁डैनिश	-12.107
पाँच	-12.1071
▁कैनवास	-12.1075
▁एक्सबॉक्स	-12.1077
▁विनीपेग	-12.1078
सुंदर	-12.1079
कनाडाई	-12.1083
▁टकसाल	-12.1083
क्वेस्ट	-12.1086
▁जमानत	-12.1089
▁डौ	-12.1094
▁हतोत्साहित	-12.1095
▁आइसलैंडिक	-12.1099
▁पैगंबर	-12.11
▁कम्प्यूटेशनल	-12.1106
▁धूमकेतु	-12.1106
▁ट्राउट	-12.1112
▁बकिंघम	-12.1112
▁गैंब	-12.1113
▁काउंटेस	-12.1114
▁स्पार्क	-12.1119
▁ठहराव	-12.1123
▁स्पाइडर	-12.1123
▁एबरडीन	-12.1129
▁सचिवालय	-12.1131
▁निजीकरण	-12.1132
▁चुड़ैल	-12.1134
दिवसीय	-12.1135
▁सिनक्लेयर	-12.114
▁चिमनी	-12.114
दूसरा	-12.1141
फ्राइड	-12.1145
▁सुस्त	-12.1148
▁फर्गुसन	-12.1151
पहिया	-12.1152
▁कज़ाख	-12.1157
▁ऋषि	-12.1157
▁पत्तों	-12.1157
▁ड्राइंग	-12.1157
▁स्पीकर	-12.1157
▁हर्लिंग	-12.1159
ग्रैंड	-12.1159
▁ड्रू	-12.1163
एड्स	-12.1164
फ्रि	-12.117
▁कैल्विन	-12.1175
▁कॉटेज	-12.118
ुलेशन	-12.1181
▁वॉलेस	-12.1181
▁अपघटन	-12.1186
▁कितने	-12.1187
▁यूनिट	-12.119
▁माइगुएल	-12.1191
▁शिशुओं	-12.1192
▁प्रभार	-12.1193
क्विस्ट	-12.1195
▁स्टटगार्ट	-12.1197
▁जनवादी	-12.1198
▁अपडेट	-12.12
▁प्लेटफार्म	-12.1202
▁मॉन्स	-12.1203
थ्रू	-12.121
▁नजरबंद	-12.1214
▁विपुल	-12.1218
▁अल्फोंसो	-12.1219
▁उपनिवेशवाद	-12.1219
फ़िश	-12.122
▁आर्मेनियन	-12.122
▁गॉथिक	-12.122
▁कैटलॉग	-12.1226
▁रहमान	-12.123
▁धब्बों	-12.1232
▁कर्लिंग	-12.1232
▁ओरिएंटल	-12.1232
▁उन्नीस	-12.1233
▁सादे	-12.1234
▁वित्तपोषित	-12.1237
▁सिक्का	-12.1241
▁दूषित	-12.1243
▁ट्रांसजेंडर	-12.1249
▁स्क्रैप	-12.1249
▁नर्सरी	-12.1252
▁लालटेन	-12.1253
न्यूक्लिय	-12.1255
▁तांग	-12.1258
▁स्तनधारी	-12.1261
▁कैंपबेल	-12.1261
▁इमाम	-12.1263
संरचना	-12.127
गार्डे	-12.128
प्राकृतिक	-12.1289
▁बगदाद	-12.1289
▁भेड़िये	-12.129
▁स्टू	-12.1291
▁संक्रामक	-12.1295
▁लापरवाही	-12.1295
▁अवार्ड	-12.1299
वाशिंगटन	-12.1307
▁ताबूत	-12.1307
पाउंड	-12.1316
ोव्स्क	-12.1318
▁ब्रिटनी	-12.132
▁वंशानुगत	-12.1324
▁एलएलसी	-12.1324
▁डियाज़	-12.1331
▁पोर्टेबल	-12.1331
▁रिटर्न	-12.1332
▁नर्तकियों	-12.1332
▁परिधीय	-12.1336
▁बुलेटिन	-12.1336
▁घोल	-12.134
▁सुरक्षात्मक	-12.1343
बिल्ड	-12.1346
▁ओमाहा	-12.1347
ट्राइ	-12.1351
▁लैगून	-12.1353
▁बहुपद	-12.1353
▁सर्वनाम	-12.1354
▁तैरते	-12.1354
▁अंपायर	-12.1359
▁मगरमच्छ	-12.1359
▁हिप्पो	-12.1359
िंथ	-12.1364
▁शतक	-12.1365
लिटिल	-12.1368
▁हॉग	-12.137
▁अवशोषण	-12.137
▁म्यांमार	-12.1376
▁उंगली	-12.1376
इस्लाम	-12.1379
▁फूड	-12.1381
▁प्रहार	-12.1388
▁अमृत	-12.1388
▁अप्रवासियों	-12.1394
▁पत्नियों	-12.1394
▁आरेख	-12.1394
बंदूक	-12.1396
जुलता	-12.14
▁गणितशास्त्री	-12.14
फ्लीट	-12.14
शानदार	-12.1405
फर्नांड	-12.1407
▁संवेदी	-12.1411
▁अस्थि	-12.1413
बिंदु	-12.1421
अभिनय	-12.1421
▁बूढ़े	-12.1429
▁ढाका	-12.1435
▁लैक्रोस	-12.1447
▁लचीले	-12.1452
▁ज़ागरेब	-12.1458
धारक	-12.1464
▁बरामदे	-12.1468
▁कंटेनर	-12.1476
▁निष्कर्षण	-12.1477
▁अराजकतावादी	-12.1479
▁मर्क	-12.1485
▁दर्दनाक	-12.1488
पैट्रिक	-12.1491
▁शाकाहारी	-12.1494
▁एयरोस्पेस	-12.1494
▁ब्लैंच	-12.1495
▁एग्नेस	-12.1495
▁तं	-12.15
द्रव्य	-12.1502
▁ब्लेज़	-12.1504
▁संपन्न	-12.1505
▁सेनेगल	-12.1508
पुनर्	-12.1511
▁वाटरलू	-12.1514
ज्वारीय	-12.1514
▁जुटाया	-12.1517
▁बारहमासी	-12.1517
िज़्म	-12.1518
▁महानिदेशक	-12.1523
▁वासिल	-12.1541
▁भतीजी	-12.1541
▁चेरोकी	-12.1541
स्पॉ	-12.1545
▁फार्	-12.1549
▁समतुल्य	-12.1553
थोर्प	-12.1558
▁गुमनाम	-12.1559
▁सुससेक्स	-12.1565
▁सहिष्णुता	-12.1565
▁उपसर्ग	-12.1571
▁रूबेन	-12.1575
▁रिकार्डो	-12.1577
▁सुपरमार्केट	-12.1579
▁बंधा	-12.158
▁कागजात	-12.1584
▁चादर	-12.1584
▁कलेक्टर	-12.1589
▁स्केटर	-12.1591
▁शुक्राणु	-12.1594
▁मदरसा	-12.1595
▁अर्न	-12.1595
▁महंगी	-12.1601
▁वॉल्यूम	-12.1603
खिलाड़ी	-12.1603
▁साइक्लो	-12.1605
▁लाइब्रेरियन	-12.1606
▁बाल्कन	-12.1607
फोंटेन	-12.1607
ड्राइव	-12.161
क्लै	-12.1612
▁कस्बों	-12.1618
▁डिस्ट्रिक्ट	-12.1618
▁कैस्केड	-12.1618
▁सिलिकॉन	-12.1619
▁अवज्ञा	-12.1619
▁गुर्	-12.1624
▁व्यर्थ	-12.1624
▁उबल	-12.1629
▁घुलनशील	-12.1636
▁जियोफ्रे	-12.1637
▁चमगादड़	-12.1648
च्ची	-12.1652
▁ढह	-12.1655
▁पॉकेट	-12.1656
ग्लियो	-12.1657
▁सम्मानजनक	-12.1658
▁पिकनिक	-12.1659
▁अंडाशय	-12.166
▁प्रूशियन	-12.1666
▁हेवीवेट	-12.1666
▁सपनों	-12.1666
▁धक्का	-12.1666
▁खेद	-12.1675
▁प्लास्टर	-12.1676
▁प्रेषण	-12.1678
▁स्क्रि	-12.1681
▁पैंतरेबाज़ी	-12.1684
भूरे	-12.1685
▁रैंडल	-12.1685
▁अलंकृत	-12.169
▁अहंकार	-12.169
सच्चा	-12.1691
▁विश्वासघात	-12.1696
▁मोर्चा	-12.1698
एपिसोड	-12.1702
▁निहितार्थ	-12.1703
▁निर्देशिका	-12.1705
म्बु	-12.1705
▁क्रिस्टियन	-12.1708
समीक्षा	-12.1708
▁कार्ट्रिज	-12.1708
प्रवण	-12.1709
▁हस्तांतरित	-12.172
▁बहनोई	-12.1721
▁नारीवाद	-12.1724
▁परिसंपत्ति	-12.1726
▁विद्युतीकरण	-12.1727
▁निम्नानुसार	-12.1733
▁कैमरून	-12.1739
पेशेवर	-12.1739
▁तनावपूर्ण	-12.1739
प्रदर्शन	-12.1739
▁हाइड्रोलिक	-12.174
▁किंवदंतियों	-12.1745
▁पुनर्वितरण	-12.1751
▁लेखांकन	-12.1751
▁आज्ञा	-12.1751
▁पुनर्स्थापना	-12.1751
▁संवाददाताओं	-12.1756
▁सुपरहीरो	-12.1757
लोगों	-12.1762
▁सूर्यास्त	-12.1763
▁ट्रामवे	-12.1763
▁बर्फबारी	-12.1764
जिप्	-12.1769
▁रसायनज्ञ	-12.177
ब्रेकिंग	-12.1771
▁आर्लिंगटन	-12.1775
▁नामीबिया	-12.1775
▁पुनर्जन्म	-12.1777
व्हाइट	-12.1784
▁बिताते	-12.1793
▁दोगुनी	-12.1799
इंजन	-12.1805
▁बहरीन	-12.1807
▁संश्लेषित	-12.1811
▁इवेंजेलिकल	-12.1818
▁रिपब्लिक	-12.1821
▁होंठ	-12.1827
▁टॉरेस	-12.1832
▁अनुप्रयुक्त	-12.1836
▁प्रसाद	-12.1836
▁वर्डे	-12.184
▁पश्च	-12.1846
ाल्डो	-12.1852
लंबे	-12.1852
▁मालकिन	-12.1861
▁तोड़फोड़	-12.1866
▁व्यवधान	-12.1866
▁कसम	-12.1869
फ्रिड	-12.1872
▁भक्त	-12.1872
▁सिराक्यूज	-12.1873
▁ब्रांडेड	-12.1876
▁लाइनबैकर	-12.1879
ग्लाइको	-12.188
▁भाले	-12.188
▁उद्घोषक	-12.1885
▁रीजेंट	-12.1887
▁वादे	-12.1891
ोविट्ज़	-12.1895
▁व्हीलचेयर	-12.1897
▁स्वादिष्ट	-12.1897
▁प्रेयरी	-12.1897
▁जेवियर	-12.1899
लक्ष्मी	-12.1903
शैक्षिक	-12.1909
▁कैप्सूल	-12.1916
▁बाईपास	-12.1916
▁विडंबना	-12.1916
▁फिट्जगेराल्ड	-12.1922
▁पर्याय	-12.1923
▁कलाकृतियाँ	-12.1923
▁इंट्रा	-12.1928
▁फव्वारे	-12.1928
▁रैंडोल्फ	-12.1928
छु	-12.1928
▁स्क्रॉल	-12.1929
▁तंजानिया	-12.1934
▁क्रॉसओवर	-12.1936
▁सैंट	-12.194
जागरूक	-12.194
▁हैब्सबर्ग	-12.1941
▁क्रॉनिकल	-12.1946
▁व्युत्क्रम	-12.1946
▁न्यासियों	-12.1948
सैन्य	-12.1949
पेप्टाइड	-12.196
अप्रैल	-12.196
▁ब्रासिल	-12.1962
▁अल्जीरियाई	-12.1965
▁फ़ॉन्ट	-12.1965
▁कारभारी	-12.1965
▁ब्रैक	-12.1968
▁अनुक्रमण	-12.197
▁तालिबान	-12.1971
▁बोलोग्ना	-12.1977
▁अलेक्जेंड्रा	-12.1979
शिकागो	-12.1979
▁दर्रे	-12.1982
ुद्दीन	-12.1988
▁घिरे	-12.199
▁अप्रभावी	-12.199
▁निकोले	-12.1991
▁लोअर	-12.1998
▁ग्लोरिया	-12.2002
▁दैर्ध्य	-12.2014
▁सौतेली	-12.2015
ब्रै	-12.202
▁अग्निशामक	-12.2021
▁सिंथेटिक	-12.2021
▁स्लाविक	-12.2022
▁डॉल्फिन	-12.2027
▁फिगर	-12.2027
▁तकनीशियन	-12.2033
▁कैमिल	-12.2036
▁पृथक्करण	-12.2039
▁प्रोपेलर	-12.2046
▁रॉथ	-12.2057
▁औषधीय	-12.2058
▁न्यूरॉन्स	-12.2071
▁कोलकाता	-12.2071
▁लार्सन	-12.2075
▁ग्रीनविच	-12.2076
▁रेडियल	-12.2083
▁देशभक्ति	-12.2084
▁उपनिवेशवादियों	-12.2087
▁ऊंचे	-12.2089
▁मैरियन	-12.2092
▁धरोहर	-12.2096
▁एंटवर्प	-12.2096
▁परिपूर्ण	-12.2096
▁डायनेमो	-12.2102
!!	-12.2107
▁गुआम	-12.2107
▁फ़ोर	-12.2108
▁रेबेक्का	-12.2108
▁कन्नड़	-12.2108
▁चेशायर	-12.2109
पृथ्वी	-12.2114
▁चाइना	-12.2116
▁प्रवचन	-12.2121
▁बोल्शेविक	-12.2121
▁थर्मो	-12.2122
▁फॉल्ट	-12.2123
▁प्रूसिया	-12.2127
▁लोरेंजो	-12.2127
▁सत्यापन	-12.2133
▁ट्रॉय	-12.2138
▁नियत	-12.2139
▁बेहोश	-12.214
हंगेरियन	-12.214
संबंधित	-12.2146
संरक्षक	-12.2147
▁ब्युनोस	-12.2165
काल्पनिक	-12.2166
▁ब्लैकबर्न	-12.217
▁बार्नेट	-12.2178
▁घोषणापत्र	-12.2182
▁एटलेटिको	-12.2184
▁ऑर्किड	-12.2184
▁शिथिल	-12.219
▁कलकत्ता	-12.2196
▁डॉजर्स	-12.2203
▁आसवन	-12.2206
बाध्यकारी	-12.2212
▁ड्रोन	-12.2215
▁श्रेष्ठ	-12.2215
गर्भाशय	-12.2215
▁जकार्ता	-12.2215
▁ऑक्सीकरण	-12.2216
▁सिखाने	-12.2218
▁प्रतिध्वनित	-12.222
▁विट्	-12.2224
▁अनुसूचित	-12.2228
इतिहास	-12.2231
▁स्टीमर	-12.2234
▁कोलंबस	-12.2234
▁निदेशालय	-12.2234
मैकेनिकल	-12.2235
लुईस	-12.2239
अलेक्जेंड्र	-12.224
▁मानहानि	-12.2241
▁पिक्चर	-12.2245
ानंद	-12.2247
▁असंबंधित	-12.2259
सम्मान	-12.2264
▁अविवाहित	-12.2273
▁पितृसत्ता	-12.2273
▁वैधानिक	-12.2273
▁भावी	-12.2276
▁बैंकॉक	-12.2279
▁अनुनाद	-12.2285
▁क्वींस	-12.2292
▁हथौड़ा	-12.2298
▁उपसमूह	-12.2303
▁खनिक	-12.2307
▁जुपिटर	-12.2311
▁कसाई	-12.2315
आधिकारिक	-12.2317
▁नक्षत्र	-12.2317
क्रेस्ट	-12.2318
▁तात्पर्य	-12.2324
▁झगड़े	-12.233
▁फोरेंसिक	-12.233
▁चार्लोट	-12.2337
▁नास्तिक	-12.2337
▁ताह	-12.2339
▁वाइकिंग	-12.2342
हल्क	-12.2343
▁हार्बर	-12.2347
▁व्हा	-12.2348
▁आईट्यून्स	-12.235
▁शादीशुदा	-12.235
संयुग्म	-12.2354
▁खिलौना	-12.2356
▁शुभारंभ	-12.2356
▁दीर्घाओं	-12.236
▁मनोचिकित्सक	-12.2362
▁उत्परिवर्ती	-12.2369
▁निर्विरोध	-12.2369
▁मनोदशा	-12.2369
▁संरचित	-12.2369
▁ब्रोंक्स	-12.2375
▁तुलसी	-12.2376
▁लपेट	-12.2377
▁फिलीप	-12.2377
▁बकाया	-12.2379
सुरक्षा	-12.2384
▁तंबू	-12.2389
▁साइबेरिया	-12.2401
▁अंगोला	-12.241
▁ओवरलैप	-12.2414
▁शहद	-12.2414
▁ऑगस्टिन	-12.2415
▁छवियाँ	-12.2419
▁उकसाया	-12.2421
▁सदमे	-12.2427
▁रेतीले	-12.2427
▁रजिस्ट्री	-12.2433
▁होंडुरास	-12.244
▁पास्कल	-12.2448
▁म्यूजियम	-12.2466
▁महासभा	-12.2472
▁शैलीबद्ध	-12.2474
ियंट	-12.2474
▁परिप्रेक्ष्य	-12.2479
▁उपसमुच्चय	-12.2485
▁तुलनीय	-12.2492
▁एल्बियन	-12.2493
▁लिम्फ	-12.2498
▁अड्डों	-12.2499
इन्फ	-12.2504
जुलाई	-12.2505
अलविदा	-12.2505
▁समरूप	-12.2506
▁गुब्बारे	-12.2512
▁ग्लोसेस्टर	-12.2512
▁न्यायशास्त्र	-12.2514
▁बैटरियों	-12.2518
▁शर्ली	-12.2518
िन्हो	-12.2522
▁नेलसन	-12.2523
▁चरागाह	-12.2525
▁आवधिक	-12.2538
▁संतोषजनक	-12.2538
▁सदिश	-12.2544
पीछे	-12.2551
फिड	-12.2552
▁पछाड़	-12.2557
▁लक्जरी	-12.2557
▁ढाई	-12.2564
▁तुरिन	-12.257
▁तपेदिक	-12.2577
▁तेहरान	-12.2584
रिवाजों	-12.259
▁संवर्धन	-12.2597
ट्यूब	-12.2602
▁उद्भव	-12.2603
▁प्राणियों	-12.2603
▁फार्मेसी	-12.2605
▁दिनचर्या	-12.261
▁नाश्ते	-12.261
▁ब्राउज़र	-12.2617
▁बुएनोस	-12.2617
▁लाभदायक	-12.263
▁संबोधन	-12.263
▁पिंजरे	-12.2636
अगस्त	-12.2639
▁शब्दार्थ	-12.2641
▁टैलबोट	-12.2643
▁जिमनास्टिक	-12.2643
▁संयोजक	-12.265
फ्रांसीसी	-12.2653
भारतीय	-12.2654
▁पपुआ	-12.2657
▁हर्नांडेज़	-12.2663
▁त्रिभुज	-12.267
▁ठिकानों	-12.2676
▁मधुमक्खी	-12.2683
▁पत्ती	-12.269
▁बवेरियन	-12.2696
▁बैंगलोर	-12.2696
▁गोंजालेज	-12.271
▁पूर्ववर्तियों	-12.271
▁फायदेमंद	-12.2716
▁जागीरदार	-12.272
▁लयबद्ध	-12.2724
▁भाड़े	-12.273
नागरिक	-12.2739
▁बर्खास्तगी	-12.2741
▁नियोक्ताओं	-12.2742
▁लोककथाओं	-12.2743
▁द्विभाषी	-12.2744
▁एचआईवी	-12.275
▁लीजिए	-12.275
▁आवृत्तियों	-12.2759
▁दुष्प्रभाव	-12.2763
▁नाकाबंदी	-12.2763
ुल्ला	-12.2765
एंजेल	-12.2771
▁श्रोताओं	-12.2772
▁किस्में	-12.2777
▁लिमेरिक	-12.2779
▁प्रबलित	-12.278
▁स्थलचिह्न	-12.2783
ेनहैम	-12.2787
ेनस्टीन	-12.279
▁कॉमर्स	-12.2791
▁हैरोल्ड	-12.2791
▁लाहौर	-12.2797
▁मॉर्मन	-12.2797
▁पारदर्शी	-12.28
ऋ	-12.2803
▁डिटेक्टर	-12.281
▁क्वालीफाई	-12.2817
ड्रैगन	-12.2818
शासित	-12.2824
▁बदतर	-12.2831
▁ओसबोर्न	-12.2831
▁रंगभेद	-12.2835
▁ओल्सन	-12.2836
▁संपीड़ित	-12.285
▁स्वयंसेवी	-12.285
▁ट्यूडर	-12.2861
▁शारोन	-12.2863
▁छावनी	-12.2864
▁सट्टेबाज	-12.2864
सितंबर	-12.2866
▁अंटार्कटिका	-12.2878
▁पंचायत	-12.2885
▁थर्मल	-12.2885
▁अनुशंसित	-12.2891
▁रिसेप्शन	-12.2891
▁प्लैंक	-12.2893
▁मार्क्सवादी	-12.2893
▁पैरोल	-12.2896
विजेता	-12.29
▁दुर्भाग्यपूर्ण	-12.29
▁रूढ़िवादिता	-12.2905
▁टेननेसी	-12.2905
कप्तान	-12.2908
मॉडल	-12.2912
▁कंपनियाँ	-12.2913
▁तिथियों	-12.2914
सूर्य	-12.2915
▁थैले	-12.2915
▁मोजार्ट	-12.2925
▁श्वार्ज	-12.2929
▁परिक्रमा	-12.2932
▁विज्ञप्ति	-12.2939
▁कमांडेंट	-12.2939
▁कामकाजी	-12.2939
फ्रेंच	-12.295
▁वनस्पतियों	-12.2951
▁आर्किटेक्ट	-12.2959
▁फ़्लैंडर्स	-12.2959
▁कोल्ट्स	-12.2962
▁मेहमान	-12.2964
▁विधियाँ	-12.2965
▁चरवाहे	-12.2966
जेनेसिस	-12.2966
▁टोकरी	-12.2966
▁सार्थक	-12.2973
▁पागलपन	-12.2975
▁स्वीप	-12.2989
▁आजीविका	-12.2993
▁संग्राहक	-12.2993
▁विखंडन	-12.2994
▁बल्ब	-12.2995
▁किराये	-12.2999
▁सर्वव्यापी	-12.3001
अक्टूबर	-12.3007
▁निमोनिया	-12.3007
▁क्रैमर	-12.3014
▁भीड़भाड़	-12.3014
▁सैयद	-12.3014
▁विल्हेल्म	-12.3021
ाइज्ड	-12.3028
▁फ़्रांसिस्कन	-12.3028
पिछले	-12.3028
▁अतिक्रमण	-12.3035
▁नाखून	-12.3035
▁गांठ	-12.3042
▁तराशा	-12.3042
▁जीवविज्ञानी	-12.3048
इसलिए	-12.3049
▁तीर्थयात्रा	-12.3062
▁स्टीवेन्सन	-12.3062
▁इरविंग	-12.3062
संतृप्त	-12.3069
▁भाईचारे	-12.3069
▁बार्कर	-12.307
्स्काया	-12.3073
▁यूनिवर्सल	-12.3083
▁दीपक	-12.3084
शांति	-12.3085
कृष्ण	-12.3085
छोटी	-12.3085
▁सैक्रामेंटो	-12.309
▁मल्टीमीडिया	-12.309
▁सच्ची	-12.3092
▁खानाबदोश	-12.3097
▁वस्तुनिष्ठ	-12.3097
नवंबर	-12.3099
▁ठहरात	-12.3104
▁व्हिप	-12.3104
▁त्रुटियों	-12.3106
▁जेसूट	-12.3111
शून्य	-12.3121
▁हेल्थ	-12.3122
▁अपरिहार्य	-12.3125
▁बायरन	-12.3128
▁फ्रिट्ज	-12.313
▁कॉम्प्लेक्स	-12.3132
आयरिश	-12.3135
▁आपातकाल	-12.3138
▁ठहराने	-12.3138
▁परिलक्षित	-12.3138
▁सिम्मन्स	-12.3138
▁हैनकॉक	-12.3146
▁गोमांस	-12.3152
▁स्लैब	-12.3163
▁परोपकार	-12.317
▁ड्रग	-12.3185
प्रशांत	-12.3185
▁प्राच्य	-12.3187
▁मोजाम्बिक	-12.3187
▁सोमालिया	-12.3187
▁एंटीबॉडी	-12.3194
▁हैस्टिंग्स	-12.3202
▁एएए	-12.3202
▁लंबित	-12.3208
▁पिक्सेल	-12.3209
▁तृतीय	-12.3211
▁अखाड़े	-12.3215
▁डिस्प्ले	-12.3215
▁क्लिफोर्ड	-12.322
▁डेविल्स	-12.3229
▁ग्लाइडर	-12.323
▁मोर्गन	-12.3232
▁मैग्नस	-12.3232
▁कुर्दिश	-12.3236
▁पिटसबर्ग	-12.3251
ोसौर	-12.3259
▁लॉरेंट	-12.3261
▁भरपूर	-12.3265
पेट्र	-12.3266
▁रेसकोर्स	-12.3272
▁गैल्	-12.3281
▁लाफायेट	-12.3293
▁खगोलशास्त्री	-12.3293
▁राजस्थान	-12.3294
▁जमींदार	-12.33
▁इमर्सन	-12.33
्रियो	-12.3305
▁फ्रैंचाइज़ी	-12.3307
▁आधारशिला	-12.3307
▁फ्रॉस्ट	-12.331
▁मृतकों	-12.3311
▁रवांडा	-12.3314
▁बालकनी	-12.3314
▁सत्तर	-12.3321
संभवतः	-12.3323
▁बर्लिंगटन	-12.3335
▁सिल्विया	-12.3336
▁मुझसे	-12.3342
▁उपजाऊ	-12.3342
▁वर्णों	-12.3345
▁रखेंगे	-12.3349
रैखिक	-12.3352
अद्भुत	-12.336
निश्चित	-12.3368
यूक्रेन	-12.3368
▁आकांक्षा	-12.3371
▁युवक	-12.3371
▁आवेग	-12.3371
▁लेक्सिंगटन	-12.3371
तुर्की	-12.3375
▁सेलुलर	-12.3378
▁आत्मसात	-12.3378
▁अनदेखी	-12.3385
▁पहनता	-12.3385
▁फुजि	-12.3389
▁शैलियाँ	-12.3392
▁इंडियंस	-12.3392
▁शंकर	-12.3393
मित्र	-12.3394
▁ऑयल	-12.3396
▁पट्टियाँ	-12.3399
▁फ़्रैं	-12.341
▁स्टडीज	-12.341
▁एम्ब्रोस	-12.3414
▁मशरूम	-12.3421
▁ट्वेंटी	-12.3428
▁मुंस्टर	-12.3435
▁प्राइमेरा	-12.3437
▁बुद्धिजीवियों	-12.3442
▁पुरातत्वविद्	-12.3443
▁कालानुक्रमिक	-12.3449
▁संगरोध	-12.3449
▁चौधरी	-12.3457
▁बर्मिंगहम	-12.3457
▁मनमाने	-12.3457
▁शुल्	-12.3457
▁पूँजीवाद	-12.3464
▁ट्रूमैन	-12.3464
▁वर्णक	-12.3468
प्रारंभिक	-12.347
▁खरोंच	-12.3471
▁दिमित्र	-12.3471
▁स्राव	-12.3476
▁फ्रैक्चर	-12.3485
▁कराधान	-12.3492
▁धूसर	-12.3493
▁फाउल	-12.3496
▁स्वीकारोक्ति	-12.35
▁सरीसृप	-12.3514
अस्तित्व	-12.3515
▁इमानुएल	-12.3521
▁भूगर्भीय	-12.3521
▁अपाचे	-12.3521
एम्पायर	-12.3526
हॉसेन	-12.3538
ान्ज़ा	-12.3542
▁निशानेबाज	-12.3543
▁नेवार्क	-12.3544
▁सहसंबंध	-12.3545
▁कार्यक्षमता	-12.355
▁सिपाही	-12.355
▁फायदा	-12.355
दिसंबर	-12.3552
▁अवगत	-12.3562
स्लिप	-12.3563
▁पर्यवेक्षण	-12.3565
▁आशाजनक	-12.3565
▁प्रणोदन	-12.3572
▁वैंडरबिल्ट	-12.3572
क्युल	-12.3574
▁चिनाई	-12.358
रक्त	-12.3585
▁रिहर्सल	-12.3587
▁आक्रोश	-12.3587
▁मैल्कम	-12.3587
▁स्विमिंग	-12.3594
उड़ते	-12.3598
हमेशा	-12.3605
▁शब्दांश	-12.3608
▁बर्कशायर	-12.361
मोबाइल	-12.362
माइक्रो	-12.3623
▁गुच्छे	-12.363
▁मिठाई	-12.363
▁तुरह	-12.3634
▁वेश्यावृत्ति	-12.3638
▁समशीतोष्ण	-12.3638
ब्लॉक	-12.3643
▁विलासिता	-12.3652
विभाजित	-12.3657
▁रईसों	-12.366
▁कराची	-12.3668
ऐतिहासिक	-12.3672
▁प्रसूति	-12.3674
▁अरिजोना	-12.3682
▁गैस्ट्रॉपोड	-12.3682
▁मज़ेदार	-12.3682
▁गर्मजोशी	-12.3689
▁वायसराय	-12.3689
▁सांत्वना	-12.3689
▁मैकमिलन	-12.3696
▁सैंडविच	-12.3699
▁शेरिडन	-12.3704
▁विवर्तन	-12.3705
शिक्षित	-12.3709
▁जयंती	-12.3711
▁धाराप्रवाह	-12.3712
▁अर्धचंद्र	-12.3712
प्रधान	-12.3718
पाइप	-12.3721
▁अनुभवजन्य	-12.3726
▁फैमिली	-12.3726
▁डिफ़ॉल्ट	-12.3741
▁ओलिवियर	-12.3745
▁अनुप्रस्थ	-12.3748
▁जूडिथ	-12.3748
▁लचीलापन	-12.3748
▁थूक	-12.3749
▁टिप्पणियाँ	-12.3755
▁बुनकर	-12.3756
▁अटकलों	-12.3763
▁लाउंज	-12.3763
जर्नल	-12.3764
▁शिष्टाचार	-12.3778
▁विटामिन	-12.3778
विग्न	-12.3782
▁फटकार	-12.3785
▁विंस्टन	-12.3785
▁मदीना	-12.3785
रंगः	-12.3796
▁हिमालय	-12.38
▁चौबीस	-12.38
▁व्ल	-12.3807
▁एमेरिटस	-12.3807
▁निर्माणाधीन	-12.3807
▁कर्नेल	-12.3815
ऑस्ट्रेलिया	-12.3818
▁परिवर्धन	-12.3822
▁सिग्मा	-12.3822
▁शीतलन	-12.3824
फ़ोर्ड	-12.3833
▁रीजेंसी	-12.3837
▁शेपर्ड	-12.3845
▁त्वरण	-12.386
▁लुढ़क	-12.3861
▁आवाजाही	-12.3867
▁कॉकपिट	-12.3867
▁फ्लिंट	-12.3868
अच्छी	-12.3871
▁अब्राम	-12.3878
▁टीलों	-12.3879
▁परिस्थितियाँ	-12.3889
▁स्टार्टअप	-12.3889
▁अभिषेक	-12.3897
▁अस्सी	-12.3908
▁निपुण	-12.3912
▁भावुक	-12.392
▁विभेदक	-12.392
▁हथौड़े	-12.3935
▁वैलेंसिया	-12.3935
वर्धन	-12.3935
स्पेनिश	-12.3941
▁सुजुकी	-12.3942
▁क्योटो	-12.3942
स्थायी	-12.3943
▁उरुगुए	-12.3957
▁एडेलेइड	-12.3957
▁रिवेरा	-12.3957
▁तितर	-12.3972
झोपड़ी	-12.3972
▁मैडागास्कर	-12.3972
▁सृजन	-12.3972
▁प्रतिलेख	-12.3976
▁आंकड़ा	-12.398
▁रॉड्रिगेज	-12.398
▁कशेरुकी	-12.4003
मिश्रित	-12.4003
▁अभिसरण	-12.401
▁मछुआरे	-12.401
▁संवेदन	-12.4017
अच्छा	-12.4019
▁तालुक	-12.4023
▁टखने	-12.4025
▁इंस्टाग्राम	-12.4041
▁रॉकफेलर	-12.4041
▁कीटनाशक	-12.4048
▁सिकुड़	-12.4048
चौड़ाई	-12.4058
▁तत्वावधान	-12.4063
▁गतिरोध	-12.4071
टॉर्	-12.4074
▁पट्टियों	-12.4079
कालकोठरी	-12.4086
▁अनूठा	-12.4086
▁मुकदमों	-12.4086
▁प्राइमटाइम	-12.4088
▁महाभियोग	-12.4094
▁कूटनीति	-12.4109
▁वृक्षारोपण	-12.4109
▁पुरातत्वविदों	-12.4125
▁निर्बाध	-12.414
▁विल्मिंगटन	-12.414
▁डोमिंगो	-12.414
▁हैवीवेट	-12.414
▁सिंडिकेटेड	-12.4141
▁आदरणीय	-12.4148
▁मुस्तफा	-12.4148
▁समन्वित	-12.4148
▁बोहेमिया	-12.4148
▁बीएमडब्ल्यू	-12.4155
पॉइंट	-12.4156
वुर्टेमबर्ग	-12.4163
▁पेलोड	-12.4167
▁नॉरमैंडी	-12.4171
▁वर्णक्रमीय	-12.4171
प्रोटीन	-12.4178
बैप्टिस्ट	-12.4179
▁क्राइस्टचर्च	-12.4179
क्वै	-12.4179
▁फ़र्	-12.4194
▁अंतरमहाद्वीपीय	-12.4194
▁प्रत्याशा	-12.4194
▁सदाबहार	-12.4194
▁निवारक	-12.4194
विमर्श	-12.4194
▁झाओ	-12.4195
▁बेरोजगार	-12.4199
▁चैंडलर	-12.4202
▁छायांकन	-12.4202
▁तलहटी	-12.4202
▁अध्येता	-12.4209
▁कोरोनावायरस	-12.4209
▁बार्बर	-12.4224
▁विनियोग	-12.4225
▁जॉर्	-12.4233
▁जन्मजात	-12.4233
▁मानसून	-12.4241
▁वेकफील्ड	-12.4249
▁मंदारिन	-12.4264
पोमेरेनियन	-12.4264
▁टेरेसा	-12.4264
▁युद्धकालीन	-12.4272
व्यक्तिगत	-12.4282
▁इंपीरियल	-12.4287
▁एज़्टेक	-12.4287
▁सल्तनत	-12.4303
सहिष्णु	-12.431
_	-13.2473
ञ	-15.0359
ृ	-15.0359
