<|endoftext|>	0
<|im_start|>	0
<|im_end|>	0
क्ष	0
त्र	0
ज्ञ	0
<0x00>	0
<0x01>	0
<0x02>	0
<0x03>	0
<0x04>	0
<0x05>	0
<0x06>	0
<0x07>	0
<0x08>	0
<0x09>	0
<0x0A>	0
<0x0B>	0
<0x0C>	0
<0x0D>	0
<0x0E>	0
<0x0F>	0
<0x10>	0
<0x11>	0
<0x12>	0
<0x13>	0
<0x14>	0
<0x15>	0
<0x16>	0
<0x17>	0
<0x18>	0
<0x19>	0
<0x1A>	0
<0x1B>	0
<0x1C>	0
<0x1D>	0
<0x1E>	0
<0x1F>	0
<0x20>	0
<0x21>	0
<0x22>	0
<0x23>	0
<0x24>	0
<0x25>	0
<0x26>	0
<0x27>	0
<0x28>	0
<0x29>	0
<0x2A>	0
<0x2B>	0
<0x2C>	0
<0x2D>	0
<0x2E>	0
<0x2F>	0
<0x30>	0
<0x31>	0
<0x32>	0
<0x33>	0
<0x34>	0
<0x35>	0
<0x36>	0
<0x37>	0
<0x38>	0
<0x39>	0
<0x3A>	0
<0x3B>	0
<0x3C>	0
<0x3D>	0
<0x3E>	0
<0x3F>	0
<0x40>	0
<0x41>	0
<0x42>	0
<0x43>	0
<0x44>	0
<0x45>	0
<0x46>	0
<0x47>	0
<0x48>	0
<0x49>	0
<0x4A>	0
<0x4B>	0
<0x4C>	0
<0x4D>	0
<0x4E>	0
<0x4F>	0
<0x50>	0
<0x51>	0
<0x52>	0
<0x53>	0
<0x54>	0
<0x55>	0
<0x56>	0
<0x57>	0
<0x58>	0
<0x59>	0
<0x5A>	0
<0x5B>	0
<0x5C>	0
<0x5D>	0
<0x5E>	0
<0x5F>	0
<0x60>	0
<0x61>	0
<0x62>	0
<0x63>	0
<0x64>	0
<0x65>	0
<0x66>	0
<0x67>	0
<0x68>	0
<0x69>	0
<0x6A>	0
<0x6B>	0
<0x6C>	0
<0x6D>	0
<0x6E>	0
<0x6F>	0
<0x70>	0
<0x71>	0
<0x72>	0
<0x73>	0
<0x74>	0
<0x75>	0
<0x76>	0
<0x77>	0
<0x78>	0
<0x79>	0
<0x7A>	0
<0x7B>	0
<0x7C>	0
<0x7D>	0
<0x7E>	0
<0x7F>	0
<0x80>	0
<0x81>	0
<0x82>	0
<0x83>	0
<0x84>	0
<0x85>	0
<0x86>	0
<0x87>	0
<0x88>	0
<0x89>	0
<0x8A>	0
<0x8B>	0
<0x8C>	0
<0x8D>	0
<0x8E>	0
<0x8F>	0
<0x90>	0
<0x91>	0
<0x92>	0
<0x93>	0
<0x94>	0
<0x95>	0
<0x96>	0
<0x97>	0
<0x98>	0
<0x99>	0
<0x9A>	0
<0x9B>	0
<0x9C>	0
<0x9D>	0
<0x9E>	0
<0x9F>	0
<0xA0>	0
<0xA1>	0
<0xA2>	0
<0xA3>	0
<0xA4>	0
<0xA5>	0
<0xA6>	0
<0xA7>	0
<0xA8>	0
<0xA9>	0
<0xAA>	0
<0xAB>	0
<0xAC>	0
<0xAD>	0
<0xAE>	0
<0xAF>	0
<0xB0>	0
<0xB1>	0
<0xB2>	0
<0xB3>	0
<0xB4>	0
<0xB5>	0
<0xB6>	0
<0xB7>	0
<0xB8>	0
<0xB9>	0
<0xBA>	0
<0xBB>	0
<0xBC>	0
<0xBD>	0
<0xBE>	0
<0xBF>	0
<0xC0>	0
<0xC1>	0
<0xC2>	0
<0xC3>	0
<0xC4>	0
<0xC5>	0
<0xC6>	0
<0xC7>	0
<0xC8>	0
<0xC9>	0
<0xCA>	0
<0xCB>	0
<0xCC>	0
<0xCD>	0
<0xCE>	0
<0xCF>	0
<0xD0>	0
<0xD1>	0
<0xD2>	0
<0xD3>	0
<0xD4>	0
<0xD5>	0
<0xD6>	0
<0xD7>	0
<0xD8>	0
<0xD9>	0
<0xDA>	0
<0xDB>	0
<0xDC>	0
<0xDD>	0
<0xDE>	0
<0xDF>	0
<0xE0>	0
<0xE1>	0
<0xE2>	0
<0xE3>	0
<0xE4>	0
<0xE5>	0
<0xE6>	0
<0xE7>	0
<0xE8>	0
<0xE9>	0
<0xEA>	0
<0xEB>	0
<0xEC>	0
<0xED>	0
<0xEE>	0
<0xEF>	0
<0xF0>	0
<0xF1>	0
<0xF2>	0
<0xF3>	0
<0xF4>	0
<0xF5>	0
<0xF6>	0
<0xF7>	0
<0xF8>	0
<0xF9>	0
<0xFA>	0
<0xFB>	0
<0xFC>	0
<0xFD>	0
<0xFE>	0
<0xFF>	0
▁	-3.10378
▁के	-3.26519
,	-3.44279
।	-3.46739
▁में	-3.52867
▁और	-4.00487
1	-4.14662
▁है	-4.24346
▁की	-4.24909
0	-4.38297
▁को	-4.38359
▁से	-4.40037
▁एक	-4.449
.	-4.52537
2	-4.5663
▁का	-4.70403
9	-4.74718
▁था	-4.86165
-	-4.87095
▁लिए	-4.90918
▁किया	-4.91948
▁ने	-5.03015
▁गया	-5.06589
"	-5.08258
▁"	-5.08689
▁पर	-5.13668
▁हैं	-5.28344
8	-5.34763
▁रूप	-5.35142
▁(	-5.44026
5	-5.52041
3	-5.52864
▁साथ	-5.56891
4	-5.59367
7	-5.60459
6	-5.61092
▁जो	-5.6291
▁कि	-5.63346
ों	-5.66177
)	-5.71
▁थे	-5.76562
▁करने	-5.77366
▁यह	-5.88259
▁द्वारा	-5.91892
ा	-5.92474
े	-5.97135
▁भी	-5.98659
▁बाद	-5.99288
▁दिया	-6.01791
ी	-6.0319
▁थी	-6.04739
▁उन्होंने	-6.05942
▁तक	-6.1206
र	-6.14796
▁कर	-6.1856
▁नहीं	-6.19967
▁अपने	-6.2176
▁जाता	-6.23415
▁या	-6.3104
▁वह	-6.32619
न	-6.33531
▁हो	-6.33945
▁इस	-6.4091
▁गए	-6.40952
क	-6.42452
▁गई	-6.48099
स	-6.52148
▁शामिल	-6.5313
म	-6.55433
▁वे	-6.56315
▁पहले	-6.57426
▁उनके	-6.64808
ल	-6.70511
▁हुए	-6.70826
▁उन्हें	-6.71159
▁सी	-6.72479
ता	-6.75808
▁ए	-6.76007
▁लेकिन	-6.77587
▁करता	-6.78305
▁जिसमें	-6.80472
▁अपनी	-6.82834
▁वाले	-6.85685
▁करते	-6.86268
▁कई	-6.86696
▁उपयोग	-6.86762
▁अधिक	-6.86935
▁दो	-6.88238
;	-6.88505
▁हुआ	-6.90414
▁जब	-6.91245
▁द	-6.93466
▁कुछ	-6.94702
▁समय	-6.95728
ण	-6.98221
▁अन्य	-6.98242
ं	-6.98505
▁प	-6.98687
▁राज्य	-7.0083
▁डी	-7.01289
्स	-7.03742
▁सबसे	-7.05371
▁किए	-7.05714
ित	-7.05779
▁दौरान	-7.08211
▁काम	-7.0876
▁शुरू	-7.09356
▁ही	-7.10332
▁कम	-7.10711
▁फिर	-7.11474
▁उनकी	-7.14056
▁होने	-7.14868
▁शहर	-7.15299
▁बीच	-7.15339
▁एस	-7.17275
ना	-7.17933
▁इसके	-7.20509
▁स	-7.20592
▁कहा	-7.208
▁नाम	-7.21131
▁जा	-7.217
▁इसे	-7.21728
ट	-7.22258
द	-7.24264
▁जिसे	-7.2741
▁बार	-7.27793
▁सकता	-7.29968
▁तो	-7.30314
सी	-7.31754
▁बी	-7.3209
▁प्राप्त	-7.32162
▁अ	-7.32353
ो	-7.32423
▁लिया	-7.33352
प	-7.34518
ए	-7.34787
▁करना	-7.34946
▁पी	-7.36372
▁एम	-7.3765
ने	-7.38385
▁जारी	-7.38388
▁वर्ष	-7.38699
▁कारण	-7.39996
▁पूर्व	-7.40436
▁तरह	-7.41208
▁सभी	-7.41277
ः	-7.41995
▁आई	-7.42335
>	-7.42418
▁वि	-7.42622
▁यू	-7.44725
▁रहा	-7.45426
▁जाने	-7.46144
▁पास	-7.46153
ड	-7.46429
ई	-7.46574
▁होता	-7.46831
▁<	-7.46945
▁साल	-7.48708
▁रहे	-7.48805
▁स्थान	-7.48994
▁हुई	-7.4906
▁एल	-7.49272
▁फिल्म	-7.49577
▁क्योंकि	-7.5021
▁उस	-7.50271
ान	-7.50776
▁तीन	-7.50797
▁मुख्य	-7.50959
▁लोगों	-7.51121
▁एफ	-7.5126
▁एन	-7.51617
▁आर	-7.51635
▁राष्ट्रीय	-7.51831
▁दी	-7.52944
unk	-7.54444
▁'	-7.55041
▁केवल	-7.55304
▁विशेष	-7.55324
▁ओ	-7.55397
▁युद्ध	-7.55938
▁दोनों	-7.57081
▁पहली	-7.57211
▁खेल	-7.57326
▁स्कूल	-7.57375
▁लगभग	-7.57432
ग	-7.57492
▁विश्वविद्यालय	-7.57713
▁शुरुआत	-7.57992
▁जैसे	-7.58139
ली	-7.58427
िण	-7.58444
▁प्रमुख	-7.58857
▁टीम	-7.59387
▁बहुत	-7.59826
▁ले	-7.59903
▁ओर	-7.60474
/	-7.6073
▁शि	-7.61589
▁संयुक्त	-7.61636
ब	-7.617
▁जाना	-7.61738
),	-7.6226
▁निर्माण	-7.63355
िक	-7.63909
▁जीवन	-7.64285
▁बन	-7.65657
िंग	-7.65691
व	-7.6604
▁उसे	-7.66392
ज	-7.66531
▁संगीत	-7.66532
▁मूल	-7.666
▁समूह	-7.67335
▁टी	-7.67512
▁भाग	-7.68253
▁कोई	-7.686
▁कार्य	-7.689
री	-7.69446
▁वाली	-7.69854
ले	-7.70147
▁सेवा	-7.70591
▁स्थित	-7.7068
▁अमेरिकी	-7.71436
का	-7.73421
▁खिलाफ	-7.74117
▁अंत	-7.74154
▁होती	-7.74186
▁जहाँ	-7.74429
▁श्रृंखला	-7.74448
▁रखा	-7.75054
▁किसी	-7.75677
▁इतिहास	-7.75783
▁करती	-7.76467
▁बारे	-7.76552
▁ऑफ	-7.77029
▁घर	-7.77151
▁उनका	-7.77661
▁अमेरिका	-7.78302
▁दशक	-7.78615
मा	-7.79295
▁अपना	-7.80007
एस	-7.80197
ज़	-7.8061
▁नए	-7.80986
▁इन	-7.81059
▁माध्यम	-7.81782
▁थीं	-7.81929
▁परिवार	-7.82174
ला	-7.82555
'	-7.82841
▁उसके	-7.83526
▁सदस्य	-7.83616
ियों	-7.83689
▁कंपनी	-7.83759
ह	-7.83906
▁होते	-7.84429
▁मृत्यु	-7.84536
।"	-7.84547
▁प्रदर्शन	-7.84999
▁प्रदान	-7.85195
वीं	-7.85286
रा	-7.85315
बी	-7.85714
ीय	-7.8581
▁जबकि	-7.86214
▁चि	-7.87032
▁अंतिम	-7.87051
▁बनाया	-7.87391
",	-7.87679
▁चार	-7.87902
नी	-7.88076
▁एल्बम	-7.8835
▁ई	-7.8838
ओ	-7.88413
▁हालाँकि	-7.88745
▁उत्तर	-7.89638
फ	-7.8975
▁लीग	-7.8988
▁विश्व	-7.90899
▁अलग	-7.91035
▁अब	-7.91438
▁सेना	-7.91508
▁रिकॉर्ड	-7.91884
▁पहला	-7.92622
वा	-7.92739
▁कार्यक्रम	-7.92939
▁क्लब	-7.93175
च	-7.93956
▁जाती	-7.96048
को	-7.96204
डी	-7.9629
▁मार्च	-7.97367
ंग	-7.97992
▁इसका	-7.98041
श	-7.98408
▁गीत	-7.99272
▁प्रकार	-7.99769
▁जी	-8.00177
ते	-8.0145
▁काउंटी	-8.01961
▁पुरस्कार	-8.02356
▁जून	-8.02862
या	-8.02901
▁दूसरे	-8.03144
गा	-8.03372
▁हालांकि	-8.03506
▁जनवरी	-8.04922
▁बड़े	-8.05111
य	-8.05247
▁वी	-8.05341
▁सितंबर	-8.05373
मैन	-8.05531
▁जुलाई	-8.06161
▁केंद्र	-8.06307
के	-8.06415
▁मई	-8.06514
.)	-8.06588
%	-8.06899
▁समाप्त	-8.06987
▁अक्टूबर	-8.07777
▁देने	-8.08041
▁उच्च	-8.08514
▁न	-8.09223
िया	-8.09226
▁अगस्त	-8.09309
▁सकते	-8.0935
थ	-8.09732
▁चर्च	-8.09814
▁जिसका	-8.10209
▁दिन	-8.10541
ती	-8.10688
▁स्टेशन	-8.11106
▁अप्रैल	-8.11125
▁जिन्होंने	-8.11493
▁प्रतिशत	-8.11714
▁छा	-8.11896
▁तब	-8.11935
▁अनुसार	-8.12
▁विकास	-8.12051
▁जॉन	-8.12278
त	-8.12484
▁नवंबर	-8.12941
▁सरकार	-8.13218
▁स्थानीय	-8.1437
▁देता	-8.14575
▁दिसंबर	-8.14637
▁बाहर	-8.14644
▁वर्षों	-8.14937
▁वाला	-8.14977
▁तहत	-8.14993
▁विभिन्न	-8.15131
▁स्थापित	-8.15961
▁जिससे	-8.15998
्य	-8.16069
▁संघ	-8.16272
▁सीज़न	-8.16317
▁प्रत्येक	-8.16575
▁कभी	-8.17006
र्स	-8.17095
▁प्रति	-8.17134
▁एकल	-8.17217
▁शताब्दी	-8.17326
▁अधिकांश	-8.18187
▁अंतर्राष्ट्रीय	-8.18257
▁जन्म	-8.18374
▁महत्वपूर्ण	-8.18495
▁जाते	-8.18592
▁महिला	-8.1865
▁आगे	-8.19211
वें	-8.19388
ें	-8.19696
▁उन	-8.19813
िका	-8.20291
▁प्रारंभिक	-8.20518
▁हिस्सा	-8.20706
▁रही	-8.20731
▁स्थिति	-8.20864
▁स्थापना	-8.20979
▁सा	-8.2101
टा	-8.21098
कर	-8.21805
▁कॉलेज	-8.21835
▁दिखाई	-8.22264
रो	-8.22482
▁व्यक्ति	-8.22909
एक	-8.23353
▁नदी	-8.23413
▁पूरी	-8.23545
▁बनाने	-8.23599
▁क	-8.24481
▁फरवरी	-8.24712
▁समर्थन	-8.24721
▁वर्तमान	-8.24785
▁र	-8.24807
▁मं	-8.25171
▁फुटबॉल	-8.25206
▁डब्ल्यू	-8.25421
▁अध्ययन	-8.25478
▁बैंड	-8.25516
▁चाहिए	-8.25638
▁आम	-8.25698
▁घोषणा	-8.26059
▁प्रकाशित	-8.26219
▁सेंट	-8.26241
वे	-8.26737
▁ली	-8.26755
▁एच	-8.27597
नो	-8.27753
▁जीत	-8.27882
▁भूमि	-8.28044
▁कला	-8.28761
▁जे	-8.28788
▁चुनाव	-8.29316
▁सू	-8.29436
▁छोड़	-8.29899
▁प्रणाली	-8.30447
▁इसकी	-8.30563
▁पार्टी	-8.30645
▁उत्तरी	-8.30968
)।	-8.31018
▁एंड	-8.31095
लो	-8.31313
▁छोटे	-8.31362
▁उत्पादन	-8.31399
▁शो	-8.31526
▁संस्करण	-8.32084
▁माना	-8.32329
▁पता	-8.32633
▁मार्ग	-8.32668
▁प्रवेश	-8.33042
वी	-8.33152
▁अलावा	-8.33294
▁सुर	-8.33362
▁करियर	-8.33453
जी	-8.33483
▁स्वत	-8.33499
▁जिसने	-8.33524
▁सामान्य	-8.34095
▁बनाए	-8.34261
▁आधार	-8.34379
▁सार्वजनिक	-8.34441
एन	-8.34589
▁बंद	-8.34676
▁कुल	-8.34827
िस	-8.34835
पी	-8.35101
▁ब्रिटिश	-8.35585
सा	-8.35587
िन	-8.35862
▁वापस	-8.36066
▁लोग	-8.3659
▁इसलिए	-8.36772
ियन	-8.36865
▁पूरा	-8.37068
▁आ	-8.37207
टी	-8.37225
▁तुलना	-8.37319
स्ट	-8.37365
▁आवश्यकता	-8.37435
▁करके	-8.37657
कार	-8.38179
बा	-8.38326
▁इसमें	-8.38619
▁हिस्से	-8.38648
▁भीतर	-8.38737
▁जिसके	-8.39276
▁स्तर	-8.39705
▁चैंपियनशिप	-8.39708
▁समान	-8.39722
▁कानून	-8.39888
▁ला	-8.40071
की	-8.4042
▁तौर	-8.40859
▁आयोजित	-8.41044
▁संख्या	-8.41044
▁जिनमें	-8.41201
▁अक्सर	-8.41213
से	-8.41302
▁न्यूयॉर्क	-8.41313
▁अध्य	-8.415
▁सड़क	-8.41592
▁मध्य	-8.42008
सन	-8.42402
▁भूमिका	-8.43129
▁दुनिया	-8.43246
साथ	-8.43495
▁ल	-8.43687
ि	-8.43857
▁अनुमति	-8.43988
रे	-8.4483
▁मैं	-8.44835
▁नियुक्त	-8.45138
▁""	-8.46441
▁खुद	-8.46651
▁शीर्ष	-8.46773
▁नेतृत्व	-8.46832
▁नीचे	-8.46865
▁प्रशि	-8.46994
▁संबंधित	-8.47437
▁आयु	-8.48205
▁हे	-8.48361
▁संबंध	-8.48407
▁योजना	-8.48826
डो	-8.48923
▁खिलाड़ी	-8.49144
▁उप	-8.49318
▁बड़ी	-8.49388
▁देखा	-8.49409
▁देश	-8.49425
▁बिना	-8.49571
▁दिए	-8.49587
▁नई	-8.4961
▁नियं	-8.49636
▁विकसित	-8.4965
▁मा	-8.50067
▁होगा	-8.50102
▁इ	-8.5027
▁न्यू	-8.50271
▁ऐसा	-8.50924
क्स	-8.51096
▁उसने	-8.51254
▁गैर	-8.51426
▁हैः	-8.51443
▁बना	-8.51451
टन	-8.51529
डा	-8.5154
▁कप	-8.51766
▁शादी	-8.51951
▁गाँव	-8.51998
▁अभी	-8.5208
▁लिखा	-8.52351
वि	-8.52593
▁जिले	-8.52989
▁जिन्हें	-8.53114
▁पिता	-8.53168
▁जीता	-8.53264
▁पीछे	-8.54076
▁("	-8.54282
▁प्रयास	-8.54439
▁हस्ता	-8.54448
▁मदद	-8.54718
")	-8.5483
▁सकती	-8.55122
▁आबादी	-8.5518
▁पश्चिमी	-8.55892
▁व्यक्तिगत	-8.56039
आ	-8.56297
▁वर्ग	-8.56476
▁महिलाओं	-8.56736
▁चला	-8.57257
▁सीमा	-8.57293
ओं	-8.57306
▁सहित	-8.57353
▁पुस्तक	-8.57653
▁संर	-8.57708
▁द्वीप	-8.57758
▁तट	-8.57804
▁प्रभाव	-8.5784
▁सूची	-8.5801
▁रंग	-8.58026
▁पा	-8.58059
▁बदल	-8.5827
▁डॉलर	-8.58282
▁उसकी	-8.58658
▁मैच	-8.58768
▁बे	-8.59177
अ	-8.59286
टो	-8.59704
▁जर्मन	-8.59879
▁प्रतिनिधित्व	-8.59972
▁पश्चिम	-8.6019
▁लेने	-8.60301
▁गोल	-8.60356
▁मो	-8.60683
▁ऐतिहासिक	-8.60948
▁अगले	-8.60955
▁परिषद	-8.62331
▁लाइन	-8.62356
एल	-8.62431
▁छह	-8.62521
▁अंग्रेजी	-8.62584
▁हम	-8.62597
▁राजनीतिक	-8.62961
▁देते	-8.63162
▁पद	-8.63247
▁पूरे	-8.63678
वर	-8.63829
▁क्या	-8.64087
▁व्यापक	-8.64177
मो	-8.64402
▁बात	-8.64412
▁पेशेवर	-8.64606
▁आसपास	-8.64764
▁ध्यान	-8.64919
जो	-8.65072
▁डिजाइन	-8.65164
एँ	-8.6523
▁अल	-8.65401
लैंड	-8.65538
▁स्नातक	-8.6567
▁हैंः	-8.65703
▁लंदन	-8.65996
मी	-8.66082
यू	-8.66237
एम	-8.67049
▁आकार	-8.67123
▁परी	-8.67129
▁अवधि	-8.67497
▁हर	-8.67524
▁बड़ा	-8.67663
▁सैन्य	-8.67801
▁लड़ाई	-8.67907
▁उसी	-8.68059
▁आप	-8.68174
▁हार	-8.68209
ख	-8.68229
▁हासिल	-8.68319
▁बने	-8.68555
▁स्पष्ट	-8.68713
स्	-8.68751
जे	-8.68925
▁औसत	-8.69093
जन्म	-8.6916
▁पूर्वी	-8.69369
जा	-8.69385
▁ताकि	-8.69414
▁दौड़	-8.69428
▁खोज	-8.69757
▁यदि	-8.70324
▁अंततः	-8.70384
▁ये	-8.70403
▁मैक	-8.70436
▁चुना	-8.70449
▁अर्थ	-8.70461
▁विभाग	-8.70589
▁पानी	-8.70619
आमतौर	-8.70895
▁_	-8.71078
▁रे	-8.71303
▁पार्क	-8.71616
▁राष्ट्रपति	-8.71628
▁संचालन	-8.7169
▁टेलीविजन	-8.71888
▁मार	-8.72017
यर	-8.72027
▁ऊपर	-8.72046
▁युवा	-8.72115
▁बच्चों	-8.72205
▁परिणामस्वरूप	-8.72218
▁हवाई	-8.7226
ेन	-8.72347
▁बो	-8.7266
गो	-8.72826
▁स्थानांतरित	-8.72854
▁शैली	-8.72937
▁रहने	-8.72991
▁पार	-8.73218
▁उदाहरण	-8.73352
▁आए	-8.73385
:	-8.73568
उ	-8.73971
▁यूरोपीय	-8.74289
ु	-8.74373
▁लंबे	-8.74568
▁राजा	-8.74913
▁सुधार	-8.7511
▁भाषा	-8.75147
▁प्रस्तुत	-8.75498
▁खेला	-8.75504
▁दूसरा	-8.75863
▁दूर	-8.7592
▁पाया	-8.75983
▁सहायक	-8.761
▁समी	-8.76308
▁समुदाय	-8.76394
▁जाएगा	-8.76528
▁बजाय	-8.76623
▁शाही	-8.76781
▁विस्तार	-8.76883
▁सदस्यों	-8.77314
▁विद्यालय	-8.77361
▁कैरियर	-8.77398
▁रेलवे	-8.77431
▁वीडियो	-8.77721
▁शब्द	-8.77743
▁सके	-8.77816
आई	-8.77981
▁अभियान	-8.78275
▁विचार	-8.78448
▁रहते	-8.78505
▁दूसरी	-8.78518
▁इंग्लैंड	-8.78951
▁रखने	-8.78989
▁आया	-8.79105
▁खंड	-8.79588
लर	-8.79698
▁फ्रांसीसी	-8.79715
▁भाई	-8.79803
▁रेडियो	-8.799
▁दल	-8.79984
▁लेखक	-8.80071
▁सह	-8.80725
पा	-8.80808
मता	-8.81078
▁उम्र	-8.81102
▁संगठन	-8.81764
▁शीर्षक	-8.81773
▁मे	-8.81952
गी	-8.82021
▁चले	-8.82053
▁जॉर्ज	-8.82429
▁सामाजिक	-8.82553
▁ट्रैक	-8.82805
▁इमारत	-8.82919
▁स्थल	-8.82935
▁तैयार	-8.8297
▁वै	-8.82996
▁चिकित्सा	-8.83065
▁करें	-8.83069
▁आधिकारिक	-8.83619
▁मिला	-8.83657
▁विलियम	-8.83863
▁नामित	-8.839
▁समाज	-8.83976
▁वहाँ	-8.8421
▁मुझे	-8.84264
▁=	-8.84314
▁जहां	-8.84355
बे	-8.844
▁डे	-8.84803
▁अधिकार	-8.84823
▁कै	-8.8487
इ	-8.8493
▁सं	-8.84985
िणी	-8.85052
▁सप्ताह	-8.8509
▁समाचार	-8.85262
▁पुरुषों	-8.85401
▁सहायता	-8.85653
▁अदालत	-8.86056
टर	-8.86276
▁जैसा	-8.86351
▁स्वास्थ्य	-8.86372
▁हॉल	-8.86604
▁बच्चे	-8.86627
▁बेटे	-8.87
▁पुलिस	-8.87041
▁निर्धारित	-8.87088
▁उ	-8.87115
▁सामने	-8.87126
▁संग्रह	-8.87291
▁सर्वश्रेष्ठ	-8.87388
▁प्रतियोगिता	-8.87753
▁मॉडल	-8.88
▁आदेश	-8.88171
▁बताया	-8.88265
▁ह	-8.88387
▁मीटर	-8.8839
ियो	-8.88394
▁बनाई	-8.88522
फ़	-8.88582
▁लौट	-8.88646
ात	-8.88666
बो	-8.88701
▁प्र	-8.88759
▁ऑस्ट्रेलिया	-8.89122
दा	-8.89174
▁डिवीजन	-8.89456
▁सु	-8.89558
▁परियोजना	-8.89602
डे	-8.89761
▁कहानी	-8.89882
▁मिली	-8.89894
▁रात	-8.90081
▁सैन	-8.90084
▁उद्देश्य	-8.90106
लिन	-8.90438
▁समुद्र	-8.90511
▁धर्म	-8.90632
▁मि	-8.90702
▁सामग्री	-8.90867
▁पत्नी	-8.90977
▁हाई	-8.91039
▁बस	-8.91054
▁सि	-8.91109
▁भर	-8.91173
▁पुरुष	-8.91218
▁गेम	-8.91241
▁अंक	-8.91306
▁सम्मान	-8.91329
▁मामले	-8.91445
▁सम्मेलन	-8.91873
▁सामना	-8.91896
▁स्वीकार	-8.91928
▁संपत्ति	-8.91931
▁जल	-8.92149
▁पूर्ण	-8.92154
▁द्वितीय	-8.92333
और	-8.92462
▁महीने	-8.92547
▁काफी	-8.92554
▁प्रभावित	-8.92602
▁खेलों	-8.92738
कभी	-8.9282
▁बोर्ड	-8.92853
▁लोकप्रिय	-8.92881
▁संकेत	-8.93263
इस	-8.93289
▁कार्यालय	-8.93353
▁दावा	-8.93443
▁पहचान	-8.93623
▁अंतर	-8.93662
चि	-8.9383
▁बावजूद	-8.93878
▁फाइनल	-8.93934
▁संस्थान	-8.93974
▁संग्रहालय	-8.94085
]	-8.94144
▁कु	-8.94271
▁कार्यों	-8.94569
▁कनाडा	-8.94722
▁एकमा	-8.94791
▁अधिकारी	-8.95018
▁लाल	-8.95092
▁कोच	-8.95107
▁जहाज	-8.95157
▁सफेद	-8.95158
▁मजबूत	-8.95227
▁लगाया	-8.95314
▁पिछले	-8.95398
▁प्रसिद्ध	-8.95478
जन	-8.95479
▁प्रबंधन	-8.95609
▁केंद्रित	-8.95791
▁प्रक्रिया	-8.96085
▁स्टूडियो	-8.96105
▁छोटी	-8.96109
भ	-8.96146
▁नेटवर्क	-8.9636
▁जेम्स	-8.96484
अलग	-8.9653
▁परिणाम	-8.96679
▁तीसरे	-8.96795
ंड	-8.96888
▁आधारित	-8.96984
मे	-8.97006
▁अच्छी	-8.97082
▁कमी	-8.97135
▁शक्ति	-8.97302
▁नया	-8.97656
▁जांच	-8.9778
सो	-8.97806
वादी	-8.97822
▁पहुंच	-8.97923
▁फ्रांस	-8.98018
▁विशिष्ट	-8.98172
▁दे	-8.98233
▁वास्तव	-8.98298
▁भारत	-8.9836
आर	-8.98392
▁गठन	-8.98608
▁पे	-8.98661
▁वर्णन	-8.98761
▁पुराने	-8.99009
हा	-8.9902
▁अधिनियम	-8.99069
▁उपस्थिति	-8.99288
ौ	-8.99425
▁दौर	-8.99462
▁कार	-8.9954
▁कैलिफोर्निया	-8.99926
रि	-8.99935
▁हाउस	-9.00049
▁डि	-9.0009
▁पाँच	-9.00322
▁तुरंत	-9.0037
▁समिति	-9.00453
▁शोध	-9.00476
▁डिग्री	-9.00622
▁नौसेना	-9.00824
▁सक्रिय	-9.00934
▁सात	-9.00973
▁मीडिया	-9.00989
ात्मक	-9.00999
टे	-9.01324
ू	-9.01368
▁लागू	-9.0142
गन	-9.01494
ेट	-9.01548
▁पड़ा	-9.01562
▁निदेशक	-9.01593
▁पांच	-9.01702
पो	-9.01747
इन	-9.0184
▁आधुनिक	-9.01952
▁वर्णित	-9.01997
▁रो	-9.02032
▁मिल	-9.02116
▁जगह	-9.02494
▁संदर्भ	-9.02517
▁समुद्री	-9.02619
▁अतिरिक्त	-9.02638
कों	-9.02695
▁पैदा	-9.02723
न्स	-9.02761
ंट	-9.02868
कु	-9.02883
▁माँ	-9.03068
▁मामलों	-9.03097
▁नियमित	-9.03167
्ट	-9.03188
▁पदक	-9.03407
▁रा	-9.03424
वेल	-9.03439
▁मु	-9.03482
▁स्	-9.03491
▁महान	-9.03621
▁कलाकार	-9.03915
▁अनुबंध	-9.04137
▁निजी	-9.04167
▁विपरीत	-9.04316
▁एपिसोड	-9.04354
▁प्रथम	-9.04575
▁डॉ	-9.0459
▁मौजूद	-9.04712
▁व्यापार	-9.04928
▁नुकसान	-9.05266
▁चीनी	-9.05277
ट्स	-9.05414
▁होना	-9.0583
▁गईं	-9.05986
▁एक्स	-9.06155
▁विरोध	-9.06276
स्टर	-9.06329
▁उपलब्ध	-9.06447
▁दिखाया	-9.06534
▁भारतीय	-9.06639
ची	-9.06727
▁अधिकारियों	-9.06975
▁केंद्रीय	-9.07131
▁उससे	-9.07514
▁आज	-9.07592
▁घरेलू	-9.07702
▁मंच	-9.07708
▁प्राथमिक	-9.07812
नि	-9.08124
▁निर्णय	-9.08299
▁गो	-9.08299
एं	-9.08329
▁गति	-9.08508
वाद	-9.08515
▁$	-9.08709
बर्ग	-9.08741
▁बेटी	-9.08748
▁सफल	-9.08772
▁चरण	-9.08918
▁संचालित	-9.08953
▁सिद्धांत	-9.09186
ध	-9.09241
▁फैसला	-9.09265
▁दृश्य	-9.09267
▁विषय	-9.093
▁नागरिक	-9.09417
ल्स	-9.09605
▁()	-9.09612
▁ऑस्ट्रेलियाई	-9.09735
▁जिला	-9.09895
▁टूर्नामेंट	-9.10049
▁इसने	-9.10076
मर	-9.10203
▁युग	-9.10343
चा	-9.10515
▁हाथ	-9.1056
▁दस	-9.10657
▁यूरोप	-9.10713
▁योगदान	-9.1072
▁प्रस्ताव	-9.11203
▁नामक	-9.11208
▁परिवर्तन	-9.11274
▁रोमन	-9.11337
▁पारंपरिक	-9.11398
बल	-9.11497
▁पेश	-9.11516
▁मानव	-9.11836
▁रि	-9.11919
▁व्यवसाय	-9.11989
▁आने	-9.12254
शास्	-9.12344
▁उसका	-9.12386
▁संघीय	-9.12603
पर	-9.1263
▁नि	-9.12761
▁लगा	-9.12842
▁नंबर	-9.12896
▁रॉक	-9.12899
▁लाभ	-9.12938
वां	-9.12951
▁आवश्यक	-9.13103
▁लकड़ी	-9.13252
▁पुल	-9.1337
▁परिसर	-9.13374
▁ऑ	-9.13433
▁खो	-9.13485
▁खेले	-9.13721
▁वृद्धि	-9.13737
▁आठ	-9.1383
▁सम्मानित	-9.13934
▁उपकरण	-9.13948
▁निम्नलिखित	-9.1395
▁निर्माता	-9.13962
पश्चिम	-9.14093
▁गणराज्य	-9.14516
▁जर्मनी	-9.14648
▁नगरपालिका	-9.1506
▁हाल	-9.15114
ेस	-9.15121
▁विभाजित	-9.1514
▁प्रेरित	-9.15155
▁इससे	-9.15236
▁ठीक	-9.15359
▁रिपोर्ट	-9.15377
लेट	-9.1538
▁ग	-9.15392
▁खिताब	-9.15611
▁दर्ज	-9.15661
▁श्रेणी	-9.15694
▁देशों	-9.15699
▁मिलियन	-9.1574
▁आय	-9.15835
दार	-9.15895
▁मांग	-9.15933
▁चरि	-9.15974
▁स्वामित्व	-9.16018
▁विजेता	-9.1613
वो	-9.16153
▁प्रोफेसर	-9.16287
▁तर्क	-9.16301
▁वेस्ट	-9.1632
▁सूचीबद्ध	-9.16347
▁पो	-9.16491
▁मिनट	-9.16493
▁कोशिश	-9.16574
▁डेविड	-9.1662
▁जापान	-9.16785
▁दिनों	-9.16846
▁शै	-9.16876
▁झील	-9.16982
▁लो	-9.17
फोर्ड	-9.17044
▁सिर	-9.17191
▁सो	-9.17299
▁थॉमस	-9.17409
▁देती	-9.17491
▁सीमित	-9.17693
प्र	-9.17861
▁लि	-9.17981
e	-9.18075
▁स्ट्रीट	-9.18174
▁दृष्टिकोण	-9.18239
▁खाड़ी	-9.18257
▁रोड	-9.18397
ियाँ	-9.18464
ानिक	-9.18609
▁लगातार	-9.18633
▁[	-9.18758
▁प्रो	-9.18764
▁पॉल	-9.1877
पूर्व	-9.18851
▁जनरल	-9.1887
▁मैदान	-9.18943
िल	-9.18956
▁मान्यता	-9.18988
▁अस्पताल	-9.19164
▁जनगणना	-9.19255
ति	-9.19308
ड़	-9.19352
▁हमला	-9.19526
▁भुगतान	-9.19672
▁हत्या	-9.19745
▁बैंक	-9.1981
▁उद्यान	-9.199
▁मैरी	-9.19913
ियस	-9.19985
▁स्थानों	-9.2002
▁जोड़ा	-9.20071
र्ट	-9.2008
▁टो	-9.20084
▁चीन	-9.2019
▁धन	-9.20269
▁सुपर	-9.20547
▁डो	-9.2055
▁अकादमी	-9.20595
▁कैसे	-9.20605
र्	-9.20642
▁हटा	-9.20673
▁संरचना	-9.20689
र्ड	-9.20822
▁निर्मित	-9.20952
▁रूसी	-9.21098
नर	-9.21121
▁शायद	-9.21182
पूर्ण	-9.21248
▁भारी	-9.21322
▁चार्ट	-9.21402
मु	-9.21631
▁उद्योग	-9.21651
▁छोटा	-9.21673
▁अच्छा	-9.21695
मान	-9.21702
▁खिलाड़ियों	-9.21801
▁प्रसारित	-9.21821
▁नौ	-9.21894
▁ऐसे	-9.2199
▁जूनियर	-9.22063
▁विमान	-9.22161
▁जानकारी	-9.22182
▁बु	-9.2258
ेल	-9.22707
▁उल्लेख	-9.22953
▁पालन	-9.23021
▁सैनिकों	-9.2304
▁महल	-9.2305
▁लॉ	-9.23077
▁वास्तविक	-9.23277
र्न	-9.23344
▁अफ्रीकी	-9.23433
एफ	-9.23598
▁प्रतिक्रिया	-9.23691
▁अभ्यास	-9.23735
▁नाटक	-9.23979
▁आरोप	-9.24065
▁वायु	-9.24138
▁प्रजाति	-9.24266
▁शरीर	-9.24305
▁संदर्भित	-9.24405
▁जिसकी	-9.24442
▁शुरुआती	-9.24538
▁बाहरी	-9.24704
▁बिंदु	-9.24843
▁परिवहन	-9.25065
▁जीन	-9.25214
▁बाजार	-9.25346
▁थिएटर	-9.25639
▁रन	-9.25802
▁यहाँ	-9.25888
▁कांग्रेस	-9.25907
ंक	-9.25948
▁सर	-9.26125
▁मै	-9.26155
▁मेल	-9.26384
▁ओलंपिक	-9.26399
i	-9.26493
▁ब	-9.26529
ोस	-9.26801
सु	-9.27015
!	-9.27088
्यू	-9.27098
▁तेजी	-9.27105
▁मौसम	-9.27252
रिया	-9.27271
▁लेकर	-9.27306
▁प्रतिस्पर्धा	-9.27404
▁विश्वास	-9.2763
▁ब्रिटेन	-9.27682
▁चलता	-9.27895
▁प्रसारण	-9.27949
मन	-9.27967
▁रिलीज़	-9.28114
▁चार्ल्स	-9.28115
▁जवाब	-9.28143
▁बल	-9.28217
▁कब्जा	-9.28385
▁क्यू	-9.28459
डर	-9.28545
ंस	-9.28605
▁खोला	-9.28658
▁बेहतर	-9.2874
▁साथी	-9.28817
्ड	-9.28899
▁मी	-9.29001
▁प्रदर्शित	-9.29012
▁आंदोलन	-9.29162
▁प्रांत	-9.29276
गर	-9.29358
▁ना	-9.29412
▁आर्थिक	-9.29415
डेन	-9.29551
▁घंटे	-9.29604
बर	-9.29819
▁यूनाइटेड	-9.29947
▁सफलता	-9.29997
ज़ा	-9.30041
।..	-9.30214
▁करेगा	-9.30295
ज़ी	-9.30362
्	-9.30378
ेंस	-9.30412
▁मील	-9.30455
▁अनुभव	-9.30534
हम	-9.30548
▁अनुसंधान	-9.30567
▁याद	-9.30639
▁दर	-9.30776
लिंग	-9.30811
▁मानक	-9.30861
▁टीमों	-9.3091
▁तरीके	-9.31016
हो	-9.31055
▁जापानी	-9.31091
▁हेनरी	-9.31174
?	-9.31426
▁दौरा	-9.3144
▁चयन	-9.31459
्म	-9.31562
यह	-9.31754
▁विवरण	-9.31787
▁पत्थर	-9.31792
▁कलाकारों	-9.31856
▁आग	-9.32136
▁विरासत	-9.32139
▁ऊर्जा	-9.32255
▁व्यवहार	-9.32312
▁पर्याप्त	-9.3244
▁आंतरिक	-9.32579
िस्ट	-9.3295
ाओं	-9.32968
▁संस्कृति	-9.32992
▁सहयोग	-9.33114
▁कार्यक्रमों	-9.33168
▁योग्य	-9.332
▁गिर	-9.33405
▁विकल्प	-9.33457
ालय	-9.33516
▁प्राकृतिक	-9.33574
▁प्यार	-9.33658
▁जीवित	-9.33802
म्प	-9.33835
ियर	-9.33839
▁स्वयं	-9.33914
▁कैथोलिक	-9.34076
▁खराब	-9.34205
▁मुक्त	-9.34218
▁उड़ान	-9.34272
▁जनसंख्या	-9.34345
▁वरिष्ठ	-9.34753
्टन	-9.3477
▁उपन्यास	-9.34827
दी	-9.34925
▁उम्मीद	-9.35021
गे	-9.35022
िम	-9.35239
फा	-9.3527
चे	-9.35303
पे	-9.35306
▁अफ्रीका	-9.35359
▁घाटी	-9.35391
▁अभिनय	-9.35448
ल्ड	-9.35465
▁विफल	-9.35645
▁माइकल	-9.35669
▁उल्लेखनीय	-9.35707
▁आलोचना	-9.35782
▁गायक	-9.35828
▁अनुमान	-9.35865
▁हराया	-9.3587
▁पीटर	-9.35929
▁लंबी	-9.36026
▁बाल	-9.36155
▁मूल्य	-9.36169
▁कृषि	-9.36322
▁क्रॉस	-9.36355
▁प्रेस	-9.36373
▁पु	-9.364
▁कमान	-9.36442
▁कानूनी	-9.36488
फील्ड	-9.36785
▁मजबूर	-9.36933
▁पहाड़ी	-9.37073
▁वाशिंगटन	-9.37135
▁रेल	-9.37179
▁विदेशी	-9.37276
▁श्री	-9.37351
▁रेखा	-9.37426
▁गु	-9.37683
▁बल्कि	-9.37727
वन	-9.37776
▁टीवी	-9.37891
▁घटना	-9.37902
▁फिल्मों	-9.37948
▁संपर्क	-9.37982
▁सीधे	-9.38024
▁चैंपियन	-9.38133
विक	-9.38139
▁डिज़ाइन	-9.38192
▁होगी	-9.38302
▁कार्यकाल	-9.38361
▁फे	-9.38364
▁स्वागत	-9.38372
▁शासन	-9.38439
▁इनकार	-9.38501
शा	-9.38513
▁समूहों	-9.38556
▁जेल	-9.38588
▁सेट	-9.3868
रु	-9.3889
▁वार्षिक	-9.38902
▁संसद	-9.3891
▁बिल	-9.38951
शी	-9.38968
▁बा	-9.38979
नेट	-9.39015
▁संघर्ष	-9.39017
पिता	-9.39024
▁रुचि	-9.39071
ानी	-9.39075
▁डेटा	-9.39158
कै	-9.39184
▁धार्मिक	-9.39202
▁गंभीर	-9.39336
▁मालिक	-9.39364
▁श	-9.39417
▁इंजन	-9.39599
घ	-9.39629
▁इतालवी	-9.39699
▁कनाडाई	-9.39724
लि	-9.39756
▁जिस	-9.40016
▁बनने	-9.4003
▁इकाई	-9.40077
▁लु	-9.40086
▁मार्क	-9.40284
▁पोस्ट	-9.40356
▁महसूस	-9.40491
▁प्रीमियर	-9.40561
र्क	-9.40609
▁यहूदी	-9.40631
डेल	-9.40773
▁सेवानिवृत्त	-9.40818
▁ग्रीन	-9.40865
▁ईसाई	-9.40944
▁भविष्य	-9.4096
न्	-9.41138
ोन	-9.41209
▁बढ़ावा	-9.4156
▁कप्तान	-9.41562
▁नो	-9.41676
▁उत्पन्न	-9.41718
▁Â	-9.41875
▁स्पेनिश	-9.42175
▁वन	-9.42209
▁वा	-9.42235
▁लागत	-9.42239
▁सेवाओं	-9.42511
▁आयोग	-9.42951
s	-9.4296
▁व्यक्त	-9.4308
▁हमेशा	-9.43203
▁पुस्तकालय	-9.43254
▁हवा	-9.43312
▁नष्ट	-9.4332
यो	-9.4337
▁पेरिस	-9.43561
▁भेजा	-9.43623
▁रेड	-9.43647
▁संभावना	-9.43674
▁स्मारक	-9.43866
▁डु	-9.43877
▁पृष्ठभूमि	-9.43951
▁पाए	-9.43985
▁संभावित	-9.43993
▁शेष	-9.44088
▁गवर्नर	-9.4416
▁लाख	-9.44394
▁भोजन	-9.44423
▁हद	-9.44468
▁दूरी	-9.44499
▁लॉस	-9.44548
▁चैनल	-9.446
▁ऐसी	-9.44655
▁टेक्सास	-9.44739
▁नेता	-9.44842
▁सब	-9.45201
▁बेल	-9.45279
▁ग्रामीण	-9.45317
▁बिक्री	-9.45467
▁बहु	-9.45479
▁इसी	-9.45484
▁जीती	-9.45586
▁स्कोर	-9.45626
▁रखते	-9.45772
▁निश्चित	-9.4579
▁मेरे	-9.45867
मेन	-9.46031
▁कार्यकारी	-9.46129
▁रिकॉर्डिंग	-9.46351
सिया	-9.46429
▁जिनके	-9.46483
▁आपूर्ति	-9.46589
▁बढ़	-9.46695
▁पैमाने	-9.46695
▁माता	-9.46712
▁प्रशंसा	-9.46814
▁वालों	-9.46819
स्को	-9.46841
ल्ट	-9.46888
▁स्मिथ	-9.46943
▁बिशप	-9.47007
▁प्रकाश	-9.47036
ास	-9.47054
सर	-9.47058
▁साम्राज्य	-9.47116
▁प्रशासन	-9.47238
▁स्व	-9.47253
ेप	-9.47259
▁जीतने	-9.47346
▁पसंद	-9.47651
▁नृत्य	-9.47802
लु	-9.47836
▁किनारे	-9.47904
▁करेंगे	-9.4791
▁तं	-9.47931
▁सोवियत	-9.4796
▁अगर	-9.48032
रों	-9.48133
▁नीति	-9.48167
▁ग्रैंड	-9.48185
▁गीतों	-9.48211
▁राजमार्ग	-9.48442
▁आदमी	-9.48478
▁खेलने	-9.48498
▁लाइव	-9.48635
▁रूस	-9.4865
▁ऋण	-9.487
▁पैदल	-9.48716
▁सुझाव	-9.48762
t	-9.48805
▁आकर्षित	-9.48816
▁सरकारी	-9.48838
▁राष्ट्र	-9.4886
▁प्रतिनिधि	-9.48892
▁जीवनी	-9.48941
ंच	-9.48947
▁पि	-9.49022
▁पुनः	-9.49096
▁पुष्टि	-9.49129
वुड	-9.49304
▁उम्मीदवार	-9.49331
▁वित्तीय	-9.49346
▁ऑल	-9.49353
▁हि	-9.49383
▁चालक	-9.49501
निक	-9.49516
ष	-9.49558
▁रहता	-9.49653
▁आवास	-9.49711
▁ज़	-9.49771
विले	-9.49782
▁कार्रवाई	-9.49822
▁नोट	-9.4984
ठ	-9.49973
▁लगाने	-9.50153
▁बेच	-9.50166
▁सूचना	-9.50168
▁मंदिर	-9.50311
▁दोस्त	-9.50317
▁एड	-9.50425
▁प्राचीन	-9.5048
▁त	-9.50733
▁निर्देशन	-9.50844
▁अरब	-9.50949
▁प्रकाशन	-9.50983
▁रॉबर्ट	-9.51025
▁बलों	-9.51032
▁स्टार	-9.51076
▁ग्रे	-9.511
▁अल्	-9.51149
▁जल्द	-9.5124
▁बि	-9.5134
▁बंदरगाह	-9.51658
▁लगता	-9.51748
▁प्रौद्योगिकी	-9.52022
▁मिट्टी	-9.52112
▁ब्रांड	-9.52143
▁भ	-9.52334
▁चुने	-9.52349
▁कवर	-9.52562
गु	-9.52595
▁प्रबंधक	-9.52658
▁स्रोत	-9.5294
शि	-9.52943
▁मार्टिन	-9.53002
सं	-9.53017
▁हमले	-9.53038
विल	-9.53086
▁गै	-9.53231
मि	-9.53316
▁वितरण	-9.53363
▁बातचीत	-9.53368
कन	-9.53644
▁सतह	-9.53665
ाई	-9.53767
▁अंदर	-9.53805
▁मैन	-9.53944
▁गलत	-9.53967
▁हिट	-9.53993
▁निवासी	-9.54097
▁विशेषता	-9.54184
▁सचिव	-9.54275
▁जिम्मेदार	-9.54279
▁सीट	-9.54295
▁रिचर्ड	-9.54324
▁साझा	-9.54468
सि	-9.54537
▁निभाई	-9.54598
▁वैन	-9.54704
▁सांस्कृतिक	-9.5471
जैसे	-9.54783
रू	-9.54801
▁वोट	-9.54938
▁आयरलैंड	-9.55015
▁पति	-9.5504
▁रेजिमेंट	-9.55044
▁हिल	-9.55195
a	-9.55268
▁हमारे	-9.55358
▁पहुँच	-9.55515
▁कॉ	-9.55548
▁साइट	-9.5558
ियम	-9.55691
बार	-9.55715
▁बिजली	-9.55869
▁दौरे	-9.56125
▁लोकता	-9.56259
▁मिशन	-9.563
स्क	-9.56389
▁देखभाल	-9.56524
मोर	-9.56577
▁चाहते	-9.56627
▁हूँ	-9.56638
एच	-9.56658
▁बास्केटबॉल	-9.56678
d	-9.56707
ेड	-9.56959
▁ब्लैक	-9.57066
प्स	-9.57069
ीकरण	-9.571
ार्ड	-9.57184
कू	-9.57328
फी	-9.57363
▁व्यक्तियों	-9.5738
एक्स	-9.575
▁चौथे	-9.57512
▁सर्वोच्च	-9.57547
▁ध्वनि	-9.57553
▁वेल्स	-9.5768
▁अर्जित	-9.57716
▁शहरों	-9.57816
▁देखने	-9.58094
▁जोसेफ	-9.58114
ेशन	-9.58151
बु	-9.58157
िनो	-9.5817
▁मैंने	-9.58205
ल्	-9.58398
▁छोड़ने	-9.58585
▁लघु	-9.58595
ॉ	-9.58735
▁शाखा	-9.58749
▁घरों	-9.58816
▁राजधानी	-9.58885
▁जैक	-9.58943
▁एंजिल्स	-9.59134
▁ब्राउन	-9.59178
▁स्टेडियम	-9.5927
▁शिकागो	-9.59316
ेंट	-9.5933
बू	-9.59369
▁होटल	-9.59375
▁कहते	-9.59418
▁गठबंधन	-9.59435
▁सहयोगी	-9.595
▁रोक	-9.59504
▁मतदान	-9.59534
▁बहन	-9.59635
▁जाए	-9.59671
लिस	-9.59739
बैक	-9.59767
▁मिले	-9.59848
▁बदलकर	-9.59938
▁होकर	-9.59953
▁डेल	-9.60058
▁काले	-9.60105
▁दान	-9.60128
▁समर्पित	-9.60306
▁न्याय	-9.60352
▁जैसी	-9.60357
अप	-9.60524
▁हिस्सों	-9.60583
▁जुड़े	-9.60713
▁आपको	-9.60923
▁II	-9.60975
ंडा	-9.61058
▁इटली	-9.61154
गल	-9.61182
c	-9.6123
पुर	-9.61354
खा	-9.61376
▁मास्टर	-9.61498
▁शराब	-9.61727
▁उनमें	-9.61734
▁संचार	-9.61792
▁व्यावसायिक	-9.61873
▁घोषित	-9.61944
▁लेबल	-9.62024
▁ड	-9.62038
▁सुविधा	-9.62084
▁लै	-9.62105
▁स्थायी	-9.62187
▁प्रकृति	-9.62194
▁आयोजन	-9.62295
▁ख	-9.623
r	-9.62326
▁अप	-9.62356
▁तूफान	-9.62611
▁रोम	-9.62783
रस	-9.62802
▁मछली	-9.62836
▁लेखन	-9.63024
▁न्यूजीलैंड	-9.63216
ोव	-9.63291
▁शांति	-9.63347
हे	-9.63449
▁अनुवाद	-9.6368
▁सजा	-9.63833
▁कर्मचारियों	-9.6396
▁पकड़	-9.63963
▁महत्व	-9.63966
▁निवास	-9.64028
स्टा	-9.64066
▁सही	-9.64275
इल	-9.64289
▁शिविर	-9.64298
▁चर्चा	-9.64382
▁उपचार	-9.64495
▁टि	-9.64542
ट्रो	-9.64581
▁बस्ती	-9.64701
▁वंश	-9.64712
▁पैरिश	-9.6473
▁विश्लेषण	-9.64893
डब्ल्यू	-9.64907
ॉन	-9.64982
▁लेख	-9.64999
▁अपराध	-9.6516
▁वर्जिनिया	-9.65222
ात्कार	-9.65259
▁करीब	-9.65348
▁कमांडर	-9.65448
▁रानी	-9.65547
▁कंप्यूटर	-9.65557
▁तकनीकी	-9.65578
▁निर्देशक	-9.65593
▁इनमें	-9.65614
▁आक्रमण	-9.65693
▁विवाद	-9.65787
▁मनोरंजन	-9.66118
कल	-9.66249
सेन	-9.66344
▁निवेश	-9.66429
▁दर्शकों	-9.66695
▁लंबाई	-9.66751
ेज	-9.66768
▁उद्घाटन	-9.6682
▁ज्यादातर	-9.66965
▁तेल	-9.66986
▁ज	-9.6718
▁राजनीति	-9.673
▁अत्यधिक	-9.67344
▁न्यायालय	-9.67415
जर	-9.67586
▁कॉल	-9.67659
▁लुईस	-9.67709
ाया	-9.67953
▁प्रचार	-9.67971
▁वापसी	-9.68023
▁अड्डे	-9.68217
▁निगम	-9.68288
चर	-9.68314
▁प्रजातियों	-9.68333
▁सलाहकार	-9.68373
▁किमी	-9.68384
▁संपादक	-9.6841
▁निवासियों	-9.68482
▁संगीतकार	-9.68483
ापन	-9.68553
ंद	-9.68731
▁उत्पाद	-9.68773
▁पवि	-9.68807
▁लंबा	-9.68937
शे	-9.68953
डि	-9.68994
▁विलय	-9.68996
▁माल	-9.6903
▁लोक	-9.69037
▁अच्छे	-9.69046
▁औपचारिक	-9.69071
▁व्यवस्था	-9.69078
▁एयर	-9.69083
▁गतिविधियों	-9.69112
ुल	-9.69196
कि	-9.69342
▁स्पेन	-9.69353
▁परिभाषित	-9.69398
▁संस्थापक	-9.69407
स्त	-9.69431
दर	-9.6945
▁गैस	-9.695
▁सै	-9.69524
▁अभिनेता	-9.6955
▁पाठ्यक्रम	-9.69563
ज़ो	-9.69581
▁तीसरी	-9.69673
▁सर्वे	-9.69777
आधारित	-9.69896
▁प्रभावी	-9.70012
▁चल	-9.70102
▁मंडल	-9.70139
▁पाठ	-9.70231
▁बढ़ाने	-9.70231
▁गर्मियों	-9.70237
▁तीसरा	-9.70263
कर्ता	-9.70337
्या	-9.70363
▁एडवर्ड	-9.70382
m	-9.70385
मेंट	-9.70499
▁गा	-9.70506
▁श्रम	-9.7054
▁भवन	-9.70542
▁कंपनियों	-9.70625
▁वीं	-9.70657
▁कार्ड	-9.70665
▁व्हाइट	-9.70693
▁तेज	-9.70734
o	-9.70759
▁डाल	-9.70767
यों	-9.70787
▁चोट	-9.70857
▁जीते	-9.70885
▁न्यायाधीश	-9.70891
▁सभा	-9.70958
▁जल्दी	-9.71046
▁खेलते	-9.71048
▁रचना	-9.71067
▁मूल्यांकन	-9.71083
वेन	-9.71168
हाउस	-9.71192
▁पुरानी	-9.71225
▁बदलने	-9.71256
इट	-9.71344
▁प्रशासनिक	-9.71348
▁छत	-9.71404
▁फ्लोरिडा	-9.71449
▁रखता	-9.715
रेन	-9.71577
ाइन	-9.71673
▁लाइसेंस	-9.71721
▁मोटर	-9.71728
▁अवसर	-9.7174
▁कार्ल	-9.71907
लन	-9.72064
▁समझौते	-9.72073
▁टिप्पणी	-9.72125
▁निचले	-9.72141
▁ऊपरी	-9.72144
▁अनुरोध	-9.7221
ंज	-9.72265
▁री	-9.72322
▁गे	-9.72362
▁राज्यों	-9.72419
▁साबित	-9.72458
▁निर्देशित	-9.72487
▁फ	-9.72489
▁रह	-9.72515
▁यौन	-9.72648
▁जहाजों	-9.7267
▁रूढ़िवादी	-9.72786
▁सहमत	-9.72794
▁मर	-9.72924
▁कविता	-9.72927
▁जोर	-9.72964
▁बचाव	-9.72964
▁सुबह	-9.7304
हर	-9.73094
ाइड	-9.7322
▁जोड़ी	-9.73297
▁चलने	-9.73406
र्ज	-9.73438
▁टे	-9.73518
▁डिजिटल	-9.73568
स्की	-9.73655
▁समारोह	-9.73796
▁भगवान	-9.73902
ाना	-9.73904
▁वकील	-9.74028
▁उचित	-9.74375
िप्त	-9.74393
▁मेजबानी	-9.74541
▁रोकने	-9.74549
!"	-9.74602
▁आयरिश	-9.74689
▁चली	-9.74701
▁विरोधी	-9.74856
▁मुख्यालय	-9.75169
▁देखें	-9.75261
▁एट	-9.75486
▁पाई	-9.75486
क्	-9.75524
▁जु	-9.75535
▁धारा	-9.75568
▁बेन	-9.75608
सू	-9.75615
▁द्वार	-9.75817
िव	-9.75825
▁देखते	-9.75863
▁कथित	-9.76192
▁घायल	-9.76357
▁सीनेट	-9.76375
▁वास्तुकला	-9.76406
▁उत्सव	-9.76439
▁इंजीनियरिंग	-9.76492
▁व	-9.76556
▁टै	-9.76755
▁सम्राट	-9.76781
x	-9.76816
िंगटन	-9.76817
▁वर्	-9.76824
▁आइ	-9.76889
▁बढ़ा	-9.7692
णिक	-9.76935
▁इच्छा	-9.77079
▁डाय	-9.77096
▁बेसबॉल	-9.77247
विन	-9.7727
ंडर	-9.77271
ोर	-9.77281
▁भर्ती	-9.77356
लिया	-9.77407
▁कर्मचारी	-9.77434
▁विभाजन	-9.77437
▁हूं	-9.77448
▁चे	-9.77479
▁दिल	-9.7751
िश	-9.77753
▁दबाव	-9.77797
▁लिखे	-9.77819
▁बर्	-9.77848
सेल	-9.77911
▁सकारात्मक	-9.77929
▁प्रारूप	-9.77957
▁मारे	-9.77975
▁पेशकश	-9.78063
▁होंगे	-9.7808
▁घटनाओं	-9.78259
अब	-9.78278
▁संबंधों	-9.78287
तु	-9.78296
▁स्थिर	-9.78599
क्यू	-9.78674
▁नॉर्वे	-9.78773
▁बनाम	-9.78817
▁बैठक	-9.78827
▁आता	-9.78898
▁क्रम	-9.79025
स्टो	-9.7909
▁गिल	-9.79107
▁जलवायु	-9.79175
▁अधिग्रहण	-9.79221
▁नियम	-9.79244
शन	-9.79296
▁आंशिक	-9.79299
▁गर्म	-9.79545
▁बनाता	-9.79571
▁वृत्त	-9.79686
▁स्वर्ण	-9.79698
▁गुप्त	-9.79704
िना	-9.79789
लेन	-9.79809
▁वाणिज्यिक	-9.79816
▁जॉर्जिया	-9.79836
▁व्याख्या	-9.79941
▁बोल	-9.79951
▁वैकल्पिक	-9.8011
▁लेते	-9.8013
▁लैटिन	-9.80145
▁रू	-9.80338
ंगा	-9.80373
▁पोर्ट	-9.80459
▁घ	-9.80477
▁समकालीन	-9.80534
मेट	-9.80585
▁च	-9.80618
▁शा	-9.80669
▁ट्रेन	-9.80783
▁तथ्य	-9.81057
▁शिकार	-9.81114
म्ब	-9.8113
णों	-9.81153
▁अवधारणा	-9.81188
▁डच	-9.81244
▁वित्त	-9.81247
n	-9.81292
▁स्कूलों	-9.8131
▁समझ	-9.81454
▁लौटने	-9.81525
▁योग्यता	-9.8172
▁अपे	-9.81746
्र	-9.81754
िट	-9.81773
▁अपील	-9.81777
▁नाइट	-9.8182
▁राजनेता	-9.81882
बेल	-9.81904
▁संशोधन	-9.81983
वै	-9.82292
▁बेटा	-9.82308
▁प्रयासों	-9.82343
▁हॉकी	-9.82349
▁बाकी	-9.82364
▁पै	-9.82533
▁बुनियादी	-9.82536
▁जाया	-9.82728
जिसे	-9.82794
लोन	-9.82817
▁ग्रीष्मकालीन	-9.82856
स्का	-9.82897
स्टन	-9.82904
▁कैरोलिना	-9.82934
▁सौ	-9.82954
▁वो	-9.8296
▁मैट	-9.83004
▁सिटी	-9.83135
कॉम	-9.83308
▁साहित्य	-9.83353
▁अलेक्जेंडर	-9.83555
▁स्कॉट	-9.83578
▁बनी	-9.83719
▁परमाणु	-9.83847
हन	-9.8389
फो	-9.83957
▁आनंद	-9.83996
▁निर्देश	-9.84019
▁मुद्दों	-9.84037
मेल	-9.84052
▁छोर	-9.84077
ाव	-9.84217
▁साउथ	-9.84259
▁फर्म	-9.84272
मैं	-9.84281
▁रोग	-9.84515
▁फाउंडेशन	-9.84554
▁फि	-9.84569
▁फ्रैंक	-9.84577
▁प्ले	-9.84616
▁आधे	-9.84644
स्टे	-9.84714
वल	-9.84735
▁तुर्की	-9.84778
फर	-9.84882
ट्ज़	-9.85016
मार	-9.85031
▁विद्रोह	-9.85102
▁उत्तराधिकारी	-9.85252
▁प्रदर्शनी	-9.85433
▁विशाल	-9.85482
▁वस्तुओं	-9.85485
▁पर्यावरण	-9.855
रिन	-9.85589
▁प्रतिस्थापित	-9.8584
▁संभवतः	-9.85858
▁शब्दों	-9.85902
▁पैर	-9.8594
स्व	-9.85953
बर्ट	-9.85976
िडे	-9.86076
यन	-9.86242
▁अंतरि	-9.8629
▁बजे	-9.86303
▁वैश्विक	-9.8631
▁आर्ट	-9.86439
▁प्रतीक	-9.86525
▁स्क्वाड्रन	-9.86547
▁श्रेय	-9.86621
▁अन	-9.86684
▁समस्या	-9.86791
▁कमजोर	-9.86797
धा	-9.86926
शायर	-9.86959
▁यूनानी	-9.86994
▁ब्रे	-9.86997
▁चाहता	-9.87032
▁नगर	-9.8711
बिन	-9.87175
यं	-9.87182
▁गि	-9.87186
▁मशीन	-9.87265
टू	-9.87284
▁प्रशांत	-9.87287
▁अस्थायी	-9.87396
▁कदम	-9.87401
▁वेबसाइट	-9.87484
▁पृथ्वी	-9.87593
वह	-9.8763
▁मानना	-9.87672
?"	-9.87734
▁हा	-9.87799
▁कोर	-9.87844
▁शुल्क	-9.8785
▁देना	-9.87852
्व	-9.87901
▁संत	-9.88035
▁रग्बी	-9.88092
▁जि	-9.88173
▁सामुदायिक	-9.88205
▁जोड़े	-9.88227
▁यूनियन	-9.88274
▁प्रमाण	-9.88296
▁ब्लॉक	-9.8835
▁संयोजन	-9.88389
फे	-9.8846
▁वाहन	-9.88476
▁राय	-9.88513
▁डर	-9.8864
▁भावना	-9.88675
स्प	-9.88771
▁तारीख	-9.88829
दु	-9.88862
▁हमें	-9.88962
▁रै	-9.88997
▁कैन	-9.89063
▁साइ	-9.891
▁पॉप	-9.89115
▁ऑनलाइन	-9.89208
▁तापमान	-9.8921
हि	-9.89219
▁फो	-9.89272
▁I	-9.89365
▁दीवार	-9.89422
बि	-9.89518
▁लेन	-9.89739
▁कब्रिस्तान	-9.89843
शस्	-9.89843
▁जनता	-9.89894
▁बच	-9.89937
▁मौत	-9.90044
फ्ट	-9.90114
▁अंडर	-9.90145
▁ओपेरा	-9.90296
▁रद्द	-9.90305
▁निष्कर्ष	-9.9044
▁ईस्ट	-9.90578
▁द्वीपों	-9.90615
▁एशियाई	-9.90622
▁बैक	-9.90625
ब्र	-9.90741
▁खरीदा	-9.90763
▁नामांकन	-9.90783
▁खरीद	-9.90822
▁पुस्तकों	-9.90965
▁डाला	-9.91157
▁ड्यूक	-9.91245
▁फ्री	-9.91245
▁मिश्रित	-9.91324
▁इमारतों	-9.91366
स्टीन	-9.9137
▁शेर	-9.91398
ल्फ	-9.91492
▁धातु	-9.91542
ेज़	-9.91623
▁चिह्नित	-9.9171
▁इकाइयों	-9.9174
▁दिशा	-9.91741
गत	-9.91758
▁ब्ल	-9.91812
▁राजकुमार	-9.91847
▁मेक्सिको	-9.91874
▁सरल	-9.91892
▁मिलाकर	-9.91909
र्म	-9.91919
▁अर्थव्यवस्था	-9.9212
▁निर्भर	-9.92179
▁गुणवत्ता	-9.92279
▁चुनौती	-9.92346
▁अस्तित्व	-9.9236
▁संभव	-9.92409
▁कथा	-9.92424
▁दुकान	-9.92637
▁बांध	-9.92682
▁एसोसिएशन	-9.92731
▁पढ़ाई	-9.92789
▁जोन्स	-9.92907
वान	-9.92912
▁जिम	-9.92949
▁जॉनसन	-9.92976
▁माध्यमिक	-9.93022
▁गार्ड	-9.93027
▁गतिविधि	-9.9305
मिन	-9.93195
ड़ा	-9.93281
▁शहरी	-9.93361
याँ	-9.93428
▁एजेंसी	-9.93432
ुआ	-9.93464
▁प्रतिबंध	-9.93475
▁संशोधित	-9.93491
्ज	-9.93559
▁दोषी	-9.93571
सिन	-9.93586
▁रास्ते	-9.93602
▁काल	-9.93654
▁हॉ	-9.93835
रिस	-9.9384
▁औद्योगिक	-9.93881
▁पोप	-9.94111
▁भूगोल	-9.94192
▁व्युत्पत्ति	-9.94309
▁खाद्य	-9.9448
▁किले	-9.94488
▁अनुसरण	-9.94572
▁निरंतर	-9.94638
जि	-9.9464
▁अस्वीकार	-9.94651
▁कैप	-9.9472
▁वजन	-9.94798
▁लाया	-9.94825
▁कोड	-9.94876
▁सिडनी	-9.94969
▁जर्सी	-9.94986
▁पारित	-9.95068
राज	-9.95224
▁मैचों	-9.95247
▁अधिकतम	-9.95335
▁बॉक्स	-9.95391
ग्	-9.95436
▁खुले	-9.9547
▁जिन	-9.95528
▁संविधान	-9.95552
▁हस्त	-9.9558
▁फील्ड	-9.95608
▁ऑन	-9.95616
लेस	-9.95663
▁विषयों	-9.95677
▁बटालियन	-9.95705
रेट	-9.9576
पि	-9.95839
▁जुड़ा	-9.95949
▁मिस्र	-9.95953
सिस	-9.96259
▁ट्रे	-9.96386
▁समग्र	-9.96543
▁ब्रिगेड	-9.96579
▁विधि	-9.96583
सम	-9.96609
लाइन	-9.96688
▁तरफ	-9.96779
▁पाउंड	-9.96828
▁उत्कृष्ट	-9.96835
▁वर्गीकरण	-9.96907
▁ओहियो	-9.96944
▁बोस्टन	-9.96979
▁ड्रॉ	-9.97055
%)	-9.97089
रेस	-9.9712
▁पदोन्नत	-9.97155
▁विधानसभा	-9.97155
▁परिवर्तित	-9.97223
▁मौजूदा	-9.97364
▁मारा	-9.97372
▁किंगडम	-9.97374
▁प्रगति	-9.97405
ँ	-9.97451
▁सेंटर	-9.97507
▁बै	-9.97566
▁लेता	-9.97602
▁एशिया	-9.97636
▁स्कॉटलैंड	-9.97643
▁पोलैंड	-9.97679
▁भागीदारी	-9.97783
▁विस्तृत	-9.97786
▁प्रधान	-9.97829
▁मिलता	-9.97922
ट्र	-9.98065
▁उल्लंघन	-9.98086
▁जिनका	-9.98201
▁लगे	-9.98209
▁वितरित	-9.98216
▁गृह	-9.98233
▁मारिया	-9.98308
▁गिरफ्तार	-9.98381
▁नव	-9.98462
▁तोड़	-9.98519
▁बदलाव	-9.98597
▁समलैंगिक	-9.98694
▁मिमी	-9.98713
टेल	-9.98716
▁टॉम	-9.98804
▁शिखर	-9.98817
▁पेन	-9.98818
▁पकड़ने	-9.98944
▁पहुंचने	-9.98955
लियन	-9.99035
गेट	-9.99058
k	-9.99063
टाउन	-9.99293
▁सड़कों	-9.99321
▁शारीरिक	-9.99329
▁मिशिगन	-9.99336
▁रु	-9.99365
▁शाम	-9.99373
▁"(	-9.99381
▁अधिकारों	-9.99383
कारी	-9.99426
▁जेन	-9.99546
▁स्टॉक	-9.99584
▁महापौर	-9.99661
्रा	-9.99755
▁टाइम्स	-9.99833
▁अंकों	-9.99844
▁संबद्ध	-9.99876
▁बोली	-9.99891
▁गोली	-9.99903
ीन	-9.99907
▁देगा	-9.9992
▁भू	-9.99986
▁ब्राजील	-10.0005
▁फा	-10.0007
▁कोर्ट	-10.0014
▁महीनों	-10.0016
▁पादरी	-10.002
▁उपनाम	-10.0024
▁बर्फ	-10.0028
▁थाः	-10.0041
किन	-10.0041
▁क्रिकेट	-10.0042
चार	-10.0043
लू	-10.0049
▁लिखी	-10.005
▁!	-10.0061
▁मंजूरी	-10.0062
▁टूट	-10.0067
▁स्टोर	-10.0073
▁प्रतीत	-10.008
▁उत्पत्ति	-10.0083
▁आर्	-10.0087
▁टू	-10.0089
▁जोखिम	-10.0095
▁पड़ोस	-10.0096
▁ओपन	-10.0104
▁गिरावट	-10.0115
▁प्रणालियों	-10.0115
▁विचारों	-10.0121
्ज़	-10.0122
में	-10.0122
▁प्रवाह	-10.0124
रोन	-10.0125
▁पेंसिल्वेनिया	-10.0128
▁उपकरणों	-10.0128
▁III	-10.0129
वास	-10.0133
▁किंग	-10.0133
▁परंपरा	-10.0141
विस	-10.0142
▁रेस	-10.0155
▁स्थितियों	-10.0155
▁फैला	-10.0157
सेट	-10.0189
ियां	-10.0196
▁क्रांति	-10.0199
▁पर्वत	-10.0205
▁सुनिश्चित	-10.0205
पोर्ट	-10.0211
▁माइक	-10.0211
▁विद्युत	-10.0217
डन	-10.0224
▁हल	-10.0225
▁हेल	-10.0226
▁भीड़	-10.0229
बरी	-10.023
▁क्रे	-10.0231
▁मार्	-10.0235
▁कपड़े	-10.0237
दो	-10.0237
ैन	-10.0244
▁तकनीक	-10.0251
▁पहुंचे	-10.0255
▁लेफ्टिनेंट	-10.0256
▁खर्च	-10.0258
▁अभिने	-10.0265
ाइट	-10.0265
▁खा	-10.0271
▁परेशान	-10.0272
▁अध्याय	-10.0274
▁कल	-10.028
अमेरिकी	-10.028
▁अव	-10.0285
म्स	-10.0285
▁संदेह	-10.0287
▁कट	-10.0292
िक्स	-10.0295
▁दा	-10.0299
u	-10.0314
▁पुनर्निर्माण	-10.0333
▁श्रमिकों	-10.0336
▁स्टेट	-10.0337
▁मुकदमा	-10.0343
▁असमर्थ	-10.0346
▁जंगल	-10.0347
▁कोलंबिया	-10.0348
▁संगठनों	-10.0348
▁सैनिक	-10.0349
▁इस्तीफा	-10.0349
▁छोड़कर	-10.0368
l	-10.038
्क	-10.0383
▁वार्ड	-10.0394
▁दायर	-10.0396
▁थोड़ा	-10.0413
▁चारों	-10.043
ेरा	-10.0442
▁सिस्टम	-10.0455
▁वाइ	-10.0465
ही	-10.0465
▁मतलब	-10.0475
▁गिटार	-10.0477
▁विलियम्स	-10.0477
ांग	-10.0484
▁लड़की	-10.049
▁ज़ा	-10.0495
▁दफनाया	-10.0495
▁उन्नत	-10.0498
▁कल्पना	-10.05
▁डिस्क	-10.0503
▁भौतिक	-10.0507
▁जमीन	-10.0507
▁आदि	-10.0514
▁क्रिस	-10.0519
▁मध्यम	-10.0521
▁रखी	-10.0522
▁झ	-10.0522
झ	-10.0524
▁विवाह	-10.0528
डल	-10.0529
▁कं	-10.0529
▁आमं	-10.0536
▁बनाते	-10.0543
▁सेमीफाइनल	-10.0543
▁लॉन्च	-10.0547
▁उपाधि	-10.0552
स्टार	-10.0562
▁वयस्क	-10.0573
▁स्वर	-10.0576
▁विदेश	-10.0579
▁ऑपरेशन	-10.0584
▁प्रोत्साहित	-10.0585
▁कमरे	-10.0586
▁निकाल	-10.0589
कुल	-10.0595
▁सेकंड	-10.0601
▁मोड़	-10.0615
▁फिलीपींस	-10.0624
ाल	-10.0628
्यु	-10.0634
▁मानचि	-10.0636
मै	-10.064
▁एजेंट	-10.0646
▁फ्ल	-10.0651
▁छवि	-10.0653
▁बढ़ती	-10.0656
▁खाली	-10.0659
टिक	-10.066
▁दर्शन	-10.0666
रिक	-10.0674
चन	-10.0679
▁पुरस्कारों	-10.0685
▁लिंग	-10.0692
ोल	-10.0696
▁क्रमशः	-10.0722
इक	-10.073
▁बचने	-10.0731
▁मठ	-10.0737
▁विस्फोट	-10.0738
▁पेड़	-10.0739
▁चलाया	-10.0743
▁नियमों	-10.0746
धीरे	-10.0752
▁बर्लिन	-10.0754
▁विस्तारित	-10.0761
▁आवाज़	-10.0763
▁जान	-10.077
▁संधि	-10.0773
▁जटिल	-10.0773
▁अपनाया	-10.0778
▁संभाला	-10.0779
ंगे	-10.0781
▁नौकरी	-10.0788
▁तैनात	-10.079
▁कॉमेडी	-10.079
▁एंटी	-10.0793
▁चै	-10.0793
▁बहस	-10.0794
▁विक्टोरिया	-10.0802
▁राशि	-10.081
▁रेसिंग	-10.081
▁आवाज	-10.0813
▁दर्शाता	-10.0814
▁इलिनोइस	-10.0814
▁लेखकों	-10.0815
ंत	-10.0816
▁रिहा	-10.0828
▁वसंत	-10.0836
▁माउंट	-10.0842
▁बढ़ने	-10.0843
▁कैंसर	-10.0849
▁परिवारों	-10.0852
▁समाधान	-10.0854
▁आलोचकों	-10.0854
▁गेंद	-10.086
▁जमा	-10.0874
ंगो	-10.0878
▁सुंदर	-10.0882
▁बराबर	-10.0883
▁इतना	-10.0884
▁टैंक	-10.0885
▁सॉफ्टवेयर	-10.0891
▁मिश्रण	-10.0893
लीन	-10.0898
▁घनत्व	-10.0902
ूर	-10.0905
स्टी	-10.0918
पश्चिमी	-10.0922
▁घास	-10.0923
▁प्री	-10.0931
▁जानी	-10.0932
▁राउंड	-10.0933
▁रजिस्टर	-10.0934
▁ऊंचाई	-10.0935
▁पीड़ित	-10.094
▁पुनर्	-10.0954
▁पुराना	-10.0965
▁वॉन	-10.097
थे	-10.0977
स्ट्र	-10.0979
▁स्कॉटिश	-10.1
▁कठिन	-10.1013
▁कीमत	-10.1015
▁डेस	-10.1016
▁तल	-10.1018
▁तत्व	-10.1022
रियो	-10.1023
▁तत्वों	-10.1026
िड	-10.1031
▁डॉक्टर	-10.1035
▁स्टे	-10.1045
▁उत्पादों	-10.1051
▁चक्र	-10.1053
▁बेड़े	-10.1059
▁फी	-10.1059
उस	-10.1064
▁प्रोटीन	-10.1065
▁थेः	-10.1068
ॉक्स	-10.1071
▁मर्	-10.1071
▁मिस	-10.1077
▁रोल	-10.1087
▁वेब	-10.1089
▁वास्तुकार	-10.1094
निया	-10.1096
▁चुनावों	-10.1096
छ	-10.1102
▁फ्रेंच	-10.1105
मिया	-10.1108
सल	-10.111
साइड	-10.1111
▁एवेन्यू	-10.1116
▁फिलिप	-10.112
▁अनिवार्य	-10.1125
▁स्टेशनों	-10.1126
रियल	-10.1127
▁x	-10.1132
▁प्ल	-10.1135
▁सोने	-10.1139
▁यो	-10.1155
▁अवलोकन	-10.1156
▁कौशल	-10.1156
▁अगली	-10.1163
▁इज़राइल	-10.1168
टिन	-10.118
हेड	-10.1187
▁फल	-10.12
▁अर्ध	-10.1214
▁क्वार्टर	-10.1216
ऑफ	-10.1218
▁बर्न	-10.1219
हु	-10.1222
▁धीरे	-10.1227
▁पोल	-10.1231
▁कोरिया	-10.1235
▁गुण	-10.1236
▁खड़ा	-10.1238
▁दवा	-10.1238
▁शक्तिशाली	-10.1247
ंडे	-10.1251
▁हाइ	-10.1255
▁क्रो	-10.1269
▁ट्रांस	-10.1269
▁घोड़े	-10.128
▁संक्रमण	-10.128
▁खान	-10.1289
▁दुर्घटना	-10.1296
▁सटीक	-10.1296
▁वातावरण	-10.13
ट्रे	-10.13
ब्रे	-10.1301
▁शे	-10.1303
जेन	-10.1308
▁ऑर्	-10.1309
▁खतरे	-10.131
▁समस्याओं	-10.131
ार	-10.131
▁मेजबान	-10.1313
हीन	-10.1322
▁राम	-10.1323
त्त	-10.1341
था	-10.1342
▁एलिजाबेथ	-10.1342
▁बदले	-10.1345
▁मन	-10.1347
▁बुक	-10.1347
▁बनाना	-10.1358
▁कठोर	-10.1359
▁तु	-10.1363
टल	-10.1367
्च	-10.1371
ंप	-10.1378
▁मानते	-10.139
▁सलाह	-10.1391
▁प्रत्य	-10.1391
▁पंक्ति	-10.1393
▁खोल	-10.1395
▁नागरिकों	-10.1399
दान	-10.1403
रल	-10.1414
);	-10.1424
▁परियोजनाओं	-10.1426
▁मिलने	-10.1433
▁चिकित्सक	-10.1437
▁बारह	-10.1443
भार	-10.1444
िनी	-10.145
▁अनुदान	-10.1451
▁मुश्किल	-10.1457
▁प्रतिबंधित	-10.1458
ड्स	-10.1459
▁निर्वाचन	-10.1462
पू	-10.1467
▁वर्गीकृत	-10.1476
शो	-10.1476
क्रम	-10.1476
्थ	-10.148
यान	-10.1486
▁जानते	-10.1487
▁पीढ़ी	-10.1488
▁आसानी	-10.1489
▁साझेदारी	-10.1492
▁मैसाचुसेट्स	-10.1494
▁बंदूक	-10.1497
▁देखी	-10.1499
▁गोल्ड	-10.1503
▁ऑर्केस्ट्रा	-10.1507
▁कांस्य	-10.1513
ीकृत	-10.1516
▁हर्	-10.1517
▁खुलासा	-10.1517
▁प्रेम	-10.1518
पु	-10.1518
ड़ी	-10.1525
▁ब्लू	-10.1531
्रो	-10.1533
कर्ताओं	-10.1533
▁खेत	-10.154
▁पीछा	-10.1543
िप	-10.1547
▁वस्तु	-10.1547
▁प्राधिकरण	-10.1547
▁रेस्तरां	-10.1548
▁दें	-10.1553
▁चिंता	-10.1557
िला	-10.156
▁अर्जेंटीना	-10.1561
▁दुश्मन	-10.1561
▁जाएगी	-10.1566
▁यातायात	-10.1592
र्ग	-10.1594
म्	-10.16
▁साइड	-10.16
▁नॉर्थ	-10.1602
्स्की	-10.1603
▁बयान	-10.1608
▁कहना	-10.1609
बाद	-10.1613
▁अधीन	-10.1617
▁विशेषताओं	-10.1619
आउट	-10.1625
नाम	-10.1628
▁भाइयों	-10.1635
▁निशान	-10.1638
▁टुकड़े	-10.1656
ब्रा	-10.1673
बिलबोर्ड	-10.1682
▁वाई	-10.1683
▁बहाल	-10.1685
▁सेवानिवृत्ति	-10.1686
▁स्टील	-10.1687
मोंट	-10.1687
▁कहता	-10.1688
▁एनी	-10.1689
▁निगरानी	-10.1694
▁रणनीति	-10.1703
▁सुविधाओं	-10.1711
▁शानदार	-10.1711
▁डेनियल	-10.1713
ग्रा	-10.1715
▁रंगमंच	-10.172
रित	-10.1723
▁उद्यम	-10.1723
▁यहां	-10.1728
▁भव्य	-10.1728
्सन	-10.1734
▁घटक	-10.1735
▁इकट्ठा	-10.1736
▁बगल	-10.1738
▁अनुक्रम	-10.1738
▁तरीकों	-10.1739
▁अनुरूप	-10.1742
▁संकाय	-10.1746
▁प्रजनन	-10.1751
▁उठाया	-10.1754
ाय	-10.1757
्वा	-10.1761
▁लॉर्ड	-10.1761
▁सवाल	-10.1762
▁शास्	-10.1762
▁बढ़ते	-10.1785
▁तैयारी	-10.1788
टीवी	-10.1788
्वे	-10.179
▁क्लासिक	-10.1805
▁डेविस	-10.1806
▁हथियार	-10.181
▁मौ	-10.1813
▁बचा	-10.1821
▁चूंकि	-10.1823
▁उपयुक्त	-10.1827
▁मारने	-10.1829
▁रहती	-10.183
▁मृत	-10.1833
▁रेटिंग	-10.1845
▁थ	-10.1846
▁पंख	-10.1849
न्यू	-10.1851
▁मुकदमे	-10.1852
स्टोन	-10.1871
▁टिकट	-10.1872
▁संदेश	-10.1876
▁फुटबॉलर	-10.1878
▁अटलांटिक	-10.1882
▁फेंक	-10.1882
▁इंक	-10.1885
ुर	-10.1887
▁बेल्जियम	-10.1889
▁पड़ता	-10.1891
▁करोड़	-10.1894
ॉय	-10.1906
▁बैल	-10.1906
प्रो	-10.1912
ून	-10.1913
▁आपके	-10.1918
▁परिदृश्य	-10.1921
पन	-10.1922
▁लाने	-10.1925
▁ईसा	-10.1926
▁बीमारी	-10.1931
▁मामला	-10.1931
▁कहीं	-10.1932
▁ब्रेक	-10.1934
्को	-10.1937
▁प्लेट	-10.1941
सिल	-10.1946
▁सहमति	-10.1964
टि	-10.1969
▁आते	-10.1976
▁ओक	-10.1979
▁एकीकृत	-10.1981
▁अभिव्यक्ति	-10.1983
▁खोजने	-10.1989
▁संकट	-10.199
ेक्ट	-10.1998
▁स्वीडिश	-10.2003
▁बिताया	-10.2003
ाकृत	-10.2003
▁प्रतिरोध	-10.2009
्मा	-10.2022
▁दुर्लभ	-10.2024
▁इंजीनियर	-10.2032
▁फूल	-10.2033
▁चट्टान	-10.2055
▁भाषण	-10.2055
▁अतिथि	-10.206
इंड	-10.2061
▁तनाव	-10.2063
▁स्प	-10.2066
रम	-10.2066
▁पैन	-10.2069
▁असामान्य	-10.2072
▁प्रयोग	-10.2074
▁प्रतिद्वंद्वी	-10.2077
▁टेलर	-10.2089
▁नामांकित	-10.2089
▁बाढ़	-10.2091
▁सौंप	-10.2095
्टर	-10.2096
▁विविधता	-10.211
▁फिल	-10.2111
▁कोशिका	-10.2112
▁पेट	-10.2118
▁ड्राइव	-10.2119
रिच	-10.2121
▁नेताओं	-10.2128
▁गहरे	-10.2133
▁कोरियाई	-10.2134
▁क्ल	-10.2135
़	-10.2137
▁साहित्यिक	-10.2144
▁प्रभावों	-10.2158
यु	-10.2161
▁भाषाओं	-10.2166
▁जीव	-10.2166
▁हटाने	-10.2188
▁चेतावनी	-10.2192
▁टूर	-10.2197
▁प्रभाग	-10.2197
▁जोड़ने	-10.2202
▁नी	-10.2204
▁समुदायों	-10.2205
▁राजवंश	-10.2211
ोट	-10.2213
▁इतिहासकार	-10.2215
▁पैटर्न	-10.2216
▁सीडी	-10.222
▁रक्त	-10.2223
▁मू	-10.2228
▁पसंदीदा	-10.2232
▁महाविद्यालय	-10.2234
▁प्रस्तावित	-10.2234
▁जू	-10.2246
▁विंग	-10.2247
्टी	-10.2247
▁ईंधन	-10.2248
▁सौंपा	-10.225
जु	-10.2253
▁लिंक	-10.2254
▁बढ़ाया	-10.2255
▁गणना	-10.2256
▁उनसे	-10.2258
रॉन	-10.2259
▁प्रांतीय	-10.2263
▁देर	-10.2264
▁दैनिक	-10.2264
ंडी	-10.2265
▁आक्रामक	-10.2268
▁ब्रा	-10.2275
वेट	-10.2276
्का	-10.2276
▁नीदरलैंड	-10.2277
▁प्रजातियाँ	-10.229
्ले	-10.2297
▁आत्मा	-10.23
▁देख	-10.2305
▁निरी	-10.2307
▁पशु	-10.2312
▁अमीर	-10.2317
फल	-10.2318
▁प्रतिष्ठित	-10.2319
▁एलिस	-10.2322
द्र	-10.2325
▁गज	-10.2332
▁लगी	-10.2336
▁स्वीडन	-10.2339
▁जैज़	-10.2341
ैक	-10.2342
▁नाव	-10.2346
▁ब्र	-10.2347
▁सीनेटर	-10.2355
▁विल्सन	-10.2357
▁फिलाडेल्फिया	-10.2358
▁जानवरों	-10.2364
▁आवरण	-10.2367
▁समर्थक	-10.2374
▁हास्य	-10.2375
▁यूएस	-10.2376
▁तार	-10.2377
िकी	-10.2381
ल्ला	-10.2391
टेन	-10.2391
▁हल्के	-10.2392
▁पाकिस्तान	-10.2395
ंडो	-10.2403
रण	-10.2404
▁पटकथा	-10.2405
▁स्क	-10.241
▁बीज	-10.2412
▁सदस्यता	-10.2414
▁ओवर	-10.2415
▁रवाना	-10.2421
बिया	-10.2426
▁जाति	-10.2433
▁एरिक	-10.2433
▁हेड	-10.2433
▁आत्म	-10.245
▁माप	-10.2453
▁वाद्य	-10.2461
▁सवारी	-10.2462
क्ल	-10.2469
ाइल	-10.248
त्सु	-10.2484
▁खड़े	-10.2488
▁घुड़सवार	-10.2489
▁सुन	-10.249
ेला	-10.2494
करण	-10.2498
िको	-10.25
▁लाइ	-10.2507
▁मना	-10.2508
ृ	-10.2513
दि	-10.2514
मंड	-10.2515
▁आदर्श	-10.2519
▁फ्रेडरिक	-10.2521
सेंट	-10.2525
▁अल्बर्ट	-10.2527
▁प्रतियोगिताओं	-10.2528
▁गैलरी	-10.2531
▁विला	-10.2531
▁क्वा	-10.2534
▁सांता	-10.254
▁दृष्टि	-10.2546
▁सारा	-10.2549
बर्न	-10.2549
▁टा	-10.2551
ंटे	-10.257
▁प्रदर्शनों	-10.2575
लिक	-10.2576
▁कारणों	-10.259
दूसरे	-10.2591
▁उपाध्य	-10.2595
▁लिखित	-10.2598
▁क्लार्क	-10.26
▁स्टीव	-10.2601
▁बाय	-10.2603
मल	-10.2605
▁रसायन	-10.261
▁अनुमानित	-10.2621
ुआन	-10.2621
▁अमेरिकन	-10.2622
▁चैपल	-10.2622
कला	-10.2623
ै	-10.2626
▁सामूहिक	-10.2629
रान	-10.2632
▁उद्देश्यों	-10.2632
▁ज़े	-10.2633
▁सन	-10.2634
▁यॉर्क	-10.2637
भा	-10.264
्रे	-10.2644
▁भंडार	-10.2649
▁ग्रेड	-10.2659
प्रा	-10.266
▁लग	-10.2662
▁गहराई	-10.2664
▁फार्म	-10.2664
कारों	-10.2666
नन	-10.268
▁निकल	-10.2682
▁बढ़े	-10.2683
▁क्र	-10.269
▁हु	-10.2694
▁नवीनीकरण	-10.2704
▁स्टीफन	-10.2708
▁पारिवारिक	-10.2712
▁संस्कार	-10.2726
▁कब्जे	-10.2728
▁उजागर	-10.2729
▁बेस	-10.2733
▁महामारी	-10.2735
▁लड़कियों	-10.2736
▁बास	-10.2736
▁मिलकर	-10.2737
▁चलाने	-10.2742
▁चमक	-10.2752
▁ठहराया	-10.2756
▁स्क्रीन	-10.2757
स्टेड	-10.2762
▁रखे	-10.2763
▁बाधा	-10.2764
▁नकारात्मक	-10.2765
▁हथियारों	-10.2767
है	-10.2777
▁जंगली	-10.278
यार्ड	-10.2789
क्ट	-10.279
फ्रे	-10.2791
▁क्ले	-10.2795
▁चेहरे	-10.2796
नु	-10.2799
▁काल्पनिक	-10.2805
▁रोस	-10.2806
▁पायलट	-10.281
वार	-10.2815
▁प्रभावशाली	-10.2818
्टे	-10.2818
▁ओंटारियो	-10.2818
▁तलाश	-10.282
ऊ	-10.2823
▁आवेदन	-10.2843
▁पहाड़ों	-10.2844
▁सर्दियों	-10.2844
▁समृद्ध	-10.2851
बेन	-10.2851
▁डेव	-10.2854
तो	-10.2869
▁समर्थित	-10.2877
तन	-10.2881
▁चेक	-10.2882
▁गेट	-10.2883
उप	-10.2884
कम	-10.2885
▁बुलाया	-10.2891
▁इंटरनेट	-10.2892
▁ग्ल	-10.2893
ज़े	-10.2895
▁मीनार	-10.2895
▁प्रयोगशाला	-10.2896
▁दोस्तों	-10.2898
ये	-10.2899
▁द्वि	-10.2902
▁अग्रणी	-10.2902
▁ज़ि	-10.2903
्री	-10.2909
▁सोचा	-10.2918
▁लुई	-10.2926
▁पड़ोसी	-10.2928
▁गायन	-10.2936
▁मूर	-10.2945
▁सहयोगियों	-10.2951
हल	-10.2963
▁एल्	-10.2964
▁खंडों	-10.2966
▁गौ	-10.2971
ीज़	-10.2971
सभी	-10.2972
▁ग्रि	-10.2973
▁सिफारिश	-10.2975
▁असफल	-10.298
▁पैरा	-10.2985
▁ब्यूरो	-10.2985
गम	-10.2996
रन	-10.2996
शु	-10.3
डिया	-10.3008
▁ब्रायन	-10.301
▁रॉयल	-10.301
▁भेज	-10.3011
▁निकाला	-10.3015
▁एना	-10.3022
श्	-10.3026
▁आलोचनात्मक	-10.3028
यी	-10.3028
ज़र	-10.3036
▁बचाने	-10.3037
हेम	-10.3038
टिंग	-10.3053
▁कवि	-10.3066
▁वनस्पति	-10.3089
क्टर	-10.3104
▁सकें	-10.3106
▁फीट	-10.3107
▁बताता	-10.3109
▁फोर्ट	-10.3116
▁आकर्षण	-10.3116
▁खदान	-10.3117
▁महोत्सव	-10.3118
▁यूरो	-10.3121
▁कोविड	-10.3121
▁खारिज	-10.3123
▁कुश्ती	-10.3124
▁कुलीन	-10.3125
▁सुना	-10.3125
▁फॉ	-10.3131
▁लड़कों	-10.3136
मुझे	-10.3137
▁आपराधिक	-10.3139
▁जुड़ी	-10.3143
▁गायब	-10.3143
▁प्लेऑफ़	-10.3153
▁समापन	-10.3159
▁जिनकी	-10.3167
▁जैव	-10.3172
▁बजट	-10.3174
▁भंग	-10.3177
▁परिणामों	-10.3179
▁दोपहर	-10.3186
▁टाउनशिप	-10.3191
▁अंग	-10.3197
▁पांचवें	-10.32
▁महासागर	-10.32
▁अर्ल	-10.3207
डोर	-10.3211
ष्ट	-10.3216
▁शुद्ध	-10.3218
मिल	-10.3223
▁उष्णकटिबंधीय	-10.3226
हार	-10.3228
बिल	-10.3229
▁रोबर्ट	-10.323
बन	-10.3232
न्ना	-10.3244
▁सैम	-10.3247
▁जेड	-10.3248
▁श्	-10.326
▁होम	-10.3261
▁आह्वान	-10.3268
▁निर्माताओं	-10.3273
▁रुक	-10.3274
ांत	-10.328
विच	-10.329
▁ध्वस्त	-10.3298
▁भूरे	-10.3302
▁मेड	-10.3304
स्म	-10.3308
▁टाउन	-10.3312
▁गणित	-10.3316
▁फोन	-10.3317
▁संय	-10.3324
▁विजय	-10.3324
▁लड़ने	-10.3329
ेंगे	-10.3334
उन्होंने	-10.3336
▁स्रोतों	-10.3336
▁लिखते	-10.3339
▁अस	-10.3342
नस	-10.3348
▁ग्रेट	-10.3358
ताओं	-10.3366
▁हाथों	-10.3372
मोन	-10.3374
▁मार्शल	-10.3376
प्ल	-10.3377
▁पहल	-10.3378
▁डेर	-10.3379
▁फ्रेम	-10.3379
▁सोल	-10.3385
▁आउट	-10.3388
▁डबल	-10.3391
ब्स	-10.3392
▁किलोमीटर	-10.3399
▁अंतराल	-10.3401
▁अर्हता	-10.3402
▁व्यवस्थित	-10.3405
▁इंगित	-10.3406
▁चू	-10.3411
▁पतन	-10.3412
▁सैंड	-10.3414
▁बॉय	-10.3421
▁फैल	-10.3422
केन	-10.3422
▁वुड	-10.3423
क्र	-10.3431
▁मुद्दे	-10.3433
▁बॉब	-10.3435
▁राहत	-10.3435
▁लिमिटेड	-10.3443
▁इंटर	-10.3448
▁टावर	-10.3458
▁नहर	-10.346
▁ताल	-10.3466
डिंग	-10.3469
▁समानता	-10.347
▁सीमाओं	-10.3473
▁आती	-10.3477
▁कम्युनिस्ट	-10.3479
▁काट	-10.3486
▁हार्ट	-10.349
▁सोच	-10.3492
▁खनन	-10.3493
▁टेक	-10.3495
▁म्यू	-10.3495
ऑ	-10.3495
▁ठोस	-10.3496
▁प्लॉट	-10.3496
एट	-10.3496
स्ट्रा	-10.3503
▁पैनल	-10.3506
▁रिंग	-10.3509
▁खुला	-10.351
▁टेर	-10.3513
▁हिंसा	-10.3514
▁विफलता	-10.3522
▁जनसांख्यिकी	-10.3531
▁भले	-10.3538
▁ऊँचाई	-10.3541
▁छ	-10.3546
ट्रॉ	-10.3547
▁अवैध	-10.3548
▁आर्थर	-10.355
▁मानसिक	-10.3551
▁निक	-10.3564
ट्टी	-10.3568
पेन	-10.3579
▁मेरी	-10.3581
▁सम	-10.3588
शील	-10.3593
▁क्यों	-10.36
▁रहस्य	-10.36
▁चरम	-10.3607
एड	-10.3608
▁मेजर	-10.3609
▁लिखने	-10.3612
वर्थ	-10.3615
▁तत्कालीन	-10.3623
ियल	-10.3626
▁भिन्न	-10.3626
▁चौथी	-10.3632
▁संस्करणों	-10.3632
▁संस्थानों	-10.3632
▁मरम्मत	-10.3641
▁कर्नल	-10.3649
्ल	-10.3652
▁वर्षीय	-10.3652
▁प्रतिनिधियों	-10.3657
▁विल	-10.3658
▁कारक	-10.3665
▁क्लै	-10.3675
▁कानूनों	-10.3684
केट	-10.3691
फिल	-10.3691
▁क्लबों	-10.3692
स्थ	-10.3705
▁इरादा	-10.3705
डु	-10.3706
▁सूचित	-10.3708
▁टॉ	-10.3709
स्ट्रो	-10.3713
▁लेना	-10.3714
▁बक	-10.3726
थो	-10.3726
ेनबर्ग	-10.3734
बद्ध	-10.374
प्प	-10.3741
▁खाते	-10.3743
▁आसान	-10.3751
▁जातीय	-10.3762
ानो	-10.3765
▁एथलेटिक	-10.3766
ेंड	-10.3769
▁जन्मे	-10.3774
▁सवार	-10.3788
▁पर्यटन	-10.3792
▁पैसे	-10.3796
▁टोरंटो	-10.38
जल	-10.3801
ंगी	-10.3802
बोर्ड	-10.381
▁संकीर्ण	-10.381
▁मिलती	-10.3811
ायर	-10.3813
▁यूक्रेन	-10.3813
▁पावर	-10.3816
▁लोकत	-10.3819
▁इकाइयाँ	-10.384
राम	-10.3844
▁शांत	-10.3845
यां	-10.3849
बेट	-10.3849
▁मैक्सिकन	-10.3854
▁पर्यव	-10.3856
ाऊ	-10.3858
लाइट	-10.3862
▁लाइट	-10.3864
▁हमलों	-10.3865
▁इं	-10.3865
प्ले	-10.3866
वर्ड	-10.3867
▁संसदीय	-10.3868
▁नियुक्ति	-10.3869
▁आविष्कार	-10.3875
▁अनुकूल	-10.3875
▁सिनेमा	-10.3879
▁प्रिंट	-10.3884
▁खुश	-10.3885
आप	-10.389
▁अनुपात	-10.3892
टोन	-10.3893
▁कहानियों	-10.3898
▁लड़के	-10.3903
▁पिछली	-10.391
▁कॉर्न	-10.3912
▁रूपांतरण	-10.3914
▁रेन	-10.3914
उन	-10.3914
वर्स	-10.3916
नेस	-10.392
▁कैथेड्रल	-10.3922
कोव	-10.3922
स्ट्रे	-10.3926
▁प्रशंसकों	-10.3935
▁टचडाउन	-10.3936
▁उपयोगकर्ता	-10.3938
ड़े	-10.3944
▁शिकायत	-10.3945
किंग	-10.3948
▁तरीका	-10.3954
▁मुफ्त	-10.3954
जू	-10.3954
▁लहर	-10.3954
▁लियोन	-10.3955
▁पियानो	-10.3959
▁तटीय	-10.3966
▁आयुक्त	-10.3979
▁कामयाब	-10.3982
▁औपनिवेशिक	-10.3989
▁एलेन	-10.3991
▁काली	-10.4007
▁नायक	-10.4014
▁कैट	-10.4018
▁हार्ड	-10.4026
मार्क	-10.4028
▁रखरखाव	-10.4035
चो	-10.4039
▁पीले	-10.4039
द्	-10.4043
▁संकलन	-10.4063
लोक	-10.4066
▁यूके	-10.4067
▁स्वचालित	-10.4067
▁सबूत	-10.4068
▁सॉ	-10.4081
ंडल	-10.4081
▁संबोधित	-10.4083
▁अली	-10.4083
▁मंजिल	-10.4096
▁टीमें	-10.4107
हान	-10.4109
▁रचनात्मक	-10.4114
▁स्मृति	-10.4117
▁पेपर	-10.4121
▁पोलिश	-10.4125
▁पौधों	-10.4131
▁घेर	-10.4132
▁विपणन	-10.4134
▁भरा	-10.4135
▁स्थलों	-10.4136
▁सफलतापूर्वक	-10.416
▁राज	-10.4161
▁विद्वान	-10.4165
▁कॉर्	-10.4169
नल	-10.417
▁कैम्ब्रिज	-10.4174
▁बहुमत	-10.4176
▁लू	-10.4177
▁सिंगापुर	-10.4179
▁स्वामी	-10.4179
ग्रे	-10.4182
घर	-10.4187
इज़	-10.4188
▁गर्मी	-10.419
▁सोसाइटी	-10.4191
▁कुशल	-10.4192
▁शॉट	-10.4198
▁कहाः	-10.4199
▁ड्रम	-10.42
कोर	-10.4201
▁मेयर	-10.4208
▁फॉर	-10.4213
▁मिसौरी	-10.4217
▁मेट्रो	-10.4218
▁अकेले	-10.4222
रिंग	-10.4234
▁परत	-10.424
ड्रा	-10.4241
ल्क	-10.4242
▁कौन	-10.4248
ब्ल	-10.4254
लियो	-10.4254
▁यार्ड	-10.4254
कस	-10.426
ज़ु	-10.4262
द्ध	-10.4264
▁धारणा	-10.4266
▁योजनाओं	-10.4271
क्का	-10.4276
प्ट	-10.4276
जिन	-10.4277
▁t	-10.4281
▁हुईं	-10.4283
▁फेम	-10.4284
ट्टा	-10.4285
ेटर	-10.4288
िकाओं	-10.429
▁फै	-10.4296
िग	-10.4304
▁लव	-10.4309
▁ग्यारह	-10.4313
चेस्टर	-10.4313
▁न्यूनतम	-10.4315
▁हॉट	-10.4318
टाइम	-10.432
पै	-10.4328
▁परिचित	-10.4333
▁गिनती	-10.4333
ताई	-10.4335
▁मेरा	-10.434
▁वेतन	-10.4341
▁रविवार	-10.4343
▁देरी	-10.4348
▁हांगकांग	-10.435
▁ग्रह	-10.4352
▁अचानक	-10.4359
▁पदार्थ	-10.4363
ंटा	-10.4363
▁टेनिस	-10.4364
▁मोर	-10.4365
▁पंजीकृत	-10.4365
पोल	-10.4369
▁आइस	-10.437
▁डाइ	-10.4371
▁विन	-10.4374
▁यु	-10.4376
▁मिलर	-10.4377
▁देखे	-10.4378
▁दृश्यों	-10.4387
▁झूठ	-10.4389
▁सौदे	-10.439
पल	-10.4391
▁नस्लीय	-10.4396
ोंग	-10.441
▁डैन	-10.4412
▁एलेक्स	-10.4415
बॉ	-10.4418
▁अड्डा	-10.4422
▁इलेक्ट्रॉनिक	-10.4429
▁समझौता	-10.443
ोक	-10.4433
▁मिड	-10.4433
ाएँ	-10.4434
▁निकाय	-10.4436
्स्क	-10.4439
▁मूर्ति	-10.4448
▁जैक्सन	-10.445
▁साप्ताहिक	-10.4452
▁निम्न	-10.4468
▁डाक	-10.4472
ंका	-10.4475
▁रासायनिक	-10.4477
▁स्ल	-10.4477
▁उदार	-10.4479
ुला	-10.448
शिप	-10.4481
▁फ्रांसिस	-10.4483
▁प्रार्थना	-10.4483
▁फ्रांसिस्को	-10.449
▁सिर्फ	-10.4491
गेन	-10.4492
▁चो	-10.4498
▁ग्रहण	-10.4505
▁सर्किट	-10.451
▁ची	-10.4516
▁सिद्धांतों	-10.4523
वाह	-10.4523
बंध	-10.4524
पार्ट	-10.4527
▁ऑटो	-10.4533
फेन	-10.4537
ब्ब	-10.4541
▁डॉन	-10.4547
सिक	-10.4552
▁कौ	-10.4554
मिंग	-10.4559
▁सूर्य	-10.4575
▁एंडरसन	-10.4576
▁हट	-10.4581
▁साइकिल	-10.4584
▁क्रिस्ट	-10.4591
▁आर्क	-10.4592
▁चरणों	-10.4594
▁लिन	-10.4596
ट्री	-10.4602
▁गरीब	-10.4615
▁किशोर	-10.4619
▁आद	-10.4635
परि	-10.4636
▁माइक्रो	-10.4643
▁पिक	-10.4644
▁विस्कॉन्सिन	-10.4651
▁मान	-10.4656
▁मैनचेस्टर	-10.4658
▁डूब	-10.4662
▁चौथा	-10.4671
▁साफ	-10.4686
हेन	-10.4688
अपने	-10.4691
▁चोरी	-10.4695
▁हंस	-10.4703
▁निष्क्रिय	-10.4706
▁अनुप्रयोग	-10.4706
वादियों	-10.4713
▁बसने	-10.4715
▁गोल्फ	-10.472
▁हरे	-10.4725
▁चीज़	-10.4727
▁टोनी	-10.4729
▁अनुकूलित	-10.4732
प्रे	-10.4737
▁संसाधन	-10.4738
यांग	-10.474
▁ईरान	-10.4742
▁वोल्	-10.4742
▁कारों	-10.4744
्यो	-10.4748
खंड	-10.475
ोरा	-10.4751
▁नामों	-10.4753
▁याचिका	-10.4758
▁प्रतिभा	-10.4758
▁वु	-10.4759
कार्ड	-10.4761
बै	-10.4761
▁पंखों	-10.4764
▁कोल	-10.4774
िता	-10.4774
स्ता	-10.478
▁रिलीज	-10.4782
ेरो	-10.4784
▁प्रवास	-10.4791
▁ब्रैड	-10.4791
▁पैक	-10.4794
▁काला	-10.4794
ीज	-10.4797
▁मालिकों	-10.4801
▁प्रतिस्थापन	-10.4804
▁नॉर	-10.4805
▁इस्लामी	-10.4806
▁ओटोमन	-10.4807
▁एसिड	-10.481
फै	-10.4813
▁मस्तिष्क	-10.4818
पाल	-10.482
▁राजनयिक	-10.482
▁जंक्शन	-10.4821
▁सेवाएं	-10.4823
▁वियतनाम	-10.4823
रेल	-10.4829
▁ऑस्ट्रिया	-10.4832
वृत्ति	-10.4834
▁पूल	-10.4835
मस	-10.4835
▁बम	-10.4849
▁मोबाइल	-10.4853
▁फैशन	-10.4858
त्व	-10.4859
स्ले	-10.4868
▁निर्वासन	-10.4872
बोर्न	-10.4872
नियन	-10.4879
▁बिताए	-10.4882
▁राइट	-10.4888
▁क्रा	-10.4889
ग्न	-10.489
▁रास्ता	-10.4893
जब	-10.4893
▁फुट	-10.4897
ार्क	-10.4897
▁शौकिया	-10.49
▁अतीत	-10.49
▁अर	-10.4901
▁दिवस	-10.4904
निंग	-10.4904
▁नियोजित	-10.4912
▁नींव	-10.4913
▁देशी	-10.4913
गिन	-10.4917
▁जिलों	-10.492
▁नौका	-10.4926
▁व्यापारी	-10.4926
▁परामर्श	-10.4934
थर	-10.4935
ंजा	-10.4944
▁नाटकीय	-10.4947
▁रखना	-10.495
▁डेम	-10.4958
▁अति	-10.4962
▁बीमा	-10.4962
निस	-10.4965
▁बढ़त	-10.4969
▁अश्वेत	-10.4969
फिन	-10.4989
▁मार्गों	-10.4994
▁वर्षगांठ	-10.4997
▁परिभाषा	-10.4997
▁मैरीलैंड	-10.5006
▁कार्यकर्ता	-10.5007
▁विमानों	-10.5007
ढ़	-10.5011
पोषण	-10.5016
▁प्रसार	-10.5016
ोड	-10.5017
▁एस्	-10.5019
▁बरकरार	-10.5023
▁गलती	-10.5026
▁मेलबर्न	-10.5026
▁सदन	-10.5028
मिक	-10.5037
▁वें	-10.5049
▁प्राइम	-10.5057
र्श	-10.5057
▁विधेयक	-10.5061
▁दशकों	-10.5067
ेर	-10.5068
▁रंगीन	-10.5081
▁रिक	-10.5082
▁कराया	-10.5082
ोरी	-10.5083
▁इंडियाना	-10.5088
भाग	-10.5093
▁घिरा	-10.5097
ुंग	-10.5102
▁पौधे	-10.5117
▁दरवाजे	-10.5134
▁उतर	-10.5139
▁फॉक्स	-10.5139
▁मुद्रा	-10.5142
▁मेन	-10.5146
्ली	-10.5155
▁नील	-10.5159
▁क्रिसमस	-10.5163
▁सुरंग	-10.5174
▁राजस्व	-10.5174
▁चलती	-10.5176
▁सारांश	-10.518
▁महा	-10.518
▁ड्राफ्ट	-10.5184
▁गाने	-10.5184
▁ताकत	-10.5188
▁उपहार	-10.5189
म्बर	-10.5192
▁रख	-10.5199
▁कमीशन	-10.5199
▁कान्सास	-10.52
▁हार्	-10.5207
▁भाग्य	-10.5207
▁रोगियों	-10.5217
▁पॉली	-10.5221
▁निंदा	-10.5221
▁भूमिकाओं	-10.5221
▁चूक	-10.5226
▁पैट्रिक	-10.5227
▁कलात्मक	-10.5236
▁हमारी	-10.5236
ुन	-10.5237
▁सिंह	-10.5238
▁पढ़ने	-10.5238
▁अस्पष्ट	-10.524
▁भाप	-10.5254
▁रजत	-10.5255
▁चाल	-10.5259
▁खड़ी	-10.5266
▁वर्षा	-10.5274
▁लोहे	-10.5275
▁पिच	-10.5278
▁प्रकट	-10.5279
▁क्रेडिट	-10.5292
युक्त	-10.5298
▁चीजों	-10.5305
▁करेगी	-10.5309
▁खेती	-10.531
हैम	-10.5313
▁हैमिल्टन	-10.5315
▁डीन	-10.5316
▁कॉन	-10.5319
▁नीले	-10.5321
▁संवैधानिक	-10.5321
▁इंच	-10.5332
▁माय	-10.5352
▁पेटेंट	-10.5354
▁लिंकन	-10.536
▁हों	-10.536
▁संरचनाओं	-10.5362
▁टेप	-10.5367
ट्रि	-10.5369
▁ढांचे	-10.537
▁उपग्रह	-10.5371
▁मंजिला	-10.5373
▁अवशेष	-10.5392
ट्रा	-10.5394
▁ट्रस्ट	-10.5396
▁अपार्टमेंट	-10.5397
▁युवाओं	-10.5404
▁घेराबंदी	-10.5405
▁भि	-10.5408
▁कोशिकाओं	-10.541
गार्ड	-10.5412
▁अद्वितीय	-10.5414
▁प्रेरणा	-10.5418
पति	-10.542
ूट	-10.5424
ब्रो	-10.5424
विशेष	-10.5425
लॉ	-10.5425
▁नरसंहार	-10.5426
टेक	-10.5429
▁इंजनों	-10.5433
▁मैक्स	-10.5435
▁पहुँचा	-10.5437
▁बचपन	-10.5441
▁पाल	-10.5444
पिंग	-10.5447
▁रैंकिंग	-10.5448
▁यां	-10.5453
▁कांच	-10.5454
प्ला	-10.5464
▁छठे	-10.5469
ोला	-10.5473
▁स्वदेशी	-10.5474
▁बरो	-10.5483
स्टि	-10.5485
▁पूरक	-10.5486
▁स्विट्जरलैंड	-10.5487
▁वाहनों	-10.549
पेट	-10.5492
▁क्रिया	-10.5492
▁जुआन	-10.5498
▁सार्वभौमिक	-10.5499
▁कियाः	-10.5504
इर	-10.5513
▁शु	-10.5515
▁एलन	-10.5515
▁ग्राहकों	-10.552
▁बेकर	-10.5523
▁समानांतर	-10.5525
▁पदोन्नति	-10.5525
▁संसाधनों	-10.5527
▁जैविक	-10.5528
▁पूंजी	-10.553
लक	-10.5546
▁पाय	-10.5547
▁एंड्रयू	-10.5548
▁एव	-10.5553
▁ओरेगन	-10.5554
▁हृदय	-10.556
▁डू	-10.5561
▁टाइ	-10.5562
चु	-10.5563
▁फूलों	-10.5564
िज	-10.5565
▁फ़्ल	-10.558
▁मल	-10.5584
▁इंडोनेशिया	-10.5588
बेरी	-10.5597
▁इतनी	-10.5601
▁रोजगार	-10.5602
▁वादा	-10.5605
ज़ोन	-10.5607
ोनी	-10.5608
मिस	-10.5613
▁यूनिवर्सिटी	-10.5614
▁आवासीय	-10.562
▁ट्रॉफी	-10.5621
▁शूट	-10.5621
▁ग्लेन	-10.5623
▁हेलेन	-10.5624
▁लगाए	-10.5625
नॉ	-10.5629
व्य	-10.5631
▁वाल्टर	-10.5639
▁क्वे	-10.5639
▁दलों	-10.5642
▁डेन	-10.5649
▁पदों	-10.5655
ड्र	-10.5656
▁पुर्तगाली	-10.5663
र्थ	-10.5667
बोट	-10.5669
▁क्रि	-10.5671
▁राजदूत	-10.5672
▁राज्यपाल	-10.568
▁खाने	-10.568
▁लड़ाकू	-10.5687
▁नाज़ी	-10.569
थि	-10.5692
▁फिट	-10.5696
▁आगमन	-10.5697
म्बा	-10.5704
▁मांस	-10.5705
बंद	-10.5706
▁संगीतकारों	-10.5708
▁गोर	-10.5719
▁तोपखाने	-10.5729
ेक्स	-10.5735
ेयर	-10.5738
ेन्स	-10.5741
▁व्यक्तित्व	-10.5743
क्सी	-10.5746
▁डाउन	-10.5746
▁देकर	-10.5755
बस	-10.5758
रूप	-10.5759
▁खतरा	-10.5763
नोव	-10.5768
िये	-10.5772
बिट	-10.5772
▁वाहक	-10.5777
▁प्रायद्वीप	-10.5778
▁कैदियों	-10.5779
▁फिनिश	-10.5779
▁खरीदने	-10.5783
▁स्विस	-10.5785
▁सामान	-10.579
▁डिजाइनर	-10.5792
▁बोर	-10.5793
▁पृष्ठ	-10.5794
▁अजीब	-10.5796
यल	-10.5799
▁वाणिज्य	-10.5802
फोन	-10.5803
पास	-10.5805
▁किसान	-10.581
▁ट्रक	-10.5814
▁प्रकाशक	-10.5817
घा	-10.5818
ोआ	-10.5822
▁ब्रै	-10.5822
▁बोन	-10.5837
▁पेड़ों	-10.5844
▁ऊँची	-10.5847
▁कोलोराडो	-10.5847
▁औसतन	-10.5849
▁आधा	-10.5855
▁घाट	-10.5855
▁फैसले	-10.586
▁ब्रि	-10.5861
विया	-10.5864
शर	-10.5864
ेलो	-10.5867
▁पहुंचा	-10.5867
▁बाधित	-10.5869
▁अन्यथा	-10.5873
▁चर	-10.588
▁इमारतें	-10.5887
▁खुफिया	-10.5892
▁जोड़ता	-10.5892
▁प्रतिष्ठा	-10.5897
बॉल	-10.5901
▁जादू	-10.5902
▁टुकड़ों	-10.5907
▁पढ़	-10.5909
▁कारखाने	-10.592
▁तालिका	-10.5921
ेरिया	-10.5921
▁पट्टी	-10.5922
ुक	-10.5937
▁परिवर्तनों	-10.5939
▁एकजुट	-10.595
▁तय	-10.595
लेकिन	-10.5957
▁पिन	-10.5957
▁मध्ययुगीन	-10.5962
▁दोहरा	-10.5962
▁सिम	-10.5965
▁गुट	-10.5967
लाई	-10.5973
ॉट	-10.5978
▁प्रावधान	-10.5982
बेक	-10.5982
▁हजार	-10.5986
▁ऑर्डर	-10.599
▁भूत	-10.5994
▁देंगे	-10.5998
▁आरोपों	-10.6003
▁प्रवृत्ति	-10.6004
ुरा	-10.6007
▁मानद	-10.6008
▁चैम्पियनशिप	-10.6013
▁उद्धृत	-10.6014
र्प	-10.6015
मिर	-10.6016
▁दीवारों	-10.602
▁c	-10.6022
▁एथलेटिक्स	-10.6023
अनु	-10.6026
▁एस्टेट	-10.6027
▁प्रिंस	-10.6029
मेरे	-10.6032
▁छाया	-10.6033
▁मिलान	-10.6046
▁निकटता	-10.6047
▁मैग	-10.6049
▁आयात	-10.6051
्यों	-10.6052
▁वकालत	-10.6053
▁मोड	-10.6062
क्क	-10.6064
▁ब्रुक	-10.6067
▁अरा	-10.6068
शिया	-10.607
निर्	-10.6072
▁नु	-10.6076
ारा	-10.6081
▁इराक	-10.6083
▁खेलना	-10.6084
▁डिक	-10.6086
▁बीमार	-10.6088
झा	-10.6091
▁निर्यात	-10.6093
▁स्टै	-10.6093
▁सैमुएल	-10.6093
▁केंटकी	-10.6096
▁मुड़	-10.6097
▁रैंक	-10.6099
▁टेल	-10.6104
प्रदान	-10.611
▁देखता	-10.6115
▁सत्ता	-10.6116
त्	-10.6116
पेल	-10.6118
▁वफादार	-10.6119
▁चार्टर	-10.6123
▁ग्रंथ	-10.6125
▁आनुवंशिक	-10.6128
▁निकलने	-10.6132
ग्राम	-10.6134
▁लेडी	-10.6141
▁राइफल	-10.6143
▁व्याख्यान	-10.6145
▁टाइम	-10.6147
▁सुनाई	-10.6149
▁मोनो	-10.6151
▁जूरी	-10.6154
▁हराकर	-10.6156
▁बह	-10.6156
▁भौगोलिक	-10.6156
▁बेसिन	-10.6163
िओ	-10.6167
▁पढ़ा	-10.6173
ोनिया	-10.6176
▁गरीबी	-10.6183
डिस	-10.6185
▁विप	-10.6187
▁कॉन्	-10.6187
▁ब्रिज	-10.6188
▁व्यावहारिक	-10.6189
िए	-10.6192
्टो	-10.6193
▁टेली	-10.6193
▁तस्वीर	-10.62
▁निधन	-10.6202
▁लुइस	-10.6203
▁डगलस	-10.6204
▁एंटोनियो	-10.6205
▁पूजा	-10.6206
वर्क	-10.6211
▁क्लो	-10.6213
्त	-10.6213
▁बिग	-10.6215
बुक	-10.6222
▁फ्ले	-10.6222
▁ह्यूस्टन	-10.6222
▁दोष	-10.6229
श्व	-10.623
डू	-10.6232
▁शक्तियों	-10.6235
ऑन	-10.6236
▁भरी	-10.6237
▁आकर्षक	-10.6242
▁जीवाश्म	-10.625
▁पुजारी	-10.625
▁फ्रे	-10.6252
▁प्रतिस्पर्धी	-10.6256
मॉ	-10.6257
▁अलगाव	-10.6259
▁चिली	-10.6265
▁जिम्मेदारी	-10.6266
▁जानवर	-10.6271
▁नस्लों	-10.6272
व्स	-10.6272
▁इलाज	-10.6273
▁साइमन	-10.6273
▁बौद्ध	-10.6274
▁स्वर्ग	-10.628
स्पोर्ट	-10.6288
▁बेचा	-10.6289
▁प्रश्न	-10.629
▁जोस	-10.6293
▁डेक	-10.6294
▁बोलने	-10.6294
▁आध्यात्मिक	-10.6296
▁बमबारी	-10.6297
कोट	-10.6299
मास	-10.63
टु	-10.631
▁भरने	-10.6311
▁बनाती	-10.6315
▁मनुष्यों	-10.6317
▁आलोचक	-10.6324
"),	-10.6326
▁अम	-10.6326
▁लैप	-10.6327
▁स्थानांतरण	-10.6331
गेल	-10.6338
▁खींच	-10.6339
▁पारिस्थितिकी	-10.6343
▁त्वचा	-10.6344
▁हंगरी	-10.6346
▁अंतरराष्ट्रीय	-10.6349
▁शासनकाल	-10.6356
▁अभि	-10.6357
▁जनजाति	-10.6358
▁प्रक्रियाओं	-10.6361
इड	-10.6362
▁राष्ट्रमंडल	-10.6363
▁उम्मीदवारों	-10.6367
▁बाउल	-10.6369
▁भंडारण	-10.637
▁श्रीमती	-10.6373
ाउ	-10.6376
प्रति	-10.6379
▁बिस्तर	-10.6379
फू	-10.6381
▁फ्रि	-10.6384
अल	-10.6387
▁टोक्यो	-10.6389
▁मार्गरेट	-10.6391
▁बीस	-10.6395
▁नैदानिक	-10.6398
▁युगल	-10.6399
▁लॉरेंस	-10.6406
▁भूकंप	-10.6406
▁लेक	-10.6408
कोल	-10.641
▁खुदरा	-10.6422
▁कार्बन	-10.6423
▁भागों	-10.6426
▁रॉ	-10.6426
▁किराए	-10.6426
▁रियो	-10.6427
▁बॉ	-10.6434
▁कोने	-10.6435
▁फोर	-10.6437
▁समाजवादी	-10.6439
▁दरबार	-10.644
▁स्पोर्ट्स	-10.6445
िफ	-10.6447
▁वाटर	-10.6449
ाह	-10.645
▁पदार्थों	-10.6454
▁प्रधानम	-10.6454
▁गोल्डन	-10.6459
▁मामूली	-10.6467
▁परिचय	-10.6467
िटी	-10.6468
▁कड़ी	-10.6471
▁पिट	-10.6474
्सबर्ग	-10.6476
नियम	-10.6481
▁लैंग	-10.6491
▁रीड	-10.6495
ंब	-10.6502
स्ट्री	-10.6508
▁स्लो	-10.6508
▁हड़ताल	-10.6514
अर	-10.6516
▁ताज	-10.6519
▁टोल	-10.652
ैंड	-10.6522
्नी	-10.6523
▁टैग	-10.653
▁गृहयुद्ध	-10.653
फ्र	-10.6531
▁पाप	-10.6535
वाल	-10.6541
▁जाँच	-10.6542
▁भूमिगत	-10.6544
▁अभियानों	-10.6545
वाक	-10.6553
▁पहाड़	-10.6556
▁मिन	-10.6561
▁बैठ	-10.6563
्लो	-10.6563
▁पहने	-10.6565
टोर	-10.657
▁लैंड	-10.657
क्या	-10.6576
▁स्टैंड	-10.6583
▁जितना	-10.6583
उल	-10.6588
▁बुश	-10.6591
▁i	-10.6592
▁वॉ	-10.6593
▁क्वि	-10.6594
▁कूद	-10.6597
▁पूछा	-10.6599
▁मसीह	-10.6601
▁रखती	-10.6602
▁तारा	-10.6603
▁शून्य	-10.6603
▁जब्त	-10.6604
▁रेत	-10.6605
▁नेशनल	-10.6611
▁यूक्रेनी	-10.6612
▁हवाला	-10.6615
▁पूर्ववर्ती	-10.662
▁दर्द	-10.6626
▁विवादास्पद	-10.6629
▁प्रमाणित	-10.6634
िज़	-10.6635
▁बढ़ता	-10.6636
▁दूसरों	-10.6637
▁निर्वाचित	-10.6641
▁गोलीबारी	-10.6642
▁उधार	-10.6644
▁दोहरे	-10.6646
▁ट्रम्प	-10.6655
▁वाल्	-10.6657
▁तकनीकों	-10.6663
▁दवाओं	-10.6668
▁अमेरिकियों	-10.667
▁भौतिकी	-10.6676
▁इंटरनेशनल	-10.6676
क्रै	-10.6683
ॉल	-10.669
▁बैटरी	-10.669
▁फिल्में	-10.6691
▁चचेर	-10.6692
▁खुदाई	-10.6695
नू	-10.6701
▁चांदी	-10.6704
न्न	-10.6704
▁(;	-10.6706
▁प्राथमिकता	-10.6706
▁ऑफ़	-10.6706
पिन	-10.6715
▁सीखने	-10.6717
▁निर्वासित	-10.6724
▁स्तंभ	-10.6724
▁भागीदार	-10.6727
क्रो	-10.6731
रीन	-10.6731
▁गुड	-10.6734
▁पूर्वोत्तर	-10.6738
▁लाइनों	-10.6741
▁वही	-10.6743
ग्री	-10.6753
▁भार	-10.6758
▁स्वाद	-10.6765
कुछ	-10.6767
▁द्रव्यमान	-10.6769
▁उत्पादित	-10.6769
▁ग्राहक	-10.6772
▁सीटें	-10.6774
▁संगठित	-10.6779
▁बेचने	-10.6779
▁पुस्तकें	-10.6785
▁आर्म	-10.6787
▁लोकप्रियता	-10.6792
▁विद्वानों	-10.6792
▁बताते	-10.6796
▁गुफा	-10.68
▁पढ़ाया	-10.6801
्टा	-10.6802
▁अवसरों	-10.6803
▁कृ	-10.6804
▁जै	-10.6811
▁हजारों	-10.6813
वर्त	-10.6816
▁लॉन्ग	-10.6818
▁महानगरीय	-10.6819
▁फ्लोर	-10.682
ॉक	-10.6821
ाब	-10.6826
न्नी	-10.6831
▁स्पा	-10.6836
ामा	-10.6839
▁बाएं	-10.684
▁बदला	-10.6841
▁वैले	-10.6843
▁निलंबित	-10.6846
▁लड़ी	-10.6848
▁फीचर	-10.6849
▁ब्रो	-10.6849
▁पार्	-10.685
▁उच्चतम	-10.6857
▁अवसाद	-10.6857
▁वैध	-10.6858
▁टायर	-10.6858
वाई	-10.6858
र्व	-10.6868
▁मिसिसिपी	-10.6872
▁मियामी	-10.6875
फेल	-10.6876
ोलॉजी	-10.6876
ोमा	-10.6881
▁परिचालन	-10.6883
र्ब	-10.6884
वर्ष	-10.6886
ंगल	-10.689
देश	-10.6893
▁फंस	-10.6897
मेर	-10.6898
ोसा	-10.6902
▁ब्रह्मांड	-10.6907
▁करीबी	-10.6907
गि	-10.6914
▁रणनीतिक	-10.6914
लाभकारी	-10.6915
थम	-10.6918
▁सप्ताहांत	-10.6919
▁गुलाब	-10.6921
▁ग्रो	-10.6926
▁नै	-10.6929
▁टन	-10.6931
डेट	-10.6934
जिया	-10.6935
▁बारी	-10.6938
▁असाधारण	-10.6939
▁हार्वर्ड	-10.6939
▁छेद	-10.6939
परिवार	-10.6939
▁एकड़	-10.6942
▁प्रशंसक	-10.6942
▁कैल	-10.6943
▁एक्सप्रेस	-10.6949
▁वॉल	-10.6951
▁साउंडट्रैक	-10.6952
▁बं	-10.6959
▁विविध	-10.6961
▁क्रिस्टल	-10.6961
▁कुक	-10.6961
ग्लो	-10.6971
स्तरीय	-10.6972
हू	-10.6972
रेड	-10.6976
▁स्टोन	-10.6978
▁फोटो	-10.698
▁आराम	-10.698
▁फर	-10.6981
ेना	-10.6982
खु	-10.6985
▁ऑडियो	-10.6988
▁धमकी	-10.6989
▁व्यवसायी	-10.6991
▁खतरनाक	-10.6992
न्ट	-10.6998
▁रिपब्लिकन	-10.7002
▁सार	-10.7004
▁प्रिक्स	-10.7006
▁बर्ग	-10.7012
▁भित्ति	-10.7015
▁यहूदियों	-10.702
▁जाएंगे	-10.7021
गू	-10.7023
▁आखिरी	-10.7024
▁मॉन्ट्रियल	-10.7024
ुटि	-10.7031
▁यीशु	-10.7031
▁एडिनबर्ग	-10.7031
▁तुम	-10.7032
▁फायर	-10.7032
▁हारने	-10.7035
▁दृढ़ता	-10.7036
फि	-10.7043
▁फुल	-10.7045
▁कैथरीन	-10.7045
तिग्रस्त	-10.7046
▁कर्तव्य	-10.7049
ोना	-10.705
▁कॉलोनी	-10.7059
(	-10.7061
▁तीनों	-10.7061
्मी	-10.7065
▁वू	-10.7067
लाल	-10.7068
लम	-10.707
▁रोशनी	-10.7075
▁फु	-10.7076
▁नैतिक	-10.7076
▁महिलाएं	-10.7083
▁कह	-10.7084
ेरी	-10.7087
टिस	-10.7088
▁चाहे	-10.7089
▁जॉर्डन	-10.7091
▁पोषित	-10.7095
▁निकोलस	-10.7097
गोर	-10.7101
▁मानकों	-10.7102
▁गवाही	-10.7103
▁निकट	-10.7104
रोधी	-10.7104
▁हॉर्न	-10.7112
▁चुके	-10.7114
ष्	-10.7117
नेल	-10.7121
▁शूटिंग	-10.7126
▁तत्काल	-10.7127
▁ऑक्सफोर्ड	-10.7134
▁सिं	-10.7136
▁विवाहित	-10.7143
▁शैलियों	-10.7146
in	-10.7153
िर	-10.7153
ड्रि	-10.716
▁मतों	-10.7165
▁बर	-10.717
▁परिस्थितियों	-10.7181
▁तरल	-10.7184
▁आवश्यकताओं	-10.7184
▁अध्ययनों	-10.7184
▁हैरिस	-10.7185
▁सितारों	-10.7186
▁रिजर्व	-10.7187
▁फेयर	-10.7192
▁टेस्ट	-10.7195
▁उठा	-10.7197
▁ऑस्ट्रियाई	-10.7197
िलो	-10.7198
▁दार्शनिक	-10.7198
लिस्ट	-10.72
्न	-10.7212
▁एप	-10.7212
▁किस	-10.7215
▁बताती	-10.7217
▁कथानक	-10.7222
▁ट्यूब	-10.7225
▁दावे	-10.7235
▁कंट्री	-10.7235
ग्स	-10.7236
▁आपातकालीन	-10.7236
म्म	-10.7236
▁बारिश	-10.7237
▁मेस	-10.7239
▁ह्यू	-10.724
▁घड़ी	-10.7244
▁साजिश	-10.7244
▁टर्मिनल	-10.7246
▁ग्रीस	-10.7246
▁डेनमार्क	-10.7251
▁संभालने	-10.7259
वर्तमान	-10.7264
▁क्यूबा	-10.7265
ांश	-10.7271
▁अंडे	-10.7274
▁फिन	-10.7284
फोर	-10.7288
रत	-10.7289
▁गुजरता	-10.7292
▁स्काउट	-10.7292
इंग	-10.7295
▁उपलब्धि	-10.7303
▁पॉ	-10.7304
▁मिशेल	-10.7305
्फ	-10.731
▁समायोजित	-10.7311
▁जुड़	-10.7313
ब्रिज	-10.7317
▁बैरन	-10.7319
▁वेन	-10.732
ोव्स्की	-10.732
▁फैली	-10.7321
▁उत्पादक	-10.7322
▁वाय	-10.7325
▁मोंटे	-10.7329
▁ओक्लाहोमा	-10.7335
▁बैट	-10.734
▁कहने	-10.7346
ेपण	-10.7346
▁प्रभुत्व	-10.7354
▁चाचा	-10.7356
▁बंधन	-10.7358
र्टन	-10.736
रियर	-10.7365
▁खुशी	-10.7369
▁कटौती	-10.737
▁भागने	-10.7371
मास्टर	-10.7373
▁घातक	-10.7375
जिंग	-10.7375
▁छूट	-10.7376
▁अनुच्छेद	-10.7377
सार	-10.7378
▁ट्रै	-10.738
▁श्रद्धांजलि	-10.7383
ॉइड	-10.7385
▁विमानन	-10.7387
▁गाँवों	-10.7387
▁कवरेज	-10.7388
▁मास्को	-10.739
▁अपहरण	-10.7392
▁बांग्लादेश	-10.7393
▁अपवाद	-10.7394
▁निकटतम	-10.7395
▁रेंज	-10.7399
▁शनिवार	-10.7399
▁इतने	-10.7399
▁ट्रेनों	-10.7399
▁इलाकों	-10.74
्ला	-10.7403
▁दर्शाया	-10.7405
बुल	-10.7407
▁चुनावी	-10.7408
▁आत्मसमर्पण	-10.7408
▁हॉवर्ड	-10.7409
▁समन्वय	-10.7409
▁पहचाना	-10.741
▁निहित	-10.7412
▁बच्चा	-10.7412
▁प्रथा	-10.7414
▁घंटों	-10.7415
▁मुलाकात	-10.7417
▁शिकारी	-10.7422
रियन	-10.7424
▁झुक	-10.7427
ंजर	-10.7429
▁हमने	-10.743
▁एंजेल	-10.7431
▁प्रायोजित	-10.7433
▁मार्गदर्शन	-10.7434
▁गहरी	-10.7441
▁पीठ	-10.7443
मिट	-10.7444
▁छुट्टी	-10.7446
▁नमूने	-10.7447
▁क्रांतिकारी	-10.7448
्डा	-10.7451
▁ड्रे	-10.7454
▁दीं	-10.7454
ल्प	-10.7459
▁कोष	-10.7459
.>	-10.746
▁यूनि	-10.7462
सान	-10.7463
▁रोगी	-10.7464
हालांकि	-10.7468
सुर	-10.7471
▁चर्चों	-10.7479
▁क्रिस्टी	-10.7484
▁अद्यतन	-10.7484
▁नस्ल	-10.7492
▁गुना	-10.7494
▁हू	-10.7496
▁ब्लूज़	-10.7502
डियन	-10.7505
▁रेव	-10.7508
घु	-10.7511
▁काउंसिल	-10.7515
▁अल्पसंख्यक	-10.7518
बर्ड	-10.7518
▁प्रोग्रामिंग	-10.752
▁पड़	-10.7526
▁शीतकालीन	-10.7527
ाटा	-10.753
▁वृ	-10.7534
▁संदिग्ध	-10.7534
ब्रुक	-10.7536
ायक	-10.7539
▁राजकुमारी	-10.754
▁डै	-10.7543
▁गिटारवादक	-10.7545
▁हाफ	-10.7549
▁हॉलीवुड	-10.755
▁कॉमिक्स	-10.7553
ाला	-10.7553
▁बर्खास्त	-10.7553
िच	-10.7557
शियन	-10.756
▁कास्ट	-10.7562
▁डेनिस	-10.7564
वत	-10.7567
सिंग	-10.7569
▁तलाक	-10.757
▁फाइ	-10.7571
▁कोचिंग	-10.7578
▁नदियों	-10.7585
▁वॉकर	-10.7585
राइड	-10.7588
ब्रि	-10.7596
▁मलेशिया	-10.7601
विंग	-10.7605
▁नाइ	-10.761
चार्ज	-10.7617
▁गिनी	-10.7618
ैड	-10.7618
▁पेंटिंग	-10.7623
लिट	-10.7624
▁एमी	-10.7629
▁रंगों	-10.7631
क्रे	-10.7633
▁लौ	-10.7635
▁श्वेत	-10.7637
▁एहसास	-10.764
▁सुविधाएं	-10.7645
▁दादा	-10.7646
▁जेट	-10.765
▁लैस	-10.7651
▁व्यवसायों	-10.7662
▁टेनेसी	-10.7667
▁एल्बमों	-10.7668
▁इवान	-10.7669
▁आवृत्ति	-10.7669
डम	-10.7676
िय	-10.7676
▁चुका	-10.7677
त्स	-10.7679
।'	-10.768
▁निर्दिष्ट	-10.7686
▁अहमद	-10.7686
टिया	-10.7689
▁एडम	-10.7691
▁इजरायल	-10.7703
▁हस्तांतरण	-10.7704
▁समक	-10.7707
▁कल्याण	-10.7716
▁ट्राइ	-10.7717
▁मुस्लिम	-10.7719
मैक	-10.7728
▁डॉक्टरेट	-10.7732
▁शव	-10.7733
▁प्यूर्टो	-10.7734
▁लास	-10.774
▁अधिकृत	-10.7742
मौ	-10.7747
ंटो	-10.7749
▁पुनर्जीवित	-10.7751
▁जोहान	-10.7755
▁खुली	-10.7765
विट	-10.7766
▁बहती	-10.7766
मू	-10.777
विज़	-10.777
▁हैरी	-10.7772
▁हिरासत	-10.7777
▁कोट	-10.7779
कॉ	-10.778
▁स्पिन	-10.7788
▁वार्	-10.7791
▁भालू	-10.7795
▁मूर्ख	-10.7798
▁देखरेख	-10.7801
ियाना	-10.7804
▁फ्रेड	-10.7808
▁केबल	-10.7808
िमा	-10.7809
हिल	-10.7815
▁बायो	-10.7816
▁विनाश	-10.7817
▁आर्ट्स	-10.7818
ग्राफ	-10.7819
स्टिक	-10.7821
स्लाव	-10.7822
▁संवाद	-10.7827
ज़ार	-10.7839
फेल्ड	-10.784
▁हितों	-10.7842
▁स्काई	-10.7845
िंस	-10.7847
ज़ि	-10.785
▁डायोसिस	-10.785
▁सापे	-10.7851
▁फर्श	-10.7854
▁ईंट	-10.7855
व्हील	-10.7856
▁मिसाइल	-10.7859
▁मुखर	-10.7867
िंक	-10.7869
डाउन	-10.7876
न्या	-10.7881
▁फोर्ड	-10.7882
▁सौर	-10.7886
▁कब्र	-10.7888
लिब	-10.7889
▁ऑफिस	-10.7891
▁दिलचस्प	-10.7892
डियो	-10.7893
▁शिलालेख	-10.7895
▁चिप	-10.7898
▁सीटों	-10.7899
▁उपाय	-10.7899
लान	-10.7899
▁चट्टानों	-10.7902
▁रॉड	-10.7902
▁आकृति	-10.7907
▁कॉमिक	-10.7912
▁मतदाताओं	-10.7912
▁वियना	-10.7912
ौन	-10.7913
▁मौका	-10.7914
क्शन	-10.7916
▁पैसा	-10.792
▁लगाई	-10.7921
▁अला	-10.7927
▁दिग्गजों	-10.7928
▁स्थिरता	-10.7928
ंटन	-10.7929
▁गाइड	-10.7932
ाएं	-10.7933
▁नज़र	-10.7933
▁एपि	-10.7944
▁कागज	-10.7947
बोन	-10.7953
▁(<	-10.7953
ल्म	-10.797
▁शर्तों	-10.7972
▁बैठे	-10.7974
▁ऋतु	-10.7974
▁आदिवासी	-10.7975
ब्रू	-10.7977
▁कमाई	-10.7979
▁मौलिक	-10.7981
▁हरा	-10.7982
▁सच	-10.7982
कोन	-10.7984
▁नतीजतन	-10.7985
ाज़	-10.7993
▁कैद	-10.7994
नॉट	-10.7997
ज़ेल	-10.7998
रोस	-10.7998
▁बाज़	-10.8002
▁बढ़कर	-10.8004
▁साइन	-10.8005
▁एर	-10.8015
कारिता	-10.802
▁आपदा	-10.8023
िज्म	-10.8023
er	-10.8029
▁एंथनी	-10.8032
दे	-10.8042
लै	-10.8042
▁इस्लाम	-10.8043
टस	-10.8044
▁मैके	-10.8048
▁गाया	-10.8048
▁आयोवा	-10.8049
लिग	-10.805
▁सोशल	-10.805
▁आश्चर्य	-10.8054
▁प्रबंध	-10.8055
▁बचे	-10.806
▁सौंदर्य	-10.8061
निन	-10.8065
▁यौगिक	-10.8068
▁पारगमन	-10.8075
▁हड्डी	-10.8075
▁प्रकाशनों	-10.8078
▁पंद्रह	-10.8081
ोवा	-10.8082
▁केंद्रों	-10.8085
कृत	-10.8086
▁भेड़	-10.809
▁संलग्न	-10.8092
▁फ्रंट	-10.8094
▁सातवें	-10.8099
▁टेन	-10.81
▁स्तरों	-10.8102
चेन	-10.8106
▁डोनाल्ड	-10.8108
▁बिली	-10.8108
स्पर	-10.8111
▁विश्वविद्यालयों	-10.812
▁गुणों	-10.8121
▁इलेक्ट्रिक	-10.8122
▁पैकेज	-10.8129
ेटेड	-10.8131
▁बुरी	-10.8137
▁नीतियों	-10.8138
▁गणत	-10.8138
▁कोयला	-10.8138
▁ट्रि	-10.8149
व्यू	-10.815
स्केल	-10.8154
हाँ	-10.8159
फ्रा	-10.8164
ैट	-10.8168
▁मनाने	-10.8173
▁वार	-10.8177
▁विकलांग	-10.8178
▁सदी	-10.8194
▁सेमी	-10.8194
▁चढ़ाई	-10.8196
▁पत्ते	-10.8199
मध्य	-10.8204
▁इरादे	-10.821
▁बढ़ी	-10.8213
ैक्स	-10.8214
▁पोशाक	-10.8216
रॉक	-10.8218
▁पहलुओं	-10.8221
लेम	-10.8222
लॉन	-10.8223
हरी	-10.8238
▁शरण	-10.8241
मोट	-10.8241
▁बेक	-10.8244
क्वे	-10.8244
लेखन	-10.8244
▁आहार	-10.8245
▁पाइप	-10.8248
ैग	-10.8255
▁उन्मूलन	-10.8256
▁लड़	-10.8258
▁चुन	-10.8259
▁ब्रूस	-10.8259
▁उपयोगकर्ताओं	-10.8262
▁मुक्ति	-10.8263
रिट	-10.8263
▁चौक	-10.8265
▁विद्यालयों	-10.8265
▁प्रगतिशील	-10.8266
क्त	-10.8267
रास	-10.8267
टॉप	-10.827
▁थ्र	-10.827
▁गाड़ी	-10.8276
▁करनी	-10.8284
▁धुन	-10.8287
▁भविष्यवाणी	-10.8287
मीटर	-10.829
▁गहन	-10.8293
▁दस्तावेज़	-10.8296
▁अल्फ्रेड	-10.8299
▁डाकघर	-10.8304
▁उतार	-10.8306
▁शाह	-10.8307
▁कर्तव्यों	-10.8314
▁बहाली	-10.8314
▁गन	-10.8314
▁जुड़वां	-10.8316
▁पहाड़ियों	-10.8319
▁प्रतियोगी	-10.8319
▁डन	-10.8324
▁क्लीवलैंड	-10.8324
▁मिनेसोटा	-10.8337
▁गुलाम	-10.834
▁हिंदू	-10.834
▁एकीकरण	-10.8341
▁बार्न	-10.8347
ल्टन	-10.8348
▁मैदानों	-10.8348
ैंक	-10.8349
▁लुइसियाना	-10.835
ोप	-10.8356
रक	-10.8358
▁प्लेटफॉर्म	-10.836
स्कोप	-10.8364
तर	-10.837
रोट	-10.8373
▁इंतजार	-10.8382
▁"[	-10.8385
▁लेती	-10.8389
▁रोमांटिक	-10.8392
▁रैप	-10.8394
▁मोटे	-10.8403
▁मुहम्मद	-10.8405
▁मॉल	-10.8409
▁मोन	-10.8411
ाइम	-10.8416
▁रसेल	-10.8417
▁दूतावास	-10.8417
▁स्प्रिंग	-10.8425
वरी	-10.8426
▁अह	-10.8429
ौर	-10.8429
▁नोवा	-10.843
▁आंकड़ों	-10.8432
▁स्थानिक	-10.8434
▁मताधिकार	-10.8435
▁पूछताछ	-10.8437
▁खबर	-10.8443
▁कार्डिनल	-10.8446
डेड	-10.8452
श्र	-10.8453
▁जय	-10.8464
▁क्रीक	-10.8465
▁फसल	-10.8467
▁मूल्यों	-10.8469
स्ट्रै	-10.8475
डोंग	-10.8477
▁शोर	-10.849
▁सका	-10.849
र्द	-10.849
▁सिख	-10.8495
सॉ	-10.8496
▁बल्लेबाजी	-10.85
िकल	-10.85
▁भिन्नता	-10.85
▁समझाया	-10.8502
▁आंकड़े	-10.8507
▁पेंट	-10.8509
▁चेन	-10.851
अन	-10.8511
▁वाक्य	-10.8512
▁क्लि	-10.8516
▁संभाली	-10.8517
▁अवशेषों	-10.8519
ब्	-10.8521
▁लिवरपूल	-10.8521
▁दिखाने	-10.8523
▁अनु	-10.8528
▁व्यास	-10.8529
▁कनेक्टिकट	-10.8533
राष्ट्रीय	-10.8538
▁एंट	-10.8544
गेम	-10.8545
स्के	-10.8546
▁कहाँ	-10.8546
▁नाक	-10.8547
▁खिड़की	-10.8549
▁मौखिक	-10.8549
▁मजाक	-10.8551
▁आयाम	-10.8552
▁कार्यान्वयन	-10.8556
▁प्रि	-10.856
▁कार्टर	-10.8561
कट	-10.8568
उत्तर	-10.8569
िंग्स	-10.8571
▁सेटिंग	-10.8575
क्वा	-10.8575
▁बरामद	-10.8575
▁आस	-10.858
▁एक्शन	-10.8581
सबसे	-10.8586
▁ल्यू	-10.8587
▁दंपति	-10.8587
उंड	-10.8593
▁यंग	-10.8595
वर्न	-10.8597
▁न्यायिक	-10.8601
▁बर्नार्ड	-10.8603
म्बो	-10.8604
मुख	-10.8606
▁शेल	-10.8606
बॉक्स	-10.8607
मं	-10.8607
▁a	-10.8616
ड्यू	-10.8617
▁वाइल्ड	-10.8617
▁उठाने	-10.8618
▁व्यंजन	-10.8625
▁दर्जा	-10.8627
▁उदाहरणों	-10.8629
▁ड्रैगन	-10.8633
▁देवता	-10.8635
▁बगीचे	-10.8636
▁ट्रिपल	-10.8642
▁प्रोडक्शन	-10.8643
▁रेगिस्तान	-10.8643
बोरो	-10.8643
▁डबलिन	-10.865
मेगा	-10.8652
नम	-10.8655
▁मैक्	-10.8658
नाइट	-10.8659
▁आयन	-10.8659
▁शी	-10.8659
बैंक	-10.8661
▁तरंग	-10.8663
फिल्म	-10.8664
▁कोलम्बिया	-10.8666
▁डीवीडी	-10.8669
▁जर्नल	-10.8671
आर्	-10.8674
▁फेर	-10.8674
▁अंतर्निहित	-10.8676
▁टु	-10.8676
▁सैकड़ों	-10.8677
जिस	-10.8681
▁विकेट	-10.8681
▁सेनाओं	-10.8683
▁वर्ल्ड	-10.8692
▁नं	-10.8694
ियर्स	-10.8699
▁मनोवै	-10.8701
गैल	-10.8701
▁किसानों	-10.8705
स्टेल	-10.871
▁पीड़ितों	-10.8711
▁व्यस्त	-10.8714
गोन	-10.8716
▁मसौदा	-10.8719
▁रिज	-10.8721
▁चिकन	-10.8725
▁सितारे	-10.8726
▁मुद्रित	-10.8729
▁भ्रम	-10.873
ाधिकार	-10.8734
▁अद्भुत	-10.8744
▁पूंछ	-10.8747
मूल	-10.8753
ट्ट	-10.8754
▁प्रेमी	-10.8757
▁पॉइंट	-10.876
▁प्रती	-10.876
धारी	-10.8761
▁जानता	-10.8762
हॉ	-10.8766
ब्बा	-10.8769
वर्ग	-10.877
▁संतुलन	-10.8774
▁जनमत	-10.8774
रोड	-10.8774
▁विजेताओं	-10.8774
▁कैंट	-10.8776
ाज	-10.8779
▁मास	-10.8784
ाते	-10.8789
▁हफ्तों	-10.8791
▁स्क्वायर	-10.8791
▁स्की	-10.8796
िटो	-10.8797
▁उत्साह	-10.8799
▁किनारों	-10.8801
▁खाता	-10.8802
▁चाहती	-10.8804
▁बैले	-10.8805
▁जला	-10.8805
▁फिलिस्तीन	-10.8806
▁बेल्ट	-10.8809
▁रॉय	-10.8812
▁गुजर	-10.8816
▁चढ़	-10.8816
ॉस	-10.8817
▁सिविल	-10.8817
▁मेडिकल	-10.8818
▁हंट	-10.8818
▁आर्कबिशप	-10.8821
▁प्रथाओं	-10.8821
खो	-10.8822
विरोधी	-10.883
▁शल्य	-10.8831
▁पारी	-10.8832
▁लॉज	-10.8832
ट्रैक	-10.8833
▁डोर	-10.8833
सै	-10.8834
ियाई	-10.8841
----------------	-10.8843
▁पूर्णकालिक	-10.8848
▁ग्राउंड	-10.8848
▁कर्मियों	-10.8848
▁लूप	-10.885
नौ	-10.8852
▁दूत	-10.8853
ज़ेन	-10.8856
मताओं	-10.8857
▁विधायी	-10.8863
▁निबंध	-10.8863
▁अनुभवी	-10.8867
▁वेल्श	-10.887
st	-10.887
▁समझा	-10.8872
▁शपथ	-10.8875
▁ऐ	-10.8876
▁कुत्ते	-10.8883
▁क्रिश्चियन	-10.8888
▁समीकरण	-10.8891
▁श्रीलंका	-10.8897
ेशियन	-10.8897
ोलो	-10.8898
▁वन्यजीव	-10.8902
▁रॉकेट	-10.8907
▁पार्श्व	-10.8907
▁पूछ	-10.8909
▁संकेतों	-10.891
▁संबंधी	-10.891
िरा	-10.8914
▁ड्यू	-10.8918
▁ट्रेल	-10.8919
▁फ़ाइल	-10.8921
▁अनौपचारिक	-10.8922
निर्मित	-10.8923
▁नमक	-10.8928
▁स्टेन	-10.8929
▁मैग्	-10.893
सिड	-10.8934
▁पुनर्गठन	-10.8934
वु	-10.8936
्टि	-10.8936
साइ	-10.8938
▁विधवा	-10.8939
वाल्ड	-10.8939
▁इन्हें	-10.8943
▁जानबूझकर	-10.8943
▁आशा	-10.8943
▁हिंसक	-10.8946
▁सेंट्रल	-10.8951
▁सिंहासन	-10.8956
▁मोहम्मद	-10.8961
▁ताइवान	-10.8962
▁इंस्टीट्यूट	-10.8963
▁रहना	-10.8967
▁दंड	-10.8967
ेली	-10.8968
▁प्रान्त	-10.8968
▁गार	-10.8969
▁न्यूज	-10.8969
ेश	-10.8972
▁रोजर	-10.8973
इव	-10.8978
▁आश्रय	-10.898
राज्य	-10.8984
धु	-10.8988
▁अभिजात	-10.8989
देव	-10.8991
वियन	-10.8996
▁पनडुब्बी	-10.8997
▁थॉम्पसन	-10.8999
टिल	-10.9004
जिसमें	-10.9005
▁रॉबिन्सन	-10.9008
▁गार्डन	-10.9012
):	-10.9015
डोन	-10.9015
▁फिनलैंड	-10.9015
▁सिन	-10.9018
▁दिमाग	-10.902
▁थोड़ी	-10.902
हेल	-10.903
▁निकासी	-10.9033
▁कपड़ों	-10.9035
जिक	-10.9036
▁टोपी	-10.9038
▁पुरातात्विक	-10.9038
▁साधन	-10.904
▁गले	-10.9049
▁फेस्टिवल	-10.9049
▁क्वीन	-10.9052
पूर्वी	-10.9057
ैप	-10.9058
▁खोलने	-10.906
▁कैरी	-10.9062
▁तीव्र	-10.9064
▁जेफ	-10.9069
▁भेदभाव	-10.9075
▁समारोहों	-10.9075
▁विकार	-10.9076
▁खनिज	-10.9076
ज़्	-10.9077
▁कॉर्पोरेट	-10.908
▁नरम	-10.9086
▁क्रूज	-10.9086
ड्रो	-10.9089
हार्ट	-10.9093
▁मस्जिद	-10.9094
▁अपराधों	-10.9099
▁वाक्यांश	-10.9101
तम	-10.9113
रै	-10.912
▁सिवाय	-10.9121
▁मोंट	-10.9121
ट्रू	-10.9124
▁क्रिस्टोफर	-10.9125
▁बट	-10.9125
▁अवरुद्ध	-10.913
▁भेजे	-10.913
▁प्रस्थान	-10.9131
▁श्रृंखलाओं	-10.9131
▁ऑस्टिन	-10.9133
बैंड	-10.9133
▁लैंडिंग	-10.9134
▁आत्महत्या	-10.9135
▁डॉक	-10.9135
▁चावल	-10.9138
▁आग्रह	-10.914
▁कैरोल	-10.9141
वर्	-10.9142
▁मैक्सिको	-10.9143
▁ज़ु	-10.9155
गिल	-10.9156
▁वर्दी	-10.9161
साइट	-10.9164
▁उपनगर	-10.9168
▁m	-10.9168
▁अधि	-10.9168
▁बिंदुओं	-10.9169
र्फ	-10.917
▁दस्ते	-10.9172
ड्रे	-10.9173
▁मूल्यवान	-10.9174
▁पॉलिश	-10.9177
▁खाई	-10.9194
▁रॉब	-10.9198
▁अरबी	-10.92
कॉन	-10.9206
▁अनुकरण	-10.9207
▁प्रकरण	-10.9216
▁रॉबिन	-10.9218
▁गिरफ्तारी	-10.9218
▁भावनाओं	-10.9219
▁महाद्वीपीय	-10.9223
उट	-10.9225
▁लेबर	-10.9233
Â	-10.9237
▁श्रमिक	-10.9237
./	-10.9241
▁दाहिने	-10.9243
▁सुल्तान	-10.9243
बहुत	-10.9246
▁क्वीन्सलैंड	-10.9247
रसन	-10.9247
राह	-10.9251
▁लिंड	-10.9251
▁क्ला	-10.9254
▁शर्त	-10.9259
▁ट्व	-10.9259
ल्ल	-10.9261
▁असंभव	-10.9266
रिल	-10.9266
▁गैरी	-10.9279
थ्रो	-10.9282
▁समझने	-10.9282
▁ईस्वी	-10.9291
▁भरे	-10.9292
▁उत्पीड़न	-10.9296
▁मुकाबला	-10.9296
▁शासक	-10.9297
▁प्रकोप	-10.9303
▁मॉर	-10.9306
▁छवियों	-10.9306
▁इको	-10.9308
ाइज	-10.9309
▁बौ	-10.931
▁मुर्रे	-10.9317
▁गहरा	-10.932
ूंगा	-10.9321
▁व्याकरण	-10.9321
▁एडमिरल	-10.9321
▁चार्ली	-10.9321
▁शरद	-10.9322
▁एश	-10.9325
केल	-10.9327
▁सेवाएँ	-10.933
ार्ट	-10.9332
उनके	-10.9333
▁जोड़	-10.9334
राइट	-10.9336
▁फांसी	-10.9337
▁संपादन	-10.9342
▁शिल्प	-10.9343
▁जॉ	-10.9347
▁एडम्स	-10.9347
अंत	-10.9348
▁ऑरलियन्स	-10.9349
वायर	-10.9349
सियो	-10.9358
▁बता	-10.9362
▁दुकानों	-10.9367
▁पोत	-10.9371
▁बुल	-10.9374
▁तेरह	-10.9376
▁दावों	-10.9378
▁शॉ	-10.938
▁दृढ़	-10.938
▁प्रतिमा	-10.938
लीग	-10.938
▁ग्रेग	-10.9384
▁हॉप	-10.9387
टेक्स	-10.9387
▁अनुकूलन	-10.9388
▁विध्वंसक	-10.9394
▁हराने	-10.9397
▁त्वरित	-10.9404
▁ब्रुकलिन	-10.9404
▁भेजने	-10.9405
▁संपत्तियों	-10.9407
▁प्रासंगिक	-10.9413
ध्रुव	-10.9415
▁उड़	-10.9415
▁विल्	-10.9427
फिश	-10.9427
▁प्रभारी	-10.9437
पिया	-10.9446
▁संघों	-10.9448
▁माफ	-10.9453
▁देखना	-10.9455
▁संग्रहीत	-10.9456
▁फीफा	-10.9458
डिन	-10.9463
▁केनेडी	-10.9466
समय	-10.9468
विंड	-10.9469
▁छिप	-10.9469
▁सिल्वर	-10.9472
▁ढंग	-10.9474
▁वेनिस	-10.9476
▁उपविजेता	-10.9476
▁बराबरी	-10.9476
हरा	-10.9485
▁निर्धारण	-10.9492
▁सराहना	-10.9492
▁ऊर्ध्वाधर	-10.9494
▁बहा	-10.9494
वेस्ट	-10.9497
मेड	-10.9499
▁प्रोग्राम	-10.9499
▁दोस्ती	-10.9503
▁फिल्मांकन	-10.9504
▁अनिश्चित	-10.9509
▁वहां	-10.9511
▁अंश	-10.9515
ियास	-10.9517
जनरल	-10.9521
▁अद	-10.9523
दू	-10.9525
▁निभा	-10.9526
लगभग	-10.9527
▁पैट	-10.9532
▁पहलू	-10.9534
▁मोरिस	-10.9534
▁किंग्स	-10.9534
▁विशेषताएँ	-10.9537
बाह	-10.9541
▁बैरी	-10.9541
or	-10.9542
▁सूट	-10.9542
▁फ्रेंचाइजी	-10.9544
▁फोटोग्राफी	-10.9546
▁कनेक्शन	-10.9548
फ्लाई	-10.955
▁दोहराया	-10.9551
▁धारक	-10.9557
▁गिरा	-10.9559
▁कार्यालयों	-10.9561
▁वैली	-10.9564
माउथ	-10.9566
▁विक्रेता	-10.9567
ागार	-10.9568
▁गिरोह	-10.9572
▁चौदह	-10.9575
▁डेनिश	-10.9575
▁मूर्तिकला	-10.9577
▁उतना	-10.9582
▁कन्	-10.9585
ंदा	-10.9586
▁प्रयोगात्मक	-10.9586
▁उगा	-10.959
▁डालने	-10.9593
फॉर्म	-10.9593
▁नौकाओं	-10.9596
▁माफी	-10.9604
▁इम	-10.9606
▁ईगल	-10.9609
▁प्रस्तुति	-10.9612
▁मिलते	-10.962
▁कॉम	-10.9622
▁अस्थिर	-10.9624
▁सपाट	-10.9629
संगत	-10.963
▁शाखाओं	-10.9631
ाचार	-10.9632
िंगर	-10.9632
ेरे	-10.9636
▁माइ	-10.9636
दाता	-10.9636
िएट	-10.9636
▁वास्तविकता	-10.9637
▁एली	-10.964
▁तस्वीरें	-10.9644
▁कॉक	-10.9646
▁नवाचार	-10.9655
लोंग	-10.9656
बाई	-10.9659
न्ड	-10.9664
▁देव	-10.9669
▁वायरस	-10.9671
▁बेहद	-10.9675
ओल	-10.9676
▁उपभोक्ता	-10.9679
्वी	-10.9681
▁बंदूकों	-10.9682
साई	-10.9685
▁s	-10.9686
▁अलाबामा	-10.9693
▁हिस्सेदारी	-10.9695
▁विलुप्त	-10.9699
▁भावनात्मक	-10.9699
लियर	-10.9706
▁घुटने	-10.9708
▁खोली	-10.9708
साम	-10.9709
▁कारकों	-10.971
ंडन	-10.9711
▁जन्मदिन	-10.9712
▁लेबनान	-10.9714
▁सिम्फनी	-10.9715
▁स्कि	-10.972
▁जाल	-10.9721
▁रुख	-10.9725
▁धीमी	-10.9726
▁ल्यूक	-10.973
▁गोद	-10.9733
▁बेटों	-10.9733
▁यूट्यूब	-10.9733
ेरियन	-10.9736
त्ता	-10.9737
▁ब्रॉडवे	-10.9749
▁बज	-10.975
थी	-10.9751
▁पेरू	-10.9753
▁टूटने	-10.9755
▁प्रिय	-10.9757
तू	-10.9762
▁रैली	-10.9765
▁अर्कांसस	-10.9767
▁पोषण	-10.977
▁छद्म	-10.9772
रियस	-10.9778
▁जॉनी	-10.9785
विद्	-10.9787
▁किम	-10.9787
▁फ्रैंकलिन	-10.9788
▁थाईलैंड	-10.979
▁कैफे	-10.979
▁टिम	-10.9794
लेक	-10.9797
▁बेबी	-10.9797
▁ग्लासगो	-10.9798
क्वि	-10.9801
▁बाउ	-10.9809
▁कहानियाँ	-10.981
खे	-10.981
▁ग्राफ	-10.9813
▁गतिविधियाँ	-10.9813
सोन	-10.9815
येन	-10.9817
▁केविन	-10.9818
▁गिरने	-10.9822
ज्ज	-10.9823
▁लिखना	-10.9828
▁खून	-10.9828
▁अनुमोदित	-10.9837
▁मेटा	-10.9838
▁लूट	-10.9841
च्छ	-10.9841
▁ग्राहम	-10.9841
ुना	-10.9846
▁बेर	-10.9848
▁अल्पकालिक	-10.9849
▁कार्टून	-10.9849
▁गुंबद	-10.985
▁घटकों	-10.9853
▁अनाज	-10.9854
▁तिथि	-10.9856
▁गेर	-10.9859
ैर	-10.9862
जेस	-10.9862
▁रिचमंड	-10.9863
▁सिल	-10.9867
▁बचत	-10.9868
▁सुनवाई	-10.987
▁पट्टे	-10.987
▁निकालने	-10.9873
▁भैंस	-10.9877
नार	-10.9878
▁बाजारों	-10.9879
▁दूध	-10.9882
लिम	-10.9889
मत	-10.9893
गुइ	-10.9894
▁सारे	-10.9895
▁आश्चर्यजनक	-10.9897
▁लाए	-10.9901
▁वर्गों	-10.9902
▁फ्यू	-10.9906
▁हल्की	-10.9907
▁बंगाल	-10.9907
फ्री	-10.9908
▁मिचेल	-10.9909
▁औ	-10.9917
▁हेलीकॉप्टर	-10.9918
▁पेय	-10.992
कार्य	-10.992
▁लिबरल	-10.9922
योग	-10.9922
्के	-10.9926
र्च	-10.9927
▁प्राप्तकर्ता	-10.9927
ज़ू	-10.9928
▁अल्फा	-10.9933
▁बाईं	-10.9935
▁सीधा	-10.9936
▁तलवार	-10.9939
▁म्यूजिक	-10.994
▁हटने	-10.9951
टै	-10.9952
ोइस	-10.9954
िद	-10.9957
▁चंद्रमा	-10.9959
▁लॉग	-10.996
▁प्रोटेस्टेंट	-10.9961
▁अनुपस्थिति	-10.9964
▁नमूना	-10.9965
▁","	-10.9966
▁तालाब	-10.9967
▁धन्यवाद	-10.9968
▁शतरंज	-10.997
▁अनुचित	-10.997
▁रिको	-10.997
▁अनुप्रयोगों	-10.9974
▁विक्टोरियन	-10.9974
▁श्रेणियों	-10.9978
▁दर्जन	-10.9978
▁भ्रमित	-10.9984
▁पुर्तगाल	-10.9988
▁उच्चारण	-10.9989
▁चौ	-10.999
▁युद्धों	-10.9993
▁रहीं	-10.9998
▁लड़ा	-11.0002
▁सोलह	-11.0002
ज़िया	-11.0007
▁बहादुर	-11.0008
ल्डे	-11.0008
फोर्स	-11.0012
▁प्रवर्तन	-11.0014
्लै	-11.0017
▁हैम्पशायर	-11.0018
▁डीजे	-11.0022
▁उथल	-11.0025
▁स्विच	-11.0027
▁छाप	-11.0029
शक्ति	-11.0031
▁दीर्घकालिक	-11.0038
▁गुरु	-11.004
▁जुनून	-11.004
ोविक	-11.0042
▁यादृच्छिक	-11.0043
मैड	-11.0045
▁समर्थकों	-11.0046
▁दास	-11.0055
▁पौराणिक	-11.0056
भूमि	-11.0058
िली	-11.0059
▁जेरूसलम	-11.0059
दिवसीय	-11.006
▁पागल	-11.0061
अल्	-11.0061
▁नैतिकता	-11.0064
▁नॉर्मन	-11.0064
▁वाइन	-11.0067
▁संहिता	-11.0069
जिल	-11.0069
▁सूचकांक	-11.0071
▁वॉल्ट	-11.0072
▁ढाल	-11.0075
▁ऊतक	-11.0078
टाइप	-11.0084
अव	-11.0088
▁अग्रभाग	-11.009
▁चीजें	-11.0094
▁होनी	-11.0095
▁आगंतुकों	-11.0101
▁एयरलाइन	-11.0107
▁रूम	-11.0107
▁प्रशासक	-11.0115
▁सुसज्जित	-11.0115
▁मासिक	-11.0116
▁विघटन	-11.0117
▁मद	-11.0117
▁चालू	-11.012
▁मोर्चे	-11.0121
▁दिल्ली	-11.0121
खी	-11.0123
▁पोर्टलैंड	-11.0125
▁पैरों	-11.0126
▁धोखाधड़ी	-11.0126
चिन	-11.0138
▁चौड़े	-11.0138
बान	-11.014
▁न्यायाधीशों	-11.014
▁विनियमन	-11.0143
▁बीयर	-11.0145
▁उदय	-11.0145
▁ऑर	-11.0145
▁पतवार	-11.0147
पत	-11.015
▁योग	-11.0151
▁बर्तन	-11.0152
जार	-11.0153
▁घंटी	-11.0154
▁कैम	-11.0156
▁जियो	-11.0157
▁चिंतित	-11.0159
▁ओब्लास्ट	-11.0161
▁अदालतों	-11.0172
▁लेंस	-11.0173
▁तीस	-11.0176
▁दस्तावेजों	-11.0177
▁ग्लोब	-11.0178
▁टेबल	-11.0178
▁नकली	-11.018
▁इब्न	-11.0188
▁विकिरण	-11.019
्बो	-11.019
▁धकेल	-11.0195
▁बेली	-11.0196
▁तारों	-11.0198
▁मेज	-11.0202
जान	-11.0205
▁आपत्ति	-11.0206
▁बालों	-11.0207
▁नाइजीरिया	-11.0207
▁प्रतिबिंबित	-11.0211
▁स्नान	-11.0211
ैक्ट	-11.0212
▁सुनने	-11.0212
▁ग्रीक	-11.0213
▁मह	-11.0214
शाफ्ट	-11.0214
ानिकों	-11.0223
ऐ	-11.0223
रॉय	-11.0228
▁यॉर्कशायर	-11.0229
ुत	-11.0235
▁टुकड़ा	-11.0236
▁हिप	-11.0236
▁विधायिका	-11.024
व्यक्ति	-11.024
▁विरोधियों	-11.0243
ंडेल	-11.0243
▁पंजीकरण	-11.0244
▁महासंघ	-11.0246
▁लियो	-11.0248
हार्ड	-11.0249
▁बेंजामिन	-11.0253
गुर	-11.0262
▁प्रांतों	-11.0263
▁कठिनाई	-11.0267
▁घोड़ों	-11.0267
▁पर्यावरणीय	-11.0268
▁एरिजोना	-11.0275
▁ऑक्स	-11.0275
▁उद्धरण	-11.0277
र्रे	-11.0287
▁संकल्प	-11.0287
▁मनोवि	-11.0289
ैश	-11.0295
▁सख्त	-11.0298
▁अकादमिक	-11.0298
▁एनिमेटेड	-11.03
▁प्रसंस्करण	-11.03
▁दर्शक	-11.0301
िमंडल	-11.0303
▁ध्वज	-11.0308
यम	-11.0309
वेयर	-11.0316
िट्ज़	-11.0318
ंजी	-11.0323
वोल	-11.0325
इरा	-11.0333
▁किल	-11.0334
▁गॉर्डन	-11.0335
▁वार्ता	-11.0337
▁चु	-11.0337
▁नोट्स	-11.0339
▁लायन	-11.0341
▁क्वेबेक	-11.0341
▁प्रविष्टि	-11.0342
स्टाइल	-11.0342
▁शोधकर्ताओं	-11.0344
▁बचाया	-11.0349
क्लास	-11.035
▁चाय	-11.035
▁बिन	-11.0351
▁संतान	-11.0353
▁अनुष्ठान	-11.0355
िडो	-11.0357
▁रिवर	-11.036
▁जैकब	-11.0362
▁बैठने	-11.0367
ारो	-11.0373
▁कैमरा	-11.0373
पाद	-11.0377
▁ब्रदर्स	-11.038
▁नकल	-11.0382
▁संभाल	-11.0382
▁मत	-11.0383
▁गतिशील	-11.0383
on	-11.0384
ब्लो	-11.0385
▁मॉड्यूल	-11.0388
▁ट्यू	-11.0389
▁बें	-11.0395
▁लाइफ	-11.0396
▁निकोल	-11.0399
▁बर्बाद	-11.0403
ंगर	-11.0403
▁येल	-11.0407
▁मुकुट	-11.041
▁ग्राम	-11.0411
▁सर्बिया	-11.0414
नास	-11.0415
▁अवकाश	-11.0418
▁निपटान	-11.0424
क्विन	-11.0429
▁निपटने	-11.0436
केवल	-11.0438
लस	-11.0439
्ना	-11.0444
▁पांडुलिपि	-11.0445
▁प्लेस	-11.0446
संगीत	-11.0446
▁उपयोगी	-11.0449
▁नौकायन	-11.045
रिफ	-11.0455
▁उद्यानों	-11.0455
▁अभिनेताओं	-11.0455
गली	-11.0456
▁ग्र	-11.0456
▁स्टेनली	-11.0457
▁ब्यू	-11.0457
ग्रुप	-11.0458
▁केंट	-11.0458
▁साथियों	-11.046
▁अफगानिस्तान	-11.0467
▁एथ	-11.0467
ंटी	-11.0469
▁भयानक	-11.0473
▁खेलता	-11.0473
▁वाल	-11.0474
▁आपकी	-11.0474
▁नवीनतम	-11.0475
▁नकद	-11.0477
फ्	-11.0477
वेद	-11.0478
▁गर्दन	-11.0479
▁किंवदंती	-11.0481
मॉर्	-11.0483
▁वक्र	-11.0484
▁टेलीफोन	-11.0487
▁परिपक्व	-11.0491
▁जलाशय	-11.0491
▁विदेशों	-11.0494
▁थक	-11.0494
▁भ्रष्टाचार	-11.0497
ोज	-11.0504
▁प्रतियां	-11.0505
▁घाव	-11.0505
▁गुजरने	-11.0508
ढ	-11.0515
▁वंशज	-11.0516
▁अमा	-11.0518
▁एजेंसियों	-11.0519
▁ईरानी	-11.052
जॉन	-11.052
▁फ़ा	-11.0522
डॉ	-11.0525
▁गर्व	-11.0529
▁प्रतिबद्धता	-11.0536
गै	-11.0537
▁ड्राइवर	-11.0538
टें	-11.0541
▁हिस्पैनिक	-11.0545
▁कार्लोस	-11.0545
▁पल	-11.0546
▁डेट्रॉइट	-11.0547
वर्ट	-11.0549
▁देवी	-11.055
▁संरचनात्मक	-11.0556
▁सीमाएँ	-11.0557
▁गियर	-11.0559
पुरा	-11.0561
▁रिपोर्टर	-11.0563
▁जश्न	-11.0565
रेज़	-11.0565
▁ड्रमर	-11.0566
ोल्ड	-11.0566
▁दर्शाती	-11.0567
स्केट	-11.057
▁जासूस	-11.0573
▁लेखों	-11.0573
▁क्लर्क	-11.0577
▁उपरोक्त	-11.0579
▁एफएम	-11.0581
▁गारंटी	-11.0581
▁वित्तपोषण	-11.0582
▁नेपाल	-11.0583
▁काटने	-11.0584
▁कैम्प	-11.0585
एंड	-11.0586
▁तोड़ने	-11.0592
▁सर्व	-11.0597
▁एमएस	-11.0599
▁सांख्यिकीय	-11.0601
▁नारंगी	-11.0601
संरेखण	-11.0603
▁सीरियाई	-11.0608
यर्स	-11.0615
जर्मन	-11.0618
▁डोमेन	-11.0618
▁कूपर	-11.062
किल	-11.0622
▁पेज	-11.0625
डाय	-11.0629
▁निर्णायक	-11.0631
गुआ	-11.0633
बरो	-11.0634
टीम	-11.0635
▁कॉफी	-11.064
लोव	-11.064
ेटिक	-11.0647
▁रीमिक्स	-11.0648
▁ब्रिस्टोल	-11.0649
▁बाधाओं	-11.0649
▁अग्रदूत	-11.0653
▁वर्तनी	-11.0657
▁रिसॉर्ट	-11.0659
कथा	-11.0659
▁गायिका	-11.0661
▁डर्बी	-11.0663
शीर्षक	-11.0667
क्ले	-11.0671
मुरा	-11.0672
▁गार्	-11.0674
▁सॉकर	-11.0677
▁व्युत्पन्न	-11.068
▁आप्रवासन	-11.0681
▁कोस्टा	-11.0682
▁पुनर्निर्मित	-11.0684
ानु	-11.0686
▁सौदा	-11.0691
▁गंतव्य	-11.0694
म्यू	-11.0696
लॉक	-11.0698
▁लिफ्ट	-11.0698
▁माइनर	-11.0702
▁विद्रोही	-11.0703
▁वरीयता	-11.0704
▁हैरिसन	-11.0704
▁उल्	-11.0707
ॉफ	-11.0708
▁एले	-11.0709
▁उपस्थित	-11.0715
▁कुंजी	-11.0715
▁फॉर्मूला	-11.0716
▁आधी	-11.0718
▁पुनरुद्धार	-11.0728
मीर	-11.0734
वियर	-11.0734
▁बेचे	-11.0736
त्मक	-11.0736
▁राजाओं	-11.0743
▁बॉन्ड	-11.0746
▁व्यापारिक	-11.0749
▁इनडोर	-11.075
▁विक्टर	-11.0751
▁बार्ट	-11.0754
▁मनुष्य	-11.0755
▁छिपा	-11.0756
▁कब	-11.076
मोस	-11.0762
घन	-11.0763
▁जेसन	-11.0766
लेव	-11.0767
▁उपयोगिता	-11.077
ैम्प	-11.0773
▁मानता	-11.0774
क्सा	-11.0777
▁बिल्कुल	-11.0777
▁बल्लेबाज	-11.0782
▁एवर	-11.0783
▁पिट्सबर्ग	-11.0784
पॉप	-11.0784
जेड	-11.0786
ेनिया	-11.0788
ड़ों	-11.0789
▁एंजाइम	-11.0789
निर्माण	-11.0789
क्रेट	-11.0793
▁विद्रोहियों	-11.0797
▁पकड़े	-11.0797
▁ट्रेड	-11.0797
▁अकेला	-11.0798
गोस	-11.0802
मार्ट	-11.0805
माइ	-11.0808
क्रि	-11.0809
▁गुजरती	-11.0809
प्पा	-11.0812
▁खेतों	-11.0813
▁टाइट	-11.0814
तुल	-11.0814
▁फंड	-11.0816
▁खिल	-11.0817
ॉन्ग	-11.082
▁लॉक	-11.0828
▁जीवों	-11.083
▁संपादित	-11.083
खेल	-11.0831
▁लॉयड	-11.0839
बोर्ग	-11.0842
▁विधान	-11.0845
▁खरीदी	-11.0846
लेख	-11.0855
▁ढलान	-11.0856
▁निदान	-11.0856
▁स्तन	-11.0857
मोटो	-11.0866
▁कैरि	-11.0868
▁पतंग	-11.087
बाय	-11.0873
▁फाइल	-11.0875
▁अठारह	-11.0878
बर्	-11.0883
▁कराई	-11.0883
कोस	-11.0884
▁एंड्रे	-11.0885
▁किताबें	-11.0886
▁दबा	-11.089
▁पार्कर	-11.089
ट्रु	-11.0891
्सेल	-11.0893
▁अगला	-11.0896
▁नर्स	-11.0897
कास्ट	-11.0901
▁पोंट	-11.0902
▁उभर	-11.0905
ॉप	-11.0906
म्ब्र	-11.0908
▁सेवन	-11.0911
▁सीनियर	-11.0911
▁हंगेरियन	-11.0914
ठा	-11.0914
▁ओटो	-11.0914
बढ़े	-11.092
▁मैनहट्टन	-11.0921
▁ज्वार	-11.0921
्यूट	-11.0925
्श	-11.0927
▁बाइ	-11.0929
ॉड	-11.0929
▁सरकारों	-11.0932
लमैन	-11.0933
▁बूट	-11.0936
▁आश्वस्त	-11.0938
▁मुसलमान	-11.0939
ड़ियों	-11.0939
स्टैड	-11.094
पल्स	-11.0941
▁हान	-11.0943
शिन	-11.0946
ोह	-11.0948
▁एथलीट	-11.0948
▁उत्सर्जन	-11.0948
▁ढेर	-11.095
▁रैखिक	-11.0953
▁जागीर	-11.0956
▁टाई	-11.0957
▁अग्नि	-11.0957
शैली	-11.0961
▁वाट	-11.0963
र्स्ट	-11.0965
स्कू	-11.0965
▁प्यू	-11.0968
बहन	-11.0968
स्कु	-11.0968
▁एडी	-11.0969
▁प्रतिभागियों	-11.0973
▁ओस	-11.0973
▁वयस्कों	-11.0979
▁जेरी	-11.0981
▁खगोल	-11.0982
रोप	-11.0991
▁सुधारों	-11.0992
▁मैरि	-11.0992
▁क्लॉ	-11.0993
▁भरोसा	-11.0994
▁बाइबल	-11.0995
▁हस्तियों	-11.0996
▁मिनी	-11.0997
▁टकरा	-11.1
▁वर्ण	-11.1003
बियन	-11.1004
▁सहानुभूति	-11.1004
▁निरंतरता	-11.1007
ुओं	-11.1008
▁कैलेंडर	-11.1009
बिक	-11.1009
▁कारावास	-11.1011
ुम	-11.1013
शान	-11.1013
▁खिड़कियों	-11.1015
▁वक्ता	-11.1028
डेंट	-11.103
▁तथाकथित	-11.1032
▁बुला	-11.1032
ोविच	-11.1032
मून	-11.1035
कृष्ण	-11.1036
▁रोज़	-11.1039
चेल	-11.1042
▁ट्यून	-11.1045
▁आगामी	-11.1045
▁उलट	-11.1049
ल्व	-11.1051
▁गीतकार	-11.1051
▁गोला	-11.1053
▁फिल्माया	-11.1053
▁गश्ती	-11.1055
▁लेखा	-11.1056
▁[[	-11.1057
होल	-11.106
▁पीएच	-11.106
▁जनजातियों	-11.1062
शहर	-11.1062
डिक	-11.1066
▁अनुभवों	-11.1067
▁बैपटिस्ट	-11.1067
▁प्रदेश	-11.1072
▁चैंबर	-11.1072
▁डल्लास	-11.1072
▁पोते	-11.1073
▁फ़्रांसिस्को	-11.1074
▁भूल	-11.1074
▁विद	-11.1077
▁ओह	-11.1078
ास्	-11.1078
भाव	-11.1079
फेस	-11.108
ग्र	-11.108
▁पदनाम	-11.108
कोड	-11.1083
्डेन	-11.1094
▁टेड	-11.1103
व्ह	-11.1104
▁मानवाधिकार	-11.1104
▁मोटा	-11.1106
▁नाटकों	-11.1107
▁दुष्ट	-11.111
हाइड्र	-11.111
स्थापना	-11.1117
▁सेवक	-11.1118
▁कैदी	-11.1119
वाटर	-11.112
▁दिव्य	-11.1129
▁पेरी	-11.1135
▁कार्यशाला	-11.1137
▁प्लास्टिक	-11.1139
्रु	-11.1141
▁टिप्पणियों	-11.1141
वॉल	-11.1143
मृत्यु	-11.1143
▁संकलित	-11.1143
▁मनाया	-11.1144
▁सड़कें	-11.1148
सोल	-11.1152
▁संचरण	-11.1155
▁कम्प	-11.1157
▁एबी	-11.116
▁डेल्टा	-11.1164
▁परेड	-11.1168
अर्	-11.1169
सीजन	-11.1172
पोलिस	-11.1173
▁बुद्धिमान	-11.1174
▁इंडिया	-11.1174
▁ऐप	-11.1175
राक	-11.1176
▁सीरिया	-11.1176
लिथ	-11.1177
▁केन्या	-11.1177
सुल	-11.1178
▁अज़रबैजान	-11.1179
<	-11.1181
▁बीजिंग	-11.1184
▁एंग्लो	-11.1185
▁सजावट	-11.1185
▁लिटिल	-11.1186
माइन	-11.119
िटा	-11.119
▁लैं	-11.1195
▁बलात्कार	-11.1197
सिलेंडर	-11.1197
ैंट	-11.1199
▁चुकी	-11.12
ग्ने	-11.12
▁मॉर्गन	-11.1201
शाल	-11.1202
▁अभयारण्य	-11.1203
▁डाउनलोड	-11.1216
ग्लि	-11.1216
▁लियोनार्ड	-11.1217
जियांग	-11.1219
▁विश्वसनीय	-11.1221
▁पहुंची	-11.1233
I	-11.1236
प्त	-11.1241
सेक	-11.1247
▁विवेक	-11.1247
फाई	-11.1248
▁मिलिशिया	-11.125
▁पहनने	-11.1254
]]	-11.1255
बर्गर	-11.1256
्सविले	-11.1256
थन	-11.1258
▁रोबोट	-11.126
▁डिपो	-11.1271
रता	-11.1273
ॉर्ड	-11.1275
रियम	-11.1275
प्रकार	-11.1276
▁कंक्रीट	-11.1278
स्पी	-11.1278
मंडल	-11.1283
▁गोताखोर	-11.1284
ऑर्	-11.1285
मिक्स	-11.1286
रोव	-11.1298
▁रोका	-11.1299
▁टर्नर	-11.13
▁जिम्मी	-11.13
अमेरिकन	-11.1302
▁त्याग	-11.1304
▁उपदेश	-11.1309
▁रिपोर्टों	-11.131
▁पंजाब	-11.132
▁जैकसन	-11.1325
▁ओवेन	-11.1327
ेट्स	-11.1327
▁पिचर	-11.1333
ाकां	-11.1335
राब	-11.1337
मिड	-11.1341
▁सीख	-11.1341
▁बेयर	-11.1343
आयामी	-11.1343
गांव	-11.1343
▁मुख्यधारा	-11.1345
फिर	-11.1347
▁परिकल्पना	-11.1351
म्पटन	-11.1357
ग्रस्त	-11.1359
▁भूमिकाएँ	-11.1362
बेस	-11.1364
मुक्त	-11.1366
डेस	-11.1366
▁चालकों	-11.1368
▁बर्मिंघम	-11.1368
▁पचास	-11.1371
▁चौड़ी	-11.1376
▁फॉरवर्ड	-11.1378
▁कट्टरपंथी	-11.1379
पीएस	-11.1382
▁कवच	-11.1386
▁गुलाबी	-11.1386
▁गाय	-11.1389
▁परंपराओं	-11.1389
स्ली	-11.1394
▁प्रवासियों	-11.1398
▁अग्रिम	-11.14
फ्यू	-11.1401
▁गतिशीलता	-11.1405
्प	-11.1407
":	-11.1407
किन्स	-11.1409
▁नियो	-11.141
▁मुद्दा	-11.1412
▁विनिमय	-11.1414
▁पेनल्टी	-11.1416
ब्ले	-11.1419
्विन	-11.1424
▁प्रोटोटाइप	-11.1429
▁रडार	-11.1434
▁डेटाबेस	-11.1435
▁अलास्का	-11.1439
▁तैराकी	-11.144
वेज	-11.1449
सेस	-11.1451
जीव	-11.1452
▁गोथ	-11.1454
शेल	-11.1454
▁सूखे	-11.1454
फाइट	-11.1455
▁प्राणी	-11.1456
श्री	-11.1457
र्ना	-11.1457
▁लोगो	-11.1458
▁डकोटा	-11.1458
▁स्वयंसेवक	-11.1463
▁फ्लैट	-11.1464
▁फेंकने	-11.1467
▁फ़्रांस	-11.1475
नाथ	-11.1478
▁डाइगो	-11.1479
▁व्यापारियों	-11.1479
▁चेहरा	-11.148
तरफा	-11.1486
▁पीएचडी	-11.149
▁लीगा	-11.149
कोई	-11.1491
▁बोनस	-11.1492
▁चौड़ा	-11.1492
▁हित	-11.1497
ाटो	-11.1498
रेक	-11.1508
▁तमिल	-11.1513
▁चोटी	-11.1513
▁ट्रेनें	-11.1513
▁सैद्धांतिक	-11.1517
▁लिखाः	-11.1523
▁व्हेल	-11.1524
▁जाएँ	-11.1525
▁गर्भपात	-11.1526
▁विनाशकारी	-11.1529
▁अनंत	-11.1532
▁प्रोटोकॉल	-11.1535
लुक	-11.1535
▁कितना	-11.1536
ियानो	-11.1538
▁चिंताओं	-11.154
▁सहकारी	-11.1542
▁उद्योगों	-11.1543
▁खाना	-11.1544
्नि	-11.1545
▁पुनरुत्थान	-11.1559
ब्लि	-11.156
▁जाओ	-11.1562
▁सोना	-11.1563
▁रहित	-11.1564
▁शर्म	-11.1566
संरेखित	-11.1581
नोट	-11.1587
्रू	-11.1587
▁उपायों	-11.1589
▁बोलते	-11.159
▁भय	-11.159
▁बेंच	-11.1591
▁परवाह	-11.1595
▁क्रेग	-11.1602
ंध	-11.1608
▁पले	-11.1613
ंदर	-11.1615
▁स्टाफ	-11.1615
बॉय	-11.1616
▁मण्डली	-11.1617
▁स्टॉप	-11.1618
्रिया	-11.1618
▁फॉर्म	-11.162
▁अंतरराज्यीय	-11.1623
धि	-11.1624
ल्यू	-11.1624
▁पेट्र	-11.1632
▁सऊदी	-11.1639
▁अपमान	-11.1639
टेर	-11.1639
्बी	-11.164
इंट	-11.1641
▁कैबिनेट	-11.1648
न्यूयॉर्क	-11.1651
▁इलाके	-11.1652
▁इलाका	-11.1657
▁फोटोग्राफर	-11.1659
an	-11.166
▁दफन	-11.1663
▁सराय	-11.1663
हर्स्ट	-11.1666
समूह	-11.1671
▁स्वायत्त	-11.1675
▁भजन	-11.1677
▁शॉर्ट	-11.1677
▁भागीदारों	-11.1677
▁दायित्व	-11.1681
▁कबीले	-11.1684
वास्तविक	-11.1684
▁कर्मी	-11.1684
▁अप्रत्याशित	-11.1692
▁आखिरकार	-11.1692
▁मैट्रिक्स	-11.1693
जेंट	-11.1694
▁शुक्रवार	-11.1695
▁फिलिप्स	-11.1698
बारूद	-11.1699
्ब	-11.17
▁टर्	-11.1701
▁जोनाथन	-11.1704
मुन	-11.1704
कुर	-11.1706
▁लगाना	-11.1706
रिग	-11.1708
दृश्य	-11.171
▁मनोरंजक	-11.171
▁मोती	-11.1713
▁गॉड	-11.1721
▁निकास	-11.1726
स्ट्रॉ	-11.1727
▁किर्क	-11.1732
्ने	-11.1733
▁निभाने	-11.1734
युद्ध	-11.1739
▁काउंट	-11.174
▁बिट	-11.1741
▁सोर	-11.1743
चै	-11.1743
▁लगाते	-11.1743
▁तस्करी	-11.1744
▁तटों	-11.1748
सिं	-11.1748
▁ब्रिसबेन	-11.1749
क्रा	-11.1751
▁चैलेंज	-11.1751
उच्च	-11.1759
▁रोस्टर	-11.1761
▁प्रतिर	-11.1763
किया	-11.1764
हॉल	-11.1767
▁पथ	-11.1768
▁धोखा	-11.1771
फिक	-11.1772
▁चाकू	-11.1772
▁वुल्फ	-11.1772
आज	-11.1772
▁बख्तरबंद	-11.1773
मिना	-11.1774
स्पैन	-11.1776
लेक्स	-11.1776
सीज़न	-11.1777
बोल	-11.1777
ुका	-11.1778
▁हवेली	-11.1778
▁स्नो	-11.1778
ोवो	-11.1779
लोस	-11.1779
▁दरार	-11.1779
मैट	-11.1779
▁बिक	-11.178
क्टो	-11.1783
▁बुजुर्ग	-11.1785
▁सोनी	-11.1785
▁वार्नर	-11.1789
▁उत्सुक	-11.1792
▁गवाह	-11.1795
पैड	-11.1797
▁वांग	-11.1798
▁कार्यवाही	-11.1798
▁ब्रॉड	-11.18
▁अभिलेखागार	-11.1801
▁फैले	-11.1801
▁थियो	-11.1803
फु	-11.1805
▁मार्को	-11.1807
▁कैम्पबेल	-11.181
उत्	-11.1811
▁धनुष	-11.1812
सिम	-11.1819
▁पंच	-11.1821
▁नेपोलियन	-11.1826
▁पड़े	-11.1828
▁पटरियों	-11.183
▁रेखाओं	-11.183
▁विशेषाधिकार	-11.183
ल्ली	-11.1831
▁बाइक	-11.1832
▁ऑपरेटर	-11.1832
▁बॉल	-11.1832
नियर	-11.1832
▁संकर	-11.1834
▁संतुष्ट	-11.1835
▁ललित	-11.1835
▁पंक	-11.1839
▁पियरे	-11.1839
▁यि	-11.1844
▁सिग्नल	-11.1855
▁बंधक	-11.1857
▁शुष्क	-11.1859
कमांड	-11.1864
▁क्लिंटन	-11.1865
▁रोमांच	-11.1866
▁लिली	-11.1871
▁एज	-11.1874
▁जमीनी	-11.1874
▁नमूनों	-11.1876
हॉक्स	-11.1878
िगो	-11.188
▁बिल्ली	-11.188
बारी	-11.188
थिया	-11.1882
स्थिति	-11.1882
▁आघात	-11.1882
्जे	-11.1884
▁दोहरी	-11.1888
▁शेरिफ	-11.1891
फ़ो	-11.1896
▁दुर्	-11.1897
▁कलाकृति	-11.1897
▁टेरी	-11.1901
बास	-11.1901
▁माई	-11.1901
▁बोस्निया	-11.1903
निक्स	-11.1904
▁विकृत	-11.1905
▁रचित	-11.1906
सिफ	-11.1906
▁सार्जेंट	-11.191
▁आपने	-11.1913
िजा	-11.1922
वारा	-11.1922
योंग	-11.1922
▁मनो	-11.1923
▁मध्यवर्ती	-11.1923
en	-11.1924
▁विंडोज	-11.1925
▁ट्राय	-11.1928
कैट	-11.1928
▁टर्मिनस	-11.1933
▁साइप्रस	-11.1935
धारण	-11.1935
▁संपादकीय	-11.1939
र्त	-11.1943
पॉल	-11.1945
▁खींचा	-11.1946
▁अनजान	-11.1948
िथ	-11.1948
▁स्थगित	-11.1951
न्ह	-11.1952
▁चक	-11.1953
▁तहखाने	-11.1953
▁गोलाकार	-11.1954
▁टकराव	-11.1954
मुख्य	-11.1956
ंगु	-11.1956
▁रोसा	-11.1958
गर्ल	-11.1959
म्बल	-11.1959
ट्टे	-11.196
▁क्वार्टरबैक	-11.1962
▁चंद्र	-11.1963
▁अपशिष्ट	-11.1967
ार्थ	-11.1968
▁आवंटित	-11.197
▁पंप	-11.1972
▁इलेक्ट्रो	-11.1973
▁मलय	-11.1975
▁उत्कृष्टता	-11.1982
▁ब्ला	-11.1983
▁जुटाने	-11.1986
▁नेल्सन	-11.1987
रिब	-11.1988
▁तटस्थ	-11.1992
▁लार्वा	-11.1997
लेज	-11.2
▁कार्यरत	-11.2
ल्डर	-11.2001
▁बनता	-11.2004
▁सालाना	-11.2004
▁मैड्रिड	-11.2006
▁जानने	-11.2007
▁फ़ि	-11.201
बोर	-11.2011
ओवर	-11.2012
▁बागान	-11.2012
▁गोदाम	-11.2013
▁उतरने	-11.2014
जियो	-11.2015
▁सांस	-11.202
▁कतर	-11.2022
वोन	-11.2024
ड्रीम	-11.2024
▁दर्शात	-11.2025
सुपर	-11.2026
▁मेहराब	-11.203
▁प्रचुर	-11.203
▁बोल्ट	-11.2033
▁आठवें	-11.2035
▁किरण	-11.2035
▁कीबोर्ड	-11.2036
▁क्लाउड	-11.2037
िडा	-11.2037
▁तैर	-11.2039
▁वायलिन	-11.2046
▁अटलांटा	-11.2046
स्टेट	-11.2046
▁म्यूनिच	-11.2046
▁खरीदे	-11.2047
▁एडमंड	-11.2048
विदों	-11.2049
▁सम्मेलनों	-11.2051
▁वॉक	-11.2056
▁उठाए	-11.2057
▁अवशोषित	-11.2057
▁बेनेट	-11.206
▁कॉलम	-11.2063
▁सांसद	-11.2067
न्सी	-11.2069
▁अल्बर्टा	-11.2071
▁कहती	-11.2072
स्थान	-11.2075
ाउड	-11.2076
at	-11.2089
▁बाध्य	-11.2089
▁कैसल	-11.2093
▁इंटरफेस	-11.2095
▁बिजनेस	-11.2097
▁प्रतिबद्ध	-11.21
▁समितियों	-11.21
रेंट	-11.2101
▁इंजीनियरों	-11.2103
▁ओल्ड	-11.2103
ंज़	-11.2107
▁मेमोरियल	-11.2111
▁आंख	-11.2111
ग्ले	-11.2116
ट्रिक	-11.2117
▁बैंगनी	-11.2118
▁सुसान	-11.2118
▁रश	-11.2122
▁ऑक्सफ़ोर्ड	-11.2123
्मो	-11.2124
▁जीवंत	-11.2126
▁जरूरतों	-11.2132
▁निष्पादन	-11.2132
▁मल्टी	-11.2133
▁मानवता	-11.2133
▁मतप	-11.2134
उन्मुख	-11.2134
▁हुक	-11.2136
iii	-11.2138
▁स्टॉ	-11.2138
▁गृहस्थ	-11.2138
▁स्मार्ट	-11.2138
▁गुस्से	-11.2141
▁जबरन	-11.2142
▁गणितीय	-11.2146
▁प्रतिबंधों	-11.215
जैसा	-11.2158
▁पवन	-11.2161
▁हालिया	-11.2161
▁वंचित	-11.2165
▁प्रस्तुतियों	-11.217
▁ट्रा	-11.2172
▁मैकडोनाल्ड	-11.2172
आधुनिक	-11.2173
्स्टन	-11.2177
्चर	-11.2177
मेक	-11.2184
ाती	-11.2191
इन्	-11.2193
▁उपन्यासों	-11.2193
▁जिनसे	-11.2196
▁लंगर	-11.2197
▁जागरूकता	-11.2198
नियं	-11.2201
▁निष्पादित	-11.2203
▁बौद्धिक	-11.2204
▁ऊँचा	-11.2206
हरे	-11.2208
▁बिकने	-11.2208
मेरी	-11.2209
▁विनिर्माण	-11.2212
▁कार्ट	-11.2212
▁टैकल	-11.2213
▁पीट	-11.2222
डॉग	-11.2222
▁कार्यवाहक	-11.2229
▁अमूर्त	-11.2231
ज़ान	-11.2233
▁अयोग्य	-11.2233
▁निकोला	-11.2237
▁जाली	-11.224
▁कार्यात्मक	-11.2242
पार्क	-11.2243
▁टॉर	-11.2244
▁कैटा	-11.2244
▁मंगा	-11.2248
▁बजाया	-11.2249
▁संवेदनशील	-11.2251
▁रिले	-11.2255
स्टिन	-11.2258
चीफ	-11.2258
लिना	-11.2261
▁तोप	-11.2262
▁लीड्स	-11.2262
्टिन	-11.2263
्यान	-11.2263
▁विराम	-11.2267
▁थीः	-11.2269
▁मादा	-11.227
▁संचालक	-11.2271
▁नान	-11.2271
▁ब्लेड	-11.2272
हाई	-11.2273
▁बहनों	-11.2273
▁योद्धा	-11.2274
▁लिप	-11.228
▁ऑस्कर	-11.2281
▁इस्तेमाल	-11.2283
▁वॉलीबॉल	-11.2285
▁चोटों	-11.2285
बिस	-11.2287
▁स्ट्रिंग	-11.2287
▁ग्रंथों	-11.2287
हॉक	-11.2289
▁पीटर्सबर्ग	-11.2289
च्	-11.2291
▁समस्याएं	-11.2292
▁शोषण	-11.2292
पुरुष	-11.2294
नोर	-11.2295
▁अफवाह	-11.2295
▁इशारा	-11.2295
▁बेटियाँ	-11.2295
▁यातना	-11.2296
▁माइक्रोसॉफ्ट	-11.2302
▁सपने	-11.2305
हाइ	-11.2305
▁मध्यस्थता	-11.2306
छा	-11.2306
▁हाइड्रो	-11.2309
▁ढूंढ	-11.2309
▁चेर	-11.2309
शै	-11.231
▁सर्वर	-11.231
तीन	-11.2313
▁शेयर	-11.2318
▁राष्ट्रवादी	-11.2319
▁मिशनरी	-11.2322
▁कार्यकर्ताओं	-11.2322
्नो	-11.2325
▁कॉलिन्स	-11.2327
▁दाखिल	-11.2327
▁डीजल	-11.2341
▁गैलि	-11.2349
फोर्ट	-11.2353
▁सांप	-11.2354
▁बैठकों	-11.2362
▁आपका	-11.2365
▁कविताओं	-11.2366
▁स्पेस	-11.2368
गणित	-11.237
▁सहन	-11.2374
भू	-11.2375
िस्तान	-11.2376
क्लिफ	-11.2384
दीन	-11.2387
▁लेजर	-11.2401
▁पाने	-11.2402
▁सत्य	-11.2402
कैप	-11.2406
कर्म	-11.241
▁निराश	-11.2412
▁निचली	-11.2415
▁गर्	-11.2415
िब	-11.2415
म्मा	-11.242
▁प्रभु	-11.242
▁साधारण	-11.2422
▁डेली	-11.2424
▁कैल्	-11.2425
▁नीला	-11.2428
नोस	-11.2429
ग्रेन	-11.243
▁फीनिक्स	-11.2434
डॉन	-11.2437
पहले	-11.2437
इसके	-11.244
्ति	-11.2441
ज़िन	-11.2441
▁टाइप	-11.2442
लेखक	-11.2443
▁बोल्ड	-11.2444
▁अब्राहम	-11.2446
▁वेगास	-11.2448
▁जीनस	-11.2449
▁दस्तावेज	-11.2449
▁दांत	-11.245
ar	-11.2451
▁ग्रिड	-11.2451
▁प्रश्नों	-11.2452
▁xi	-11.2452
▁सर्जरी	-11.2456
▁कठिनाइयों	-11.2456
III	-11.2456
▁स्वयंसेवकों	-11.2457
▁एंडी	-11.246
▁एलियट	-11.2464
▁ग्रेस	-11.2466
▁एंड्रू	-11.2469
▁ओलिवर	-11.2476
गोल	-11.2487
▁बैंकिंग	-11.249
रात	-11.2492
स्कर	-11.2493
▁कैरो	-11.2493
स्पीड	-11.2494
स्टॉक	-11.2495
▁कैनन	-11.2495
▁बनीं	-11.2495
सर्जन	-11.2497
कॉर्प	-11.2497
▁बैग	-11.25
▁आणविक	-11.2502
ाबाद	-11.2503
▁सीटल	-11.2507
▁अबू	-11.251
▁मार्स	-11.2511
▁बीम	-11.2514
▁घूर्णन	-11.2514
वानी	-11.2515
▁बाड़	-11.2515
ेशिया	-11.2516
जीवन	-11.2519
▁मांसपेशियों	-11.2521
▁लेआउट	-11.2522
▁बटलर	-11.2523
▁रॉबर्ट्स	-11.2525
▁तुर्क	-11.2526
▁शोक	-11.2527
▁बैरो	-11.2528
▁दुर्व्यवहार	-11.2528
स्टिल	-11.253
▁तख्तापलट	-11.2531
स्कॉट	-11.2532
शॉ	-11.2536
▁एजेंटों	-11.2537
वेंट	-11.2541
▁हर्बर्ट	-11.2543
िसन	-11.2545
▁इज	-11.2548
▁पार्किंग	-11.255
▁ग्लास	-11.255
▁उदारवादी	-11.2551
▁फाइबर	-11.2557
गियो	-11.2558
बस्टर	-11.2559
सैन	-11.2559
ंड्र	-11.2562
▁कथाओं	-11.2562
श्रेणी	-11.2564
सेक्स	-11.2566
▁डार्	-11.2567
▁प्रतिकूल	-11.257
ब्लॉ	-11.2571
▁सुखद	-11.2571
▁बीबीसी	-11.2572
▁लोड	-11.2577
▁अटॉर्नी	-11.258
▁इलेक्ट्रॉन	-11.2581
▁गैले	-11.2581
▁प्रस्तावों	-11.2582
मेरा	-11.2582
लास	-11.2583
▁अपनाने	-11.2586
▁नाविक	-11.259
▁बेले	-11.259
▁कुर्	-11.2593
▁संश्लेषण	-11.2594
हारा	-11.2597
▁मापा	-11.26
▁प्रबंधित	-11.26
थेन	-11.2603
▁एलि	-11.2603
ूल	-11.2603
▁कटाई	-11.2604
अंतिम	-11.2604
▁हडसन	-11.2607
▁मुहर	-11.261
▁ह्यूग	-11.2611
प्टो	-11.2612
▁ग्वा	-11.2612
▁मिडफील्डर	-11.2614
रिज	-11.2617
क्राफ्ट	-11.2618
▁घुमावदार	-11.2619
प्लो	-11.262
▁लापता	-11.2621
हुआ	-11.2622
मैंने	-11.2622
▁लौटे	-11.2623
▁निकला	-11.2623
धी	-11.2629
▁लड़का	-11.263
▁दलदल	-11.2632
रेना	-11.2634
प्रजाति	-11.2637
▁ऑक्सीजन	-11.2639
▁रसोई	-11.2639
▁जेफरसन	-11.2641
अगर	-11.2645
▁कोयले	-11.2645
रोल	-11.2651
▁गूगल	-11.2653
लॉग	-11.2655
▁सीधी	-11.2657
ब्रांड	-11.2658
▁कॉर्क	-11.2661
▁एनीमे	-11.2662
▁अनियमित	-11.2666
▁लिपि	-11.2666
▁शू	-11.2668
▁प्रवासी	-11.2674
▁फ्लोरेंस	-11.2678
▁बाल्टीमोर	-11.2683
क्लो	-11.2687
▁स्वे	-11.2693
यस	-11.2694
▁डर्	-11.2697
सियस	-11.2698
▁गुलामी	-11.2699
प्लेक्स	-11.27
▁नियामक	-11.27
व्र	-11.2701
झोउ	-11.2703
▁बीट	-11.2704
▁आदेशों	-11.2704
सियन	-11.2707
▁नेब्रास्का	-11.2708
▁क्राउन	-11.2708
स्पॉट	-11.2711
▁बिलियन	-11.2711
▁लगने	-11.2712
र्टी	-11.2714
मिश	-11.2714
▁इंग	-11.2716
▁जोड़ती	-11.2717
▁जंग	-11.272
थैल	-11.2723
न्ज़	-11.2723
▁क्रोएशिया	-11.2727
▁स्प्रिंग्स	-11.2728
्ता	-11.273
▁फार	-11.2731
▁देवताओं	-11.2731
▁सीढ़ी	-11.2733
▁हेक्टेयर	-11.2735
▁नाग	-11.2739
▁रहस्यमय	-11.274
▁उठ	-11.2745
▁प्रमुखता	-11.2745
मोना	-11.2749
▁पंथ	-11.2762
▁अनुमोदन	-11.2765
▁पीला	-11.2766
▁चैंपियंस	-11.2767
ियोस	-11.277
▁ब्लॉग	-11.2774
एसआर	-11.2774
संस्कृत	-11.2776
▁सिनसिनाटी	-11.2777
नॉक	-11.2778
▁विचि	-11.278
re	-11.2784
▁मोल	-11.2785
पार	-11.2785
िमो	-11.2785
▁व्याख्याता	-11.2793
▁पीने	-11.2794
▁मोटरसाइकिल	-11.2795
▁मेरि	-11.2798
▁नीली	-11.2801
▁न्यास	-11.2802
▁अंग्रेजों	-11.2802
▁डार्क	-11.2803
्रेस	-11.2805
▁राफ़	-11.2805
▁सागर	-11.2806
▁लैटिनो	-11.2807
्रेट	-11.281
▁व्यंग्य	-11.281
मिनो	-11.281
▁त्योहार	-11.2815
मारा	-11.2819
सबर्ग	-11.282
▁पर्यटक	-11.2823
▁नजरअंदाज	-11.2827
▁सर्बियाई	-11.283
तल	-11.2832
▁बिगड़	-11.2835
▁दिखाए	-11.2837
टीसी	-11.2838
ैल	-11.2839
▁तस्वीरों	-11.2842
▁मॉन्ट	-11.2842
बेर	-11.2842
▁इस्पात	-11.2845
संस्थापक	-11.285
▁जर्मनों	-11.2851
फ्ल	-11.2857
सिर	-11.2861
▁साओ	-11.2863
▁परिपथ	-11.2863
नॉर्	-11.2864
▁अग्र	-11.2869
ोज़	-11.2869
▁गेज	-11.2869
▁दिखाता	-11.287
▁मसौदे	-11.287
▁पब्लिक	-11.287
अमेरिका	-11.2874
▁प्रतियोगियों	-11.288
▁राइन	-11.2881
इसे	-11.2885
▁अभिनीत	-11.2888
▁ब्रॉ	-11.2891
▁विन्यास	-11.2897
▁पीपुल्स	-11.29
▁इनपुट	-11.2902
▁प्रतिवादी	-11.2904
▁मसा	-11.2905
▁अपर्याप्त	-11.2905
▁नास	-11.2911
▁ओबामा	-11.2916
टोप	-11.2916
▁अभिलेख	-11.2919
▁सीखा	-11.2925
▁एथेंस	-11.2927
प्रिय	-11.2928
▁कृत्यों	-11.2928
नबर्ग	-11.293
▁धारण	-11.293
▁पार्षद	-11.2932
▁खंडहर	-11.2934
▁शासित	-11.2934
निग	-11.2936
चेंग	-11.2939
ंकी	-11.2942
▁आदत	-11.2943
▁हौ	-11.2945
▁कॉमन्स	-11.2945
▁ब्री	-11.2946
मार्	-11.2954
▁हानि	-11.2956
सोम	-11.2957
डेक्स	-11.2957
▁क्रूर	-11.2958
▁आईं	-11.2964
▁पेड्रो	-11.2966
र्टा	-11.2967
सेफ	-11.2969
▁शोधकर्ता	-11.2971
नेक	-11.2972
▁काफिले	-11.2975
▁चौड़ाई	-11.2979
▁बमवर्षक	-11.2979
ियु	-11.298
घो	-11.2981
▁हॉर्स	-11.2981
▁उत्साही	-11.2982
दिन	-11.2983
▁विषम	-11.2988
वर्ती	-11.2989
▁ढांचा	-11.2992
मानव	-11.2998
लॉस	-11.3001
यदि	-11.3001
▁दंत	-11.3003
फन	-11.3003
▁डांस	-11.3008
स्तर	-11.3009
▁मेटल	-11.3009
▁तीर्थ	-11.3023
ेश्वर	-11.3025
▁टाइगर	-11.3027
▁लड़े	-11.3029
▁सेल्टिक	-11.3033
▁सुलभ	-11.3035
▁गोलकीपर	-11.304
▁किताब	-11.3041
▁शाब्दिक	-11.3044
ुता	-11.3045
▁आजीवन	-11.3048
नील	-11.305
स्मो	-11.3051
▁एग	-11.3051
अस	-11.3051
पूल	-11.3056
▁कैड	-11.3058
▁विनियमित	-11.3058
▁जग	-11.3059
▁अमेज़	-11.306
▁तिमाही	-11.3061
कॉल	-11.3061
▁नेवाडा	-11.3061
▁जर्	-11.3064
▁आकाश	-11.3066
▁दमन	-11.3066
▁आवासों	-11.3068
ेटा	-11.3073
पेक	-11.3077
एयर	-11.3079
▁पृष्ठों	-11.308
▁पाठकों	-11.308
नै	-11.3081
▁फैन	-11.3087
▁ग्राफिक	-11.3088
▁कुख्यात	-11.3092
▁किला	-11.3093
कार्प	-11.3094
▁संस्मरण	-11.3094
▁हार्डवेयर	-11.3095
जेट	-11.3101
क्की	-11.3101
ब्लैक	-11.3102
पैक	-11.3103
▁युद्धपोत	-11.3104
येव	-11.3106
▁क्लिप	-11.3108
प्रोफ़ाइल	-11.3115
▁आर्ग	-11.3118
द्द	-11.3119
▁सोमवार	-11.3123
आइ	-11.3127
▁नामकरण	-11.313
महान	-11.3134
ग्ना	-11.3135
▁लिख	-11.314
ापनों	-11.3143
ट्रॉन	-11.3145
▁कॉपीराइट	-11.3146
डेम	-11.315
▁बलिदान	-11.3154
▁एनीमेशन	-11.3162
▁एज़	-11.3163
लिच	-11.3164
▁पुट	-11.3167
▁असहमति	-11.3169
▁भूमध्यसागरीय	-11.3169
▁मेले	-11.3171
▁एरि	-11.3172
▁उत्कीर्ण	-11.3172
▁राल्फ	-11.3173
▁रायन	-11.3175
▁इतिहासकारों	-11.3179
▁अधिग्रहित	-11.3182
▁रूज़वेल्ट	-11.3185
▁आभासी	-11.3188
▁सोम	-11.3188
▁आर्द्र	-11.3189
▁झाड़ी	-11.3195
▁उग्र	-11.3196
▁क्रूजर	-11.3199
▁अनुशासन	-11.3206
▁घुसपैठ	-11.3208
डेर	-11.3212
▁मार्कस	-11.3212
दाताओं	-11.3212
▁समाप्ति	-11.3213
▁फॉल्स	-11.3216
▁स्वाभाविक	-11.3216
▁पहुँचने	-11.322
▁शेफ	-11.3223
▁ज़्	-11.3225
▁स्नातकोत्तर	-11.3227
▁माला	-11.3229
थॉर्न	-11.3229
▁नर्तक	-11.3231
▁ट्राम	-11.3231
▁इस्तीफे	-11.3232
▁बताने	-11.3233
▁ग्रेटर	-11.3234
▁बैरोनेट	-11.3235
स्पा	-11.3237
नहीं	-11.3239
तं	-11.324
टिका	-11.3241
▁एपिस्कोपल	-11.325
▁कॉकस	-11.3254
शम	-11.3254
▁आकलन	-11.3255
▁विकल्पों	-11.3258
▁कंपनियां	-11.3258
▁स्कैन	-11.326
ग्रो	-11.326
▁भटक	-11.3261
▁भूख	-11.3262
▁पहलवान	-11.3262
डेक	-11.3264
ष्ठ	-11.3265
▁अधी	-11.3267
▁इजरायली	-11.3268
▁टारपीडो	-11.3269
▁नफरत	-11.3269
शिमा	-11.3276
▁जंगलों	-11.3276
▁झीलों	-11.3276
▁ठंडा	-11.3277
▁व्यंजनों	-11.3279
स्क्र	-11.3279
▁चलाते	-11.3282
▁मिशनों	-11.3283
सामान्य	-11.3284
डियम	-11.3288
▁सहज	-11.3288
▁वेलिंगटन	-11.329
▁विली	-11.3292
रूम	-11.3293
र्ल	-11.3293
▁महासचिव	-11.3295
कुरा	-11.3295
जैक	-11.3296
ेटो	-11.3298
क्रॉ	-11.3299
▁जुर्माना	-11.33
▁कैब	-11.3302
▁फर्	-11.3303
टॉन	-11.3305
▁गढ़	-11.3306
▁कॉक्स	-11.3307
ोजेन	-11.3308
▁ढका	-11.3311
▁महाद्वीप	-11.3312
▁सच्चाई	-11.3313
म्बे	-11.3313
▁स्पि	-11.3318
▁डिब्बे	-11.3319
निका	-11.3324
ोसिस	-11.3324
रेग	-11.3325
▁पुनर्जागरण	-11.3326
प्रेस	-11.3329
▁निष्प	-11.3329
▁स्वभाव	-11.3333
▁चमत्कार	-11.3337
ओह	-11.3337
▁चाप	-11.334
▁प्लाजा	-11.3342
ानात्मक	-11.3343
▁स्कै	-11.3343
▁गंभीरता	-11.3343
▁हुड	-11.3346
▁खजाने	-11.3352
▁एम्स्टरडैम	-11.3353
ंथ	-11.3355
▁जुआ	-11.3357
गिया	-11.3358
▁स्वरूप	-11.336
▁बस्तियों	-11.3363
▁सजाया	-11.3366
▁नौसैनिक	-11.3366
▁जासूसी	-11.3368
लिं	-11.3374
अभी	-11.338
▁बाथ	-11.3381
▁अप्रवासी	-11.3382
▁नौकरियों	-11.3388
▁विनम्र	-11.339
▁हेराल्ड	-11.339
▁शब्दकोश	-11.339
▁चक्रवात	-11.3393
▁मोरा	-11.3395
▁गैब्रियल	-11.3395
▁निष्कासित	-11.3398
▁मास्क	-11.3398
कैस	-11.34
▁डिजाइनों	-11.341
▁मर्फी	-11.341
ग्रि	-11.3418
▁प्लै	-11.3421
▁व्लादिमीर	-11.3422
िस्क	-11.3422
सुलिवन	-11.3424
▁धावक	-11.3424
▁मुक्केबाजी	-11.3427
▁निधि	-11.3428
स्ट्रीम	-11.343
▁मैस	-11.3434
▁पाइन	-11.3435
▁रब्बी	-11.3435
▁गौरव	-11.3438
ल्डन	-11.344
▁दया	-11.3441
▁ड्रामा	-11.3449
▁वारन	-11.345
▁वंशावली	-11.3451
▁तंग	-11.3452
▁ग्रैमी	-11.3454
▁सिंड्रोम	-11.3457
▁आयरन	-11.3457
▁बर्कले	-11.3458
▁लें	-11.3462
▁सुविधाजनक	-11.3462
▁रेफरी	-11.3462
▁बैनर	-11.3465
▁निलंबन	-11.347
▁लोमड़ी	-11.347
संचालित	-11.3472
▁हॉलैंड	-11.3478
▁टार्	-11.3478
▁फारसी	-11.3479
▁बॉबी	-11.3479
▁थोड़े	-11.3486
▁ग्रु	-11.3492
▁सिएरा	-11.3497
▁आगंतुक	-11.3497
▁आतंकवादी	-11.3498
▁मुहाने	-11.3499
म्पे	-11.3502
लिंक	-11.3504
▁पाठ्यक्रमों	-11.3505
▁एक्सचेंज	-11.3505
▁रोमांस	-11.3505
जै	-11.3505
▁वैगन	-11.3506
ुअल	-11.3507
▁झंडे	-11.3509
▁आँखों	-11.3513
स्टाउन	-11.3514
िन्स	-11.3518
िस्टिक	-11.3519
्शन	-11.3521
▁डेमो	-11.3522
▁सर्ब	-11.3524
अधिक	-11.3525
▁कैरोलिन	-11.3525
लव	-11.3526
▁पेरे	-11.3529
ंको	-11.353
▁प्रसिद्धि	-11.3537
▁अपराधी	-11.3538
स्कॉ	-11.3545
▁स्तंभों	-11.3546
▁मला	-11.3549
▁हावी	-11.3549
▁न्यूकैसल	-11.355
चम	-11.3552
▁कृतियों	-11.3554
▁धारावाहिक	-11.3561
▁आंदोलनों	-11.3562
▁ग्रोव	-11.3562
▁आश्चर्यचकित	-11.3564
▁प्रवक्ता	-11.3567
▁सिल्व	-11.357
▁लगाता	-11.3571
भेद	-11.3574
▁खरीदारी	-11.3574
▁स्वस्थ	-11.3575
▁जूलियन	-11.3576
गुए	-11.3576
▁बेथ	-11.358
▁जीनोम	-11.3581
▁मका	-11.3582
▁शीत	-11.3583
▁ब्याज	-11.3583
फॉल	-11.3583
')	-11.3584
▁नीलामी	-11.3588
▁विरोधाभास	-11.3588
कोला	-11.3595
▁प्रशासित	-11.3597
▁बल्गेरियाई	-11.3597
▁शैतान	-11.3599
संयुक्त	-11.36
योन	-11.3604
▁क्रोधित	-11.3605
▁शिविरों	-11.3606
▁अखबार	-11.361
▁नागरिकता	-11.3612
▁ज्वालामुखी	-11.3615
▁घाना	-11.3617
▁मरने	-11.3617
▁उपखंड	-11.3618
▁मैथ	-11.3627
▁फेलोशिप	-11.3634
किस	-11.3635
▁हल्का	-11.3636
▁रोजर्स	-11.3637
्बर	-11.3638
टोक	-11.3638
▁बनावट	-11.364
it	-11.3641
▁टाइल	-11.3642
▁चालीस	-11.3643
▁पुनर्वास	-11.3644
▁रिश्ते	-11.3644
▁मलबे	-11.3645
ेंडर	-11.3646
▁कट्टर	-11.3647
गढ़	-11.365
पर्स	-11.3651
▁सेल्सियस	-11.3654
▁डेला	-11.3654
▁शार्क	-11.3654
▁क्रूस	-11.3655
▁एब	-11.3655
चिया	-11.3657
ख्त	-11.366
आतंकवाद	-11.3662
▁ग्रेगरी	-11.3667
कॉन्	-11.3667
▁क्रू	-11.3668
▁कैलि	-11.3669
▁यूईएफए	-11.3675
▁ग्व	-11.3677
▁लगती	-11.3679
▁पतली	-11.3681
▁गुरुत्वाकर्षण	-11.3684
▁जड़ी	-11.3685
िस्टो	-11.3688
▁दायरे	-11.3688
राजा	-11.3688
▁जवाबी	-11.3692
▁होस्ट	-11.3694
श्त	-11.3695
▁हिटलर	-11.3696
ऑक्स	-11.3697
▁बेसल	-11.3697
िरो	-11.3698
▁विनिर्देश	-11.37
▁मूर्तियों	-11.3704
▁समर्पण	-11.3705
स्तान	-11.3709
▁लेनदेन	-11.3711
▁तीव्रता	-11.3711
रोज	-11.3715
▁इवेंट	-11.3716
▁अर्थात्	-11.3716
▁ऊन	-11.3718
▁बवंडर	-11.3719
▁संप्रदाय	-11.3719
▁वस्	-11.3722
▁शिव	-11.3724
▁फट	-11.3725
किसी	-11.3728
ल्लाह	-11.3729
▁जीवनकाल	-11.3733
▁बैंकों	-11.3735
▁पड़ी	-11.3741
▁लैरी	-11.3745
▁ध्वनिक	-11.3746
अपनी	-11.3746
▁सोफिया	-11.3747
▁मेहनत	-11.375
▁जावा	-11.375
्ग	-11.3756
▁एंडो	-11.3757
▁बोतल	-11.3757
▁माह	-11.3757
ंटिन	-11.3762
▁पुनरावृत्ति	-11.3763
▁संगमरमर	-11.3763
▁तिहाई	-11.3764
_	-11.3766
▁खोपड़ी	-11.3769
लैंड्स	-11.3769
▁गठित	-11.3771
कॉक	-11.3775
▁गड्ढे	-11.3777
▁कमरों	-11.3777
▁रैपर	-11.378
चौ	-11.3783
वू	-11.3785
▁डेलावेयर	-11.3785
▁प्रदर्शनियों	-11.3787
▁ज्यादा	-11.3788
▁सांद्रता	-11.3788
प्रभाव	-11.379
इब	-11.3802
▁घोंसले	-11.3804
▁कैमरे	-11.3813
▁मुर्	-11.3813
मेह	-11.3815
▁अभाव	-11.3816
▁अवस्था	-11.3819
▁गिल्ड	-11.3819
▁कण	-11.3824
▁महिलाएँ	-11.3825
▁डाकू	-11.3825
▁राष्ट्रों	-11.3829
िंस्की	-11.3829
▁रोसेन	-11.383
▁मोरे	-11.383
▁पारा	-11.3836
▁प्रायोजक	-11.3841
िंघम	-11.3841
चल	-11.3842
▁जहर	-11.3847
▁मानवीय	-11.3848
▁शिशु	-11.3851
▁शंघाई	-11.3854
▁टर्न	-11.3859
▁अब्दुल	-11.3864
▁तांबे	-11.3866
▁स्टेनफोर्ड	-11.3873
▁प्लेटफार्मों	-11.3878
▁न्यूरो	-11.3879
▁कृतियाँ	-11.388
फेयर	-11.3882
▁कुमार	-11.3882
▁रत्न	-11.3891
▁वियतनामी	-11.3891
ब्लैंक	-11.3891
▁अपमानजनक	-11.3893
टॉ	-11.3894
▁झुंड	-11.3894
▁मोंटाना	-11.3895
स्टिंग	-11.3895
मेकर	-11.3896
मैक्स	-11.3897
▁उड़ा	-11.3899
▁एल्डर	-11.39
▁आकस्मिक	-11.3905
▁लोकोमोटिव	-11.3907
▁अलान	-11.3908
▁नासा	-11.3908
▁यूगोस्लाविया	-11.391
वॉक	-11.3911
लेंट	-11.3921
▁बां	-11.3921
▁पठार	-11.3921
यामा	-11.3923
▁मादक	-11.393
▁बीटा	-11.3931
डैम	-11.3933
▁बोर्	-11.3934
▁उपनिवेश	-11.3936
▁बंदूकें	-11.3936
▁इसाबेल	-11.3939
▁प्रतिभागी	-11.3942
▁इसाक	-11.3943
केंद्र	-11.3952
गति	-11.3954
▁विभागों	-11.3961
▁रीढ़	-11.3963
▁</	-11.3963
▁पेट्रो	-11.3965
▁पराजित	-11.3966
▁जुड़ाव	-11.3967
▁टार	-11.3969
▁अनुसूची	-11.3969
्रिक	-11.397
ेंको	-11.397
▁शेफील्ड	-11.3975
▁चुरा	-11.3981
दुनिया	-11.3982
▁बुरा	-11.3984
▁प्रसारक	-11.3985
▁चुंबकीय	-11.3991
्रास	-11.3993
▁चौथाई	-11.3996
जेल	-11.3998
▁कैरिबियन	-11.4
▁देगी	-11.4
▁पाम	-11.4001
धो	-11.4002
▁तीर	-11.4006
▁रेलरोड	-11.401
▁एर्	-11.4012
▁निषेध	-11.4014
▁खोने	-11.4016
▁चौराहे	-11.4017
माइट	-11.402
▁सुसमाचार	-11.4023
▁एंग	-11.4027
उदाहरण	-11.4027
▁मॉड	-11.4029
▁दुरुपयोग	-11.4031
▁अन्वेषण	-11.4034
▁सुनाया	-11.4034
चेट	-11.4037
▁चैनलों	-11.4038
▁नौवें	-11.4042
▁सफाई	-11.4042
▁पारस्परिक	-11.4042
हत	-11.4043
▁रेमंड	-11.4045
▁शेख	-11.4046
▁राजी	-11.4046
▁अर्नेस्ट	-11.4047
▁दिखा	-11.4048
▁मैराथन	-11.4051
▁डब	-11.4051
बाजी	-11.4053
ोग्राफी	-11.4053
▁चलते	-11.4061
▁बोझ	-11.4061
▁दाईं	-11.4063
▁वेने	-11.4065
गुन	-11.4067
क्लि	-11.4071
िट्ज	-11.4072
▁मैथ्यू	-11.4075
कैथ	-11.4077
लोट	-11.4079
▁ट्रिनिटी	-11.4079
▁तभी	-11.4079
▁सजावटी	-11.408
▁लय	-11.408
▁जताई	-11.4082
सिना	-11.4083
▁वेनेज़ुएला	-11.4086
▁मातृ	-11.4088
▁चीज	-11.409
▁स्ट्रिप	-11.409
▁मानवाधिकारों	-11.4092
एम्	-11.4094
▁कवक	-11.4094
▁हीरे	-11.4098
गैर	-11.41
▁विधियों	-11.4105
▁लौटते	-11.4106
▁प्रतिद्वंद्विता	-11.4108
क्रोम	-11.4108
▁चुनने	-11.4113
▁कंधे	-11.4114
▁सुंदरता	-11.4115
▁यूएसए	-11.4117
▁सामंजस्य	-11.4119
▁विशिष्टता	-11.4121
▁चट्टानी	-11.4122
▁संक्रमित	-11.4122
▁झिल्ली	-11.4125
▁विजयी	-11.4127
ेल्स	-11.4127
▁छठी	-11.4128
▁नॉर्ड	-11.4128
▁रनवे	-11.4131
▁भूवि	-11.4133
▁निकायों	-11.4136
सैक्सन	-11.4137
▁बैज	-11.4139
सिट	-11.4139
▁वैल	-11.414
▁चुनौतियों	-11.4142
ii	-11.4143
es	-11.4146
▁पलट	-11.4149
▁दूरसंचार	-11.4151
ैतिज	-11.4156
▁धूप	-11.416
ॉग	-11.4163
ग्रेव	-11.417
▁पिघल	-11.4171
ड्डी	-11.4174
▁कोलन	-11.4176
▁वनों	-11.4176
▁बद	-11.4176
बरा	-11.4178
▁विशेषताएं	-11.4178
▁हुसैन	-11.418
▁फ्रीस्टाइल	-11.418
▁बंदरगाहों	-11.4182
▁वर्जिन	-11.4183
निर्धारित	-11.4184
▁उपचुनाव	-11.4185
▁दोस्ताना	-11.4193
▁हार्वे	-11.4196
▁उपलब्धियों	-11.4196
▁मुद्रण	-11.4197
▁फैब	-11.4203
एल्बम	-11.4204
▁राव	-11.4204
स्मिथ	-11.4206
विग	-11.4207
▁ईयर	-11.4207
▁वेदी	-11.4211
▁सहकर्मी	-11.4217
▁नग्न	-11.4219
▁लिथुआनिया	-11.4223
▁अमर	-11.4231
सैक	-11.4232
नगर	-11.4234
▁इंडी	-11.4235
▁हकदार	-11.4237
टियर	-11.4242
▁जीतकर	-11.4242
रेज	-11.4243
सर्वश्रेष्ठ	-11.4246
▁फुटेज	-11.4253
▁आर्केड	-11.4254
्रिज	-11.4255
▁स्पर्श	-11.4261
▁मोल्ड	-11.4263
सौ	-11.4264
हांग	-11.4264
▁रोकथाम	-11.4266
▁चील	-11.4268
▁एग्	-11.4268
ज्व	-11.4269
चेव	-11.4272
फ्रॉ	-11.4273
कोलन	-11.4275
स्कार	-11.4276
ग्रेड	-11.4277
▁जस्टिन	-11.4281
▁टैक्सी	-11.4282
▁परस्पर	-11.4282
प्लेन	-11.4287
▁अंतरिम	-11.4288
पियन	-11.429
▁पनामा	-11.429
लंबाई	-11.4295
▁पाते	-11.4298
▁लटका	-11.4298
पोली	-11.4305
▁घूम	-11.4307
▁उभरते	-11.4308
मेयर	-11.4309
▁कुलाधिपति	-11.4312
▁माया	-11.4322
▁पाकिस्तानी	-11.4324
▁स्टीवन	-11.4326
▁वेग	-11.4329
झु	-11.433
देख	-11.4331
राई	-11.4331
▁दुकानें	-11.4333
ब्ज	-11.4334
▁मार्गदर्शक	-11.4334
क्सि	-11.4334
▁दौड़ने	-11.4343
▁हैम्बर्ग	-11.4343
काउंट	-11.4344
ेपित	-11.4347
▁अल्प	-11.435
▁पूर्वाग्रह	-11.4353
▁राजनेताओं	-11.4354
▁मूर्तिकार	-11.4354
▁प्रतिक्रियाओं	-11.4356
▁चुनी	-11.4356
▁एनजी	-11.4356
चाइल्ड	-11.4357
▁क्रोएशियाई	-11.4366
▁वामपंथी	-11.4368
▁प्रेमिका	-11.4368
▁वादक	-11.4373
▁जूलिया	-11.4376
धर्म	-11.4378
▁न्यूटन	-11.438
▁नस्लवाद	-11.4384
हिरो	-11.4384
▁नैनो	-11.4387
▁कलम	-11.4389
▁सचि	-11.4389
▁गृहनगर	-11.4389
विशिष्ट	-11.4389
ाइटिस	-11.4391
शेन	-11.4393
▁उत्परिवर्तन	-11.4394
देह	-11.4395
हमारे	-11.4396
ल्विन	-11.44
▁गुजरते	-11.4406
▁सटीकता	-11.4411
▁डायो	-11.4411
▁मेहमानों	-11.4415
▁बजाने	-11.4418
चीनी	-11.4423
▁टॉक	-11.4424
▁जॉन्स	-11.4427
िंट	-11.4432
▁टॉमी	-11.4434
▁खोए	-11.4435
▁सिनेमाघरों	-11.445
निर्देश	-11.4457
▁लाभों	-11.4458
र्डिन	-11.4459
▁टेलीग्राफ	-11.4459
▁स्टीवर्ट	-11.4466
▁डेन्वर	-11.4468
▁आयोजक	-11.4471
▁मूक	-11.4471
▁अभियोजक	-11.4474
▁उत्तरार्ध	-11.4474
al	-11.4475
ट्रांस	-11.4476
▁एस्क	-11.4477
▁खोले	-11.4479
▁नरक	-11.4484
▁परिष्कृत	-11.4486
अन्य	-11.4496
▁मतदाता	-11.4496
▁पियानोवादक	-11.4497
▁क्लेर	-11.4499
ुइ	-11.4506
िगन	-11.4506
▁स्वीकृति	-11.4508
नोवा	-11.4512
▁अनाम	-11.4513
ैया	-11.4514
▁पकड़ा	-11.4514
▁रिसीवर	-11.4515
▁ठहरा	-11.4516
होल्म	-11.4516
▁बेलारूस	-11.4517
ैच	-11.452
▁दर्पण	-11.4521
लीफ	-11.4522
▁साहस	-11.4523
डोम	-11.4524
▁रोकता	-11.4524
▁लेटर	-11.4535
थ्र	-11.4537
ंबा	-11.454
विवाह	-11.4541
▁प्राग	-11.4543
▁एमिल	-11.4543
▁मैडिसन	-11.4545
्योर	-11.4548
▁अना	-11.4548
▁मकबरे	-11.4554
▁लेह	-11.4554
▁खनिक	-11.4557
▁दोगुना	-11.4557
▁टिप्पणीकार	-11.456
▁फेरी	-11.456
हट	-11.4561
is	-11.4566
▁खत्म	-11.4566
▁गर्भवती	-11.4566
प्रतिद्वंद्वियों	-11.4566
▁खरगोश	-11.4569
▁फ्लैश	-11.457
▁समरूपता	-11.4571
डॉक्टर	-11.4573
▁आउटलेट	-11.4579
▁सुनी	-11.4581
▁तंबाकू	-11.4581
▁कॉम्	-11.4581
▁नाराज	-11.4587
▁प्रचलित	-11.459
▁शरणार्थियों	-11.4593
▁कपास	-11.4599
र्नी	-11.4607
▁मापने	-11.4607
सिटी	-11.4607
स्वत	-11.4608
▁पलायन	-11.4608
▁छठा	-11.4608
▁हाइड्रोजन	-11.4609
▁स्पष्टीकरण	-11.461
▁निराशाजनक	-11.4614
सिनो	-11.4615
▁डायना	-11.4617
▁सैलून	-11.4617
▁बटन	-11.4619
पंथ	-11.4621
▁अनावरण	-11.4623
▁फेसबुक	-11.4626
इफ	-11.4628
▁ऑटोमोबाइल	-11.4629
ह्यू	-11.463
▁पीढ़ियों	-11.4632
▁क्वांटम	-11.4632
▁पेंशन	-11.4632
▁परेशानी	-11.4642
▁आशीर्वाद	-11.4644
▁वॉशिंगटन	-11.4644
▁एप्पल	-11.4647
धम	-11.4648
जिसका	-11.4649
अल्ब	-11.4651
कोर्ट	-11.4653
▁शहीद	-11.4653
▁स्प्	-11.4653
▁नोक	-11.4657
▁फर्नीचर	-11.4662
ब्लू	-11.4663
गीतकार	-11.4665
▁नवीनीकृत	-11.4665
▁दांव	-11.4668
▁विक्रेताओं	-11.4668
फास्ट	-11.4674
▁वकीलों	-11.4677
▁एम्ब	-11.4678
▁रेशम	-11.4683
▁अनाथ	-11.4683
पिल	-11.4684
▁बर्क	-11.4684
▁हार्मोन	-11.4687
▁प्रमेय	-11.4692
▁नशील	-11.4693
ॉल्ट	-11.4694
▁बाघ	-11.4696
▁लिव	-11.4696
स्प्र	-11.4698
▁नोटों	-11.4699
▁जलीय	-11.47
▁रहेगा	-11.4701
▁हिरण	-11.4705
▁विश्लेषक	-11.4707
पुल	-11.4708
▁कैरे	-11.4709
▁ग्राफिक्स	-11.4712
▁धर्मनिरपे	-11.4714
हॉप	-11.4714
आईडी	-11.4714
▁पदार्पण	-11.4716
▁दासों	-11.4719
▁भाषी	-11.472
राउंड	-11.4721
▁मस्क	-11.4723
▁खेलती	-11.4731
▁प्रावधानों	-11.4735
▁डोना	-11.4736
▁दाग	-11.4737
▁प्रतिकृति	-11.4738
▁प्रतिनिधिमंडल	-11.4739
▁विचारधारा	-11.4739
▁क्रमिक	-11.4741
▁मिन्नेसोटा	-11.4744
▁मिलीं	-11.4748
▁चिड़ियाघर	-11.475
▁गड़बड़	-11.4756
▁जुड़ने	-11.4756
▁धाराओं	-11.4757
▁वेधशाला	-11.4759
▁चलाता	-11.4759
▁चार्लोटे	-11.4761
सॉफ्ट	-11.4763
▁बाइबिल	-11.4768
▁प्रदर्शनकारियों	-11.4774
▁कैसिनो	-11.4775
▁दुर्भाग्य	-11.4776
▁रोमेनिया	-11.4778
▁नर्सिंग	-11.4778
ुट	-11.4781
एसटी	-11.4783
▁नींद	-11.4785
जीन	-11.4786
ॉर्न	-11.4789
▁स्कोरिंग	-11.4792
▁हत्याओं	-11.4796
ॉर्ट	-11.4796
▁निर्णयों	-11.4797
दोनों	-11.4797
▁पत्थरों	-11.4797
ंदी	-11.4798
▁घटनाएं	-11.4798
▁प्रबल	-11.4798
▁ब्लेक	-11.4799
▁अभियोजन	-11.4802
▁बॉस	-11.4802
▁कूल	-11.4803
▁मोरक्को	-11.4805
वार्ड	-11.4805
▁हसन	-11.4809
बिग	-11.4813
▁अविश्वसनीय	-11.4814
रोज़	-11.4818
▁बोग	-11.4818
▁उछाल	-11.482
▁मैक्ल	-11.482
▁खुलने	-11.4835
▁भतीजे	-11.4835
▁मिलवॉकी	-11.4838
▁शेक्सपियर	-11.4838
▁अल्ट्रा	-11.4839
▁आइसो	-11.4841
▁पालतू	-11.4842
▁हमारा	-11.4842
▁मुंबई	-11.4844
▁कटक	-11.4845
▁रेक्टर	-11.4847
▁स्ट्रैट	-11.4851
▁ट्विटर	-11.4857
▁नैशविले	-11.486
▁क्यूबेक	-11.4862
▁डिप्लोमा	-11.4863
गीत	-11.4865
▁धीमा	-11.4866
▁स्टॉकहोल्म	-11.4866
क्रॉस	-11.4866
▁प्रेस्बिटेरियन	-11.4872
▁समावेश	-11.4872
▁कमरा	-11.4874
▁प्रोत्साहन	-11.4875
▁मरणोपरांत	-11.4875
▁सावधानीपूर्वक	-11.4875
▁बैरल	-11.4878
▁भ्रूण	-11.4878
▁इम्प	-11.4879
▁अन्ना	-11.488
▁मतभेद	-11.4882
▁उद्यमों	-11.4884
▁सुदूर	-11.4885
▁रखें	-11.4887
▁हिब्रू	-11.4889
ाविद	-11.4891
▁नारीवादी	-11.4892
्रिड	-11.4894
▁मिडिल	-11.4895
ुंड	-11.4896
पर्	-11.4897
▁आर्मेनियाई	-11.4899
▁घुस	-11.49
कैन	-11.4903
▁पहुँचते	-11.4904
मार्केट	-11.4904
टियन	-11.4905
▁बैरि	-11.4906
▁डैनी	-11.4907
▁महीन	-11.4909
▁रिबाउंड	-11.4916
▁ग्रेनेड	-11.4917
महिला	-11.4918
▁समतल	-11.4919
▁साहसिक	-11.4923
▁सेटों	-11.4929
▁सिक्के	-11.4931
▁खदानों	-11.4931
स्ट्रि	-11.4934
▁लौटता	-11.4938
▁कुत्तों	-11.494
▁ओले	-11.4943
▁रेंजर्स	-11.4946
शब्द	-11.495
स्लो	-11.4952
▁कैडेट	-11.4955
निश	-11.4956
▁बिताने	-11.4965
ग्यू	-11.4966
▁डिस्नी	-11.4968
▁मैल	-11.4969
▁कलाकृतियों	-11.4972
▁भाषाएँ	-11.4973
▁पाइ	-11.4975
▁फ़्रैंको	-11.4976
्की	-11.4976
फेट	-11.498
▁सर्फ	-11.498
▁प्रौद्योगिकियों	-11.498
रेफ	-11.4982
▁शेड	-11.4984
कैम्प	-11.4986
▁नाटककार	-11.4988
▁आइलैंड	-11.499
[	-11.499
बिंग	-11.4993
ोक्स	-11.4993
▁रोनाल्ड	-11.4993
▁वास्तुशिल्प	-11.4999
स्क्रिप्ट	-11.4999
▁धूल	-11.5
▁प्रभागों	-11.5001
▁वैधता	-11.5002
स्कि	-11.5004
▁सर्वसम्मति	-11.5007
▁नॉकआउट	-11.5008
▁चयनित	-11.501
शंस	-11.501
▁डाउनटाउन	-11.5016
▁किरायेदार	-11.5018
▁महाकाव्य	-11.5021
▁पालिकाओं	-11.5022
्द	-11.5025
▁छिद्र	-11.5027
▁बेला	-11.5032
▁उक्त	-11.5033
▁गोले	-11.5035
▁जोड़ते	-11.5036
▁अंतर्देशीय	-11.5037
▁स्ट्रोक	-11.5038
▁उत्तराधिकार	-11.5038
ोनियन	-11.5038
▁उपनगरीय	-11.504
नीचे	-11.5044
▁अंतःक्रिया	-11.5046
ग्ग	-11.5047
▁बहिष्कार	-11.5049
▁ब्रु	-11.505
हौ	-11.505
▁विस्फोटक	-11.5051
▁खुर	-11.5051
▁दुर्घटनाग्रस्त	-11.5053
ऑफ़	-11.5055
▁डायरी	-11.5056
क्ला	-11.5056
ऑल	-11.5057
▁आयताकार	-11.5059
▁मक्	-11.5064
र्गो	-11.5073
पिट	-11.5074
▁टक्कर	-11.5074
स्टु	-11.5074
पोस्ट	-11.5076
▁सीज़र	-11.5079
यूएस	-11.5084
▁प्रमाणन	-11.5087
▁लुकास	-11.5089
▁जॉय	-11.5091
▁पाठक	-11.5094
▁एनसीएए	-11.5096
▁कॉर्ड	-11.51
▁जाग	-11.5101
चू	-11.5101
टिव	-11.5108
फ्लोर	-11.5114
होल्ड	-11.5115
फेस्ट	-11.5116
▁कारें	-11.512
▁ऑडिशन	-11.5122
थु	-11.5123
▁रेंजर	-11.5123
▁पीड़ा	-11.5124
▁कार्लो	-11.5126
▁संरचनाएँ	-11.5126
▁जड़	-11.5128
िस्टा	-11.5131
▁प्रतियों	-11.5136
मार्ग	-11.5137
प्टेर	-11.5144
▁लेगा	-11.5147
▁बेड	-11.5149
ed	-11.5149
/>	-11.5152
▁जादूगर	-11.5152
पैथ	-11.5153
▁एडोल्फ	-11.5156
कहा	-11.5157
ंकन	-11.5159
▁शिपिंग	-11.5161
▁एडेलाइड	-11.5163
▁तलछट	-11.5163
▁वर्मोंट	-11.5165
▁सभ्यता	-11.5165
▁संतों	-11.5165
▁इन्फ	-11.517
▁दूरस्थ	-11.5171
▁सूडान	-11.5172
▁रॉस	-11.5174
▁अवधारणाओं	-11.5179
▁दुश्मनों	-11.5179
▁ब्रेन	-11.518
▁छंद	-11.5182
▁टिप	-11.519
▁चलाई	-11.5192
▁ओएस	-11.5192
▁दुख	-11.5194
▁खुराक	-11.5194
▁परियोजनाएं	-11.5203
▁अभिविन्यास	-11.5204
▁हरित	-11.5204
सेवा	-11.5206
▁निराशा	-11.5207
▁एमसी	-11.5211
▁रीच	-11.5212
चित	-11.5213
▁ट्यूमर	-11.5215
▁रिश्तेदार	-11.5218
▁बदलना	-11.5219
▁एसेक्स	-11.5219
विड	-11.5225
▁हवाओं	-11.5225
▁संस्कृतियों	-11.5226
▁जैम	-11.5228
महा	-11.5228
गुला	-11.5228
▁अचल	-11.5229
▁निर्दोष	-11.5229
▁पड़ने	-11.5229
▁यूजीन	-11.523
▁गायकों	-11.5233
आयरलैंड	-11.5235
▁खरीदार	-11.5235
▁सिखाया	-11.5237
लोप	-11.5239
▁पुरातत्व	-11.5239
▁बैन	-11.5246
▁शेयरधारक	-11.5249
▁गोर्	-11.5249
कल्प	-11.5253
फ्ले	-11.5256
▁घन	-11.5257
▁बेची	-11.5258
▁डोमिनिकन	-11.526
ब्रायन	-11.526
फायर	-11.5261
▁बिखरे	-11.5261
▁थियोडोर	-11.5265
▁पोलो	-11.5271
▁अस्पतालों	-11.5273
▁खुल	-11.5273
र्ष	-11.5275
्रोन	-11.5276
व्यापी	-11.5276
फ्रेड	-11.5279
▁प्रतिशोध	-11.5279
▁हेरफेर	-11.5284
▁नवीन	-11.5285
▁माली	-11.5287
होम	-11.5287
िसी	-11.5289
▁मानदंडों	-11.5291
▁समन्वयक	-11.5291
▁सलाम	-11.5294
▁रिपोर्टिंग	-11.5299
▁चयापचय	-11.5303
▁शिष्य	-11.5303
▁बर्तनों	-11.5306
इच	-11.5311
म्पो	-11.5311
पूर्वक	-11.5313
▁कपड़ा	-11.5313
फिला	-11.5316
▁पट्टिका	-11.5318
▁खातों	-11.5319
फ्ला	-11.5319
▁पहना	-11.532
▁रिहाई	-11.5322
▁दस्तावेजीकरण	-11.5326
▁चूना	-11.5331
▁संघर्षों	-11.5331
पेस्ट	-11.5331
न्डे	-11.5332
▁निष्कर्षों	-11.5333
▁रूथ	-11.5333
▁गेंदबाजी	-11.5335
प्लान	-11.5338
▁अनुपस्थित	-11.5339
▁मग	-11.5341
▁आचरण	-11.5347
▁प्रतिभाशाली	-11.5348
क्योंकि	-11.5349
▁सितारा	-11.5351
▁नौवहन	-11.5358
▁बुद्धि	-11.5362
▁परोपकारी	-11.5362
ितिज	-11.5365
▁क्रिकेटर	-11.5375
▁हिल्स	-11.538
▁कैंप	-11.5381
▁संगीतमय	-11.5381
▁ओकलैंड	-11.5384
▁छापे	-11.539
▁सारी	-11.5392
▁निवर्तमान	-11.5393
▁फ़्	-11.5394
▁एल्यूमीनियम	-11.5397
▁कैपिटल	-11.5397
स्क्व	-11.5398
दास	-11.5403
▁इलेक्ट्रॉनिक्स	-11.5408
▁एरिया	-11.541
र्रा	-11.5415
▁अनुयायियों	-11.5416
नोटः	-11.5417
▁नाविकों	-11.5423
ोलॉजिकल	-11.5424
▁पाउलो	-11.5426
▁स्पीडवे	-11.5427
▁कॉस्	-11.5427
▁असली	-11.5428
तला	-11.5429
▁उन्नीसवीं	-11.5431
कौ	-11.5436
▁प्रदाता	-11.544
गैंग	-11.544
टेम्प	-11.5441
फुट	-11.5443
▁स्टेफन	-11.5447
राव	-11.5451
▁क्रेन	-11.5452
▁विनसेंट	-11.546
▁हेज़	-11.546
च्ची	-11.5467
▁निर्भरता	-11.5472
▁कॉन्सर्ट	-11.5478
▁तह	-11.548
▁चैरिटी	-11.5481
मूल्य	-11.5484
कानून	-11.5486
▁निमं	-11.5487
▁चौकी	-11.5488
हार्	-11.5489
▁डिलीवरी	-11.5491
▁जड़ों	-11.5492
▁कुचल	-11.5494
▁बनना	-11.5497
▁यांकी	-11.5497
स्नो	-11.5504
▁चक्कर	-11.5511
स्पो	-11.5513
▁कच्चे	-11.5514
▁दावेदार	-11.5517
▁कोपनहेगन	-11.5521
▁बीसवीं	-11.5524
▁सहारा	-11.5526
▁एंटरटेनमेंट	-11.5527
गोल्ड	-11.5528
▁बढ़ाना	-11.5531
▁स्टोक	-11.5531
▁हन्ना	-11.5532
▁अंधे	-11.5533
▁हाइड	-11.5533
▁मिलों	-11.5544
▁कीमतों	-11.555
▁पर्दे	-11.5551
▁प्रतिष्ठान	-11.5552
▁अज़	-11.5555
▁सिरे	-11.5556
▁बॉडी	-11.5556
▁साइबर	-11.5557
▁उन्नयन	-11.5557
▁बपतिस्मा	-11.556
▁सज्जन	-11.556
▁बुलेवार्ड	-11.5563
▁स्कोटिया	-11.5564
▁रिप	-11.5564
▁अवतार	-11.5564
फेर	-11.5566
▁ग्लेशियर	-11.5567
फ्रै	-11.5567
उनकी	-11.5568
रीज़	-11.5568
▁देवदार	-11.5572
▁व्ला	-11.5579
▁इंडीज	-11.5579
लाव	-11.5579
आय	-11.558
▁मेडिसिन	-11.558
तिपूर्ति	-11.5583
▁अंतर्	-11.5585
▁पुस्तिका	-11.5593
▁पाता	-11.5594
▁हिंदी	-11.5595
डाइ	-11.5602
▁ऑड	-11.5604
फोल्ड	-11.5605
▁नट	-11.5605
▁प्रवाल	-11.5606
▁रैक	-11.5607
▁लैम्ब	-11.5608
▁अनुर	-11.5608
▁गोपनीयता	-11.561
▁सुगंध	-11.5616
▁दरकिनार	-11.5616
▁रयान	-11.5618
▁एल्क	-11.5619
▁काउबॉय	-11.562
▁मिलन	-11.5623
▁मजदूर	-11.5626
▁आर्मेनिया	-11.5628
▁ठंडी	-11.5629
ार्थी	-11.5633
▁चतुर	-11.5636
ग्रास	-11.564
▁असेंबली	-11.5643
▁स्टेज	-11.5649
▁खलनायक	-11.565
▁बोर्डिंग	-11.5654
्ह	-11.5655
कोव्स्की	-11.5656
▁कुर्सी	-11.5659
▁कथन	-11.5662
▁बिस्	-11.5666
▁मजिस्ट्रेट	-11.5666
घे	-11.5666
▁वाल्व	-11.5667
▁पब	-11.5668
▁चांग	-11.5675
प्रोफाइल	-11.5679
▁ब्रंसविक	-11.568
▁पूर्वज	-11.5684
▁खगोलीय	-11.5686
▁कर्टिस	-11.5689
▁लाओ	-11.5691
▁पंक्तियों	-11.5692
प्रि	-11.5695
दर्शी	-11.5698
प्रतिदिन	-11.5701
▁हाइपर	-11.5705
▁रिश्तेदारों	-11.5706
▁एंग्लिकन	-11.5706
लिड	-11.5709
▁सपना	-11.571
▁एलिसन	-11.5712
▁बुर्ज	-11.5713
▁बासिस्ट	-11.5716
▁शब्दावली	-11.5716
▁टोही	-11.5721
▁लात	-11.5723
▁अनिगमित	-11.5723
▁ठंडे	-11.5724
मेथ	-11.5725
अंग्रेज़ी	-11.5726
▁गोट	-11.5729
र्नो	-11.573
स्टेन	-11.5732
्ट्र	-11.5734
रीना	-11.5737
टेरो	-11.5739
▁लाइनअप	-11.5739
▁अंगों	-11.5741
▁कैश	-11.5742
▁मिथक	-11.5743
रियट	-11.5744
अंग्रेजी	-11.5746
▁लाता	-11.5747
▁ऑरेंज	-11.5751
▁सुसंगत	-11.5756
▁जटिलता	-11.576
इलेक्ट्र	-11.5765
▁इर्द	-11.5768
▁ढक	-11.577
ओसी	-11.5776
सर्व	-11.5777
▁चोर	-11.5778
▁झांग	-11.578
▁डेमोक्रेटिक	-11.578
▁ग्रेनाइट	-11.5782
मैरी	-11.5783
▁रोच	-11.5785
▁कर्ट	-11.5785
▁सोसायटी	-11.5787
जातीय	-11.5793
▁होम्स	-11.5793
▁मैनुअल	-11.5798
इग	-11.5801
शू	-11.5801
▁स्केटिंग	-11.5801
▁वैनकूवर	-11.5804
▁सोक्स	-11.5805
▁पुनर्गठित	-11.5807
▁स्वेच्छा	-11.5807
साद	-11.5808
खर	-11.5809
▁आंखों	-11.581
िरी	-11.5812
▁नौकर	-11.5816
प्रकाश	-11.5818
▁रूपांकन	-11.5821
▁माल्टा	-11.5822
▁वेस्टमिंस्टर	-11.5824
डिल	-11.5826
▁नोड	-11.583
स्टै	-11.5836
▁उगांडा	-11.5839
उसने	-11.5839
▁निष्ठा	-11.584
▁क्री	-11.5848
शुद्ध	-11.5849
▁मानदंड	-11.5854
▁स्पेक्ट्रम	-11.5856
सिम्	-11.5859
▁हर्मन	-11.5859
▁बॉट	-11.5865
▁खतरों	-11.5868
▁प्रस्तुतकर्ता	-11.5869
▁न्यूपोर्ट	-11.5871
▁दिवंगत	-11.5872
▁नशे	-11.5876
ल्ग	-11.5876
▁बढ़ई	-11.5879
▁प्लेयर	-11.588
▁टेट	-11.588
फूल	-11.5884
▁पेरि	-11.589
स्पेस	-11.5891
▁फिशर	-11.5895
▁पूर्वानुमान	-11.5895
कॉनर	-11.5897
ुआंग	-11.59
मायो	-11.5902
▁नाटो	-11.5902
▁हानिकारक	-11.5902
▁एनबीए	-11.5906
आकार	-11.5906
▁ब्रसेल्स	-11.5909
▁रैपिड	-11.5909
▁भारतीयों	-11.5911
चरण	-11.5913
▁लौह	-11.5913
▁मारियो	-11.5914
बाल्ड	-11.5915
स्पेक्ट	-11.5917
▁सगाई	-11.592
▁इयान	-11.5921
▁उद्यमी	-11.5922
▁हत्यारे	-11.5926
▁लुप्तप्राय	-11.5926
▁स्पेंसर	-11.5926
▁जनादेश	-11.593
▁वांछित	-11.593
▁थोर	-11.593
▁छू	-11.5931
पॉ	-11.5933
ुलु	-11.5937
गोंग	-11.5943
ेन्ड	-11.5944
▁रोलैंड	-11.5953
▁फर्स्ट	-11.5953
▁असंगत	-11.5956
▁विस्थापित	-11.596
संबद्ध	-11.596
▁रूट	-11.5962
▁असुर	-11.5962
▁मुसलमानों	-11.5966
▁अधिवक्ता	-11.5967
▁जमैका	-11.5967
दाई	-11.5969
▁गश्त	-11.5969
ज़ियो	-11.597
▁अय	-11.5974
▁घात	-11.5975
सफेद	-11.5977
▁सामरिक	-11.5978
पाउ	-11.5978
दिर	-11.5979
ेटिव	-11.5979
भाषा	-11.598
▁घोटाले	-11.5981
▁वल्	-11.5983
▁प्रदूषण	-11.5985
्लि	-11.5987
▁आश्वासन	-11.5988
▁ढील	-11.5988
▁समेकित	-11.5991
पीपी	-11.5992
तब	-11.5993
▁बैरक	-11.5993
ग्ला	-11.5993
▁चाची	-11.5999
िएंट	-11.6002
▁पत्तियों	-11.6005
▁दिखने	-11.6009
आर्ट	-11.6011
▁कैच	-11.6012
▁पांचवीं	-11.6012
वर्क्स	-11.602
▁फासीवाद	-11.602
पृष्ठ	-11.6026
▁मोटी	-11.6028
्जा	-11.6034
पात	-11.6038
जोंग	-11.6038
▁उभरा	-11.6038
अंक	-11.6041
le	-11.6046
िणपूर्वी	-11.605
गौ	-11.6053
▁कॉर्पोरेशन	-11.6054
▁नाथन	-11.6055
▁योद्धाओं	-11.6056
▁उत्तेजना	-11.6057
▁साल्वाडोर	-11.6057
▁मिर्च	-11.606
ाविदों	-11.6065
ड्रेस	-11.6067
पंज	-11.6079
▁रिक्त	-11.608
▁मेंढक	-11.6082
▁संस्था	-11.6086
हिर	-11.6089
▁वाष्प	-11.6092
▁संस्थापकों	-11.6094
▁ईश्वर	-11.6095
▁आर्कटिक	-11.6095
▁लेवी	-11.6099
लिबर्ट	-11.61
▁स्लाइड	-11.6101
▁मजेदार	-11.6102
िकोण	-11.6102
▁ब्लूम	-11.6106
▁आर्नोल्ड	-11.6109
▁पैच	-11.611
▁मेसन	-11.611
टर्न	-11.6111
▁मंगल	-11.6114
बैट	-11.6115
▁अवरोधक	-11.6118
▁दरवाजा	-11.6123
▁अल्मा	-11.6128
िकोणीय	-11.6134
▁थोक	-11.6135
बाज	-11.6136
निट	-11.6137
सिला	-11.6141
▁जोहानस	-11.6145
स्क्रीन	-11.6147
▁सोलोमन	-11.6151
स्किन	-11.6154
फिट	-11.6155
▁ब्रोक	-11.6156
▁ट्रेलर	-11.6157
▁वसीयत	-11.6158
▁सुलह	-11.6162
▁रचनाओं	-11.6167
्रि	-11.617
फ्रो	-11.6171
▁डिब्बों	-11.6172
त्या	-11.6173
▁तीरंदाज	-11.6176
▁एम्प	-11.6176
▁मांगी	-11.6177
▁सेंसर	-11.6179
▁दंडित	-11.6179
▁उल्लिखित	-11.6183
▁तानाशाह	-11.6183
युग	-11.6184
▁पड़ाव	-11.6184
▁डकैती	-11.619
▁बर्बर	-11.619
▁असमानता	-11.619
▁बेटियों	-11.619
▁क्लीन	-11.6193
▁लिंच	-11.6197
▁कंकाल	-11.6197
▁दिशानिर्देश	-11.6197
▁प्रयोगों	-11.6197
फाइल	-11.6198
िशन	-11.6202
▁ओट्टावा	-11.6204
मेरिक	-11.6204
▁मार्सेल	-11.6209
लिखित	-11.621
विज	-11.621
▁ढकी	-11.6211
राफ	-11.6214
द्दी	-11.6215
▁प्रणालियाँ	-11.6218
▁इराकी	-11.622
▁प्लेस्टेशन	-11.6222
▁धड़	-11.6222
▁जोड़कर	-11.6223
▁चिह्न	-11.6223
▁मास्टर्स	-11.6229
गिर्	-11.6231
▁घने	-11.6231
▁बेलग्रेड	-11.6236
▁कविताएँ	-11.6236
▁इच्छुक	-11.6239
▁राष्ट्रव्यापी	-11.624
▁राजप	-11.624
▁ऑप्टिकल	-11.6243
▁उपनगरों	-11.6245
▁मूसा	-11.6248
▁ब्रेट	-11.6253
▁सिम्पसन	-11.6253
प्ति	-11.6254
हॉर्न	-11.6255
▁डियेगो	-11.6257
▁पॉडकास्ट	-11.6257
म्बर्ग	-11.6257
▁संवाददाता	-11.6259
ेंद्र	-11.6259
▁स्टर्न	-11.6259
▁अप्रत्य	-11.627
पियो	-11.627
▁सिक्कों	-11.6271
▁तैनाती	-11.6273
▁टुकड़ी	-11.6274
▁स्ट्रीमिंग	-11.6275
▁अनावश्यक	-11.6281
ुरी	-11.6283
▁फॉरेस्ट	-11.6284
ट्रिब्यून	-11.6285
▁मुझसे	-11.6285
nd	-11.6286
▁प्रोटो	-11.6288
▁पैलेस	-11.6288
पोड	-11.6289
ंड्रा	-11.629
▁फलन	-11.6291
शीलता	-11.6291
▁लड़ाकों	-11.6294
▁रबर	-11.6295
▁मंदिरों	-11.6296
ंद्र	-11.6296
▁होंगी	-11.6303
▁कितनी	-11.6304
▁कैंटरबरी	-11.6306
▁साम्यवादी	-11.631
▁मदर	-11.6311
▁सीढ़ियों	-11.6313
▁मालवाहक	-11.6328
▁उड़ानों	-11.6329
▁तबाह	-11.6331
डिट	-11.6331
▁अंडाकार	-11.6331
▁हाउ	-11.6334
▁शरणार्थी	-11.6335
▁विधानमंडल	-11.6335
सिओ	-11.6337
एपी	-11.6338
विश्व	-11.6338
▁जलडमरूमध्य	-11.6342
▁वारंट	-11.6344
▁मापदंड	-11.6345
पाठ	-11.6346
▁फेंका	-11.6346
▁उदास	-11.6347
ब्रिटिश	-11.6347
▁मौसमी	-11.6348
▁तारे	-11.6354
▁संबद्धता	-11.6354
▁विकर	-11.6355
▁डीएनए	-11.6357
फ्लै	-11.6358
▁छाती	-11.6358
▁लीड	-11.636
▁आसन्न	-11.636
फॉस्फो	-11.6361
डेज़	-11.6366
सात	-11.6366
▁मशीनों	-11.6367
▁जूते	-11.637
▁एल्गोरिथ्म	-11.637
▁उपन्यासकार	-11.6372
▁शाखाएँ	-11.6373
▁शंकु	-11.6381
▁अंतर्दृष्टि	-11.6381
▁विषाक्त	-11.6382
▁राफेल	-11.6388
▁सूरज	-11.6392
गिर	-11.6394
राडो	-11.6395
▁निकलता	-11.6405
▁डेवलपर्स	-11.6409
▁एनवाई	-11.641
▁महिमा	-11.641
माई	-11.6412
▁गिल्बर्ट	-11.6417
ic	-11.6421
▁मॉडलिंग	-11.6421
▁लेंगे	-11.6423
▁ऑस्	-11.6426
▁थर्	-11.6426
सांप्रदायिक	-11.6428
▁फिलिपिनो	-11.6429
▁अग्निशमन	-11.6431
▁स्कोरर	-11.6432
▁ब्राजीलियाई	-11.6432
▁व्हिट	-11.6433
वस्तु	-11.6438
▁काउंटर	-11.644
▁सर्वकालिक	-11.6442
▁एडवर्ड्स	-11.6445
▁फ्रैंकफर्ट	-11.6446
▁यकीन	-11.6446
▁जौ	-11.6451
सीपी	-11.6452
▁हेग	-11.6455
▁समर	-11.6456
▁उंगलियों	-11.6457
▁नाइजीरियाई	-11.6467
▁टम्पा	-11.6467
शायद	-11.6467
▁माने	-11.6469
साह	-11.6469
▁स्वैच्छिक	-11.6471
▁लाखों	-11.6471
▁निपटा	-11.6472
▁बढ़ाता	-11.6474
▁आर्म्स	-11.6484
▁बनाकर	-11.6486
▁एम्मा	-11.6492
पौ	-11.6493
िटर	-11.6494
▁रोटी	-11.6495
भावना	-11.65
▁बाइज़ैंटाइन	-11.65
▁इरविन	-11.65
▁महानगर	-11.6502
▁कार्डिफ	-11.6505
▁अर्ब	-11.6507
▁न्यासी	-11.651
▁एक्सपो	-11.6512
▁आँखें	-11.6514
▁घोड़ा	-11.6514
▁चेरी	-11.6515
सही	-11.6518
▁प्रलेखित	-11.6522
मिथाइल	-11.6524
▁सिमोन	-11.6528
सिल्	-11.6531
▁क्लेयर	-11.6541
▁नक्काशी	-11.6542
▁ईंटों	-11.6553
ग्लू	-11.6554
सेलिब्रिटी	-11.6554
▁साहसी	-11.6555
▁पाल्मर	-11.6556
विना	-11.6558
ज़ौ	-11.6559
▁तिल	-11.6562
▁खपत	-11.6563
▁आँसू	-11.6569
▁ब्रिगेडियर	-11.6571
▁असंतुष्ट	-11.6573
फ़्ल	-11.6573
▁बताए	-11.6579
▁तिकड़ी	-11.658
▁संस्थागत	-11.658
▁मार्कर	-11.6581
▁निभाते	-11.6583
अधि	-11.6583
स्कूल	-11.6588
▁निवेशकों	-11.6593
▁ब्रैडफोर्ड	-11.6602
▁नाशपाती	-11.6606
▁अपोलो	-11.6608
▁बाहों	-11.6609
▁न्यायाधिकरण	-11.6609
▁सूअर	-11.6609
सोनिक	-11.6612
▁साल्ट	-11.6618
▁बीमारियों	-11.6621
▁एंड्रिया	-11.6622
▁परिमाण	-11.6628
▁मेम्फिस	-11.6631
▁किग्रा	-11.6636
▁बेड़ा	-11.6642
▁रूपरेखा	-11.6642
▁प्रस्तावना	-11.6645
...............	-11.6646
▁तुलनात्मक	-11.665
यूरोपीय	-11.6651
▁मैक्रो	-11.6651
▁कास्टिंग	-11.6652
▁वॉर	-11.6655
▁मॉस्को	-11.6655
▁रोथ	-11.6662
▁खिड़कियाँ	-11.6668
▁आना	-11.667
▁लेस्ली	-11.667
वंश	-11.667
▁एल्ब	-11.667
डेविल	-11.667
▁फर्डिनेंड	-11.6672
▁स्टैंडिंग	-11.6674
▁बूढ़े	-11.6679
▁विश्वकोश	-11.6679
▁सदियों	-11.6679
क्वो	-11.6686
▁इडाहो	-11.6686
▁फ़िल्म	-11.6687
▁पर्यटकों	-11.6689
▁पिरामिड	-11.669
▁मजदूरी	-11.6691
▁विलो	-11.6694
िड्स	-11.6699
ेरिक	-11.6701
▁जम	-11.6704
▁आवंटन	-11.6709
▁एयरलाइंस	-11.6709
▁दिखता	-11.6709
▁चुप	-11.6709
पाषाण	-11.6712
▁झड़प	-11.6712
▁क्वालीफायर	-11.6713
▁अब्द	-11.6715
संघ	-11.6718
▁प्रशंसित	-11.672
▁बारबारा	-11.672
बाम	-11.6721
मीडिया	-11.6725
ोर्न	-11.6726
▁शासी	-11.6727
▁स्वर्गदूत	-11.6727
▁हेंडरसन	-11.6727
▁पायलटों	-11.6729
▁टर्बो	-11.6731
ियंस	-11.6736
▁साउंड	-11.6741
▁ट्रेडमार्क	-11.6742
बाख	-11.6743
ुएल	-11.6744
▁सैक्स	-11.6745
▁मकई	-11.6746
▁दीवारें	-11.6747
मिस्टर	-11.6748
▁गिबसन	-11.6749
म्फ	-11.6751
▁गर्भावस्था	-11.6753
क्सटन	-11.6754
▁स्टुआर्ट	-11.676
▁ड्	-11.6761
सेकंड	-11.6769
गर्भ	-11.6772
▁कंसोल	-11.6772
▁सूजन	-11.6777
▁गाते	-11.6778
▁मुँह	-11.6779
▁तेज़	-11.6779
▁स्टोरी	-11.6785
▁ऑकलैंड	-11.6787
▁तान	-11.6788
▁नियोक्ता	-11.6788
▁जेनी	-11.6788
▁झुकाव	-11.6792
▁लूथर	-11.6794
▁सेबास्टियन	-11.6794
▁अपराधियों	-11.6794
▁फ्राय	-11.6794
▁संतुलित	-11.6798
शेव	-11.68
▁अप्रकाशित	-11.6805
▁इल्	-11.6807
▁क्लेमेंट	-11.6808
▁प्लाईमाउथ	-11.6809
▁सिने	-11.6809
▁नैन्सी	-11.6809
▁दिवालियापन	-11.6809
▁बर्टन	-11.681
डॉर्फ	-11.681
▁पादप	-11.6813
▁दुरहम	-11.6816
कंप	-11.6818
▁लिंडा	-11.682
▁कराने	-11.682
▁पदानुक्रम	-11.6824
▁स्वच्छता	-11.6828
प्सी	-11.6829
▁मौरिस	-11.683
▁बुधवार	-11.6831
▁प्राचार्य	-11.6843
▁चैट	-11.6844
▁रिचर्डसन	-11.6847
अभि	-11.6847
▁भवनों	-11.6847
▁प्रतिभूति	-11.6852
▁मोंटगोमेरी	-11.6854
▁धुंध	-11.6854
ोसिन	-11.6858
▁जैमी	-11.6858
▁रोवर्स	-11.6859
थियन	-11.6859
टेस	-11.6862
चैनल	-11.6865
▁सर्कस	-11.6866
▁खोजकर्ता	-11.6867
▁प्रीमियरशिप	-11.6868
▁लोपेज़	-11.6869
▁स्लेट	-11.6869
▁रिसाव	-11.6873
▁अल्पाइन	-11.6873
शासन	-11.6876
साकी	-11.6886
▁इक्विटी	-11.6888
▁यूरोविजन	-11.6888
रिप्रेजेंटेटिव्स	-11.6891
▁समवर्ती	-11.6892
▁लीवर	-11.6894
▁वोल्टेज	-11.6895
सेना	-11.6897
्बे	-11.6903
अध्य	-11.6903
घंटा	-11.6905
▁राजशाही	-11.6907
▁फारस	-11.6908
सांस्कृतिक	-11.6912
▁मुआवजे	-11.6914
▁आग्नेय	-11.6914
▁शांतिपूर्ण	-11.6914
▁दाल	-11.6915
ाध्य	-11.6916
▁ग्वांग	-11.6917
▁किलोग्राम	-11.6918
▁स्टीवंस	-11.6922
▁बजाते	-11.6922
स्पै	-11.6924
▁जोड़ों	-11.6924
चालित	-11.6924
▁नोटिस	-11.6924
▁ताइ	-11.6925
▁गैली	-11.6928
बड़े	-11.6932
▁संभावनाओं	-11.6932
▁दिग्गज	-11.6933
▁अयस्क	-11.6934
▁डोमिनिक	-11.6936
स्टार्ट	-11.6937
▁मोनरो	-11.6937
▁संप्रभु	-11.6937
▁उपनिवेशों	-11.6938
▁अनुवादक	-11.6939
▁आकाशगंगा	-11.6944
ेक्शन	-11.6945
फेड	-11.6951
▁मरीन	-11.6952
▁चान	-11.6955
▁प्रेरक	-11.6956
▁ट्रैप	-11.6957
हर्	-11.6958
▁हाइपो	-11.6963
▁डची	-11.6964
▁बेनेडिक्ट	-11.6967
व्हि	-11.6968
▁बहनें	-11.6971
हॉफ	-11.6975
माउंट	-11.6976
▁रेने	-11.6979
▁स्वीकृत	-11.698
▁दयालु	-11.698
▁बनती	-11.6982
पट्ट	-11.6984
▁प्लस	-11.6984
▁फंक	-11.6987
जून	-11.6989
▁बारोक	-11.6996
ग्रीन	-11.6997
▁महाप्रबंधक	-11.6998
▁लाना	-11.7
▁कॉन्स्ट	-11.7002
िप्प	-11.7005
▁निकटवर्ती	-11.7005
▁मौतों	-11.7007
िफॉर्म	-11.7008
▁झरने	-11.7009
▁गार्सिया	-11.7014
de	-11.7014
▁उड़ाया	-11.7015
▁कबूतर	-11.702
▁क्वालीफाइंग	-11.7028
▁सीरीज़	-11.7035
▁ढलानों	-11.7038
▁डॉक्टरों	-11.704
स्पोर	-11.7041
रूसी	-11.7041
लाह	-11.7043
्रॉन	-11.7048
▁थ्रिलर	-11.7051
▁राख	-11.7053
▁रिसेप्टर	-11.7054
▁उपज	-11.7054
▁किराया	-11.7056
▁जिम्बाब्वे	-11.7059
as	-11.7063
▁टरबाइन	-11.7066
▁टमाटर	-11.7066
▁पाला	-11.7069
▁उपलब्धता	-11.7075
त्ज़	-11.7078
▁मुठभेड़	-11.7078
ाइजेशन	-11.7083
▁स्लैम	-11.7083
▁ड्रिल	-11.7086
▁दसवें	-11.7089
▁क्रोन	-11.709
▁जलमार्ग	-11.7091
▁नाभि	-11.7092
▁प्लैटिनम	-11.7093
जॉर्ज	-11.71
▁रियायत	-11.7101
▁हॉपकिन्स	-11.7101
▁कुएं	-11.7111
▁कणों	-11.7115
थियो	-11.7116
▁छोड़ना	-11.7116
▁दुखद	-11.7117
▁झंडा	-11.712
▁धूम्रपान	-11.712
▁पहियों	-11.712
▁न्यूमैन	-11.7122
▁बर्थ	-11.7122
▁प्रायोजन	-11.7124
▁वैचारिक	-11.7124
▁ड्रैग	-11.7128
▁टेम्पल	-11.7131
▁त्योहारों	-11.7135
▁एड्रियन	-11.7136
▁लिसा	-11.7138
▁कठोरता	-11.714
प्रमुख	-11.7141
▁आराधनालय	-11.7143
▁फ्रीड्रिच	-11.7147
▁जाहिर	-11.7151
▁ज्यामिति	-11.7155
निच	-11.7156
▁स्कार्	-11.7156
▁दिवालिया	-11.7158
▁घनिष्ठ	-11.7159
▁मंगोलिया	-11.7161
▁वस्तुएँ	-11.7163
गावा	-11.7167
▁सल्	-11.7171
▁एडमोंटन	-11.7174
▁कमांडिंग	-11.7178
▁लगते	-11.7181
▁गलियारे	-11.7182
▁एनबीसी	-11.7182
ह्न	-11.7183
स्ट्रोम	-11.7188
वाला	-11.7188
▁परित्यक्त	-11.719
संर	-11.7192
▁क्रोध	-11.7192
पॉट	-11.7194
▁मैन्युअल	-11.7194
▁फ़ीड	-11.7194
▁हिप्प	-11.7194
▁कैमरन	-11.7194
क्लू	-11.7197
डौ	-11.7197
▁डेवोन	-11.7197
▁बूथ	-11.72
▁बुखार	-11.7202
▁पिस्तौल	-11.7205
▁मुट्ठी	-11.7205
▁ओलिव	-11.7208
▁स्वच्छ	-11.7211
▁विंडसर	-11.7217
▁अनुभाग	-11.7225
▁पकाने	-11.7229
▁विनाइल	-11.723
स्थल	-11.7232
▁मैटथ्यू	-11.7232
थेरेपी	-11.7238
▁पगडंडी	-11.724
ers	-11.7244
▁स्ट्राइकर	-11.7245
यथार्थवाद	-11.7247
▁ऊँचे	-11.7248
▁सतर्क	-11.7248
▁मार्श	-11.7249
वॉच	-11.7254
एस्ट	-11.7259
▁घटनाएँ	-11.7262
▁शीट	-11.7262
▁क्रॉसिंग	-11.7264
▁नूर	-11.7267
▁ताड़	-11.7268
▁बजाना	-11.7269
▁भाषाई	-11.7271
िणपंथी	-11.7272
▁महारानी	-11.7272
▁बोइंग	-11.7272
▁लिखीं	-11.7277
दाह	-11.7282
▁कृति	-11.7282
बार्ड	-11.7284
▁मंडप	-11.7285
▁निपट	-11.7287
▁आओ	-11.7289
वास्तव	-11.7294
▁एंड्र	-11.7298
▁पौधा	-11.7299
चर्च	-11.7302
▁कोसोवो	-11.7303
▁ट्रांसमीटर	-11.7304
▁जस्टिस	-11.7307
िंगेन	-11.7307
▁देखकर	-11.7307
जीत	-11.7309
▁वारविक	-11.7313
▁मुक्केबाज	-11.7314
▁ट्रेंट	-11.7315
पोज	-11.7316
▁शयनक	-11.7322
▁उड़ने	-11.7324
िन्स्की	-11.7327
▁नागा	-11.7329
▁वैगनर	-11.7329
लाइ	-11.7329
▁ब्रेस	-11.7331
▁टर्की	-11.7331
▁हार्पर	-11.7331
▁एंकर	-11.7333
ग्नो	-11.7335
▁बैच	-11.7336
▁क्रीम	-11.7337
▁लुडविग	-11.7338
▁हनी	-11.7345
▁संगम	-11.7345
▁मध्यस्थ	-11.7345
▁बारसेलोना	-11.7346
आर्क	-11.7349
▁संसाधित	-11.735
▁चेल्सी	-11.735
▁पहचानने	-11.7353
▁पुनर्मिलन	-11.7354
▁मिल्टन	-11.7355
▁पाइपलाइन	-11.7355
▁समझाने	-11.736
▁बेडफोर्ड	-11.7367
▁परजीवी	-11.737
▁दबाने	-11.737
▁मवेशियों	-11.737
▁पालक	-11.7372
▁इंटीरियर	-11.7374
▁हमलावर	-11.7374
▁कॉर्नवॉल	-11.7374
▁भेजी	-11.7375
कार्ट	-11.7376
▁एनालॉग	-11.7378
▁डंकन	-11.7382
▁गुरुवार	-11.7382
▁जुड़त	-11.7386
ग्रै	-11.7386
▁अशांति	-11.7389
सेप्ट	-11.7389
▁मिडलैंड	-11.7389
ोव्स्क	-11.739
▁पकड़ना	-11.739
▁माओरी	-11.7394
▁उसमें	-11.7394
▁बॉयलर	-11.7396
पाती	-11.7397
▁आर्मस्ट्रॉन्ग	-11.7398
▁कारखाना	-11.7398
▁नारा	-11.7404
▁बाल्टिक	-11.7407
हॉस	-11.7409
▁बुरे	-11.7411
▁मशीनरी	-11.7415
वाहक	-11.7417
▁मोरो	-11.7419
वीडियो	-11.742
▁आत्माओं	-11.7422
गुण	-11.7423
▁पोस्टर	-11.7425
▁सहस्राब्दी	-11.7425
▁नायकों	-11.7426
▁कामुक	-11.7432
▁ब्रेंट	-11.7435
उन्हें	-11.7435
इरो	-11.7437
▁जड़ें	-11.7437
▁पैतृक	-11.7437
राजनीतिक	-11.7443
▁सक्रियता	-11.7444
▁ड्रेक	-11.7444
ुद्रग्रह	-11.7445
▁आउटपुट	-11.7445
रिको	-11.7446
▁फर्नांड	-11.7447
▁नाते	-11.7447
ल्ज़	-11.7448
▁बाग	-11.7461
बीएस	-11.7461
▁गोरे	-11.7464
▁हिं	-11.7466
▁लड़ते	-11.7469
कुन	-11.7472
▁झरनों	-11.7473
▁विमोचन	-11.7473
▁विश्राम	-11.7477
मूर	-11.7477
▁प्रारंभ	-11.748
▁रोड्स	-11.7481
निवास	-11.7481
पैन	-11.7481
विध	-11.7481
वर्ल्ड	-11.7483
▁डेटिंग	-11.7484
प्टिक	-11.7484
▁ब्राइटन	-11.7486
▁उखाड़	-11.7489
ऊंगा	-11.7489
▁लॉरेन	-11.7492
लाइस	-11.7493
▁स्वीकार्य	-11.7494
कावा	-11.7496
▁पैरोडी	-11.7497
▁महारत	-11.7498
ल्बी	-11.75
▁अंशकालिक	-11.7501
उर्फ	-11.7502
जुन	-11.7506
्किन	-11.7508
मिनी	-11.7514
▁शौचालय	-11.7517
▁हताहतों	-11.7523
ाइयों	-11.7524
II	-11.7524
प्वाइंट	-11.7525
सेरा	-11.753
▁इंडो	-11.753
▁दरवाजों	-11.7537
जैकोब	-11.7539
ट्रिप	-11.7541
▁सटे	-11.7541
▁मुस्कुरा	-11.7541
▁विचलित	-11.7545
▁परिसंपत्तियों	-11.7546
▁मक्का	-11.7546
▁आभूषण	-11.7553
▁मनिटोबा	-11.7553
स्टॉप	-11.7554
उतनी	-11.7561
▁एबर	-11.7565
▁संख्याएँ	-11.7566
▁बाघों	-11.7567
▁डेवी	-11.757
▁लूथरन	-11.7571
▁पोर्टफोलियो	-11.7573
▁मत्स्य	-11.7573
▁शिकारियों	-11.7585
▁दूरबीन	-11.7586
▁पासपोर्ट	-11.7586
फुल	-11.7596
▁अज	-11.7597
▁हेलमेट	-11.7601
रोध	-11.7605
ज़ियोन	-11.7606
▁प्रोसेसर	-11.7606
▁नॉटिंघम	-11.7606
▁पाउडर	-11.7606
भुज	-11.7607
▁कैसि	-11.7608
▁फेलिक्स	-11.7608
▁गेंदबाज	-11.7609
▁इंजेक्शन	-11.761
▁आदिम	-11.7611
▁कस्टम	-11.7614
▁क्लिनिक	-11.7616
▁फेलि	-11.7616
▁तमिलनाडु	-11.7618
न्ने	-11.762
▁रिएक्टर	-11.7622
▁आपसी	-11.7626
▁बढ़ाकर	-11.7626
▁ध्रुवीय	-11.7626
▁चमकदार	-11.7627
▁ग्रिम	-11.7629
▁चूहे	-11.7633
डॉक	-11.7634
▁अब्दुल्ला	-11.7639
▁किशोरावस्था	-11.7642
▁अवार्ड्स	-11.7642
▁अभिन्न	-11.7643
▁जल्दबाजी	-11.7643
▁आत्मकथा	-11.7644
▁रूकी	-11.7647
ग्यु	-11.7651
▁जैन	-11.7655
▁डूबने	-11.7656
▁पड़ोसियों	-11.7657
▁बदमाश	-11.7659
▁शक्तियाँ	-11.7662
▁साइंस	-11.7664
▁किशोरों	-11.7664
भाष	-11.7666
▁युद्धविराम	-11.7667
वॉश	-11.7668
कलाकार	-11.7669
ियॉन	-11.7673
▁एमिली	-11.7673
कुट	-11.7676
▁कैसा	-11.7676
▁कैंड	-11.7678
▁परिवेश	-11.7679
सूचक	-11.7681
▁लेफ्ट	-11.7681
इश	-11.7683
श्रृंखला	-11.7688
▁विवादित	-11.7693
▁विल्क	-11.7694
▁प्रचारित	-11.7695
ग्लिया	-11.77
▁सर्विस	-11.77
जिले	-11.7703
▁मॉर्निंग	-11.7703
▁रहेंगे	-11.7709
▁नास्कर	-11.7714
जहां	-11.7715
▁पूर्वव्यापी	-11.7715
गामी	-11.7716
▁वंशजों	-11.7717
▁चूहों	-11.772
बैर	-11.7721
▁उड़ानें	-11.7722
ुरो	-11.7727
▁चमड़े	-11.7732
▁अंगूठी	-11.7736
ोइड	-11.774
▁लिथुआनियाई	-11.774
लाउ	-11.7741
अफगान	-11.7744
▁दुबई	-11.7744
▁स्टेप	-11.7745
▁एंटन	-11.7745
▁ओस्लो	-11.7748
एडवेंचर	-11.7753
▁रोचेस्टर	-11.7753
▁रेखांकित	-11.7757
▁बुराई	-11.7758
्बर्ट	-11.776
▁मातृभूमि	-11.7761
▁स्लोवेनिया	-11.7765
▁फर्न	-11.7768
▁सवारों	-11.7768
▁कुंवारी	-11.7769
▁मनीला	-11.7769
▁बलुआ	-11.7771
▁पहुंचाया	-11.7773
िनिया	-11.7774
▁पढ़ाने	-11.7776
्नेस	-11.778
▁ठंड	-11.7781
बाब	-11.7782
▁ऑर्थो	-11.7787
शोध	-11.7789
▁असमान	-11.7789
▁सुख	-11.7796
लाइव	-11.7797
ेंसिस	-11.7801
▁मुंह	-11.7802
▁मोर्	-11.7805
देन	-11.7805
▁एंटोन	-11.7807
▁पांचवां	-11.7811
ियट	-11.7815
▁अनूठी	-11.7818
▁आधुनिकीकरण	-11.7821
दूर	-11.7824
▁विसंगति	-11.7828
▁डेब्यू	-11.7832
▁मौर	-11.7832
▁ड्राइविंग	-11.7833
=	-11.7834
ज़ियर	-11.7835
▁कूटबद्ध	-11.7835
▁निरस्त	-11.7836
▁फ़्रांसिस	-11.7839
यहाँ	-11.7842
▁रिबन	-11.7843
▁अपरिवर्तनीय	-11.7843
▁तदनुसार	-11.7843
▁दुल्हन	-11.7843
▁प्रवर्तक	-11.7843
एफएम	-11.7844
▁वायरलेस	-11.7844
ाइड्स	-11.7847
▁लाइब्रेरी	-11.7847
▁डेयरी	-11.7848
▁कॉन्वेंट	-11.7848
रेंज	-11.7849
▁पैटरसन	-11.7852
▁झाड़ियों	-11.7856
▁आर्द्रभूमि	-11.7856
▁इवांस	-11.7857
धारा	-11.7862
स्पाइ	-11.7862
डोर्फ	-11.7865
ज़ोव	-11.787
▁शिपयार्ड	-11.7872
▁वीजा	-11.7873
▁डेढ़	-11.7873
क्रिस्ट	-11.7874
▁अवरोधन	-11.7877
▁अप्रचलित	-11.7881
▁अभिलेखों	-11.7883
डिज	-11.789
लंदन	-11.7896
▁अत्याचार	-11.7897
▁दांतों	-11.7899
प्रेम	-11.7899
▁दर्शाने	-11.7901
▁वॉयस	-11.7902
▁मॉरिसन	-11.7905
▁प्रतिबिंब	-11.7905
▁जैकेट	-11.7907
▁प्रतियोगिताएँ	-11.7908
ग्रह	-11.7914
▁आइसलैंड	-11.7917
▁योगदानकर्ता	-11.7922
▁मछलियों	-11.7922
▁स्विंग	-11.7925
वर्ण	-11.7925
▁रुडोल्फ	-11.7926
गुड	-11.7928
▁संध्या	-11.7931
▁चौकड़ी	-11.7932
▁तैराक	-11.7932
सरकारी	-11.7936
▁स्टेम	-11.7946
▁सच्चे	-11.7947
▁प्रत्यारोपण	-11.7948
रोमन	-11.7948
▁रैम्स	-11.7951
इंद्रधनुष	-11.7952
▁अविश्वास	-11.7954
लैब	-11.7955
▁निर्वहन	-11.7956
▁हैलिफ़ैक्स	-11.7956
फोर्ब्स	-11.7956
▁गाल	-11.7956
पेड	-11.7957
▁अरु	-11.7961
▁ताजा	-11.7962
▁मंगलवार	-11.7965
▁बेघर	-11.7967
▁बकर	-11.7968
▁पहनते	-11.7968
कर्ण	-11.7973
▁संचय	-11.7974
▁ऑपरेटिंग	-11.7977
उत्तरी	-11.7977
ऊपर	-11.7981
▁संपदा	-11.7985
▁तस्मानिया	-11.7986
▁फाल्क	-11.7987
यहूदी	-11.7987
▁एडि	-11.7989
एचएस	-11.7993
▁महंगे	-11.7994
▁सकल	-11.7999
▁लेनिन	-11.7999
▁गला	-11.8002
र्डन	-11.8005
▁सख्ती	-11.8007
▁बुद्ध	-11.8008
▁जोरदार	-11.8012
सैट	-11.8012
▁फर्नांडो	-11.8013
पुस्तक	-11.8013
▁अनुयायी	-11.8015
परिवर्तन	-11.8031
▁क्लारा	-11.8031
▁मेगावाट	-11.8031
उत्पाद	-11.8032
://	-11.8036
▁लोहा	-11.8036
▁द्रव	-11.8039
▁समझौतों	-11.804
▁डिज़नी	-11.804
▁नॉरफोक	-11.8048
▁व्यायामशाला	-11.8048
▁एस्ट्रो	-11.8049
▁रोमानिया	-11.8049
▁गुजरात	-11.8052
▁दफनाने	-11.8053
▁कैनो	-11.8054
▁नोबेल	-11.8055
▁झगड़ा	-11.8057
▁फुटपाथ	-11.8057
▁रैट	-11.8061
सदस्य	-11.8062
िटिक	-11.8064
▁वसा	-11.8074
▁बदलते	-11.8075
▁भुजा	-11.8079
▁मारियन	-11.8081
▁वसूली	-11.8082
रेली	-11.8084
▁हिच	-11.8085
▁घटाकर	-11.8087
▁एयरो	-11.8092
▁कब्रों	-11.8093
▁ट्रिम	-11.8094
▁भाग्यशाली	-11.8099
▁ज़ीलैंड	-11.81
▁छिपाने	-11.8103
▁मैकेंजी	-11.8104
▁कैन्टन	-11.811
▁एंटीना	-11.8112
▁जेनिफर	-11.8112
▁रुपये	-11.8112
▁पेटी	-11.8118
▁नाभिक	-11.8118
▁सिंचाई	-11.8121
▁ड्यूटी	-11.8122
केंद्रित	-11.8129
▁सर्कल	-11.813
▁ऐश	-11.8131
▁एकेडमी	-11.8134
स्कै	-11.8134
कोविक	-11.8137
वोड	-11.8139
डर्म	-11.8139
▁मेज़	-11.814
स्पिन	-11.8147
▁दाएँ	-11.8148
▁रणनीतियों	-11.8149
▁तटरेखा	-11.815
▁बेलफास्ट	-11.8152
▁कुओं	-11.8153
▁जितनी	-11.8155
▁मार्था	-11.8157
▁नीग्रो	-11.8164
▁पिक्चर्स	-11.8165
छोटे	-11.8169
▁रेखाएँ	-11.817
▁धब्बे	-11.8176
रेस्ट	-11.8177
्सवर्थ	-11.8179
▁लीसेस्टर	-11.818
▁निभाता	-11.8182
▁प्रतीकात्मक	-11.8189
▁धर्मार्थ	-11.8191
स्पष्ट	-11.8191
▁जिमना	-11.8192
▁स्टार्टर	-11.8193
क्रिप्ट	-11.8194
▁अनुपालन	-11.8197
▁खलीफा	-11.8198
▁चमकीले	-11.8198
▁ग्रांट	-11.8198
▁शेयरों	-11.8199
▁ट्रिगर	-11.8201
▁कश्मीर	-11.8202
▁गान	-11.8203
▁उलझ	-11.8205
▁लिंडसे	-11.8212
▁पहुँचता	-11.8214
▁ह्यूगो	-11.8214
▁संप्रभुता	-11.8215
▁डोरोथी	-11.8219
▁केनेथ	-11.8224
▁बोरिस	-11.8225
पेज	-11.8231
▁सोमरसेट	-11.8232
▁बढ़ना	-11.8232
▁डार्विन	-11.8233
▁निकलती	-11.8233
बिज	-11.8234
▁रिका	-11.8242
▁निंटेंडो	-11.8249
रिटा	-11.825
▁शार्प	-11.8251
▁पोर्टल	-11.8252
▁उगता	-11.8254
सौतेले	-11.8262
्युल	-11.8272
सिंथ	-11.8272
निर्माता	-11.8278
▁दाएं	-11.8282
लैम	-11.8283
डिस्क	-11.8284
▁चेतना	-11.8284
▁फाइन	-11.8284
शॉट	-11.8286
फ्रीड	-11.8286
▁ईमेल	-11.8287
▁पेरेज़	-11.8288
चुर	-11.8292
▁अल्स्टर	-11.8296
▁स्रोतः	-11.8296
▁भक्ति	-11.8296
▁एडविन	-11.8297
▁युद्धपोतों	-11.8298
▁उठाते	-11.8298
▁माउंटेन	-11.83
▁मिच	-11.8301
स्पेर	-11.8303
▁गेहूं	-11.831
विश्वास	-11.8311
प्रेरित	-11.8311
ट्रै	-11.8312
▁फ़्रैंक	-11.8316
▁स्प्रिंगफील्ड	-11.8316
▁वीरता	-11.8317
▁चर्चिल	-11.8318
▁राष्ट्रवाद	-11.8324
▁स्वायत्तता	-11.8326
▁शटल	-11.8333
▁अंगूर	-11.8333
▁होंठ	-11.8334
▁लेखिका	-11.8334
लिफ्ट	-11.8338
▁कूप	-11.8339
▁सब्सिडी	-11.834
▁बाल्डविन	-11.834
▁विश्वसनीयता	-11.8342
▁जनरेटर	-11.8345
▁एक्सप्रेसवे	-11.8346
▁संवेदनशीलता	-11.8346
▁माइल	-11.8347
▁शताब्दियों	-11.8349
▁गाथागीत	-11.8349
▁अणु	-11.8351
▁वर्णमाला	-11.8353
▁सुनहरे	-11.8354
हेवन	-11.8358
▁शासकों	-11.836
▁अलौकिक	-11.8366
कॉट	-11.837
▁संभोग	-11.8372
विलियम	-11.8374
▁बसें	-11.8377
▁विस्थापन	-11.8379
▁अंधेरा	-11.8382
▁तराजू	-11.8384
▁फ्रेंक	-11.8388
▁डिफेंस	-11.8388
▁डार्ट	-11.8389
li	-11.8391
▁हमलावरों	-11.8391
्फ़	-11.8394
▁हँस	-11.8399
▁उभयचर	-11.8401
▁पलटन	-11.8406
पंक्ति	-11.8408
▁लुका	-11.8408
क्रॉफ्ट	-11.8411
टॉम	-11.8411
▁चेसिस	-11.8418
िस्म	-11.8419
▁अमीरात	-11.8424
▁छुट्टियों	-11.8432
▁फिजी	-11.8432
प्रोट	-11.8433
ou	-11.844
मार्च	-11.844
▁छड़ी	-11.8444
लैग	-11.8445
▁कंपन	-11.8446
पृष्ठभूमिः	-11.8448
श्क	-11.845
उदा	-11.8452
▁वाल्श	-11.8453
▁छोड़ते	-11.8453
▁यूनान	-11.8454
▁ढुलाई	-11.8454
▁मैनेजर	-11.8454
▁एबीसी	-11.8455
फॉस्फेट	-11.8458
▁गुस्ताव	-11.8459
गंज	-11.8459
▁कैंडी	-11.8466
▁समझते	-11.8466
▁नाद	-11.8467
उत्तेजक	-11.8472
▁कर्नाटक	-11.8476
फॉर	-11.8477
▁ईमानदारी	-11.848
▁घूमते	-11.8481
▁विध्वंस	-11.8483
थलग	-11.8485
▁जूलियस	-11.8489
▁यथार्थवादी	-11.8491
पोर्	-11.8495
▁विधायक	-11.8498
▁मदरसे	-11.8502
कोम्ब	-11.8506
▁दिखाते	-11.8508
▁लायक	-11.8511
▁जियोवन्नी	-11.8516
इटालिया	-11.8516
▁उभरे	-11.8516
डोनेल	-11.8521
▁पैंट	-11.8522
▁फसलों	-11.8526
ंबर	-11.8526
▁जुलूस	-11.8529
▁कतार	-11.8532
▁लिमा	-11.8533
▁ग्रिफिन	-11.8535
स्पिरिट	-11.8536
▁क्लॉड	-11.8536
▁सर्वसम्मत	-11.854
▁बास्क	-11.8542
$	-11.8543
भूत	-11.8544
▁प्रतिच्छेदन	-11.8547
▁छापा	-11.8553
▁युवावस्था	-11.8556
कार्बन	-11.8556
▁ह्यूम	-11.8563
▁सोप	-11.8563
▁बोलिविया	-11.8565
▁आठवीं	-11.8566
▁बाल्टिमोर	-11.8569
▁सिल्वा	-11.8569
िबल	-11.857
▁गंध	-11.8572
▁चुनिंदा	-11.8574
▁इंडियानापोलिस	-11.8574
▁प्रभावशीलता	-11.8576
▁संस्थाओं	-11.8581
▁विन्स	-11.8581
▁संयोग	-11.8582
▁सिसिली	-11.8583
▁बल्गेरिया	-11.8586
▁पीटरसन	-11.8592
▁सद्भाव	-11.8596
▁वारसॉ	-11.8597
▁कनिष्ठ	-11.8599
▁दंगों	-11.8602
▁विघटित	-11.8605
▁अनुग्रह	-11.8605
▁ईर्ष्या	-11.8609
▁एरिज़ोना	-11.8609
▁साधनों	-11.861
टैक	-11.8613
िनिदाद	-11.8614
▁अमीन	-11.8616
▁डिक्सन	-11.862
▁पराग	-11.862
▁दीर्घा	-11.8621
▁यकृत	-11.8623
▁ताजे	-11.8623
ट्टो	-11.8628
▁उपराष्ट्रपति	-11.8628
▁घृणा	-11.8636
▁स्लोवाकिया	-11.8636
▁ऑलम्यूजिक	-11.8641
▁धागे	-11.8641
▁ज़िले	-11.8644
▁कवियों	-11.8644
नॉर्म	-11.8644
▁रिश्वत	-11.8645
▁थंडर	-11.8654
▁डिस्कोग्राफी	-11.8659
भगवान	-11.8661
बाल्ट	-11.8663
ामाइन	-11.8667
▁यूगोस्लाव	-11.8667
ज्जा	-11.8668
▁अभूतपूर्व	-11.8668
▁क्विंट	-11.8674
▁क्रमः	-11.8677
▁पुनर्विकास	-11.8677
▁अध्यादेश	-11.8677
▁नेटफ्लिक्स	-11.8681
युंग	-11.8687
▁बांसुरी	-11.869
िंगहैम	-11.8691
▁निकलते	-11.8693
प्रॉ	-11.8695
▁फ़्रैंज़	-11.8696
▁घूमता	-11.8704
▁पट्टा	-11.8704
▁रोमांचक	-11.8705
▁चिन्ह	-11.8707
▁आवर्ती	-11.8708
▁पनबिजली	-11.8708
▁बुद्धिमत्ता	-11.8708
▁पांडुलिपियों	-11.871
▁निक्सन	-11.8713
सामाजिक	-11.8713
ग्लाइ	-11.8715
▁गड्ढों	-11.8722
▁स्नेह	-11.8723
▁फिट्ज	-11.8724
▁ल्यूस	-11.8729
▁बचाता	-11.8731
ैंथ	-11.8731
आत्म	-11.8732
▁तर्कसंगत	-11.8733
▁वुड्स	-11.874
▁रियासत	-11.874
▁गवाहों	-11.8741
▁कार्बनिक	-11.8743
▁अलबामा	-11.8754
▁प्रत्यय	-11.8755
▁भेड़िया	-11.8756
▁रसद	-11.8759
▁फ़्रैंकोइस	-11.8765
▁प्रचालक	-11.8767
▁भड़क	-11.8768
▁स्पाइक	-11.8772
▁मैसेडोनिया	-11.8772
▁लॉरी	-11.8774
▁अंधेरे	-11.8775
▁वलय	-11.8776
▁चाह	-11.8777
स्ना	-11.8777
▁बेरोजगारी	-11.878
▁विल्हेम	-11.8782
▁प्रोडक्शंस	-11.8785
▁परिवर्तनशील	-11.8787
▁संगठनात्मक	-11.8789
▁माइंड	-11.8789
▁शॉपिंग	-11.8791
फ्रेम	-11.8791
कॉर्न	-11.8792
▁मोटरवे	-11.8795
थुर	-11.8795
▁जोड़ना	-11.8796
▁एटलांटा	-11.8804
▁निर्वाचक	-11.8804
उच	-11.8807
धारियों	-11.8813
▁कितने	-11.8814
▁पुनर्प्राप्ति	-11.8822
▁साठ	-11.8835
▁कारोबार	-11.8836
▁छड़	-11.8837
▁लापरवाही	-11.8845
सोर्स	-11.8845
▁रोवर	-11.8847
▁ढके	-11.8848
▁बस्तियाँ	-11.8849
लैटिन	-11.885
▁सातवीं	-11.8854
▁बेस्ट	-11.8858
▁पुनर्स्थापित	-11.8868
▁शील्ड	-11.8871
वाइन	-11.8873
▁ब्रिट	-11.8875
▁फरमान	-11.8881
▁जेनेट	-11.8885
▁आकृतियों	-11.8892
▁फेफड़ों	-11.8895
वेल्ड	-11.8898
प्रत्येक	-11.8899
▁सरदार	-11.8902
▁गैरेज	-11.8902
▁खींचने	-11.8902
जिन्होंने	-11.8908
▁लेविन	-11.891
▁स्टैन	-11.8914
▁सोचने	-11.8914
▁सबवे	-11.8918
स्केप	-11.8923
▁कार्लटन	-11.8927
▁गांधी	-11.8937
▁डालता	-11.8937
▁समृद्धि	-11.8951
▁पाठ्यपुस्तक	-11.8951
▁संयम	-11.8951
▁पेट्रोलियम	-11.8951
िलिया	-11.8952
▁कार्यस्थल	-11.8956
▁कॉलेजिएट	-11.8957
एंगे	-11.8958
▁डायमंड	-11.8958
▁लॉर्ड्स	-11.8959
▁वितरक	-11.896
▁स्टर्लिंग	-11.8961
▁फ़ु	-11.8964
▁पार्षदों	-11.8967
▁लाइनें	-11.8968
▁करेंगी	-11.8974
▁चां	-11.898
▁रियलिटी	-11.8983
बाहन	-11.8984
▁प्रतिलेखन	-11.8987
टिक्स	-11.8989
▁टैन	-11.8989
▁चॉ	-11.899
▁प्रचारक	-11.8996
▁मिश्र	-11.8997
▁घोंघे	-11.8997
▁वायरल	-11.8998
▁मुर्गी	-11.9
▁क्रॉफोर्ड	-11.9002
▁लैंकेस्टर	-11.9006
▁सिएटल	-11.9016
तापीय	-11.9016
▁स्तनधारियों	-11.9025
▁हाव	-11.9026
▁भाला	-11.9028
▁छीन	-11.9032
▁ग्वाटेमाला	-11.9034
▁नाजुक	-11.9034
▁कैलगरी	-11.9034
▁विचलन	-11.9039
▁कैसर	-11.9045
▁मंगोल	-11.9047
▁इला	-11.9047
▁मधुर	-11.9048
पीटर	-11.905
शाही	-11.9051
▁द्विवार्षिक	-11.9053
▁पैडल	-11.9057
▁मेपल	-11.9059
▁इंडोनेशियाई	-11.9061
▁सत्यापित	-11.9062
बूटियों	-11.9063
▁कैला	-11.9071
▁देखती	-11.9074
▁मौन	-11.9077
▁अनुवर्ती	-11.9077
▁क्राइस्ट	-11.9078
ाशय	-11.9084
▁जनेइरो	-11.9086
▁क्रूरता	-11.909
▁पहनाया	-11.9091
▁कारीगर	-11.9092
no	-11.9093
भौतिक	-11.9093
▁उत्प्रेरक	-11.9095
▁उत्साहित	-11.9096
▁एंथ	-11.9099
▁मार्ज	-11.9102
▁नलिका	-11.9103
▁मॉन्	-11.9104
▁फिसल	-11.9104
▁क्यूरेटर	-11.9105
डियर	-11.9108
▁डिप्टी	-11.9109
संख्या	-11.9113
▁ड्रॉप	-11.9116
स्टेबल	-11.9116
प्रणाली	-11.9118
इथ	-11.9118
हालाँकि	-11.9118
▁पैरालंपिक	-11.9119
साइक	-11.9119
▁मूर्तियाँ	-11.9121
▁आलू	-11.9121
ुसा	-11.9132
▁भूमध्य	-11.9134
▁गुहा	-11.9138
▁ब्रश	-11.914
सिप	-11.9141
▁निर्देशांक	-11.9142
फ्रैंक	-11.9142
प्लेट	-11.9144
▁वैसे	-11.9145
▁जेराल्ड	-11.9147
द्वीप	-11.9147
फ्रंट	-11.915
▁बिल्डर	-11.9156
▁कॉम्पैक्ट	-11.9156
▁ज्यामितीय	-11.9156
▁यूनेस्को	-11.9156
▁डेवलपर	-11.9157
▁पाल्	-11.9158
▁नोआ	-11.9159
▁जेरेमी	-11.9161
▁लुभा	-11.9165
▁स्मरण	-11.9166
▁मिकी	-11.9168
▁रुझान	-11.9171
▁सीक्वल	-11.9171
▁सूखी	-11.9172
▁सिंगल	-11.9175
▁कार्नेगी	-11.9175
निर्भर	-11.9178
अंध	-11.918
▁इब्राहिम	-11.918
▁परिसंचरण	-11.918
▁पशुधन	-11.918
ह्ल	-11.9182
युवा	-11.9183
▁व्यायाम	-11.9185
▁स्केच	-11.9188
▁इंद्र	-11.9189
▁कोष्ठक	-11.9191
▁श्मिट	-11.9191
▁जेफ्री	-11.9193
▁पॉलिन	-11.9193
▁इंटेल	-11.9193
▁पायस	-11.9194
▁सावधानी	-11.9194
▁जेनेवा	-11.9204
▁किंगस्टन	-11.9208
▁पहनी	-11.9209
कॉम्ब	-11.9212
स्क्यू	-11.9213
▁स्नाइडर	-11.9213
ग्रोव	-11.9213
▁पूर्वजों	-11.9217
▁आंत	-11.9219
धू	-11.9219
▁परिधि	-11.9223
▁डायलन	-11.9223
मणि	-11.9224
▁टेट्रा	-11.9227
▁किफायती	-11.9228
▁फ़े	-11.9228
▁सब्सट्रेट	-11.9232
ड्रम	-11.9232
▁उत्तेजित	-11.9242
▁इमेजिंग	-11.9242
▁लिब्रे	-11.9243
मेटो	-11.9244
पहली	-11.9247
▁मान्य	-11.925
▁मेट्रोपॉलिटन	-11.9251
▁राइडर	-11.9253
▁गुर्दे	-11.9261
▁विंटर	-11.9265
फ्रांस	-11.9265
▁धुएँ	-11.9266
▁बैठा	-11.9267
जहाँ	-11.9268
▁एल्गोरिदम	-11.927
▁पाँचवाँ	-11.927
ासदी	-11.9271
▁कौवे	-11.9271
▁साउथम्प्टन	-11.9275
▁रूढ़िवादियों	-11.9275
्जो	-11.9276
▁अमान्य	-11.9276
▁हॉफमैन	-11.928
डॉक्स	-11.928
▁ऑल्ट	-11.928
▁गद्य	-11.9285
▁सुस्त	-11.9286
▁स्प्रिंट	-11.9286
▁बदलती	-11.9288
▁काइले	-11.9288
जमिस्	-11.929
▁सैंटोस	-11.9291
▁ऊंची	-11.9294
▁हिमनद	-11.9294
▁ब्लेयर	-11.9296
▁व्यर्थ	-11.9299
साढ़े	-11.93
▁बैंग	-11.93
लिवर	-11.9303
▁समायोजन	-11.9304
▁चुंबन	-11.9309
▁आवेश	-11.9309
▁गेमप्ले	-11.931
▁अर्न	-11.9311
ुतापूर्ण	-11.9313
▁नाबालिग	-11.9314
▁मठाधीश	-11.9314
▁न्यूफाउंडलैंड	-11.9318
▁जूली	-11.9323
▁प्रतिष्ठानों	-11.9326
▁कामुकता	-11.9328
▁यादगार	-11.9328
लिपि	-11.9331
▁अस्वीकृति	-11.9333
▁डायनासोर	-11.9333
त्सा	-11.9335
▁यमन	-11.9339
▁सिटकॉम	-11.9342
▁गरिमा	-11.9343
▁जोशुआ	-11.9343
मेटिक	-11.9345
बेरिया	-11.9353
▁हड्डियों	-11.9357
िभोज	-11.9362
जिन्हें	-11.9363
▁टैप	-11.9364
आपके	-11.9367
▁स्टड	-11.9369
▁सैंटो	-11.9372
िंथ	-11.9372
▁फ्रॉम	-11.938
▁ग्रिफिथ	-11.9381
▁झूल	-11.9382
चुक	-11.9382
il	-11.9389
कल्चर	-11.9392
▁दलदली	-11.9394
शीर्ष	-11.9397
▁ईसाइयों	-11.94
▁क्लेन	-11.9402
▁गढ़ा	-11.9406
▁चौंका	-11.9406
▁चुंबक	-11.9406
▁स्टीरियो	-11.9415
▁अल्बनी	-11.9415
▁धोने	-11.9415
डक्ट	-11.9418
▁बंगाली	-11.9418
▁सभागार	-11.942
क्विट	-11.942
▁डालते	-11.9421
▁प्रतियाँ	-11.9421
▁निष्कासन	-11.9425
▁मुकाबले	-11.9429
▁वर्गाकार	-11.9439
▁पूर्णांक	-11.9444
▁डाइऑक्साइड	-11.9454
मेजबान	-11.9454
िस्लाव	-11.9454
िज्या	-11.9461
▁लिस्बन	-11.9464
▁स्ट्राइकआउट	-11.9464
ब्रिक	-11.947
▁फिल्टर	-11.9471
▁नवगठित	-11.9478
▁आत्मविश्वास	-11.9478
▁संख्यात्मक	-11.9483
रिकॉर्ड	-11.9485
▁बूंद	-11.9489
िंटन	-11.9492
▁वेशभूषा	-11.9493
▁स्विफ्ट	-11.9493
▁बतख	-11.9493
नारायण	-11.9493
▁पर्चे	-11.9495
▁छिड़	-11.9502
▁पद्धतिवादी	-11.9504
▁कथाएँ	-11.9516
▁संख्याओं	-11.9519
▁गेलिक	-11.9526
▁टिकाऊ	-11.9527
▁ब्रोम	-11.9532
सैंड	-11.9536
ेव्स्की	-11.9539
▁पेंगुइन	-11.9542
▁पतले	-11.9542
▁आरामदायक	-11.9547
▁एस्टोनिया	-11.9547
▁उगाहने	-11.9552
▁रुकने	-11.9552
▁शौकीन	-11.9557
नैतिक	-11.9561
▁दिलाया	-11.9562
ैंग	-11.9562
लेक्ट	-11.9563
ड्रू	-11.9564
▁क्लोन	-11.9567
▁कारखानों	-11.9571
▁बागवानी	-11.9576
पांड	-11.9576
▁उत्तराधिकारियों	-11.9577
▁मैक्सवेल	-11.9581
▁महाराष्ट्र	-11.9586
▁गाना	-11.9586
मेटाक्रिटिक	-11.9586
शॉक	-11.9587
▁पृष्ठीय	-11.9587
▁सेवामुक्त	-11.9591
ग्रू	-11.9592
▁ट्रेसी	-11.9592
मेडि	-11.9592
▁डुबो	-11.9594
▁क्रूज़	-11.9594
बियर	-11.9597
▁सैड	-11.9598
डिग	-11.9599
▁ओबेर	-11.96
▁हर्जेगोविना	-11.9601
▁फाड़	-11.9601
▁छिपे	-11.9602
राष्ट्र	-11.9603
▁रूपांतरित	-11.9606
▁योजनाएं	-11.9607
प्यार	-11.9609
▁ताओ	-11.9609
▁दिशाओं	-11.961
▁डरावनी	-11.9611
▁भेजता	-11.9612
▁परिधान	-11.9616
▁पोर्टुगल	-11.9616
क्वार्ट	-11.9616
▁भांग	-11.9617
साइक्ल	-11.962
▁शूरवीर	-11.9621
स्वप्न	-11.9621
▁हॉरर	-11.9622
▁लैप्स	-11.9623
▁वर्सेस्टर	-11.9626
जैक्स	-11.9627
▁रीमेक	-11.9629
▁प्लग	-11.963
▁फ्यूज	-11.963
▁तेलुगु	-11.963
▁प्रोविडेंस	-11.963
▁गुरिल्ला	-11.9635
▁किस्मों	-11.9636
▁गाथा	-11.9637
शाली	-11.9639
▁प्रागैतिहासिक	-11.964
▁स्टुअर्ट	-11.964
क्रिया	-11.9644
▁शुभंकर	-11.965
▁कचरा	-11.965
▁बीटल्स	-11.9653
उपयोग	-11.9655
▁पिछला	-11.966
▁चट्टानें	-11.9661
▁चार्ल्सटन	-11.9665
▁लोम्बार्ड	-11.9665
▁सास्काटचेवन	-11.967
▁उल्लू	-11.9676
km	-11.9678
स्ट्रैंड	-11.9678
▁गामा	-11.9679
▁प्रिंस्टन	-11.9679
स्क्रि	-11.9679
▁इलि	-11.968
▁उपभोक्ताओं	-11.968
▁लाउड	-11.9686
▁एंड्रॉइड	-11.969
▁बंधे	-11.9691
▁अणुओं	-11.9692
▁डोर्	-11.9694
▁कुत्ता	-11.9694
▁ब्रून	-11.9695
▁बुलडॉग	-11.9695
▁भूरा	-11.9698
▁लोब	-11.9702
▁भूखंड	-11.9705
▁तिरु	-11.9706
▁बिल्डिंग	-11.971
▁नदियाँ	-11.9715
ाइज़र	-11.9716
▁प्रतिवादियों	-11.9718
▁सममित	-11.972
▁परिसंघ	-11.9725
टैग	-11.9726
डेल्फ	-11.9726
▁जटिलताओं	-11.973
अभिभावक	-11.973
▁उटाह	-11.973
स्टॉर्	-11.9731
आरएस	-11.9732
▁बहता	-11.974
फिक्स	-11.9742
▁मरीना	-11.9744
▁जिब्राल्टर	-11.9745
▁प्लाज्मा	-11.9746
कंट्री	-11.9749
▁पुजारियों	-11.975
▁अर्न्स्ट	-11.975
▁स्लॉट	-11.9751
▁पहिये	-11.976
भारत	-11.9763
जिग	-11.9764
▁अल्जेरिया	-11.977
▁गैरीसन	-11.9772
▁फौ	-11.9774
व्यवस्था	-11.9777
▁पोर्टो	-11.9783
▁क्लाइड	-11.9785
▁झटका	-11.9785
▁फ्लू	-11.9785
▁एटलस	-11.9787
▁दोषसिद्धि	-11.979
▁रिकन	-11.9795
ol	-11.9795
▁चश्मे	-11.9795
▁सामग्रियों	-11.9795
▁रीगन	-11.9796
▁जॉकी	-11.9797
रेडियो	-11.9798
▁रोह	-11.9802
▁लीडर	-11.9812
▁दुखी	-11.9813
▁ओलंपिया	-11.9815
डॉट	-11.9817
फेरो	-11.982
▁रीति	-11.9823
▁पैगंबर	-11.9826
▁अखंडता	-11.9826
▁घाटियों	-11.9826
कॉर्ट	-11.9828
आधुनिकतावाद	-11.9831
्लु	-11.9834
▁पढ़ना	-11.9835
▁संलयन	-11.9836
पुथल	-11.9836
▁गुड़िया	-11.9841
▁ब्रुनो	-11.9844
▁सीईओ	-11.9846
▁प्रहार	-11.9849
▁डौग	-11.9849
▁मोलस्क	-11.9852
▁जातीयता	-11.9856
▁स्टर्	-11.9857
▁आवेदक	-11.9861
वृत्त	-11.9862
▁आतंक	-11.9868
▁सड़े	-11.987
संयोजक	-11.9871
▁स्थलाकृति	-11.9872
▁हेनरिक	-11.9872
ज़्ज़	-11.9872
▁वर्नन	-11.9872
पुराने	-11.9873
▁न्यायपालिका	-11.9876
▁स्पर्धा	-11.9876
▁कचरे	-11.9876
▁लौरा	-11.988
▁बुलाने	-11.9881
▁लुड	-11.9882
▁जानती	-11.9882
▁नक्काशीदार	-11.9883
▁लगाकर	-11.9883
▁रोजमर्रा	-11.9886
▁पुष्प	-11.9886
टोरिया	-11.989
▁शूरवीरों	-11.9891
▁तिब्बती	-11.9897
▁विंडो	-11.9899
पूरी	-11.9901
ोसॉरस	-11.9902
वुमन	-11.991
▁उपोष्णकटिबंधीय	-11.9922
▁पोर्टसमाउथ	-11.9922
▁प्रशस्त	-11.9924
▁फ्रेसर	-11.9931
ुलो	-11.9931
हैंड	-11.9934
▁स्वादिष्ट	-11.9937
▁डाकुओं	-11.9938
एमएलबी	-11.9944
▁आइव	-11.9944
िंडा	-11.9944
▁मुगल	-11.9946
।"(	-11.9948
▁ऊष्मा	-11.9953
▁फेडरेशन	-11.9953
▁मोंटेनेग्रो	-11.9953
▁बग	-11.9954
▁सूचियों	-11.9958
▁बूम	-11.996
▁योशि	-11.9961
▁वायुमंडलीय	-11.9961
▁कार्यशालाओं	-11.9962
स्थानीय	-11.9964
▁मिटा	-11.9966
▁पुनर्प्राप्त	-11.9967
▁ट्रंक	-11.9969
सार्वजनिक	-11.9972
▁मानविकी	-11.998
▁रेलमार्ग	-11.998
▁जलविभाजक	-11.9984
ट्रोप	-11.9986
▁एम्बुलेंस	-11.9989
▁रस्सी	-11.9989
▁फ्रीमैन	-11.9989
▁ट्रेवर	-11.9993
!!	-11.9995
▁पूर्वावलोकन	-11.9999
▁कोलम्बस	-11.9999
▁सस्ते	-12.0004
▁सैक्सोफोन	-12.0009
▁खेद	-12.001
जबकि	-12.0012
▁बेकार	-12.0013
▁वक्ताओं	-12.0019
▁स्कीइंग	-12.002
▁क्रु	-12.0022
ेंट्री	-12.0028
▁रोगजनक	-12.003
▁स्टालिन	-12.003
पॉड	-12.0032
▁वोंग	-12.0033
▁माल्ट	-12.0036
ल्हा	-12.0037
▁बजरी	-12.0038
▁चॉकलेट	-12.004
▁हेंड्रिक	-12.004
वित्त	-12.0043
▁कुटीर	-12.0045
▁बेदखल	-12.005
▁कसम	-12.0054
ro	-12.0054
▁निविदा	-12.0056
▁गाओ	-12.0056
आर्थिक	-12.0058
▁गैलो	-12.0059
and	-12.006
▁बधिर	-12.0061
▁बंडल	-12.0063
▁सवाना	-12.0067
▁सत्तारूढ़	-12.0071
▁सैल्मन	-12.0071
▁निचला	-12.0071
▁ग्रैन	-12.0075
किर्क	-12.0076
▁चेन्नई	-12.0076
▁किराने	-12.0078
▁पंक्तियाँ	-12.0079
▁चैपमैन	-12.0092
▁वैटिकन	-12.0092
▁प्रतिक्रियाएँ	-12.0093
चढ़ाव	-12.0101
▁अल्बानिया	-12.0102
▁स्पेशल	-12.0102
▁कुवैत	-12.0102
▁डेरेक	-12.0103
▁गर्ल्स	-12.0111
▁जलाने	-12.0111
▁कार्निवल	-12.0113
▁वर्चस्व	-12.0113
▁पियर्स	-12.0114
▁रैंप	-12.0115
चंद्र	-12.0116
छु	-12.0116
▁नॉर्टन	-12.0117
▁मिशनरियों	-12.0118
▁ज्वालामुखीय	-12.0119
▁ऑगस्टस	-12.0123
▁स्थिरांक	-12.0123
▁श्रवण	-12.0128
▁बोलियों	-12.0128
▁साइंसेज	-12.0129
सामने	-12.013
▁हाथीदांत	-12.0133
▁टीकाकरण	-12.0133
▁अंदरूनी	-12.0133
▁दिखाती	-12.0134
ंटाइन	-12.0134
▁ऑलिव	-12.0138
▁सुर्रे	-12.0143
▁अखिल	-12.0144
▁मुड़ता	-12.0144
▁सीबीएस	-12.0145
अर्थ	-12.0145
स्वीट	-12.0146
▁लून	-12.0149
ब्राइट	-12.015
▁संवहन	-12.015
▁विकासशील	-12.0151
महिलाओं	-12.0153
▁बाएँ	-12.0154
▁वॉटसन	-12.0159
▁दावत	-12.0162
▁लिनक्स	-12.0162
न्याय	-12.0162
▁मोनिका	-12.0163
▁आयर्स	-12.0166
▁लियोपोल्ड	-12.017
▁ब्रोंकोस	-12.0172
▁मंदी	-12.0173
▁गैबल	-12.0173
▁विश्वव्यापी	-12.0176
▁रचनाएँ	-12.0182
तिहाई	-12.0191
स्विले	-12.0191
▁बदनाम	-12.0192
▁मछुआरों	-12.0196
▁बैरेट	-12.0197
▁ओवरटाइम	-12.0198
▁श्वसन	-12.0202
▁फ्लैग	-12.0202
ोलॉजिस्ट	-12.0203
▁सैली	-12.0204
एक्शन	-12.0205
▁पद्धति	-12.0211
▁जिम्मेदारियों	-12.0212
▁जॉर्ग	-12.0213
कविता	-12.0215
▁वसीयतनामा	-12.0217
भोग	-12.0217
▁मान्यताओं	-12.0218
्निया	-12.022
▁वेश्या	-12.0222
्यूशन	-12.0224
लिसिस	-12.0228
▁प्रीमियम	-12.0228
▁असम	-12.0234
▁ग्रॉस	-12.0242
डोंट	-12.0243
▁लीप्जिग	-12.0243
▁मैडोना	-12.0243
▁लीजिए	-12.0249
▁मैनि	-12.0252
▁गैरकानूनी	-12.0254
▁मुलर	-12.0255
प्लास्ट	-12.0257
▁ध्वनियों	-12.0261
▁द्वीपसमूह	-12.0274
▁आइकन	-12.0274
ोइड्स	-12.0275
▁मकबरा	-12.0275
हिट	-12.0276
▁एंजेलो	-12.028
▁कनेक्ट	-12.0283
विट्ज़	-12.0287
▁शॉन	-12.0288
▁अपतटीय	-12.0291
▁डायरेक्ट	-12.0291
▁ताना	-12.0291
दर्शक	-12.0296
▁बॉम्बे	-12.0297
शियल	-12.0301
▁स्कैंडिनेविया	-12.0301
▁गुणांक	-12.0302
▁प्रीस्टन	-12.0311
▁दाख	-12.0313
▁सचेत	-12.0317
▁क्राइ	-12.032
▁अपोस्टोलिक	-12.0328
▁पोषक	-12.0328
▁रेगे	-12.0332
▁मार्क्सवाद	-12.0333
▁उपभोग	-12.0335
▁स्याही	-12.0339
▁बल्ले	-12.0339
▁असहमत	-12.0344
शियो	-12.0347
▁उत्तीर्ण	-12.0349
▁ध्वन्यात्मक	-12.0349
▁इवान्स	-12.035
पुट	-12.0353
क्वेट	-12.0354
▁इष्टतम	-12.0355
▁मुखौटा	-12.0355
▁धारणाओं	-12.0355
▁मिखाइल	-12.036
▁स्ट्राइक	-12.0364
▁सिंध	-12.0365
▁मानकीकृत	-12.0366
▁एबॉट	-12.0371
▁टोयोटा	-12.0376
▁सोमाली	-12.0376
▁कैम्ब	-12.0377
▁अधीनस्थ	-12.0378
▁सिलाई	-12.0379
चाइ	-12.0384
▁विषाक्तता	-12.0386
▁लातविया	-12.0387
▁हताहत	-12.039
ोरियन	-12.039
▁पुरस्कृत	-12.0392
▁पैराशूट	-12.0392
▁बांड	-12.0393
▁लकीर	-12.0398
▁सीडीपी	-12.04
▁घूमती	-12.0403
पातपूर्ण	-12.0404
▁कहें	-12.0405
▁उतारने	-12.0407
▁शौक	-12.041
▁हार्लेम	-12.0415
▁कार्डिनल्स	-12.0416
▁रीडिंग	-12.0418
▁जेरोम	-12.0418
ध्वनि	-12.0424
▁अल्बा	-12.0427
▁मेन्	-12.0428
जापानी	-12.0429
▁लक्ज़मबर्ग	-12.0429
लाइफ	-12.0431
▁स्तंभकार	-12.0433
▁फिलहार्मोनिक	-12.0435
▁संपीड़न	-12.0435
▁हेलसिंकी	-12.0435
▁समोआ	-12.0436
▁डचेस	-12.044
▁लाभान्वित	-12.044
▁<</	-12.044
▁मौतें	-12.0442
▁फंतासी	-12.0446
वाइज	-12.0449
दैनिक	-12.045
उसके	-12.045
▁मुल्	-12.0451
▁विशुद्ध	-12.0455
▁एक्सबॉक्स	-12.0455
संग्रह	-12.0459
▁डैश	-12.0467
▁मॉनिटर	-12.0467
▁सर्पिल	-12.0467
▁बिल्लियों	-12.0472
▁श्ले	-12.0473
▁ड्यूश	-12.0474
▁होल्डिंग	-12.0475
▁मॉस	-12.048
▁बर्मा	-12.0484
▁धातुओं	-12.0488
▁बेसिलिका	-12.0489
▁जादुई	-12.0489
▁स्टंट	-12.0491
▁सुदृढीकरण	-12.0494
बाउंड	-12.0494
▁चेकोस्लोवाकिया	-12.0497
▁बिकीं	-12.0505
▁बर्च	-12.0505
▁स्प्रे	-12.051
▁उंगली	-12.051
▁अकाल	-12.0514
▁बिहार	-12.0515
▁कमोडोर	-12.0516
▁शैवाल	-12.052
▁नाट्य	-12.0521
स्टेशन	-12.0522
▁एंगेल	-12.0525
ठीक	-12.0527
▁करूँगा	-12.0532
▁बैडमिंटन	-12.0532
▁डंडी	-12.0532
मृत	-12.0532
ट्रिक्स	-12.0544
▁क्रैन	-12.0551
▁मिलेगा	-12.0553
▁द्वीपवासी	-12.0554
▁कुरान	-12.0559
ब्लास्ट	-12.0559
स्ट्रिक	-12.0564
▁बारबरा	-12.0573
जर्मेन	-12.0574
▁चुनौतीपूर्ण	-12.0578
▁हिसाब	-12.0581
▁मधुमेह	-12.0586
स्टैंड	-12.0597
▁संवेदक	-12.0597
▁ट्यूनिसिया	-12.0597
▁धमनी	-12.0598
▁अल्बानियाई	-12.0598
▁एलिज़ाबेथ	-12.0603
व्यवस्थित	-12.0604
▁साइकिलिंग	-12.0604
▁गुफाओं	-12.0605
रहित	-12.0606
▁ब्रह्म	-12.0608
धार्मिक	-12.0608
▁सर्वोत्तम	-12.0614
▁प्रकाशस्तंभ	-12.0614
▁मैकार्थी	-12.0616
ायत	-12.062
▁पॉवेल	-12.0624
▁तितली	-12.063
▁डिक्री	-12.0632
▁हैंडबॉल	-12.0636
िंच	-12.0637
▁सिगरेट	-12.0641
▁सरणी	-12.0647
फुटबॉलर	-12.0649
माइकल	-12.0653
▁रैंडी	-12.0661
▁बुल्गारिया	-12.0663
▁मीठे	-12.0663
▁बराक	-12.0665
▁बैठकें	-12.0668
▁दर्दनाक	-12.0668
▁मेमोरी	-12.0674
▁भूस्खलन	-12.0679
▁फैलाने	-12.0682
▁बंधा	-12.0683
▁मनु	-12.0684
▁पॉटर	-12.0686
▁दाढ़ी	-12.069
▁राजप्रतिनिधि	-12.0691
▁डेविडसन	-12.0692
च्ट	-12.0699
विषय	-12.0699
▁बुनाई	-12.0702
अंतर्राष्ट्रीय	-12.0706
पहला	-12.0706
▁फ्लाइंग	-12.0707
▁टस्क	-12.0708
धारक	-12.071
▁जुटाए	-12.0713
िल्ला	-12.0714
▁स्टेक्स	-12.0715
▁क्रमबद्ध	-12.0716
ऑस्ट्रेलियाई	-12.0716
▁सोफी	-12.072
गुप्त	-12.0725
▁पिशाच	-12.0729
गिटार	-12.0729
▁मूवी	-12.0734
▁आनुपातिक	-12.0735
▁अटारी	-12.0735
▁सराहा	-12.0735
▁जेनकिन्स	-12.0736
▁जॉयस	-12.0737
▁यूएसएसआर	-12.0742
ब्यूट	-12.0745
▁सिलिकॉन	-12.0746
▁महंगा	-12.0747
▁कैमरों	-12.0748
▁मर्सिडीज	-12.0757
▁कंप्यूटिंग	-12.0762
▁तृतीयक	-12.0762
▁प्रताड़ित	-12.0762
▁ब्राह्मण	-12.0762
▁नॉर्डिक	-12.0762
ac	-12.0768
सुंदर	-12.0772
▁पाशा	-12.0772
आपको	-12.0777
▁पैंथर्स	-12.0779
▁सेमिनार	-12.0784
▁गोलार्ध	-12.0785
▁फोटोग्राफिक	-12.0785
▁मकड़ी	-12.0785
▁दिलाई	-12.0786
शॉप	-12.0787
▁अनिश्चितता	-12.0787
▁नापसंद	-12.079
▁ऋषि	-12.0796
▁मज	-12.0797
▁बेत	-12.0797
▁मार्टिनेज	-12.08
▁प्रविष्टियों	-12.0803
▁अनिच्छा	-12.0807
▁शाकाहारी	-12.0807
▁मेयो	-12.0808
▁जनवादी	-12.0814
▁पीतल	-12.0814
कॉर्	-12.0814
▁हॉज	-12.0815
▁कठपुतली	-12.0818
ोफोन	-12.0822
▁इंटरचेंज	-12.0823
ऑक्ट	-12.0831
▁डार्लिंग	-12.0835
▁कॉर्नेल	-12.0838
▁धर्मयुद्ध	-12.0838
▁होल्डिंग्स	-12.0844
▁अनिच्छुक	-12.0846
▁पॉलिटेक्निक	-12.0846
▁बार्सिलोना	-12.0846
▁बहुपद	-12.0846
▁ह्	-12.0847
बुर्	-12.0856
▁भृंग	-12.0857
वोल्फ	-12.0858
सिलिया	-12.0859
▁एडगर	-12.086
▁साइक्लो	-12.0863
स्टार्स	-12.0864
▁पर्सी	-12.0864
▁कैनवास	-12.0867
सिओन	-12.0868
▁नैश	-12.0873
स्टैट	-12.0876
▁कैनबरा	-12.0881
▁व्योमिंग	-12.0885
▁दीपक	-12.0892
▁तार्किक	-12.0896
▁धक्का	-12.0897
▁बढ़ाते	-12.0904
एड्स	-12.0906
▁कंडक्टर	-12.0908
▁गुजरना	-12.091
▁पढ़ाते	-12.0912
▁पैरवी	-12.0913
▁असंतोष	-12.0919
▁फाल्	-12.0924
▁गीले	-12.0924
▁चढ़ने	-12.0928
▁अपडेट	-12.0928
▁रोशन	-12.0931
▁अवरोध	-12.0933
एशिया	-12.0933
▁ड्राइंग	-12.0936
▁राजद्रोह	-12.0941
अक्सर	-12.0946
▁एकाग्रता	-12.0947
▁राज्याभिषेक	-12.0947
▁सीमांत	-12.095
▁सपनों	-12.0953
डेविड	-12.0955
ट्राइ	-12.0955
्सबरी	-12.0956
पाँच	-12.0958
भविष्य	-12.0958
▁जगुआर	-12.0958
▁कैल्विन	-12.0963
▁उतन	-12.0964
▁फ्रांसिसको	-12.0965
▁लैंकाशायर	-12.097
▁मेकअप	-12.097
▁फिटनेस	-12.0971
el	-12.0973
▁बेहोश	-12.0976
▁एयरोस्पेस	-12.0981
▁xii	-12.0983
प्रिंट	-12.0987
ड्रोम	-12.0989
▁दूषित	-12.0992
▁मिन्नेपोलिस	-12.0992
निष्ठ	-12.0992
▁उन्नीस	-12.1006
▁जेसिका	-12.101
▁कमांडो	-12.1011
बढ़ी	-12.1012
्रिन	-12.1014
▁प्राइस	-12.1016
▁प्रदाताओं	-12.1016
प्राकृतिक	-12.1017
▁मौद्रिक	-12.1021
▁नील्सन	-12.1029
▁प्रभार	-12.1032
।..]	-12.1032
▁पेट्रोल	-12.1035
▁एलजीबीटी	-12.1038
▁हस्तांतरित	-12.1038
▁सम्मानजनक	-12.1038
▁कलेक्टर	-12.1038
▁ट्रामवे	-12.104
▁मीट्रिक	-12.1042
▁वॉइ	-12.1042
▁युवक	-12.1049
▁मोर्टार	-12.1049
▁मॉरिस	-12.1052
ोग्राफिक	-12.1054
▁विजिटिंग	-12.1055
▁सैंडर्स	-12.106
▁टेक्नोलॉजी	-12.1066
▁अपघटन	-12.1072
▁देशभक्तों	-12.1072
▁परिधीय	-12.1072
▁बवेरिया	-12.1078
▁नोएल	-12.1081
गुआन	-12.1082
▁चाक	-12.1083
्विल	-12.1083
रिज़ॉल्यूशन	-12.1084
्मजीव	-12.1086
▁आँकड़े	-12.1095
▁प्रतिध्वनि	-12.1095
▁वादे	-12.11
▁लैम्बर्ट	-12.1103
फिड	-12.1106
▁जेस्से	-12.1107
मोंड	-12.1107
▁निकोल्स	-12.1117
▁साबुन	-12.1124
▁एशले	-12.1125
▁टोरोंटो	-12.113
▁हैदराबाद	-12.113
वर्धित	-12.113
सोप्रानो	-12.113
▁परिपूर्ण	-12.113
▁स्क्वै	-12.1134
▁खाती	-12.1134
पीडी	-12.1142
▁जीमिना	-12.1144
▁नाइट्रोजन	-12.1147
▁स्नैप	-12.1153
▁मैक्सिम	-12.1153
▁मिलीग्राम	-12.1153
▁ब्रैक	-12.1153
▁ट्रांसजेंडर	-12.1158
स्पॉ	-12.116
कनाडा	-12.1164
▁सॉफ्टबॉल	-12.1164
प्रवाह	-12.1166
▁स्तनधारी	-12.117
प्रेत	-12.1171
▁सोचते	-12.1172
पहिया	-12.1173
▁विश्लेषणात्मक	-12.1173
इस्लाम	-12.1173
▁लाइब्रेरियन	-12.1176
▁हतोत्साहित	-12.1176
▁नियत	-12.1176
▁प्रसाद	-12.1178
दूसरा	-12.1179
जिनमें	-12.1182
▁डेमोक्रेट	-12.1182
▁माउस	-12.1187
▁सियोल	-12.1189
▁चुड़ैल	-12.1193
▁जमानत	-12.1193
▁श्रे	-12.1196
▁कोलेमैन	-12.1202
▁पूछता	-12.1203
▁एंग्	-12.1205
▁राइस	-12.1206
▁तैरते	-12.1207
▁मैसेडोनियन	-12.121
▁रहमान	-12.1216
सच्चा	-12.1222
▁मनोरोग	-12.1222
▁विकिपीडिया	-12.1228
▁सीखना	-12.1231
▁शादीशुदा	-12.1234
▁ड्राई	-12.1241
▁अवशोषण	-12.1245
▁पत्तों	-12.1246
पुनर्	-12.1246
▁बर्गेन	-12.1248
▁एस्ट्र	-12.1263
▁मोज़ेक	-12.1263
▁पाब्लो	-12.1263
▁ठहराव	-12.1268
गार्टन	-12.1273
▁अपराजित	-12.1274
▁डाउ	-12.1278
▁ज़ुरिच	-12.1282
▁आउटडोर	-12.1283
▁ओमाहा	-12.1286
▁विश्वासघात	-12.1286
▁सुपरमार्केट	-12.1288
▁व्युत्क्रम	-12.1292
कृपया	-12.1298
श्च	-12.13
▁वाइकिंग्स	-12.1305
▁विपुल	-12.1307
▁शिशुओं	-12.1308
क्लोरो	-12.1309
रॉबिन	-12.1313
▁सीमावर्ती	-12.1314
▁यूएसएस	-12.1315
अलविदा	-12.1316
▁पठन	-12.1316
▁इंडियन	-12.1317
▁उठाना	-12.1318
बिंदु	-12.1319
शाब्दिक	-12.1319
▁तांग	-12.1325
▁माताओं	-12.1326
▁धब्बों	-12.1327
▁संन्यास	-12.1328
▁मायर्स	-12.133
▁लैंगिक	-12.1331
▁स्टीमर	-12.1334
▁ताबूत	-12.1339
▁काउंटेस	-12.1342
▁डंक	-12.1345
▁जुटाया	-12.1345
▁स्पाइडर	-12.1345
▁वैधानिक	-12.1355
▁फेरारी	-12.1357
▁बंग	-12.1359
▁समतुल्य	-12.1362
▁ओसाका	-12.1363
▁सेंसरशिप	-12.1363
▁घिरी	-12.1363
अरब	-12.1365
▁आर्लिंगटन	-12.1368
▁भतीजी	-12.1368
पेरो	-12.1369
▁मानहानि	-12.1374
▁टच	-12.1378
▁हारोल्ड	-12.1379
▁महमूद	-12.138
▁इआन	-12.138
▁आंगन	-12.1381
▁आतंकवादियों	-12.1381
▁अंधा	-12.1381
▁स्पार्टन	-12.1382
▁डिपार्टमेंट	-12.1386
▁आंखें	-12.1387
सोवियत	-12.1387
▁बुलाए	-12.139
▁गैल्	-12.1392
▁पैंतरेबाज़ी	-12.1392
▁महंगी	-12.1399
▁ड्रग्स	-12.1399
▁घराने	-12.14
▁प्रसव	-12.1407
▁गोमेज़	-12.141
▁रखेंगे	-12.141
▁भेड़िये	-12.1411
▁संवाददाताओं	-12.1413
▁कर्लिंग	-12.1422
▁इमाम	-12.1422
▁निजीकरण	-12.1424
▁कागजात	-12.1427
▁डॉल्फिन	-12.1427
mi	-12.1429
▁खाया	-12.1429
▁कोलकाता	-12.1433
फोंटेन	-12.1436
फ़्रैं	-12.1436
▁सिनक्लेयर	-12.1439
▁जीवाणु	-12.1445
फैंट	-12.1451
आइस	-12.1454
▁कैमियो	-12.1456
▁अप्रयुक्त	-12.1457
▁मनोचिकित्सा	-12.1457
▁दिलाता	-12.1458
▁वॉलेस	-12.1459
▁पनडुब्बियों	-12.1463
▁भरपाई	-12.1463
फ्लीट	-12.1467
अभिनय	-12.1468
▁टिमोथी	-12.1469
▁प्राणियों	-12.1475
▁अपरिहार्य	-12.1481
▁आंध्र	-12.1481
▁आर्सेन	-12.1496
पीछे	-12.1498
▁तनावपूर्ण	-12.15
▁प्लास्टर	-12.151
▁विनीपेग	-12.1511
ट्वि	-12.1513
जुलता	-12.1517
▁रिसेप्टर्स	-12.1519
मेट्रिक	-12.152
▁सूर्यास्त	-12.1523
▁लैगून	-12.1523
▁भोज	-12.1526
ग्रैंड	-12.1526
क्लॉ	-12.1528
्रिग	-12.1528
सायन	-12.1528
ड्राइव	-12.1533
▁बदतर	-12.1535
▁रिसर्च	-12.1541
▁बेंड	-12.1544
ड्रॉ	-12.1553
▁चमगादड़	-12.1553
▁वानिकी	-12.1553
▁तुच्छ	-12.1554
▁ट्राउट	-12.1559
ल्ट्ज	-12.156
लिटिल	-12.1563
ह्र	-12.1564
ोविट्ज़	-12.1565
▁संक्रामक	-12.1565
▁संतोषजनक	-12.1565
▁वर्डे	-12.157
▁अमृत	-12.1572
▁हेरिटेज	-12.1577
▁स्केटर	-12.1578
▁एडिसन	-12.1582
▁चार्टर्ड	-12.1582
▁मालकिन	-12.1582
वर्म	-12.1583
क्विस्ट	-12.1584
▁रिंक	-12.1587
▁विकृति	-12.1588
▁देशभक्ति	-12.1589
▁हार्टफोर्ड	-12.1589
ब्रेकर	-12.1589
▁नवजात	-12.1595
▁मानती	-12.1597
लैंग	-12.1598
▁बकाया	-12.1598
ोपोड	-12.1602
फ्राइड	-12.1605
▁लड़ाइयों	-12.1607
▁जूडो	-12.1615
▁फार्	-12.1618
▁निकारागुआ	-12.1619
रविवार	-12.1625
डोमिन	-12.1626
▁सैक्सनी	-12.1627
▁सिरिल	-12.1629
सूचना	-12.163
▁किलोवाट	-12.1631
इसलिए	-12.1631
▁ऑक्साइड	-12.1633
भूरे	-12.1637
▁अपरिवर्तित	-12.1637
▁वंशानुगत	-12.1637
▁अब्बास	-12.1639
▁क्राको	-12.1642
▁बगदाद	-12.1643
▁पोर्टेबल	-12.1649
▁वाटसन	-12.165
▁अंडाशय	-12.1655
▁फ़िल्टर	-12.1655
पैट्रिक	-12.1658
▁रिपब्लिक	-12.1661
ानंद	-12.1661
विजन	-12.1662
▁अप्रवासियों	-12.1668
सैन्य	-12.168
▁कस्बों	-12.168
▁चादर	-12.168
आश	-12.1683
िज़्म	-12.1684
▁पत्नियों	-12.1686
▁वाचा	-12.1687
▁पॉकेट	-12.1687
▁संपन्न	-12.1692
पारंपरिक	-12.1695
▁गॉस्पेल	-12.1698
▁ट्रॉय	-12.1704
▁तंजानिया	-12.1704
सम्मान	-12.1708
▁दुर्घटनाओं	-12.1712
▁बारहमासी	-12.1716
▁बर्फबारी	-12.1717
▁पश्च	-12.172
▁फव्वारे	-12.1722
▁सिंडिकेट	-12.1728
▁बिताते	-12.1728
▁नामीबिया	-12.1729
▁आरेख	-12.1729
▁आइसलैंडिक	-12.1729
▁कॉटेज	-12.1735
▁पहेली	-12.1735
▁सिक्का	-12.1736
▁पैकेट	-12.174
▁निम्नानुसार	-12.1741
▁स्क्रैप	-12.1741
▁फूड	-12.1744
▁एजुकेशन	-12.1753
▁तालिबान	-12.1753
▁रिटर्न	-12.1755
▁अम्ल	-12.1756
▁ज़ागरेब	-12.1759
▁ब्रायंट	-12.1759
▁नंद	-12.1762
▁आल्प्स	-12.1765
▁टाइटन्स	-12.1769
जागरूक	-12.1771
▁सोडियम	-12.178
ुद्दीन	-12.178
क्रांति	-12.1784
पाउंड	-12.179
la	-12.1792
▁वायुमंडल	-12.1795
▁मलयालम	-12.1796
▁सनकी	-12.1798
▁एंटवर्प	-12.1802
▁नॉर्विच	-12.1802
कनाडाई	-12.1803
▁सौतेली	-12.1808
▁सेंटीमीटर	-12.1808
▁कारभारी	-12.1808
▁कार्ट्रिज	-12.1809
बिल्ड	-12.181
▁अंपायर	-12.1821
▁सहिष्णुता	-12.1821
हंगेरियन	-12.183
फ़िश	-12.1831
▁लुंड	-12.184
▁रिकार्डो	-12.1845
▁विनियोग	-12.1851
▁फ़र्	-12.1855
▁गॉथिक	-12.1858
▁सचिवालय	-12.1858
▁अजनबी	-12.1858
छेद	-12.186
▁कंटेनर	-12.1864
▁एलेनोर	-12.1865
▁मेनू	-12.1867
खिलाड़ी	-12.1868
▁परिसंपत्ति	-12.1869
▁ब्लैंच	-12.187
संयुग्म	-12.187
▁बजाता	-12.187
▁हिम्मत	-12.1882
कोशिकीय	-12.1889
▁प्रूसिया	-12.1895
▁बोलचाल	-12.1895
▁कैटलॉग	-12.1896
▁सुपरहीरो	-12.1896
बेंज	-12.1899
▁उद्घोषक	-12.1901
▁माइगुएल	-12.1901
बाध्यकारी	-12.1904
▁डेस्क	-12.1905
▁सदमे	-12.1914
▁नर्सरी	-12.1921
▁एलएलसी	-12.1926
▁सिलि	-12.1927
▁उपसर्ग	-12.1932
▁हर्लिंग	-12.194
▁मौकों	-12.1942
▁प्रूशियन	-12.1945
▁जेरार्ड	-12.1945
▁सर्वनाम	-12.1946
▁लोरेंजो	-12.1957
पेरिस	-12.1958
ेनहैम	-12.1958
▁बुलेटिन	-12.1963
▁स्पीकर	-12.1964
▁जियोफ्रे	-12.1965
▁ठहराने	-12.197
▁यूरेनियम	-12.197
▁लेखांकन	-12.197
▁लालटेन	-12.1973
▁कैमरून	-12.1976
▁अपलोड	-12.1976
▁ढह	-12.1977
▁ऊंचे	-12.1982
शानदार	-12.1984
प्रदर्शन	-12.1992
▁टकसाल	-12.1995
▁उत्परिवर्ती	-12.1995
▁एबरडीन	-12.1995
छोटी	-12.1999
▁थर्मो	-12.2004
▁हार्बर	-12.2005
▁भक्त	-12.2005
▁पिल्	-12.2007
▁लैक्रोस	-12.2007
स्लिगा	-12.2008
▁यूनिट	-12.2009
शिकागो	-12.2012
▁कैल्शियम	-12.2014
▁सैयद	-12.2014
▁ल्यूसि	-12.2014
▁नैप	-12.2022
▁मर्लिन	-12.2025
▁लातवियाई	-12.2027
पृथ्वी	-12.2032
▁सैंट	-12.2032
▁पृथक्करण	-12.2032
▁चेरोकी	-12.2032
▁वाटरलू	-12.2035
िप्रे	-12.2044
▁कम्प्यूटेशनल	-12.2045
▁बाईपास	-12.2045
अप्रैल	-12.2045
▁डैनिश	-12.2049
▁सर्वोपरि	-12.2051
▁घिरे	-12.2051
▁बार्नेस	-12.2055
▁प्लेटफार्म	-12.2055
▁संवादात्मक	-12.2056
▁गिराया	-12.2061
▁टकर	-12.2067
▁वॉल्यूम	-12.2069
▁महासभा	-12.207
बंदूक	-12.2074
▁चिमनी	-12.2077
▁प्रेषण	-12.2083
▁निहितार्थ	-12.2084
▁भाले	-12.2085
▁श्रेष्ठ	-12.2089
▁ओरिएंटल	-12.209
▁फ़ॉन्ट	-12.2096
▁ग्लोसेस्टर	-12.2102
▁एग्नेस	-12.2106
▁दुर्भाग्यपूर्ण	-12.211
किर्च	-12.2112
▁न्यासियों	-12.2112
▁संतुष्टि	-12.2114
▁जेवियर	-12.2116
▁व्यवधान	-12.2121
▁एथेल	-12.2125
▁कन्नड़	-12.2127
क्वेस्ट	-12.2129
इतिहास	-12.2131
▁फायदा	-12.2134
▁आकां	-12.2134
▁नर्तकियों	-12.2137
गृह	-12.2138
▁ड्रेस्डेन	-12.214
▁एस्टोनियन	-12.214
स्वर्ग	-12.2142
▁फिगर	-12.2151
▁चार्लोट	-12.2154
▁अंगोला	-12.2155
लंबे	-12.2159
▁फर्गुसन	-12.2159
▁नेलसन	-12.2164
▁लचीले	-12.2166
▁चाइना	-12.2166
▁फिट्जगेराल्ड	-12.2172
लुईस	-12.2173
इंजन	-12.2178
▁असंबंधित	-12.2178
▁लार्सन	-12.2185
▁सादे	-12.2191
▁गुमनाम	-12.2191
▁डॉजर्स	-12.2191
▁प्रयोगशालाओं	-12.2191
मिथ	-12.2193
थोर्प	-12.2202
▁बाल्कन	-12.2204
्टायर	-12.2211
आयरिश	-12.2212
▁म्यांमार	-12.2223
▁नाश्ते	-12.2223
फ्रिड	-12.2228
▁पुनर्वितरण	-12.2236
▁हेवीवेट	-12.2236
▁उपनिवेशवाद	-12.2236
व्हाइट	-12.2238
▁धूमकेतु	-12.2242
▁चिल्लाया	-12.2242
▁कैंपबेल	-12.2244
अच्छा	-12.2245
▁मनोदशा	-12.2249
▁महानिदेशक	-12.2249
ियोलॉजी	-12.225
▁संवर्धन	-12.225
▁टॉर्क	-12.2268
▁फायदेमंद	-12.2268
▁वासिल	-12.227
एपिसोड	-12.2272
▁लपेट	-12.2272
▁तात्पर्य	-12.2281
▁जिमनास्टिक	-12.2281
▁इवेंजेलिकल	-12.2288
▁सांत्वना	-12.2288
▁सोमालिया	-12.2288
▁प्रेयरी	-12.2288
▁दोगुनी	-12.2288
▁अल्फोंसो	-12.2293
▁अनुनाद	-12.2294
▁बहनोई	-12.2294
ेनस्टीन	-12.2299
▁परिस्थितियाँ	-12.2301
रूढ़िवाद	-12.2306
▁अविवाहित	-12.2307
▁अलंकृत	-12.2314
हल्क	-12.2314
▁ट्रैक्टर	-12.2314
▁रीजेंट	-12.2316
▁आवेग	-12.232
▁प्रतिध्वनित	-12.2323
ुटियों	-12.2332
▁छावनी	-12.2333
▁कैथी	-12.2334
▁घोल	-12.2337
▁रैंडल	-12.2337
▁किंवदंतियों	-12.2339
▁सदिश	-12.234
▁अस्थि	-12.234
गैंब	-12.2343
काल्पनिक	-12.2347
▁इरविंग	-12.2353
▁शंकर	-12.2353
लोगों	-12.236
▁तोड़फोड़	-12.2365
▁प्रवचन	-12.2365
▁फार्मेसी	-12.2366
▁संवेदी	-12.2366
▁धरोहर	-12.2372
▁स्क्रॉल	-12.2372
▁शतक	-12.2372
▁साइबेरिया	-12.2373
▁ब्लैकबर्न	-12.2377
▁अनुप्रयुक्त	-12.2379
▁कैस्केड	-12.2379
▁ब्रिटनी	-12.2384
▁लाइनबैकर	-12.2385
▁इस्तांबुल	-12.2398
▁नजरबंद	-12.2398
▁रजिस्ट्री	-12.2398
▁रेबेक्का	-12.2398
▁विडंबना	-12.2405
▁स्वीकारोक्ति	-12.2405
ग्लियो	-12.2407
▁टोकरी	-12.2425
▁मोर्चा	-12.2426
▁कराधान	-12.2431
▁क्रॉनिकल	-12.2431
हीरो	-12.2432
िभुज	-12.2434
▁चेशायर	-12.245
नागरिक	-12.2453
भारतीय	-12.2454
▁सुअर	-12.2455
▁शिथिल	-12.2457
▁पुनर्जन्म	-12.2458
▁ट्वीट	-12.2459
प्रवण	-12.246
▁बिरादरी	-12.2464
▁व्हीलचेयर	-12.2464
▁वित्तपोषित	-12.247
▁लाहौर	-12.247
▁अप्रभावी	-12.247
म्बु	-12.2471
▁तुलसी	-12.2471
▁विद्युतीकरण	-12.2477
▁अलेक्जेंड्रा	-12.2478
▁भावी	-12.2481
▁विखंडन	-12.2483
▁पर्याय	-12.2484
▁फिलीप	-12.2488
ra	-12.2489
▁आईट्यून्स	-12.249
▁क्रॉसओवर	-12.2499
▁रक्तस्राव	-12.2503
▁स्टटगार्ट	-12.2503
▁सिंथेटिक	-12.2503
ुल्ला	-12.2506
▁पर्किन्स	-12.2517
इस्त	-12.252
थ्रू	-12.252
▁मेहमान	-12.2522
▁तकनीशियन	-12.253
अलेक्जेंड्र	-12.2535
▁फुजि	-12.2548
▁स्राव	-12.2554
▁लिम्फ	-12.2556
मैकेनिकल	-12.2556
▁हाइड्रोलिक	-12.2557
▁बहरीन	-12.2557
▁बैंकॉक	-12.2561
▁ग्रीनविच	-12.2562
▁स्मे	-12.2569
▁सेनेगल	-12.2571
▁दैर्ध्य	-12.2576
▁समयरेखा	-12.2583
▁लिस्	-12.2584
▁कोल्ट्स	-12.2585
▁सैंडविच	-12.2585
▁आर्मेनियन	-12.2589
संरचना	-12.2591
मॉडल	-12.2595
▁रूबेन	-12.2595
जुलाई	-12.2597
निश्चित	-12.26
▁ब्रासिल	-12.2601
▁पत्ती	-12.2603
शासित	-12.2608
▁झगड़े	-12.2609
▁सल्फर	-12.2611
क्रेस्ट	-12.2614
▁पागलपन	-12.2617
्टुर	-12.2623
▁ढाका	-12.2629
▁तंबू	-12.2634
पेशेवर	-12.2636
▁फॉल्ट	-12.2637
▁पिक्चर	-12.2641
▁लोअर	-12.2642
▁रैंडोल्फ	-12.2643
▁ब्लेज़	-12.2655
▁एल्बियन	-12.2655
▁लाभदायक	-12.2656
▁सुससेक्स	-12.2656
▁सिखाने	-12.2656
▁निदेशालय	-12.2663
▁सिकुड़	-12.2663
वाशिंगटन	-12.2665
▁नाखून	-12.267
▁निर्विरोध	-12.267
▁अराजकतावादी	-12.267
▁जैकॉब्स	-12.2676
▁वेश्यावृत्ति	-12.2677
▁स्लाविक	-12.2679
▁तुलनीय	-12.2683
▁पिंजरे	-12.2683
▁कलाकृतियाँ	-12.2684
▁उपनिवेशवादियों	-12.2688
▁उत्तरदायी	-12.269
▁डियाज़	-12.2698
▁डिटेक्टर	-12.2703
▁पछाड़	-12.2703
कप्तान	-12.2705
▁लंबित	-12.271
▁श्रोताओं	-12.2725
अध्याय	-12.2726
▁डिस्ट्रिक्ट	-12.273
▁मैग्नेट	-12.2736
पेप्टाइड	-12.2737
ब्रै	-12.2737
▁अव्यवस्थित	-12.2745
▁गिब्स	-12.2747
▁अनुशंसित	-12.2751
▁शुभारंभ	-12.2751
▁बार्नेट	-12.2764
▁सिराक्यूज	-12.2771
▁आत्मसात	-12.2772
▁एडिथ	-12.2781
▁पिकनिक	-12.2782
▁हैब्सबर्ग	-12.2785
▁ग्रेंज	-12.2788
▁फ़ोर	-12.2789
▁सट्टेबाज	-12.2791
▁ब्युनोस	-12.2791
शून्य	-12.2792
▁दिनचर्या	-12.2798
▁लुढ़क	-12.2798
द्रव्य	-12.2803
ग्लाइको	-12.2803
जेनेसिस	-12.2805
▁शैलीबद्ध	-12.2809
▁गिग	-12.2809
▁जुपिटर	-12.2812
▁फोरेंसिक	-12.2818
▁लॉरेल	-12.2819
ur	-12.2822
▁छवियाँ	-12.2823
▁संश्लेषित	-12.2825
▁संबोधन	-12.2832
▁नारीवाद	-12.2838
▁आपातकाल	-12.2838
▁कंपनियाँ	-12.284
▁अवगत	-12.2844
▁प्राच्य	-12.2846
▁ढाई	-12.2846
▁उकसाया	-12.2866
▁तिरस्कार	-12.2866
▁बोल्शेविक	-12.2866
▁अग्निशामक	-12.2873
▁फ़्लैंडर्स	-12.2873
▁घुमाया	-12.288
▁ब्रोंक्स	-12.288
▁चुपचाप	-12.2887
▁बोलोग्ना	-12.2887
▁कटाव	-12.289
▁थैले	-12.2903
▁कैमिल	-12.2909
▁रेडियल	-12.2913
दिसंबर	-12.2914
▁संरचित	-12.2919
▁कैप्सूल	-12.2921
▁सरीसृप	-12.2921
▁अनुसूचित	-12.2928
शांति	-12.2928
▁तपेदिक	-12.2935
▁गुआम	-12.2942
▁पपुआ	-12.2944
▁औषधीय	-12.2949
▁एटलेटिको	-12.2956
▁सार्थक	-12.2956
▁सर्वव्यापी	-12.2963
अक्टूबर	-12.2964
▁मदरसा	-12.2975
▁कलकत्ता	-12.2976
▁भीड़भाड़	-12.2976
▁बल्ब	-12.2986
▁तेहरान	-12.299
अगस्त	-12.2993
ट्यूब	-12.2998
▁कोलंबस	-12.3004
▁मार्जिन	-12.3008
▁मनमाने	-12.3011
▁मछुआरे	-12.3018
▁बुएनोस	-12.3018
▁दीर्घाओं	-12.3021
▁चरवाहे	-12.3025
ब्रेकिंग	-12.3025
▁जकार्ता	-12.3032
▁नौकरानी	-12.3034
▁अड्डों	-12.3046
▁भाईचारे	-12.3046
▁आसवन	-12.305
विभाजित	-12.3059
▁सत्यापन	-12.3069
▁परोपकार	-12.3071
▁तराशा	-12.3074
▁कड़वा	-12.3074
▁कराची	-12.3075
▁बेहतरीन	-12.3077
▁घुलनशील	-12.3081
▁शिष्टाचार	-12.3081
▁ओवरलैप	-12.3081
▁लयबद्ध	-12.3082
▁खानाबदोश	-12.3088
▁लोककथाओं	-12.3088
▁गुस्सा	-12.3088
▁बशर्ते	-12.3102
▁गुच्छे	-12.3102
▁ब्यु	-12.3109
▁होंडुरास	-12.3109
▁ऑस्ट्रो	-12.3111
▁हास्यपूर्ण	-12.3117
▁ग्लेड	-12.3123
फ्रांसीसी	-12.3125
▁आवृत्तियों	-12.3126
▁ड्रोन	-12.3127
▁नेवार्क	-12.3131
अस्तित्व	-12.314
▁मॉर्मन	-12.3144
▁हैरोल्ड	-12.3146
▁पिस्टन	-12.3146
▁रूढ़िवादिता	-12.3151
▁हथौड़ा	-12.3158
▁बार्कर	-12.3159
खोव	-12.3161
▁कैमडेन	-12.3162
▁कामकाजी	-12.3172
आधिकारिक	-12.3176
▁मैरियन	-12.3179
▁टैटू	-12.3179
▁आजीविका	-12.3179
▁क्लिफोर्ड	-12.3184
▁ठिकानों	-12.3186
▁शर्ली	-12.3186
▁घर्षण	-12.3193
▁चौधरी	-12.3193
▁ब्राउज़र	-12.3193
▁टॉरेस	-12.3195
▁धूसर	-12.32
▁क्वींस	-12.3201
विग्न	-12.3204
▁डिफ़ॉल्ट	-12.3208
▁प्रोपेलर	-12.3215
▁वाइकिंग	-12.3216
▁वध	-12.3217
हैप्पी	-12.3219
▁रेतीले	-12.3222
▁इंट्रा	-12.3224
▁अखाड़े	-12.3229
▁डिस्प्ले	-12.3229
▁ओल्सन	-12.3229
विजेता	-12.3235
▁फुसफुसा	-12.3243
▁गुब्बारे	-12.325
▁श्वार्ज	-12.3252
▁दुष्प्रभाव	-12.3257
▁क्वालीफा	-12.3264
▁साहब	-12.3265
▁शब्दार्थ	-12.3276
▁उपसमुच्चय	-12.3279
प्रशांत	-12.329
▁आवधिक	-12.3293
▁लेक्सिंगटन	-12.3293
एंजेल	-12.3297
▁स्वीप	-12.3297
▁सिपाही	-12.33
▁खरोंच	-12.3307
रंगः	-12.3309
▁मोर्गन	-12.3317
मोबाइल	-12.3318
▁उदासीन	-12.3322
प्रभा	-12.3324
▁पहाड़ियाँ	-12.3327
▁रिसेप्शन	-12.3329
▁मैग्नस	-12.3339
हमेशा	-12.3341
▁गोमांस	-12.335
▁ऑर्किड	-12.335
▁पुरातत्वविद्	-12.3351
▁विलासिता	-12.3357
▁एचआईवी	-12.3365
▁चौबीस	-12.3365
▁विधियाँ	-12.337
▁तुरह	-12.338
प्रतिरोध	-12.3384
▁पूर्ववर्तियों	-12.3386
▁डायनेमो	-12.3386
▁प्रतिलिपि	-12.339
▁तुरिन	-12.3392
संवेदनशील	-12.3393
▁स्टीवेन्सन	-12.3393
▁बैंगलोर	-12.3393
▁एयरवेज	-12.3396
▁वनस्पतियों	-12.3398
▁गुर्	-12.34
▁मोजार्ट	-12.3401
▁खिलौना	-12.3415
▁चरागाह	-12.3415
▁जेसूट	-12.3415
▁तम्बू	-12.3422
▁पैरोल	-12.3423
▁फ्रिट्ज	-12.3425
▁कालानुक्रमिक	-12.343
▁मधुमक्खी	-12.343
▁राजस्थान	-12.3431
▁ओकिनावा	-12.3437
▁फ्रैक्चर	-12.3437
लेस्टाइन	-12.3437
▁अभिसरण	-12.3444
▁लाफायेट	-12.3444
▁मनोचिकित्सक	-12.3444
▁नियोक्ताओं	-12.3448
▁आंकड़ा	-12.3451
▁अतिक्रमण	-12.3466
▁विल्हेल्म	-12.3466
▁परिक्रमा	-12.3473
▁वैलेंसिया	-12.3473
इमेज	-12.3486
▁गर्मजोशी	-12.3488
▁रिव्यू	-12.3493
▁थूक	-12.3495
▁उद्भव	-12.3502
▁संग्राहक	-12.3502
▁निपुण	-12.3502
▁पंचायत	-12.3502
▁जागीरदार	-12.3506
▁लक्जरी	-12.351
▁संपीड़ित	-12.351
संभवतः	-12.3515
सितंबर	-12.3523
▁एंटीबॉडी	-12.3524
▁बर्मिंगहम	-12.3524
▁मुंस्टर	-12.3524
▁ग्लोरिया	-12.3524
स्थायी	-12.3531
▁बवेरियन	-12.3532
▁स्विमिंग	-12.3532
▁फैमिली	-12.3539
▁शैलियाँ	-12.3539
▁बैटरियों	-12.3539
▁बायरन	-12.3549
▁हावर्ड	-12.356
▁हलचल	-12.3569
▁हॉकिन्स	-12.357
ियंट	-12.357
▁रॉयल्टी	-12.3571
▁आक्रोश	-12.3576
▁अल्जीरियाई	-12.3583
▁बुनकर	-12.359
▁स्पेक्ट्र	-12.3591
▁रीजेंसी	-12.3598
▁थर्मल	-12.3598
स्लिप	-12.3599
प्रारंभिक	-12.3599
▁ट्यूडर	-12.3616
▁रंगभेद	-12.3617
▁उपजाऊ	-12.362
पिछले	-12.3623
▁कोरोनावायरस	-12.3627
▁नाकाबंदी	-12.3627
▁रसोइये	-12.3627
▁निशानेबाज	-12.3627
खाबड़	-12.3634
▁सृजन	-12.3634
▁बीएमडब्ल्यू	-12.3635
▁यूनिवर्सल	-12.3635
▁चाव	-12.3641
▁भाड़े	-12.3642
ारोपण	-12.3649
▁नास्तिक	-12.3649
▁शुक्राणु	-12.3657
▁संगरोध	-12.3657
▁लिमेरिक	-12.3666
▁चालाक	-12.3671
▁कटोरा	-12.3675
तुर्की	-12.3677
▁सिम्मन्स	-12.3679
▁शहद	-12.3679
संतृप्त	-12.3687
▁लाइकेन	-12.3689
▁ट्वेंटी	-12.3694
▁बालकनी	-12.3694
▁डेविल्स	-12.3695
▁स्ट्रासबर्ग	-12.3701
नाटक	-12.3707
▁मोनाको	-12.371
नवंबर	-12.3716
▁अनदेखी	-12.3716
▁किस्में	-12.3716
ोसौर	-12.3719
झोपड़ी	-12.3724
▁समशीतोष्ण	-12.3724
▁आधारशिला	-12.3724
▁मुकदमों	-12.3739
ऋ	-12.3745
▁भावुक	-12.3754
▁निषिद्ध	-12.3768
▁सांचेज़	-12.3768
▁रेसकोर्स	-12.3776
▁कमांडेंट	-12.3784
ैंस	-12.3796
▁किराये	-12.3798
▁आर्किटेक्ट	-12.3798
▁ड्रग	-12.3801
▁निर्विवाद	-12.3806
▁एविव	-12.3823
▁पारदर्शी	-12.3825
▁न्यूरॉन्स	-12.3829
▁मैडागास्कर	-12.3836
▁इमर्सन	-12.3836
▁व्हिप	-12.3848
ड्रैगन	-12.3849
ैंड्रो	-12.3871
▁वांछनीय	-12.3874
▁गोंजालेज	-12.3874
▁शंकुधारी	-12.3874
वर्धन	-12.388
▁रवांडा	-12.3882
▁खजानेदार	-12.3885
▁कुर्दिश	-12.3889
▁ईएसपीएन	-12.3897
▁अजगर	-12.3899
▁समरूप	-12.39
फ़ोर्ड	-12.3901
▁महाभियोग	-12.3912
▁मोजाम्बिक	-12.3912
▁पहनता	-12.392
▁घबरा	-12.3921
▁प्राइमेरा	-12.3922
▁पैराग्राफ	-12.3936
▁कशेरुकी	-12.3942
▁एम्ब्रोस	-12.3942
▁टैलबोट	-12.395
▁पश्चाताप	-12.395
▁गंदी	-12.3954
▁कछुए	-12.3965
▁आशाजनक	-12.3965
▁मैल्कम	-12.3965
▁बर्कशायर	-12.3967
▁ऑक्सीकरण	-12.3976
बितर	-12.3977
▁न्यायमूर्ति	-12.3981
▁मैकमिलन	-12.3988
▁अर्धचंद्र	-12.3989
राजनीति	-12.3993
▁टेननेसी	-12.3996
▁व्हिस्की	-12.3996
▁एमेरिटस	-12.4003
▁धाराप्रवाह	-12.4004
आदमी	-12.4009
▁प्रणोदन	-12.4011
▁रईसों	-12.4011
▁स्थलचिह्न	-12.4011
▁असहज	-12.4011
▁भरपूर	-12.4011
▁ट्रूमैन	-12.4012
▁तितर	-12.4012
▁गतिरोध	-12.4013
▁फाउल	-12.4015
▁सिग्मा	-12.4019
▁वस्तुनिष्ठ	-12.4019
अद्भुत	-12.4025
▁अरिजोना	-12.4027
▁आवाजाही	-12.4027
▁मल्टीमीडिया	-12.4027
▁परिवर्धन	-12.4042
▁सर्दी	-12.4042
मिश्रित	-12.4049
▁समेकन	-12.4057
▁लाउंज	-12.4058
उत्कृष्ट	-12.4065
▁जमींदार	-12.4073
▁मुस्तफा	-12.4081
▁स्टडीज	-12.4084
▁अभियोग	-12.4089
▁दिमि	-12.4097
ऐतिहासिक	-12.4097
▁विंस्टन	-12.4104
▁मज़ेदार	-12.4111
नियोजित	-12.4114
▁हिस्ट्री	-12.4116
▁प्रसूति	-12.4119
▁लिविंगस्टन	-12.4119
▁बार्कले	-12.412
▁वीरतापूर्ण	-12.4121
जर्नल	-12.4124
▁पहनती	-12.4127
▁जयंती	-12.4143
ऑस्ट्रेलिया	-12.4149
▁औचित्य	-12.4158
▁उपहास	-12.4158
▁क्रैमर	-12.4158
प्रधान	-12.4163
▁म्यूजियम	-12.4166
▁वायसराय	-12.4166
▁युद्धकालीन	-12.4166
▁सनसनी	-12.4166
▁फ्रैंचाइज़ी	-12.4174
▁एएए	-12.4175
▁उरुगुए	-12.4182
▁स्वयंसेवी	-12.4182
▁ओसबोर्न	-12.4183
▁क्योटो	-12.4189
▁चूँकि	-12.4189
▁बेवर्ली	-12.4197
▁सैक्रामेंटो	-12.4205
▁हथौड़े	-12.4205
माइक्रो	-12.4206
▁गेर्	-12.4206
▁लॉरेंट	-12.4208
▁अटकलों	-12.4213
▁गर्भाशय	-12.4213
▁टखने	-12.4213
▁यूसुफ	-12.4215
▁गरज	-12.4216
▁भूगर्भीय	-12.4221
▁हैस्टिंग्स	-12.4221
▁एल्विस	-12.424
पोमेरेनियन	-12.4244
▁पट्टियाँ	-12.4244
▁गैस्ट्रॉपोड	-12.426
▁चिनाई	-12.4261
▁सिंडिकेटेड	-12.4261
▁प्रेषित	-12.4268
▁खजाना	-12.4268
▁मेरिडियन	-12.4268
▁शर्मिंदा	-12.4284
▁समस्थानिक	-12.4284
िन्हो	-12.4285
िमूर्ति	-12.4286
यूक्रेन	-12.4286
▁स्लैब	-12.4286
ाइज्ड	-12.4296
▁ऑगस्टिन	-12.4299
▁बधाई	-12.4299
सभ्य	-12.4304
▁अनुभवजन्य	-12.4307
अच्छी	-12.4311
▁असंवैधानिक	-12.4315
▁मिठाई	-12.4315
डैडी	-12.4316
प्लाज्म	-12.4322
▁खिंचाव	-12.4323
▁फ्रॉस्ट	-12.4337
▁सौभाग्य	-12.4339
▁सिओक्स	-12.434
एम्पायर	-12.4341
दूसरी	-12.4344
▁डार्टमाउथ	-12.4347
▁पेलोड	-12.4347
▁जेनिंग्स	-12.4349
पाइप	-12.4352
▁अनुप्रस्थ	-12.4355
▁इमानुएल	-12.4355
▁फ़्रांसिस्कन	-12.4355
द्वैत	-12.4363
▁अभिषेक	-12.4371
▁इंस्टाग्राम	-12.4371
▁पँचिश	-12.4371
बदली	-12.4371
स्थिर	-12.4376
रैखिक	-12.4377
▁पास्कल	-12.4379
▁हर्नांडेज़	-12.4387
ऑप्टिक	-12.4387
सहिष्णु	-12.4394
▁निवारक	-12.4395
▁डोमिंगो	-12.4395
▁निमोनिया	-12.4403
▁सेलुलर	-12.4403
▁ओलिवियर	-12.4405
▁चतुर्थ	-12.4411
कर्नल	-12.4412
▁तत्वावधान	-12.4419
▁इंडियंस	-12.4427
▁मिरांडा	-12.4435
▁सामंती	-12.4435
▁देशांतर	-12.4435
▁छिटपुट	-12.4443
▁तृतीय	-12.4443
विमर्श	-12.4443
▁मशरूम	-12.4451
▁पट्टियों	-12.4451
शनिवार	-12.4452
▁इंटरैक्टिव	-12.4459
▁कॉकपिट	-12.4459
▁शीतलन	-12.4462
▁प्रोटॉन	-12.4463
▁तलहटी	-12.4467
▁पिटसबर्ग	-12.4467
▁द्विभाषी	-12.4475
▁रक्तचाप	-12.4475
सूर्य	-12.4475
अटलांटिक	-12.4478
निरपे	-12.4482
▁तिथियों	-12.4485
▁धुआं	-12.4491
▁पिक्सेल	-12.4492
▁प्राट	-12.4496
▁निर्बाध	-12.4499
▁काव्यात्मक	-12.4499
▁पिज्जा	-12.45
▁अपाचे	-12.4507
▁बर्लिंगटन	-12.4515
▁तालुक	-12.4523
▁मंगेतर	-12.4523
▁कीचड़	-12.4524
मूर्ति	-12.4525
▁नटाल	-12.453
▁टिप्पणियाँ	-12.4531
▁काठी	-12.4547
▁दिलाने	-12.4556
▁उरुग्वे	-12.4564
▁मानसून	-12.4572
स्थापित	-12.4578
स्पेनिश	-12.4579
▁आदरणीय	-12.458
▁नॉरमैंडी	-12.458
▁मारिजुआना	-12.458
▁विभेदक	-12.4586
▁टोबैगो	-12.4588
▁झुनझुनी	-12.4596
▁बुडापेस्ट	-12.4596
▁वैंडरबिल्ट	-12.4596
मुग्ध	-12.4604
▁जन्मजात	-12.4604
▁मल्ल	-12.461
▁निर्माणाधीन	-12.4612
▁टायलर	-12.4629
▁अंजाम	-12.4629
संपादक	-12.4639
▁रवैये	-12.4645
▁मॉन्टेरी	-12.4654
▁चैंडलर	-12.4661
▁नौकरियां	-12.4663
▁शुल्	-12.4669
▁बीजगणितीय	-12.467
▁रिहर्सल	-12.467
निर्णय	-12.4673
▁इंपीरियल	-12.4686
▁क़ानून	-12.4686
▁क्राइस्टचर्च	-12.4686
▁संकुचन	-12.4694
▁दूरदराज	-12.4694
▁पहनना	-12.4694
▁चतुर्थांश	-12.4703
योजना	-12.4716
▁नॉर्थम्प्टन	-12.4719
औ	-12.5156
