{"<|endoftext|>":0,"<|im_start|>":1,"<|im_end|>":2,"!":3,"\"":4,"#":5,"$":6,"%":7,"&":8,"'":9,"(":10,")":11,"*":12,"+":13,",":14,"-":15,".":16,"/":17,"0":18,"1":19,"2":20,"3":21,"4":22,"5":23,"6":24,"7":25,"8":26,"9":27,":":28,";":29,"<":30,"=":31,">":32,"?":33,"@":34,"A":35,"B":36,"C":37,"D":38,"E":39,"F":40,"G":41,"H":42,"I":43,"J":44,"K":45,"L":46,"M":47,"N":48,"O":49,"P":50,"Q":51,"R":52,"S":53,"T":54,"U":55,"V":56,"W":57,"X":58,"Y":59,"Z":60,"[":61,"\\":62,"]":63,"^":64,"_":65,"`":66,"a":67,"b":68,"c":69,"d":70,"e":71,"f":72,"g":73,"h":74,"i":75,"j":76,"k":77,"l":78,"m":79,"n":80,"o":81,"p":82,"q":83,"r":84,"s":85,"t":86,"u":87,"v":88,"w":89,"x":90,"y":91,"z":92,"{":93,"|":94,"}":95,"~":96,"¡":97,"¢":98,"£":99,"¤":100,"¥":101,"¦":102,"§":103,"¨":104,"©":105,"ª":106,"«":107,"¬":108,"®":109,"¯":110,"°":111,"±":112,"²":113,"³":114,"´":115,"µ":116,"¶":117,"·":118,"¸":119,"¹":120,"º":121,"»":122,"¼":123,"½":124,"¾":125,"¿":126,"À":127,"Á":128,"Â":129,"Ã":130,"Ä":131,"Å":132,"Æ":133,"Ç":134,"È":135,"É":136,"Ê":137,"Ë":138,"Ì":139,"Í":140,"Î":141,"Ï":142,"Ð":143,"Ñ":144,"Ò":145,"Ó":146,"Ô":147,"Õ":148,"Ö":149,"×":150,"Ø":151,"Ù":152,"Ú":153,"Û":154,"Ü":155,"Ý":156,"Þ":157,"ß":158,"à":159,"á":160,"â":161,"ã":162,"ä":163,"å":164,"æ":165,"ç":166,"è":167,"é":168,"ê":169,"ë":170,"ì":171,"í":172,"î":173,"ï":174,"ð":175,"ñ":176,"ò":177,"ó":178,"ô":179,"õ":180,"ö":181,"÷":182,"ø":183,"ù":184,"ú":185,"û":186,"ü":187,"ý":188,"þ":189,"ÿ":190,"Ā":191,"ā":192,"Ă":193,"ă":194,"Ą":195,"ą":196,"Ć":197,"ć":198,"Ĉ":199,"ĉ":200,"Ċ":201,"ċ":202,"Č":203,"č":204,"Ď":205,"ď":206,"Đ":207,"đ":208,"Ē":209,"ē":210,"Ĕ":211,"ĕ":212,"Ė":213,"ė":214,"Ę":215,"ę":216,"Ě":217,"ě":218,"Ĝ":219,"ĝ":220,"Ğ":221,"ğ":222,"Ġ":223,"ġ":224,"Ģ":225,"ģ":226,"Ĥ":227,"ĥ":228,"Ħ":229,"ħ":230,"Ĩ":231,"ĩ":232,"Ī":233,"ī":234,"Ĭ":235,"ĭ":236,"Į":237,"į":238,"İ":239,"ı":240,"Ĳ":241,"ĳ":242,"Ĵ":243,"ĵ":244,"Ķ":245,"ķ":246,"ĸ":247,"Ĺ":248,"ĺ":249,"Ļ":250,"ļ":251,"Ľ":252,"ľ":253,"Ŀ":254,"ŀ":255,"Ł":256,"ł":257,"Ń":258,"¤¾":259,"à¤¾":260,"¤ķ":261,"à¤ķ":262,"¤°":263,"à¤°":264,"¥ĩ":265,"à¥ĩ":266,"à¤":267,"¥į":268,"à¥į":269,"à¤¿":270,"Ġà¤ķ":271,"à¤¨":272,"à¤¸":273,"à¤Ĥ":274,"à¤®":275,"¥Ģ":276,"à¥Ģ":277,"à¤²":278,"à¤¤":279,"à¤¯":280,"¥ĭ":281,"à¥ĭ":282,"à¤ª":283,"à¤¹":284,"à¤µ":285,"Ġà¤¸":286,"Ġà¤®":287,"à¤ľ":288,"à¤¦":289,"à¤Ĺ":290,"à¤¬":291,"Ġà¤ª":292,"à¤ı":293,"à¥ĩà¤Ĥ":294,"à¤Ł":295,"Ġà¤¹":296,"¥Ī":297,"à¥Ī":298,"¥¤":299,"à¥¤":300,"¥ģ":301,"à¥ģ":302,"à¤¡":303,"à¤¶":304,"à¤¥":305,"Ġà¤ľ":306,"¥Ĥ":307,"à¥Ĥ":308,"à¤ħ":309,"Ġà¤¬":310,"Ġà¤µ":311,"Ġà¤ħ":312,"Ġà¤¨":313,"à¤ļ":314,"à¥ĭà¤Ĥ":315,"Ġà¤ı":316,"Ġà¤²":317,"à¤Ķ":318,"Ġà¤¦":319,"Ġà¤Ķ":320,"Ġà¤Ķà¤°":321,"Ġà¤°":322,"à¤ī":323,"Ġà¤Ĺ":324,"Ġà¤ī":325,"Ġà¤¥":326,"à¤·":327,"à¤ĩ":328,"à¤Ń":329,"à¤§":330,"à¤«":331,"à¤Ĩ":332,"Ġà¤ıà¤ķ":333,"à¤ĸ":334,"à¤¼":335,"Ġà¤ķà¤°":336,"Ġà¤¶":337,"à¤Ī":338,"à¤£":339,"Ġà¤Ĩ":340,"Ġà¤¤":341,"à¤¾à¥¤":342,"¥ī":343,"à¥ī":344,"Ġà¤ªà¤°":345,"Ġà¤¯":346,"à¥Īà¤Ĥ":347,"Ġ1":348,"Ġà¤ĩ":349,"à¥Īà¥¤":350,"Ġà¤ļ":351,"Ġà¤Ń":352,"Ġ\"":353,"Ġà¤īà¤¨":354,"Ġà¤Ĺà¤¯":355,"Ġà¤«":356,"à¤¾,":357,"Ġà¤¡":358,"Ġ2":359,"à¤¾à¤Ĥ":360,"à¤ªà¤¨":361,"Ġà¤¸à¤®":362,"¥Į":363,"à¥Į":364,"Ġà¤ĸ":365,"Ġ(":366,"Ġà¤Ł":367,"Ġà¤ĩà¤¸":368,"à¤ĵ":369,"à¤Ľ":370,"Ġ19":371,"Ġà¤ķà¤°à¤¨":372,"Ġ20":373,"¥ĥ":374,"à¥ĥ":375,"à¤°à¤£":376,"à¤°à¤¤":377,"Ġà¤ħà¤ªà¤¨":378,"à¥Ģ.":379,"à¥Ģà¤Ĥ":380,"à¤¿à¤Ĥ":381,"à¤ĺ":382,"à¥Ī,":383,"Ġà¤ªà¤¹":384,"à¥Ģà¥¤":385,"à¤µà¤°":386,"Ġà¤ħà¤¨":387,"Ġà¤¯à¤¹":388,"à¤ģ":389,"à¤°à¤ķ":390,"à¤¤à¤°":391,"à¥Īà¤Ĥà¥¤":392,"Ġà¤ħà¤§":393,"Ġà¤ķà¤°à¤¤":394,"à¥ĩà¤Ĥ,":395,"à¤¯à¤ķ":396,"à¤ľà¤¨":397,"à¤¬à¤°":398,"à¥Ģ,":399,"à¥ĩà¥¤":400,"Ġà¤īà¤¨à¤ķ":401,"à¤Łà¤°":402,"à¤ł":403,"Ġà¤¤à¤ķ":404,"Ġà¤ªà¤¹à¤²":405,"Ġà¤¬à¤¨":406,"Ġà¤īà¤¸":407,"à¤¯à¤°":408,"Ġà¤īà¤ª":409,"Ġà¤¨à¤¹":410,"à¤°à¤®":411,"Ġà¤µà¤°":412,"à¤¯à¤¨":413,"Ġà¤ĺ":414,"à¤¾à¤ģ":415,"Ġà¤°à¤¹":416,"à¥ĩ,":417,"Ġà¤µà¤¹":418,"Ġà¤Ľ":419,"à¤¹à¤°":420,"à¤¶à¤¨":421,"à¤¸à¤°":422,"00":423,"Ġà¤¸à¤ķ":424,"à¤¼à¤¾":425,"à¤ķà¤°":426,"à¤¸à¤®":427,"à¤ĳ":428,"Ġà¤®à¤¹":429,"à¤°à¤¸":430,"Ġ201":431,"à¤²à¤¨":432,"à¤ªà¤°":433,"Ġà¤Ĺà¤ı":434,"Ġà¤Ĺà¤Ī":435,"Ġà¤ĵ":436,"à¤Łà¤¨":437,"à¤ĥ":438,"à¤¯à¤®":439,"Ġà¤īà¤¤":440,"à¤¸à¤¨":441,"Ġà¤ĳ":442,"à¤¢":443,"à¤²à¤¯":444,"à¤¦à¤°":445,"à¤°à¤¹":446,"Ġà¤ķà¤®":447,"Ġà¤ľà¤¬":448,"à¤¼à¥Ģ":449,"Ġà¤ħà¤²":450,"Ġà¤ĩà¤¸à¤ķ":451,"Ġà¤§":452,"à¤µà¤¨":453,"Ġà¤²à¤Ĺ":454,"Ġà¤ķà¤¹":455,"Ġà¤ıà¤²":456,"à¤®à¤¨":457,"à¤ĩà¤¨":458,"Ġà¤¸à¤ķà¤¤":459,"19":460,"à¤·à¤£":461,"à¥Īà¤Ĥ,":462,"Ġà¤īà¤ªà¤¯":463,"Ġ200":464,"à¤Ŀ":465,"Ġ18":466,"Ġà¤ªà¤¤":467,"à¤¸à¤ķ":468,"Ġà¤¸à¤¹":469,"Ġà¤ħà¤®":470,"Ġà¤Ĩà¤°":471,"Ġà¤ľà¤¨":472,"à¤Ĺà¤°":473,"à¤²à¤¤":474,"Ġ3":475,"à¤¬à¤¸":476,"Ġà¤ķà¤Ī":477,"Ġà¤ıà¤¸":478,"à¤¼à¥ĩ":479,"Ġà¤¸à¤®à¤¯":480,"à¤°à¤µ":481,"à¤ķà¤²":482,"20":483,"Ġà¤°à¤ĸ":484,"à¤®à¤¤":485,"Ġà¤¬à¤¹":486,"Ġà¤Ĩà¤¯":487,"à¤¶à¤ķ":488,"Ġà¤ħà¤Ń":489,"à¤®à¤ķ":490,"à¤¤à¤ķ":491,"Ġà¤¶à¤¹à¤°":492,"à¤¨à¤ķ":493,"Ġà¤¸à¤¬à¤¸":494,"à¤ķà¤°à¤£":495,"à¤ŀ":496,"à¤µà¤²":497,"Ġà¤īà¤¦":498,"à¤ªà¤¤":499,"à¤¨à¤°":500,"Ġà¤ħà¤ķ":501,"à¤²à¤°":502,"à¤¯à¤¤":503,"Ġà¤ľà¤¹":504,"Ġà¤Ĩà¤§":505,"Ġà¤Ĩà¤µ":506,"Ġà¤ıà¤®":507,"à¤ļà¤¨":508,"à¤²à¤¬":509,"à¤Ĺà¤¤":510,"Ġà¤Ī":511,"à¤ķà¤¨":512,"à¤ĩà¤Ł":513,"Ġ4":514,"Ġà¤¸à¤°":515,"à¤¦à¤¨":516,"Ġ199":517,"Ġà¤īà¤¸à¤ķ":518,"Ġà¤¬à¤¡":519,"Ġà¤ħà¤ª":520,"Ġà¤ıà¤¨":521,"à¤¾\"":522,"à¤¡à¤°":523,"à¥ĭ,":524,"à¤Ĺà¤²":525,"Ġà¤¸à¤Ń":526,"Ġà¤ħà¤°":527,"Ġà¤¹à¤®":528,"à¤°à¤¶":529,"à¤¤à¤¨":530,"à¤°à¤Ń":531,"),":532,"Ġ5":533,"à¤Ĳ":534,"à¤°à¤¦à¤°":535,"à¤Łà¤²":536,"Ġà¤ķà¤²":537,"à¤Ĭ":538,"à¤ĩà¤¸":539,"Ġà¤¸à¤¦":540,"à¥ģà¤Ĥ":541,"à¤¯à¤µ":542,"Ġà¤¤à¤°à¤¹":543,"à¤Ĩà¤¤":544,"à¤ıà¤¸":545,"Ġà¤¬à¤¢":546,"à¤¨à¤²":547,"à¤ªà¤ķ":548,"Ġà¤¦à¤ķ":549,"Ġà¤ħà¤¸":550,"Ġà¤Ĩà¤Ī":551,"Ġà¤ħà¤µ":552,"Ġà¤ĺà¤°":553,"Ġà¤Ĳ":554,"à¤¾.":555,"à¤¼à¤¿":556,"Ġà¤¬à¤ļ":557,"à¤µà¤µ":558,"à¤¹à¤¤":559,"à¥Ģ-":560,"Ġà¤¸à¤¦à¤¸":561,"à¤°à¤¦":562,"Ġà¤ļà¤²":563,"Ġà¤ıà¤«":564,"Ġà¤¦à¤°":565,"Ġ198":566,"Ġ<":567,"à¤¨à¤¤":568,"à¤Ńà¤Ĺ":569,"Ġà¤ĵà¤°":570,"à¤ıà¤ķ":571,"à¤µà¤¤":572,"Ġ6":573,"à¤¡à¤²":574,"Ġà¤¬à¤°":575,"Ġ'":576,"un":577,"unk":578,"à¤·à¤ķ":579,"à¤īà¤¨":580,"Ġà¤ļà¤°":581,"Ġà¤Ĭ":582,"à¤ķà¤¡":583,"à¤¿,":584,"à¤ķà¤¸":585,"à¤¦à¤²":586,"\",":587,"Ġà¤²à¤Ĺà¤Ńà¤Ĺ":588,"Ġà¤ĩà¤¨":589,"à¤§à¤¨":590,"à¤ľà¤°":591,"Ġà¤²à¤¡":592,"à¥Ĥ.":593,"Ġ197":594,"à¤°à¤¯":595,"à¤¯à¤²":596,"Ġà¤ªà¤¦":597,"à¤ĸà¤²":598,"à¥ĥà¤Ĥ":599,"Ġà¤Ĩà¤Ĺ":600,"Ġà¤ĳà¤«":601,"à¤²à¤µ":602,"Ġà¤¸à¤®à¤°":603,"à¤Łà¤ķ":604,"à¤ªà¤¸":605,"à¤ľà¤¬":606,"à¥Ģ\"":607,"à¤¸à¤²":608,"Ġà¤¦à¤¶à¤ķ":609,"à¤ĩà¤²":610,"Ġà¤¹à¤°":611,"à¤ķà¤¤":612,"Ġ7":613,"Ġà¤¸à¤¤":614,"à¤Łà¤¬":615,"Ġ196":616,"18":617,"Ġà¤ħà¤¬":618,"Ġà¤ªà¤¶":619,"Ġà¤ħà¤Ĺ":620,"Ġà¤¨à¤µ":621,"à¤¬à¤®":622,"à¤¨à¤¸":623,"000":624,"à¤®à¤²":625,"Ġà¤īà¤ļ":626,"Ġà¤«à¤°":627,"à¤¬à¤²":628,"à¤¥à¤¨":629,"Ġà¤ħà¤²à¤Ĺ":630,"à¤¨à¤®":631,"Ġà¤¨à¤ı":632,"Ġà¤ľà¤°":633,"à¤¤à¤µ":634,"à¤£à¤¨":635,"Ġ8":636,"à¤®à¤¸":637,"à¥ĩà¤Ĥà¥¤":638,"Ġà¤¤à¤°":639,"à¤¦à¤®":640,"Ġà¤Ĳà¤¸":641,"à¤¾-":642,"Ġà¤¸à¤«":643,"à¤Ĺà¤¨":644,"Ġ194":645,"à¤°à¤¬":646,"Ġà¤Ŀ":647,"à¤ĩà¤¡":648,"à¤°à¤¨":649,"à¤ĸà¤¨":650,")à¥¤":651,"à¥ĩ.":652,"Ġà¤¸à¤°à¤ķ":653,"à¤¤à¤®":654,"à¤ļà¤°":655,"Ġà¤Ĩà¤µà¤¶":656,"Ġ17":657,"Ġà¤ĩà¤¤":658,"à¤łà¤¨":659,"Ġà¤ľà¤¬à¤ķ":660,"à¤¹à¤¨":661,"Ġ9":662,"--":663,"Ġà¤ķà¤ª":664,"à¤°à¤²":665,"Ġà¤¬à¤²":666,"Ġà¤¬à¤¦à¤²":667,"à¤¯à¤¸":668,"Ġ10":669,"à¤®à¤°":670,"à¤¸à¤¸":671,"201":672,"Ġà¤ħà¤ļ":673,"Ġà¤Ĩà¤ķ":674,"à¤¨à¤µ":675,"Ġà¤®à¤¹à¤¤":676,"Ġà¤īà¤®":677,"Ġ195":678,"Ġà¤ĳà¤¸":679,"à¥Ģà¤Ĥà¥¤":680,"Ġà¤ıà¤¡":681,"à¤ıà¤²":682,"Ġà¤ľà¤²":683,"Ġ202":684,"à¤¥à¤²":685,"Ġà¤®à¤§":686,"200":687,"à¤¡à¤¨":688,"Ġà¤ĸà¤°":689,"à¤ĩà¤ķ":690,"Ġ15":691,"à¤¸à¤¤":692,"Ġà¤Ĺà¤°":693,"Ġà¤®à¤¨":694,"Ġà¤Ĩà¤¤":695,"à¤ķà¤Ł":696,"à¤¯à¤µà¤¸":697,"Ġ16":698,"Ġà¤Ĩà¤ª":699,"à¤¸à¤ª":700,"Ġà¤ªà¤¡":701,"à¤¯à¤¹":702,"à¤¥à¤®":703,"Ġà¤ħà¤¤":704,"à¤µà¤ª":705,"Ġà¤¬à¤ľ":706,"Ġà¤¤à¤¬":707,"à¤¶à¤¤":708,"à¤¨à¤¨":709,"Ġà¤¶à¤¤":710,"à¥ĭà¤Ĥ,":711,"à¥ĩ-":712,"Ġà¤¹à¤¸":713,"Ġà¤ķà¤Ń":714,"Ġ193":715,"Ġà¤Ĩà¤®":716,"Ġà¤¤à¤¹à¤¤":717,"Ġà¤īà¤²":718,"Ġà¤®à¤Ī":719,"Ġà¤ķà¤¨":720,"Ġà¤ľà¤¨à¤µà¤°":721,"à¤¸à¤µ":722,"Ġà¤¨à¤¦":723,"Ġà¤¸à¤¡":724,"à¤ıà¤¨":725,"à¤¯à¤¯à¤¨":726,"Ġà¤ıà¤ķà¤²":727,"Ġà¤Ńà¤°":728,"Ġà¤¹à¤µ":729,"Ġà¤¬à¤¤":730,"Ġà¤ħà¤Ĺà¤¸":731,"Ġà¤Ĺà¤¤":732,"Ġ12":733,"à¤¬à¤¦":734,"Ġà¤Ĩà¤¦":735,"à¤¦à¤ķ":736,"Ġà¤ĩà¤®":737,"à¤²à¤ķ":738,"Ġà¤¡à¤¬":739,"Ġà¤°à¤¹à¤¤":740,"Ġà¤ł":741,"à¤°à¤ľ":742,"..":743,"à¤¯à¤ķà¤¤":744,"à¤Ĩà¤°":745,"à¤¾;":746,"Ġ\"\"":747,"à¤¤à¤¤":748,"à¤ħà¤²":749,"à¤īà¤¸":750,"à¤Ľà¤²":751,"à¤¼à¥ĭ":752,"Ġà¤ķà¤¬":753,"Ġà¤ªà¤ķ":754,"à¤µà¤ľà¤¨":755,"à¤ıà¤Ĺ":756,"à¤¯à¤¨à¤¶":757,"Ġà¤ıà¤ļ":758,"Ġà¤¶à¤°":759,"à¤µà¤¸":760,"Ġà¤ħà¤¦":761,"Ġà¤ĩà¤²":762,"à¤·à¤¤":763,"à¤¼à¥ĭà¤Ĥ":764,"Ġà¤°à¤ķ":765,"Ġà¤ĩà¤¸à¤²":766,"Ġà¤¤à¤Ł":767,"Ġà¤«à¤°à¤µà¤°":768,"à¤¹à¤®":769,"Ġ11":770,"Ġà¤®à¤¤":771,"Ġà¤ķà¤°à¤ķ":772,"Ġà¤ħà¤µà¤§":773,"Ġà¤¶à¤¬":774,"à¤ıà¤®":775,"Ġà¤ħà¤«":776,"à¤¥à¤°":777,"à¤¼à¥į":778,"Ġà¤®à¤¦":779,"Ġ14":780,"Ġ13":781,"à¥ĩ\"":782,"à¥Ĥà¤Ĥ":783,"Ġà¤¸à¤®à¤Ŀ":784,"à¤·à¤°":785,"Ġà¤ħà¤Ĺà¤²":786,"Ġà¤¹à¤®à¤²":787,"Ġà¤Ĭà¤ªà¤°":788,"à¤µà¤°à¤£":789,"à¤¾)":790,"Ġ(\"":791,"à¤Ĺà¤łà¤¨":792,"à¤ªà¤·":793,"Ġà¤ĩà¤¸à¤®":794,"Ġà¤®à¤ľà¤¬":795,"à¤Łà¤®":796,"à¤¾à¤ĥ":797,"à¤¹à¤°à¤£":798,"à¤Ńà¤µ":799,"Ġà¤¬à¤¸":800,"à¤²à¤®":801,"Ġ192":802,"à¤ªà¤²":803,"Ġà¤īà¤ªà¤¨":804,"Ġà¤¶à¤ķ":805,"à¤µà¤¶":806,"à¥Īà¤ĥ":807,"Ġà¤Ĩà¤¨":808,"199":809,"à¤ķà¤ª":810,"Ġà¤¢":811,"à¤ĸà¤ķ":812,"Ġà¤īà¤¸à¤¨":813,"à¤ĩà¤®":814,"à¤·à¤¦":815,"Ġà¤ĩà¤ķ":816,"à¤ªà¤£":817,"à¤ĩà¤µ":818,"Ġà¤¨à¤Ī":819,"Ġà¤®à¤¦à¤¦":820,"à¤µà¤ķ":821,"Ġà¤¦à¤²":822,"à¤¯à¤¦":823,"17":824,"Ġà¤µà¤¸":825,"Ġà¤Ĩà¤¬":826,"à¥Ģ)":827,"à¤ĩà¤¤":828,"Ġà¤ıà¤ª":829,"Ġà¤Ĩà¤²":830,"à¤Ĺà¤®":831,"à¤Ĺà¤Łà¤¨":832,"à¤ĺà¤°":833,"à¤«à¤²":834,"II":835,"10":836,"Ġà¤Īà¤¸":837,"à¤ªà¤¶":838,"à¤«à¤°":839,"à¥Ī;":840,"à¤¹à¤ķ":841,"Ġà¤¸à¤¹à¤¯":842,"Ġà¤¦à¤¸":843,"à¤ľà¤ķ":844,"Ġà¤¸à¤ª":845,"à¤·à¤¯":846,"à¥ĭ-":847,"à¤¿à¥¤":848,"à¥Ģà¤Ĥ,":849,"Ġà¤°à¤ĸà¤¨":850,".)":851,"Ġà¤ĵà¤²":852,"à¤µà¤ľ":853,"Ġ2010":854,"Ġ25":855,"Ġà¤°à¤¹à¤¨":856,"à¤Ĩà¤Ī":857,"à¤·à¤®":858,"à¤ĩà¤¨à¤²":859,"à¤ĸà¤¤":860,"Ġ_":861,"à¤ĩà¤¯":862,"à¤°à¤ªà¤¤":863,"à¥Īà¤Ĥà¤ĥ":864,"Ġ2011":865,"Ġà¤Ľà¤¹":866,"à¥Īà¥¤\"":867,"Ġà¤Ĺà¤£":868,"Ġ30":869,"Ġà¤Ĩà¤¸à¤ª":870,"Ġà¤ıà¤ľ":871,"----":872,"à¤°à¤ļà¤¨":873,"Ġ2012":874,"à¤¡à¤®":875,"15":876,"Ġ2014":877,"à¥ĭ\"":878,"Ġ2016":879,"Ġà¤ªà¤¢":880,"16":881,"Ġà¤Ĳà¤¤":882,"à¤·à¤®à¤¤":883,"Ġ190":884,"Ġ2013":885,"Ġà¤°à¤ĸà¤¤":886,"Ġ2015":887,"Ġà¤¯à¤¦":888,"à¤Ķà¤°":889,"à¤īà¤Ł":890,"à¤®à¤Ĺ":891,"à¤ľà¤²":892,"Ġà¤§à¤°":893,"Ġà¤¹à¤Ł":894,"Ġ2018":895,"Ġà¤Ķà¤¸à¤¤":896,"à¤¸à¤¦":897,"Ġà¤²à¤ķ":898,"à¤¤à¤°à¤£":899,"Ġ2019":900,"Ġ2020":901,"Ġà¤ªà¤¹à¤ļ":902,"à¤¸à¤¬":903,"Ġ2009":904,"Ġ2008":905,"Ġ2017":906,"à¤¬à¤¨":907,"12":908,"à¤²à¤¸":909,"à¤µà¤¹":910,"à¤ļà¤ķ":911,"à¤ĩà¤ľ":912,"à¤µà¤¯":913,"Ġà¤ĺà¤Łà¤¨":914,"Ġà¤īà¤ªà¤²à¤¬":915,"Ġà¤Ĩà¤®à¤¤":916,"Ġà¤¸à¤²":917,"Ġà¤īà¤¡":918,"Ġà¤Ĩà¤ı":919,"Ġ189":920,"198":921,"Ġà¤īà¤ªà¤ķà¤°à¤£":922,"Ġà¤ħà¤ªà¤°":923,"Ġà¤Ĩà¤ªà¤ķ":924,"Ġ=":925,"Ġ24":926,"à¤Ĺà¤¦":927,"Ġà¤ªà¤ķà¤¡":928,"à¤¶à¤²":929,"Ġ2007":930,"Ġà¤¹à¤¤":931,"Ġà¤ıà¤°":932,"à¤ļà¤²":933,"Ġà¤¸à¤ļ":934,"14":935,"Ġà¤¤à¤¤":936,"à¤Ĺà¤¹":937,"à¤¾à¥¤\"":938,"Ġà¤Ńà¤µ":939,"Ġà¤ķà¤¥":940,"Ġà¤ĳà¤°":941,"Ġà¤¨à¤Ĺà¤°":942,"Ġà¤Ĩà¤¶":943,"à¤ħà¤¨":944,"à¤«à¤¨":945,"Ġà¤Ĩà¤¯à¤°":946,"Ġà¤ķà¤ķ":947,"Ġà¤īà¤ªà¤¸":948,"Ġà¤®à¤¸":949,"Ġ2021":950,"à¤¨à¤Ł":951,"à¤¨à¤¦":952,"à¥ģà¤ģ":953,"Ġ0":954,"Ġà¤®à¤°":955,"Ġà¤ļà¤°à¤£":956,"Ġà¤ķà¤µ":957,"à¤Łà¤µà¤°":958,"13":959,"Ġà¤¸à¤¬":960,"à¤ķà¤Ń":961,"\")":962,"Ġ100":963,"Ġà¤ıà¤ķà¤®":964,"à¤®à¤ļ":965,"à¤Łà¤¸":966,"Ġà¤µà¤ķ":967,"Ġ2006":968,"Ġà¤Ĩà¤ķà¤°":969,"Ġ188":970,"Ġà¤ļà¤²à¤¤":971,"à¤£à¤¯":972,"Ġà¤ľà¤®":973,"Ġà¤§à¤¨":974,"Ġà¤¤à¤ķà¤¨":975,"Ġà¤ķà¤ł":976,"50":977,"à¤¨à¤¹":978,"à¤īà¤¨à¤ķ":979,"à¤ıà¤«":980,"197":981,"à¤°à¤®à¤£":982,"à¤¡à¤µ":983,"Ġà¤Ĩà¤ľ":984,"Ġ22":985,"Ġà¤ķà¤¹à¤¤":986,"âĢ":987,"Ġ21":988,"à¤§à¤ķ":989,"ÃĤ":990,"Ġà¤ĩà¤°":991,"à¤¡à¤¬":992,"Ġà¤Ĩà¤ł":993,"Ġ186":994,"à¤ħà¤²à¤Ĺ":995,"Ġ23":996,"Ġ2022":997,"à¤Ĺà¤¸":998,"Ġà¤¸à¤«à¤²à¤¤":999,"à¤°à¤ļ":1000,"à¤Ĩà¤¨":1001,"à¤µà¤¹à¤¨":1002,"à¤¹à¤²":1003,"Ġà¤¨à¤¯":1004,"Ġà¤¸à¤µ":1005,"Ġà¤ªà¤¸":1006,"Ġà¤ľà¤Ĺà¤¹":1007,"Ġà¤Ĺà¤łà¤¨":1008,"à¤ķà¤®":1009,"à¤°à¤¥à¤®":1010,"à¤ĸà¤°":1011,"11":1012,"à¤ħà¤ª":1013,"Ġà¤īà¤ł":1014,"30":1015,"Ġà¤ħà¤ľ":1016,"à¥Įà¤Ĥ":1017,"à¤ħà¤ªà¤¨":1018,"à¥Ģ.)":1019,"Ġà¤¸à¤ľ":1020,"à¤¤à¤ļ":1021,"Ġ187":1022,"Ġà¤ķà¤Ł":1023,"à¤ħà¤®":1024,"Ġà¤ªà¤¦à¤ķ":1025,"Ġà¤īà¤¸à¤¸":1026,"à¤²à¤Ĺ":1027,"Ġ2005":1028,"à¤ıà¤ļ":1029,"Ġà¤¤à¤²":1030,"Ġ()":1031,"21":1032,"Ġ26":1033,"Ġà¤¹à¤²":1034,"Ġ$":1035,"Ġà¤¸à¤«à¤²":1036,"à¤°à¤«":1037,"à¤ªà¤ļ":1038,"à¤Ĥà¥¤":1039,"à¤¶à¤ª":1040,"ĠII":1041,"à¤§à¤¤":1042,"à¤Ĩà¤§":1043,"à¤¨à¤¯":1044,"Ġà¤Ĺà¤¹à¤°":1045,"à¤¦à¤µ":1046,"à¥ĭà¥¤":1047,"Ġ28":1048,"Ġà¤¸à¤®à¤¸":1049,"à¤ľà¤®":1050,"à¤¨à¤¬":1051,"Ġ2000":1052,"Ġ27":1053,"Ġ[":1054,"Ġà¤ĩà¤¸à¤¨":1055,"Ġà¤ľà¤µ":1056,"196":1057,"à¤ĭ":1058,"Ġà¤ıà¤¶":1059,"Ġà¤µà¤¨":1060,"à¤łà¤ķ":1061,"à¤ĩà¤ª":1062,"à¤ģà¥¤":1063,"à¤Łà¤«":1064,"Ġà¤¬à¤¦":1065,"à¤¯à¤µà¤¹":1066,"à¤¬à¤¹":1067,"à¤īà¤¤":1068,"Ġ2004":1069,"à¤Łà¤µ":1070,"Ġà¤Ĭà¤°":1071,"à¤¸à¤¬à¤°":1072,"Ġà¤²à¤ķà¤¡":1073,"22":1074,"à¤ıà¤Łà¤°":1075,"Ġ50":1076,"à¤ķà¤µ":1077,"Ġà¤ĩà¤¸à¤¸":1078,"Ġà¤Ĺà¤£à¤°":1079,"Ġà¤Ĺà¤²à¤¤":1080,"à¤Ĥ,":1081,"Ġà¤ĭ":1082,"Ġà¤ĸà¤¡":1083,"à¤Ĺà¤µ":1084,"à¤Īà¤¸":1085,"Ġà¤ħà¤¡":1086,"à¤¹à¤¤à¤°":1087,"à¤¸à¤«":1088,"à¤ħà¤°":1089,"Ġà¤°à¤¸":1090,"à¤Ĺà¤£à¤¨":1091,"Ġà¤°à¤ļà¤¨":1092,"à¤¡à¤ķ":1093,"Ġà¤ĩà¤¨à¤ķ":1094,"Ġà¤²à¤Ĺà¤¤":1095,"Ġà¤¸à¤¹à¤®à¤¤":1096,"Ġà¤ľà¤¨à¤°à¤²":1097,"Ġà¤ĸà¤¤à¤°":1098,"Ġ1990":1099,"à¤Łà¤¤":1100,"Ġà¤ľà¤¨à¤Ĺà¤£à¤¨":1101,"Ġà¤®à¤¤à¤¦":1102,"Ġà¤Ĩà¤¸":1103,"Ġà¤¨à¤Ĺà¤°à¤ª":1104,"Ġà¤ıà¤¯à¤°":1105,"à¤łà¤Ń":1106,"Ġà¤ļà¤¯à¤¨":1107,"Ġà¤¨à¤¸":1108,"Ġ29":1109,"à¥Ĥà¥¤":1110,"à¤®à¤¦":1111,"Ġà¤¬à¤¹à¤¨":1112,"Ġà¤ĩà¤¤à¤¨":1113,"à¤ĩà¤ķà¤²":1114,"à¤®à¤¹":1115,"Ġà¤¬à¤¨à¤¨":1116,"à¥ĭà¤Ĥ\"":1117,"Ġà¤Łà¤°":1118,"Ġà¤®à¤¹à¤²":1119,"Ġ2003":1120,"à¤µà¤Ł":1121,"Ġà¤ľà¤¨à¤¸":1122,"à¤ķà¤¦à¤®":1123,"Ġ1980":1124,"à¤¨à¤¬à¤°":1125,"à¤īà¤¥":1126,"Ġà¤¨à¤ķ":1127,"Ġà¤ķà¤µà¤°":1128,"à¤°à¤¹à¤£":1129,"Ġ40":1130,"Ġà¤¡à¤°":1131,"23":1132,"à¤¨à¤ļ":1133,"à¤°à¤§":1134,"Ġà¤ħà¤°à¤¬":1135,"à¤¹à¤¸":1136,"à¤¼à¥ģ":1137,"Ġà¤Ĩà¤¦à¤®":1138,"à¤¼à¤¾à¥¤":1139,"à¤¥à¤ķ":1140,"à¤ĩà¤¸à¤ķ":1141,"Ġà¤°à¤¨":1142,"à¤ľà¤µ":1143,"à¥Ĥ-":1144,"Ġ2002":1145,"à¤ľà¤¨à¤ķ":1146,"à¥Ģà¤ĥ":1147,"Ġà¤¸à¤®à¤ķ":1148,"25":1149,"à¥Ī)":1150,"à¤¯à¤ª":1151,"à¤¡à¤¸":1152,"Ġ2001":1153,"à¤ĺà¤Łà¤¨":1154,"à¥ĩ)":1155,"Ġà¤®à¤¹à¤¸":1156,"Ġà¤ĳà¤ķ":1157,"40":1158,"Ġ1970":1159,"à¤¦à¤°à¤Ĺ":1160,"à¥Ģ;":1161,"à¥ĩà¤Ĥ)":1162,"Ġà¤¹à¤¥":1163,"Ġà¤ħà¤µà¤¸à¤°":1164,"à¥Ī.":1165,"à¤Ńà¤°":1166,"Ġà¤¦à¤¬":1167,"à¤¿\"":1168,"à¤µà¤ļ":1169,"à¤¾\",":1170,"--------":1171,"Ġà¤ªà¤²":1172,"à¤¸à¤®à¤°":1173,"à¤ĳà¤«":1174,"à¤īà¤²":1175,"âĢ²":1176,"Ġà¤¨à¤·":1177,"Ġà¤ªà¤Ł":1178,"à¤°à¤ĸ":1179,"à¤¯à¤§":1180,"à¤¿-":1181,"Ġà¤¤à¤¸":1182,"à¤°à¤Ĺ":1183,"Ġà¤°à¤µ":1184,"à¤µà¤¦":1185,"à¥¤\"":1186,"Ġà¤°à¤ľ":1187,"à¥ĩ;":1188,"Ġ185":1189,"Ġà¤¹à¤¦":1190,"Ġà¤Ĺà¤ł":1191,"Ġà¤®à¤¶":1192,"à¤·à¤ľ":1193,"Ġà¤ĩà¤ļ":1194,"Ġà¤Ĺà¤µà¤°":1195,"Ġà¤ħà¤Ĺà¤°":1196,"ĠâĢ²":1197,"Ġà¤ĳà¤²":1198,"Ġà¤ļà¤Ł":1199,"à¤ķà¤¬":1200,"à¤¨à¤¸à¤¨":1201,"à¤ªà¤®":1202,"à¤ħà¤¬":1203,"Ġ1999":1204,"Ġà¤ĭà¤£":1205,"à¤Ĺà¤ľ":1206,"à¥Īà¤Ĥ;":1207,"24":1208,"Ġà¤®à¤ľ":1209,"à¤µà¤§":1210,"Ġ1960":1211,"à¤°à¤ª":1212,"Ġ31":1213,"à¤¥à¤µ":1214,"à¤°à¤¸à¤¨":1215,"à¤ļà¤µ":1216,"Ġà¤¬à¤Ł":1217,"à¥Ĥà¤ģ":1218,"à¤ĩà¤¬":1219,"Ġà¤īà¤ªà¤ļ":1220,"Ġà¤®à¤Ľà¤²":1221,"Ġà¤ıà¤µ":1222,"à¤¯à¤¤à¤¨":1223,"Ġà¤®à¤²":1224,"Ġà¤ıà¤¡à¤®":1225,"à¥Ī-":1226,"Ġà¤ļà¤ķ":1227,"Ġ1998":1228,"à¤ľà¤§":1229,"à¤¤à¤²":1230,"à¤¶à¤°":1231,"à¤ħà¤§":1232,"à¤ĸà¤Ń":1233,"Ġà¤ıà¤ķà¤¤":1234,"Ġà¤¸à¤¤à¤¹":1235,"Ġà¤¬à¤¦à¤²à¤¨":1236,"Ġà¤¹à¤¡":1237,"Ġà¤¤à¤¥":1238,"à¤Ĺà¤¡":1239,"Ġà¤ķà¤ªà¤¡":1240,"à¤ªà¤¹à¤²":1241,"Ġà¤ķà¤®à¤°":1242,"Ġà¤ĵà¤ķ":1243,"à¤ĩà¤°":1244,"27":1245,"28":1246,"à¤¡à¤«":1247,"26":1248,"Ġ1996":1249,"à¤ĩà¤¨à¤°":1250,"à¤°à¤Ĺà¤¤":1251,"195":1252,"à¤ªà¤Ł":1253,"à¤¨à¤µà¤°":1254,"à¤Ńà¤µà¤¤":1255,"Ġ1997":1256,"à¤Ĩà¤īà¤Ł":1257,"Ġà¤īà¤¨à¤®":1258,"ĠÃĤ":1259,"Ġà¤ħà¤µà¤¶":1260,"Ġ184":1261,"à¤ıà¤Ł":1262,"Ġà¤¸à¤Ł":1263,"Ġà¤Ńà¤µà¤¨":1264,"Ġà¤¬à¤®":1265,"à¤¾à¤ģ,":1266,"Ġà¤ıà¤Ł":1267,"à¤®à¤§":1268,"Ġà¤Ĩà¤¯à¤°à¤²":1269,"à¤ļà¤¤":1270,"Ġà¤¬à¤¦à¤²à¤ķà¤°":1271,"Ġà¤Ĺà¤łà¤¬":1272,"Ġà¤ĵà¤Ł":1273,"Ġà¤°à¤£à¤¨":1274,"à¤ªà¤¦":1275,"à¤¨à¤«":1276,"194":1277,"Ġà¤®à¤ķ":1278,"Ġà¤ıà¤¥à¤²":1279,"Ġ+":1280,"29":1281,"Ġà¤¡à¤ļ":1282,"à¤Łà¤°à¤¨":1283,"Ġ1995":1284,"Ġ1994":1285,"à¤ĺà¤¨":1286,"Ġà¤ªà¤°à¤®":1287,"Ġà¤ħà¤¶":1288,"Ġà¤ªà¤µ":1289,"Ġà¤¨à¤®":1290,"Ġà¤ļà¤²à¤¨":1291,"Ġ1992":1292,"Ġà¤Ľà¤µ":1293,"Ġà¤ĩà¤µ":1294,"Ġà¤²à¤ĺ":1295,"\"à¥¤":1296,"Ġà¤¦à¤«à¤¨":1297,"à¤ıà¤¡":1298,"à¥ģ-":1299,"à¤®à¤¯":1300,"Ġà¤ĵà¤ª":1301,"à¥ĩà¤ĥ":1302,"Ġà¤¦à¤µ":1303,"Ġà¤ĩà¤Łà¤²":1304,"à¤¯à¤¯":1305,"Ġà¤ķà¤¹à¤¨":1306,"Ġà¤ĩà¤¨à¤®":1307,"Ġà¤Ńà¤Ĺà¤µ":1308,"Ġà¤Ľà¤¤":1309,"à¤ıà¤°":1310,"à¤¼,":1311,"Ġà¤¨à¤°":1312,"Ġà¤ĳà¤ªà¤°":1313,"à¤ħà¤ķ":1314,"à¤¸à¤Ń":1315,"à¤ķà¤¹":1316,"à¤ķà¤²à¤¨":1317,"Ġà¤ıà¤¡à¤µà¤°":1318,"Ġ1993":1319,"Ġx":1320,"à¥Īà¤Ĥà¥¤\"":1321,"Ġ1950":1322,"Ġà¤Ķà¤ªà¤ļ":1323,"Ġ1991":1324,"Ġà¤ĵà¤¹":1325,"Ġ60":1326,"....":1327,"à¤ľà¤Ĺ":1328,"193":1329,"à¤īà¤¦":1330,"à¤¼à¤¾,":1331,"à¤¶à¤¨à¤²":1332,"Ġà¤ľà¤Ł":1333,"Ġà¤¤à¤¨":1334,"à¥ĩà¤Ĥ\"":1335,"à¤²à¤¹":1336,"60":1337,"Ġ183":1338,"Ġà¤Ĩà¤¹":1339,"à¤ľà¤¸":1340,"Ġà¤łà¤¹à¤°":1341,"à¤¶à¤ķà¤¶":1342,"à¤²à¤Ń":1343,"Ġà¤īà¤ľ":1344,"à¤¯à¤Ł":1345,"à¤²à¤¬à¤°":1346,"Ġ1989":1347,"Ġ2023":1348,"Ġà¤ĩà¤ľ":1349,".-":1350,"à¤ªà¤¬":1351,"à¤²à¤ļ":1352,"2010":1353,"à¤Ĺà¤ķà¤°":1354,"Ġà¤¹à¤ľ":1355,"Ġ#":1356,"à¤®à¤¶":1357,"Ġà¤µà¤¯à¤¸":1358,"Ġà¤ĵà¤¬":1359,"à¤ķà¤¥":1360,"Ġ1988":1361,"à¤¸à¤¹":1362,"à¤§à¤°":1363,"Ġà¤Ĺà¤²":1364,"à¤¸à¤°à¤£":1365,"à¤ĩà¤Ĺ":1366,"à¤¤à¤ª":1367,"Ġà¤ķà¤®à¤ľ":1368,"Ġ65":1369,"Ġà¤ľà¤²à¤µ":1370,"à¤ªà¤¯":1371,"80":1372,"à¤Ĺà¤ķ":1373,"Ġà¤ªà¤¨":1374,"Ġ35":1375,"Ġ1987":1376,"à¤ıà¤¶à¤¨":1377,"à¤Ĺà¤¶":1378,"Ġà¤ķà¤¦à¤®":1379,"à¥Ī\"":1380,"à¤Ńà¤ķ":1381,"Ġà¤ªà¤¹à¤¨":1382,"à¤°à¤ķà¤°":1383,"à¤ĩà¤«":1384,"à¤¼à¥Ģ,":1385,"Ġ1986":1386,"Ġà¤ħà¤µà¤°":1387,"Ġà¤ıà¤¬":1388,"à¤ľà¤¯":1389,"à¤°à¤µà¤°":1390,"à¤¨à¤Ĺà¤°":1391,"!\"":1392,"à¤£à¤µà¤¤":1393,"ĠI":1394,"Ġà¤Īà¤°":1395,"à¤¤à¤Ĺ":1396,"Ġà¤¤à¤°à¤«":1397,"Ġà¤ľà¤¨à¤¤":1398,"Ġà¤ħà¤Łà¤²":1399,"Ġ1984":1400,"Ġà¤ļà¤®à¤ķ":1401,"Ġ1985":1402,"Ġà¤°à¤¦":1403,"à¤¨à¤¤à¤®":1404,"à¤ħà¤Ń":1405,"Ġà¤Ĩà¤ĩà¤¸":1406,"à¤¾à¤ģà¥¤":1407,"à¤ľà¤°à¤¤":1408,"à¤ķà¤¤à¤®":1409,"Ġ45":1410,"à¥Ĥ\"":1411,"Ġà¤Ķà¤¦":1412,"ii":1413,"Ġà¤ĳà¤¨à¤²":1414,"Ġà¤¬à¤ļà¤¨":1415,"Ġ1940":1416,"à¥Ĥ,":1417,"Ġà¤¡à¤¬à¤²":1418,"Ġà¤ĵà¤¸":1419,"Ġà¤°à¤Ĺ":1420,"Ġ1983":1421,"Ġ1930":1422,"à¤¯à¤¶":1423,"Ġ1945":1424,"à¤²à¤ķà¤°":1425,"à¤ľà¤¨à¤¨":1426,"Ġà¤®à¤ł":1427,"Ġà¤īà¤Ĺ":1428,"Ġ\",":1429,"à¤Ĺà¤¡à¤®":1430,"Ġà¤ĺà¤Łà¤ķ":1431,"Ġà¤Ĩà¤°à¤ķ":1432,"à¤°à¤¥":1433,"90":1434,"Ġ1982":1435,"Ġ180":1436,"à¤¯à¤ķà¤°":1437,"70":1438,"à¤¬à¤¡":1439,"Ġ1979":1440,"Ġà¤µà¤ľà¤¨":1441,"à¤¨à¤¸à¤Ń":1442,"Ġà¤¸à¤®à¤Ĺ":1443,"Ġà¤ĵà¤µà¤°":1444,"2011":1445,"Ġà¤¦à¤°à¤µ":1446,"à¤¶à¤¸":1447,"à¤ļà¤¡":1448,"à¤ĵà¤²":1449,"Ġà¤Ľà¤ł":1450,"Ġà¤¸à¤®à¤²":1451,"Ġà¤¸à¤°à¤²":1452,"Ġ1972":1453,"2000":1454,"à¤¯à¤²à¤Ł":1455,"à¤ķà¤ķ":1456,"ĠIII":1457,"à¤¸à¤²à¤®":1458,"à¤¾),":1459,"Ġà¤ĳà¤¡":1460,"Ġ80":1461,"Ġà¤ħà¤¸à¤®à¤°":1462,"à¤Ľà¤¤":1463,"Ġà¤®à¤¤à¤²à¤¬":1464,"à¤®à¤µ":1465,"à¤¯à¤¡":1466,"Ġà¤Ĺà¤µ":1467,"Ġà¤¸à¤¨":1468,"Ġà¤ĸà¤¦":1469,"Ġà¤°à¤¹à¤¸":1470,"Ġ\"(":1471,"Ġ1920":1472,"à¤°à¤®à¤¶":1473,"à¤ļà¤°à¤£":1474,"Ġ1974":1475,"à¤¼à¥ĩà¤Ĥ":1476,"à¤µà¤Ń":1477,"à¥Ī?":1478,"190":1479,"à¤¸à¤ļ":1480,"Ġ1981":1481,"Ġ1975":1482,"Ġà¤ļà¤¢":1483,"Ġ1976":1484,"Ġ1968":1485,"à¥ī.":1486,"à¤¤à¤ķà¤°":1487,"Ġà¤Ĩà¤īà¤Ł":1488,"Ġà¤¬à¤¯":1489,"Ġ1978":1490,"à¥Ģ\",":1491,"Ġà¤ĳà¤Ł":1492,"Ġ70":1493,"2012":1494,"à¤µà¤¸à¤¨":1495,"à¤ļà¤¯":1496,"à¤§à¤µ":1497,"à¤Ĺà¤ł":1498,"Ġà¤ĵà¤ªà¤¨":1499,"à¥Ģ/":1500,"à¥Ģà¥¤\"":1501,"31":1502,".,":1503,"Ġ1973":1504,"à¤¬à¤ķ":1505,"à¤¶à¤¹à¤°":1506,"Ġ1977":1507,"à¤¼\"":1508,"Ġ1971":1509,"à¤¶à¤µ":1510,"à¤¯à¤¬":1511,"Ġ1944":1512,"Ġ500":1513,"à¤°à¤°":1514,"à¥Ģ.-":1515,"Ġ1969":1516,"Ġà¤¬à¤¹à¤¸":1517,"Ġ90":1518,"2014":1519,"Ġà¤ķà¤¡":1520,"à¤¡à¤°à¤¸à¤¨":1521,"à¤īà¤¡":1522,"Ġ1967":1523,"à¤£à¤ķà¤Ł":1524,"à¤²à¤¡":1525,"2015":1526,"2016":1527,"Ġ36":1528,"à¤Ĩà¤²":1529,"à¤ķà¤Ī":1530,"Ġ33":1531,"2013":1532,"2008":1533,"à¤¸à¤Ł":1534,"75":1535,"----------------":1536,"2009":1537,"à¤£à¤ķ":1538,"Ġà¤ĺà¤¨à¤¤":1539,"Ġà¤ľà¤¨à¤ľ":1540,"Ġà¤ıà¤Ĺ":1541,"45":1542,"Ġà¤ħà¤Ł":1543,"%)":1544,"à¤°à¤ľà¤¨à¤¨":1545,"2007":1546,"à¤¼à¥ĩà¥¤":1547,"Ġ1964":1548,"à¤¯à¤°à¤²":1549,"à¤ľà¤¹":1550,"ĠÎ":1551,"ĠÂ":1552,"Ġ32":1553,"à¤ĵà¤¸":1554,"35":1555,"Ñģ":1556,"Ġ1965":1557,"à¤¸à¤ľ":1558,"à¤¤à¤°à¤°":1559,"Ġà¤¶à¤°à¤£":1560,"Ġà¤ĩà¤ķà¤Ł":1561,"Ġà¤ľà¤¡":1562,"Ġ44":1563,"Ġà¤Ĺà¤ľ":1564,"à¤¬à¤°à¤²":1565,"Ġ*":1566,"à¤¦à¤°à¤²":1567,"à¤ªà¤Łà¤¨":1568,"à¤ķà¤¶":1569,"Ġi":1570,"Ġà¤«à¤²":1571,"2017":1572,"Ġ1966":1573,"à¤ľà¤¦":1574,"Ġ1942":1575,"Ġ|":1576,"Ġà¤Ĩà¤ĸ":1577,"à¤®à¤ª":1578,"à¤ļà¤®":1579,"à¤īà¤ª":1580,"Ġà¤īà¤¨à¤¸":1581,"Ġà¤¬à¤Ĺà¤²":1582,"2006":1583,"à¤ªà¤¡":1584,"à¤ªà¤¥":1585,"à¤²à¤«":1586,"à¤¾)à¥¤":1587,"2018":1588,"ÃĤÃĤ":1589,"à¥Ī\",":1590,"Ġà¤¸à¤®à¤¨":1591,"à¥ģà¥¤":1592,"à¤ĳà¤¸":1593,"Ġà¤Ĺà¤¡":1594,"Ġa":1595,"Ġ1941":1596,"Ġà¤Ĺà¤£à¤¨":1597,"à¤¼à¥ĩ,":1598,"Ġà¤ĳà¤¨":1599,"Ġà¤ħà¤µà¤¸":1600,"à¤¨à¤ľ":1601,"2019":1602,"95":1603,"Ġ34":1604,"Ġ1943":1605,"à¤¦à¤¯":1606,"à¤¸à¤¡":1607,"à¤¶à¤®":1608,"à¤®à¤¡":1609,"à¤ıà¤¶":1610,"Ġà¤¢à¤ķ":1611,"à¤Łà¤ķà¤¥":1612,"Ġà¤Ńà¤¯":1613,"99":1614,"Ġà¤ħà¤ĸ":1615,"Ġ1962":1616,"à¤¼à¥Ģà¥¤":1617,"à¥ĩà¥¤\"":1618,"Ġ1963":1619,"Ġ38":1620,"Ġà¤Ńà¤²":1621,"à¤¯à¤¥":1622,"Ġà¤Ĩà¤µà¤°à¤£":1623,"Ġà¤ıà¤¥":1624,"Ġ1948":1625,"à¤°à¤¹à¤µ":1626,"Ġ1946":1627,"à¤ªà¤¹à¤°":1628,"à¤¶à¤¯":1629,"à¤ĵà¤°":1630,"Ġà¤Ĩà¤¦à¤°":1631,"Ġà¤ĩà¤¬":1632,"à¤Ĺà¤¦à¤°":1633,"Ġà¤īà¤ªà¤¨à¤Ĺà¤°":1634,"à¤¸à¤¬à¤¸":1635,"Ġà¤µà¤¨à¤¸":1636,"à¤ħà¤¸":1637,"Ġ64":1638,"à¤«à¤²à¤¤":1639,"Ġ1939":1640,"2020":1641,"à¤ĩà¤¡à¤°":1642,"à¥Ģ.,":1643,"Ġà¤ªà¤Łà¤ķà¤¥":1644,"Ġà¤ļà¤°à¤®":1645,"à¤Łà¤°à¤¸":1646,"à¤¾'":1647,"à¤īà¤¨à¤¶":1648,"Ġà¤Łà¤ķà¤°":1649,"2005":1650,"Ðµ":1651,"Ġt":1652,"500":1653,"Ġ1961":1654,"à¤¹à¤¦":1655,"Ġà¤¤à¤®":1656,"Ġà¤¬à¤Ĺ":1657,"Ġ37":1658,"à¤¼à¥Ī":1659,"à¤¥à¤¶":1660,"à¤¯à¤ľ":1661,"à¤ĺà¤®":1662,"à¤ªà¤¸à¤¨":1663,"à¥ĭ)":1664,"Ġ1947":1665,"33":1666,"Ġ1956":1667,"à¤°à¤ķà¤Ł":1668,"Ġà¤ħà¤¸à¤«à¤²":1669,"Ġà¤īà¤¤à¤°":1670,"Ġà¤¸à¤¶à¤¸":1671,"Ġà¤¬à¤ľà¤Ł":1672,"à¥Īà¤Ĥ-":1673,"à¤ķà¤«":1674,"Ġ1958":1675,"Ġà¤ªà¤¤à¤¨":1676,"Ġ1959":1677,");":1678,"85":1679,"à¤ĵà¤ķ":1680,"à¤¸à¤®à¤¸":1681,"Ġà¤īà¤·":1682,"à¤¦à¤¬":1683,"à¥Ģ'":1684,"Ġà¤Ĩà¤ªà¤°":1685,"à¤¯à¤Łà¤¨":1686,"Ġà¤īà¤¤à¤¨":1687,"à¤ıà¤ª":1688,"à¤Ĩà¤ľ":1689,"Ġà¤ªà¤°à¤¤":1690,"Ġà¤¡à¤ķ":1691,"Ġà¤¨à¤ķà¤²":1692,"âĢĿ":1693,"Ġà¤ĩà¤ľà¤°":1694,"86":1695,"Ġ1957":1696,"Ġà¤®à¤°à¤®":1697,"à¤¯à¤°à¤¸":1698,"96":1699,"Ġà¤Łà¤ļà¤¡":1700,"36":1701,"Ġà¤īà¤ªà¤¹":1702,"à¤·à¤¸":1703,"2004":1704,"à¤ľà¤¨à¤¸":1705,"Ġà¤īà¤ªà¤Ń":1706,"Ġà¤īà¤°":1707,"à¤Łà¤ª":1708,"à¤ĩà¤¬à¤°":1709,"à¤Łà¤ľ":1710,"Ġ1949":1711,"à¤¡à¤Ł":1712,"à¥Ī)à¥¤":1713,"à¥ģ,":1714,"à¤²à¤ª":1715,"à¤¨à¤ķà¤°":1716,"Ġà¤¨à¤¹à¤°":1717,"er":1718,"à¤§à¤ķà¤°":1719,"Ġà¤ĸà¤¨à¤¨":1720,"à¤īà¤ļ":1721,"Ġ300":1722,"Ġ-":1723,"Ġ1955":1724,"Ġ1952":1725,"88":1726,"Ð¾":1727,"Ġà¤ĺà¤¨":1728,"à¤Ĩà¤ª":1729,"Ġà¤²à¤¹à¤°":1730,"Ġà¤ķà¤¸":1731,"97":1732,"Ġà¤ħà¤µà¤²":1733,"à¤ĩà¤Łà¤¨":1734,"Ġà¤¬à¤¨à¤¤":1735,"Ġ1918":1736,"à¤ŀà¤¤":1737,"Ġ1954":1738,"à¤¬à¤¤":1739,"à¤¸à¤Ĺ":1740,"34":1741,"Ġà¤īà¤Ń":1742,"Ġà¤°à¤ĸà¤°à¤ĸ":1743,"à¤Ĩà¤ķ":1744,"à¤ªà¤£à¤¨":1745,"37":1746,"94":1747,"à¤°à¤®à¤°":1748,"98":1749,"Ġ1953":1750,"Ġà¤Ĩà¤ĩ":1751,"?\"":1752,"Ġà¤¬à¤¹à¤¤":1753,"à¤¨à¤ª":1754,"1990":1755,"à¤Łà¤°à¤ª":1756,"........":1757,"à¤Īà¤²":1758,"Ġà¤¬à¤ķ":1759,"65":1760,"Ġ75":1761,"Ġà¤¹à¤¨":1762,"à¤ľà¤¨à¤µà¤°":1763,",,":1764,"Ġà¤ĩà¤Ł":1765,"38":1766,"à¤Łà¤°à¤«":1767,"à¤µà¤µà¤°":1768,"à¤¹à¤µ":1769,"47":1770,"à¥Ģ),":1771,"Ġà¤Ķà¤ªà¤¨":1772,"Ġ1951":1773,"à¤¦à¤¨à¤¶":1774,"Ġà¤¬à¤¸à¤¨":1775,"à¤ªà¤ĸ":1776,"Ġ1938":1777,"à¤ľà¤¨à¤¯":1778,"Ġc":1779,"Ġà¤ĸà¤¨":1780,"à¤¼à¥ī":1781,"Ġà¤¸à¤¸":1782,"2003":1783,"Ġà¤§à¤®à¤ķ":1784,"à¤ĩà¤®à¤¨":1785,"64":1786,"Ġà¤Łà¤¨":1787,"Ġ150":1788,"Ġ1936":1789,"Ġà¤¸à¤ªà¤¨":1790,"Ġ1919":1791,"à¤¼-":1792,"ĠÃ":1793,"à¤¶à¤¬":1794,"Ġà¤¬à¤°à¤ķà¤°":1795,"92":1796,"à¤·à¤Ĺ":1797,"Ġà¤¸à¤¦à¤¨":1798,"à¤ľà¤°à¤²":1799,"2021":1800,"Ġà¤ĵà¤¡":1801,"à¤Ĩà¤¯":1802,"Ġ1917":1803,"Ġâ":1804,"Ġà¤¨à¤°à¤¸":1805,"93":1806,"66":1807,"2001":1808,"à¤®à¤Ī":1809,"Ġ48":1810,"Ġ(;":1811,"Ġ1937":1812,"à¤ħà¤Ĺà¤¸":1813,"à¥Īà¥¤..":1814,"77":1815,"à¤īà¤¸à¤ķ":1816,"55":1817,"à¤®à¤ľ":1818,"Ġà¤ħà¤ªà¤µ":1819,"Ġà¤ħà¤¯":1820,".>":1821,"à¤²à¤Ĺà¤Ńà¤Ĺ":1822,"à¤Ĺà¤²à¤¸":1823,"Ġà¤ħà¤¸à¤¹":1824,"Ġ400":1825,"à¤¡à¤¸à¤¨":1826,"à¤®à¤¹à¤¤":1827,"Ġà¤ıà¤¯à¤°à¤²":1828,"48":1829,"32":1830,"2002":1831,"Ġà¤ĵà¤®":1832,"à¤ľà¤¬à¤ķ":1833,"Ġà¤ħà¤ªà¤®":1834,"Ġv":1835,"Ġà¤Ńà¤°à¤¨":1836,"Ġà¤ĺà¤¡":1837,"à¤ªà¤µ":1838,"Ġà¤«à¤¸à¤²":1839,"Ġ1914":1840,"Ġà¤ħà¤¸à¤®":1841,"Ġb":1842,"à¤ķà¤Ĺ":1843,"76":1844,"Ġà¤²à¤µ":1845,"ĠÂ£":1846,"Ġ\"[":1847,"à¤¶à¤¨à¤°":1848,"à¤Łà¤°à¤¬":1849,"Ġà¤Ķà¤¸":1850,"Ġ1935":1851,"à¤¸à¤¨à¤ķ":1852,"à¥Ĥà¤ģà¥¤":1853,"à¤¤à¤ľ":1854,"Ġ42":1855,"100":1856,"Ġà¤°à¤ľà¤¤":1857,"44":1858,"Ġà¤ıà¤ķà¤ľ":1859,"1980":1860,"Ġà¤µà¤«":1861,"Ġ1933":1862,"à¤®à¤®":1863,"Ġà¤¹à¤«":1864,"Ġà¤ľà¤¸":1865,"Ġà¤ĸà¤ľ":1866,"Ġà¤¤à¤¯":1867,"à¤¡à¤¶":1868,"Ġà¤¸à¤ĸ":1869,"2022":1870,"Ġà¤Ĩà¤Ĺà¤®à¤¨":1871,"91":1872,"Ġà¤īà¤ªà¤Ĺ":1873,"à¤¼à¥Ĥ":1874,"à¤¹à¤Ł":1875,"Ġà¤¬à¤ļà¤ªà¤¨":1876,"à¤ķà¤Łà¤¤":1877,"Ġ1900":1878,"Ġ1929":1879,"Ġà¤Ķà¤¸à¤¤à¤¨":1880,"78":1881,"à¤«à¤°à¤µà¤°":1882,"à¤¾/":1883,"Ġà¤¦à¤°à¤¬":1884,"Ġà¤¨à¤¤":1885,"Ġ55":1886,"à¤Ĺà¤«":1887,"à¤¹à¤¯":1888,"à¤°à¤·":1889,"à¤¡à¤¹":1890,"à¤¾\")":1891,"Ġà¤¨à¤ľ":1892,"Ġà¤Ĩà¤łà¤µ":1893,"à¤¨à¤¶":1894,"à¤ĩà¤«à¤²":1895,"ĠÏ":1896,"Ġ1934":1897,"à¤ĸà¤¦":1898,"Ġà¤Ĩà¤Ń":1899,"Ġà¤ªà¤¨à¤¡":1900,"à¤¬à¤¢":1901,"à¤¾à¥¤..":1902,"Ġà¤¬à¤®à¤¬":1903,"Ġà¤Īà¤®":1904,"Ġ1928":1905,"Ġà¤ĩà¤Ĺ":1906,"à¤Łà¤Ĺ":1907,"à¤¿à¤ĥ":1908,"Ġà¤ĩà¤¶":1909,"à¤ķà¤²à¤¤":1910,"Ġà¤ıà¤ķà¤¡":1911,"Ġà¤ĵà¤µ":1912,"à¤Ĥ.":1913,"Ġ1910":1914,"Ġà¤ªà¤¤à¤²":1915,"68":1916,"Ġà¤¢à¤²":1917,"à¤ĳà¤ķ":1918,"Ġà¤Ĺà¤¶":1919,"Ġà¤ĸà¤Ĺ":1920,"à¤µà¤°à¤ª":1921,"Ġà¤ĳà¤Ĺà¤¸":1922,"ĊĠ":1923,"Ġà¤ªà¤¬":1924,"Ġà¤¨à¤¶":1925,"Ġ49":1926,"à¤¥à¤¤":1927,"à¤¿.":1928,"Ġà¤ıà¤²à¤¨":1929,"1999":1930,"à¤ľà¤¶":1931,"Ġà¤īà¤§":1932,"à¤¶à¤ľ":1933,"Ġ1922":1934,"Ġ1924":1935,"Ġ1932":1936,"Ġs":1937,"Ġà¤¸à¤®à¤Ŀà¤¨":1938,"Ġ1921":1939,"Ġà¤Ńà¤¤":1940,"46":1941,"Ġà¤§à¤ķ":1942,"Ġà¤¹à¤Łà¤¨":1943,"Ġ41":1944,"à¤ıà¤ľ":1945,"Ġ39":1946,"Ġ1931":1947,"89":1948,"à¤ĳà¤°":1949,"Ġà¤ĳà¤ª":1950,"Ġà¤¶à¤¨":1951,"Ġ1916":1952,"42":1953,"Ġ1927":1954,"Ġà¤ļà¤ļ":1955,"à¤ļà¤¤à¤®":1956,"87":1957,"à¥¤..":1958,"Ġà¤īà¤Ńà¤°":1959,"Ġ1915":1960,"Ġà¤¹à¤®à¤¨":1961,"Ġ46":1962,"à¤¦à¤¸":1963,"Ġà¤ĸà¤¤à¤°à¤¨":1964,"Ġ47":1965,"Ġm":1966,"à¤£à¤¤":1967,"Ġ1925":1968,"%,":1969,"Ġ1912":1970,"à¥Īà¤Ĥ\"":1971,"Ġà¤ĳà¤°à¤²":1972,"1970":1973,"Ġà¤ıà¤¹à¤¸":1974,"à¤ħà¤¦":1975,"à¤®à¤¸à¤®à¤°":1976,"Ġ1923":1977,"ĠIV":1978,"à¤°à¤¹à¤®":1979,"Ġà¤¡à¤Ĺà¤²à¤¸":1980,"84":1981,"à¤Łà¤¡":1982,"à¤§à¤ª":1983,"à¤ľà¤°à¤¨":1984,"à¤¸à¤®à¤¯":1985,"Ġ1926":1986,"à¤¨à¤Ĺ":1987,"à¥ĩ\",":1988,"39":1989,"à¤¸à¤°à¤ķ":1990,"Ġà¤¬à¤µ":1991,"à¤ħà¤¤":1992,"à¤ĩà¤ªà¤°":1993,"à¤ķà¤¸à¤¨":1994,"à¤¾?":1995,"Ġà¤ļà¤¤":1996,"à¤²à¤ļà¤¸":1997,"-\"":1998,"Ġ1913":1999,"67":2000,"à¥Ī),":2001,"à¤¹à¤®à¤¦":2002,"à¤Łà¤²à¤°":2003,"à¤Ĩà¤®":2004,"à¤ªà¤¹":2005,"à¤ķà¤Łà¤¤à¤®":2006,"Ġà¤īà¤ªà¤µ":2007,"Ġà¤¦à¤¯":2008,"à¤ģ,":2009,"à¤īà¤°":2010,"à¤ĩà¤µà¤°":2011,"Ġà¤¤à¤¹":2012,"à¤ĵà¤¨":2013,"49":2014,"1998":2015,"à¤ĩà¤®à¤°":2016,"à¤®à¤°à¤£":2017,"Ġà¤Ĺà¤¨":2018,"83":2019,"Ġà¤¤à¤²à¤µ":2020,"à¤£à¤ª":2021,"à¤Ĥ\"":2022,"Ġà¤ħà¤ªà¤¹à¤°à¤£":2023,"à¤¯à¤®à¤¨":2024,"Ġà¤ĺà¤Ł":2025,"Ð¸":2026,"Ġà¤ªà¤Łà¤°":2027,"à¥Īà¤Ĥ.":2028,"1997":2029,"Ġà¤ħà¤«à¤Ĺ":2030,"Ġà¤īà¤ªà¤°":2031,"à¤¯à¤Łà¤ķ":2032,"à¤Ĩà¤ªà¤ķ":2033,"à¤²à¤ľ":2034,"à¤ªà¤°à¤®":2035,"Ġ(,":2036,"Ġ43":2037,"Ġ1911":2038,"à¤ľà¤¤à¤¨":2039,"à¤ħà¤Ĺà¤²":2040,"à¥ĭà¤Ĥà¥¤":2041,"à¤ľà¤¤":2042,"Ġà¤ĭà¤¤":2043,"Ġà¤¤à¤°à¤²":2044,"à¤Ĺà¤¬":2045,"185":2046,"82":2047,"74":2048,"Ġà¤®à¤²à¤¯":2049,"Ġà¤Ĩà¤¯à¤¨":2050,"72":2051,"1996":2052,"à¤°à¤Ĺà¤®à¤¨":2053,"à¤¼à¥Ģ-":2054,"à¥ĩà¤Ĥ-":2055,"Ġ52":2056,"à¤®à¤¬à¤°":2057,"Ġà¤¸à¤®à¤ķà¤ķ":2058,"à¤¿)":2059,"81":2060,"Ġ51":2061,"Ġà¤¨à¤ľà¤°":2062,"à¤¨à¤Ī":2063,"à¤ľà¤¨à¤°à¤²":2064,"\"),":2065,"à¤ıà¤ı":2066,"Ġà¤ıà¤µà¤°":2067,"à¤Łà¤°à¤¡":2068,"Ġà¤ķà¤£":2069,"62":2070,"Ġ1890":2071,"Ġ(<":2072,"41":2073,"63":2074,"à¤²à¤¸à¤¨":2075,"à¤Ŀà¤ķà¤°":2076,"Ġà¤°à¤¬":2077,"Ġà¤Łà¤ķ":2078,"à¤¬à¤°à¤¨":2079,"Ġ1908":2080,"à¥ģ\"":2081,"Ġà¤¡à¤²":2082,"à¤Ĩà¤Ĺ":2083,"à¤¡à¤ľ":2084,"à¥īà¥¤":2085,"Ġà¤¶à¤µ":2086,"à¥¤,":2087,"1960":2088,"Ġà¤¥à¤°":2089,"à¤ĳà¤¨":2090,"Ġà¤ıà¤Łà¤²":2091,"à¤ıà¤¸à¤ıà¤¸":2092,")\"":2093,"61":2094,"Ġà¤Ĩà¤ªà¤¦":2095,"Ġà¤¨à¤²":2096,"Ġà¤¨à¤Ĺ":2097,"Ġà¤¹à¤ķ":2098,"à¤¦à¤Ĺ":2099,"ÑĤ":2100,"71":2101,"79":2102,"à¤µà¤¯à¤¨":2103,"à¤¨à¤ı":2104,"05":2105,"à¤Łà¤°à¤²":2106,"à¤Ĳà¤¸":2107,"Ġr":2108,"1995":2109,"à¤¦à¤Ń":2110,"43":2111,"in":2112,"Î¿":2113,"à¤°à¤¬à¤°":2114,"à¤ķà¤ĺà¤°":2115,"Ġà¤ĸà¤¬à¤°":2116,"à¤¯à¤µà¤°":2117,"Ġth":2118,"or":2119,"à¤¯à¤ľà¤¨à¤ķ":2120,"à¤ĵà¤µà¤°":2121,"Ġà¤ªà¤¹à¤¨à¤¨":2122,"Ġà¤Ĺà¤¹à¤¨":2123,"--------------------------------":2124,"à¤¸à¤Łà¤¨":2125,"Ġà¤ħà¤µà¤ķ":2126,"à¤°à¤ļà¤²":2127,"à¤¶à¤Ńà¤ķ":2128,"Ġà¤¬à¤ļà¤¤":2129,"à¤°à¤Ł":2130,"73":2131,"Ġà¤Ŀà¤°à¤¨":2132,"à¤īà¤¨à¤²":2133,"à¤¨à¤ľà¤¨à¤ķ":2134,"Ġà¤¶à¤ªà¤¥":2135,"69":2136,"Ġà¤Ĩà¤ªà¤¤":2137,"Ġ1905":2138,"Ġà¤¦à¤²à¤¦à¤²":2139,"à¤ħà¤ļ":2140,"Â°":2141,"à¤°à¤ķà¤°à¤£":2142,"Ġà¤Ĺà¤£à¤¤":2143,"à¤¦à¤¦":2144,"Ġà¤®à¤ľà¤¦":2145,"Ġ1880":2146,"\"-":2147,"à¤¨à¤¡":2148,"Ġà¤Ĺà¤¢":2149,"Ġà¤Ĩà¤ªà¤¸":2150,"à¥ĩà¤Ĥ)à¥¤":2151,"1994":2152,"Ġà¤¥à¤ķ":2153,"Ġà¤¨à¤®à¤ķ":2154,"Ġà¤ªà¤°à¤µ":2155,"Ġà¤¶à¤²":2156,"à¤¬à¤Ī":2157,"Ð°":2158,"Ġà¤Łà¤®":2159,"st":2160,"ÃĤÃĤÃĤÃĤ":2161,"Ġà¤Ĩà¤ī":2162,"Ġ1906":2163,"Ġ1907":2164,"Ġ1909":2165,"Ġà¤°à¤ļ":2166,"Ġà¤ªà¤¦à¤Ń":2167,"Ġ.":2168,"à¤ĵà¤®":2169,"Ġà¤ħà¤¹à¤®à¤¦":2170,"Ġà¤²à¤Łà¤ķ":2171,"à¤¼à¥¤":2172,"Ġà¤ħà¤¸à¤¹à¤®à¤¤":2173,"à¤¾!":2174,"à¤·à¤ª":2175,"1992":2176,"à¤²à¤Ł":2177,"à¤łà¤¤":2178,"Ġà¤īà¤ªà¤¦":2179,"Ġà¤®à¤£":2180,"à¥ĩà¤Ĥ;":2181,"Î±":2182,"Ġà¤ıà¤¡à¤µ":2183,"Ġà¤¨à¤°à¤®":2184,"Ġ120":2185,"à¤µà¤¸à¤®":2186,"à¤¤à¤°à¤¤":2187,"à¤ĺà¤ķ":2188,"Ġà¤ıà¤¨à¤¬":2189,"à¤¡à¤ª":2190,"Ġà¤¬à¤¦à¤²à¤¤":2191,"à¤§à¤¡":2192,"Ġd":2193,"Ġ250":2194,"Ġà¤ªà¤ļ":2195,"à¤ħà¤«":2196,"à¤ķà¤Ĩà¤īà¤Ł":2197,"à¤¼à¥Īà¤Ĥ":2198,"Ġà¤¯à¤ķ":2199,"Ġ54":2200,"on":2201,"Ġ\",\"":2202,"Ġ1904":2203,"à¤Īà¤µ":2204,"à¤Ńà¤ª":2205,"Ġn":2206,"à¤ľà¤ª":2207,"à¤ĵà¤¹":2208,"à¤ĵà¤ª":2209,"1993":2210,"à¤¡à¤¬à¤°":2211,"à¤ľà¤ķà¤¤":2212,"à¤ħà¤ľ":2213,"à¤°à¤ķà¤²":2214,"Ġ85":2215,"à¤¡à¤²à¤°":2216,"',":2217,"Ġà¤ľà¤¨à¤®à¤¤":2218,"à¥¤à¥¤":2219,"Ġp":2220,"à¤¤à¤¬":2221,"Ġ53":2222,"à¤Łà¤¸à¤¨":2223,"Ġ1902":2224,"Ġ1901":2225,"à¤ĵà¤Ł":2226,"1991":2227,"Ġ1870":2228,"Ġ95":2229,"à¥Īà¤Ĥ?":2230,"Ġà¤¬à¤ĸ":2231,"Ġà¤¶à¤°à¤¦":2232,"à¤Łà¤°à¤¸à¤¨":2233,"à¤°à¤¡":2234,"Ġà¤ĵà¤ľ":2235,"à¤§à¤°à¤£":2236,"à¥ĭ\",":2237,"Ġà¤®à¤ķà¤¬à¤°":2238,"à¥ĩà¤Ĥ.":2239,"à¤ıà¤ķà¤²":2240,"Ġ1903":2241,"Ġ175":2242,"à¤ķà¤ħà¤ª":2243,"à¤®à¤ķà¤¤":2244,"ĊĊ":2245,"Ġà¤Īà¤Ĺà¤²":2246,"à¤ļà¤¸":2247,"ĠV":2248,"Ġà¤¦à¤®":2249,"à¥Ģ\")":2250,"Ġf":2251,"à¤ĸà¤£":2252,"Ġà¤īà¤¥à¤²":2253,"Ġà¤¸à¤¹à¤¸":2254,"Ġà¤īà¤¤à¤°à¤¨":2255,"à¤°à¤«à¤²":2256,"à¤ħà¤Ĺà¤°":2257,"//":2258,"à¤£à¤µ":2259,"Ġà¤ķà¤ľ":2260,"à¤¥à¤Ĺ":2261,"à¤ıà¤ļà¤¡":2262,"Ġà¤Ĭà¤¤à¤ķ":2263,"en":2264,"à¥ĩ),":2265,"Ġà¤ķà¤ļ":2266,"Ġ56":2267,"à¥ĩà¤Ĥ),":2268,"à¤¨à¤¹à¤Ł":2269,"à¤¬à¤ļ":2270,"Ġà¤ķà¤¶":2271,"à¥Ĥà¤Ĥ,":2272,"à¤Łà¤°à¤®":2273,"Ġà¤¤à¤¹à¤ĸ":2274,"à¤ĩà¤¬à¤²":2275,"Ġ160":2276,"à¤¸à¤µà¤°":2277,"à¤®à¤«":2278,"à¤ħà¤µ":2279,"à¤®à¤¸à¤¨":2280,"Ġà¤Ľà¤¦":2281,"Ġà¤ªà¤¤à¤µ":2282,"à¤«à¤¸":2283,"à¤Łà¤ļ":2284,"an":2285,"à¤ĥ,":2286,"1989":2287,"Ġ57":2288,"Ġà¤ħà¤£":2289,"Ġà¤Ĺà¤¦":2290,"Ġà¤ªà¤¹à¤¨à¤¤":2291,"Ġà¤ľà¤¶":2292,"Ġ1898":2293,"Ġ600":2294,"à¤Łà¤¹":2295,"à¤Ĳà¤¤":2296,"Ġà¤īà¤Ńà¤°à¤¤":2297,"à¤¯à¤°à¤¨":2298,"à¥Ĥà¤ģ,":2299,"]\"":2300,"Ġà¤ıà¤¨à¤¸":2301,"Ġà¤¨à¤ķà¤¦":2302,"Ġà¤§à¤¬":2303,"1950":2304,"Ġà¤Ĩà¤ªà¤¨":2305,"à¤¦à¤¤":2306,"Ġà¤Ĳà¤ª":2307,"à¤¼à¤¿à¤Ĥ":2308,"à¤Ľà¤¨":2309,"à¥ĭà¤Ĥ)":2310,"Ġ1000":2311,"Ġà¤ĩà¤¡":2312,"Ġà¤²à¤¯":2313,"Ġà¤¦à¤¸à¤µ":2314,"Ġ1899":2315,"à¤¾à¤Ĥ,":2316,"à¤¦à¤ª":2317,"Ġà¤īà¤ķ":2318,"à¤īà¤¬":2319,"Ġà¤īà¤¦à¤¯":2320,"à¤®à¤¬":2321,"Ġ\"à¥¤":2322,"iii":2323,"à¤¤à¤¸":2324,"Ġà¤Ŀà¤Ĺà¤¡":2325,"à¤Ĭà¤¦":2326,"Ġà¤ıà¤¬à¤°":2327,"à¤¯à¤²à¤°":2328,"à¤¾\"à¥¤":2329,"Ġà¤¯à¤¥":2330,"à¤µà¤²à¤ªà¤°":2331,"ĠVII":2332,"à¤¬à¤¹à¤¨":2333,"Îµ":2334,"Ġà¤¶à¤¤à¤°":2335,"à¤¨à¤µà¤¤":2336,"à¥Īà¤Ĥ)":2337,"à¤¦à¤¹":2338,"Ġà¤¤à¤ĸ":2339,"Ġà¤ªà¤¦à¤¨":2340,"Ġà¤Īà¤µ":2341,"Ġ1860":2342,"à¤Ĺà¤£":2343,"08":2344,"Î¹":2345,"à¤¡à¤¹à¤°":2346,"à¥Ĥ)":2347,"à¤¾,\"":2348,"à¥Ī!":2349,"Ġà¤ĩà¤¨à¤¡":2350,"Ġà¤°à¤¡":2351,"Ġ58":2352,"Ġà¤ħà¤¹":2353,"Ġà¤ľà¤Ĺ":2354,"à¥Ĥà¤Ĥà¥¤":2355,"Ġà¤¶à¤¸":2356,"à¤ªà¤²à¤Ł":2357,"à¤·à¤°à¤¤":2358,"à¤ªà¤°à¤µ":2359,"Ġ66":2360,"à¤²à¤¶":2361,"à¤ĩà¤Łà¤°":2362,"à¤¯à¤°à¤¤":2363,"Ġà¤²à¤Ĺà¤¨":2364,"Ġà¤¸à¤®à¤Ŀà¤¤":2365,"]]":2366,"Ġà¤¨à¤«":2367,"Ġà¤ıà¤«à¤ıà¤®":2368,"09":2369,"à¤ĩà¤ļ":2370,"Ġ1896":2371,"à¥Ģ)à¥¤":2372,"ĠÑģ":2373,"Ġà¤²à¤²":2374,"à¤Łà¤°à¤µ":2375,"1988":2376,"à¤«à¤®":2377,"Ġà¤Ĩà¤ĩà¤²":2378,"à¤īà¤ªà¤¯":2379,"à¤ıà¤¬":2380,"52":2381,"à¤īà¤ľ":2382,"à¤ıà¤²à¤¸":2383,"Ġà¤ªà¤µà¤¨":2384,"Ġ59":2385,"Ġ72":2386,"Ġ1897":2387,"Ġà¤ħà¤¨à¤ľ":2388,"à¤¤à¤°à¤¬":2389,"à¤ĩà¤Ĺà¤°":2390,"01":2391,"07":2392,"à¤īà¤¸à¤¨":2393,"Ġ1895":2394,"Ġà¤ħà¤ł":2395,"à¤ļà¤ķà¤°":2396,"54":2397,"Ġ63":2398,"................":2399,"à¤¸à¤²à¤°":2400,"Ġ(),":2401,"1987":2402,"à¤¡à¤Ĺ":2403,"Ġà¤Ńà¤ľà¤¨":2404,"Ġà¤¸à¤¹à¤ķ":2405,"à¤¯à¤®à¤¯":2406,"Ġà¤Ľà¤¡":2407,"Ġà¤®à¤²à¤¬":2408,"Ġ1893":2409,"à¤ĩà¤¸à¤²":2410,"à¤ıà¤¸à¤ı":2411,"Ġà¤Ĩà¤¯à¤¤":2412,"Ġà¤ħà¤Ńà¤¯":2413,"Ġà¤ķà¤µà¤ļ":2414,"Ġ1889":2415,"Ġà¤ıà¤¨à¤ľ":2416,"à¤Īà¤®":2417,"à¤«à¤°à¤¸à¤¨":2418,"06":2419,"à¤ľà¤ķà¤°":2420,"Ġà¤Ĩà¤µà¤°":2421,"à¤¶à¤¨à¤ķ":2422,"à¤ªà¤°à¤¸":2423,"Ġà¤Ĩà¤ĩà¤¸à¤²":2424,"1986":2425,"Ġà¤ľà¤¤":2426,"à¥Īà¤Ĥ\",":2427,"53":2428,"Ġ62":2429,"Ġà¤īà¤ªà¤ľ":2430,"à¤¥à¤¸":2431,"Ġà¤²à¤ļ":2432,"1985":2433,"à¤īà¤ªà¤¨":2434,"à¤Ĺà¤°à¤£":2435,".),":2436,"Ġ1894":2437,"à¤ıà¤µ":2438,"à¤ıà¤¯à¤°":2439,"Ġ1892":2440,"Ġà¤®à¤¦à¤°à¤¸":2441,"Ġ61":2442,"at":2443,"51":2444,"à¤Ĩà¤µ":2445,"Ġ800":2446,"Ġ1885":2447,"1984":2448,"Ġà¤ľà¤¬à¤°à¤¨":2449,"à¤²à¤Łà¤¨":2450,"re":2451,"Ġà¤°à¤¶":2452,"Ġà¤ħà¤ªà¤¶":2453,"Ġà¤ıà¤®à¤ıà¤¸":2454,"Ġà¤ħà¤«à¤µ":2455,"Ġà¤ªà¤¹à¤²à¤µ":2456,"Ġ1850":2457,"à¥Ĥ.)":2458,"Ġà¤Ĩà¤ĺ":2459,"Ġà¤ĩà¤¨à¤ª":2460,"Ġà¤¤à¤Łà¤¸":2461,"Ġ99":2462,"Ġà¤¶à¤¹":2463,"Ġà¤®à¤°à¤¨":2464,"à¤°à¤¬à¤²":2465,"Ġ1891":2466,"Ġ1865":2467,"Ġà¤Ńà¤Ł":2468,"à¤¬à¤¸à¤¨":2469,"Ġ1864":2470,"à¤ªà¤°à¤ķ":2471,"Ġ1888":2472,"à¤®à¤Ł":2473,"Ġ68":2474,"à¤Ĩà¤¯à¤°à¤²":2475,"Ġà¤¨à¤«à¤°à¤¤":2476,"it":2477,"à¤ıà¤«à¤ı":2478,"Ġ1862":2479,"ī¤":2480,"à¤ĵà¤µ":2481,"à¤²à¤¦":2482,"Ġà¤ķà¤ļà¤°":2483,"Ġ1861":2484,"Ġ76":2485,"à¤Łà¤°à¤Ł":2486,"):":2487,"Ġ67":2488,"1983":2489,"Ġ1863":2490,"à¤¹à¤¨à¤¤":2491,"Ġà¤¸à¤Ĭà¤¦":2492,"à¤¤à¤°à¤«":2493,"1982":2494,"56":2495,"Ġ1887":2496,"à¤¸à¤¦à¤¸":2497,"à¤¯à¤£":2498,"à¤Ĺà¤¹à¤®":2499,"02":2500,"Ġà¤īà¤Ĺà¤¤":2501,"à¤Ĺà¤ª":2502,"Ġà¤¬à¤®à¤µà¤°":2503,"Ġà¤µà¤²":2504,"Ġà¤ĩà¤°à¤µ":2505,"à¤®à¤ķà¤°à¤£":2506,"à¤¼à¥Ģ\"":2507,"Ġà¤¨à¤ľà¤°à¤ħ":2508,"04":2509,"à¤®à¤°à¤¸":2510,"à¤¨à¤¹à¤°":2511,"Ġà¤ľà¤¯":2512,"à¥ĩ'":2513,"à¤Łà¤°à¤¬à¤°":2514,"ĠÃĹ":2515,"à¤¯à¤ļà¤ķ":2516,"Ð½":2517,"Ġà¤°à¤¤":2518,"à¤ĵà¤¡":2519,"57":2520,"Ġà¤¨à¤Ł":2521,"Ġà¤°à¤¯":2522,"1979":2523,"Ġà¤®à¤¤à¤ªà¤¤":2524,"ar":2525,"Ġ1886":2526,"Ġà¤¸à¤¹à¤ľ":2527,"à¤®à¤£":2528,"58":2529,"à¤Ĭà¤ªà¤°":2530,"à¤Ńà¤°à¤¤":2531,"Ġà¤Ĩà¤ķà¤²à¤¨":2532,"Ġà¤Ĩà¤īà¤Łà¤²":2533,"à¥Ģà¤Ĥ.":2534,"Ġà¤ĵà¤ķà¤²":2535,"à¤ħà¤µà¤²":2536,"à¥ĩ)à¥¤":2537,"à¤ıà¤¨à¤ı":2538,"Ġà¤®à¤µ":2539,"Ġ77":2540,"Ġà¤ķà¤¤à¤°":2541,"03":2542,"Ġ1884":2543,"à¤¸à¤ķà¤°":2544,"Ġ74":2545,"à¤ıà¤¡à¤®":2546,"à¤ķà¤«à¤°":2547,"à¤¦à¤°à¤¤":2548,"59":2549,"à¤Īà¤ª":2550,"1981":2551,"à¤°à¤µà¤ķ":2552,"Ġà¤¦à¤®à¤¨":2553,"Ġà¤Ńà¤ķ":2554,"Ġ1881":2555,"à¥ĭà¤Ĥ-":2556,"Ġà¤®à¤Ľ":2557,"à¥ĩà¤Ĥà¥¤\"":2558,"Ġ78":2559,"Ġo":2560,"Î½":2561,"à¥Ģà¤Ĥ\"":2562,"à¥ĩà¤Ĥà¤ĥ":2563,"à¤ĩà¤Łà¤²":2564,"1974":2565,"Ġà¤¬à¤Łà¤²à¤°":2566,"Ġ96":2567,"Ġ69":2568,"à¤§à¤¶":2569,"à¤Ĺà¤Ł":2570,"à¤¤à¤¨à¤§":2571,"Ġà¤ıà¤¨à¤µ":2572,"à¤ĳà¤²":2573,"à¤ıà¤Łà¤²":2574,"Ġ71":2575,"Ġ88":2576,"à¤¡à¤°à¤²":2577,"Ġ98":2578,"à¤ħà¤Ĺ":2579,"à¤ĺà¤Ł":2580,"1978":2581,"à¤µà¤¨à¤ķ":2582,"1972":2583,"ĠX":2584,"Ġà¤ĵà¤Ĺ":2585,"Ġà¤ļà¤®à¤¤":2586,"Ġà¤Ĩà¤£à¤µ":2587,"Ġ('":2588,"400":2589,"Ġà¤ľà¤¹à¤°":2590,"Ġà¤¸à¤¹à¤ķà¤°":2591,"Ġà¤¹à¤¡à¤¸à¤¨":2592,"¥ħ":2593,"à¥ħ":2594,"Ġà¤ĸà¤¤":2595,"Ġà¤ķà¤¤":2596,"Ġ73":2597,"Ġxi":2598,"1975":2599,"Ġà¤ªà¤°à¤¸":2600,"Ġ1882":2601,"1930":2602,"Ġà¤¸à¤¹à¤¨":2603,"à¥ĭ.":2604,",\"":2605,"à¤®à¤ķà¤¥":2606,"Ġà¤ĵà¤¨":2607,"300":2608,"1976":2609,"à¤Ĺà¤®à¤°à¤®à¤°":2610,"Ġà¤īà¤Ľ":2611,"à¤ĩà¤ľà¤°":2612,"1977":2613,"à¥Ģà¥¤,":2614,"Ġ{":2615,"Ġà¤īà¤ķà¤¸":2616,"Ġ82":2617,"à¤µà¤ļà¤¨":2618,"à¤Łà¤Ł":2619,"es":2620,"Ġà¤ķà¤²à¤®":2621,"Ġ1883":2622,"Ġà¤ıà¤®à¤¸":2623,"Ġà¤Ĩà¤¦à¤¤":2624,"Ġà¤¤à¤Ń":2625,"Ġà¤ªà¤¥":2626,"1973":2627,"à¥Ī?\"":2628,"Ġ1871":2629,"à¤īà¤¨à¤Ł":2630,"Ġà¤¹à¤ķà¤¦":2631,"à¤Īà¤ıà¤«à¤ı":2632,",,,,":2633,"Ġ1876":2634,"à¤¯à¤°à¤«":2635,"à¤ıà¤®à¤ıà¤¸":2636,"Ġà¤Ĩà¤ķà¤¸":2637,"à¤ĩà¤¨à¤®":2638,"Ġà¤īà¤ªà¤¸à¤®":2639,"Ġh":2640,"à¤ĩà¤ķà¤°":2641,"Ġà¤ĸà¤²":2642,"Ġà¤Ĩà¤¸à¤¨":2643,"ÑĢ":2644,"Ġà¤·":2645,"à¤ļà¤²à¤¨":2646,"Ġ97":2647,"à¤ĩà¤¸à¤®":2648,"Ġ92":2649,"Ġà¤īà¤ªà¤ĸ":2650,"ch":2651,"2023":2652,"Ġk":2653,"Ġà¤¡à¤¨":2654,"Ġthe":2655,"1920":2656,"Ġà¤ļà¤®à¤ķà¤¤":2657,"...":2658,"à¤£à¤®":2659,"à¤Ĺà¤¨à¤°":2660,"Ġ81":2661,"à¤ĩà¤¸à¤¨":2662,"Ġà¤ªà¤ł":2663,"à¤Ĺà¤Ĺ":2664,"Ġà¤°à¤¨à¤µ":2665,"Ġ1867":2666,"Ġ1840":2667,"Ġ1878":2668,"à¤ĵà¤ĵ":2669,"1969":2670,"à¤Łà¤¨à¤°":2671,"Ġ87":2672,"à¤¸à¤¶":2673,"Ġ1879":2674,"1971":2675,"Ñĩ":2676,"à¤ļà¤Ł":2677,"à¤¼à¥Į":2678,"Ġ1875":2679,"à¤Ĩà¤®à¤¤":2680,"Ġ1872":2681,"Ġà¤ĸà¤°à¤Ĺ":2682,"à¥Ģà¤Ĥ;":2683,"à¤Ĩà¤µà¤ľ":2684,"à¤¡à¤°à¤¬":2685,"./":2686,"à¤¯à¤°à¤¬":2687,"Ġ84":2688,"Ġ93":2689,"Ġâī¤":2690,"1968":2691,"Ġ86":2692,"à¤¹à¤¨à¤Ĺà¤°":2693,"1940":2694,"ed":2695,"à¤ĩà¤¨à¤¸":2696,"à¤ľà¤²à¤µ":2697,"Ġ79":2698,"à¤ĺà¤µ":2699,"à¤ķà¤µà¤°":2700,"Ġà¤Ĭà¤¨":2701,"à¤¡à¤°à¤®":2702,"Ġà¤¨à¤°à¤ķ":2703,"1967":2704,"Ġ1874":2705,"Ġ1866":2706,"à¤¤à¤°à¤¦":2707,"à¥Ģ.),":2708,"Ġ1873":2709,"Ġl":2710,"à¤ĩà¤¥":2711,"ĠÎ±":2712,"Ġà¤ħà¤ĸà¤¬":2713,"Ġ1868":2714,"Ġe":2715,"Ġ101":2716,"à¤ĩà¤Łà¤¹":2717,"à¤¥à¤¯":2718,"Ġw":2719,"Ġà¤ĩà¤¯":2720,"__":2721,"Ġà¤Ĩà¤Īà¤ª":2722,"à¤¶à¤Ĺ":2723,"Ïģ":2724,"à¤®à¤°à¤¨":2725,"Ġ1877":2726,"à¤¥à¤°à¤¨":2727,"à¤īà¤®":2728,"Ġ83":2729,"à¤¯à¤°à¤§":2730,"Ġà¤¬à¤Łà¤¨":2731,"Ġà¤ħà¤¸à¤²":2732,"à¤Ŀà¤¸":2733,".\"":2734,"Ġà¤ªà¤Ĺà¤¡":2735,"Ġà¤Īà¤¶":2736,"TT":2737,">)":2738,"à¤Ľà¤Ł":2739,"à¤ĸà¤²à¤¨":2740,"à¤«à¤¡":2741,"al":2742,"Ġ89":2743,"à¤ªà¤¨à¤¹":2744,"Ġg":2745,"Ġ110":2746,"Ġà¤ķà¤Łà¤ķ":2747,"Ġà¤«à¤²à¤¨":2748,"Ġà¤¬à¤ªà¤¤":2749,"Ġà¤Ĩà¤ļà¤°à¤£":2750,"à¥ĩ/":2751,"Ġà¤īà¤²à¤Ł":2752,"\":":2753,"à¤ľà¤Ĺà¤£":2754,"Ġà¤®à¤¤à¤Ń":2755,"Ġà¤ıà¤®à¤ª":2756,"Ġ91":2757,"</":2758,"à¤¸à¤Łà¤°":2759,"Ġà¤ķà¤¥à¤¨":2760,"à¤¢à¤ķ":2761,"à¤Łà¤ķà¤ķ":2762,"Ġ1869":2763,"Ġ1848":2764,"à¤Ĺà¤²à¤µ":2765,"Ġ700":2766,"à¤¦à¤¶":2767,"à¤ĸà¤ķà¤°":2768,"à¤Łà¤°à¤¶":2769,"Ġ94":2770,"ĊĠĊĠ":2771,"Ġà¤ħà¤µà¤¤":2772,"Ġà¤®à¤°à¤£":2773,"à¤µà¤®":2774,"à¤Ĩà¤¸":2775,"\";":2776,"Ġà¤¸à¤®à¤¤à¤²":2777,"à¤ĳà¤ªà¤°":2778,")-":2779,"à¤¬à¤²à¤°":2780,"1965":2781,"Ġà¤Ŀà¤Łà¤ķ":2782,"à¤ªà¤ļà¤¯":2783,"Ġà¤¬à¤§":2784,"Ġà¤Īà¤¯à¤°":2785,"Ġ1800":2786,"1964":2787,"Ġà¤¸à¤Ĺ":2788,"Ġà¤ıà¤¨à¤°":2789,"nd":2790,"à¥Īà¤Ĥ)à¥¤":2791,"Ġà¤ļà¤®à¤¡":2792,"Ġà¤ķà¤µà¤ķ":2793,"Ġà¤ķà¤Ľ":2794,"Ġà¤Ĩà¤ıà¤Ĺ":2795,"à¤¤à¤®à¤¯":2796,"Ġà¤Ńà¤Ĺ":2797,"Ġà¤Ńà¤°à¤ª":2798,"Ġà¤īà¤¬":2799,"Ġà¤¤à¤²à¤Ľà¤Ł":2800,"à¤Ĩà¤¶":2801,"ĠâĤ":2802,"à¥ĩà¤Ĥ\",":2803,"à¤ĵà¤¬":2804,"Ġà¤ĸà¤²à¤¨":2805,"/>":2806,"Ġ[[":2807,"à¥Īà¤Ĥà¥¤..":2808,"à¥Ģà¤Ĥ)":2809,"Ġ1830":2810,"à¤¹à¤¬":2811,"Ġà¤¬à¤ľà¤°":2812,"à¤¶à¤®à¤¨":2813,"Ġà¤ħà¤®à¤°":2814,"à¤ĩà¤¨à¤ħà¤ª":2815,"Ġà¤ľà¤²à¤¨":2816,"à¤µà¤¯à¤ķ":2817,"Ġà¤¦à¤°à¤ķ":2818,"à¤°à¤µà¤£":2819,"1966":2820,"Ġà¤ħà¤²à¤®":2821,"à¤¾à¤ģ\"":2822,"à¤ıà¤¸à¤ª":2823,"Ġà¤ªà¤²à¤Ł":2824,"Ġà¤ħà¤²à¤¬":2825,"à¤µà¤°à¤²":2826,"Ġà¤ļà¤¯":2827,"Ġà¤Ŀà¤¡":2828,"1945":2829,"à¤¨à¤¯à¤¨":2830,"Ġà¤ħà¤ļà¤²":2831,"à¤«à¤¬":2832,"th":2833,"à¤°à¤®à¤¨":2834,"à¤ıà¤¡à¤µà¤°":2835,"Ġà¤®à¤ķà¤¡":2836,"Ġà¤¬à¤ķà¤°":2837,"à¥Ģ]":2838,"ÑĤÐµ":2839,"à¥Īà¥¤'":2840,"à¤µà¤Ĺ":2841,"Ġà¤®à¤ļ":2842,"Ġà¤¹à¤¸à¤¨":2843,"800":2844,"à¤¼)":2845,"ĠÐ¾":2846,"à¤ħà¤°à¤¬":2847,"Ġ1857":2848,"Ġà¤ĩà¤¥":2849,"à¤·à¤°à¤£":2850,"à¤¡à¤®à¤°":2851,"à¤Ĩà¤¹":2852,"à¥Ģà¤Ĥà¤ĥ":2853,"à¤°à¤®à¤£à¤ķ":2854,"ĠVIII":2855,"à¤Łà¤¶":2856,"à¤Īà¤ľ":2857,"Ġà¤ĵà¤ıà¤¸":2858,"à¤¨à¤Ĺà¤°à¤ª":2859,"à¤Łà¤¥":2860,"à¤²à¤Ĺà¤°":2861,"à¤Ńà¤Ĺà¤µ":2862,"à¤Ĩà¤¦":2863,"1963":2864,"Ġ1859":2865,"à¤Ńà¤¨":2866,"Ê¼":2867,"à¤ıà¤¥":2868,"Ġy":2869,"à¤īà¤¡à¤°":2870,"Ġà¤§à¤¡":2871,"à¤¼à¤¾à¤Ĥ":2872,"à¤ľà¤Ł":2873,"Ġà¤Ĩà¤Īà¤¡":2874,"à¤¡à¤ļ":2875,"à¤ķà¤ľ":2876,"à¤·à¤§":2877,"is":2878,"Ġà¤²à¤¤":2879,"à¤§à¤²":2880,"Ġà¤Ĩà¤¯à¤°à¤¨":2881,"Ġ130":2882,"ÃĤÃĤÃĤÃĤÃĤÃĤÃĤÃĤ":2883,"à¤¯à¤°à¤¶":2884,"Ġà¤īà¤¸à¤®":2885,"Ġ\")":2886,"à¤¡à¤¸à¤°":2887,"Ġà¤¹à¤¬":2888,"à¤ķà¤¬à¤°":2889,"Ġ1854":2890,"Ġà¤ĸà¤ªà¤¤":2891,"à¤¤à¤ķà¤¨":2892,"à¤¤à¤¹":2893,"1962":2894,"à¤ļà¤«":2895,"Ġ125":2896,"à¤Ĺà¤²à¤°":2897,"à¤ĩà¤Łà¤®":2898,"Ġà¤ľà¤²à¤¡à¤®à¤°":2899,"Ð»":2900,"Ġà¤ļà¤°à¤µ":2901,"à¤¬à¤Ł":2902,"Ġà¤ĳà¤ķà¤²":2903,"Ġ1855":2904,"ÏĦ":2905,"âĢ¢":2906,"à¤¤à¤¨à¤¶":2907,"Ġà¤ªà¤ª":2908,"à¤¼à¤Ĥ":2909,"Ġà¤Ĭà¤·":2910,"Ġà¤¨à¤¨":2911,"1961":2912,"Ġà¤Ĩà¤Īà¤Ł":2913,"Ġà¤īà¤ĸ":2914,"Ġ1856":2915,"Ġà¤Łà¤°à¤¬":2916,"600":2917,"à¥Ģ./":2918,"à¤Ĺà¤®à¤¨":2919,"Ġà¤®à¤ķà¤Ī":2920,"Ġà¤ļà¤¶":2921,"Ġ\"-":2922,"Ġà¤ħà¤Łà¤ķà¤²":2923,"ĠâĤ¬":2924,"Ġà¤ªà¤°à¤ľ":2925,"Ġ1858":2926,"à¤¼à¥ħ":2927,"Ġà¤°à¤¬à¤°":2928,"à¤īà¤¨à¤¸":2929,"à¤¯à¤¨à¤ķà¤ķ":2930,"Ġà¤ľà¤²à¤®":2931,"à¥ĩ?":2932,"à¤Īà¤ķ":2933,"Ġà¤®à¤Ĺ":2934,"Ġà¤ķà¤®à¤²":2935,"Ġà¤¸à¤®à¤µà¤°":2936,"à¤ĺà¤²":2937,"à¤ķà¤Łà¤µà¤°":2938,"à¤µà¤°à¤ķ":2939,"à¥¤)":2940,"à¤ļà¤¢":2941,"Ê¼Ê¼":2942,"Ġà¤«à¤µ":2943,"Ġà¤ıà¤¸à¤ıà¤¸":2944,"----------------------------------------------------------------":2945,"à¥ĭà¤ĥ":2946,"Ġ1851":2947,"Ġà¤ħà¤¯à¤¸":2948,"Ġà¤°à¤«":2949,"Ġà¤ªà¤²à¤Łà¤¨":2950,"Ġà¤īà¤¤à¤°à¤¤":2951,"à¤ľà¤ªà¤¤":2952,"ĪĴ":2953,"à¥Īà¥¤)":2954,"Ġ350":2955,"à¤Łà¤ķà¤°":2956,"à¤¹à¤ľ":2957,"ers":2958,"à¥ĩ]":2959,"Ġà¤īà¤Ł":2960,"Ġà¤¸à¤¤à¤°":2961,"à¤¡à¤¬à¤²":2962,"Ġà¤Ĩà¤ĩà¤°":2963,"Ġà¤Ĩà¤īà¤Łà¤ª":2964,"à¤łà¤°":2965,"1939":2966,"\")à¥¤":2967,"à¤°à¤Ľ":2968,";\"":2969,"Ġà¤¬à¤¦à¤®":2970,"à¤¤à¤¶":2971,"à¤ķà¤Łà¤¨":2972,"Ġ1852":2973,"Ġ</":2974,"1958":2975,"Ġà¤ľà¤¨à¤°":2976,"à¤§à¤ļ":2977,"1948":2978,"ÑģÑģ":2979,"à¤¯à¤ķà¤°à¤£":2980,"1956":2981,"le":2982,"à¤¯à¤²à¤¨":2983,"://":2984,"à¤¾à¥¤)":2985,"à¤Ĺà¤¢":2986,"à¤ľà¤¨à¤¬":2987,"Ġà¤ıà¤®à¤¬":2988,"Ġà¤¶à¤¯à¤¨à¤ķà¤ķ":2989,"Ġà¤ıà¤²à¤ľ":2990,"Ġà¤Ķà¤·à¤§":2991,"1959":2992,"à¤²à¤¯à¤¨":2993,"à¤¡à¤¨à¤°":2994,"Ġà¤¸à¤®à¤¤":2995,"à¤ĩà¤ªà¤²":2996,"Ġà¤ļà¤®à¤ķà¤¦":2997,"Ġà¤ĳà¤¨à¤°":2998,"Ġà¤Ńà¤Łà¤ķ":2999,"Ġ1853":3000,"Ġà¤ıà¤®à¤ı":3001,"Ġà¤ĺà¤¬à¤°":3002,"Ġ1849":3003,"à¤Ĥ)":3004,"à¤£à¤¸":3005,"à¤ķà¤²à¤°":3006,"Ġà¤¸à¤¬à¤ķ":3007,"à¤Ĺà¤Ŀ":3008,"Ġ105":3009,"à¤²à¤¨à¤¶":3010,"Ð¼":3011,"à¤Łà¤¬à¤¦":3012,"à¤ĩà¤²à¤°":3013,"à¤ħà¤ªà¤°":3014,"Ġ1500":3015,"Ġ1847":3016,"ic":3017,"à¤¯à¤ļà¤°":3018,"Ġà¤ıà¤®à¤Ł":3019,"à¤ĩà¤ĳà¤ķ":3020,"1947":3021,"à¤¯à¤°à¤®":3022,"ĠĠ":3023,"1955":3024,"à¤ıà¤«à¤ıà¤®":3025,"Ġà¤®à¤¦à¤°":3026,"à¤Īà¤ĵ":3027,"1957":3028,"Ġà¤ıà¤¨à¤ķ":3029,"à¤ıà¤¨à¤¬":3030,"à¤īà¤¥à¤®":3031,"Ġà¤¸à¤¨à¤ķ":3032,"à¤¾à¥¤'":3033,"à¤ļà¤¯à¤¨":3034,"HTT":3035,"Ġà¤īà¤²à¤Ŀ":3036,"à¤Ĩà¤¯à¤°":3037,"à¤¾]":3038,"Ġà¤«à¤°à¤®":3039,"à¥Ģà¤Ĥ-":3040,"à¤Īà¤°":3041,"')":3042,"Ġ140":3043,"Ġà¤¬à¤¹à¤°":3044,"à¤¾à¤ĥ\"":3045,"Ġà¤§à¤®à¤¨":3046,"Ġà¤ħà¤¨à¤¦":3047,"1946":3048,"Ġ1846":3049,"ÏĤ":3050,"à¤ģ\"":3051,"Ġà¤Ńà¤¡":3052,"à¥ĭ!":3053,"à¤Ĺà¤µà¤°":3054,"1949":3055,"à¤ĵà¤ľ":3056,"Ġ&":3057,"Ġà¤¤à¤¦à¤¨":3058,"Ġà¤ĩà¤«":3059,"%),":3060,"Ġà¤¸à¤ķà¤²":3061,"à¤®à¤¨à¤¦":3062,"Ġà¤°à¤®":3063,"à¤¶à¤Ń":3064,"700":3065,"Ġà¤Ľà¤²":3066,"1954":3067,"à¤ķà¤ķà¤¥":3068,"à¤¨à¤Ŀ":3069,"à¤¥à¤²à¤Ĺ":3070,"à¤ıà¤¥à¤²":3071,"1953":3072,"à¤ıà¤¸à¤Ł":3073,"à¤²à¤µà¤°":3074,"à¤°à¤§à¤¨":3075,"à¤¤à¤°à¤ķ":3076,"1952":3077,"Ġà¤®à¤¨à¤®":3078,"ĠĊ":3079,"à¤¯à¤Ń":3080,"Ġ900":3081,"à¤Łà¤°à¤ķ":3082,"à¤Īà¤Ł":3083,"Ġà¤ľà¤¬à¤¡":3084,"Ġ1812":3085,"ff":3086,"Ġà¤¡à¤°à¤¤":3087,"Ġà¤ľà¤²à¤¤":3088,"Ġà¤¤à¤Łà¤°":3089,"Ġ000":3090,"[[":3091,"Ġà¤ĸà¤®":3092,"Ġ1845":3093,"Ġà¤²à¤°":3094,"à¤Ĺà¤ļ":3095,"Ġà¤ķà¤¦":3096,"à¤µà¤¨à¤¸":3097,"Ġ1820":3098,"à¤¤à¤°à¤ľ":3099,"à¤µà¤°à¤¹":3100,"Ġà¤µà¤²à¤¯":3101,"Ġà¤µà¤¹à¤¨":3102,"ĠÏĦ":3103,"Ġ102":3104,"Ġà¤¦à¤¹":3105,"Ġà¤¸à¤°à¤¦":3106,"1900":3107,"Ġà¤¡à¤¸":3108,"à¤Łà¤Ĩà¤īà¤Ł":3109,"à¤ªà¤°à¤¹":3110,"à¥ĭ;":3111,"br":3112,"à¥Ģ\"à¥¤":3113,"Ġà¤¸à¤¬à¤µ":3114,"Î»":3115,"Ġà¤°à¤¸à¤¦":3116,"à¤¸à¤°à¤¶":3117,"à¤ıà¤¨à¤¸":3118,"1951":3119,"à¤·à¤ľà¤¨à¤ķ":3120,"1936":3121,"à¤Ľà¤¹":3122,"à¤¯à¤¬à¤²":3123,"Ġà¤ĩà¤®à¤°":3124,"à¤Łà¤¸à¤®":3125,"à¤Ľà¤¡":3126,"à¤¸à¤¨à¤°":3127,"ou":3128,"Ġ118":3129,"Ġà¤ıà¤¸à¤¸":3130,"Ġà¤ĵà¤µà¤°à¤Ł":3131,"Ġ1837":3132,"Ġà¤Ĩà¤Ł":3133,"à¤ĩà¤¶":3134,"à¤ĩà¤¨à¤¬":3135,"à¤¡à¤µà¤°":3136,"XX":3137,"à¤²à¤ķà¤¨":3138,"à¤¾!\"":3139,"à¤ıà¤¨à¤ıà¤¨":3140,"à¤Łà¤ħà¤ª":3141,"Ġ360":3142,"à¤ľà¤®à¤°":3143,"à¤ªà¤«":3144,"Ġ103":3145,"à¤Ĩà¤ĩà¤¸":3146,"Ġà¤¸à¤®à¤®":3147,"Ġà¤ħà¤ľà¤¨à¤¬":3148,"Ġof":3149,"Ġà¤ķà¤łà¤ª":3150,"................................":3151,"Ġà¤ľà¤ľ":3152,"as":3153,"1918":3154,"il":3155,"Ġà¤īà¤Ńà¤¯à¤ļà¤°":3156,"Ġà¤¸à¤°à¤£":3157,"à¤¾?\"":3158,"1938":3159,"Ġà¤Ĩà¤ĩà¤µ":3160,"\".":3161,"à¤¯à¤°à¤µ":3162,"à¤µà¤¡":3163,"Ġà¤ıà¤²à¤¸":3164,"à¤¡à¤¤":3165,"à¤¡à¤¡":3166,"Ġ1836":3167,"Ġ1841":3168,"Ġà¤¶à¤Łà¤²":3169,"1937":3170,"à¤²à¤²":3171,"à¤Łà¤°à¤¹":3172,"à¤¦à¤ĸà¤²":3173,"om":3174,"à¥ģ)":3175,"à¤ķà¤ł":3176,"Ġà¤¬à¤¦à¤¨":3177,"Ġà¤ıà¤Łà¤ķ":3178,"Ġ104":3179,"Ġà¤ĳà¤¬":3180,"à¤ļà¤¬":3181,"Ġ1844":3182,"Ġà¤ļà¤®":3183,"Ġà¤ªà¤¨à¤¬":3184,"à¤ıà¤¸à¤¸":3185,"1941":3186,"à¤ĩà¤ķà¤Ĩà¤īà¤Ł":3187,"à¤Ĩà¤¦à¤®":3188,"Ġ1839":3189,"Ġà¤ĵà¤µà¤°à¤²":3190,"à¥ĭà¤Ĥ'":3191,"à¥Īà¤Ĥ?\"":3192,"250":3193,"ion":3194,"Ġ1838":3195,"à¥Īà¥¤âĢĿ":3196,"à¤Ĩà¤Īà¤µ":3197,"Ġà¤ĺà¤Łà¤ķà¤°":3198,"Ġà¤¨à¤¬":3199,"1942":3200,"à¤°à¤®à¤¬à¤¦":3201,"Ġà¤Ĺà¤®":3202,".)à¥¤":3203,"à¥Ģ!":3204,"1944":3205,"à¥īà¤Ĥ":3206,"à¤°à¤¶à¤¸":3207,"1910":3208,"Ġà¤Łà¤¸":3209,"à¤¾à¥¤,":3210,"Ġ1842":3211,"Ġà¤ĩà¤¨à¤²":3212,"à¤ħà¤Łà¤²":3213,"Ġà¤µà¤ľ":3214,"à¤ªà¤ķà¤²":3215,"Ġ1843":3216,"à¥Ģà¥¤..":3217,"à¤ªà¤°à¤¬":3218,"Ġà¤ıà¤²à¤°":3219,"Ġ1835":3220,"1919":3221,"Ġ106":3222,"Ġà¤«à¤Ł":3223,"Ġà¤ķà¤¸à¤®":3224,"à¤¬à¤°à¤¦à¤¸":3225,"à¤ĩà¤¸à¤¸":3226,"Ġà¤¨à¤µà¤Ĺà¤ł":3227,"à¤Łà¤¤à¤®":3228,"Ġà¤Ĳà¤¶":3229,"1914":3230,"Ã©":3231,"Ñĥ":3232,"à¤Ĺà¤ľà¤¨à¤ķ":3233,"1935":3234,"à¤Ĩà¤¬":3235,"à¤¥à¤¬":3236,"à¤ĸà¤¸":3237,"à¤ıà¤¸à¤ıà¤¸à¤Ĩà¤°":3238,"à¥ĭ/":3239,"1933":3240,"Ġ1832":3241,"à¤¼à¥ĩà¤Ĥà¥¤":3242,"à¥ģà¤ĥ":3243,"Ġq":3244,"Ġà¤Ĩà¤ĵ":3245,"Ġà¤ıà¤¶à¤²":3246,"Ġà¤ħà¤¨à¤¸":3247,"à¤Ĩà¤ĵ":3248,"Ġà¤¬à¤¤à¤ĸ":3249,"à¤ıà¤¨à¤ľ":3250,"Ġà¤¤à¤ª":3251,"à¥Īà¤Ĥ!":3252,"à¤Ĺà¤¯":3253,"à¤¹à¤£":3254,".à¥¤":3255,"org":3256,"Ġà¤Ĩà¤ļ":3257,"Ġ109":3258,"à¤¼à¤¾\"":3259,"à¤ªà¤¤à¤Ł":3260,"1934":3261,"1929":3262,"à¤Ĩà¤ł":3263,"à¤Īà¤ļ":3264,"Ġà¤¹à¤ļ":3265,"1913":3266,"Ġà¤¸à¤¶à¤ķ":3267,"1928":3268,"à¤¦à¤ľ":3269,"à¥¤-":3270,"à¤¸à¤ĺ":3271,"à¤¬à¤²à¤¡à¤¨":3272,"à¤¯à¤¸à¤¨":3273,"1922":3274,"à¤¬à¤Ĺ":3275,"ol":3276,"à¤Īà¤¡":3277,"Ġà¤ªà¤¦à¤ļ":3278,"à¤Ĺà¤¤à¤¤":3279,"el":3280,"à¤Ĭà¤°":3281,"à¤Ńà¤¦":3282,"à¤Ĥ-":3283,"Ġà¤ĸà¤Ł":3284,"],":3285,"à¥ĭ),":3286,"Ġà¤ħà¤µà¤ľ":3287,"à¤¸à¤®à¤ķ":3288,"Ġà¤¯à¤®à¤¨":3289,"à¤ıà¤²à¤¨":3290,"Ġà¤ĭà¤·":3291,"),\"":3292,"1912":3293,"Ġà¤Īà¤ķ":3294,"à¤¹à¤¥":3295,"Ġà¤Īà¤²":3296,"1932":3297,"à¥ĭ'":3298,"Ġà¤ħà¤ªà¤¡":3299,"Ġà¤¡à¤«":3300,"à¥ĩ\")":3301,"à¤¸à¤¨à¤²":3302,"Ġ107":3303,"à¤¯à¤¨à¤¸":3304,"à¤²à¤ĺ":3305,"Ġà¤ħà¤ªà¤²":3306,"à¤Łà¤¨à¤¬à¤°":3307,"à¤¹à¤ª":3308,"Ġ1815":3309,"Ġà¤®à¤Ł":3310,"Ġà¤ĵà¤µà¤°à¤¹":3311,"Ġà¤ľà¤¬à¤°à¤¦à¤¸":3312,"1927":3313,"1921":3314,"à¤µà¤°à¤¸":3315,"1943":3316,"à¤¬à¤¬":3317,"à¤ıà¤«à¤¸":3318,"ĊĊĠ":3319,"à¤Łà¤°à¤ļ":3320,"à¥Īà¤Ĥ),":3321,"Ġà¤ĩà¤·":3322,"à¤¾\"),":3323,"Ġà¤Ĩà¤ĩà¤ķà¤¨":3324,"Ïĥ":3325,"Ġ3000":3326,"Ġà¤ıà¤Łà¤²à¤¸":3327,"Ġà¤ıà¤¬à¤°à¤¡":3328,"à¤ªà¤¸à¤®":3329,"Ġà¤¸à¤¦à¤®":3330,"Ġà¤ħà¤ªà¤¤à¤Ł":3331,"Ġ1814":3332,"à¤ķà¤§":3333,"à¥ĩà¥¤..":3334,"Ġ1834":3335,"à¤¡à¤°à¤µ":3336,"à¤²à¤¹à¤°":3337,"à¤¢à¤¨":3338,"Ġà¤ĵà¤¶":3339,"\"\"":3340,"Ġ108":3341,"1925":3342,"à¤ĩà¤¡à¤²":3343,"à¤ĳà¤Ł":3344,"1926":3345,"à¤¨à¤Ĺà¤¨":3346,"ĠW":3347,"à¤Īà¤¬":3348,"Ġ450":3349,"à¤ıà¤ļà¤ıà¤¸":3350,"Ġà¤²à¤Łà¤ķà¤¤":3351,"1924":3352,"<</":3353,"à¥ĩ!":3354,"à¤¦à¤¡":3355,"à¤Ĺà¤²à¤¤":3356,"à¤®à¤µà¤°":3357,"Ġ1831":3358,"Ġà¤ľà¤¨à¤µ":3359,"Ġà¤ľà¤ķ":3360,"à¤ıà¤¸à¤¡":3361,"à¤¦à¤¹à¤µ":3362,"Ġà¤ıà¤¸à¤Ł":3363,"Îº":3364,"Ġà¤¬à¤¦à¤¤à¤°":3365,"1923":3366,"1917":3367,"1931":3368,"à¤¾à¤ģà¤ĥ":3369,"à¤Īà¤¦":3370,"à¤¨à¤ļà¤°":3371,"à¤¨à¤Łà¤¨":3372,"à¤µà¤°à¤®":3373,"1911":3374,"à¤¸à¤ıà¤ķ":3375,"Ġ1833":3376,"à¥¤'":3377,"Ġà¤¹à¤°à¤ķ":3378,"Ġà¤¹à¤Ĺ":3379,"iv":3380,"à¤Ĺà¤²à¤ªà¤¨":3381,"à¥Ī!\"":3382,"à¤ıà¤¸à¤Ĩà¤°":3383,"Ġà¤Ĩà¤ĩà¤¬":3384,"Ġà¤īà¤ªà¤¶":3385,"à¤¯à¤¨à¤ľ":3386,"Ġà¤¸à¤¹à¤ª":3387,"à¤²à¤Ŀ":3388,"150":3389,"Ġà¤ªà¤łà¤¨":3390,"à¤¬à¤¦à¤²":3391,"et":3392,"à¤®à¤¬à¤¤":3393,"Ġà¤Ńà¤°à¤¤":3394,"à¤¾à¥¤âĢĿ":3395,"Ġà¤°à¤¹à¤®":3396,"1890":3397,";;":3398,"Ġà¤ıà¤¸à¤Ĩà¤°":3399,"à¤¨à¤¥":3400,"/\"":3401,"à¤ĩà¤Łà¤¸":3402,"Ġà¤¬à¤¶à¤°":3403,"Ġà¤¬à¤«":3404,"à¤°à¤®à¤ļ":3405,"à¥ĭ\")":3406,",-":3407,"à¥Ģà¤Ĥà¥¤\"":3408,"Ġà¤ĩà¤Ĩà¤¨":3409,"à¤Ĩà¤ļ":3410,"Ġà¤ıà¤¥à¤¨":3411,"ÏĢ":3412,"à¥ī,":3413,"Ġ115":3414,"à¤Ĩà¤Īà¤¡":3415,"Ġà¤¨à¤µà¤ľ":3416,"à¤¯à¤°à¤ª":3417,"à¤°à¤¹à¤ķà¤°":3418,"Ġà¤²à¤ª":3419,"à¤«à¤ķ":3420,"Ġ111":3421,"à¤ĺà¤²à¤¨":3422,"Ġin":3423,"Ġà¤ħà¤ªà¤ĺà¤Łà¤¨":3424,"Ñı":3425,"à¤°à¤µà¤ļà¤¨":3426,"à¤¹à¤®à¤¨":3427,"à¤ĵà¤ĵà¤ĵà¤ĵ":3428,"à¤ªà¤°à¤«":3429,"am":3430,"ĠÂ§":3431,"à¤¯à¤°à¤ķ":3432,"##":3433,"à¤Łà¤¸à¤¬à¤°":3434,"à¤°à¤°à¤ķ":3435,"'à¥¤":3436,"à¤®à¤¹à¤²":3437,"Ġà¤ĩà¤¨à¤¸":3438,"à¤Łà¤ļà¤°":3439,"Ġà¤ıà¤¡à¤¨":3440,"Ġ1825":3441,"Ġà¤ıà¤¡à¤²":3442,"Ġ00":3443,"à¤ĥ\"":3444,"à¤Ĺà¤¹à¤°":3445,"Ġ/>":3446,"à¤ĩà¤°à¤¸":3447,"Ġà¤Ĩà¤Īà¤ıà¤¸":3448,"Ġà¤¬à¤ķà¤²":3449,"à¤¦à¤°à¤µ":3450,"Ġ1810":3451,"Ġà¤®à¤¹à¤®":3452,"à¤®à¤ĺ":3453,"à¤¯à¤µà¤§":3454,"à¤²à¤¹à¤®":3455,"à¤ķà¤°à¤¶":3456,"à¥Ĥà¤Ĥà¥¤\"":3457,"Ġz":3458,"à¤Łà¤¬à¤°":3459,"Ġà¤ħà¤·":3460,"Ġà¤ħà¤²à¤µ":3461,"à¤ĸà¤¤à¤°":3462,"Ġ...":3463,"Ġà¤ĳà¤«à¤¸":3464,"Ġ112":3465,"Ġ220":3466,"Ġ(-":3467,"à¤®à¤¨à¤¸":3468,"à¤ħà¤¶":3469,"à¤¡à¤°à¤°":3470,"à¤ĺà¤®à¤¶":3471,"à¤¬à¤ľ":3472,"Ġà¤ĳà¤²à¤®":3473,"Ġ170":3474,"à¤¯à¤°à¤¡":3475,"à¤®à¤¦à¤°":3476,"à¤¿\",":3477,"ing":3478,"à¤¤à¤«":3479,"Ġto":3480,"Ġà¤Ĩà¤īà¤Łà¤«":3481,"Ġà¤¶à¤¤à¤ķ":3482,"1908":3483,"à¤¨à¤ľà¤°":3484,"1915":3485,"ĠÎ´":3486,"à¥Īà¥¤\"\"":3487,"à¤¶à¤²à¤¤":3488,"!!":3489,"à¥Ģ?":3490,"Ġ1821":3491,"à¤Ĩà¤Īà¤ıà¤¸":3492,"Ġà¤ħà¤µà¤®":3493,"Ġà¤Ĩà¤īà¤Łà¤¡":3494,"Ġà¤¬à¤Ĺà¤¦":3495,"Ġ128":3496,"à¤²à¤ªà¤¤":3497,"à¤¤à¤Ł":3498,"ģĦ":3499,"à¤Łà¤Łà¤Ĺ":3500,"à¥ĭà¥¤\"":3501,"à¤ħà¤µà¤§":3502,"à¤¶à¤¹":3503,"Ġà¤ļà¤®à¤Ĺ":3504,"à¤ĸà¤¡":3505,"Ġà¤īà¤ªà¤¸à¤°":3506,"à¤ĳà¤ª":3507,"Ġxv":3508,"Ġ1828":3509,"1905":3510,"Ã¼":3511,"à¥Į-":3512,"à¥ĭà¤Ĥ/":3513,"Ġ1824":3514,"à¤¸à¤ĵà¤µà¤°":3515,"Ġà¤Łà¤ķà¤¸":3516,"à¤ıà¤¨à¤ķ":3517,"Ġà¤Ĩà¤Īà¤ķ":3518,"à¥į,":3519,"Ġà¤ıà¤²à¤ıà¤²à¤¸":3520,"à¤Ĺà¤Ń":3521,"à¤ªà¤°à¤¨":3522,"à¤¶à¤ķà¤°":3523,"à¤ķà¤¨à¤°":3524,"1916":3525,"à¤§à¤¸":3526,"Ġ2024":3527,"Ġà¤¨à¤ľà¤°à¤¬":3528,"à¤ĩà¤Łà¤µ":3529,"Ġà¤īà¤ªà¤²à¤ķ":3530,"Ġ1829":3531,"à¤¼à¥Ģà¤ĥ":3532,"Åį":3533,"à¤¿;":3534,"à¤¸à¤°à¤²":3535,"à¥ĩà¤Ĥ!":3536,"Ġà¤¸à¤°à¤¸":3537,"à¥ĩ.)":3538,"à¤µà¤¯à¤¸":3539,"à¤ķà¤ķà¤°":3540,"HTTP":3541,"Ġà¤®à¤ĸ":3542,"Ã¡":3543,"à¤ªà¤²à¤°":3544,"Ġà¤ıà¤ķà¤°":3545,"à¤«à¤Ĺ":3546,"1906":3547,"Ġà¤¨à¤µà¤ª":3548,"1880":3549,"dc":3550,"âģĦ":3551,"à¤²à¤ķà¤¡":3552,"Ġ1813":3553,"à¤²à¤¹à¤µ":3554,"Ġà¤ıà¤¡à¤Ĺà¤°":3555,"à¤ªà¤°à¤²":3556,"à¤ıà¤¸à¤µ":3557,"Ġà¤¯à¤®":3558,"Ġ\\":3559,"à¤īà¤ªà¤°":3560,"à¤¼à¥ĭà¤Ĥ,":3561,"Ġà¤°à¤Īà¤¸":3562,"Ġ1818":3563,"Ġà¤ħà¤µà¤Ĺà¤¤":3564,"Ġ1790":3565,"à¤ıà¤¨à¤µ":3566,"à¤§à¤®":3567,"Ġà¤ıà¤¯à¤°à¤µ":3568,"à¤¤à¤¥":3569,"à¥Ī]\"":3570,"Ġà¤ķà¤Łà¤°":3571,"Ġà¤ķà¤¤à¤°à¤¨":3572,"Ġà¤ħà¤ķà¤²":3573,"____":3574,"à¥Ĥ\",":3575,"Ġà¤«à¤Łà¤ķ":3576,"à¤¼à¤¼":3577,"ĠÎ»":3578,"1907":3579,"à¤µà¤«":3580,"1870":3581,"Ġà¤ķà¤²à¤ķà¤¤":3582,"Ġ750":3583,"à¤¯à¤®à¤¸à¤¨":3584,"ĠÑĤÐµ":3585,"à¤Ĺà¤¬à¤°":3586,"Ã¶":3587,"Ġ1826":3588,",,,,,,,,":3589,"à¤¡à¤°à¤Ĺ":3590,"Ġà¤ªà¤Ľ":3591,"à¤¹à¤¡":3592,"Ġà¤ıà¤²à¤®":3593,"à¤ĳà¤¡":3594,"ac":3595,"Ġà¤ªà¤¸à¤²":3596,"Ġà¤°à¤¨à¤°":3597,"à¤¸à¤¹à¤¯":3598,"Ġà¤®à¤®":3599,"Ġà¤Ĩà¤ĩà¤ķ":3600,"ĠÐ¸":3601,"1903":3602,"Ġ113":3603,"à¤¡à¤°à¤¸":3604,"Ġà¤ĺà¤Łà¤¤":3605,"ĠÎ²":3606,"Î³":3607,"à¤«à¤Ł":3608,"à¤¦à¤ķà¤¤":3609,"à¤¸à¤®à¤Ŀ":3610,"à¤ķà¤¯":3611,"à¥Ģ.\"":3612,"à¤īà¤ªà¤ļ":3613,"Ġ1816":3614,"1904":3615,"Ġà¤Łà¤ĸà¤¨":3616,"Ġà¤Ĩà¤ĩà¤ľ":3617,"Ġà¤¯à¤µ":3618,"ad":3619,"Ġà¤¸à¤Łà¤¨":3620,"ĠâĪĴ":3621,"à¤ıà¤µà¤°":3622,"Ġà¤²à¤ªà¤Ł":3623,"Ġà¤ıà¤ļà¤ª":3624,"Ġ5000":3625,"à¤°à¤¸à¤µ":3626,"à¤ķà¤ļ":3627,"Ġà¤®à¤Ĺà¤°à¤®à¤ļ":3628,"Ġà¤Ĩà¤¸à¤µà¤¨":3629,"à¤¿'":3630,"1909":3631,"1902":3632,"à¤¯à¤¨à¤µ":3633,"à¤¼à¤¾-":3634,"1901":3635,"Ġà¤ıà¤®à¤ķ":3636,"900":3637,"ec":3638,"à¥Ĥà¤ģà¥¤\"":3639,"Ġ'(":3640,"Ġ1806":3641,"Ġà¤²à¤Ł":3642,"à¤®à¤ľà¤¬":3643,"Ġ114":3644,"à¥ī\"":3645,"à¤ĵà¤¯":3646,"Ġà¤ıà¤¨à¤ıà¤®":3647,"à¤¡à¤°à¤ķ":3648,"à¤Ĩà¤¡":3649,"Ġ1827":3650,"Ġ116":3651,"à¤·à¤¯à¤Ĺà¤¤":3652,"Ġand":3653,"Ġ1819":3654,"à¤Ĩà¤°à¤ıà¤²":3655,"Ġ1801":3656,"Ġà¤ıà¤ªà¤²":3657,"Ġ1803":3658,"à¤īà¤ªà¤¸":3659,"à¤°à¤¹à¤¸":3660,"ĠÑģÐµ":3661,"Ġà¤ĩà¤ª":3662,"Ġà¤¨à¤µà¤¨":3663,"à¤ĩà¤¸à¤µ":3664,"Ġ135":3665,"à¤¤à¤²à¤¨":3666,"à¤Ńà¤µà¤ľà¤¨":3667,"Ġ117":3668,"Ġà¤²à¤¯à¤¬à¤¦":3669,"à¤ıà¤®à¤¡à¤¬":3670,"120":3671,"Ġà¤²à¤®":3672,"ID":3673,"à¤ŀà¤ª":3674,"Ġà¤ªà¤®":3675,"Ġ240":3676,"Ġ1822":3677,"Ġ1793":3678,"Ðļ":3679,"à¤¹à¤²à¤°":3680,"Ġà¤Ńà¤Łà¤ķà¤¨":3681,"Äį":3682,"Ġà¤ĩà¤¨à¤µà¤°":3683,"Ġà¤Ĩà¤¸à¤®":3684,"à¤Ĺà¤ªà¤¤":3685,"Ġà¤¦à¤¹à¤¨":3686,"Ġà¤Ĩà¤Īà¤µ":3687,"\">":3688,"Ġ119":3689,"à¤¬à¤°à¤®":3690,"Ġ1823":3691,"à¤ªà¤¤à¤µ":3692,".]":3693,"à¤¼à¥Ģ)":3694,"à¤¤à¤¨à¤¤":3695,"Ġà¤Īà¤¬":3696,"à¤ľà¤¨à¤²":3697,"Ġà¤°à¤ĸà¤µ":3698,"à¤¯à¤¸à¤°":3699,"Ġà¤Īà¤ľ":3700,"à¤Ĩà¤µà¤¶":3701,"à¤Ńà¤¯":3702,"km":3703,"Ġà¤ªà¤Ĺ":3704,"à¤ĸà¤®":3705,"Ġà¤ıà¤¸à¤ª":3706,"à¤ķà¤ĳà¤«":3707,"Ġà¤¦à¤¤":3708,"Ġà¤¶à¤¹à¤¦":3709,"Ġ1809":3710,"à¤ľà¤¨à¤¹":3711,"Ġà¤Ķà¤ļ":3712,"à¤īà¤«":3713,"Ġà¤«à¤¹à¤°":3714,"Ġà¤¹à¤¯":3715,"Î²":3716,"Ġà¤¸à¤®à¤¶":3717,"Ġ1817":3718,"à¥Ĥ.-":3719,"à¤ĩà¤¤à¤¨":3720,"à¥Ģà¥¤)":3721,">,":3722,"à¤ķà¤¸à¤Ń":3723,"à¤¾-\"":3724,"os":3725,"Ġà¤ıà¤ķà¤¤à¤°à¤«":3726,"à¤¼à¥ĩ-":3727,"à¤ķà¤£":3728,"Ġ($":3729,"Ġà¤ķà¤²à¤¨":3730,"à¤ªà¤ª":3731,"Ġà¤ıà¤µà¤²":3732,"Ġà¤°à¤¥":3733,"à¤¼\",":3734,"ĠÏĢ":3735,"à¤¬à¤µ":3736,"à¤®à¤¤à¤¦":3737,"Ġà¤ıà¤ļà¤Ĩà¤Īà¤µ":3738,"Ġà¤Ĩà¤µà¤§":3739,"à¤¹à¤Ĺ":3740,"à¤Ĺà¤¡à¤¨":3741,"à¤ıà¤¡à¤µ":3742,"Ġxii":3743,"Ġ1807":3744,"Ġ1808":3745,"Î´":3746,"Ġà¤Ĩà¤¡":3747,"Ġ~":3748,"ĠÏī":3749,"à¤Ķà¤¦":3750,"130":3751,"Ġà¤ıà¤ı":3752,"750":3753,"à¤īà¤Ĺ":3754,"à¤¯à¤°à¤¹":3755,"à¤īà¤ķ":3756,"à¤Ĺà¤«à¤²":3757,"à¤ĵà¤«":3758,"Ġà¤ħà¤ªà¤ķ":3759,"Ġ1600":3760,"à¤Ľà¤µ":3761,"Ġà¤ħà¤¸à¤¹à¤ľ":3762,"Ġvi":3763,"Ġ1794":3764,"à¤ķà¤¨à¤¶":3765,"Ġà¤Ĩà¤Īà¤°":3766,"à¤Ķà¤¸à¤¤":3767,"Ġà¤¹à¤²à¤ļà¤²":3768,"Ġà¤µà¤§":3769,"à¤¹à¤°à¤®":3770,"Ġ1798":3771,"à¤«à¤ľ":3772,"Ġà¤«à¤¨":3773,"Ġ1811":3774,"à¤®à¤°à¤ķ":3775,"1860":3776,"Ġà¤Ĩà¤«":3777,"à¤¸à¤®à¤²":3778,"à¤ĳà¤²à¤®":3779,"Ġà¤¡à¤®":3780,"Ġ',":3781,"ÃĤÃĤÃĤÃĤÃĤÃĤÃĤÃĤÃĤÃĤÃĤÃĤÃĤÃĤÃĤÃĤ":3782,"ÑĩÐµ":3783,"à¤¥à¤²à¤ļ":3784,"Ä±":3785,"Ġ(;)":3786,"à¤¯à¤ļ":3787,"Ġ(,)":3788,"à¤®à¤Ľà¤²":3789,"à¤ªà¤°à¤Ł":3790,"Ġ1805":3791,"à¤£à¤ªà¤¤":3792,"us":3793,"à¤¡à¤°à¤¡":3794,"à¤¬à¤ª":3795,"Ġà¤ľà¤²à¤ª":3796,"Ġà¤ļà¤ª":3797,"Ġ1795":3798,"Ê¼Ê¼Ê¼Ê¼":3799,"Ġà¤²à¤¸":3800,"à¤ıà¤®à¤ª":3801,"ĠØ":3802,"Ġ1804":3803,"Ġà¤Ĩà¤®à¤¨":3804,"à¤ıà¤¨à¤ª":3805,"Ġà¤īà¤®à¤°":3806,"à¥Į,":3807,"à¤Ĩà¤ĩ":3808,"à¥Ģ.)à¥¤":3809,"Ġà¤īà¤ªà¤ķ":3810,"ent":3811,"à¤ĵà¤Ĺ":3812,"Ġà¤ħà¤µà¤¹":3813,"à¤ĩà¤«à¤°":3814,"Ġà¤¸à¤¨à¤¸à¤¨":3815,"Ġ145":3816,"à¤¨à¤¸à¤¬à¤°":3817,"à¤¨à¤µà¤µ":3818,"Ġ121":3819,"à¤ªà¤²à¤Łà¤¨":3820,"à¤ıà¤¸à¤ıà¤²":3821,"à¤ªà¤¹à¤ļ":3822,"à¤ľà¤¡":3823,"à¤¡à¤²à¤¬à¤°":3824,"Ġà¤ĵà¤¸à¤¬":3825,"1895":3826,"Ġ1789":3827,"Ġà¤Ľà¤¤à¤°":3828,"ur":3829,"1898":3830,"Ġ1780":3831,"à¤Ĩà¤Īà¤Ĩà¤Ī":3832,"à¤ĵà¤ªà¤¨":3833,"ov":3834,"Ġà¤¤à¤Łà¤¬":3835,"Ġ1792":3836,"Ġix":3837,"Ġà¤¬à¤«à¤°":3838,"Ġà¤¸à¤¨à¤¡":3839,"Ġ123":3840,"Ġà¤¶à¤®à¤¨":3841,"Ð³":3842,"Ġà¤ħà¤ľà¤Ĺà¤°":3843,"à¤ļà¤°à¤²":3844,"Ġà¤ıà¤®à¤ıà¤²à¤¬":3845,"Ġ1200":3846,"Ġà¤īà¤ªà¤µà¤¨":3847,"à¤¨à¤¸à¤«":3848,"Ġà¤Ĺà¤°à¤ľ":3849,"à¤¼à¥ĩ\"":3850,"Ġà¤ĩà¤¨à¤Ĺ":3851,"Ġà¤Łà¤«":3852,"Ġà¤°à¤Ł":3853,"à¤ĩà¤®à¤Ł":3854,"1896":3855,"à¤ĸà¤¨à¤¨":3856,"Ġà¤®à¤¶à¤°":3857,"Ġ1802":3858,"à¤Ĩà¤°à¤ıà¤¸":3859,"à¤¾à¤ģ)":3860,"Ġà¤¤à¤ªà¤¸":3861,"Ġà¤¸à¤®à¤¯à¤°":3862,"=|":3863,"à¤¡à¤°à¤¬à¤°":3864,"à¤ļà¤¨à¤°":3865,"à¤ĩà¤Łà¤«":3866,"à¥Ģ=|":3867,"Ġà¤¤à¤²à¤¹à¤Ł":3868,"Ġ122":3869,"à¤Ńà¤²":3870,"Ġà¤Īà¤ıà¤¸à¤ª":3871,"Ġ1796":3872,"à¤®à¤°à¤®":3873,"Ġ127":3874,"à¤¯à¤¥à¤²":3875,"Ġno":3876,"Î¿ÏĤ":3877,"à¤¾à¤Ĥà¥¤":3878,"IV":3879,"Ġà¤Ĺà¤Ĺà¤¨":3880,"Ġà¤¸à¤®à¤Ŀà¤¦":3881,"Ġà¤Ĩà¤ľà¤ķà¤²":3882,"Ġà¤ĸà¤ļ":3883,"Ġà¤ħà¤ªà¤¸":3884,"Ġ210":3885,"à¤¯à¤Łà¤°":3886,"Ġà¤µà¤¶":3887,"Ġà¤µà¤ľà¤¹":3888,"à¤Ķà¤ªà¤¨":3889,"Ġà¤Ĺà¤§":3890,"à¤ļà¤¨à¤¨":3891,"110":3892,"à¤īà¤§à¤°":3893,"à¤µà¤¬":3894,"à¤ħà¤Ł":3895,"Ġà¤īà¤¬à¤°":3896,"Ġà¤ĵà¤¯":3897,"Ġ1799":3898,"1897":3899,"à¤¬à¤µà¤¤":3900,"à¤ķà¤¸à¤¸":3901,"Ġà¤ľà¤²à¤®à¤Ĺ":3902,"1899":3903,"/.":3904,"Ġà¤ıà¤®à¤µ":3905,"à¤Ĺà¤°à¤ķ":3906,"Ġà¤ıà¤ķà¤µà¤ļà¤¨":3907,"Ġ1776":3908,"Ġà¤ķà¤¯":3909,"Ġ132":3910,"Ġà¤Ŀà¤²à¤ķ":3911,"à¤ľà¤¨à¤°":3912,"à¤īà¤·":3913,"à¤ĩà¤¬à¤°à¤¨":3914,"Ġà¤ħà¤²à¤¸":3915,"à¤·à¤°à¤ķà¤°":3916,"Ġ1797":3917,"à¥Ī\"à¥¤":3918,"à¤¤à¤°à¤®à¤¹":3919,"Ġà¤ªà¤°à¤¦":3920,"Ìĥ":3921,"Ġà¤ħà¤¨à¤Ĺ":3922,"à¤ĩà¤¨à¤ķ":3923,"à¤¥à¤¡":3924,"Ġà¤ķà¤°à¤¦":3925,"ĠÏĨ":3926,"Ġ230":3927,"âĪĴ":3928,"à¤Ĩà¤ķà¤°":3929,"1885":3930,"Ġ1700":3931,"Ġà¤ªà¤°à¤ª":3932,"1850":3933,"Ġà¤ªà¤²à¤ķ":3934,"Ġ126":3935,"Ġà¤ħà¤¦à¤²":3936,"à¤īà¤ªà¤²à¤¬":3937,"à¤¾>":3938,"à¤ķà¤¸à¤¨à¤µ":3939,"Ġà¤²à¤µà¤£":3940,"Ġà¤ħà¤ĺ":3941,"à¤¸à¤¤à¤¹":3942,"à¤ķà¤²à¤ķ":3943,"Ġà¤¹à¤²à¤ķ":3944,"à¤¤à¤§":3945,"à¤¿/":3946,"Ġà¤¹à¤°à¤®":3947,"à¤¹à¤®à¤²":3948,"Ġà¤Łà¤²":3949,"Ġà¤Ĩà¤¦à¤°à¤£":3950,"1892":3951,"Ġà¤¦à¤¶à¤®":3952,"Ġà¤Ĩà¤ĩà¤ľà¤¨à¤¹":3953,"Ġà¤ļà¤°à¤£à¤¬à¤¦":3954,"Ġà¤¦à¤²à¤¬":3955,"à¤Ĩà¤Ł":3956,"à¥Ĥ/":3957,"à¥ĭ!\"":3958,"Ġ124":3959,"à¥Ĥà¤ģ\",":3960,"ĠÎ³":3961,"Ġ(#":3962,"1891":3963,"Ġà¤ļà¤²à¤ļ":3964,"à¤µà¤¨à¤ª":3965,"Ġà¤¬à¤Ľà¤¡":3966,"à¤¨à¤¹à¤®":3967,"à¤Īà¤Ĺ":3968,"ĠÂ±":3969,"à¤ıà¤®à¤ı":3970,"Ġ\"(\"":3971,"ir":3972,"à¤²à¤¨à¤°":3973,"Ġà¤®à¤°à¤¤":3974,"à¤¸à¤¨à¤µ":3975,"Ġà¤īà¤¬à¤°à¤¨":3976,"\",\"":3977,"Ġà¤¶à¤®":3978,"Ġà¤īà¤²à¤Ŀà¤¨":3979,"Ġà¤µà¤ļà¤¨":3980,"à¤ıà¤®à¤¸":3981,"Ġà¤īà¤¬à¤²":3982,"à¥ĩ.-":3983,"Ġxiii":3984,"ĠÎµ":3985,"Ġà¤¸à¤¤à¤¤":3986,"Ġà¤ķà¤Ĺ":3987,"Ġà¤ªà¤ĸ":3988,"1888":3989,"à¤īà¤¨à¤®":3990,"à¤ķà¤ķà¤°à¤£":3991,"Ġà¤¨à¤ª":3992,"Ġà¤īà¤²à¤Łà¤¨":3993,"1000":3994,"à¤¨à¤°à¤¬":3995,"Ġ650":3996,"à¥Ģà¤Ĥ\",":3997,"à¤²à¤¨à¤µ":3998,"Ġ1791":3999,"id":4000,"à¤Ľà¤°":4001,"]à¥¤":4002,"Ġà¤ıà¤ļà¤ıà¤®à¤ıà¤¸":4003,"Ġà¤Ŀà¤ªà¤ķ":4004,"à¤łà¤²":4005,"Ġà¤Ĩà¤¯à¤¤à¤¨":4006,"Ġà¤ķà¤¹à¤ķà¤°":4007,"à¤·à¤£à¤ķà¤°":4008,"à¤ªà¤¢":4009,"à¥Ģ\"|":4010,"1889":4011,"Ġ[\"":4012,"à¤ĩà¤¹":4013,"Ġà¤¸à¤°à¤²à¤¤":4014,"Ġà¤Īà¤Łà¤¨":4015,"Ġà¤¯à¤°":4016,"Ġà¤ıà¤«à¤¸":4017,"Ġà¤¸à¤¶à¤°":4018,"à¤¯à¤µà¤ķ":4019,"Ġà¤ĺà¤®":4020,"125":4021,"Ġ1775":4022,"Ġà¤Ĩà¤īà¤Łà¤°":4023,"Ġà¤Łà¤ļ":4024,"Ġà¤ıà¤¨à¤¹":4025,"Ġà¤ļà¤Łà¤¨":4026,"1893":4027,"à¥¤à¥¤à¥¤":4028,"101":4029,"Ġà¤ľà¤¨à¤¨":4030,"ĠÃ¶":4031,"Ġà¤ĸà¤°à¤ªà¤¤à¤µ":4032,"Ġà¤ļà¤¬":4033,"à¥Īà¥¤,":4034,"Â·":4035,"à¤¥à¤ª":4036,"à¤īà¤¥à¤µ":4037,"à¤ıà¤²à¤°":4038,"à¤ķà¤®à¤°":4039,"Ġà¤ħà¤ªà¤µà¤°":4040,"à¤ķà¤¸à¤µ":4041,"Ġà¤ªà¤°à¤¥":4042,"à¤ľà¤¬à¤°":4043,"à¤¯à¤Ĺ":4044,"Ġ155":4045,"Ġà¤¬à¤°à¤®":4046,"Ġà¤ķà¤¢":4047,"Ġ144":4048,"Ġà¤Ĩà¤ĩà¤Łà¤®":4049,"à¤¥à¤«":4050,"à¤¦à¤ķà¤°":4051,"à¤ªà¤ľ":4052,"à¥Ģ.à¥¤":4053,"Ġà¤Ĭà¤¬à¤¡":4054,"Ġà¤ħà¤ªà¤Ĺ":4055,"Ġà¤ĵà¤ļ":4056,"Ġà¤Ńà¤Łà¤ķà¤¤":4057,"Ġ129":4058,"à¥ĭà¤Ĥà¤ĥ":4059,"Ġà¤Ĺà¤Ĺà¤¨à¤ļ":4060,"à¤Īà¤¨":4061,"à¤ķà¤Ĺà¤£":4062,"ay":4063,"à¤Łà¤²à¤®":4064,"Ġà¤Ĩà¤ĩà¤¡":4065,"ÑģÐµ":4066,"Ġà¤Ĩà¤ĩà¤¸à¤ķ":4067,"Ġ260":4068,"Ġà¤ħà¤¸à¤°":4069,"à¤ĩà¤Łà¤ķ":4070,"Ġ133":4071,"à¥Ĥà¤ģ\"":4072,"à¤¶à¤Ł":4073,"Ïī":4074,"à¤¨à¤°à¤ķ":4075,"Ġà¤Īà¤Ł":4076,"Ġà¤ľà¤²à¤Ĺ":4077,"Ġà¤ıà¤ıà¤ı":4078,"à¤ıà¤®à¤Ł":4079,"Ġà¤·à¤¡":4080,"à¤®à¤¥":4081,"Ġà¤ĩà¤ķà¤¬":4082,"à¤¾);":4083,"Ġà¤ħà¤°à¤¨":4084,"1886":4085,"VI":4086,")/":4087,"Ġ\")à¥¤":4088,"1887":4089,"Ġà¤īà¤Ńà¤°à¤¨":4090,"à¤Łà¤°à¤Ĺ":4091,"Ġà¤ıà¤®à¤°":4092,"Ġà¤¦à¤²à¤¬à¤¦à¤²":4093,"Ġà¤ªà¤¦à¤§":4094,"Ġà¤¸à¤¬à¤°":4095,"à¤ªà¤Łà¤¤":4096,"Ġ138":4097,"à¤ĩà¤Łà¤¬":4098,"Ġà¤ıà¤µà¤°à¤Łà¤¨":4099,"Ġ131":4100,";\"|":4101,"à¤¦à¤°à¤«":4102,"à¤¡à¤²à¤Łà¤¨":4103,"Ġà¤ķà¤«":4104,"à¤īà¤ªà¤ķà¤°à¤£":4105,"Ġ1783":4106,"à¤ĸà¤¬":4107,"1882":4108,"à¥ĩ?\"":4109,"ce":4110,"à¤īà¤¨à¤¹":4111,"à¤²à¤ķà¤®":4112,"à¤Ļ":4113,"Ġà¤ªà¤°à¤µà¤°":4114,"à¤Ĺà¤¸à¤¨":4115,"Ġà¤ħà¤ķà¤¶":4116,"Ġ501":4117,"Ġà¤ªà¤°à¤«":4118,"))":4119,"ĠC":4120,"Ġà¤®à¤ĸà¤®à¤²":4121,"à¤Ĥ;":4122,"à¤«à¤¹":4123,"Ġà¤ħà¤ªà¤¹à¤°à¤£à¤ķà¤°":4124,"\"(":4125,"1884":4126,"ul":4127,"ĠÑģÐ°":4128,"Ġà¤ıà¤¨à¤ıà¤¸":4129,"Ġà¤¹à¤®à¤«":4130,"Ġà¤ıà¤¨à¤«":4131,"Ġà¤¢à¤¹":4132,"à¤ĩà¤²à¤¸":4133,"à¤ĳà¤¨à¤²":4134,"1840":4135,"à¤¢à¤¤":4136,"Ġ280":4137,"1878":4138,"Ġ320":4139,"1868":4140,"à¤Īà¤¯":4141,"à¤Ĩà¤°à¤¸":4142,"Ġà¤®à¤¯":4143,"à¤²à¤®à¤°":4144,"Ġà¤²à¤¨":4145,"Ġà¤ıà¤¯à¤°à¤¬":4146,"ig":4147,"Ġà¤¤à¤¹à¤¸":4148,"à¤¯à¤¨à¤²":4149,"ut":4150,"Ġà¤ħà¤µà¤°à¤ķ":4151,"à¤Łà¤¨à¤Ł":4152,"à¤Ĺà¤°à¤®":4153,"à¤ĥ-":4154,"Ġ165":4155,"..]":4156,"Ġ136":4157,"1871":4158,"à¤ĵà¤¶":4159,"à¤¤à¤¨à¤ª":4160,"à¤ĭà¤£":4161,"Ġà¤łà¤Ĺ":4162,"Ġà¤ıà¤²à¤ª":4163,"à¤¶à¤ļ":4164,"Ġ(+":4165,"à¤Īà¤¶":4166,"Ġ550":4167,"à¥ĩ\"à¥¤":4168,"Ġ270":4169,"1894":4170,"à¤ªà¤²à¤¬":4171,"1881":4172,"à¤ļà¤µà¤°":4173,"Ġà¤Ĩà¤ĩà¤Ĺ":4174,"1883":4175,"à¤ªà¤¶à¤ª":4176,"à¤Ĥà¤ĥ":4177,"à¤Łà¤Ĺà¤¨":4178,"lit":4179,"à¤§à¤¬":4180,"à¤Ķà¤ªà¤ļ":4181,"Ġ,":4182,"à¤ļà¤²à¤°":4183,"ÑĤÐ¾":4184,"Ġ1770":4185,"à¥Ĥà¤ĥ":4186,"à¤ıà¤ļà¤¸":4187,"Ġà¤Ĩà¤¹à¤¤":4188,"Ġà¤Ĩà¤°à¤¬":4189,"1865":4190,"Ġ1788":4191,"Ġà¤¤à¤µ":4192,"Ġà¤Ĩà¤Īà¤«":4193,"Ġà¤ļà¤¯à¤¨à¤ķà¤°":4194,"à¤ıà¤®à¤ľ":4195,"\"|":4196,"Ġà¤ıà¤°à¤²":4197,"à¤¬à¤¯":4198,"Ġà¤Ķà¤°à¤¤":4199,"em":4200,"Ġà¤Ĳà¤¨":4201,"III":4202,"1861":4203,"Ġà¤°à¤Łà¤Ĺà¤°":4204,"Ġà¤ıà¤®à¤ıà¤²":4205,"1867":4206,"Ġ141":4207,"Ġà¤īà¤łà¤¤":4208,"1830":4209,"Ġch":4210,"Ġà¤ħà¤¥":4211,"Ġà¤«à¤®":4212,"à¥Ī,\"":4213,"1800":4214,"ĠÃĩ":4215,"à¤ķà¤°à¤¨":4216,"à¤ķà¤²à¤®":4217,"Ġà¤Ľà¤ª":4218,"à¤°à¤Ĺà¤¨":4219,"à¤¸à¤²à¤¨":4220,"ak":4221,"âĢĻ":4222,"à¤®à¤²à¤°":4223,"1872":4224,"à¤ıà¤®à¤¬":4225,"à¤¾à¥¤<":4226,"Ġ1777":4227,"Ġ134":4228,"................................................................":4229,"à¥Īà¤Ĥà¥¤'":4230,"à¤¶à¤¨à¤¶":4231,"Ġ225":4232,"à¤¬à¤°à¤¸":4233,"Ġà¤ĵà¤µà¤¨":4234,"à¤Ĺà¤²à¤¨":4235,"im":4236,"1876":4237,"1875":4238,"à¤ªà¤°à¤¡":4239,"à¤¶à¤¦":4240,"à¤īà¤Łà¤°":4241,"Ġ137":4242,"1864":4243,"à¤ĩà¤¡à¤¨":4244,"à¤Ĩà¤¯à¤¨":4245,"à¤¶à¤«":4246,"à¤ĸà¤Ł":4247,"Ġà¤ļà¤ªà¤Ł":4248,"Ġ1787":4249,"à¥ĩà¤Ĥ,\"":4250,"à¤ıà¤ķà¤®":4251,"Ġà¤Łà¤Ł":4252,"Ġà¤®à¤Łà¤°":4253,"Ġà¤¥à¤ª":4254,"Ġà¤¡à¤Ĺ":4255,"à¥Ģ!\"":4256,"113":4257,"Ġà¤ħà¤¸à¤¤à¤¤":4258,"à¤ħà¤«à¤Ĺ":4259,"à¤Łà¤²à¤¨":4260,"à¥Ģà¥¤'":4261,"dcdc":4262,"à¤Ľà¤ł":4263,"Ġà¤¦à¤®à¤¨à¤ķ":4264,"à¤¤à¤¬à¤²":4265,"Ġà¤Ĩà¤¯à¤ķà¤°":4266,"à¤ķà¤¹à¤®":4267,"à¤¾à¤ģ\",":4268,"Ġ330":4269,"à¤ĳà¤Ĺà¤¸":4270,"Ġà¤ķà¤²à¤°":4271,"à¥Īà¤Ĥà¥¤)":4272,"à¤Ĩà¤°à¤ķ":4273,"à¥Ī'":4274,"à¥Ĥ'":4275,"ĠÅį":4276,"Ġà¤ıà¤¯à¤°à¤ª":4277,"Ġà¤ıà¤¯à¤°à¤«":4278,"à¤¼à¤¾.":4279,"à¤ħà¤¯":4280,"ĠÃ¼":4281,"Ġà¤¹à¤¡à¤°":4282,"Ġ1784":4283,"1873":4284,"Ġà¤ķà¤¸à¤ķà¤°":4285,"1877":4286,"1874":4287,"à¤ģà¤ĥ":4288,"à¤ļà¤Ń":4289,"à¤ĵà¤ıà¤¸":4290,"Ġu":4291,"à¤īà¤Ī":4292,"à¤Ĩà¤ªà¤°":4293,"Ġà¤īà¤Ńà¤¯à¤²":4294,"Ġ152":4295,"av":4296,"à¤µà¤°à¤µ":4297,"Ġ147":4298,"Ġ1778":4299,"à¥ĩà¥¤,":4300,"à¤¹à¤¬à¤¦":4301,"Ġà¤°à¤¦à¤°à¤«":4302,"Ġà¤ıà¤ªà¤¸":4303,"Ġà¤Ĩà¤Ĺà¤ľà¤¨":4304,"à¤µà¤°à¤¬":4305,"à¤Ĺà¤¨à¤®":4306,"Ġà¤ıà¤Ĺà¤°":4307,"ÑģÑģÑģÑģ":4308,"à¤ľà¤«":4309,"Ġà¤Ĩà¤ĩà¤¡à¤²":4310,"à¥ĭ?":4311,"--------------------------------------------------------------------------------------------------------------------------------":4312,"à¤¾\";":4313,"à¤ľà¤ľ":4314,"à¤ĩà¤®à¤¸":4315,"Ġxx":4316,"à¤°à¤¤à¤®":4317,"à¥Ģ\"-":4318,"à¤¡à¤Ĺà¤²à¤¸":4319,"1866":4320,"350":4321,"Ġà¤¶à¤Łà¤Ĩà¤īà¤Ł":4322,"à¤¾',":4323,"Ġà¤Ĩà¤°à¤¸":4324,"Ġbe":4325,"à¤°à¤¬à¤¨":4326,"à¤ļà¤¦":4327,"à¤¾à¤ģ-":4328,"à¤°à¤£à¤¨":4329,"à¤«à¤¸à¤¨":4330,"Ġ1781":4331,"rd":4332,"à¤¤à¤ĸ":4333,"à¤¨à¤ķà¤²":4334,"à¤Ĩà¤°à¤Ł":4335,"à¥¤.":4336,"à¤«à¤µ":4337,"ĠXXX":4338,"Ġ143":4339,"jj":4340,"Ġà¤¦à¤¯à¤¨":4341,"Ġà¤¬à¤Łà¤°à¤«":4342,"ro":4343,"à¤¾\"-":4344,"Ġà¤ħà¤ªà¤¦à¤¸":4345,"Ġà¤ĩà¤¦":4346,"à¤¬à¤°à¤µ":4347,"Ġ1782":4348,"à¤ªà¤µà¤ķ":4349,"Î¿Î½":4350,"1879":4351,"à¥Ĥà¤ģ!":4352,"Ġà¤ľà¤Ĺà¤¤":4353,"à¤ªà¤¨à¤¦":4354,"Ġà¤ħà¤¨à¤ķ":4355,"Ġà¤ªà¤«":4356,"à¤ıà¤¸à¤ľ":4357,"Ġ2025":4358,"Î¯":4359,"à¥ĩà¤Ĥ'":4360,"Ġà¤¬à¤¬":4361,"(\"":4362,"Ġà¤Ńà¤¯à¤Ń":4363,"Ġà¤ħà¤ªà¤¶à¤¬":4364,"Ġà¤Ĩà¤Īà¤¯":4365,"Ġà¤Īà¤¡":4366,"à¤ħà¤µà¤°":4367,"ÏĨ":4368,"à¥Ģ\"),":4369,"Äģ":4370,"Ġà¤ħà¤ķà¤¬à¤°":4371,"à¤ħà¤¹":4372,"Ġ1660":4373,"ss":4374,"à¤¤à¤°à¤²":4375,"Ġà¤¡à¤¨à¤²":4376,"Ġà¤ıà¤ıà¤®":4377,"à¤¡à¤²à¤ķ":4378,"1869":4379,"à¤²à¤¨à¤¸":4380,"Ġà¤ıà¤¡à¤²à¤°":4381,"à¤¯à¤°à¤°":4382,"Ġà¤ĵà¤°à¤²":4383,"à¤ıà¤ļà¤ľ":4384,"1862":4385,"105":4386,"à¤Łà¤¸à¤²":4387,"Ġà¤ħà¤¥à¤ķ":4388,"Ġà¤ļà¤°à¤®à¤ª":4389,"Ġ1750":4390,"à¤²à¤ĸ":4391,"à¥ĩà¤Ĥ]":4392,"ĠÂ°":4393,"Ġà¤Ĩà¤ľà¤®":4394,"Ġde":4395,"à¤¥à¤²à¤¹à¤®":4396,"Ġà¤ħà¤ĸà¤°":4397,"HTTT":4398,"à¤¾à¥¤\"\"":4399,"Ġà¤īà¤ªà¤®à¤¹":4400,"ĠWw":4401,"à¤¸à¤«à¤°":4402,"à¤¼à¥ĩà¤Ĥ,":4403,"à¤ľà¤¨à¤ķà¤°":4404,"à¥¤âĢĿ":4405,"Ġà¤ħà¤¶à¤°":4406,"Ġ139":4407,"Ġj":4408,"1848":4409,"1863":4410,"à¤¯à¤¡à¤¨":4411,"à¤ıà¤¡à¤°":4412,"...>":4413,"à¤ĳà¤¨à¤°":4414,"ĠÏĦÎµ":4415,"Ġà¤ıà¤²à¤µ":4416,"104":4417,"Ġà¤ħà¤¨à¤§":4418,"111":4419,"à¥Ģà¤Ĥ)à¥¤":4420,"à¤¼à¤¾;":4421,"Ġà¤ıà¤¯à¤°à¤¬à¤¸":4422,"112":4423,"à¤ĩà¤¨à¤¹":4424,"Ġà¤ĳà¤¯à¤²":4425,"Ġà¤Ĩà¤²à¤¸":4426,"117":4427,"Ġà¤Ĳà¤ķ":4428,"ÑģÐ¸":4429,"Ġà¤ħà¤¸à¤®à¤®":4430,"à¤µà¤¤à¤¨":4431,"Ġ1785":4432,"102":4433,"Ġ153":4434,"Ġà¤«à¤°à¤²":4435,"Ġà¤ħà¤¨à¤¨":4436,"Ġà¤Ĺà¤ªà¤¶à¤ª":4437,"Ġ1760":4438,"Ġ156":4439,"Ġà¤®à¤¥":4440,"à¥Īà¤Ĥà¥¤âĢĿ":4441,"à¤¨à¤°à¤¸":4442,"à¤Ĩà¤¯à¤°à¤¨":4443,"à¤ªà¤°à¤Ĺ":4444,"ÙĦ":4445,"à¤·à¤£à¤µ":4446,"à¤ķà¤®à¤ľ":4447,"à¤Ĩà¤ĩà¤°":4448,"Ġà¤Ĩà¤ĩà¤ı":4449,"à¤Īà¤ĺà¤°":4450,"Ġ148":4451,"à¤µà¤²à¤ªà¤®":4452,"à¤ĵà¤ĵà¤ĵà¤ĵà¤ĵà¤ĵà¤ĵà¤ĵ":4453,"à¤¡à¤°à¤Ł":4454,"à¤ħà¤¹à¤®à¤¦":4455,"à¤²à¤¬à¤¹":4456,"Ġà¤§à¤°à¤¤":4457,"ĠXIV":4458,"à¤ķà¤°à¤®":4459,"à¤¯à¤¤à¤ķà¤°":4460,"Ġ1779":4461,"à¥Ģà¤Ĥ!":4462,"à¤ªà¤Łà¤¨à¤¶":4463,"Ġà¤¸à¤²à¤®":4464,"à¤¾à¥¤à¥¤à¥¤":4465,"dz":4466,"Ġà¤¸à¤¹à¤¨à¤¶":4467,"à¤¯à¤°à¤ľ":4468,"Ġà¤¡à¤¨à¤¬":4469,"Ġà¤®à¤¡":4470,"ĊĠĊĠĊĠĊĠ":4471,"Ġà¤ĭà¤£à¤¦":4472,"à¥ĩ.,":4473,"à¤¸à¤®à¤Ĺ":4474,"Î·":4475,"Ġ168":4476,"à¤¯à¤«":4477,"Ġà¤ıà¤«à¤ķ":4478,"Ġà¤²à¤ķà¤µ":4479,"Ïĩ":4480,"Ġà¤ªà¤°à¤¹":4481,"Ġà¤Ĭà¤¬":4482,"à¤ıà¤«à¤ıà¤²":4483,"Ġà¤ħà¤Ľ":4484,"Ġà¤ħà¤¹à¤²":4485,"à¤¨à¤°à¤®":4486,"à¤ļà¤¬à¤°":4487,"à¤ıà¤ļà¤ıà¤«":4488,"####":4489,"Ġ340":4490,"Ġ1774":4491,"Ġ158":4492,"ill":4493,"Ġ1786":4494,"à¤ķà¤²à¤¬":4495,"115":4496,"à¤°à¤®à¤¸":4497,"ts":4498,"ĠÏĥ":4499,"1859":4500,"Ġà¤¦à¤¹à¤¶à¤¤":4501,"Ġ256":4502,"-(":4503,"à¥Ĥà¤ģ?":4504,"Ġà¤īà¤¨à¤¤":4505,"à¤§à¤°à¤¤":4506,"Ġà¤ĵà¤®à¤°":4507,"Ġ212":4508,".:":4509,"Ġ154":4510,"à¤ıà¤ļà¤ª":4511,"à¤ĩà¤Ĺà¤¨":4512,"Ġà¤Ĺà¤¨à¤°":4513,"à¤ªà¤ķà¤¨":4514,"à¤¼à¤¾)":4515,"Ġà¤¤à¤Łà¤°à¤ķ":4516,"Ġ(.":4517,"Ġà¤ªà¤¹à¤¨à¤ķà¤°":4518,"Ġà¤®à¤¬":4519,"1857":4520,"Ġà¤¢à¤ķà¤¨":4521,"Ġà¤ķà¤²à¤¹":4522,"à¤ªà¤Ĺ":4523,"Ġ05":4524,"à¤¬à¤°à¤¤":4525,"à¤ħà¤µà¤¸":4526,"à¥Īà¥¤à¥¤à¥¤":4527,"Ġ1300":4528,"Ġ4000":4529,"Ø§":4530,"à¤µà¤µà¤¤":4531,"à¤Ĩà¤Ĩ":4532,"Ġà¤ıà¤Łà¤µ":4533,"Ġà¤¸à¤Īà¤¦":4534,"Ġà¤ıà¤¯":4535,"ab":4536,"Ġà¤Ĺà¤«":4537,"Ġà¤ĵà¤µà¤²":4538,"à¤ıà¤¨à¤ıà¤¸":4539,"à¤¿)à¥¤":4540,"Ġà¤ıà¤¸à¤µ":4541,"Ġà¤ĩà¤§à¤°":4542,"à¤¼à¥Ģà¤Ĥà¥¤":4543,"Ġà¤ħà¤Ńà¤¦":4544,"à¤īà¤¥à¤²":4545,"Ġà¤«à¤ľ":4546,"Ġ1400":4547,"180":4548,"160":4549,"à¤°à¤Ĺà¤®":4550,"Ġ167":4551,"à¤¸à¤ĸ":4552,"Ġà¤Ĩà¤ĩà¤ļ":4553,"à¤¯à¤ķà¤µ":4554,"à¤ķà¤¬à¤¸":4555,"Ġà¤Īà¤ª":4556,"à¤¡à¤Ĩà¤īà¤Ł":4557,"à¤Ľà¤¦":4558,"Ġ162":4559,"à¤ģ;":4560,"de":4561,"à¤¸à¤ıà¤²":4562,"à¤²à¤Ńà¤¤":4563,"à¤¬à¤ķà¤°":4564,"Ġà¤¬à¤°à¤¬":4565,"ĠÎ»Î¿":4566,"1858":4567,"Ġà¤²à¤Łà¤ķà¤¨":4568,"à¤īà¤ļà¤°":4569,"ap":4570,"à¤¥à¤¬à¤°":4571,"à¤°à¤ļà¤²à¤¨":4572,"Ġà¤²à¤¹à¤°à¤¦":4573,"Ġà¤«à¤²à¤¤":4574,"à¤«à¤¹à¤®":4575,"à¤Ŀà¤¨":4576,"Ġ325":4577,"à¤Īà¤«":4578,"à¤®à¤²à¤¤":4579,"Ġ[.]":4580,"à¥Ģ.:":4581,"à¤¥à¤¹":4582,"Ġà¤¬à¤¦à¤¬":4583,"Ġà¤¹à¤®à¤¸":4584,"106":4585,"à¤¡à¤°à¤ª":4586,"Î¸":4587,"à¤²à¤°à¤ķ":4588,"à¤°à¤¬à¤¦à¤²":4589,"ri":4590,"Ġà¤ªà¤Ľà¤¤":4591,"114":4592,"Ġà¤Īà¤¯":4593,"450":4594,"à¤ķà¤ªà¤¡":4595,"Ġà¤ıà¤ıà¤«à¤¸":4596,"à¤¡à¤²à¤ľ":4597,"à¤µà¤°à¤£à¤µ":4598,"Ġ205":4599,"à¤ĵà¤ĩà¤¡":4600,"Ġà¤ıà¤ļà¤¡":4601,"à¤ĩà¤¸à¤°":4602,"Ġà¤ĳà¤²à¤¸":4603,"ĨĴ":4604,"à¤Ĩà¤ªà¤¨":4605,"à¤Ĩà¤«":4606,"Ġà¤ĵà¤µà¤°à¤°":4607,"Ġà¤¨à¤²à¤¸":4608,"ct":4609,"à¤ĩà¤²à¤®":4610,"à¤¾à¤Ĥ\"":4611,"Ġà¤¸à¤ĺà¤¨":4612,"à¤ªà¤ķà¤¤":4613,"1854":4614,"1855":4615,"à¥ĩà¤Ĥà¥¤..":4616,"à¤ĩà¤¡à¤¬":4617,"à¤Ńà¤µà¤¨":4618,"Ġà¤Ńà¤¦":4619,"à¤ıà¤¨à¤°":4620,"135":4621,"Ġà¤Łà¤¬":4622,"à¤®à¤²à¤¯":4623,"Ġà¤ħà¤«à¤¸":4624,"Ġà¤Ĩà¤īà¤Łà¤¸":4625,"à¤ļà¤®à¤ķ":4626,"à¤Łà¤°à¤µà¤°":4627,"Ġà¤Ĩà¤°à¤ª":4628,"1851":4629,"à¤Ĩà¤ĸ":4630,"à¤ģ)":4631,"à¤°à¤¦à¤¤":4632,"à¤¼à¤¼à¤¼à¤¼":4633,";;;;":4634,"à¥ĭ]":4635,"Ġ163":4636,"à¤Łà¤°à¤Łà¤¨":4637,"Ġà¤ıà¤¸à¤ıà¤¸à¤Ĩà¤°":4638,"Ġ157":4639,"Ġà¤īà¤ªà¤ª":4640,"à¤¥à¤ļ":4641,"Ġà¤Īà¤¥à¤°":4642,"Ġà¤īà¤²à¤°":4643,"à¤ľà¤¨à¤¤":4644,"à¤¬à¤«":4645,"Ġ149":4646,"Ġ215":4647,"Ġà¤¤à¤Łà¤µà¤°":4648,"à¤·à¤¯à¤ķ":4649,"Ġà¤ªà¤¦à¤¸":4650,"Ġà¤ħà¤¸à¤¹à¤¨":4651,"Ġ301":4652,"Ġà¤ªà¤ľ":4653,"à¥ĩ!\"":4654,"Ġ161":4655,"Î¬":4656,"ag":4657,"à¤¡à¤Ī":4658,"Ġà¤Ĺà¤¨à¤¬":4659,"à¤ĩà¤¨à¤µ":4660,"à¤Īà¤¸à¤µ":4661,"Ã³":4662,"1856":4663,"Ġ\";":4664,"Ġà¤²à¤¹à¤ľ":4665,"Ġwh":4666,"Ġà¤Ĺà¤²à¤¤à¤«à¤¹à¤®":4667,"Ġà¤¶à¤«":4668,"Ġst":4669,"Ġà¤¬à¤¹à¤ķ":4670,"à¤Ĩà¤¦à¤°":4671,"à¤ĩà¤¯à¤°":4672,"à¤¡à¤°à¤¶":4673,"Ġ08":4674,"âī¤":4675,"Ġ172":4676,"ĠÎ¸":4677,"à¤·à¤®à¤²":4678,"Ġà¤ıà¤®à¤ıà¤ķ":4679,"Ġ09":4680,"Ġà¤Ĩà¤Īà¤¸":4681,"Ġà¤¬à¤¶":4682,"à¤ĺà¤Łà¤ķ":4683,"à¤ıà¤¸à¤¬":4684,"à¥Ģ);":4685,"à¥Īà¤Ĥ!\"":4686,"Ġ04":4687,"ĠÄį":4688,"Ġà¤ĩà¤¨à¤µ":4689,"à¥ĩà¤Ĥ?":4690,"à¤«à¤¨à¤¸à¤¨":4691,"Ġà¤¹à¤®à¤¦":4692,"à¤ĩà¤¨à¤«":4693,"1853":4694,"à¤Ńà¤µà¤¹":4695,"à¤®à¤°à¤µ":4696,"à¤ħà¤®à¤°":4697,"à¤¾)\"":4698,"Ġà¤ĵà¤¬à¤°":4699,"à¥Ģà¤Ĥ),":4700,"Ġà¤¬à¤¦à¤¸":4701,"à¥¤\"à¥¤":4702,"Ġ\"),":4703,"Ġà¤¬à¤°à¤¤":4704,"à¤¹à¤°à¤°":4705,"à¤¿),":4706,"à¥Ī\")":4707,"Ġà¤ıà¤ªà¤°":4708,"140":4709,"Î¹Î½":4710,"Ġ1772":4711,"ÛĮ":4712,"Ġà¤ħà¤Łà¤ķ":4713,"Ġà¤ªà¤µà¤¨à¤ļà¤ķ":4714,"Ġà¤¹à¤®à¤µà¤¤à¤¨":4715,"à¤Ĺà¤£à¤°":4716,"à¤ľà¤¨à¤ľ":4717,"à¤Łà¤²à¤¸":4718,"à¤®à¤ł":4719,"Ġà¤ĺà¤¸":4720,"ll":4721,"Ġ159":4722,"à¤°à¤¹à¤°":4723,"Ġ166":4724,"à¤¨à¤ĸ":4725,"à¥ĩà¥¤)":4726,"à¥Ī-\"":4727,"1852":4728,"Ġ850":4729,"Ġà¤Ĩà¤Īà¤¨":4730,"ow":4731,"Ġ275":4732,"Ġ164":4733,"à¤ĩà¤¦":4734,")\",":4735,"103":4736,"à¤µà¤²à¤°":4737,"Ġ169":4738,"Ġ1763":4739,"à¤ıà¤¨à¤Ĩà¤°":4740,"se":4741,"Ġ06":4742,"Ġà¤ĳà¤¨à¤¸":4743,"à¤°à¤Ńà¤ķ":4744,"ĠÃ©":4745,"à¤²à¤¦à¤¸":4746,"Ġ380":4747,"à¤µà¤°à¤¡":4748,"à¤ªà¤¦à¤ķ":4749,"\"/\"":4750,"Ġà¤ħà¤¹à¤°":4751,"Ġà¤ıà¤«à¤¡":4752,"ĠĠĠĠ":4753,"Ġà¤Ĭà¤¦à¤¬":4754,"à¤¶à¤ªà¤°":4755,"à¤¡à¤¹à¤®":4756,"à¥ĩà¥¤'":4757,"à¤¾\")à¥¤":4758,"à¤ħà¤µà¤¶":4759,"Ġà¤ĳà¤¶à¤µ":4760,"à¤ļà¤ª":4761,"Ġà¤¨à¤°à¤Ńà¤ķ":4762,"à¤¨à¤¸à¤°":4763,"Ġfor":4764,"à¤«à¤ª":4765,"à¤®à¤ĸ":4766,"à¤īà¤µ":4767,"Ġà¤ıà¤¸à¤ľ":4768,"à¤²à¤°à¤¶":4769,"0000":4770,"Ġ02":4771,"tt":4772,"à¤¹à¤Ń":4773,"Ġ176":4774,"à¤Ĩà¤Īà¤ª":4775,"à¥¤),":4776,"Ġà¤ħà¤²à¤°":4777,"à¤¦à¤°à¤¸":4778,",,,,,,,,,,,,,,,,":4779,"Ġà¤«à¤¤":4780,"à¤Ĩà¤ĩà¤¸à¤²":4781,"à¤¼'":4782,"1820":4783,"à¤Ĩà¤°à¤ª":4784,"à¤µà¤¶à¤ķ":4785,"Ġ1640":4786,"Ġà¤ıà¤Ĩà¤Ī":4787,"Ġà¤Ĺà¤¸":4788,"à¤ħà¤ĸ":4789,"Ġà¤īà¤¹":4790,"Ġiii":4791,"Ġà¤ħà¤¨à¤ª":4792,"ly":4793,"Ġ@":4794,"1849":4795,"ÃŃ":4796,"Ġà¤ıà¤²à¤¬":4797,"à¤īà¤ªà¤Ń":4798,"Ġ01":4799,"à¤¡à¤²à¤¸":4800,"à¤¶à¤¬à¤°":4801,"Ġà¤ªà¤°à¤°":4802,"ĠS":4803,"à¤Īà¤Ĺà¤²":4804,"à¤°à¤¡à¤®":4805,"Ġ206":4806,"\"[":4807,"-'":4808,"à¤ıà¤²à¤ª":4809,";)":4810,"Ġà¤īà¤Ĺà¤¨":4811,"Ġ171":4812,"à¤¸à¤²à¤¬":4813,"Ġà¤¶à¤Łà¤°":4814,">),":4815,"à¤īà¤¨à¤µ":4816,"116":4817,"Ġà¤ĵà¤¶à¤¨":4818,"Ġà¤ıà¤¨à¤²":4819,"Ġ173":4820,"à¤°à¤¨à¤°":4821,"ĠâĨĴ":4822,"Ġà¤ķà¤Łà¤²à¤°":4823,"Ġthat":4824,"107":4825,"Ġà¤¬à¤²à¤ª":4826,"à¥Īà¤ĥ\"":4827,"Ġ1100":4828,"Ġà¤Ĩà¤Īà¤ıà¤¸à¤ĵ":4829,"à¤Ĩà¤Ń":4830,"Ġà¤ħà¤¬à¤¦":4831,"Ġà¤¸à¤¦à¤°":4832,"à¤¡à¤¯à¤¨":4833,"ĠXVI":4834,"1845":4835,"Ġ[.]..]":4836,"Ġà¤¯à¤ľ":4837,"Ġà¤«à¤¸":4838,"and":4839,"Ġ2030":4840,"ĠÎ»Î¿dz":4841,"à¤ļà¤°à¤®":4842,"à¤ĸà¤ľ":4843,"à¤ĸà¤Ĺ":4844,"Ġ151":4845,"à¤ıà¤¬à¤°":4846,"à¤ıà¤®à¤ıà¤²":4847,"________":4848,"118":4849,"Ġ182":4850,"à¤ĺà¤¡":4851,"à¤¡à¤°à¤¹":4852,"à¤ĵà¤ķà¤²":4853,"à¤ĵà¤ļ":4854,"Ġà¤Ĺà¤Ł":4855,"à¥Ģ-\"":4856,"Ġà¤·à¤Ł":4857,"Ġà¤Ķà¤ľ":4858,"Ġ()à¥¤":4859,"Ġ365":4860,"Ġ737":4861,"Ġà¤ħà¤¨à¤²":4862,"Ġà¤ħà¤²à¤ķ":4863,"Ġà¤¡à¤°à¤¨":4864,"und":4865,"ÑģÐ¾":4866,"Ġ177":4867,"litre":4868,"Ġ303":4869,"Ġà¤ħà¤°à¤¬à¤ªà¤¤":4870,"Ġ1740":4871,"à¥Į\"":4872,"Ġ1650":4873,"Ġ214":4874,"à¤Ĺà¤£à¤ķ":4875,"1846":4876,"à¤ıà¤¨à¤Ł":4877,"oc":4878,"à¤µà¤°à¤«":4879,"1838":4880,"à¤īà¤¥à¤ª":4881,"à¤¸à¤¹à¤®à¤¤":4882,"Ġà¤ħà¤°à¤µ":4883,"à¤¾à¤Ĥ)":4884,"Ġ370":4885,"à¥ĭ)à¥¤":4886,"à¤¼à¤ĥ":4887,"à¤ıà¤®à¤ıà¤²à¤¬":4888,"à¤ĩà¤¡à¤µ":4889,"Ġà¤¦à¤ľ":4890,"Ġ\"*":4891,"ĠÑģÐ¾":4892,"Ġ1773":4893,"à¤Ĺà¤¹à¤¨":4894,"à¤¡à¤ıà¤ķ":4895,"Ġà¤°à¤Ĺà¤¡":4896,"Ġ174":4897,"Ġà¤Ĩà¤²à¤®":4898,"à¤¯à¤ľà¤¨":4899,"à¤¡à¤°à¤µà¤°":4900,"à¤ķà¤Łà¤°":4901,"Ġà¤ıà¤«à¤ıà¤ķ":4902,"Ġà¤ħà¤¸à¤¦":4903,"1812":4904,"ĠXX":4905,"Ġ181":4906,"à¤¹à¤ľà¤¨à¤ķ":4907,"ation":4908,"Ġà¤ªà¤¥à¤°":4909,"à¤Ĺà¤²à¤Łà¤¨":4910,"ĠM":4911,"à¤²à¤ķà¤¤":4912,"Ġ178":4913,"Ġà¤¬à¤°à¤¸":4914,"Ġà¤ħà¤¦à¤°à¤ķ":4915,"à¤Łà¤®à¤µ":4916,"Ġ218":4917,"à¤¦à¤°à¤¬":4918,"Ġà¤¥à¤®":4919,"Ġà¤¯à¤¶":4920,"---":4921,"Ġ222":4922,"1837":4923,"Ġ310":4924,"Ġ1768":4925,"à¥ģ\",":4926,"à¥Ĥ),":4927,"à¤°à¤µà¤¶":4928,"à¥ĭà¤Ĥ\",":4929,"à¤ªà¤°à¤ľ":4930,"à¤ĸà¤¤à¤°à¤¨":4931,"à¤²à¤Ī":4932,"Ġà¤Ĺà¤£à¤®":4933,"à¤ĩà¤²à¤¨":4934,"Ġà¤¹à¤°à¤ķà¤¤":4935,"Ġà¤ıà¤¡à¤°":4936,"ĠA":4937,"Ġà¤Łà¤Ĺ":4938,"à¤²à¤®à¤¨":4939,"Ġà¤ľà¤¯à¤ª":4940,"à¤ķà¤¨à¤¸":4941,"Ġ211":4942,"Ġà¤ªà¤°à¤ĸ":4943,"1832":4944,"Ġà¤ıà¤¹":4945,"Ġà¤ıà¤ļà¤Ĩà¤°":4946,"um":4947,"Ġà¤Ĩà¤°à¤ıà¤¸":4948,"à¤łà¤®":4949,"ĠÑģÐ¸":4950,"Ġ208":4951,"ev":4952,"360":4953,"Ġ07":4954,"à¤ªà¤ķà¤°":4955,"Ġ290":4956,"Ġà¤¦à¤¶à¤®à¤²à¤µ":4957,"Ê¼Ê¼Ê¼Ê¼Ê¼Ê¼Ê¼Ê¼":4958,"à¤ħà¤ªà¤®":4959,"à¤ķà¤¦":4960,"Ġ1769":4961,"od":4962,"Ġà¤ķà¤¨à¤µà¤°":4963,"Ġ1758":4964,"320":4965,"à¤ħà¤²à¤µ":4966,"1841":4967,"à¤¹à¤°à¤²":4968,"te":4969,"à¤ķà¤¨à¤²":4970,"à¤ķà¤¨à¤ķà¤°":4971,"à¤Ĩà¤Īà¤ı":4972,"à¤ĸà¤¨à¤Ĭ":4973,"à¤Ĺà¤¨à¤¨":4974,"Ġà¤Ľà¤°":4975,"à¤ħà¤¸à¤°":4976,"Ġà¤ıà¤®à¤¨":4977,"à¤¾--":4978,"à¥Ĥ.,":4979,"à¤Ĳà¤ª":4980,"Ġà¤Ĩà¤Īà¤ĵà¤µ":4981,"Ġ203":4982,"à¤īà¤¸à¤°":4983,"à¤«à¤¤":4984,"Ġ(Â":4985,"Ġà¤¸à¤¨à¤¶":4986,"1842":4987,"à¤®à¤¸à¤Ń":4988,"à¤¥à¤Ĺà¤¨":4989,"Ġ235":4990,"Ġ420":4991,"à¤²à¤°à¤®":4992,"à¤µà¤°à¤Łà¤¨":4993,"Ġ216":4994,"Ġ204":4995,"Ġà¤¸à¤¹à¤Ń":4996,"ĠÐ¼":4997,"à¤īà¤ªà¤Ĺ":4998,"à¤ªà¤°à¤ª":4999,"à¤µà¤ķà¤°":5000,"à¤®à¤°à¤Ĺà¤¨":5001,"à¥Ī]":5002,"à¤¬à¤°à¤ķ":5003,"à¤¬à¤¶":5004,"Ġà¤ªà¤Łà¤¨":5005,"Ġà¤ªà¤ĸà¤µ":5006,"à¥¤]":5007,"Ġ217":5008,"Ġà¤¨à¤¸à¤¬":5009,"Ġà¤«à¤Łà¤¨":5010,"à¤ĩà¤¡à¤¸":5011,"à¤¬à¤°à¤«":5012,"à¤ķà¤¥à¤¨":5013,"Ġà¤ĳà¤¬à¤°":5014,"1844":5015,"Ġà¤ħà¤¬à¤ĸ":5016,"à¤ªà¤°à¤ļ":5017,"1836":5018,"Ġ/":5019,"Ġà¤ķà¤²à¤¶":5020,"Ġ191":5021,"Ġ440":5022,"à¤Ĩà¤°à¤Ĩà¤°":5023,"Ġà¤Ĩà¤ĩà¤µà¤°":5024,"Ġà¤®à¤ķà¤°":5025,"Ġà¤²à¤¦":5026,"à¤ĩà¤®à¤²":5027,"1839":5028,"Ġà¤«à¤²à¤¦":5029,"pp":5030,"à¥ĩà¤Ĥ!\"":5031,"Ġ207":5032,"Ġis":5033,"à¤¶à¤°à¤¦":5034,"Ġà¤¹à¤°à¤®à¤¨":5035,"à¤ĩà¤µà¤²":5036,"Ġ1720":5037,"Ġ1765":5038,"à¤¬à¤¦à¤¬":5039,"à¤¹à¤¸à¤¨":5040,"Ġà¤ļà¤¡":5041,"Ġ03":5042,"à¤·à¤¦à¤°":5043,"Ð½Ð°":5044,"à¥Ĥ\")":5045,"à¤¸à¤¹à¤®":5046,"Ġà¤ıà¤²à¤Ĺ":5047,"à¤¼à¤¾à¤ĥ":5048,"à¤°à¤¨à¤Ł":5049,"ĠU":5050,"Ġà¤Ľà¤®":5051,"-)":5052,"à¤¨à¤¥à¤²":5053,"à¤¥à¤ħà¤®":5054,"Ġ480":5055,"Ùħ":5056,"1847":5057,"Ġ1730":5058,"123":5059,"Ġ'-":5060,"à¤ĵà¤¨à¤²":5061,"à¤°à¤ķà¤¸":5062,"à¥Ģ,\"":5063,"à¤¸à¤ł":5064,"Ġà¤¢à¤ķà¤¤":5065,"à¤ıà¤¸à¤ķ":5066,"ĠB":5067,"Ġà¤¯à¤¸":5068,"Ġà¤ıà¤¨à¤Ĺ":5069,"ĠÌĥ":5070,"220":5071,"à¤¬à¤²à¤®":5072,"à¤¤à¤¦":5073,"à¤¬à¤ļà¤ªà¤¨":5074,"1835":5075,"sk":5076,"Ġà¤īà¤®à¤¯":5077,"Ġà¤¡à¤°à¤¬à¤¨":5078,"Ġà¤§à¤®":5079,"à¤¸à¤¶à¤¸":5080,"à¤Īà¤¯à¤¨":5081,"109":5082,"Ġ233":5083,"Ġ209":5084,"à¤¦à¤¶à¤ķ":5085,"à¤ĩà¤«à¤¨":5086,"Ð½Ð¸":5087,"à¤ıà¤®à¤¡":5088,"Ġà¤ıà¤¯à¤°à¤ķ":5089,"à¤ļà¤¹":5090,"Ġ1762":5091,"à¤Ńà¤®":5092,"Ġà¤¤à¤°à¤¬":5093,"à¤Łà¤Ī":5094,"à¤ķà¤¡à¤°":5095,"Ġà¤¸à¤ķà¤¨":5096,"à¤Ĺà¤²à¤®":5097,"ÑĤÐ°":5098,"ÃĤÃĤÃĤÃĤÃĤÃĤÃĤÃĤÃĤÃĤÃĤÃĤÃĤÃĤÃĤÃĤÃĤÃĤÃĤÃĤÃĤÃĤÃĤÃĤÃĤÃĤÃĤÃĤÃĤÃĤÃĤÃĤ":5099,"Ġà¤¸à¤®à¤¨à¤°":5100,"1815":5101,"à¤¤à¤¨à¤ķ":5102,"à¤¬à¤ķà¤¤":5103,"Ġà¤°à¤¹à¤ķà¤°":5104,"ich":5105,"à¤¼/":5106,"à¤¾\":":5107,"à¤¼.":5108,"Ġà¤ıà¤¶à¤¬":5109,"Ġà¤Ĩà¤Īà¤®":5110,"Ġà¤®à¤¨à¤¸":5111,"à¥Īà¥¤..\"":5112,"à¤ĺà¤¨à¤¨":5113,"à¤ıà¤¨à¤«":5114,"à¤¡à¤ķà¤°":5115,"Ġà¤Ĺà¤¬":5116,"à¤¸à¤®à¤¨":5117,"à¤Łà¤°à¤°":5118,"Ġà¤Ĩà¤Īà¤ĵà¤¸":5119,"à¤Łà¤¨à¤µ":5120,"à¤ħà¤¸à¤®":5121,"108":5122,"à¤°à¤µà¤£à¤¤":5123,"à¤Ńà¤¤":5124,"Ġà¤®à¤¶à¤¹":5125,"na":5126,"à¤ĸà¤®à¤°":5127,"Ġ1771":5128,"à¤²à¤¥":5129,"Ġ221":5130,"Ġà¤Ĺà¤°à¤®":5131,"à¤Ĩà¤ĩà¤¡":5132,"à¤ĩà¤ªà¤«":5133,"à¥Īà¤Ĥà¥¤,":5134,"à¤Ĩà¤łà¤µ":5135,"à¤ªà¤¬à¤°":5136,"Ġ142":5137,"à¥ĩà¤Ĥà¥¤)":5138,"Ġà¤ľà¤¯à¤ķ":5139,"Ġà¤Ķà¤²":5140,"à¤īà¤¡à¤¸":5141,"1843":5142,"Ġ1630":5143,"Ġà¤¸à¤¹à¤¨à¤¶à¤ķ":5144,"!\",":5145,"à¤§à¤®à¤¨":5146,"Ġà¤¹à¤ł":5147,"Ġ1755":5148,"Ġ1761":5149,"à¤¸à¤ªà¤¨":5150,"à¤¹à¤«":5151,"ne":5152,"à¤Ĩà¤ªà¤¤":5153,"Ġà¤¬à¤ľà¤¤":5154,"à¤¿\")":5155,"Ġà¤ħà¤°à¤®":5156,"à¤Łà¤²à¤ª":5157,"Ġà¤°à¤Łà¤²":5158,"ht":5159,"à¤¶à¤¤à¤°":5160,"Ġ2500":5161,"Ġà¤ħà¤¨à¤¡":5162,"Ġ1745":5163,"à¥ĭ\"à¥¤":5164,"1834":5165,"à¤Ĺà¤¨à¤«":5166,"ĠÏĩ":5167,"Ġà¤¸à¤¨à¤¸":5168,"Ġà¤ĸà¤Łà¤ĸà¤Ł":5169,"à¤°à¤¬à¤ķ":5170,"Ġ(\"\"":5171,"à¤¼à¥ĭ,":5172,"à¥Īà¥¤.":5173,"à¥¤\",":5174,"à¤¸à¤¦à¤¨":5175,"sh":5176,"Ġ1766":5177,"Ġà¤ħà¤ķà¤°":5178,"Ġvii":5179,"à¤ļà¤¶":5180,"Ġ1620":5181,"à¤ĩà¤¡à¤®":5182,"Ġà¤ĳà¤Ĺ":5183,"à¤¼à¥ĩ)":5184,"à¤¤à¤Łà¤¸":5185,"Ġà¤Łà¤¹à¤¨":5186,"à¤ķà¤°à¤¬":5187,"à¤Łà¤¨à¤®":5188,"Ġ460":5189,"Ġà¤¸à¤°à¤®":5190,"210":5191,"Ġà¤Ĺà¤¬à¤¨":5192,"Ġ224":5193,"////":5194,"Ġà¤²à¤ĸà¤¨à¤Ĭ":5195,"à¤ªà¤ķà¤¡":5196,"à¤¸à¤§":5197,"vi":5198,"Ġ1689":5199,"à¤°à¤¸à¤®":5200,"Ġan":5201,"Ġ1715":5202,"Ġ1759":5203,"à¤Ĺà¤¨à¤µ":5204,"à¤²à¤Ĩà¤īà¤Ł":5205,"à¤¯à¤°à¤ļ":5206,"à¤¯à¤ľà¤²":5207,"Ġà¤īà¤ªà¤ķà¤²":5208,"à¤¸à¤«à¤²à¤¤":5209,"1814":5210,"Ġ1764":5211,"mm":5212,"à¤¡à¤°à¤¨":5213,"à¤ıà¤¦":5214,"Ġà¤®à¤²à¤ķ":5215,"\"-\"":5216,"Ġà¤ıà¤ĵ":5217,"Ġà¤ĸà¤¤à¤¨":5218,"Ġ1690":5219,"Ġ305":5220,"ĠÐļ":5221,"Ġon":5222,"Ġ911":5223,"xx":5224,"à¤¾à¥¤-":5225,"ot":5226,"à¤¯à¤¥à¤¨":5227,"Î±Î½":5228,"Ġ1767":5229,"Ġà¤¨à¤¡":5230,"1833":5231,"ÑĤÐ¸":5232,"à¤ıà¤²à¤ľ":5233,"Ø±":5234,"à¥¤..]":5235,"Ġ255":5236,"à¤īà¤¹":5237,"Ġà¤ħà¤®à¤°à¤¤":5238,"Ġ375":5239,"à¤ĩà¤²à¤Ł":5240,"Ġ219":5241,"à¤¤à¤²à¤µ":5242,"Ġà¤īà¤Ī":5243,"à¤¡à¤²à¤®":5244,"Ġà¤ıà¤¥à¤°":5245,"à¤ļà¤¤à¤°":5246,"Ġà¤Ĩà¤°à¤µ":5247,"Ġ1756":5248,"à¤¬à¤ĸ":5249,"ĠÑĩÐµ":5250,"Ġ1680":5251,"Ġà¤ħà¤µà¤¤à¤²":5252,"à¥Ĥà¤ģ;":5253,"à¥ĩà¤Ĥ\")":5254,"à¤«à¤²à¤°":5255,"à¤Łà¤²à¤ķ":5256,"à¤¸à¤ķà¤²":5257,"à¤¾à¥¤.":5258,"Ġà¤ıà¤¡à¤ķ":5259,"à¤¡à¤ķà¤µà¤°":5260,"Ð»Ðµ":5261,",)":5262,"cl":5263,"Ġà¤«à¤ķ":5264,"à¤°à¤®à¤ªà¤°":5265,"Ġ--":5266,"à¥Ģ',":5267,"à¤Ĩà¤£à¤µ":5268,"Ġà¤ĵà¤µà¤°à¤¡":5269,"ÑĢÐ¾":5270,"à¥ĩà¤Ĥ\"à¥¤":5271,"Ġà¤¬à¤°à¤ķ":5272,"Ġ401":5273,"Ġà¤¢à¤¹à¤¨":5274,"à¤Ĳà¤¨":5275,"à¤īà¤ªà¤¨à¤Ĺà¤°":5276,"à¤ªà¤°à¤¤":5277,"Ġà¤ĵà¤«":5278,"ÑģÐ°":5279,"1831":5280,"Ġà¤ıà¤²à¤Ł":5281,"à¥Ģ?\"":5282,"Ġà¤ħà¤¨à¤µà¤°":5283,"à¤µà¤°à¤¨":5284,"Ġà¤ıà¤Ĺà¤¨":5285,"à¤ıà¤¨à¤¹":5286,"à¤¬à¤Łà¤¨":5287,"Ġà¤²à¤µà¤²":5288,"à¥ĩà¥¤âĢĿ":5289,"::":5290,"à¥ģ/":5291,"ĠÎº":5292,"à¤¯à¤¨à¤®":5293,"Ġà¤¡à¤¡à¤²":5294,"à¤®à¤°à¤²":5295,"à¤°à¤ĺ":5296,"à¤ģ\",":5297,"à¤ªà¤°à¤°":5298,"Ġà¤¦à¤¬à¤¦à¤¬":5299,"à¥Īà¥¤<":5300,"Ġ\"#":5301,"Ġ\">":5302,"Ġà¤ĩà¤¯à¤°":5303,"ÙĨ":5304,"Ġà¤®à¤ª":5305,"Ġà¤ıà¤¹à¤°":5306,"Ġà¤Ĳà¤²":5307,"Ġà¤ıà¤¶à¤°":5308,"à¤ķà¤¤à¤°":5309,"Ġ6000":5310,"à¤®à¤ªà¤¤":5311,"à¤¯à¤®à¤¸":5312,"Ġ223":5313,"Ġà¤¦à¤¹à¤²":5314,"Ġà¤ĵà¤¸à¤µ":5315,"Ġà¤Ĩà¤¬à¤°":5316,"Ġà¤ľà¤²à¤Ń":5317,"Ġ232":5318,"?)":5319,"he":5320,"ÑĢÐµ":5321,"à¤Ĩà¤¸à¤ª":5322,"à¤¼\")":5323,"1821":5324,"à¤ıà¤²à¤µ":5325,"Ġà¤²à¤µà¤£à¤¤":5326,"Ġbc":5327,"à¤µà¤°à¤Ł":5328,"com":5329,"à¥ĩà¤Ĥ/":5330,"ÑĢÐ°":5331,"ere":5332,"à¤ķà¤®à¤²":5333,"à¥ģ'":5334,"Ġà¤ħà¤¹à¤®":5335,"Ġ1648":5336,"Ġ234":5337,"Ġà¤Ĳà¤¡":5338,"à¤µà¤²à¤¨à¤¶":5339,"1828":5340,"à¤¼à¥ĭà¤Ĥ\"":5341,"1825":5342,"mi":5343,"à¤°à¤ľà¤¨à¤¨à¤ķà¤°":5344,"à¤¡à¤²à¤¬":5345,"Ġ228":5346,"Ġkm":5347,"à¤¯à¤¨à¤ķ":5348,"à¤®à¤¸à¤°":5349,"Ġ316":5350,"ffff":5351,"à¥Ī);":5352,"170":5353,"Ġà¤ĩà¤ĵà¤¨":5354,"Ġà¤²à¤¹à¤¸":5355,"Ġà¤¹à¤¨à¤¨":5356,"Ġà¤ħà¤®à¤²":5357,"1824":5358,"Ġ1757":5359,"à¥Īà¥¤..]":5360,"à¤¨à¤®à¤ķ":5361,"à¤Ĺà¤°à¤ª":5362,"550":5363,"à¤ªà¤¤à¤¨":5364,"à¤Ĩà¤ī":5365,"240":5366,"ie":5367,"fm":5368,"à¤Ĺà¤łà¤¬":5369,"Ġ146":5370,"à¤°à¤Łà¤¨":5371,"Ġ1642":5372,"Ġà¤īà¤Ľà¤²":5373,"Ġà¤ıà¤®à¤ıà¤²à¤ıà¤¸":5374,"ĠHTTP":5375,"Ġà¤¹à¤°à¤Ĺ":5376,"à¤ıà¤®à¤ķ":5377,"à¤ĺà¤Łà¤¨à¤ķ":5378,"Ġ245":5379,"à¤Īà¤¹":5380,"à¤¾à¤ģ;":5381,"1829":5382,"Ġ1670":5383,"Ġà¤ıà¤¶à¤ķ":5384,"Ġ262":5385,"Ġ322":5386,"Ġ242":5387,"à¥Ī--":5388,"ra":5389,"Ġà¤ĩà¤ķà¤²":5390,"Ġà¤ıà¤¨à¤¡à¤¬":5391,"Ġ720":5392,"145":5393,"à¤ħà¤ħ":5394,"Ġ1710":5395,"Ġà¤ªà¤°à¤¨":5396,"à¥Ģ\".":5397,"ik":5398,"1810":5399,"à¥į-":5400,"Ġà¤ĩà¤¨à¤«":5401,"%%":5402,"ub":5403,"à¤Ńà¤§":5404,"à¤ıà¤ķà¤¤":5405,"à¤ĩà¤ªà¤¨":5406,"à¥Ģà¤ĥ\"":5407,"Ġà¤®à¤¨à¤Ĺà¤¢":5408,"à¤ĩà¤¨à¤Ł":5409,"Ġ312":5410,"Ġ238":5411,"ĠØ§":5412,"Ġ430":5413,"Ġà¤ıà¤¨à¤¡":5414,"Ġà¤ħà¤¬à¤°":5415,"cc":5416,"Ġà¤ĩà¤¨à¤¬":5417,"Ġà¤Ĩà¤Īà¤ıà¤¸à¤Ĩà¤Īà¤ıà¤¸":5418,"à¤«à¤°à¤²":5419,"op":5420,"119":5421,"Ġ1754":5422,"à¤¾à¥¤..\"":5423,"Ġà¤ĩà¤²à¤¸":5424,"650":5425,"Ġ247":5426,"ÏģÎ¹":5427,"1826":5428,"ith":5429,"Ġà¤¯à¤ª":5430,"à¤Ńà¤ľà¤¨":5431,"Ġà¤ªà¤°à¤¡":5432,"Ġre":5433,"à¤¼à¥ģà¤Ĥ":5434,"à¤ĵà¤¥":5435,"Ġ251":5436,"à¤ģ-":5437,"Ġà¤Ĩà¤°à¤Ł":5438,"Ġ1688":5439,"Ġ1661":5440,"Ġ295":5441,"Ġà¤Ĳà¤°":5442,"1818":5443,"à¤ĩà¤²à¤ķ":5444,"ib":5445,"à¥¤\"(":5446,"Ġà¤ľà¤²à¤°":5447,"Ġ239":5448,"à¤²à¤°à¤¹":5449,"à¤ħà¤¡":5450,"124":5451,"à¤¹à¤²à¤¨":5452,"à¤Ĩà¤°à¤¬":5453,"Ġ227":5454,"à¤¶à¤°à¤£":5455,"Ġ265":5456,"Ð»Ð¸":5457,"Ġà¤¹à¤łà¤§à¤°":5458,"Ġà¤ıà¤¡à¤ľ":5459,"Ġà¤ķà¤łà¤«":5460,"Ġà¤ĸà¤¸":5461,"Ġ226":5462,"ld":5463,"Ġà¤īà¤łà¤¨":5464,"à¤¹à¤¡à¤¸à¤¨":5465,"à¤ĩà¤°à¤µ":5466,"128":5467,"à¥ĥ.":5468,"/-":5469,"à¤²à¤°à¤¸":5470,"Ã¨":5471,"Ġà¤ıà¤¨à¤Ł":5472,"121":5473,"Ġà¤ıà¤¯à¤°à¤®":5474,"à¥ĭà¤Ĥ?":5475,"Ġ264":5476,"Ġ747":5477,"à¥ĭà¤Ĥ]":5478,"à¤¤à¤²à¤ķ":5479,"Ġit":5480,"ca":5481,"à¤ļà¤®à¤¤":5482,"1827":5483,"à¤¤à¤ķà¤°à¤£":5484,"Ġ308":5485,"à¤Ĩà¤ķà¤¨":5486,"à¤ıà¤¹":5487,",à¥¤":5488,"à¥Īà¤Ĥà¥¤\"\"":5489,"Ġà¤®à¤¤à¤²":5490,"Ġà¤¸à¤°à¤ª":5491,"ĠÎ´Îµ":5492,"Ġà¤°à¤®à¤¨":5493,"Ġà¤Ĩà¤Īà¤ıà¤²":5494,"à¤ĩà¤¨à¤ª":5495,"à¤®à¤²à¤ķ":5496,"à¤Īà¤Ĩà¤Ī":5497,"Ġà¤Ĩà¤°à¤¡":5498,"à¤Ĩà¤¨à¤ľ":5499,"Ġ229":5500,"à¤µà¤°à¤¤":5501,"à¤«à¤¨à¤°":5502,"à¤ħà¤¸à¤²":5503,"Ġà¤ħà¤ªà¤Ł":5504,"à¤¸à¤¹à¤¸":5505,"1813":5506,"Ġà¤ĩà¤¨à¤¹":5507,"à¤ķà¤Łà¤Ĺ":5508,"à¤ıà¤¤":5509,"à¤°à¤¸à¤²":5510,"Ġà¤ħà¤²à¤¹":5511,"375":5512,"à¤¼;":5513,"Ġ252":5514,"ter":5515,"à¤ĥ)":5516,"à¤µà¤¹à¤¤":5517,"Ġà¤ħà¤¦à¤®":5518,"Ġ640":5519,"Ġrh":5520,"ĠP":5521,"\"/":5522,"Ġ1707":5523,"ÑĢÐ¸":5524,"Ð½Ð¾":5525,"Ġ285":5526,"ys":5527,"à¤ĸà¤ļ":5528,"à¤īà¤¨à¤Ĺ":5529,"175":5530,"Ð»Ð¾":5531,"Ġà¤ļà¤¨":5532,"à¤¾à¤Ĥ-":5533,"à¤Ĺà¤£à¤¤":5534,"1822":5535,"ÏĦÎµ":5536,"850":5537,"1801":5538,"à¤ªà¤µà¤°":5539,"à¥Ģ\";":5540,"Ġ1753":5541,"à¤¸à¤°à¤¸":5542,"à¥Ģà¤Ĥ?":5543,"Ġ390":5544,"à¤Ĺà¤°à¤¸":5545,"Ġ243":5546,"Ġà¤ıà¤Ĩà¤°":5547,"Ġà¤Ĩà¤ĩà¤¨":5548,"Ġà¤ıà¤ķà¤¦à¤®":5549,"à¤Īà¤ıà¤¸":5550,"Ġà¤Ĩà¤®à¤¦":5551,"à¤µà¤²à¤ª":5552,"à¤ıà¤®à¤ıà¤ķ":5553,"à¤Łà¤¨à¤¹":5554,"Ġ1685":5555,"../":5556,"hz":5557,"Ġà¤¸à¤°à¤µ":5558,"à¤²à¤¨à¤ķ":5559,"Ġà¤Īà¤¥à¤°à¤¨":5560,"Ġà¤¶à¤Ł":5561,"à¤®à¤¸à¤®":5562,"dcdcdc":5563,"à¤°à¤¹à¤¸à¤¨":5564,"Ġà¤Ńà¤Ĺà¤¦":5565,"1803":5566,"à¤§à¤¶à¤¤à¤ķ":5567,"1823":5568,"Ġ241":5569,"Ġ1727":5570,"à¤ľà¤¨à¤Ĺà¤£à¤¨":5571,"à¤ªà¤²à¤ļ":5572,"à¤°à¤µà¤¨":5573,"Ġà¤¹à¤¶":5574,"Ġ287":5575,"Ġà¤ıà¤¸à¤¯":5576,"Ġ333":5577,"1806":5578,"Ġ1747":5579,"\"]":5580,"Ġà¤ħà¤µà¤¸à¤°à¤µ":5581,"1819":5582,".;":5583,"à¤¼),":5584,"1790":5585,"PS":5586,"à¤Ĩà¤ĩà¤²":5587,"Ġ470":5588,"Ġ1540":5589,"à¤¤à¤®à¤¸":5590,"1500":5591,"Ġ1741":5592,"à¤łà¤µ":5593,"à¤īà¤¨à¤°":5594,"Ġà¤ķà¤°à¤ĺ":5595,"Ġ1610":5596,"Ġà¤īà¤¬à¤²à¤¤":5597,"inch":5598,"380":5599,"ng":5600,"à¤¼à¥Ģà¤Ĥ,":5601,"à¤ıà¤¸à¤ıà¤¨":5602,"vii":5603,"à¤®à¤¨à¤°":5604,"Ġ328":5605,"à¤¥à¤°à¤¹":5606,"à¤¸à¤¡à¤°":5607,"Ġ\",\",":5608,"à¤ıà¤¸à¤ıà¤ıà¤«":5609,"1809":5610,"à¤ıà¤²à¤¡":5611,"148":5612,"-,":5613,"Ġ236":5614,"à¤ªà¤Łà¤ķà¤¥":5615,"Ġ313":5616,"Ġwas":5617,"330":5618,"à¤°à¤®à¤²":5619,"Ġ237":5620,"à¤ĩà¤¡à¤ķ":5621,"ia":5622,"Ġà¤Ńà¤Ĺà¤¦à¤¡":5623,"à¤¸à¤Ĭà¤¦":5624,"Ġ1550":5625,"à¤ľà¤¯à¤¨":5626,"illion":5627,"ĠN":5628,"à¤ķà¤ħà¤µ":5629,"à¤¾à¥ħ":5630,"à¤ĩà¤¸à¤¬à¤°":5631,"à¥¤)à¥¤":5632,"à¤ĸà¤µ":5633,"Ġ\":":5634,"Ġà¤«à¤«":5635,"à¤ħà¤¨à¤¸":5636,"ÏģÎ±":5637,"Ġ(~":5638,"Î¼":5639,"à¤·à¤Ń":5640,"à¤·à¤£à¤¤":5641,"à¤ĩà¤¬à¤°à¤®":5642,"Ġ254":5643,"Ġà¤°à¤¨à¤ĳà¤«":5644,"à¥Ģà¥¤âĢĿ":5645,"à¤ħà¤¨à¤ķ":5646,"Ġ512":5647,"Ġ304":5648,"Ġ321":5649,"ud":5650,"Ġà¤¹à¤ķà¤²":5651,"Ġà¤¶à¤¹à¤¤":5652,"Ġà¤ĳà¤²à¤°":5653,"<>":5654,"Ġà¤Ĩà¤Īà¤ľ":5655,"à¥¤\"\"":5656,"à¤ļà¤Ĺ":5657,"à¤īà¤¶":5658,"Ġ311":5659,"Ġ1643":5660,"->":5661,"Ð½Ðµ":5662,"<...>":5663,"Ġ410":5664,"Ġà¤ªà¤¨à¤ª":5665,"Ġsp":5666,"Ġà¤¬à¤¸à¤°":5667,"Ġ+,":5668,"Ġà¤ĳà¤¯à¤²à¤°":5669,"à¤¾à¥¤\",":5670,"à¤Łà¤°à¤¸à¤¬à¤°":5671,"à¤ªà¤¨à¤¡":5672,"Ġà¤īà¤²à¤Łà¤«":5673,"Ġar":5674,"Ġà¤ıà¤¨à¤Ĩà¤°à¤ıà¤²":5675,"og":5676,"270":5677,"à¤¡à¤Ĺà¤µ":5678,"ĠCE":5679,"à¤ªà¤²à¤®":5680,"...|":5681,"Ġà¤¤à¤¦à¤°":5682,"Ġ281":5683,"à¥Ģ)\"":5684,"à¤¨à¤«à¤°":5685,"Ġ1746":5686,"Ġà¤µà¤¨à¤Ń":5687,"Ġ1580":5688,"Ġ1662":5689,"Ġà¤Īà¤¶à¤¨":5690,"Ġ1752":5691,"625":5692,"Ġà¤Īà¤¥":5693,"Ġ1641":5694,"1789":5695,"Ġ258":5696,"Ġ249":5697,"à¤¡à¤¯":5698,"Ġà¤ıà¤¯à¤°à¤¶":5699,"Ġà¤ĵà¤µà¤°à¤ª":5700,"Ġà¤ĩà¤¨à¤°":5701,"Ġ1748":5702,"Ġ1644":5703,"pl":5704,"à¤¸à¤Łà¤¸":5705,"ist":5706,"Ġ248":5707,"Ġà¤°à¤¨à¤Ł":5708,"122":5709,"à¤Ĥ'":5710,"Ġà¤²à¤¥":5711,"à¤²à¤®à¤Ł":5712,"à¤ªà¤µà¤¨":5713,"Ġà¤¡à¤ľ":5714,"à¤ľà¤¨à¤®à¤¤":5715,"Ġà¤ıà¤¡à¤¸":5716,"ix":5717,"Ġcon":5718,"HTTTPS":5719,"Ġà¤ħà¤ľà¤¯":5720,"Ġ246":5721,"Ġ309":5722,"Ġ802":5723,"à¤µà¤£à¤ķ":5724,"Ġà¤¡à¤®à¤«":5725,"à¥Īà¤Ĥ,\"":5726,"à¤¾'à¥¤":5727,"Ġ272":5728,"Ġby":5729,"à¤ĩà¤«à¤¸":5730,"1816":5731,"à¤ĩà¤«à¤¬":5732,"à¤Ĺà¤¥":5733,"Ġ1701":5734,"Ġ244":5735,"1804":5736,"Ġ','":5737,"Ġ1086":5738,"1808":5739,"127":5740,"à¤Ĩà¤ªà¤¦":5741,"138":5742,"Ġà¤ıà¤¬à¤°à¤ķ":5743,"ice":5744,"Ġà¤ħà¤¦à¤¨":5745,"Ġà¤ĳà¤Ĺà¤¸à¤¬à¤°":5746,"à¤Ĺà¤Ī":5747,"à¤ıà¤¨à¤ıà¤¨à¤ıà¤¨à¤ıà¤¨":5748,"à¤ıà¤¸à¤Ĩà¤Ī":5749,"à¤ªà¤¤à¤²":5750,"1795":5751,"Ġà¤ļà¤ķà¤®":5752,"Ġxviii":5753,"Ġ253":5754,"Ġà¤¬à¤ľà¤¨":5755,"à¤·à¤µ":5756,"Ġas":5757,"1817":5758,"Ġ273":5759,"Ġ1645":5760,"à¤ĳà¤¬":5761,"Ġà¤ĳà¤°à¤µ":5762,"%à¥¤":5763,"ber":5764,"Ġ1742":5765,"ĠÑĤÐ¾":5766,"à¥¤<":5767,"Ġà¤¤à¤°à¤²à¤¤":5768,"001":5769,"Ġà¤ĵà¤ķà¤µ":5770,"à¤īà¤²à¤°":5771,"Ġà¤ļà¤®à¤ķà¤¨":5772,"Ġ1590":5773,"Ġ257":5774,"Ġ1603":5775,"à¤ıà¤ķà¤°":5776,"ÑĩÐ°":5777,"ta":5778,"Ġ425":5779,"Ġ540":5780,"Ġ950":5781,"Ġà¤ıà¤µà¤¨":5782,"Ñĭ":5783,"à¤ĩà¤§à¤°":5784,"ate":5785,"Ġ520":5786,"à¤¨à¤ĳà¤«":5787,"à¤¾à¥¤\"à¥¤":5788,"'\"":5789,"Ġ261":5790,"à¤ĩà¤ªà¤°à¤¬":5791,"Ġà¤īà¤Īà¤ĺ":5792,"1805":5793,"Ġ314":5794,"Ġ1713":5795,"Ġ1722":5796,"jjjj":5797,"à¤°à¤¸à¤¤":5798,"126":5799,"à¤Łà¤¨à¤¸":5800,"à¥Īà¤Ĥ\"à¥¤":5801,"à¤Īà¤Ĩà¤Īà¤Ĩà¤Ī":5802,"à¤ıà¤ļà¤ıà¤²":5803,"Ġà¤®à¤¹à¤¦":5804,"Ġ278":5805,"134":5806,"à¥Ī\";":5807,"Ġà¤ĩà¤¹":5808,"à¤°à¤¹à¤£à¤¶":5809,"------------------------------------------------------------------------------------------------------------------------------------------------------------------------------------------------":5810,"Ġà¤²à¤¥à¤ªà¤¥":5811,"Ġxvi":5812,"Ġ1751":5813,"Ġ1749":5814,"à¤¨à¤ĵà¤µà¤°":5815,"Ġ(*":5816,"à¤¨à¤¸à¤®":5817,"our":5818,"225":5819,"à¤ħà¤ł":5820,"Ġ307":5821,"Ġ1649":5822,"1807":5823,"Ġà¤ĵà¤ªà¤¸":5824,"Ġà¤ķà¤¹à¤²":5825,".'":5826,"à¤ĩà¤ĵ":5827,"Ġ1570":5828,"à¤ıà¤ıà¤®":5829,"205":5830,"à¤¦à¤°à¤¨":5831,"Ġà¤Ĭà¤Ł":5832,"Ġex":5833,"ge":5834,"qu":5835,"ĠÃİ":5836,"à¤¥à¤¸à¤¨":5837,"230":5838,"Ġ2026":5839,"à¤Ĩà¤Īà¤ķ":5840,"Ġ1560":5841,"Ġ271":5842,"Ġà¤ĵà¤°à¤®":5843,"Ġà¤ıà¤ļà¤ķ":5844,"155":5845,"Ġà¤ĳà¤µà¤°":5846,"à¤¹à¤°à¤ķ":5847,"Ġ1734":5848,"Ġà¤īà¤«":5849,"Ġà¤ħà¤¸à¤¤":5850,"1802":5851,"Ġà¤ħà¤ľà¤®":5852,"Ġà¤ĵà¤¸à¤®":5853,"à¤ħà¤²à¤¬":5854,"Ġhe":5855,"à¤ĺà¤²à¤¤":5856,"Ġà¤ĵà¤Ĺà¤²":5857,"à¤¨à¤ķà¤¨":5858,"133":5859,"à¤°à¤µà¤¤":5860,"à¤§à¤Ĺà¤®":5861,"1811":5862,"ess":5863,"à¤°à¤ıà¤µà¤°":5864,"à¤¬à¤¨à¤°":5865,"129":5866,"%-":5867,"à¤ĩà¤ķà¤¨":5868,"Ġà¤¸à¤ļà¤®":5869,"à¤¿à¥¤\"":5870,"Ġ(,,":5871,"Ġà¤ħà¤¨à¤¬":5872,"Ġà¤®à¤łà¤µ":5873,"Ġà¤Ĩà¤īà¤Łà¤¬":5874,"Ġ1717":5875,"ok":5876,"Ġ1714":5877,"à¥Ī/":5878,"Ð»Ð°":5879,"à¤¯à¤°à¤¬à¤°":5880,"1600":5881,"Ġà¤ĵà¤°à¤Ł":5882,"1798":5883,"Ġ319":5884,"à¤Łà¤¯":5885,"à¤¯à¤¸à¤²":5886,"235":5887,"à¤ıà¤®à¤ıà¤®":5888,"à¤¸à¤¯":5889,"à¤¬à¤Łà¤²à¤°":5890,"Ġà¤īà¤ªà¤µà¤°":5891,"Ġ1708":5892,"à¤µà¤£":5893,"152":5894,"à¤¸à¤Ĺà¤¢":5895,"à¤Ĩà¤°à¤ľ":5896,"à¤§à¤¨à¤µ":5897,"Ġà¤¸à¤¬à¤²":5898,"à¥Ģ.;":5899,"Ġ288":5900,"à¥Ĥà¤Ĥ\"":5901,"à¤¨à¤Łà¤°":5902,"167":5903,"à¤ĩà¤ı":5904,"Ġ1702":5905,"à¥¤..\"":5906,"Ġà¤¤à¤¬à¤°":5907,"à¤Ĩà¤¯à¤¤":5908,"à¤ķà¤°à¤¸à¤¨":5909,"!'":5910,"Ġ268":5911,"à¤ľà¤Ī":5912,"Ġà¤°à¤ĺ":5913,"à¤¼à¥Ģ\",":5914,"Ġ680":5915,"à¤¦à¤°à¤®":5916,"Ġ1744":5917,"Ġà¤ıà¤¶à¤µ":5918,"Ġà¤īà¤¶":5919,"Ġ267":5920,"à¤ıà¤¯":5921,"à¤ĵà¤ĵà¤ĵà¤ĵà¤ĵà¤ĵà¤ĵà¤ĵà¤ĵà¤ĵà¤ĵà¤ĵà¤ĵà¤ĵà¤ĵà¤ĵ":5922,"Ġ345":5923,"Ġà¤ıà¤«à¤¡à¤¬":5924,"260":5925,"Ġ286":5926,"ps":5927,"</...>":5928,"Ġ277":5929,"Ġ323":5930,"à¤ļà¤Łà¤¨":5931,"%)à¥¤":5932,"Ġ324":5933,"1799":5934,"Ġà¤ħà¤µà¤¯à¤µ":5935,"à¤¸à¤ļà¤®":5936,"à¤®à¤ķà¤°":5937,"Ġ1735":5938,"Ġ263":5939,",'":5940,"à¤¬à¤ľà¤Ł":5941,"à¤Ĺà¤°à¤²":5942,"Ġà¤ıà¤®à¤¡":5943,"à¤«à¤¸à¤²":5944,"Ġ1725":5945,"Ġà¤®à¤¹à¤°":5946,"132":5947,">;":5948,"à¤µà¤°à¤¯":5949,"Ġ1739":5950,"131":5951,"Ġ1743":5952,"à¥ī-":5953,"Ġà¤°à¤¤à¤¨":5954,"280":5955,"à¤²à¤¡à¤²":5956,"Ġà¤¬à¤Łà¤°":5957,"à¤ľà¤ĺà¤°":5958,"à¤Ĺà¤°à¤¨":5959,"à¤¨à¤¹à¤¸":5960,"Ġ\"<":5961,"1794":5962,"à¤µà¤ľà¤µ":5963,"Ġà¤ĳà¤°à¤®":5964,"gk":5965,"à¤Ĩà¤µà¤°à¤£":5966,"Ġxiv":5967,"à¤¸à¤¹à¤ľ":5968,"me":5969,"Ġ();":5970,"à¤«à¤²à¤Ĺà¤°":5971,"à¤ıà¤Ī":5972,"144":5973,"ÑģÑģÑģÑģÑģÑģÑģÑģ":5974,"136":5975,"Ġ276":5976,"Ġsh":5977,"à¤¼à¥Ģ/":5978,"########":5979,"--------------------------------------------------------------------------------------------------------------------------------------------------------------------------------------------------------------------------------":5980,"Ġà¤®à¤¦à¤¨":5981,"Ġ1625":5982,"à¤¸à¤®à¤¤":5983,"Ġ\"à¥¤..":5984,"if":5985,"154":5986,"Ġviii":5987,"à¤Ĺà¤¨à¤²":5988,"Ġ1718":5989,"ĠBC":5990,"à¤¤à¤¸à¤°":5991,"Ġ[à¥¤..]":5992,"1793":5993,"137":5994,"à¤ĩà¤¨à¤¨":5995,"à¤¡à¤¶à¤°":5996,"à¤Łà¤¬à¤¸":5997,"Ġà¤¬à¤¬à¤²":5998,"à¤¨à¤µà¤¶":5999,"Ġ1666":6000,"Ġà¤Ńà¤°à¤£":6001,"Ġ1672":6002,"à¤Ĩà¤ĩà¤ķ":6003,"Ġ405":6004,"Ġà¤µà¤¤à¤¨":6005,"Ġnot":6006,"Ġà¤¤à¤¹à¤°":6007,"ĠØ§ÙĦ":6008,"Ġà¤ıà¤¬à¤°à¤¹":6009,"à¥Ī?'":6010,"Ġà¤¸à¤¬à¤®":6011,"Ġ1629":6012,"à¤¯à¤¨à¤°":6013,"Ġ331":6014,"ĠÏģ":6015,"Ġ266":6016,"à¤ķà¤¨à¤¹":6017,"1792":6018,"all":6019,"à¤¾]]":6020,"à¥ĩ\"-":6021,"Ġà¤¡à¤Łà¤¨":6022,"Ġà¤Ĩà¤¯à¤¶":6023,"Ġ395":6024,"à¥Ģ;\"":6025,"Ġ327":6026,"Ġ318":6027,"Ġà¤ĳà¤®":6028,"à¤¨à¤¤à¤°":6029,"Ġ1638":6030,"141":6031,"à¥Ī?âĢĿ":6032,"à¤Łà¤°à¤ľ":6033,"à¤¬à¤²à¤µ":6034,"Ġ1635":6035,"Ġà¤Ĩà¤Īà¤¬":6036,"Ġ1530":6037,"à¤¯à¤²à¤ķ":6038,"à¤¾à¤ģ!":6039,"Ġ1737":6040,"Ġ274":6041,"Ġor":6042,"à¤¼à¥ĩà¤Ĥ\"":6043,"Ġ1683":6044,"Ġà¤®à¤ķà¤¸":6045,"Ġ317":6046,"à¥Ĥ./":6047,"Ġà¤ĳà¤«à¤²":6048,")à¥¤\"":6049,"Ġà¤ıà¤²à¤¡":6050,"Ġ1679":6051,"à¤ĩà¤Łà¤ķà¤°":6052,"\");":6053,"à¤ıà¤¶à¤²":6054,"ÙĪ":6055,"Ġà¤¡à¤°à¤ª":6056,"end":6057,"Ġà¤ıà¤«à¤ı":6058,"Ġ630":6059,"à¤ķà¤°à¤²":6060,"Ġà¤¹à¤Łà¤¤":6061,"à¥ĩ,\"":6062,"165":6063,"Ġà¤ħà¤²à¤¡":6064,"Ġà¤ķà¤«à¤¨":6065,"Ġ302":6066,"ĠâĤ¹":6067,"à¤Łà¤²à¤¬":6068,"182":6069,"à¤Ĩà¤°à¤¡":6070,"à¤¨à¤¨à¤¬à¤°":6071,"à¥¤à¥¤\"à¥¤":6072,"à¤ĸà¤°à¤Ĺ":6073,"Ġà¤Łà¤¨à¤²":6074,"à¤ĩà¤ªà¤¸":6075,"Ġà¤ľà¤²à¤¸":6076,"Ġà¤ıà¤²à¤«":6077,"Ġ1621":6078,"à¤¾')":6079,"Ġ1724":6080,"Ġà¤°à¤¨à¤¸":6081,"à¤Ĩà¤Īà¤Ł":6082,"Ġà¤ħà¤¦à¤°":6083,"à¤¯à¤¨à¤¨":6084,"à¥Ģà¥¤.":6085,"à¤¸à¤ªà¤°":6086,"'-":6087,"à¤¬à¤¹à¤°":6088,"à¤ķà¤°à¤«":6089,"Ġ1733":6090,"Ø¯":6091,"Ġà¤Īà¤¡à¤¨":6092,"à¤Łà¤ķà¤Ł":6093,"à¤Ĩà¤Īà¤ıà¤²":6094,"Ġ1665":6095,"à¤ķà¤°à¤¸":6096,"Ġ(=":6097,"Ġà¤ıà¤Łà¤®":6098,"Ġà¤ıà¤Łà¤¨":6099,"Ġ1628":6100,"Ġal":6101,"Ġ1723":6102,"à¤¬à¤°à¤Łà¤¨":6103,"Ġ1704":6104,"Ġ269":6105,"à¤¤à¤ķà¤¥":6106,"à¥Ĥà¤Ĥ\",":6107,"Ġà¤ıà¤¯à¤°à¤¡":6108,"à¤¾,'":6109,"à¤¨à¤°à¤²":6110,"à¤°à¤ķà¤¨":6111,"Ġà¤ªà¤¨à¤ªà¤¤":6112,"à¤¡à¤°à¤«":6113,"Ġ283":6114,"Ġ1609":6115,"à¤ħà¤ªà¤µ":6116,"Ġ282":6117,"ĠG":6118,"ran":6119,"ÃĹ":6120,"à¤¸à¤Ĩà¤Ī":6121,"Ġ1692":6122,"à¥Ĥà¤ģ-":6123,"à¤Ĺà¤°à¤«":6124,"à¤°à¤®à¤ķ":6125,"Ġ1719":6126,"à¤¯à¤®à¤¶":6127,"à¤ĺà¤®à¤Łà¤¨":6128,"à¤¸à¤®à¤®":6129,"Ġà¤®à¤¦à¤°à¤µ":6130,"ĠÐµ":6131,"à¤¹à¤ļ":6132,"Ġ1664":6133,"à¥Īà¥¤\"(":6134,"Ġà¤īà¤°à¤ķ":6135,"Ġ1732":6136,"à¥Ģ|":6137,"Ġà¤¹à¤¥à¤ķà¤¡":6138,"Ġ1728":6139,"à¤¾à¥¤\"(":6140,"Ġà¤°à¤£":6141,"Ġà¤¸à¤¯":6142,"Ġà¤ĵà¤¥":6143,"Ġà¤¨à¤°à¤µ":6144,"à¤ıà¤¯à¤°à¤²":6145,"co":6146,"Ġ404":6147,"à¤¤à¤²à¤¬":6148,"3000":6149,"1796":6150,"875":6151,"Ġ1675":6152,"Ġ||":6153,"Ġà¤Ĩà¤¯à¤²":6154,"à¤·à¤ķà¤¹":6155,"ÑĩÐ¸":6156,"Ġ560":6157,"Ġà¤Łà¤¹à¤²à¤¨":6158,"Ġà¤ıà¤¶à¤«":6159,"156":6160,"Ġà¤¸à¤¹à¤ľà¤¤":6161,"à¥Ģ\")à¥¤":6162,"à¤Ńà¤ķà¤°":6163,"Ġ1659":6164,"Ġ1604":6165,"à¤ıà¤ıà¤¸":6166,"Ġ1654":6167,"188":6168,"Ġà¤¬à¤°à¤µ":6169,"Ġà¤¬à¤°à¤¤à¤¨":6170,"Ġà¤¦à¤²à¤®":6171,"à¤ıà¤¨à¤²":6172,"à¥Ī)\"":6173,"Ġ335":6174,"420":6175,"à¤¼à¤¾à¥¤\"":6176,"Ġà¤ļà¤²à¤ķà¤°":6177,"à¤ıà¤¨à¤¡à¤¬":6178,"Ġ355":6179,"dd":6180,"Ġ+)":6181,"à¤¡à¤ħà¤ª":6182,"à¤ĵà¤¤":6183,"Ġ1711":6184,"Ġ530":6185,"à¤¤à¤¯":6186,"Ġ''":6187,"Ġ1624":6188,"153":6189,"à¤¿]":6190,"à¤ķà¤Ĺà¤µà¤°":6191,"Ġ1622":6192,"à¤ľà¤¸à¤¨":6193,"Ġ1703":6194,"à¥Ĥ!":6195,"à¥Īà¤Ĥ'":6196,"à¤ķà¤ļà¤°":6197,"Ġ1646":6198,"Äĵ":6199,"à¤¸à¤ıà¤¸":6200,"143":6201,"Ġmi":6202,"Ġà¤¸à¤°à¤Ĺ":6203,"à¤ĩà¤Ŀ":6204,"à¤Ĭà¤¨":6205,"à¤¬à¤²à¤¸":6206,"à¤¬à¤ķà¤²":6207,"Ġà¤¸à¤®à¤¯à¤¬à¤¦":6208,"Ġ284":6209,"la":6210,"Ġà¤µà¤¨à¤ª":6211,"1797":6212,"333":6213,"à¤īà¤ªà¤¹":6214,"Î¹Îº":6215,"Ġà¤ıà¤¨à¤ıà¤ķ":6216,"à¥ĩ-\"":6217,"à¥įà¤ĥ":6218,"Ġà¤ıà¤ķà¤µ":6219,"Ġà¤¹à¤®à¤ľ":6220,"à¤¡à¤ĵà¤µà¤°":6221,"Ġ259":6222,"Ġà¤ĵà¤¦":6223,"Ġ1634":6224,"à¤īà¤¥à¤¶":6225,"à¤¼à¤¼à¤¼à¤¼à¤¼à¤¼à¤¼à¤¼":6226,"Ġ299":6227,"ry":6228,"])":6229,"res":6230,"à¤ªà¤®à¤¤":6231,"à¤Ĺà¤§":6232,"Ġ1738":6233,"Ġ1653":6234,"Ġ1697":6235,"à¤ĩà¤«à¤²à¤®":6236,"202":6237,"Ġ1721":6238,"Ġà¤ıà¤²à¤®à¤°":6239,"Ġà¤ıà¤ļà¤Ł":6240,"à¤¡à¤Ĺà¤¨":6241,"Ġ1716":6242,"Ġ7000":6243,"Ġ357":6244,"Ġ1705":6245,"Ġà¤ħà¤¨à¤ªà¤¢":6246,"Ġ1736":6247,"Ġ1663":6248,"Ġà¤ªà¤¥à¤ª":6249,"à¤ľà¤°à¤µ":6250,"à¤ľà¤Ĺà¤¹":6251,"à¤¼à¥ĩ.":6252,"Ġà¤ıà¤«à¤¬":6253,"à¤ķà¤¹à¤¤":6254,"Ġ279":6255,"Ġà¤Ĩà¤Ĺà¤°":6256,"Ġ1611":6257,"art":6258,"à¤¦à¤²à¤¦à¤²":6259,"1700":6260,"Ġ293":6261,"Ġ291":6262,"275":6263,"ËĲ":6264,"à¤«à¤¶":6265,"999":6266,"Ġà¤°à¤ĸà¤ķà¤°":6267,"à¤Łà¤Ńà¤ķ":6268,"à¤ħà¤ªà¤¶":6269,"à¤¼à¥Ģ;":6270,"à¤Ĩà¤Ĩà¤Ĩà¤Ĩ":6271,"à¤ļà¤ħà¤ª":6272,"à¥ĭà¤Ĥ;":6273,"Ġ1695":6274,"149":6275,"Ġ1520":6276,"Ġà¤¸à¤¨à¤¬à¤°":6277,"à¤¾;\"":6278,"à¥ĭ?\"":6279,"Ġà¤¬à¤¨à¤°":6280,"Ġ1651":6281,"Ġ326":6282,"à¤¨à¤¡à¤¨":6283,"à¤®à¤Ľ":6284,"Ġà¤ĵà¤µà¤°à¤¡à¤¬":6285,"Ġ1652":6286,"Ġ289":6287,"Ġxl":6288,"Ġ1709":6289,"1780":6290,"à¤¦à¤¸à¤µ":6291,"à¤¾à¥¤..]":6292,"à¤¼à¥Ģ.":6293,"Ġà¤ļà¤Łà¤°":6294,"à¤¶à¤¨à¤Ń":6295,"Ġà¤¤à¤²à¤¨":6296,"à¤¦à¤¨à¤¡":6297,"Ġà¤ĵà¤ªà¤²":6298,"Ġà¤Ĩà¤°à¤ľ":6299,"uk":6300,"Ġà¤Łà¤ļà¤¸":6301,"Ġà¤ľà¤®à¤¨":6302,"Ġ1667":6303,"Ġ231":6304,"Ð¼Ðµ":6305,"Ġà¤ıà¤ķà¤°à¤®":6306,"Ġ+\"":6307,"yy":6308,"Ġ1699":6309,"Ġ338":6310,"à¤°à¤ķà¤¤":6311,"pm":6312,"à¤ħà¤¸à¤¦":6313,"Ġ1712":6314,"Ġ1605":6315,"à¤ªà¤¨à¤°":6316,"1776":6317,"Ġà¤ľà¤Łà¤²":6318,"Ġà¤ħà¤ľà¤¨":6319,"Ġ403":6320,"à¥ĭà¥¤,":6321,"Ġ1731":6322,"Ġ^":6323,"151":6324,"232":6325,"à¥ĩ);":6326,"à¤¹à¤¸à¤ª":6327,"Ġ1080":6328,"à¥Ģà¤Ĥ'":6329,"Ġà¤µà¤°à¤¦":6330,"Ġ510":6331,"Ġà¤ıà¤¡à¤®à¤¸à¤¨":6332,"Ġ(,;":6333,"370":6334,"à¥ģ\")":6335,"à¤ķà¤¨à¤¥":6336,"à¤ĩà¤²à¤¬":6337,"Ġ351":6338,";;;;;;;;":6339,"340":6340,"ÑĩÐ¾":6341,"Ġà¤«à¤¤à¤¹":6342,"à¤²à¤°à¤¬":6343,"Ġ1655":6344,"à¥ģ),":6345,"Ġà¤ķà¤°à¤£":6346,"Ġà¤ķà¤Łà¤µ":6347,"Ġà¤ĩà¤ķà¤¤":6348,"à¤¼à¤¾\",":6349,"Ġ580":6350,"Ġà¤ĸà¤°à¤¬":6351,"Ġà¤ıà¤ļà¤ıà¤¸":6352,"Ġà¤ķà¤ªà¤²":6353,"aa":6354,"à¤¡à¤Łà¤¨":6355,"Ġà¤§à¤°à¤¨":6356,"à¤ĵà¤ķà¤¸":6357,"147":6358,"à¤ıà¤²à¤®":6359,"Ġwith":6360,"à¤µà¤¥":6361,"Ġ1658":6362,"...]":6363,"Ġ1250":6364,"à¥Ĥà¤ģ!\"":6365,"ĠÂ·":6366,"ek":6367,"à¤ģà¥¤\"":6368,"Ġ1656":6369,"à¤ĩà¤ªà¤°à¤Ł":6370,"à¤°à¤®à¤¯":6371,"à¤¤à¤¨à¤®":6372,"Ġ385":6373,"Ġà¤¸à¤°à¤¬":6374,"215":6375,"à¤Ĩà¤ľà¤ķà¤²":6376,"Ġà¤«à¤°à¤¹":6377,"Ġà¤°à¤®à¤ľ":6378,"Ġà¤ĵà¤µà¤°à¤¬":6379,"Ġà¤ľà¤ª":6380,"1788":6381,"206":6382,"Ġ1623":6383,"Ġ8000":6384,"]|":6385,"à¤ıà¤¬à¤²":6386,"Ġà¤ħà¤²à¤¬à¤°":6387,"Ġ1682":6388,"ĠE":6389,"1791":6390,"à¤ķà¤®à¤¸":6391,"Ġ1632":6392,"ard":6393,"à¤Ĥ\",":6394,"à¤¹à¤¨à¤¹":6395,"Ġ356":6396,"à¥Ģà¥¤\",":6397,"à¤¸à¤²à¤«":6398,"à¤Īà¤¨à¤²":6399,"à¤®à¤¨à¤¨":6400,"Ġ1607":6401,"Ġ1647":6402,"Ġà¤Īà¤ĵ":6403,"à¤±":6404,"Ġ1639":6405,"Ġà¤²à¤¬":6406,"à¥Ĥà¤Ĥ-":6407,"à¤¿\"à¥¤":6408,"Ġ1729":6409,"à¤ķà¤²à¤ķà¤°":6410,"Ġ1626":6411,"à¤¬à¤§":6412,"à¤§à¤®à¤ķ":6413,"Ġ1637":6414,"à¤²à¤Ĺà¤ĩà¤¨":6415,"Ġ1450":6416,"Ġ\";\"":6417,"Ġ415":6418,"à¤¤à¤¨à¤Ń":6419,"à¤ĵà¤®à¤°":6420,"à¤¬à¤°à¤ķà¤²":6421,"256":6422,"à¤«à¤¬à¤°":6423,"Ġ292":6424,"à¤ħà¤ĸà¤¬":6425,"Ġ296":6426,"Ġ1636":6427,"à¥ĭà¥¤..":6428,"Ġà¤®à¤«":6429,"à¤īà¤®à¤°":6430,"Ġà¤Ĩà¤°à¤ıà¤¨à¤ı":6431,"Ġà¤¤à¤¬à¤²":6432,"Ġà¤ĵà¤ªà¤¨à¤¹":6433,"Ġ332":6434,"Ġ1619":6435,"sic":6436,"à¤Ńà¤Ł":6437,"Ġ660":6438,"Ġxxiii":6439,"'),":6440,"Ġ412":6441,"Ġ306":6442,"Ġ1681":6443,"à¤¯à¤¡à¤Ĺ":6444,"bn":6445,"Ð¼Ð¾":6446,"Ġà¤ıà¤¸à¤ķ":6447,"Ġà¤Īà¤¦":6448,"si":6449,"Ġ1618":6450,"à¤®à¤°à¤¹":6451,"ÏģÎ¿":6452,"ÏĦÎ¿":6453,"Ġ1674":6454,"168":6455,"Ġà¤ªà¤°à¤ķ":6456,"Ġ1684":6457,"à¤°à¤ĸà¤°":6458,"à¤ıà¤²à¤¬":6459,"Ġà¤īà¤Ľà¤²à¤¤":6460,"203":6461,"à¤Ĩà¤ĩà¤µ":6462,"Ġ213":6463,"Ġ1673":6464,"Ġ610":6465,"Ġ1726":6466,"à¤īà¤Ĩ":6467,"Ġ1614":6468,"Ġ1633":6469,"à¤¾?âĢĿ":6470,"à¤¸à¤«à¤²":6471,"Ġà¤Īà¤ĵà¤¸":6472,"à¤Ĳà¤¶":6473,"à¤¿à¥¤,":6474,"Ġà¤ĩà¤°à¤®":6475,"à¤¡à¤¹à¤²":6476,"Ġ(Â£":6477,"à¤ıà¤¥à¤¨":6478,"à¤°à¤ªà¤ķ":6479,"xe":6480,"à¤¨à¤ĺ":6481,"Ġ1693":6482,"480":6483,"à¤®à¤¨à¤ķà¤°à¤£":6484,"ĊĠĊĠĊĠ":6485,"Ġà¤īà¤µ":6486,"à¤¾):":6487,"à¤®à¤ķà¤¬à¤°":6488,"à¥Ĥà¤ģà¥¤..":6489,"Ġà¤°à¤«à¤°":6490,"Ġ1612":6491,"Ġ1698":6492,"Ġà¤łà¤¹à¤°à¤¨":6493,"208":6494,"à¤īà¤¨à¤«":6495,"à¤¬à¤°à¤ľ":6496,"à¤īà¤ªà¤ĸ":6497,"à¤ıà¤¸à¤ıà¤«":6498,"Ġà¤ľà¤¬à¤²":6499,"Ġà¤²à¤µà¤°":6500,"à¤§à¤ªà¤°à¤ķ":6501,"Î¹ÏĤ":6502,"à¤¸à¤®à¤¯à¤°":6503,"Ġ1536":6504,"à¥Īà¥¤\"à¥¤":6505,"Ġ343":6506,"ine":6507,"à¤ħà¤¥":6508,"Ġ\"'":6509,"à¤¯à¤°à¤Ĺ":6510,"Ġà¤ıà¤¶à¤¬à¤°":6511,"à¤¼à¥ĭ-":6512,"rr":6513,"à¤¨à¤ĺà¤°":6514,"Ġà¤ıà¤¹à¤¤":6515,"Ġà¤ıà¤ļà¤µ":6516,"Ġà¤¤à¤°à¤£":6517,"365":6518,"ect":6519,"à¤¼à¥Ĥ,":6520,"Ġà¤ĵà¤ªà¤°":6521,"Ġ1686":6522,"Ġà¤«à¤Ĺ":6523,"Ġ341":6524,"viii":6525,"Ġ402":6526,"Ġ1678":6527,"1787":6528,"bb":6529,"139":6530,"up":6531,"Ġ1616":6532,"Ġ707":6533,"à¤¦à¤«à¤¨":6534,"à¤¬à¤ļà¤¤":6535,"à¤®à¤¨à¤®":6536,"à¤Ŀà¤ªà¤¨":6537,"Ġà¤ļà¤ªà¤²à¤¤":6538,"Ġ570":6539,"Ġcom":6540,"à¤¨à¤µà¤¸":6541,"à¤¬à¤°à¤¬":6542,"Ġà¤ľà¤²à¤ļà¤°":6543,"Ġà¤ħà¤¬à¤¨":6544,"à¤Ĥà¥¤\"":6545,"Ġ411":6546,"Ð¼Ð¸":6547,"à¤īà¤ªà¤¦":6548,"Ġà¤ıà¤®à¤ľ":6549,"146":6550,"Ġà¤ĩà¤ľà¤®":6551,"à¤¯à¤°à¤Ł":6552,"Ġfr":6553,"Ð¼Ð°":6554,"Ġ1613":6555,"à¤¡à¤°à¤¥à¤²":6556,"310":6557,"222":6558,"à¤ķà¤¬à¤¸à¤¨":6559,"ĠXIII":6560,"950":6561,"295":6562,"Ġiv":6563,"Ġà¤ĸà¤¸à¤ĸà¤¸":6564,"à¥Ģà¤Ĥà¥¤..":6565,"164":6566,"xi":6567,"million":6568,"Ġ298":6569,"1783":6570,"Ġ')":6571,"à¤¿à¥¤)":6572,"à¤ĩà¤¨à¤Ĺ":6573,"Ġ1706":6574,"Ġ1585":6575,"Ġ336":6576,"à¤¸à¤Ĩà¤°":6577,"Ġ1696":6578,"Ġà¤īà¤²à¤®":6579,"Ġà¤ıà¤¯à¤°à¤Ł":6580,"à¤ļà¤¥":6581,"Ġ504":6582,"Ġ1627":6583,"Ġ1606":6584,"à¤°à¤ĸà¤°à¤ĸ":6585,"Ġ354":6586,"Ġ1687":6587,"Ġà¤ĵà¤µà¤°à¤«":6588,"à¤®à¤¬à¤²":6589,"à¤ķà¤²à¤Łà¤¨":6590,"Ġà¤ķà¤²à¤µà¤°":6591,"à¥Īà¤Ĥ-\"":6592,"Ġ1676":6593,"Ġ1588":6594,"................................................................................................................................":6595,"à¤¸à¤¨à¤¬":6596,"Ġà¤Ĩà¤°à¤ıà¤¨":6597,"161":6598,"à¥Ĥà¤ģ?\"":6599,"Ġ1601":6600,"à¥Ī',":6601,"à¤ĸà¤ªà¤¤":6602,"Ġà¤¶à¤¶":6603,"Ġà¤ĵà¤Ĩà¤¹":6604,"à¤¦à¤®à¤¯":6605,"Ġii":6606,"à¥Ĥ;":6607,"Ġ1598":6608,"Ġ\"\")":6609,"à¥Īà¥¤)à¥¤":6610,"à¤°à¤¡à¤¸":6611,"à¤ĩà¤¨à¤¡":6612,"Ġ1572":6613,"264":6614,"Ġ352":6615,"142":6616,"à¥Ģ>":6617,"à¤ĩà¤Łà¤µà¤°":6618,"Ġà¤ħà¤°à¤ķ":6619,"à¤¯à¤¡à¤ķ":6620,"Ġà¤¡à¤¨à¤¸":6621,"Ġà¤ħà¤¨à¤®":6622,"Ġ297":6623,"Ġ421":6624,"à¤ıà¤®à¤Ĩà¤Ī":6625,"à¤ıà¤Łà¤²à¤¸":6626,"Ġ179":6627,"à¤®à¤¨à¤µ":6628,"1775":6629,"Ġà¤īà¤ıà¤ľ":6630,"Ġ1691":6631,"Ġà¤ħà¤¸à¤¬":6632,"à¤¬à¤®à¤µà¤°":6633,"à¥Ī):":6634,"ÄŁ":6635,"à¥Īà¥¤]\"":6636,"à¤ĩà¤ªà¤°à¤¸":6637,"325":6638,"à¥ĩ.:":6639,"157":6640,"Ġ441":6641,"Ġà¤ľà¤Ĺà¤¨":6642,"à¤Łà¤²à¤«":6643,"Ġà¤Ķà¤°à¤°":6644,"à¤¸à¤ĳà¤°":6645,"\"/>":6646,"à¥ĩà¤Ĥ);":6647,"à¤³":6648,"Â§":6649,"Ġà¤ıà¤¸à¤ıà¤ķ":6650,"à¤¡à¤«à¤°":6651,"Ġà¤ıà¤Łà¤°":6652,"à¤ļà¤²à¤¤":6653,"à¤ķà¤°à¤£à¤µ":6654,"Ġà¤ħà¤¨à¤µ":6655,"Ġ1694":6656,"Ġà¤¯à¤¨":6657,"Ġà¤ıà¤¸à¤¬":6658,"Ġ1615":6659,"à¤ıà¤ļà¤Ł":6660,"à¤ĩà¤¨à¤µà¤°":6661,"Ġ377":6662,"à¤Ĩà¤Īà¤¸":6663,"212":6664,"no":6665,"à¤ĩà¤ķà¤Ł":6666,"Ġ386":6667,"ity":6668,"à¤¨à¤¸à¤²":6669,"à¤īà¤¡à¤«":6670,"Ġà¤ıà¤°à¤¡":6671,"Ġà¤ĩà¤ĵà¤¸":6672,"------------------------------------------------------------------------------------------------------------------------------------------------------------------------------------------------------------------------------------------------":6673,"à¤²à¤Ĺà¤¨":6674,"Ġà¤ªà¤°à¤µà¤²à¤¯":6675,"177":6676,"Ġ777":6677,"à¤¥à¤Ł":6678,"Ġà¤ªà¤°à¤Ĺà¤¨":6679,"440":6680,"192":6681,"à¤Ĺà¤µà¤¤":6682,"à¤ıà¤Łà¤ķ":6683,"Ġà¤ĩà¤°à¤¬":6684,"Ġà¤ħà¤¨à¤«":6685,"Ġ620":6686,"à¤¼à¥ĭ\"":6687,"ÏĦÎ±":6688,"Ġ525":6689,"Ġà¤ĩà¤¨à¤Ł":6690,"à¤ªà¤¶à¤¨":6691,"à¤Ĩà¤°à¤µ":6692,"Ġà¤¬à¤¸à¤¬":6693,"ell":6694,"Ġà¤ıà¤®à¤Ĩà¤°":6695,"Ġà¤ħà¤ªà¤¹":6696,"the":6697,"à¤ĩà¤ªà¤°à¤ķ":6698,"à¤¼à¥Ģ'":6699,"Ġ342":6700,"Ġà¤ıà¤¶à¤®":6701,"ĠF":6702,"Ġà¤ħà¤®à¤¨":6703,"Ġ1669":6704,"Ġà¤ħà¤²à¤µà¤°":6705,"Ġ337":6706,"Ġ1602":6707,"à¤īà¤¸à¤®":6708,"Ġ1668":6709,"Ġ1657":6710,"à¤ķà¤¨à¤¬":6711,"158":6712,"166":6713,"ment":6714,"à¤Ĩà¤ĩà¤ľ":6715,"Ġ347":6716,"Ġ1608":6717,"à¥Ģ]]":6718,"à¤°à¤¶à¤°":6719,"Ġ1596":6720,"à¤ħà¤µà¤¤":6721,"Ġà¤¬à¤¦à¤°":6722,"Ġà¤¬à¤¦à¤¤à¤®":6723,",,,,,,,,,,,,,,,,,,,,,,,,,,,,,,,,":6724,"à¤¡à¤²à¤µ":6725,"Ġà¤°à¤ľà¤¨":6726,"à¤§à¤Ĺ":6727,"Ġ339":6728,"Ġ366":6729,"à¤¸à¤ıà¤®":6730,"...|...|":6731,"à¤°à¤¸à¤µà¤ª":6732,"Ġ329":6733,"ĠT":6734,"à¤¨à¤µà¤ľà¤¨":6735,"Ġà¤ĸà¤¸à¤°":6736,"159":6737,"à¤Ĥ/":6738,"Ġà¤ĵà¤µà¤°à¤ķ":6739,"à¤¹à¤°à¤¬":6740,"Ġ1584":6741,"Ġ1350":6742,"Ġà¤ıà¤°à¤ķ":6743,"Ġà¤°à¤ļà¤¤":6744,"à¤¬à¤²à¤¡":6745,"à¥ĩ./":6746,"pt":6747,"050":6748,"à¤°à¤Ĺà¤°":6749,"Ġà¤¸à¤«à¤°":6750,"est":6751,"Ġà¤ªà¤ķà¤¨":6752,"Ġ1677":6753,"303":6754,"à¤ªà¤Łà¤°":6755,"à¤ħà¤ľà¤¨à¤¬":6756,"ÎµÎ½":6757,"Ġà¤ıà¤®à¤²":6758,"à¥ĭà¤Ĥà¥¤\"":6759,"Ġ435":6760,"ba":6761,"204":6762,"à¤Ĩà¤ĩà¤¬":6763,"Ġ422":6764,"à¥Ģà¥¤-":6765,"Ġà¤¤à¤ľ":6766,"Ġà¤ħà¤¸à¤«à¤²à¤¤":6767,"à¥ĩà¤Ĥ):":6768,"Ġ1597":6769,"à¤ıà¤«à¤ıà¤¸":6770,"à¤ķà¤µà¤ļ":6771,"Ġà¤§à¤¨à¤µ":6772,"5000":6773,"ĠÐ°":6774,"à¤ıà¤«à¤ª":6775,"à¤ıà¤ĵ":6776,"Ġà¤µà¤¡":6777,"à¤ıà¤®à¤µ":6778,"\"à¥¤\"":6779,"Ġ1595":6780,"Ġ\"/":6781,"à¤ĩà¤ªà¤°à¤ª":6782,"Ġ1559":6783,".\".":6784,"Ġ1617":6785,"Ġà¤ĵà¤ĸ":6786,"à¤²à¤®à¤¸":6787,"à¤ħà¤µà¤ķ":6788,"à¤Ĺà¤ĸ":6789,"Ġ363":6790,"Ġpr":6791,"Ġà¤Ĩà¤¹à¤²":6792,"1200":6793,"à¤ıà¤¸à¤ıà¤ķ":6794,"à¤Ĩà¤īà¤Łà¤ª":6795,"Ġà¤ķà¤·":6796,"à¥Ĥà¤Ĥ;":6797,"Ġà¤ĳà¤ļ":6798,"Ġ416":6799,"à¤ıà¤¨à¤¡":6800,"Ġ406":6801,"},":6802,"ĠÎ½":6803,"à¤ļà¤ļ":6804,"à¥Ĥ.),":6805,"Ġà¤ħà¤¨à¤ķà¤¹":6806,"sp":6807,"à¤Ĩà¤ķà¤¸":6808,"Ġà¤ľà¤²à¤ªà¤ķ":6809,"Ġyou":6810,"à¤¨à¤°à¤¶":6811,"Ġ$)":6812,"Ġ344":6813,"à¤ĳà¤°à¤²":6814,"255":6815,"à¤Łà¤¨à¤²":6816,"Ġ334":6817,"Ġ1592":6818,"Ġ1631":6819,"290":6820,"à¤ķà¤°à¤£à¤ķà¤°":6821,"Ġ1565":6822,"%;":6823,"Ġ1571":6824,"211":6825,"Ġ490":6826,"Ġ601":6827,"Ġà¤Ĩà¤Īà¤¡à¤¬":6828,"ml":6829,"à¤¨à¤«à¤°à¤¤":6830,"tr":6831,"to":6832,"à¤ıà¤«à¤ıà¤ķ":6833,"Ġà¤Ĩà¤¶à¤¯":6834,"Ð³Ð¾":6835,"163":6836,"1770":6837,"501":6838,"à¤®à¤Łà¤¨":6839,"Ġ407":6840,"sq":6841,"à¤°à¤®à¤¶à¤ķ":6842,"Ġmhz":6843,"Ġ475":6844,"Ġ371":6845,"à¤ľà¤¯à¤¨à¤Ĺà¤°":6846,"Ġà¤ĵà¤¡à¤°":6847,"Ġà¤Ĩà¤¦à¤¤à¤¨":6848,"181":6849,"à¥Īà¤Ĥà¥¤à¥¤à¥¤":6850,".\",":6851,"à¤ĸà¤ķà¤¤":6852,"Ġà¤ıà¤¸à¤¡":6853,"\")-":6854,"à¤Łà¤ıà¤ķ":6855,"Ġà¤¹à¤°à¤¨":6856,"à¤¯à¤ªà¤°":6857,"ver":6858,"à¤µà¤¨à¤µà¤°":6859,"à¤°à¤Ŀ":6860,"à¤µà¤¨à¤°":6861,"cd":6862,"162":6863,"à¤¸à¤®à¤ķà¤ķ":6864,"Ġ2600":6865,"à¤ĵà¤°à¤²":6866,"à¤ĩà¤²à¤«":6867,"à¤Ĩà¤ĩà¤ı":6868,"Ġà¤ĳà¤ĩà¤²à¤°":6869,"à¤ĩà¤«à¤Ł":6870,"Ġà¤ıà¤¡à¤Ĺ":6871,"à¤¾à¤Ĥ),":6872,"Ê¼Ê¼Ê¼Ê¼Ê¼Ê¼Ê¼Ê¼Ê¼Ê¼Ê¼Ê¼Ê¼Ê¼Ê¼Ê¼":6873,"184":6874,"à¤¼à¥Ģà¤Ĥ":6875,"Ġ1547":6876,"Ġà¤¡à¤²à¤¹":6877,"2024":6878,"Ġ//":6879,"176":6880,"Ġ999":6881,"207":6882,"171":6883,"Ġ2050":6884,"à¤¥à¤²à¤µ":6885,"ĠÏĦÎ¿":6886,"à¤®à¤¨à¤ķ":6887,"Ġà¤¨à¤µà¤µ":6888,"wh":6889,"Ġà¤ıà¤¸à¤°":6890,"à¥ĭ\"),":6891,"390":6892,"Ġ353":6893,"!\"(":6894,"209":6895,"à¤ıà¤¨à¤ıà¤ķ":6896,"à¥ĩ\"),":6897,"à¤®à¤°à¤¡":6898,"à¤ļà¤®à¤ķà¤¤":6899,"à¤łà¤Ĺ":6900,"305":6901,"à¤Ĩà¤Īà¤¯":6902,"Ġ1586":6903,"à¥Īà¤Ĥà¤ĥ\"":6904,"Ġ1555":6905,"à¤Łà¤¨à¤¬":6906,"à¤®à¤¹à¤®":6907,"1750":6908,"238":6909,"à¤¯à¤°à¤¸à¤¨":6910,"174":6911,"214":6912,"à¤ıà¤ıà¤«":6913,"à¤¸à¤¹à¤ķ":6914,"470":6915,"Ġà¤ħà¤§à¤°":6916,"à¤¸à¤°à¤µ":6917,"Ġà¤¨à¤Ĺà¤£":6918,"Ġà¤¬à¤¸à¤ķ":6919,"à¤ķà¤²à¤«":6920,"Ġà¤ĵà¤µà¤°à¤ļà¤°":6921,"1785":6922,"Ġà¤ĵà¤µà¤°à¤¸":6923,"Ġ590":6924,"à¤ĵà¤Ŀ":6925,"301":6926,"Ġà¤ıà¤ĵà¤ıà¤²":6927,"265":6928,"Ġà¤ıà¤²à¤ıà¤ķ":6929,"à¤ıà¤ļà¤ķ":6930,"liter":6931,"Ġ1599":6932,"Ġ381":6933,"à¤ĵà¤¶à¤¨":6934,"Ġà¤ľà¤¨à¤¹":6935,"178":6936,"Ġ349":6937,"Ġà¤¤à¤«":6938,"à¤¬à¤¹à¤¸":6939,"Ġ364":6940,"à¤µà¤Ńà¤ķ":6941,"à¤Īà¤ĵà¤µà¤°":6942,"1784":6943,"Ġ451":6944,"à¤°à¤¡à¤¨":6945,"Î±Î»":6946,"à¤ļà¤°à¤µ":6947,"¥Ĩ":6948,"à¥Ĩ":6949,"Ġ1521":6950,"Ġ1539":6951,"?âĢĿ":6952,"ÑģÐµÑģÐµ":6953,"Ġà¤Ĩà¤Īà¤²":6954,"Ġà¤¦à¤°à¤Ĺ":6955,"Ġ384":6956,"Ġà¤ħà¤¹à¤¸":6957,"à¤Ĩà¤µà¤°":6958,"Ġ417":6959,"à¤ĩà¤µà¤µ":6960,"à¤Ĺà¤°à¤¹":6961,"à¤Ľà¤ķà¤°":6962,"Ġ1593":6963,"Ġà¤¸à¤¨à¤°":6964,"à¥¤à¥¤\"":6965,"for":6966,"221":6967,"à¤ıà¤ļà¤Ĩà¤°":6968,"Ġ346":6969,"à¤ĩà¤ķà¤®":6970,"à¤īà¤®à¤¨":6971,"183":6972,"à¤®à¤°à¤«":6973,"à¤°à¤ªà¤Ļ":6974,"Ġà¤¡à¤¨à¤¹à¤®":6975,"Ġà¤ħà¤¨à¤°":6976,"Ġ1671":6977,"Ġ378":6978,"Ġ1558":6979,"1778":6980,"Ġ1553":6981,"224":6982,"Ġ[]":6983,"Ġ625":6984,"Ġ505":6985,"Ġà¤®à¤²à¤ľà¤²":6986,"à¤¡à¤¥":6987,"Ġ367":6988,"Ġ'à¥¤":6989,"ÎŃ":6990,"à¤®à¤ļà¤°":6991,"Ġà¤Ĩà¤Īà¤¹":6992,"1772":6993,"Ã¶r":6994,"Ġà¤ĵà¤¤":6995,"Ġà¤ªà¤¹à¤°":6996,"à¤ļà¤°à¤°":6997,"169":6998,"}}":6999,"à¤°à¤¨à¤¦à¤®":7000,"186":7001,"à¥ī)":7002,"Ġ880":7003,"à¤ıà¤²à¤Ĩà¤°":7004,"Ġun":7005,"à¤ıà¤®à¤Ī":7006,"à¤ľà¤°à¤¬":7007,"à¤Łà¤°à¤¤":7008,"à¤·à¤ķà¤¤":7009,"430":7010,"Ġ..":7011,"ĠL":7012,"Ġà¤Ńà¤¸":7013,"Ġà¤ĩà¤µà¤¨":7014,"Ġà¤¡à¤µ":7015,"Ġà¤ķà¤Łà¤ĳà¤«":7016,"Ġ1589":7017,"242":7018,"Ġà¤µà¤Ł":7019,"ĠVI":7020,"à¤²à¤¨à¤¬":7021,"à¥Ī\")à¥¤":7022,"à¤īà¤¸à¤¸":7023,"Ġà¤ıà¤¬à¤Ł":7024,"à¤ľà¤¨à¤µ":7025,"189":7026,"à¤¸à¤®à¤¬à¤°":7027,"à¤ķà¤¨à¤®":7028,"Ġ1526":7029,"233":7030,"Ġsu":7031,"Ġ431":7032,"Ġ727":7033,"Ġà¤Ĺà¤ķ":7034,"!\"à¥¤":7035,"Ġ1578":7036,"Ġà¤ĩà¤µà¤°":7037,"Ġà¤¹à¤²à¤«à¤¨":7038,"1786":7039,"à¤ĩà¤¬à¤°à¤¸":7040,"Ġà¤¡à¤¹à¤²":7041,"ma":7042,"à¤¹à¤²à¤®":7043,"Ġ3500":7044,"à¤°à¤ľà¤®":7045,"Ġà¤ıà¤®à¤ıà¤ļà¤ľ":7046,"à¤Ĺà¤²à¤ķ":7047,"Ġ372":7048,"173":7049,"Ġà¤Ĩà¤ĩà¤¸à¤¬":7050,"à¥Ģà¥¤<":7051,"Ġ429":7052,"Ġ1542":7053,"à¤ĵà¤¬à¤°":7054,"à¤Ķà¤·à¤§":7055,"à¤ªà¤°à¤Łà¤¨":7056,"à¤¸à¤ķà¤¤":7057,"à¤²à¤¨à¤Ĺ":7058,"à¤¼à¥ĩ;":7059,"Ġà¤ıà¤µà¤²à¤¨":7060,"à¤°à¤¨à¤µ":7061,"172":7062,"à¤ĩà¤¡à¤«":7063,"405":7064,"à¤¾|":7065,"à¤°à¤®à¤¹":7066,"à¤¡à¤¨à¤¸":7067,"Ġà¤¨à¤¥":7068,"Ġà¤ıà¤ĵà¤¸":7069,"Ø¨":7070,"Ġà¤ıà¤°à¤¬":7071,"Ġpl":7072,"ant":7073,"321":7074,"Ġ960":7075,"Ġ670":7076,"à¤Ķà¤¸":7077,"rh":7078,"Ġthis":7079,"à¤ĩà¤¡à¤¶":7080,"Ġ361":7081,"à¤ĩà¤Łà¤ļ":7082,"Ġ1583":7083,"Ġ503":7084,"à¤ıà¤²à¤ıà¤¸":7085,"Ġ[...]":7086,"226":7087,"Ġ358":7088,"à¥Ģà¥¤),":7089,"à¤ªà¤°à¤Ĺà¤°":7090,"Ġà¤ıà¤«à¤ľ":7091,"à¥ĭ\"-":7092,"à¥Ī?\",":7093,"à¤¹à¤¹":7094,"Ġ1587":7095,"ga":7096,"à¤²à¤µà¤£":7097,"1763":7098,"245":7099,"à¤²à¤ļà¤Ł":7100,"410":7101,"à¥Īà¥¤-":7102,"Ġ427":7103,"Ġà¤ħà¤µà¤ļ":7104,"à¤ıà¤«à¤¡":7105,"680":7106,"à¤ħà¤²à¤®":7107,"Ġà¤¹à¤¥à¤Ĺ":7108,"Ġ555":7109,"Ġ455":7110,"Ġà¤¯à¤²":7111,"à¤ªà¤£à¤ķ":7112,"1774":7113,"XXXX":7114,"386":7115,"à¤ĩà¤ĸ":7116,"à¤¡à¤ħà¤²":7117,"960":7118,"à¤ıà¤¡à¤¨":7119,"à¤¬à¤²à¤Ł":7120,"à¤ħà¤£":7121,"Ġ1525":7122,"Ġ369":7123,"Ġà¤ĺà¤®à¤£":7124,"Ġ376":7125,"Ġ359":7126,"1760":7127,"Ġà¤ıà¤°à¤µ":7128,"à¤ĩà¤²à¤ª":7129,"à¤īà¤Ńà¤°à¤¤":7130,"à¤ĩà¤ĵà¤¨":7131,"Ġ1567":7132,"ĠD":7133,"Ġà¤ľà¤Ĺà¤¦":7134,"234":7135,"Ġ\"]":7136,"Ġà¥¤":7137,"à¥¤\")":7138,"Ġ1492":7139,"187":7140,"à¤¸à¤ļà¤µ":7141,"Ġà¤ľà¤¯à¤¹":7142,"Ġà¤ķà¤°à¤®":7143,"Ġ1568":7144,"à¤ķà¤Ľ":7145,"Ġà¤ĵà¤Łà¤°":7146,"à¤¸à¤°à¤Ĺ":7147,"1782":7148,"à¤·à¤¯à¤µà¤¸":7149,"227":7150,"à¤¯à¤²à¤¸":7151,"Ġ502":7152,"Ġ408":7153,"ĠÃ¶z":7154,"à¥¤..)":7155,"520":7156,"à¤¤à¤°à¤Ĺ":7157,"Ġ1594":7158,"Ġà¤ªà¤Łà¤²":7159,"à¤µà¤²à¤®":7160,"à¤¡à¤¸à¤²":7161,"Ġ1581":7162,"à¤¶à¤²à¤®":7163,"à¤Ĺà¤°à¤¬":7164,"à¤ĵà¤Ī":7165,"Ġà¤Ĩà¤¯à¤°à¤¶":7166,"Ġ787":7167,"à¤ĺà¤°à¤¤":7168,"ould":7169,"Ġà¤ıà¤¸à¤ı":7170,"ust":7171,"Ġà¤®à¤Łà¤¨":7172,"à¥ĩà¤Ĥà¥¤'":7173,"Ġ368":7174,"à¤°à¤ªà¤²":7175,"red":7176,"Ġà¤¡à¤ļà¤®":7177,"Ġà¤Ĩà¤Īà¤ĵ":7178,"Ġà¤®à¤¦à¤°à¤¬":7179,"Ġà¤ħà¤°à¤¸":7180,"à¤¸à¤¨à¤¨":7181,"Ġ1575":7182,"Ġà¤ıà¤Łà¤¸":7183,"////////":7184,"Ġ1591":7185,"à¤ĸà¤°à¤¤":7186,"ave":7187,"à¤ħà¤¸à¤¹à¤®à¤¤":7188,"?'":7189,"Ġà¤ĩà¤°à¤ķ":7190,"à¤ħà¤°à¤¸à¤¨":7191,"à¤ıà¤¨à¤¯":7192,"Ġà¤ĩà¤®à¤²":7193,"Ġad":7194,"1660":7195,"Ġ383":7196,"Ġà¤ıà¤¨à¤ª":7197,"Ġà¤ıà¤°à¤«à¤°":7198,"Ġà¤¸à¤¬à¤¡à¤ķ":7199,"1777":7200,"à¤Ĺà¤¨à¤¸":7201,"à¤ķà¤¹à¤°":7202,"________________":7203,"Ġ1535":7204,"à¤¸à¤¦à¤°":7205,"à¤µà¤Ĺà¤¤":7206,"à¤°à¤®à¤ª":7207,"Ã¼r":7208,"Ġà¤ıà¤¨à¤ļ":7209,"Ġ1566":7210,"à¤ķà¤Ĺà¤°":7211,"Ġ(;,":7212,"Ġà¤¹à¤Łà¤ķà¤°":7213,"Ġ465":7214,"ft":7215,"à¤¨à¤¨à¤¬":7216,"Ġà¤¬à¤ļà¤ķ":7217,"à¤¾à¤ģ),":7218,"Ġ394":7219,"286":7220,"Ġà¤ĳà¤¯à¤¸":7221,"à¤ªà¤¥à¤ª":7222,"Ġà¤¹à¤¬à¤²":7223,"Ġ373":7224,"Ġxix":7225,"Ġ*-":7226,"417":7227,"460":7228,"Ġ362":7229,"fr":7230,"Ġà¤ıà¤°à¤¹":7231,"Ġà¤Ĩà¤ĩà¤ª":7232,"à¤ĩà¤Łà¤¶":7233,"à¤Īà¤ķà¤°à¤£":7234,"313":7235,"Ġ730":7236,"à¤°à¤ľà¤¨":7237,"Ġ9000":7238,"Ġà¤ıà¤²à¤Īà¤¡":7239,"Ġat":7240,"ian":7241,"à¥¤;":7242,"Ġà¤¬à¤°à¤¹":7243,"à¤¨à¤®à¤¸":7244,"à¥Ģà¤Ĥ/":7245,"Ġ1554":7246,"à¥Ī'à¥¤":7247,"à¤ıà¤¸à¤ıà¤®":7248,"Ġpro":7249,"Ġ1538":7250,"Ġ1582":7251,"à¤Ĩà¤Īà¤°":7252,"Ġà¤¸à¤¨à¤¬":7253,"];":7254,"Ġà¤Łà¤Łà¤²":7255,",.":7256,"à¤ĭà¤·":7257,"be":7258,"à¤¾)-":7259,"à¤ıà¤¨à¤Ĺ":7260,")>":7261,"285":7262,"à¤ıà¤Ĺà¤°":7263,"1781":7264,"ĠXV":7265,"191":7266,"à¤¹à¤¶":7267,"Ġà¤¨à¤®à¤¸":7268,"à¥ĩà¤Ĥ)\"":7269,"à¤¡à¤¨à¤¹":7270,"Ġ2100":7271,"Ġà¤ıà¤ıà¤®à¤¡":7272,"Ġ315":7273,"à¤µà¤°à¤¶":7274,"à¤¸à¤¨à¤¸":7275,"ip":7276,"223":7277,"Ġà¤ľà¤¨à¤ķ":7278,"à¤¹à¤²à¤¬à¤°":7279,"à¤¯à¤¬à¤°":7280,"à¤«à¤°à¤¨":7281,"à¤¨à¤Łà¤®":7282,"Ġà¤Ķà¤«":7283,"Ġen":7284,"Ġà¤¡à¤¨à¤µ":7285,"à¤īà¤¡à¤¨":7286,"à¤¬à¤²à¤¬":7287,"à¤µà¤²à¤ķ":7288,"Ġà¤¡à¤¨à¤®":7289,"Ġà¤ľà¤«à¤°":7290,"Ġà¤ĵà¤ī":7291,"Ġ399":7292,"640":7293,"Ä«":7294,"179":7295,"ÐļÐ¾":7296,"Ġ432":7297,"iz":7298,"à¥ĭà¤Ĥ),":7299,"à¤ªà¤²à¤ķ":7300,"Ġ388":7301,"Ġ1541":7302,"Ġà¤ĸà¤¬":7303,"'s":7304,"Ġà¤¥à¤¡":7305,"Ġà¤ıà¤¨à¤ıà¤¡":7306,"239":7307,"à¥Īà¥¤\",":7308,"Ġà¤«à¤²à¤ķ":7309,"Ġà¤ħà¤µà¤ķà¤²":7310,"à¤¸à¤¹à¤¨":7311,"Ġà¤ıà¤®à¤ıà¤¨":7312,"Ġ1563":7313,"à¤¹à¤°à¤®à¤¨":7314,"à¥Īà¤Ĥ/":7315,"Ġ1552":7316,"Ġà¤¸à¤®à¤Łà¤°":7317,"Ġà¤ħà¤²à¤¨":7318,"229":7319,"à¤°à¤¨à¤¸":7320,"à¤ħà¤ªà¤¹à¤°à¤£":7321,"247":7322,"Ġà¤ĳà¤ªà¤°à¤ķ":7323,"Ġà¤ıà¤µà¤°à¤Ĺ":7324,"ug":7325,"à¥¤/":7326,"à¤¾à¤ģ/":7327,"667":7328,"??":7329,"Ġà¤īà¤¥à¤®":7330,"à¤ĩà¤¡à¤°à¤®":7331,"266":7332,"à¤¡à¤¸à¤¬à¤°":7333,"à¤°à¤µà¤²":7334,"Ġ740":7335,"Ġ780":7336,"1779":7337,"268":7338,"à¤ķà¤ĵà¤µà¤°":7339,"Ġ414":7340,"âĤ":7341,"à¤ĸà¤¬à¤°":7342,"à¤¸à¤®à¤¤à¤²":7343,"à¤Ĺà¤¤à¤ķà¤°à¤£":7344,"002":7345,"Ġ1562":7346,"Ġ374":7347,"Ġà¤¸à¤Łà¤ķ":7348,"à¤ıà¤Ĩà¤°":7349,"à¤Ĺà¤°à¤ĸ":7350,"Ġ1545":7351,"à¤°à¤¸à¤°":7352,"Ġà¤¨à¤µà¤¶":7353,"ÏĢÎ¿":7354,"$$":7355,"540":7356,"à¤¯à¤¨à¤«":7357,"Ġ396":7358,"249":7359,"Ġà¤¡à¤¡":7360,"Ġse":7361,"à¤Īà¤¬à¤°":7362,"Ġà¤¨à¤µà¤īà¤¦":7363,"Ġ379":7364,"à¥Īà¤Ĥ]\"":7365,"228":7366,"ern":7367,"Ġxvii":7368,"Ġà¤Īà¤ıà¤«":7369,"à¤ķà¤¡à¤®":7370,"à¤¯à¤¸à¤Ń":7371,"à¤¾]\"":7372,"Ġà¤¬à¤ķà¤¨à¤°":7373,"Ġ382":7374,"Ġà¤Ĩà¤Īà¤Ĩà¤°":7375,"Ġ1569":7376,"Ġà¤¹à¤ª":7377,"à¤¬à¤°à¤Ł":7378,"à¥Īà¤Ĥ\")":7379,"à¤īà¤¨à¤¬":7380,"Ġà¤¸à¤®à¤°à¤ķ":7381,"ome":7382,"à¥ĩ)\"":7383,"à¤¸à¤¨à¤¬à¤°":7384,"Ġ770":7385,"int":7386,"à¤¸à¤Ī":7387,"Ġ1537":7388,"Ġà¤¨à¤¯à¤¨":7389,"Ġà¤¸à¤°à¤¨":7390,"à¤°à¤¹à¤¨":7391,"à¤ĳà¤¬à¤°":7392,"à¤¨à¤Łà¤ķ":7393,"à¤¨à¤ķà¤¦":7394,"ath":7395,"Ġà¤¹à¤¯à¤¶":7396,"à¥¤(":7397,"à¤²à¤¬à¤¨":7398,"à¤ħà¤ħà¤ħà¤ħ":7399,"Ġ509":7400,"Ġ413":7401,"Ġ1549":7402,"231":7403,"à¤²à¤§à¤¨":7404,"Ġà¤¡à¤¨à¤«à¤°":7405,"Ġme":7406,"à¤®à¤¨à¤Ĺà¤°":7407,"217":7408,"à¤Ńà¤°à¤£":7409,"à¤¸à¤¥":7410,"à¥ģ.":7411,"Ġà¤Ĩà¤Īà¤Ĩà¤°à¤ıà¤¸":7412,"à¤ķà¤¸à¤¡":7413,"à¤¾?'":7414,"à¤ľà¤°à¤¸":7415,"à¤Ĺà¤Ĺà¤¨":7416,"à¥ĭ-\"":7417,"ĠÑģÐµÑĤÐµ":7418,"Ġ294":7419,"Ġ486":7420,"302":7421,"Ġ485":7422,"/,":7423,"à¤°à¤Ĺà¤²":7424,"236":7425,"Ġ442":7426,"ĠÑĥ":7427,"Ġà¤ıà¤¨à¤¸à¤¨":7428,"237":7429,"ÎµÎ¹":7430,"à¤Ĭà¤·":7431,"ach":7432,"Ġà¤ľà¤¯à¤¸":7433,"!âĢĿ":7434,"à¤¬à¤Ĺà¤¦":7435,"Ġ433":7436,"à¤Ĺà¤¨à¤¬":7437,"à¤ĥà¥¤":7438,"à¥Ģ')":7439,"Ãĩ":7440,"Ġà¤ĵà¤µà¤°à¤Łà¤¨":7441,"à¤²à¤¹à¤Ł":7442,"Ġ1066":7443,"à¥¤:":7444,"Ġ445":7445,"Ġà¤Ĩà¤īà¤Łà¤Ł":7446,"Ġà¤Ŀà¤®":7447,"Ġ1460":7448,"560":7449,"1644":7450,"Ġà¤¶à¤µà¤ª":7451,"Ġ397":7452,"Ġ760":7453,"Ġ387":7454,"à¤ľà¤ļ":7455,"Ġ1561":7456,"241":7457,"Ġà¤¨à¤ľà¤¦":7458,"à¤ıà¤ķà¤µà¤ļà¤¨":7459,"à¤µà¤¨à¤µ":7460,"à¤²à¤ļà¤°":7461,"Ġ870":7462,"Ġà¤Ķà¤¬":7463,"216":7464,"Ġ1480":7465,"Ġ426":7466,"à¤Ĳà¤²":7467,"Ġà¤¬à¤ļà¤ķà¤°":7468,"à¤ıà¤¨à¤ıà¤®":7469,"Ġ444":7470,"Ġ535":7471,"Ġà¤®à¤¸à¤²":7472,"ÃĤÃĤÃĤÃĤÃĤÃĤÃĤÃĤÃĤÃĤÃĤÃĤÃĤÃĤÃĤÃĤÃĤÃĤÃĤÃĤÃĤÃĤÃĤÃĤÃĤÃĤÃĤÃĤÃĤÃĤÃĤÃĤÃĤÃĤÃĤÃĤÃĤÃĤÃĤÃĤÃĤÃĤÃĤÃĤÃĤÃĤÃĤÃĤÃĤÃĤÃĤÃĤÃĤÃĤÃĤÃĤÃĤÃĤÃĤÃĤÃĤÃĤÃĤÃĤ":7473,"à¤ıà¤¡à¤²":7474,"à¤Ĩà¤īà¤Łà¤²":7475,"à¤¯à¤®à¤ķ":7476,"Ġà¤ıà¤²à¤ıà¤¸":7477,"Ġ1576":7478,"Ġ666":7479,"Ġ1557":7480,"à¤°à¤ľà¤¤":7481,"à¤°à¤®à¤£à¤¶":7482,"Ġà¤¬à¤°à¤¬à¤°":7483,"Ġ409":7484,"Ġà¤ıà¤Ĺà¤®":7485,"à¤ķà¤°à¤µ":7486,"219":7487,"à¤¬à¤²à¤ª":7488,"à¤®à¤ķà¤¡":7489,"Ġà¤ıà¤Łà¤ľ":7490,"833":7491,"246":7492,"Ġà¤ªà¤°à¤¤à¤¦":7493,"ĠH":7494,"à¤¸à¤°à¤¦":7495,"Ġà¤¨à¤¨à¤°":7496,"Ġà¤ħà¤ªà¤Ń":7497,"ph":7498,"Ġà¤ħà¤¨à¤¹":7499,"à¤²à¤Łà¤°":7500,"à¤Ĩà¤ĺ":7501,"à¤°à¤ķà¤ª":7502,"Ġ1150":7503,"gr":7504,"Ġà¤Ńà¤°à¤ķà¤°":7505,"278":7506,"Ġ476":7507,"335":7508,"Ġà¤Ĩà¤µà¤ķ":7509,"244":7510,").":7511,"à¤īà¤ªà¤¶":7512,"Ġà¤Ľà¤ķ":7513,"Ġ458":7514,"Ġ389":7515,"Ġà¤¤à¤¶":7516,"ĠID":7517,"à¤¼\"à¥¤":7518,"à¤ħà¤²à¤¸":7519,"à¥Ģ.'":7520,"à¤¼à¥ĩà¤ĥ":7521,"à¤Ĳà¤ķ":7522,"à¤¨à¤µà¤¨":7523,"425":7524,"à¤ªà¤°à¤®à¤°":7525,"Ġà¤Łà¤Ĺà¤¬":7526,"304":7527,"262":7528,"à¥Ģ.\".":7529,"Ġvol":7530,"à¥Ģà¤Ĥ!\"":7531,"218":7532,"à¤¡à¤ĩà¤¯à¤°":7533,"à¤¡à¤ĳà¤«":7534,"Ġ1573":7535,"Ġà¤ħà¤µà¤¨":7536,"Ġ2027":7537,"ÎµÏģ":7538,"à¤®à¤¨à¤²":7539,"à¤¯à¤Łà¤®":7540,"406":7541,"à¤¸à¤°à¤®":7542,"Ġà¤ķà¤¨à¤ķ":7543,"Ġà¤Ĩà¤°à¤ıà¤ķ":7544,"Ġ1564":7545,"ms":7546,"à¥Īà¤Ĥ--":7547,"Ġ1577":7548,"395":7549,"à¤¥à¤°à¤²":7550,"1740":7551,"à¤ıà¤«à¤Ł":7552,"404":7553,"hu":7554,"à¤ĩà¤Łà¤²à¤°":7555,"bs":7556,"à¤ĩà¤Ĺà¤²":7557,"Ġ392":7558,"à¤ıà¤¨à¤ıà¤²":7559,"Ġ1574":7560,"à¤¬à¤¦à¤¸":7561,"à¥ĩ',":7562,"à¥Ģ)-":7563,"à¥Īà¥¤'\"":7564,"-à¥¤":7565,"495":7566,"Ġà¤ľà¤²à¤¯":7567,"Ġ428":7568,"Ġ391":7569,"Ġ1556":7570,"Ġ507":7571,"Ġ508":7572,"Ġ488":7573,"Ġ522":7574,"355":7575,"bc":7576,"ffffff":7577,"à¤Łà¤¨à¤ķ":7578,"Ġ1260":7579,"à¥Ī,'":7580,"Ġà¤ıà¤ļà¤ľ":7581,"Ġnm":7582,"à¤ĩà¤Ĩà¤¨":7583,"Ġ840":7584,"Ġ1579":7585,"Ġhis":7586,"bit":7587,"254":7588,"da":7589,"ear":7590,"Ġà¤ĩà¤®à¤¸":7591,"251":7592,"720":7593,"à¤¡à¤¨à¤ķà¤²":7594,"Ġ1534":7595,"à¤ĵà¤¡à¤°":7596,"à¤®à¤¨à¤¶":7597,"319":7598,"à¤ªà¤ľà¤¨à¤¤":7599,"Ġ=\"":7600,"à¤ľà¤°à¤ķ":7601,"Ġà¤ªà¤ķà¤¤":7602,"610":7603,"Ġso":7604,"à¤ıà¤®à¤°":7605,"à¤īà¤Ń":7606,"à¥ĩ%":7607,"243":7608,"ĠÃİle":7609,"ong":7610,"à¥ĭ.,":7611,"Ġà¤ĳà¤¨à¤¬":7612,"Ġà¤µà¤¨à¤¡":7613,"Ġà¤®à¤ľà¤²":7614,"Ġco":7615,"ies":7616,"à¤²à¤¸à¤°":7617,"Ġ419":7618,"à¤ħà¤ªà¤ķ":7619,"Ġ437":7620,"Ġ1515":7621,"à¥į\"":7622,"à¤¯à¤¨à¤Ĺ":7623,"à¤¢à¤²":7624,"Ġ710":7625,"Ġ1544":7626,"Ġ1440":7627,"pr":7628,"Ġà¤ķà¤¨à¤¸":7629,"à¤ľà¤ªà¤ķ":7630,"ther":7631,"Î¯Î±":7632,"880":7633,"à¤¸à¤¤à¤¤":7634,"Ġà¤¹à¤ľà¤¡":7635,"307":7636,"276":7637,"à¤¡à¤¸à¤®":7638,"à¤ıà¤«à¤ıà¤«":7639,"à¤¬à¤¦à¤®":7640,"à¤¥à¤°à¤¹à¤®":7641,"660":7642,"à¥Ĥ]":7643,"à¤¡à¤°à¤ľ":7644,"à¤Łà¤°à¤¥":7645,"Ġ393":7646,"Ġ495":7647,"Ġà¤Ńà¤°à¤®":7648,"401":7649,"à¥Ģà¥¤\"\"":7650,"ĠÃ³":7651,"Ġà¤®à¤²à¤®":7652,"Ġ434":7653,"Ġ1524":7654,"Ġ423":7655,")]":7656,"à¤Ĥ),":7657,"à¤ıà¤°à¤²":7658,"ĠMa":7659,"à¤·à¤¡":7660,"Ġà¤ķà¤µà¤¨":7661,"à¤¹à¤¨à¤²":7662,"à¤ıà¤µà¤²":7663,"ĠÂ¥":7664,"Ġà¤Īà¤«":7665,"ha":7666,"à¤ĺà¤¨à¤¤":7667,"à¤ıà¤«à¤ķ":7668,"à¥Īà¤Ĥ?âĢĿ":7669,"630":7670,"à¤®à¤¹à¤°":7671,"Ġà¤¡à¤ķà¤µà¤°":7672,"Ġ990":7673,"à¤¯à¤¨à¤¹":7674,"530":7675,"Ä°":7676,"à¤īà¤Łà¤¨":7677,"à¤¿à¥¤)à¥¤":7678,"ort":7679,"à¥ĩ\";":7680,"Ġà¤Ĩà¤¯à¤°à¤¨à¤®":7681,"Ġà¤ĵà¤°à¤¸":7682,"Ġ1529":7683,"à¤ľà¤¯à¤µ":7684,"à¤Ĺà¤¸à¤®":7685,"à¥ĩà¤Ĥ]\"":7686,"Ġ1490":7687,"ue":7688,"Ġà¤ľà¤łà¤°":7689,"à¤¬à¤ľà¤°":7690,"287":7691,"io":7692,"à¤ıà¤¨à¤¨":7693,"Ġà¤¦à¤¶":7694,"Ġ690":7695,"à¤Łà¤ķà¤¤":7696,"à¤Īà¤¯à¤°":7697,"Ġà¤ıà¤Łà¤ļ":7698,"à¤®à¤Ĺà¤°à¤®à¤ļ":7699,"Ġà¤ĵà¤Łà¤²":7700,"à¤ıà¤²à¤Ĺ":7701,"Ġ418":7702,"Ġ506":7703,"à¤Ĩà¤Īà¤ıà¤¸à¤ĵ":7704,"à¤Łà¤Ń":7705,"à¤·à¤£à¤¹":7706,"Ġà¤Ĩà¤īà¤Łà¤ķ":7707,"Ġà¤Ĳà¤¶à¤«":7708,"Ġà¤¸à¤®à¤¦":7709,"à¤¸à¤ıà¤¯à¤°":7710,"Î»Î¿":7711,"à¤¸à¤ı":7712,"à¤ªà¤ļà¤ķ":7713,"à¤ħà¤µà¤¸à¤°":7714,"à¤ľà¤¹à¤°":7715,"à¤¬à¤¶à¤°":7716,"à¤¡à¤¨à¤¬":7717,"à¤ıà¤¡à¤Ĺà¤°":7718,"à¤ļà¤®à¤ķà¤¦":7719,"à¤¾%":7720,"Ġà¤Ĳà¤ľ":7721,"308":7722,"Ġà¤¨à¤µà¤°":7723,"Ġà¤Ĺà¤¨à¤¸":7724,"à¤°à¤¤à¤ª":7725,"à¤°à¤²à¤°":7726,"à¤Ĩà¤²à¤¸":7727,"à¤ĩà¤ªà¤°à¤®":7728,"Ġà¤¬à¤Łà¤°à¤µà¤°":7729,"Ġà¤°à¤®à¤£":7730,"à¤®à¤ķà¤Ī":7731,".----":7732,"à¤ıà¤¡à¤ľ":7733,"Ġà¤ıà¤ķà¤¦":7734,"à¤¤à¤°à¤µ":7735,"Ġ1543":7736,"580":7737,"à¤¯à¤Ĺà¤¨":7738,"312":7739,"Ġ\"\"à¥¤":7740,"248":7741,"Ġ{\"":7742,"Ġfrom":7743,"438":7744,"Ġà¤ıà¤¯à¤°à¤¸":7745,"ish":7746,"Ġà¤ķà¤ªà¤Ł":7747,"à¤ªà¤°à¤ķà¤ª":7748,"Ġà¤µà¤Ĺ":7749,"Ġ820":7750,"à¤Īà¤¡à¤°":7751,"1773":7752,"Ġ860":7753,"Ġà¤ĩà¤¦à¤²":7754,"à¤ĳà¤¯à¤²":7755,"Ġà¤ıà¤²à¤ĸ":7756,"Ġà¤ĳà¤Ĺà¤°":7757,"345":7758,"à¥Īà¤Ĥ?'":7759,"ÑĢÑĥ":7760,"Ġ611":7761,"1768":7762,"out":7763,"à¥Ģ--":7764,"ure":7765,"';":7766,"Ġ438":7767,"Ġ575":7768,"à¤Ĩà¤ªà¤¸":7769,"Ġ436":7770,"à¥Ģà¥¤)à¥¤":7771,"à¤°à¤ķà¤®":7772,"à¤ħà¤¹à¤²":7773,"à¤¹à¤¨à¤¨":7774,"à¤²à¤¸à¤®":7775,"Ġ{\\":7776,"Ġà¤īà¤ªà¤¸à¤¤à¤¹":7777,"Ġ(')":7778,"Ġà¤¸à¤¨à¤«":7779,"Ġ701":7780,"ind":7781,"Ġ1510":7782,"Ġ527":7783,"Ġ1470":7784,"Ġ1527":7785,"Ġ1528":7786,"Ġà¤ķà¤Łà¤²":7787,"512":7788,"à¤ĩà¤·":7789,"ĠĠĠĠĠĠĠĠ":7790,"à¤¸à¤¨à¤¶":7791,"525":7792,"Ġà¤ħà¤¨à¤Ł":7793,"à¤ĩà¤ļà¤Ł":7794,"Ġ1551":7795,"à¤®à¤ľà¤¦":7796,"à¥Ģ.);":7797,"Ġà¤¡à¤Ĺà¤¨":7798,"à¤¹à¤®à¤¸":7799,"Ġà¤«à¤¤à¤µ":7800,"323":7801,"à¤®à¤Ĺà¤¢":7802,"à¤¸à¤²à¤¤":7803,"Ġà¤ķà¤®à¤°à¤¬":7804,"Ġ767":7805,"510":7806,"à¤¿,\"":7807,"Ġbce":7808,"ĠK":7809,"Ġà¤¸à¤®à¤°à¤²":7810,"Ġ930":7811,"Ġ2400":7812,"à¤īà¤¥à¤Ĺ":7813,"ĠUT":7814,"Ġ456":7815,"Ġà¤īà¤¹à¤²":7816,"Ġà¤ĩà¤¦à¤°":7817,"Ġà¤ħà¤°à¤²":7818,"Ġ1050":7819,"490":7820,"à¤¥à¤Łà¤¬":7821,"à¤¿)à¥¤)":7822,"à¥ĩ--":7823,"à¤īà¤ł":7824,"Ġ605":7825,"Ð½Ð³":7826,"Ġà¤ıà¤«à¤ª":7827,"Ġà¤°à¤¨à¤ķ":7828,"à¤²à¤¨à¤Ł":7829,"Ġ2200":7830,"Ġ515":7831,"Ġ1230":7832,"Ġ980":7833,"ĠÑĤÐ°":7834,"à¤ıà¤Łà¤¸":7835,"à¤īà¤¬à¤°":7836,"253":7837,"à¤ľà¤¬à¤¡":7838,"à¥ĩà¤Ĥà¥¤âĢĿ":7839,"âĢ¡":7840,"Ġ398":7841,"263":7842,"Ġare":7843,"XXX":7844,"272":7845,"à¥Īà¤Ĥà¥¤..\"":7846,"Ġà¤Łà¤ª":7847,"à¤ķà¤²à¤¸":7848,"Ġ511":7849,"ord":7850,"336":7851,"Ġà¤¬à¤ķà¤®":7852,"Ġ830":7853,"à¤ļà¤®à¤¡":7854,"570":7855,"ive":7856,"aw":7857,"à¥Īà¤Ĥà¥¤<":7858,"267":7859,"à¤Ĺà¤ľà¤¨à¤¨":7860,"à¤¬à¤¤à¤ĸ":7861,"::::":7862,"Ġà¤²à¤µà¤ķ":7863,"à¤¨à¤Ĩà¤īà¤Ł":7864,"à¤¦à¤¯à¤¤":7865,"1769":7866,"à¤ħà¤Ńà¤¯":7867,"Ġhad":7868,"Ġ1420":7869,"760":7870,"Ġà¤ĩà¤¸à¤°":7871,"Ġ454":7872,"Ġà¤ıà¤®à¤ıà¤¸à¤¸":7873,"à¤Īà¤ıà¤¸à¤ª":7874,"Ġ604":7875,"Ø³":7876,"Ġà¤ıà¤¡à¤²à¤¬à¤°":7877,"Ġà¤¨à¤ĸ":7878,"à¤µà¤¥à¤¨":7879,"Ġ1280":7880,"ade":7881,"met":7882,"Ð´":7883,"à¤¸à¤°à¤¤":7884,"Ġ424":7885,"485":7886,"à¤ħà¤µà¤°à¤ķ":7887,"Ġ1517":7888,"277":7889,"475":7890,"à¤¥à¤°à¤¬":7891,"ale":7892,"à¤¤à¤¦à¤¨":7893,"Ġwe":7894,"710":7895,"Ġà¤¬à¤ķà¤¨":7896,"à¥ĩà¥¤-":7897,"283":7898,",,,":7899,"Ġ([":7900,"à¥ĩà¥¤<":7901,"Ġà¤ıà¤ĵà¤²":7902,"Ġà¤°à¤ª":7903,"Î¹Ïĥ":7904,"Ð´Ð°":7905,"590":7906,"à¤¿à¥¤..":7907,"Ġ443":7908,"à¤ĩà¤ªà¤°à¤²":7909,"411":7910,"Ġ1240":7911,"385":7912,"Ġà¤¨à¤ļ":7913,"Ġà¤ĵà¤¹à¤²":7914,"Ġà¤¤à¤°à¤ľ":7915,"à¤ıà¤²à¤Ł":7916,"Ġ1290":7917,"Ġ1340":7918,"à¤Łà¤°à¤ķà¤¨":7919,"à¤īà¤ªà¤µ":7920,"458":7921,"505":7922,"456":7923,"âĤ¬":7924,"à¤²à¤ħà¤ľ":7925,"Ġà¤Łà¤¨à¤ķ":7926,"à¤µà¤²à¤¨":7927,"213":7928,"dr":7929,"à¤¿\"|":7930,"Ġà¤ľà¤ķà¤¡":7931,"à¥įà¥¤":7932,"Ġà¤ħà¤¨à¤Łà¤°":7933,"à¤ıà¤®à¤Ĩà¤°":7934,"Ġ1548":7935,"284":7936,"344":7937,"Ġ462":7938,"Ġà¤«à¤°à¤ķ":7939,"à¥Ģà¥¤à¥¤à¥¤":7940,"à¤¸à¤°à¤ª":7941,"Ġ(_":7942,"Ġà¤²à¤¶":7943,"à¤¤à¤°à¤®":7944,"292":7945,"Ġà¤¡à¤¹":7946,"Ġà¤ªà¤¨à¤ªà¤¨":7947,"Ġà¤ķà¤¸à¤°à¤¤":7948,"Ġà¤¨à¤Łà¤°":7949,"à¥Īà¥¤),":7950,"à¤¨à¤ķà¤¸":7951,"269":7952,"010":7953,"à¤·à¤£à¤ķ":7954,"à¤ıà¤ļà¤ıà¤®à¤ıà¤¸":7955,"616":7956,"à¤®à¤¸à¤²":7957,"1765":7958,"273":7959,"Ġ457":7960,"259":7961,"Ġà¤ıà¤¦":7962,"258":7963,"à¤ıà¤¬à¤°à¤¡":7964,"à¥įà¤Ĥ":7965,"306":7966,"à¤«à¤²à¤¸":7967,"à¤¯à¤¨à¤Ł":7968,"Ġà¤ľà¤¯à¤°":7969,"à¥Ģà¤Ĥ\"à¥¤":7970,"à¤ıà¤¨à¤ıà¤¨à¤ıà¤¨à¤ıà¤¨à¤ıà¤¨à¤ıà¤¨à¤ıà¤¨à¤ıà¤¨":7971,"à¤¥à¤®à¤¸":7972,"Ġ810":7973,"ki":7974,"]],":7975,"jjjjjjjj":7976,"bl":7977,"à¤ĳà¤ķà¤²":7978,"à¤¼à¥Ģ),":7979,"Ġ1546":7980,"à¤°à¤¬à¤¸":7981,"252":7982,"780":7983,"à¤ĵà¤ĺ":7984,"Ġ940":7985,"337":7986,"à¤«à¤°à¤¸":7987,"Ġà¤¨à¤Łà¤ķ":7988,"281":7989,"384":7990,"à¤¬à¤®à¤¬":7991,"1764":7992,"Ġà¤ĩà¤ĵà¤°":7993,"354":7994,"Ġ615":7995,"Ġ1330":7996,"257":7997,"à¤®à¤Łà¤°":7998,"005":7999,"gl":8000,"274":8001,"Ġ1513":8002,"à¥Ĥà¤Ĥà¥¤..":8003,"à¥Ĥà¤ģà¥¤âĢĿ":8004,"à¤ķà¤¹à¤¨":8005,"fc":8006,"Ġam":8007,"à¤ıà¤¨à¤ıà¤«":8008,"Ġà¤ħà¤ĸà¤®":8009,"à¤ķà¤¶à¤¨":8010,"1648":8011,"357":8012,"à¤ķà¤¨à¤¬à¤°":8013,"Ġà¤ıà¤²à¤Ĩà¤°":8014,"à¤ķà¤¡à¤«":8015,"Ġà¤¸à¤¬à¤Ł":8016,"Ġ447":8017,"à¤¯à¤¸à¤ĵà¤µà¤°":8018,"Ġ499":8019,"271":8020,"376":8021,"Ġà¤ķà¤¨à¤µ":8022,"à¤¯à¤£à¤¨":8023,"ame":8024,"1650":8025,"Ġ(Ìĥ":8026,"Ġà¤ĵà¤²à¤®":8027,"1754":8028,"xd":8029,"Ġxxii":8030,"Ġ(?":8031,"Ġ1320":8032,"Ġà¤ıà¤¬à¤¸":8033,"Ġà¤ıà¤¸à¤®":8034,"à¤ªà¤²à¤µ":8035,"Ġà¤¤à¤¦":8036,"618":8037,"Ġ1533":8038,"ase":8039,"Ġà¤¡à¤Ĺà¤Ĩà¤īà¤Ł":8040,"1755":8041,"261":8042,"Ġau":8043,"à¤®à¤ļà¤Łà¤ķ":8044,"ass":8045,"xh":8046,"Ġ452":8047,"Ġà¤¶à¤®à¤¨à¤µ":8048,"Ġà¤®à¤¤à¤¸":8049,"à¤¨à¤®à¤°":8050,"à¥ĩà¤Ĥ>":8051,"Ġà¤ļà¤¸":8052,"ÐļÐ°":8053,"à¤ĩà¤¬à¤°à¤ª":8054,"583":8055,"à¤ķà¤¨à¤µ":8056,"296":8057,"486":8058,"à¤¡à¤«à¤ľ":8059,"279":8060,"288":8061,"Î»Î±":8062,"311":8063,"à¤ļà¤°à¤¨":8064,"à¥ĩà¥¤à¥¤à¥¤":8065,"à¤ıà¤ıà¤ı":8066,"à¤ĳà¤«à¤¸":8067,"322":8068,"Ġ576":8069,"1758":8070,"à¤ļà¤²à¤ķ":8071,"Ġà¤¨à¤Ĺà¤°à¤µ":8072,"à¤¼à¥Ģ\")":8073,"1762":8074,"ew":8075,"ØŃ":8076,"808":8077,"ens":8078,"à¤¸à¤¨à¤¹":8079,"Ġà¤¨à¤®à¤¨":8080,"465":8081,"à¤ķà¤°à¤¤":8082,"Ġà¤¤à¤ķà¤²":8083,"332":8084,"907":8085,"346":8086,"1771":8087,"à¥Ī\"-":8088,"Ġ348":8089,"à¤ķà¤°à¤ķ":8090,"à¥ĩà¤Ĥà¥¤,":8091,"Ġus":8092,"à¤¨à¤Ĺà¤¤":8093,"ang":8094,"Ġ565":8095,"Ġ801":8096,"Ġ478":8097,"620":8098,"Â®":8099,"à¤¡à¤¨à¤¬à¤°":8100,"à¤Łà¤Ĺà¤°":8101,"Ġ544":8102,"341":8103,"ve":8104,"003":8105,"à¤Ķà¤²":8106,"402":8107,"Ġmg":8108,"à¤®à¤¹à¤¦":8109,"455":8110,"297":8111,"Ġil":8112,"339":8113,"à¤ĩà¤ķà¤¸":8114,"à¥Ĥà¤Ĥà¤ĥ":8115,"à¤Ĩà¤Īà¤ĵà¤¸":8116,"ary":8117,"Ġà¤Ĳà¤¶à¤²":8118,"Ġ602":8119,"à¥Ī\"),":8120,"Ġ1532":8121,"1100":8122,"va":8123,"Ġ1523":8124,"à¥ĭà¥¤'":8125,"299":8126,"Ġ*,":8127,"nc":8128,"à¤īà¤§":8129,"Ġà¤ıà¤¡à¤¬":8130,"294":8131,"à¤ħà¤°à¤¨":8132,"à¤¾à¥¤|":8133,"Ġ514":8134,"à¤¦à¤ļ":8135,"Ġà¤ļà¤ķà¤¤":8136,"Ġ920":8137,"083":8138,"à¥Īà¤Ĥà¥¤.":8139,"à¤¸à¤°à¤¨":8140,"Ġà¤«à¤ĸà¤°":8141,"Ġà¤ıà¤ľà¤µ":8142,"408":8143,");\"":8144,"1730":8145,"à¤ıà¤Ĩà¤Ī":8146,"à¤¯à¤¨à¤¬à¤°":8147,"Ġà¤ķà¤°à¤µ":8148,"Ġà¤ıà¤¸à¤ıà¤ļ":8149,"Ġ675":8150,"315":8151,"ĠÃ¼r":8152,"Ġà¤ķà¤¸à¤¨":8153,"Ġà¤ļà¤ĸ":8154,"Ġà¤ıà¤¨à¤ĵà¤¸":8155,"Ġ1270":8156,"Ġca":8157,"Ġà¤ĩà¤¬à¤¸":8158,"Ġ464":8159,"Ġ603":8160,"Ġà¤®à¤®à¤«":8161,"Ġmc":8162,"Ġà¤Ĭà¤²":8163,"Ġ461":8164,"ĠÙħ":8165,"1745":8166,"Ġ513":8167,"Ġà¤®à¤ķà¤¤":8168,"Ġ528":8169,"Ġà¤ıà¤ļà¤¬":8170,"Ġà¤ķà¤Łà¤¸":8171,"Ġà¤¶à¤°à¤ľ":8172,"435":8173,"à¥ĩ,%":8174,"Ġ757":8175,"Ġà¤Ĩà¤¸à¤«":8176,"Ġ1522":8177,"980":8178,"1756":8179,"à¤ĺà¤¨à¤ķà¤°":8180,"%%%%":8181,"1759":8182,"à¤Ĩà¤Īà¤¨":8183,"338":8184,"Ġà¤ľà¤¯à¤µà¤°":8185,"à¥Īà¥¤[":8186,"Ġà¤ħà¤¯à¤²":8187,"1640":8188,"Ġ439":8189,"Ġ1430":8190,"444":8191,"Ġ463":8192,"ÏīÎ½":8193,"à¥ĭà¤Ĥ\")":8194,"à¤Ĩà¤°à¤¡à¤¬":8195,"ĠÑģÑĥ":8196,"Ġà¤¹à¤°à¤ª":8197,"Ġ970":8198,"Ġà¤¯à¤¤":8199,"à¤ĺà¤¤":8200,".)-":8201,"555":8202,"Ġà¤ķà¤ĸ":8203,"à¤°à¤¹à¤²":8204,"840":8205,":-":8206,"à¤ħà¤¸à¤«à¤²":8207,"à¤¶à¤¡":8208,"Ġà¤Īà¤ļ":8209,"Ġà¤¹à¤«à¤®":8210,"oug":8211,"Ġ1220":8212,"1767":8213,"à¤¤à¤¹à¤ĸ":8214,"à¤ķà¤µà¤ķ":8215,"ÑģÑĥ":8216,"à¤ªà¤¹à¤²à¤µ":8217,"Ġ*/":8218,"364":8219,"Ġà¤ķà¤«à¤²":8220,"à¤ķà¤²à¤µ":8221,"328":8222,"Ġà¤¬à¤°à¤Ĺà¤¦":8223,"Ġtr":8224,"Ġà¤ĩà¤¯à¤°à¤ª":8225,"à¥ĩà¥¤\"\"":8226,"à¤¡à¤¡à¤¬":8227,"à¤¯à¤¨à¤¸à¤¨":8228,"575":8229,"à¥Į)":8230,"356":8231,"347":8232,"à¤¡à¤§":8233,"à¤Ĺà¤°à¤µ":8234,"Ġ10000":8235,"Ġ1519":8236,"à¥ģ;":8237,"Ġà¤ķà¤°à¤ľà¤Ī":8238,"à¤¶à¤¶":8239,"à¤°à¤¸à¤°à¤£":8240,"1757":8241,"Ġ448":8242,"à¤¾à¤ģ'":8243,"358":8244,"esk":8245,"Ġ529":8246,"Ġ1512":8247,"Ġ+à¥¤":8248,"Ġ446":8249,"ep":8250,"412":8251,"à¤¾à¥¤]":8252,"à¤®à¤¹à¤¸":8253,"415":8254,"Ġ466":8255,"Ġ518":8256,"445":8257,"309":8258,"à¤Ĩà¤ĩà¤µà¤°":8259,"à¤¯à¤²à¤®":8260,"à¤Ŀà¤ķ":8261,"),'":8262,"à¤ľà¤¤à¤°":8263,"à¤ıà¤¨à¤¬à¤°":8264,"à¤ľà¤¬à¤°à¤¨":8265,"à¤§à¤µà¤¨":8266,"Ġà¤ıà¤²à¤ķ":8267,"à¥Ī?\"à¥¤":8268,"ous":8269,"Ġer":8270,"à¤ıà¤ķà¤ľ":8271,"à¤²à¤ĺà¤¨":8272,"Ġhave":8273,"à¤ľà¤²à¤¤":8274,"à¥Ģ.\",":8275,"361":8276,"Ġ516":8277,"à¤¸à¤«à¤ľ":8278,"à¤¾à¥¤)à¥¤":8279,"mp":8280,"Ġ790":8281,"Ġ1485":8282,"Ġ552":8283,"Ġ474":8284,"à¤ĩà¤²à¤Ĺ":8285,"Ġ1380":8286,"Ġwhich":8287,"917":8288,"à¤¾à¥¤[":8289,"1761":8290,"à¤ĩà¤Łà¤¨à¤°":8291,"à¤īà¤¥à¤¬":8292,"334":8293,"1720":8294,"060":8295,"Ġ(/":8296,"à¤°à¤Łà¤°":8297,"1766":8298,"Ġ484":8299,"Ġà¤īà¤¬à¤¡":8300,"à¤ıà¤²à¤¸à¤¨":8301,"Ġà¤ıà¤«à¤ıà¤«":8302,"293":8303,"1603":8304,"Ġà¤ħà¤Łà¤ķà¤²à¤¬":8305,"à¤¤à¤²à¤¤":8306,"Ġà¤ıà¤¬à¤°à¤²":8307,"à¤¼à¥Ĥà¤Ĥ":8308,"à¤ĵà¤ªà¤¸":8309,"ÑģÑģÑģÑģÑģÑģÑģÑģÑģÑģÑģÑģÑģÑģÑģÑģ":8310,"Ġà¤°à¤Łà¤°":8311,"à¥Ĥ\"à¥¤":8312,"Ġà¤°à¤¤à¤ļ":8313,"à¤ıà¤²à¤ıà¤¸à¤Ł":8314,"Ġà¤ķà¤Łà¤ĺà¤°":8315,"]:":8316,"à¥Ģ):":8317,"Î»Îµ":8318,"'(":8319,"860":8320,"man":8321,"Ġà¤®à¤Ĺà¤°":8322,"ĠIx":8323,"Ġ449":8324,"Ġ(âĪĴ":8325,"Ġ532":8326,"536":8327,"à¤¨à¤²à¤®":8328,"Ġà¤ıà¤«à¤ıà¤¨":8329,"Ġà¤ıà¤ļà¤¸":8330,"ight":8331,"Ġ531":8332,"020":8333,"ĠÃ¡":8334,"Ġà¤ħà¤¸à¤¹à¤¯":8335,"################":8336,"314":8337,"à¤ķà¤ªà¤²":8338,"Ġ612":8339,"à¤°à¤Ī":8340,"à¤ıà¤ļà¤µ":8341,"Ġps":8342,"Î·ÏĤ":8343,"à¤²à¤«à¤°":8344,"à¤ĩà¤ľà¤¨":8345,"1300":8346,"ÎºÎ±":8347,"Ġà¤¯à¤¬":8348,"1710":8349,"Ġxy":8350,"Ġapp":8351,"Ġ517":8352,"à¤¸à¤¹à¤ķà¤°":8353,"à¤·à¤¤à¤¨":8354,"351":8355,"422":8356,"Ġà¤¸à¤Łà¤°":8357,".);":8358,"282":8359,"Ġrs":8360,"Ġà¤ıà¤®à¤ıà¤¸à¤ľ":8361,"Ġ616":8362,"Ġ702":8363,"ĠÄ°":8364,"004":8365,"Ġ585":8366,"291":8367,"à¤¼à¥ĩà¥¤\"":8368,"à¤ĵà¤ĵà¤ĵà¤ĵà¤ĵà¤ĵà¤ĵà¤ĵà¤ĵà¤ĵà¤ĵà¤ĵà¤ĵà¤ĵà¤ĵà¤ĵà¤ĵà¤ĵà¤ĵà¤ĵà¤ĵà¤ĵà¤ĵà¤ĵà¤ĵà¤ĵà¤ĵà¤ĵà¤ĵà¤ĵà¤ĵà¤ĵ":8369,"ond":8370,"à¤Łà¤ľà¤°":8371,"Ġà¤ıà¤¨à¤ıà¤«à¤ıà¤²":8372,"Ġ453":8373,"Ġ496":8374,"Ġà¤¸à¤°à¤ľ":8375,"à¤ıà¤«à¤¬":8376,"à¤¬à¤²à¤¤":8377,"Ġà¤ĩà¤°à¤«":8378,"à¤¶à¤ªà¤¥":8379,"378":8380,"Ġ1503":8381,"Ġ577":8382,"601":8383,"à¥ĩ.),":8384,"407":8385,"à¥Ģ'à¥¤":8386,"jÃ¶r":8387,"Ġà¤Ĩà¤°à¤ĵà¤¸":8388,"à¤īà¤ªà¤ľ":8389,"Ġà¤µà¤ĸ":8390,"à¤¹à¤°à¤¨":8391,"990":8392,"Ġ\"|":8393,"à¤¦à¤Ī":8394,"Ġ(à¥¤..)":8395,"688":8396,"à¤¸à¤¨à¤¡":8397,"509":8398,"dt":8399,"Ġ471":8400,"Ġà¤ħà¤¹à¤¨":8401,"326":8402,"à¤¦à¤®à¤¨":8403,"1715":8404,"Ġà¤ħà¤ªà¤ĺà¤°":8405,"ore":8406,"à¤¸à¤ıà¤¸à¤¡à¤¬":8407,"]-":8408,"à¤Ĩà¤¸à¤¨":8409,"à¥Īà¥¤|":8410,"Ġ524":8411,"à¤Ķà¤¸à¤¤à¤¨":8412,"670":8413,"Ġà¤«à¤ľà¤²":8414,"Ġ545":8415,"Ġ614":8416,"Ġà¤ĵà¤ªà¤¨à¤µ":8417,"à¤¾à¤ģ?":8418,"Ġ468":8419,"Ġà¤¸à¤¨à¤¡à¤°à¤²":8420,"US":8421,"ĠÎ·":8422,"à¤Ĭà¤²":8423,"Ġà¤ĵà¤ªà¤¨à¤¸":8424,"Ġ1501":8425,"Ġ533":8426,"à¤µà¤¨à¤Ĺà¤°":8427,"à¤¾à¤ģà¥¤\"":8428,"Ġà¤ĵà¤µà¤°à¤µ":8429,"ti":8430,"à¤¸à¤¡à¤¨":8431,"à¥ĩà¤Ĥ?\"":8432,"à¤ĺà¤¶":8433,"810":8434,"Ġà¤¤à¤®à¤¨":8435,"Ġ1516":8436,"366":8437,"à¥į)":8438,"à¤¯à¤°à¤¨à¤®":8439,"Ġ1370":8440,"Ġ910":8441,"298":8442,"316":8443,"à¤®à¤¦à¤¦":8444,"Ġà¤ıà¤ķà¤¸":8445,"Ġà¤¹à¤¸à¤²à¤°":8446,"Ġcm":8447,"Ġ1180":8448,"Ġ(*)":8449,"565":8450,"343":8451,"à¤Ĥ]":8452,"740":8453,"Ġà¤¤à¤°à¤¸à¤¤":8454,"à¤¾à¤ĥ-":8455,"4000":8456,"Ġà¤Ńà¤Ĺà¤¤":8457,"Ġ645":8458,"Ġ538":8459,"à¥ĩ.\"":8460,"Ġà¤¹à¤®à¤°":8461,"Ġ537":8462,"à¤ķà¤łà¤ª":8463,"Ġà¤¹à¤²à¤µ":8464,"Ġ492":8465,"ĠÎ¼":8466,"535":8467,"ast":8468,"à¤īà¤Ľ":8469,"à¤¬à¤°à¤¡":8470,"à¤¬à¤²à¤ķ":8471,"007":8472,"Ġ1453":8473,"à¤ľà¤²à¤®":8474,"à¤Ĩà¤°à¤ıà¤¨":8475,"Ġà¤ĵà¤¹à¤¨":8476,"Ġ(;),":8477,"Ġdes":8478,"à¤Ĺà¤°à¤Ł":8479,"324":8480,"563":8481,"------------":8482,"à¥Ĥ)à¥¤":8483,"Ġà¤ıà¤¨à¤®":8484,"Ġ521":8485,"à¤Ĩà¤Ĺà¤®à¤¨":8486,"770":8487,"à¤ģ/":8488,"Ġà¤ıà¤°à¤¨":8489,"Ġà¤°à¤¶à¤°":8490,"à¤°à¤¹à¤ª":8491,"820":8492,"à¤¬à¤¨à¤¸":8493,"à¤¥à¤¨à¤¶":8494,"Ġà¤Ĩà¤°à¤¡à¤¬":8495,"Ġà¤ĳà¤¨à¤¡":8496,"Ġà¤ĳà¤¡à¤²":8497,"Ġà¤¸à¤¬à¤¬":8498,"à¤Łà¤ķà¤¸":8499,"Ġà¤ħà¤ľà¤µ":8500,"352":8501,"Ġ497":8502,"Ġ1001":8503,"à¤¤à¤°à¤¨":8504,"1748":8505,"318":8506,"à¤¶à¤¨à¤®":8507,"Ġ477":8508,"Ġ467":8509,"870":8510,"Ġà¤¨à¤ľà¤«":8511,"Ġdo":8512,"à¤ħà¤¬à¤¦":8513,"à¤Īà¤ķà¤°":8514,"Ġà¤°à¤¡à¤°":8515,"à¤®à¤ĸà¤®à¤²":8516,"à¥Īà¥¤]":8517,"502":8518,"289":8519,"Ġ1514":8520,"Ġà¤¸à¤ľà¤¦":8521,"Ġà¤¤à¤¤à¤¸":8522,"Ġ912":8523,"Ġà¤Ĩà¤¬à¤¨":8524,"à¤¹à¤ľà¤¹":8525,"à¤Ĩà¤¨à¤ķ":8526,"Ġà¤ıà¤¡à¤²à¤®":8527,"à¤Ĩà¤ĩà¤ļ":8528,"à¤ķà¤¸à¤¬à¤°":8529,"368":8530,"Ġà¤ķà¤Łà¤¨":8531,"à¥ĩà¤Ĥ\":":8532,"à¥Ģà¥¤\"(":8533,"030":8534,"à¤¯à¤¨à¤ª":8535,"Ġà¤ĵà¤¨à¤²":8536,"403":8537,"Ã¡n":8538,"au":8539,"à¤°à¤£à¤µ":8540,"à¥ĭ\";":8541,"331":8542,"Ġ1130":8543,"327":8544,"Ġà¤ıà¤ĵà¤ķ":8545,"Ġà¤Ĭà¤¸":8546,"Ġà¤ıà¤¤":8547,"348":8548,"429":8549,"oo":8550,"à¤«à¤«":8551,"Ġ498":8552,"859":8553,"Ġ%":8554,"359":8555,"Ġ487":8556,"à¥Īà¤Ĥà¥¤\"(":8557,"à¥ĩà¤Ĥ-\"":8558,"ĠÄģ":8559,"à¤«à¤°à¤®":8560,"Ġ581":8561,"675":8562,"à¤ªà¤¨à¤µ":8563,"457":8564,"à¤°à¤«à¤°":8565,"Ġ1360":8566,"Ġ613":8567,"1400":8568,"à¤ıà¤ļà¤¬":8569,"451":8570,"367":8571,"040":8572,"Ġ551":8573,"à¤¾à¤ģ\")":8574,"476":8575,"Ġà¤ĵà¤¬à¤°à¤¹":8576,"Ġà¤ıà¤¤à¤¦":8577,"Ġ\".":8578,"à¤Ĩà¤Īà¤ĵ":8579,"363":8580,"Ġ1505":8581,"Ġ1415":8582,"')à¥¤":8583,"fe":8584,"507":8585,"Ġà¤²à¤ľ":8586,"Ġà¤®à¤¦à¤¦à¤Ĺ":8587,"920":8588,"à¤µà¤¨à¤®":8589,"Ġà¤¸à¤°à¤¹":8590,"à¤Īà¤¡à¤¨":8591,"888":8592,"à¤µà¤Łà¤ķ":8593,"à¤Ĩà¤ĩà¤Ĺ":8594,"Ġ494":8595,"Ġle":8596,"Ġ479":8597,"080":8598,"Ġ705":8599,"Ġ481":8600,"317":8601,"à¤ªà¤Łà¤²":8602,"Ġà¤¹à¤¸à¤²":8603,"705":8604,"Ġ534":8605,"old":8606,"Ġ1511":8607,"Ġ617":8608,"Ġà¤Ĩà¤¯à¤¨à¤®":8609,"Ġ491":8610,"Ġ1531":8611,"à¤¤à¤¦à¤°":8612,"353":8613,"Ġ483":8614,"Ġà¤¥à¤°à¤®":8615,"Ġ(âĤ¬":8616,"387":8617,"xy":8618,"able":8619,"Ġ472":8620,"Ġà¤Łà¤¨à¤¬":8621,"ark":8622,"730":8623,"hr":8624,"à¤ĩà¤²à¤µ":8625,"Ġ\"+":8626,"383":8627,"one":8628,"/(":8629,"Ġà¤Ĺà¤ľà¤²":8630,"ÏĦÎ¿ÏĤ":8631,"ĠÐ¼Ð°":8632,"515":8633,"Ġ473":8634,"Ġ\":\"":8635,"605":8636,"777":8637,"Ġ890":8638,"ial":8639,"à¤°à¤¥à¤²":8640,"Ġà¤¤à¤¡":8641,"381":8642,"à¤Ĺà¤ĵà¤µà¤°":8643,"à¤²à¤µà¤¨":8644,"à¤¼à¤¼à¤¼à¤¼à¤¼à¤¼à¤¼à¤¼à¤¼à¤¼à¤¼à¤¼à¤¼à¤¼à¤¼à¤¼":8645,"690":8646,"à¤®à¤Ń":8647,"à¤ĺà¤¬à¤¦":8648,"Ġ808":8649,"ost":8650,"Ġ\"\",":8651,"Ġ547":8652,"à¤ħà¤¨à¤ª":8653,"Ġà¤ļà¤ķà¤®à¤ķ":8654,"à¤Ĩà¤²à¤®":8655,"à¤łà¤ķà¤°":8656,"Ġà¤ĳà¤¯à¤°à¤¬":8657,"à¤ªà¤°à¤ķà¤¤":8658,"414":8659,"df":8660,"Ġà¤īà¤²à¤¸":8661,"369":8662,"1630":8663,"1001":8664,"à¤¡à¤¨à¤µ":8665,"à¤°à¤ªà¤Ł":8666,"ĠAD":8667,"à¤¦à¤£":8668,"Ġ(,),":8669,"Ġ493":8670,"à¤¸à¤ĵ":8671,"à¤Ĺà¤²à¤¬":8672,"Ġ\"=":8673,"nf":8674,"Ïį":8675,"Ġà¤īà¤°à¤¬":8676,"à¤ĩà¤°à¤²":8677,"à¤®à¤¦à¤°à¤¸":8678,"377":8679,"389":8680,"431":8681,"Ġà¤Ĩà¤°à¤ıà¤®à¤ıà¤¸":8682,"à¤¹à¤®à¤«":8683,"à¤ıà¤ªà¤²":8684,"379":8685,"su":8686,"à¤ªà¤Ĩà¤īà¤Ł":8687,"à¤Ĩà¤Ĩà¤Ĩà¤Ĩà¤Ĩà¤Ĩà¤Ĩà¤Ĩ":8688,".---":8689,"à¤Łà¤§":8690,"à¤ħà¤¹à¤°":8691,"à¤¨à¤µà¤°à¤²":8692,"Ġ1390":8693,"442":8694,"695":8695,"813":8696,"à¤¸à¤¬à¤²":8697,"à¤¨à¤¸à¤¬":8698,"Ġ)":8699,"zy":8700,"à¤īà¤Ĩà¤¨":8701,"Ġ541":8702,"-$":8703,"Ġà¤¡à¤¬à¤¸":8704,"371":8705,"Ġà¤µà¤¤à¤¨à¤¬":8706,"ke":8707,"à¤¸à¤ľà¤¨":8708,"Ġà¤°à¤ķà¤°":8709,"à¤¼)à¥¤":8710,"Ġà¤Ĩà¤¯à¤¸":8711,"Ġ586":8712,"Ġbut":8713,"Ġ',',":8714,"\"*":8715,"à¤ħà¤·":8716,"Ġ901":8717,"à¤ĺà¤µà¤¨":8718,"362":8719,"à¤¸à¤¤à¤°":8720,"416":8721,"802":8722,"Ġ482":8723,"Ġxxi":8724,"ain":8725,"Ġà¤¸à¤°à¤Ĺà¤®":8726,"Ġ1170":8727,"ai":8728,"à¤²à¤¯à¤®":8729,"Ġà¤Īà¤Łà¤°":8730,"xt":8731,"Ġund":8732,"à¤ģ!":8733,"1690":8734,"Ġ548":8735,"à¤Łà¤²à¤µ":8736,"à¥ĩà¤Ĥ\")à¥¤":8737,"à¤«à¤²à¤ķ":8738,"432":8739,"Ġà¤¬à¤¨à¤¬à¤°":8740,"Ġà¤ķà¤²à¤ķ":8741,"Î±Ïģ":8742,"à¤ħà¤«à¤µ":8743,"Ġ825":8744,"à¥ĩ\")à¥¤":8745,"Ġà¤¥à¤²":8746,"508":8747,"lÄ±":8748,"Ġà¤¡à¤Ĺà¤²":8749,"Ġ543":8750,"Ġact":8751,"ack":8752,"à¥į.":8753,"Ġà¤¬à¤Łà¤²":8754,"Ġ609":8755,"Ġà¤«à¤¨à¤²":8756,"Ġà¤ĩà¤¸à¤¬":8757,"ni":8758,"Ġà¤īà¤¦à¤¯à¤ª":8759,"à¤ıà¤¸à¤°":8760,"à¤¦à¤¶à¤®":8761,"006":8762,"Ġ635":8763,"Ġà¤ıà¤ķà¤ķ":8764,"à¤Ĩà¤Īà¤ľ":8765,"701":8766,"533":8767,"1749":8768,"Ġ553":8769,"per":8770,"à¤²à¤ĵà¤µà¤°":8771,"Ġà¤ħà¤¬à¤²":8772,"607":8773,"Ġ1310":8774,"Ġ=>":8775,"à¤¬à¤ķà¤®":8776,"1707":8777,"1620":8778,"ĠXXVI":8779,"à¤¯à¤²à¤¸à¤¨":8780,"Ġ519":8781,"382":8782,"464":8783,"911":8784,"1753":8785,"à¥ĩà¤ĥ\"":8786,"506":8787,"à¥Ĥà¤ģà¤ĥ":8788,"Ġall":8789,"Ġà¤īà¤¥":8790,"Ġ1509":8791,"008":8792,"Ġ459":8793,"à¤¦à¤ľà¤¨à¤ķ":8794,"413":8795,"Ð¾Ð¾":8796,"Ġà¤¥à¤ķà¤ķà¤°":8797,"Ġà¤®à¤¨à¤ķ":8798,"à¤¯à¤¡à¤°":8799,"479":8800,"Ġ489":8801,"à¤¾!'":8802,"Ġà¤ıà¤ªà¤¨":8803,"Ġ(>":8804,"sr":8805,"940":8806,"lu":8807,"Ġ1504":8808,"ĠÃħ":8809,"à¤Ĺà¤²à¤¹":8810,"Ġ539":8811,")'":8812,"à¤¦à¤¨à¤Ĺà¤°":8813,"Ġ628":8814,"890":8815,"à¤¯à¤ļà¤²":8816,"à¤ľà¤¯à¤ķ":8817,"à¤īà¤¬à¤¨":8818,"à¥Īà¤Ĥà¥¤)à¥¤":8819,"Ġà¤Ĩà¤°à¤Ĩà¤°":8820,"Ġ1498":8821,";;;;;;;;;;;;;;;;":8822,"à¤¶à¤Ĺà¤°":8823,"à¤ħà¤¶à¤°":8824,"à¤ĩà¤Łà¤ľ":8825,"/âĪĴ":8826,"à¤Ĺà¤Ĺà¤°":8827,"Ġ595":8828,"à¤¯à¤¡à¤²":8829,"à¤ıà¤¸à¤ĵ":8830,"Ġ624":8831,"Ġà¤ľà¤°à¤¬à¤°":8832,"342":8833,"568":8834,"à¤¥à¤ķà¤¤":8835,"Ġà¤²à¤¹":8836,"666":8837,"à¤ıà¤¸à¤ıà¤ļ":8838,"Ð»Ñĥ":8839,"388":8840,"Ġà¤ıà¤¨à¤ıà¤¸à¤¡":8841,"à¤Ĩà¤°à¤Ĩà¤Ī":8842,"499":8843,"Ġ2300":8844,"à¤¾à¥¤'\"":8845,"Ġà¤ħà¤°à¤ĸ":8846,"**":8847,"Ġà¤Īà¤ı":8848,"ĠÎ¹":8849,"372":8850,"ose":8851,"Ġà¤īà¤¬à¤°à¤¤":8852,"à¤¯à¤«à¤²":8853,"Ġà¤ķà¤¹à¤°":8854,"Ġà¤¨à¤¬à¤²à¤¸":8855,"1688":8856,"Ġ1502":8857,"Ġà¤¡à¤Ł":8858,"à¥Īà¥¤(":8859,"Ġ711":8860,"Ġ526":8861,"Ġ715":8862,"-)à¥¤":8863,"à¤ªà¤łà¤¨":8864,"à¥Īà¤Ĥ]":8865,"1747":8866,"Ġà¤®à¤²à¤¹":8867,"830":8868,"à¤¾,-":8869,"472":8870,"025":8871,"Ġà¤ıà¤Ĺà¤¸":8872,"Ġà¤Ĩà¤Īà¤ıà¤ķ":8873,"556":8874,"467":8875,"329":8876,"Ġà¤ıà¤«à¤Ł":8877,"à¤ıà¤¨à¤ļ":8878,"Ġà¤ıà¤µà¤°à¤Ł":8879,"433":8880,"564":8881,"à¤®à¤²à¤¬":8882,"à¤ıà¤«à¤¡à¤¬":8883,"Ġà¤¹à¤¦à¤°":8884,"Ġ561":8885,"Ġà¤Ĳà¤¬":8886,"Ġup":8887,"Ġà¤¶à¤«à¤²":8888,"504":8889,"Ġ606":8890,"Ġ[...]..]":8891,"à¤¡à¤®à¤¸":8892,"Ġà¤ıà¤ķà¤Ł":8893,"à¤ħà¤¨à¤ľ":8894,"Ġà¤¹à¤°à¤¦":8895,"1680":8896,"409":8897,"ty":8898,"xc":8899,"Ġ1190":8900,"à¤Ĺà¤¤à¤¨":8901,"Ġ549":8902,"Ġ571":8903,"Ġmm":8904,"394":8905,"Ġà¤¥à¤ªà¤¥à¤ª":8906,"399":8907,"393":8908,">\"":8909,"li":8910,"xii":8911,"à¤ıà¤ļà¤°":8912,"Ġà¤ıà¤¡à¤¸à¤¨":8913,"à¤ıà¤¨à¤®":8914,"à¤ıà¤«à¤Ĩà¤°":8915,"col":8916,"à¤¸à¤¬à¤®":8917,"ah":8918,"503":8919,"à¤Ńà¤µà¤µ":8920,"à¤Ĩà¤°à¤Ĺ":8921,"428":8922,"Ġ546":8923,"à¤Ĩà¤¦à¤¤":8924,"1752":8925,"Ġà¤¸à¤¬à¤ª":8926,"à¤¸à¤¡à¤¬":8927,"Ġà¤ĩà¤Łà¤°":8928,"à¤īà¤Łà¤°à¤¨":8929,"à¤²à¤µà¤²":8930,"az":8931,"à¤ħà¤°à¤®":8932,"Ġ523":8933,"484":8934,"Ġà¤Ĩà¤¯à¤¨à¤¨":8935,"Ġ1493":8936,"Ġ1508":8937,"487":8938,"à¤īà¤¯":8939,"Ġà¤Ĺà¤¹":8940,"349":8941,"à¤Ŀà¤¤":8942,"Ġ725":8943,"478":8944,"524":8945,"à¤¥à¤°à¤¸":8946,"à¥Ģ.|":8947,"Ġà¤¬à¤¡à¤µ":8948,"Ġ582":8949,"Ġ1410":8950,"à¤ķà¤Łà¤²":8951,"à¥ĥ-":8952,"à¤¬à¤°à¤¸à¤¨":8953,"Ġ2028":8954,"Ġ1495":8955,"Ġ(,,)":8956,"à¤Łà¤ĵà¤µà¤°":8957,"Ġ((":8958,"à¥Ī;\"":8959,"à¤Ĩà¤ĩà¤ķà¤¨":8960,"à¤®à¤°à¤Łà¤¨":8961,"Ġ1506":8962,"446":8963,"à¤¥à¤²à¤®":8964,"ÑĤÐµÑĤÐµ":8965,"bro":8966,"Ġà¤²à¤µà¤ľ":8967,"Ġà¤ıà¤®à¤Ĩà¤°à¤Ł":8968,"602":8969,"Î»Î¹":8970,"Ġà¤ļà¤µ":8971,"1744":8972,"373":8973,"à¥Īà¤Ĥà¥¤..]":8974,"à¥ĭà¤Ĥ!":8975,"Ġsin":8976,"à¤ıà¤¸à¤Ī":8977,"à¤¨à¤¤à¤¦":8978,"453":8979,"à¤°à¤¨à¤¹":8980,"Ġà¤¨à¤Īà¤®":8981,"469":8982,"à¤¦à¤µà¤²":8983,"à¤ıà¤ªà¤°":8984,"Ġà¤®à¤¹à¤«":8985,"Ġà¤ħà¤µà¤ķà¤²à¤¨":8986,"à¥Īà¤Ĥ?\",":8987,"714":8988,"708":8989,"459":8990,"à¥Ģà¤Ĥ?\"":8991,"à¤ĩà¤®à¤ķ":8992,"Ġà¤ªà¤°à¤Ĺ":8993,"Ġ1497":8994,"454":8995,"ww":8996,"à¤Ĺà¤Ĩà¤īà¤Ł":8997,"Ġ626":8998,"790":8999,"452":9000,"397":9001,"Ġ]":9002,"Ġ655":9003,"Ġ704":9004,"à¥ĩ]\"":9005,"Ġ641":9006,"à¥Īà¤Ĥ)\"":9007,"Ġ(-)":9008,"à¤ĵà¤°à¤®":9009,"ÙĤ":9010,"à¤Ĭà¤¤à¤ķ":9011,"Ġà¤¬à¤ķà¤µ":9012,"Ġà¤¬à¤°à¤²":9013,"à¤ĸà¤ª":9014,"656":9015,"Ġ536":9016,"Ġà¤īà¤¬à¤²à¤¨":9017,"1727":9018,"à¤ıà¤Łà¤®":9019,"Ġà¤¹à¤²à¤®":9020,"895":9021,"Ġ567":9022,"Ġà¤Ĩà¤ķà¤²":9023,"Ġ632":9024,"Ġ905":9025,"à¤°à¤¨à¤ķ":9026,"by":9027,"à¤īà¤¬à¤²":9028,"768":9029,"à¤°à¤¸à¤¦":9030,"à¤ĩà¤ķà¤¬":9031,"so":9032,"Ġà¤Ĺà¤£à¤ªà¤¤":9033,"ated":9034,"Ġ1160":9035,"1610":9036,"391":9037,"Ġà¤¬à¤²à¤°":9038,"à¥Ģà¥¤\"à¥¤":9039,"Ġ542":9040,"à¤¨à¤µà¤ľ":9041,"Ġ1204":9042,"Ġà¤ıà¤²à¤Ĺà¤°":9043,"Ð³Ð°":9044,"Ġ765":9045,"Ġà¤ķà¤µà¤ķà¤¨":9046,"à¤¿à¤ĥ\"":9047,"488":9048,"à¤¸à¤²à¤µ":9049,"à¤Łà¤Łà¤¨":9050,"441":9051,"930":9052,"Ġà¤¶à¤¹à¤¨":9053,"645":9054,"Ġà¤¸à¤¨à¤®":9055,"Ġ627":9056,"à¥ĭ)\"":9057,"423":9058,"477":9059,"à¤¬à¤¬à¤°":9060,"Ġ(âĢ²":9061,"Ġ556":9062,"à¥ĩ?âĢĿ":9063,"Ġà¤ĵà¤Łà¤µ":9064,"à¤ħà¤¨à¤¡":9065,"474":9066,"à¤¨à¤ıà¤¯à¤°":9067,"Ġher":9068,"HTTPS":9069,"775":9070,"à¤Ĩà¤ĩà¤¡à¤²":9071,"Ġà¤ķà¤¬à¤¡":9072,"à¤ĵà¤ªà¤°":9073,"à¤ıà¤®à¤ıà¤¨":9074,"à¤¶à¤®à¤°":9075,"Ġà¤ĳà¤°à¤¸":9076,"ĠXXV":9077,")),":9078,"à¤Łà¤¨à¤¶":9079,"à¥Īà¤Ĥ):":9080,"................................................................................................................................................................................................":9081,"Ġ587":9082,"à¤ıà¤¸à¤¯":9083,"1689":9084,"855":9085,"ÏĥÎ¹":9086,"Ġ469":9087,"Ġ622":9088,"à¤ıà¤²à¤ıà¤«":9089,"Ġà¤ıà¤¬à¤²":9090,"Â·Â·":9091,"461":9092,"à¤¨à¤¨à¤°":9093,"551":9094,"à¤ķà¤¸à¤®":9095,"Ġà¤ħà¤¹à¤µ":9096,"1743":9097,"1751":9098,"070":9099,"725":9100,"à¤ıà¤°à¤¨":9101,"à¥ĩà¤Ĥ,à¥¤":9102,"rt":9103,"sd":9104,"604":9105,"449":9106,"1735":9107,"à¤¥à¤²à¤¨":9108,"à¤ĩà¤¸à¤¬":9109,"à¤Ĩà¤¦à¤°à¤£":9110,"à¤ıà¤ķà¤¨":9111,"\"à¥¤..":9112,"542":9113,"à¤¨à¤µà¤¯":9114,"615":9115,"à¤¤à¤ķà¤¤":9116,"à¥Ī!'":9117,"Øª":9118,"Ġà¤ħà¤°à¤¹":9119,"1550":9120,"609":9121,"à¤Īà¤¥":9122,"Ġà¤¯à¤Ł":9123,"à¤ĩà¤²à¤¹":9124,"Ġ1483":9125,"à¤ĩà¤µà¤Ł":9126,"à¤¾],":9127,"Î´Îµ":9128,"à¤ĩà¤°à¤®":9129,"Ġà¤ıà¤¨à¤ıà¤¸à¤ı":9130,"à¤ħà¤ļà¤²":9131,"Ġà¤ħà¤¯à¤ķ":9132,"558":9133,"sl":9134,"à¤ĩà¤Łà¤Ĺ":9135,"Ġ'):":9136,"1642":9137,"552":9138,"!)":9139,"Ġà¤µà¤¬":9140,"Ġà¤ıà¤¨à¤ıà¤®à¤Ĩà¤°":9141,"063":9142,"Ġà¤ıà¤¨à¤µà¤°":9143,"1722":9144,"Ġ618":9145,"à¤ĩà¤ªà¤°à¤Ĺ":9146,"pg":9147,"1746":9148,"Ġ621":9149,"910":9150,"938":9151,"à¤ĩà¤ľà¤®":9152,"à¤ıà¤ıà¤ıà¤ı":9153,"à¤¡à¤Ĺà¤°":9154,"ĠHTTTPS":9155,"Ġ\"à¥¤\"":9156,"603":9157,"à¤¡à¤²à¤¨":9158,"à¤¶à¤¯à¤¨à¤ķà¤ķ":9159,"805":9160,"755":9161,"Ð³Ðµ":9162,"424":9163,"fb":9164,"à¤¾\".":9165,"iss":9166,"Ġ667":9167,"à¤°à¤¬à¤¦":9168,"Ùģ":9169,"Ġ1494":9170,"à¤®à¤¦à¤¨":9171,"Ġà¤¸à¤¹à¤²":9172,"426":9173,"ery":9174,"Ġà¤¡à¤¬à¤°":9175,"Ġà¤ķà¤®à¤¤à¤°":9176,"421":9177,"à¤Ĩà¤°à¤ıà¤ķ":9178,"à¤¡à¤°à¤ķà¤µà¤°":9179,"à¤ķà¤¸à¤°":9180,"Ġà¤ĸà¤Ĺà¤¨":9181,"Ġ564":9182,"à¤µà¤ĸ":9183,"Ġà¤µà¤¯":9184,"1708":9185,"Ġ608":9186,"Ġ4500":9187,"Ġcc":9188,"we":9189,"Ġà¤ĵà¤ĺ":9190,"Ġ846":9191,"uc":9192,"à¤¨à¤·":9193,"Ġ633":9194,"Ġ1518":9195,"Ġ642":9196,"ĠSt":9197,"661":9198,"Ġ1275":9199,"374":9200,"Ġà¤ĵà¤°à¤µ":9201,"Ġ(+/âĪĴ":9202,"090":9203,"à¥Īà¤Ĥà¥¤),":9204,"Ġà¤īà¤ªà¤¬":9205,"Ġ636":9206,"à¥Ģ.://":9207,"1714":9208,"1725":9209,"à¤ķà¤¨à¤ķ":9210,"Ġ731":9211,"ÏģÎµ":9212,"015":9213,"545":9214,"Ġà¤¡à¤«à¤°":9215,"à¤ĺà¤¬à¤°":9216,"396":9217,"Ġà¤®à¤ĸà¤¨":9218,"à¤ħà¤ķà¤²":9219,"1739":9220,"1670":9221,"012":9222,"à¤Łà¤¨à¤«":9223,"Ġcoc":9224,"975":9225,"Ġ588":9226,"Ġ1499":9227,"à¤ľà¤²à¤ª":9228,"à¤¯à¤Ĩà¤īà¤Ł":9229,"à¤¨à¤®à¤¨":9230,"à¤¤à¤Ī":9231,"à¤ıà¤²à¤¯":9232,"à¤ıà¤¯à¤°à¤ķ":9233,"Ġ568":9234,"à¤µà¤¤à¤ĸ":9235,"Ġ665":9236,"Ġ1291":9237,"Ġà¤ĵà¤µà¤°à¤®":9238,"()":9239,"635":9240,"Ġà¤±":9241,"Ġà¤ıà¤ķà¤µà¤°":9242,"1086":9243,"707":9244,"ĠÐļÐ°":9245,"Ġ563":9246,"à¤²à¤¡à¤¨":9247,"Ġ623":9248,"606":9249,"à¤¥à¤°à¤¨à¤µ":9250,"595":9251,"fl":9252,"1580":9253,"944":9254,"à¤¶à¤ħà¤ª":9255,"à¤ıà¤«à¤ľ":9256,"à¤¯à¤¦à¤°":9257,"Ġà¤µà¤¤":9258,"Ġà¤ıà¤¸à¤²":9259,"à¤¤à¤°à¤ª":9260,"801":9261,"hl":9262,"à¤īà¤Ĺà¤°":9263,"à¤¥à¤°à¤Łà¤¨":9264,"à¥Īà¤Ĥ\";":9265,"à¤¸à¤ļà¤°":9266,"Ġà¤«à¤Łà¤¤":9267,"à¤ıà¤²à¤ķ":9268,"à¤ķà¤²à¤¹":9269,"Ġ1070":9270,"Ġà¤Ĩà¤Īà¤ıà¤¸à¤Ĩà¤Īà¤ıà¤²":9271,"Ġbg":9272,"à¤¯à¤ķà¤²":9273,"392":9274,"466":9275,"à¤¡à¤¨à¤ķ":9276,"Ġà¤ĳà¤²à¤Ł":9277,"ÎºÎ¿":9278,"ÑģÐ¸Ñı":9279,"à¤ĩà¤¡à¤¬à¤°":9280,"Ġ648":9281,"518":9282,"à¤ķà¤°à¤¬à¤°":9283,"Ġ599":9284,"à¤¸à¤²à¤Łà¤¨":9285,"Ġ554":9286,"à¤¿à¥¤),":9287,"Ġà¤Ĩà¤²à¤¬":9288,"Ġ607":9289,"643":9290,"970":9291,"à¤¨à¤®à¤²":9292,"Ġ1471":9293,"481":9294,"482":9295,"à¤ħà¤µà¤ľ":9296,"à¥Įà¥¤":9297,"ĠUS":9298,"ĠR":9299,"ite":9300,"Ġbes":9301,"825":9302,"à¤Ŀà¤®":9303,"Ġ1024":9304,"1590":9305,"789":9306,"Ġà¤¡à¤Ĺà¤¡":9307,"à¤¤à¤ĺ":9308,"Ġ*)":9309,"Ġà¤īà¤ªà¤®":9310,"Ġà¤ĵà¤¬à¤°à¤²":9311,"Ġ1296":9312,"à¤īà¤¸à¤¬":9313,"Ġà¤¨à¤ĸà¤ļ":9314,"Ġ1346":9315,"641":9316,"494":9317,"468":9318,"Ġ1327":9319,"1625":9320,"itt":9321,"à¤Ńà¤¹":9322,"ĠÐ¼Ðµ":9323,"ide":9324,"à¥Īà¤Ĥ);":9325,"1618":9326,"xf":9327,"Ġ578":9328,".)\"":9329,"612":9330,"Ġ924":9331,"655":9332,"646":9333,"427":9334,"cm":9335,"à¤ħà¤ķà¤¬à¤°":9336,"ung":9337,"1723":9338,"Ġà¤ıà¤ľà¤¬":9339,"Ġ1348":9340,"534":9341,"448":9342,"Ġ661":9343,"Ġ574":9344,"à¤¸à¤Ĺà¤°":9345,"1742":9346,"554":9347,"à¤ľà¤µà¤°":9348,"Ġà¤Ľà¤²à¤¨":9349,"Ġà¤ķà¤²à¤µ":9350,"à¤ıà¤ıà¤ª":9351,"Ġ\"-\"":9352,"Ġà¤¦à¤°à¤«":9353,"Ġ1475":9354,"471":9355,"à¤¾!âĢĿ":9356,"ance":9357,"à¤ĵà¤¬à¤°à¤²":9358,"à¥Ģ.]":9359,"Î±Î¹":9360,"ÏĦÎ¹":9361,"ĠÂ§Â§":9362,"Ġ815":9363,"585":9364,"965":9365,"à¤¹à¤¨à¤°":9366,"1736":9367,"Ġà¤Ĺà¤£à¤ķ":9368,"Ġ(Â±":9369,"Ġà¤Ĺà¤¹à¤¨à¤¤":9370,"Ġà¤¤à¤°à¤£à¤¤":9371,"434":9372,"1741":9373,"Ġ562":9374,"à¤¸à¤²à¤¸":9375,"Ġ775":9376,"767":9377,"511":9378,"à¤ıà¤«à¤ıà¤¨":9379,"fa":9380,"à¤¨à¤²à¤°":9381,"à¤ģ),":9382,"806":9383,"018":9384,"gg":9385,"à¤ıà¤²à¤ı":9386,"à¤ķà¤®à¤¨":9387,"à¤ĩà¤²à¤²":9388,"iiii":9389,"Ġà¤¸à¤°à¤µà¤¨":9390,"Ġà¤ķà¤²à¤Ĺ":9391,"419":9392,"à¤¸à¤¨à¤®":9393,"à¤²à¤ıà¤ķ":9394,"à¤ªà¤Ĺà¤¡":9395,"Ġà¤ıà¤ķà¤ª":9396,"Ġà¤Ĩà¤°à¤¤":9397,"à¤ĵà¤ĩ":9398,"462":9399,"ÑģÐ¾Ðµ":9400,"à¤¨à¤¬à¤Ł":9401,"à¤ħà¤ªà¤¸":9402,"PA":9403,"à¤Ĩà¤ĩà¤Łà¤®":9404,"à¤µà¤¨à¤²":9405,"925":9406,"à¤ħà¤²à¤ķ":9407,"à¤Ĺà¤²à¤ª":9408,"473":9409,"1570":9410,"Ġ573":9411,"à¤ıà¤µà¤¨":9412,"Ġ997":9413,"Ġ557":9414,"oy":9415,"str":9416,"à¥ĩ):":9417,"483":9418,"628":9419,"ks":9420,"val":9421,"à¥ĭ',":9422,"à¤Ĩà¤ĩà¤¨":9423,"Ġà¤Ĩà¤ĩà¤Ł":9424,"496":9425,"ĠUTC":9426,"Ġ714":9427,"614":9428,"747":9429,"ĠY":9430,"Ġ1215":9431,"à¤ĩà¤ľà¤²":9432,"à¤ĵà¤ĩà¤¸":9433,"Ġà¤ıà¤¨à¤Ĩà¤°":9434,"463":9435,"à¤ĩà¤¸à¤¨à¤°":9436,"571":9437,"Ġ1461":9438,"à¤ħà¤¨à¤«":9439,"à¤īà¤¤à¤¨":9440,"009":9441,"à¤ĳà¤Ĺ":9442,"Ġ717":9443,"Ġà¤°à¤£à¤ľ":9444,"à¤īà¤Łà¤®":9445,"Ġ1295":9446,"ÏģÎ¿ÏĤ":9447,"Ġà¤ĳà¤²à¤Ĺ":9448,"Ġà¤īà¤ĸà¤¡":9449,"711":9450,"Ġ706":9451,"Ġab":9452,"443":9453,"Ġà¤ªà¤ļà¤¹à¤¤":9454,"737":9455,"cs":9456,"011":9457,"Ġà¤Ĺà¤ľà¤¨":9458,"Ġà¥¤à¥¤à¥¤":9459,"Ġ619":9460,"644":9461,"à¤ĵà¤µà¤°à¤²":9462,"Ġ584":9463,"Ġ875":9464,"à¤¯à¤¸à¤µ":9465,"Ã©n":9466,"Ġà¤ıà¤ķà¤¹":9467,"Ġà¤¡à¤®à¤°":9468,"Ġ559":9469,"à¤²à¤¹à¤¨":9470,"Ġ597":9471,"Ġ685":9472,"à¤īà¤¨à¤¸à¤µ":9473,"ob":9474,"à¤ĩà¤°à¤¨":9475,"Ġ629":9476,"1737":9477,"418":9478,"1718":9479,"à¤Łà¤ľà¤°à¤²":9480,"à¤®à¤ķà¤®":9481,"Ġ634":9482,"min":9483,"à¤ĩà¤°à¤¹":9484,"Ġà¤¯à¤µà¤¨":9485,"Ġ631":9486,"Ġ888":9487,"à¤µà¤Łà¤¨":9488,"Ġà¤ħà¤¶à¤ķ":9489,"à¤Ķà¤¬":9490,"Ġ639":9491,"709":9492,"ĠWww":9493,"042":9494,"ĠÐļÐ¾":9495,"024":9496,"à¥Ī!âĢĿ":9497,"722":9498,"1605":9499,"632":9500,"ress":9501,"ĠÏĦÎ±":9502,"521":9503,"617":9504,"Ġà¤ªà¤«à¤ķ":9505,"à¤¬à¤°à¤Ĺ":9506,"Ġà¤ķà¤Łà¤Ĩà¤īà¤Ł":9507,"à¤ķà¤¨à¤«":9508,"Ġ935":9509,"Ġ651":9510,"Â±":9511,"à¤ľà¤¬à¤°à¤¦à¤¸":9512,"Ġà¤Łà¤µ":9513,"à¤ķà¤¨à¤Ł":9514,"à¤Łà¤²à¤Łà¤¨":9515,"Ġ1040":9516,"1713":9517,"à¤¸à¤Īà¤¦":9518,"à¤·à¤§à¤°":9519,"786":9520,"Ġà¤°à¤®à¤¸":9521,"à¤£à¤¶à¤ķ":9522,"1724":9523,"à¤ĭà¤¤":9524,"Ġ1507":9525,"ĠWW":9526,"577":9527,"?\",":9528,"Ûģ":9529,"969":9530,"437":9531,"795":9532,"à¤«à¤²à¤¨":9533,"Ġà¤ªà¤°à¤¶":9534,"Ġ1010":9535,"Ġà¤ıà¤¶à¤µà¤°":9536,"/*":9537,"Ġà¤¹à¤°à¤¶":9538,"Ġ+-":9539,"Ġrhys":9540,"075":9541,"1733":9542,"1734":9543,"Ġxh":9544,"age":9545,"à¤ıà¤Łà¤µ":9546,"Ġà¤Ĳà¤Ĺ":9547,"492":9548,"531":9549,"Ġ1488":9550,"1685":9551,"712":9552,"à¤Īà¤ıà¤«":9553,"Ġ1325":9554,"787":9555,"Ġ572":9556,"681":9557,"à¤¯à¤®à¤¬à¤°":9558,"Ġà¤¬à¤°à¤ľ":9559,"Ġà¤ıà¤¡à¤ª":9560,">-":9561,"685":9562,"781":9563,"497":9564,"à¤Ĩà¤¸à¤®":9565,"Ġà¤ĳà¤¸à¤°":9566,"1701":9567,"à¤Ĩà¤¥":9568,"Ġà¤ıà¤ķà¤°à¤¸à¤¤":9569,"Ġ3200":9570,"Ġà¤Ĩà¤¸à¤µà¤¨à¤¶":9571,"523":9572,"Ġà¤ıà¤¸à¤Īà¤ĵ":9573,"à¤ľà¤¯à¤ª":9574,"à¤¾à¥¤),":9575,"1672":9576,"à¤¸à¤ıà¤«":9577,"1667":9578,"à¤¸à¤¹à¤¨à¤¶":9579,"à¤Ĩà¤°à¤ıà¤«":9580,"CC":9581,"cr":9582,"538":9583,"à¤Łà¤®à¤°":9584,"Ġ566":9585,"Ġ579":9586,"1732":9587,"436":9588,"à¤īà¤¥à¤«":9589,"à¥Ĥà¤ģà¥¤'":9590,"à¤Īà¤ıà¤¸à¤Ī":9591,"à¤Ĺà¤ªà¤¶à¤ª":9592,"Ġ558":9593,"702":9594,"553":9595,"à¤Ĩà¤¨à¤µ":9596,"Ġà¤ħà¤¸à¤²à¤®":9597,"Ġ1349":9598,"Ġrd":9599,"995":9600,"1729":9601,"901":9602,"906":9603,"Ġà¤ķà¤°à¤¬":9604,"à¤¬à¤°à¤¹":9605,"516":9606,"1675":9607,"491":9608,"Ġà¤ħà¤¥à¤¨":9609,"Ġà¤¨à¤Łà¤²":9610,"Ġ1301":9611,"ions":9612,"à¤Īà¤Ĩà¤Īà¤¯":9613,"584":9614,"Ġbr":9615,"act":9616,"676":9617,"Ġà¤Ĺà¤ª":9618,"014":9619,"Ġ589":9620,"Ġà¤Ĩà¤Īà¤ıà¤¸à¤Ĩà¤Ī":9621,"765":9622,"à¤¾à¥¤(":9623,"Ġ1282":9624,"à¤īà¤¥à¤¸":9625,"679":9626,"Ġwere":9627,"Ġfm":9628,"697":9629,"sf":9630,"Ġà¤ĵà¤ĩà¤°":9631,"Ġà¤ıà¤²à¤¡à¤¬":9632,"Ġà¤ıà¤«à¤ıà¤¸":9633,"527":9634,"à¥Ģà¥¤;":9635,"Ġà¤ıà¤®à¤ıà¤¸à¤ıà¤¨à¤¬":9636,"613":9637,"Ġà¤¸à¤¨à¤Ł":9638,"à¥Ī?\"(":9639,"576":9640,"à¥Ģ\":":9641,"à¤¾-'":9642,"Ġgo":9643,"Ġà¤ĩà¤°à¤Ĺà¤¨":9644,"Ġà¤¡à¤Ĺà¤°":9645,"528":9646,"544":9647,"1728":9648,"à¤Ĩà¤Īà¤Īà¤¸":9649,"à¤ıà¤¡à¤²à¤°":9650,"1702":9651,"¼Ģ":9652,"Ãİ":9653,"1598":9654,"909":9655,"522":9656,"à¤ķà¤ķà¤²":9657,"Ġà¤¬à¤ķà¤¹":9658,"1609":9659,"Ġ754":9660,"ĠÃ¶re":9661,"036":9662,"á¼Ģ":9663,"1726":9664,"865":9665,"642":9666,"Ġà¤®à¤Ĺà¤²":9667,"Ġà¤ıà¤Ĺà¤²":9668,"Ġ914":9669,"%);":9670,"à¤ªà¤ł":9671,"à¤Ĥ)à¥¤":9672,"à¤¦à¤¹à¤¨":9673,"à¤¥à¤°à¤®":9674,"514":9675,"608":9676,"à¥Īà¥¤âĢĻ":9677,"Ġ925":9678,"à¤Ĩà¤¤à¤²":9679,"à¥ĩà¥¤..\"":9680,"447":9681,"Ġ594":9682,"oh":9683,"xr":9684,"à¤ĥ//":9685,"Ġ718":9686,"958":9687,"à¤¡à¤®à¤¨":9688,"à¤·à¤¶":9689,"à¤Łà¤¨à¤°à¤¶":9690,"new":9691,"028":9692,"048":9693,"398":9694,"SA":9695,"Ġà¤ıà¤¸à¤ıà¤²à¤¸":9696,"à¤¬à¤¦à¤¦":9697,"978":9698,"Ġ(;;":9699,"à¤¸à¤ķà¤¨":9700,"1683":9701,"à¤¬à¤Łà¤°à¤«":9702,"à¤ĩà¤ĵà¤²":9703,"à¤¹à¤°à¤µà¤°":9704,"Ġ712":9705,"mile":9706,"à¤¸à¤²à¤ķ":9707,"Ġ917":9708,"Ġ1308":9709,"Ġ644":9710,"Ġpp":9711,"023":9712,"ven":9713,"à¤¼à¤¾),":9714,"Ġà¤ıà¤Łà¤ª":9715,"Ġà¤Ĩà¤Īà¤ĵà¤ıà¤¸":9716,"Ġà¤ħà¤¤à¤¸":9717,"715":9718,"xl":9719,"à¤¤à¤Ń":9720,"à¤¬à¤¬à¤²":9721,"à¤ħà¤¨à¤²":9722,"Ġ(\")":9723,"à¤¬à¤¨à¤¨":9724,"Ġcan":9725,"016":9726,"035":9727,"785":9728,"Ġ664":9729,"Ġ709":9730,"045":9731,"Ġà¤ĩà¤ĵ":9732,"Ġ638":9733,"668":9734,"Ġ\"$":9735,"013":9736,"mb":9737,"1540":9738,"à¤ħà¤ĺ":9739,"1716":9740,"804":9741,"à¤ľà¤²à¤¨":9742,"526":9743,"à¤²à¤Łà¤¸":9744,"à¤ĵà¤¦":9745,"à¤¡à¤¨à¤²":9746,"1717":9747,"à¤¡à¤ıà¤«":9748,"Ġ1402":9749,"636":9750,"1738":9751,"654":9752,"ild":9753,"aid":9754,"à¥ĭ]\"":9755,"à¤Łà¤¡à¤¬":9756,"à¤Īà¤ı":9757,"Ġà¤ĳà¤²à¤ľ":9758,"Ġkn":9759,"589":9760,"à¤ķà¤°à¤ĺ":9761,"ÏĦÎ¿Î½":9762,"Ġà¤ıà¤ļà¤ıà¤¸à¤µ":9763,"Ġà¤²à¤µà¤Ł":9764,"à¤¬à¤°à¤Ĺà¤°":9765,"Ġ732":9766,"à¤Ĩà¤°à¤ıà¤®":9767,"Ġ902":9768,"Ġ643":9769,"à¤µà¤°à¤¬à¤°":9770,"ster":9771,"à¤°à¤ļà¤°":9772,"à¤īà¤¨à¤Łà¤¨":9773,"rs":9774,"Ġà¤īà¤®à¤²":9775,"1721":9776,"à¤ĩà¤µà¤¸":9777,"Ġ903":9778,"are":9779,"Ġ1241":9780,"Ġà¤¬à¤¦à¤ķ":9781,"Ġ592":9782,"Ġ|%":9783,"Ø§ÙĦ":9784,"à¤°à¤²à¤¯":9785,"Ġà¤®à¤¡à¤Ĺ":9786,"à¤ħà¤¨à¤Ł":9787,"Ġà¤īà¤¤à¤°à¤ķà¤°":9788,"Ġà¤ıà¤®à¤¡à¤¬":9789,"Ġà¤«à¤°à¤ľ":9790,"Ġ646":9791,"513":9792,"Ġ1140":9793,"à¤īà¤Ńà¤¯à¤ļà¤°":9794,"548":9795,"Ġà¤¨à¤¨à¤ķ":9796,"Ġ1377":9797,"ij":9798,"à¤ĵà¤ıà¤²":9799,"065":9800,"à¤¡à¤¸à¤®à¤°":9801,"Ġà¤ĳà¤¯à¤°":9802,"704":9803,"557":9804,"ence":9805,"Ġà¤¬à¤¸à¤¤":9806,"Ġà¤ıà¤ıà¤¸à¤ª":9807,"1645":9808,"à¤¸à¤°à¤¬":9809,"à¤£à¤¨à¤ĸ":9810,"Ġthey":9811,"à¤¬à¤µà¤°":9812,"703":9813,"549":9814,"1654":9815,"539":9816,"Ġà¤Ĺà¤Ĺ":9817,"1712":9818,"-),":9819,"à¤Ĩà¤µà¤§":9820,"Ġà¤ħà¤¤à¤²":9821,"Ġ1482":9822,"Ġ657":9823,"586":9824,"nh":9825,"à¤¨à¤ĸà¤°":9826,"1697":9827,"Ġà¤Ĩà¤ĩà¤¸à¤¨":9828,"439":9829,"gu":9830,"à¥ĭà¤Ĥ?\"":9831,"Ġà¤¶à¤®à¤¶":9832,"1641":9833,"914":9834,"unt":9835,"Ġà¤ĸà¤¯":9836,"à¤¯à¤®à¤µ":9837,"à¤ĩà¤ķà¤«":9838,"à¤ļà¤²à¤ļ":9839,"905":9840,"à¤®à¤¦à¤Ĺ":9841,"à¤¦à¤°à¤ª":9842,"529":9843,"à¤¸à¤²à¤¹":9844,"1560":9845,"rance":9846,"à¤¬à¤Ĺà¤²":9847,"à¥Ī>":9848,"Ġà¤¡à¤¨à¤¹":9849,"Ġà¤Īà¤¨":9850,"Ġà¤Īà¤Ĺ":9851,"à¥Ģà¥¤..\"":9852,"à¤®à¤¯à¤ķ":9853,"Ġ656":9854,"857":9855,"864":9856,"Ġint":9857,"Ġ593":9858,"à¤Ĩà¤¬à¤°":9859,"à¤ªà¤¨à¤¬":9860,"à¤¨à¤°à¤¡":9861,"Ġ695":9862,"651":9863,"à¤Ŀà¤°à¤¨":9864,"à¤ĩà¤¸à¤¡":9865,"1643":9866,"à¤¹à¤ļà¤°":9867,"à¤¥à¤²à¤°":9868,"1703":9869,"kr":9870,"Ġà¤°à¤¬à¤¡":9871,"Ġ1496":9872,"588":9873,"à¥ĭà¤Ĥ-\"":9874,"à¤¾!\",":9875,"Ġà¤¶à¤°à¤¤":9876,"à¤ĵà¤¸à¤¬":9877,"Ġà¤ħà¤²à¤«":9878,"Ġ1234":9879,"Ġà¤ıà¤¬à¤°à¤¦":9880,"6000":9881,"à¤Ĺà¤¨à¤¶":9882,"Ġà¤¹à¤¸à¤¬":9883,"794":9884,"Ġà¤°à¤¦à¤°":9885,"à¤®à¤ķà¤µ":9886,"Ġ1399":9887,"à¤ªà¤²à¤¸":9888,"ĠÏĦÎ¿Î½":9889,"à¤²à¤¸à¤¸":9890,"717":9891,"à¤¸à¤Ĳà¤ª":9892,"à¤Ĺà¤®à¤¤":9893,"594":9894,"633":9895,"à¤§à¤¸à¤®":9896,"à¤°à¤£à¤¤":9897,"Ġ652":9898,"Ġ805":9899,"652":9900,"ace":9901,"Ġà¤¥à¤¨":9902,"Ġà¤ļà¤Ĺ":9903,"Ġ735":9904,"1635":9905,"1661":9906,"à¤Ĺà¤°à¤Ĺ":9907,"Ġà¤Ĩà¤Īà¤¸à¤²":9908,"1649":9909,"1632":9910,"Ġà¤«à¤¡":9911,"à¤¾à¤ģ)à¥¤":9912,"Ġà¤ľà¤¨à¤¸à¤®":9913,"Ġ812":9914,"Ġà¤¶à¤¹à¤ľ":9915,"Ġwho":9916,"Ġà¤ľà¤¯à¤¦":9917,"Ġà¤¶à¤Ĺ":9918,"Ġ569":9919,"Ġ1120":9920,"Ġ716":9921,"à¤ĩà¤¡à¤Ĺ":9922,"Ġman":9923,"à¤ıà¤¥à¤°":9924,"056":9925,"Ġhim":9926,"Ġà¤ķà¤°à¤¸":9927,"Ġà¤¶à¤¬à¤°":9928,"Ġ598":9929,"964":9930,"Ġà¤¸à¤¨à¤²":9931,"Ġ713":9932,"Ġà¤®à¤°à¤ķ":9933,"Ġà¤ıà¤®à¤ıà¤¸à¤ıà¤¸":9934,"Ġ1210":9935,"841":9936,"Ġ\"),\"":9937,"Ġcr":9938,"Ġ908":9939,"976":9940,"Ġà¤ħà¤ªà¤ĺà¤Ł":9941,"Ġ1455":9942,"493":9943,"727":9944,"Ġ1307":9945,"778":9946,",,,,,,,,,,,,,,,,,,,,,,,,,,,,,,,,,,,,,,,,,,,,,,,,,,,,,,,,,,,,,,,,":9947,".\")":9948,"Ã¢":9949,"Ġà¤Ĩà¤°à¤¹à¤¸":9950,"ĠÎ¬":9951,"519":9952,"581":9953,"Ġà¤īà¤®à¤¡":9954,"à¤²à¤ĺà¤°":9955,"à¤¡à¤°à¤¤":9956,"Ġ741":9957,"Ġ1478":9958,"1638":9959,"zz":9960,"ĠÏĢÎ¿":9961,"629":9962,"à¤°à¤®à¤µ":9963,"1699":9964,"Ġ658":9965,"Ġ\"[[":9966,"489":9967,"Ġthere":9968,"à¤¯à¤¦à¤²":9969,"Ġà¤¨à¤¸à¤°":9970,"Ġà¤ıà¤ľà¤ķ":9971,"à¤°à¤£à¤¶":9972,"Ġà¤ıà¤²à¤ıà¤¨à¤¬":9973,"Ġ768":9974,"à¥Ĥà¥¤,":9975,"Ġà¤ıà¤Ĺà¤¬":9976,"Ġà¤Ķà¤¨":9977,"Ġà¤Łà¤¬à¤®":9978,"1621":9979,"Ġà¤ıà¤¬à¤µ":9980,"866":9981,"815":9982,"Ġà¤ĵà¤ĩ":9983,"à¤®à¤¤à¤²à¤¬":9984,"Ġà¤ħà¤ªà¤Łà¤¨":9985,"à¤ıà¤¨à¤ıà¤ļ":9986,"1666":9987,"Ã¶n":9988,"yn":9989,"Ġ653":9990,"à¤¸à¤¸à¤¨":9991,"Ġ678":9992,"Ġà¤ľà¤²à¤ķà¤°":9993,"Ġ1386":9994,"Ġà¤¸à¤®à¤¬":9995,"2025":9996,"à¤ªà¤¹à¤®":9997,"à¤ĩà¤µà¤¨":9998,"1704":9999,"à¤ķà¤Łà¤µ":10000,"à¤Ĩà¤Īà¤ĵà¤µ":10001,"587":10002,"Ġà¤ħà¤¯à¤¤":10003,"à¤¼à¥Ĥ\"":10004,"à¥ĭà¥¤âĢĿ":10005,"792":10006,"Ø¹":10007,"à¤¨à¤µà¤ª":10008,"1629":10009,"à¤°à¤¨à¤¬":10010,"985":10011,"ker":10012,"Ġstat":10013,"à¤¸à¤¡à¤²":10014,"à¤®à¤¶à¤°":10015,"Ġ591":10016,"Ġ0000":10017,"Ġsm":10018,"à¤ħà¤°à¤µ":10019,"Ġà¤Ĩà¤¯à¤°à¤¨à¤¸":10020,"ire":10021,"à¤¨à¤°à¤µ":10022,"à¤¬à¤Ĺà¤°":10023,"Ġ1395":10024,"1658":10025,"769":10026,"Ġà¤Ĺà¤Łà¤°":10027,"Ġ637":10028,"1665":10029,"âĢĶ":10030,"à¤īà¤¥à¤¹":10031,"566":10032,"611":10033,"à¤ķà¤ı":10034,"à¤ķà¤ıà¤¡à¤°":10035,"à¤¡à¤Ĺà¤²":10036,"à¤¶à¤¹à¤¦":10037,"Ġ688":10038,"Ġ703":10039,"997":10040,"Ġà¤¬à¤¸à¤µ":10041,"Ġà¤ĳà¤«à¤°":10042,"à¤§à¤¨à¤ª":10043,"022":10044,"à¤Īà¤ªà¤°":10045,"Ġ1347":10046,"Ġmcl":10047,"à¤ħà¤µà¤®":10048,"Ġà¤ħà¤ķà¤°à¤®":10049,"à¤Łà¤¶à¤¬":10050,"à¤¾à¤ģ!\"":10051,"Ġcf":10052,"ÑĤÑĥ":10053,"!,":10054,"à¤ħà¤¬à¤°":10055,"Ġ745":10056,"684":10057,"622":10058,"Ġ915":10059,"Ġ1388":10060,"682":10061,"578":10062,"Ġ722":10063,"Ġ724":10064,"à¤²à¤®à¤£":10065,"803":10066,"Ġ708":10067,"532":10068,"Ġ684":10069,"2500":10070,"à¤¾]à¥¤":10071,"Ê¼Ê¼Ê¼Ê¼Ê¼Ê¼Ê¼Ê¼Ê¼Ê¼Ê¼Ê¼Ê¼Ê¼Ê¼Ê¼Ê¼Ê¼Ê¼Ê¼Ê¼Ê¼Ê¼Ê¼Ê¼Ê¼Ê¼Ê¼Ê¼Ê¼Ê¼Ê¼":10072,"626":10073,"à¤§à¤°à¤¨":10074,"Ġ662":10075,"751":10076,"à¤ĵà¤µà¤°à¤Ł":10077,"021":10078,"912":10079,"à¤ĩà¤ĺ":10080,"à¤®à¤¨à¤¬":10081,"498":10082,"à¤¢à¤ķà¤°":10083,"561":10084,"694":10085,"Ú©":10086,"Ġ819":10087,"////////////////":10088,"Ġà¤Ĩà¤¯à¤°à¤¨à¤µà¤°":10089,"Ġà¤¯à¤Ĺ":10090,"772":10091,"031":10092,"821":10093,"à¤ĩà¤ªà¤ķ":10094,"à¤²à¤°à¤¨":10095,"à¤²à¤¬à¤®":10096,"à¤¡à¤°à¤Łà¤¨":10097,"à¤ļà¤°à¤Ł":10098,"Ġcd":10099,"057":10100,"Î´Î¹":10101,"à¤ıà¤Łà¤¨":10102,"à¤ıà¤®à¤¨":10103,"à¤¨à¤µà¤²":10104,"à¤ķà¤Łà¤®":10105,"1596":10106,"Î¬Î½":10107,"à¤°à¤ªà¤¨":10108,"à¤ĵà¤ı":10109,"à¤ĩà¤®à¤Ĩà¤īà¤Ł":10110,"827":10111,"ze":10112,"à¤¤à¤¨à¤ĸ":10113,"à¤¬à¤¨à¤¯":10114,"Ġ907":10115,"659":10116,"Ġ904":10117,"Ġà¤Ńà¤Ĺà¤µà¤¤":10118,"546":10119,"647":10120,"à¤ķà¤Ĺà¤¨":10121,"à¤ĺà¤¨à¤ķ":10122,"à¤ģ)à¥¤":10123,"Ġ596":10124,"Ġ1476":10125,"517":10126,"567":10127,"719":10128,"735":10129,"Ġ978":10130,"066":10131,"696":10132,"à¤ıà¤²à¤ıà¤²":10133,"1652":10134,"Ġà¤Ĺà¤®à¤²":10135,"Ġ2040":10136,"Ġ826":10137,"à¤ĩà¤ķà¤µ":10138,"774":10139,"Ġà¤ħà¤¯à¤®":10140,"-?)":10141,"Ġà¤ıà¤ıà¤¸à¤Ł":10142,"Ġà¤Ĺà¤¨à¤¶":10143,"Ġ985":10144,"762":10145,"à¥Ĥ!\"":10146,"Ġà¤ħà¤¸à¤Ĺ":10147,"Ġ1030":10148,"à¤¬à¤¥à¤¨":10149,"1731":10150,"868":10151,"Ä±r":10152,"Ġ748":10153,"Ġ1425":10154,"1705":10155,"/'":10156,"Ġ1385":10157,"096":10158,"1662":10159,"1656":10160,"ÑĩÑĥ":10161,"Ġà¤Ĩà¤°à¤ıà¤«":10162,"Ġà¤¬à¤ļà¤°à¤ļ":10163,"754":10164,"955":10165,"867":10166,"1624":10167,"908":10168,"Ġà¤¸à¤¹à¤ªà¤°":10169,"1711":10170,"648":10171,"à¤ħà¤ªà¤Ł":10172,"574":10173,"893":10174,"à¤ħà¤¨à¤¬":10175,"Ġà¤®à¤¸à¤°":10176,"à¤ļà¤ķà¤²":10177,"Ġ1225":10178,"773":10179,"%\"":10180,"à¤ķà¤®à¤ķ":10181,"756":10182,"ĠXXXVI":10183,"095":10184,"Ġ865":10185,"757":10186,"à¤¹à¤Łà¤¨":10187,"Ġà¤ħà¤Ĺà¤¬":10188,"071":10189,"Ġ744":10190,"Ġ1285":10191,"1719":10192,"1368":10193,"889":10194,"Ġ753":10195,"Ġà¤¸à¤¬à¤®à¤¶":10196,"à¥Ģ..":10197,"771":10198,"à¤°à¤¤à¤¨":10199,"Ġà¤ĵà¤°à¤¹":10200,"à¤®à¤ķà¤®à¤ķ":10201,"Ġà¤¬à¤Łà¤ķ":10202,"1676":10203,"1682":10204,"à¤¼à¥ģ,":10205,"che":10206,"Ġà¤®à¤Ĺà¤§":10207,"672":10208,"745":10209,"à¤¸à¤ıà¤¨":10210,"Ġ672":10211,"à¤Ĩà¤Īà¤¬":10212,"853":10213,"Ø§ÙĨ":10214,"Ġà¤īà¤ĩà¤Ĺà¤°":10215,"à¤ķà¤°à¤¦":10216,"631":10217,"Ġà¤¬à¤«à¤¨":10218,"Ġ895":10219,"Ġà¤¸à¤¬à¤¯":10220,"027":10221,"à¤«à¤Łà¤¨":10222,"à¤®à¤¨à¤ľ":10223,"Ġ721":10224,"Ġ726":10225,"Ġ855":10226,"Ġ996":10227,"1709":10228,"Ġà¤¬à¤°à¤ķà¤¤":10229,"537":10230,"Ġ\")\"":10231,"Ġchr":10232,"Ġ686":10233,"Ġ742":10234,"543":10235,"935":10236,"sc":10237,"à¤¯à¤°à¤¥":10238,"Ġà¤Ĩà¤°à¤ıà¤¸à¤ıà¤¸":10239,"1655":10240,"à¤¸à¤¬à¤µ":10241,"iy":10242,"Ġà¤°à¤ķà¤¤":10243,"1520":10244,"085":10245,"929":10246,"bf":10247,"678":10248,"à¤ħà¤¹à¤®":10249,"à¤Ĩà¤Łà¤²":10250,"Ġà¤ıà¤ļà¤ıà¤ķ":10251,"019":10252,"686":10253,"ica":10254,"ations":10255,"à¤Ŀà¤¦":10256,"à¤ıà¤¸à¤¡à¤¬":10257,"Ġ814":10258,"à¥Īà¤ĥ-":10259,"Ġ803":10260,"Ġbeen":10261,"017":10262,"713":10263,"Ġà¤®à¤¨à¤¶":10264,"Ġ654":10265,"653":10266,"ake":10267,"Ġà¤ĵà¤Łà¤¸":10268,"916":10269,"Ġà¤ľà¤°à¤¬":10270,"à¤ıà¤²à¤ıà¤ķ":10271,"981":10272,"038":10273,"639":10274,"à¤Īà¤Łà¤¨":10275,"Ġà¤Ĩà¤®à¤²":10276,"Ġ583":10277,"Ġ663":10278,"Ġ813":10279,"972":10280,"674":10281,"547":10282,"814":10283,"Ġà¤ķà¤µà¤²":10284,"à¥ĩà¥¤.":10285,"à¥ĭ,\"":10286,"ĠÄįesk":10287,"562":10288,"788":10289,"|\"":10290,"Ġ681":10291,"à¤ħà¤¦à¤²":10292,"Ġà¤Īà¤²à¤®":10293,"Ġ975":10294,"Ġmy":10295,"026":10296,"à¤¨à¤ħà¤ª":10297,"à¤ªà¤¦à¤¨":10298,"à¤īà¤ľà¤°":10299,"à¤Ĩà¤°à¤¯":10300,"bd":10301,"à¤¨à¤¹à¤²":10302,"Ġà¤ķà¤¥à¤°":10303,"Ġà¤Īà¤µà¤¨":10304,"559":10305,"jÃ¶rn":10306,"596":10307,"Ġà¤®à¤¨à¤°":10308,"Ġ1375":10309,"817":10310,"à¤«à¤¦":10311,"ough":10312,"à¤²à¤°à¤µ":10313,"Ġ1297":10314,"à¤Ńà¤Łà¤ķà¤¨":10315,"919":10316,"à¤¸à¤¦à¤®":10317,"Ġ1435":10318,"/à¥¤":10319,"627":10320,"885":10321,"à¤¸à¤ıà¤Łà¤²":10322,"à¤¶à¤Łà¤²":10323,"Ġ1314":10324,"Ġà¤ķà¤¨à¤²":10325,"à¤ĩà¤Łà¤¬à¤°":10326,"à¤īà¤ªà¤¸à¤°":10327,"à¤ĩà¤¬à¤°à¤Ĺ":10328,"049":10329,"à¥ĩà¤Ĥ\"),":10330,"759":10331,"Ġà¤Īà¤¯à¤°à¤µ":10332,"033":10333,"541":10334,"665":10335,"726":10336,"of":10337,"Ġà¤¬à¤¹à¤²":10338,"Ġ845":10339,"Ġ673":10340,"861":10341,"Ġone":10342,"ĠGM":10343,"634":10344,"816":10345,"899":10346,"Ġà¤¹à¤Łà¤°":10347,"Ġà¤ľà¤¬à¤°":10348,"Ġ1381":10349,"Ġ755":10350,"Ġà¤ĩà¤¯à¤°à¤¹":10351,"Ġà¤ıà¤«à¤µ":10352,"Ġ965":10353,"à¤¼à¥ĭà¥¤":10354,"572":10355,"Ġà¤ĳà¤«à¤¬":10356,"à¥Īà¤Ĥà¤ĥ-":10357,"932":10358,"067":10359,"Ġ956":10360,"à¥Īà¥¤à¥¤à¥¤\"à¥¤":10361,"Ġ936":10362,"1651":10363,"776":10364,"054":10365,"728":10366,"Ġà¤ĵà¤ķà¤¡":10367,"1530":10368,"Ġà¤ĵà¤ķà¤®":10369,"Ġsuch":10370,"................................................................................................................................................................................................................................":10371,"Ġà¤¸à¤¶":10372,"Ġà¤¯à¤®à¤¦":10373,"1623":10374,"Ġà¤ĭà¤Ĺ":10375,"902":10376,"758":10377,"818":10378,"à¤ķà¤®à¤¤":10379,"à¥ģà¥ĭà¤Ĥ":10380,"à¤ķà¤²à¤¸à¤«":10381,"Ġ1312":10382,"1592":10383,"047":10384,"582":10385,"à¤ıà¤ıà¤¸à¤ª":10386,"à¤Ĩà¤īà¤Łà¤°":10387,"ĠÃ¶rebro":10388,"Ġà¤Łà¤ľ":10389,"1611":10390,"882":10391,"845":10392,"à¥Ī,-":10393,"Ġ811":10394,"Ġ962":10395,"Ġkr":10396,"Ġà¤Ĭà¤®":10397,"Ġ1185":10398,"à¤¸à¤°à¤«":10399,"à¤°à¤Ĺà¤¢":10400,"ÐµÐµ":10401,"Ġfis":10402,"Ġà¤Ĺà¤²à¤Ĺ":10403,"Ġà¤¤à¤°à¤¸":10404,"Ġà¤¸à¤°à¤«":10405,"à¥Ĥà¤Ĥ?":10406,"884":10407,"à¤¨à¤¤à¤®à¤¤":10408,"Ġ806":10409,"852":10410,"977":10411,"744":10412,"ĠJ":10413,"à¤ĩà¤īà¤Ł":10414,"Ġà¤ĩà¤¯à¤¨":10415,"Ġà¤ıà¤¸à¤Ĺ":10416,"664":10417,"Ġ)à¥¤":10418,"Ġà¤Ķà¤°à¤²":10419,"058":10420,"Ġà¤ıà¤Ĺà¤¬à¤°":10421,"687":10422,"Ġ676":10423,"Ġ669":10424,"1634":10425,"à¤¨à¤ľà¤Ī":10426,"à¤¤à¤¨à¤¦":10427,".-----":10428,"621":10429,"pe":10430,"Ġà¤¸à¤¹à¤µà¤°":10431,"Ġ687":10432,"809":10433,"à¤¾!\"à¥¤":10434,"à¤ıà¤ĵà¤¸":10435,"Ġà¤ħà¤¸à¤«":10436,"Éĳ":10437,"à¥Īà¤Ĥà¥¤\"à¥¤":10438,"Ġ649":10439,"718":10440,"753":10441,"591":10442,"Ġ944":10443,"Ġ1464":10444,"029":10445,"mol":10446,"à¤ªà¤«à¤°":10447,"Ġ668":10448,"à¤Ĩà¤Īà¤®":10449,"Ġ1265":10450,"Ġà¤ĩà¤²à¤ĸ":10451,"Ġà¤Ĺà¤Łà¤®":10452,"Ġà¤¶à¤®à¤¸":10453,"Ġ1315":10454,"869":10455,"998":10456,"à¤ħà¤ħà¤ħà¤ħà¤ħà¤ħà¤ħà¤ħ":10457,"598":10458,"à¤µà¤Ĺà¤¨":10459,"Ġ785":10460,"Ġ=-":10461,"996":10462,"Ġà¤Ĩà¤ĵà¤®":10463,"Ġà¤ĩà¤¶à¤®":10464,"Ġ1322":10465,"638":10466,"Ġcl":10467,"à¤ıà¤ıà¤ıà¤«":10468,"Ã¶y":10469,"823":10470,"à¤°à¤Łà¤²":10471,"à¤Łà¤®à¤¨":10472,"Ġà¤ĵà¤¬à¤°à¤¸":10473,"à¤¨à¤ķà¤°à¤£":10474,"Ġà¤ıà¤®à¤®":10475,"863":10476,"Ġ751":10477,"579":10478,"à¥ĩà¤Ĥ]]":10479,"Ġ2035":10480,"à¤°à¤¤à¤²":10481,"Ġ1274":10482,"à¤¿\":":10483,"706":10484,"Ġà¤¬à¤¡à¤Ĺ":10485,"939":10486,"à¥Ģà¥ĭ":10487,"à¤ĳà¤µà¤°":10488,"Ġshe":10489,"716":10490,"936":10491,"mc":10492,"à¤¹à¤¨à¤®":10493,"Ġà¤Ŀà¤°":10494,"Ġ1487":10495,"Ġ+/-":10496,"Ġà¤ħà¤¹à¤®à¤¦à¤¨à¤Ĺà¤°":10497,"8000":10498,"844":10499,"à¤Ŀà¤Ĺà¤¡":10500,"Ġ833":10501,"Ġà¤ķà¤Łà¤¥":10502,"966":10503,"946":10504,"657":10505,"683":10506,"à¥ĩ?'":10507,"ĠØ¨":10508,"xiii":10509,"Ġ929":10510,"Ġ2700":10511,"ĠÎ¿":10512,"Ġà¤ıà¤ķà¤«":10513,"Ġ1305":10514,"à¤¾à¥¤âĢĻ":10515,"623":10516,"923":10517,"Ġà¤ħà¤¶à¤°à¤«":10518,"982":10519,"Ġany":10520,"à¤Łà¤ķà¤²":10521,"Ġà¤ıà¤¸à¤ıà¤«":10522,"1612":10523,"741":10524,"915":10525,"Ġà¤¬à¤Ĺà¤°":10526,"1627":10527,"à¥Ī!\"à¥¤":10528,"à¤ļà¤®à¤Ĺ":10529,"Ġà¤ķà¤²à¤¸":10530,"Ġ927":10531,"1628":10532,"862":10533,"761":10534,"à¤¼à¥Į,":10535,"à¤ħà¤°à¤ķ":10536,"Ġ\"/\"":10537,"Ġà¤ħà¤²à¤¦":10538,"669":10539,"573":10540,"842":10541,"à¤§à¤ķà¤¤":10542,"887":10543,"984":10544,"ans":10545,"597":10546,"721":10547,"Ġà¤¨à¤ľà¤®":10548,"Ġ1474":10549,"851":10550,",à¥¤..":10551,"à¤ħà¤¨à¤¨":10552,"à¤ªà¤°à¤¥":10553,"Ġà¤Ĩà¤°à¤ıà¤®":10554,"Ġà¤īà¤²à¤Łà¤¤":10555,"Ġ756":10556,"à¥ĩà¤Ĥ--":10557,"Ġà¤¸à¤®à¤Ŀà¤ķà¤°":10558,"Ġ909":10559,"?-":10560,"à¤¬à¤¦à¤²à¤¤":10561,"Ġ1316":10562,"649":10563,"689":10564,"Ġà¤¡à¤ļà¤²":10565,"Ġ1303":10566,"658":10567,"055":10568,"1695":10569,"903":10570,"983":10571,"ĠCO":10572,"à¥Īà¤Ĥ',":10573,"à¤Ĺà¤²à¤¬à¤°":10574,"à¥Ģà¤Ĥà¥¤)":10575,"724":10576,"732":10577,"Ġà¤īà¤ªà¤²":10578,"Ġ683":10579,"à¤īà¤¦à¤¯":10580,"835":10581,"à¤°à¤¨à¤®":10582,"1616":10583,"!\",\"":10584,"068":10585,"à¤Īà¤ıà¤¨":10586,"Ġ1333":10587,"1686":10588,"yyyy":10589,"à¤°à¤¨à¤ª":10590,"Ġ945":10591,"ĠPh":10592,"$$$$":10593,"à¤Ĺà¤ľà¤¨":10594,"à¤Łà¤¸à¤°":10595,"Ġ728":10596,"Ġ817":10597,"Ġ1397":10598,"Ġà¤ıà¤®à¤¹à¤°":10599,"chi":10600,"624":10601,"883":10602,"à¤¸à¤¶à¤°":10603,"à¤¬à¤°à¤ª":10604,"Ġà¤¡à¤Ĺà¤®":10605,"Ġà¤ıà¤¬à¤¬":10606,"824":10607,"1604":10608,"Ġ(;;)":10609,"962":10610,"/)":10611,"828":10612,"Ġà¤ıà¤®à¤ıà¤²à¤¸":10613,"Ġ918":10614,"599":10615,"nt":10616,"812":10617,"zm":10618,"à¤ªà¤°à¤Łà¤²":10619,"Ġà¤ħà¤¸à¤Ĺà¤°":10620,"à¤ıà¤«à¤Ī":10621,"662":10622,"843":10623,"Â°)":10624,"à¤¹à¤²à¤¤":10625,"Ġ679":10626,"Ġ1405":10627,"Î³Î¹":10628,"692":10629,"à¤ģ\")":10630,"1698":10631,"1679":10632,"Ġà¤ªà¤²à¤Łà¤¤":10633,"Ġne":10634,"à¤°à¤¨à¤ħà¤µ":10635,"Ġ1477":10636,"à¤°à¤¨à¤Ĺà¤°":10637,"Ġ1258":10638,"Ġ1484":10639,"779":10640,"Ġà¤ķà¤²à¤¬":10641,"à¤¯à¤¨à¤¬":10642,"Ġ692":10643,"à¥¤\"(\"":10644,"Ġà¤ªà¤¥à¤¨":10645,"à¤¥à¤ľ":10646,"à¤¦à¤°à¤¹":10647,"Ġ1444":10648,"à¤Ĩà¤īà¤Łà¤¸":10649,"854":10650,"XXXXXXXX":10651,"à¤Łà¤²à¤¬à¤°":10652,"Ġà¤¨à¤°à¤®à¤ª":10653,"à¤µà¤Ĺà¤®à¤¨":10654,"1678":10655,"874":10656,"à¤¾?\",":10657,"034":10658,"po":10659,"Ġ1306":10660,"952":10661,"oll":10662,"886":10663,"Ġà¤ħà¤«à¤°":10664,"Ġnf":10665,"à¤Ĺà¤ļà¤°":10666,"à¤¼!":10667,"699":10668,"Ġorg":10669,"à¤ľà¤°à¤®":10670,"Ġà¤īà¤®à¤¨":10671,"Ġà¤ıà¤¸à¤ıà¤²":10672,"973":10673,"mer":10674,"Ġà¤ľà¤¹à¤®à¤¤":10675,"à¤ľà¤°à¤«":10676,"Ġ1328":10677,"671":10678,"838":10679,"à¤ľà¤²à¤°":10680,"à¤¨à¤¬à¤¨":10681,"à¤Ĩà¤¯à¤¤à¤¨":10682,"Ġ1401":10683,"Ġà¤ľà¤¯à¤²":10684,"Ġ1212":10685,"059":10686,"à¤ıà¤µà¤°à¤Łà¤¨":10687,"Ġà¤ıà¤²à¤ıà¤¨à¤¡à¤¬":10688,"763":10689,"Ġ1189":10690,"731":10691,"764":10692,"?),":10693,"à¤īà¤¡à¤µ":10694,"Ġ1413":10695,"1691":10696,"Ġ[(":10697,"Ġunder":10698,"à¥ĩà¤Ĥ',":10699,"Ġà¤¬à¤°à¤Ĺ":10700,"à¤ĵà¤µà¤°à¤µ":10701,"rna":10702,"Ġ682":10703,"Ġ955":10704,",,à¥¤":10705,"Ø¬":10706,"Ġ774":10707,"Ġ828":10708,"1637":10709,"742":10710,":\"":10711,"Ġà¤Ĩà¤Īà¤Ĩà¤Īà¤Ĩà¤Ī":10712,"html":10713,"094":10714,"592":10715,"677":10716,"?]":10717,"à¤ıà¤¡à¤¸":10718,")à¥¤..":10719,"cole":10720,"Ġà¤ĺà¤°à¤µ":10721,"968":10722,"673":10723,"Ġout":10724,"1659":10725,"à¥Ģ],":10726,"à¤¥à¤Īà¤¸":10727,"Ġ1235":10728,"à¤ĩà¤®à¤µ":10729,"à¤¨à¤Łà¤µ":10730,"783":10731,"Ġwould":10732,"847":10733,"à¤ħà¤ªà¤²":10734,"à¤ļà¤²à¤®":10735,"à¤ĩà¤ĵà¤¸":10736,"Ġ1479":10737,"904":10738,"987":10739,"Ġà¤ıà¤µà¤°à¤²":10740,"Ġ2800":10741,"957":10742,"Ġres":10743,"032":10744,"Ġà¤ĩà¤µà¤²":10745,"à¤¨à¤²à¤¸":10746,"Ġ.\"":10747,"Ġ';":10748,"Ġ1421":10749,"Ġ1422":10750,"752":10751,"872":10752,"569":10753,"à¤¨à¤§":10754,"à¤¥à¤¨à¤²":10755,"à¤®à¤¤à¤ªà¤¤":10756,"Ġ677":10757,"Ġ1467":10758,"lÃ©":10759,"Ġà¤ķà¤®à¤¨":10760,"Ġ1403":10761,"1619":10762,"051":10763,"Ġ647":10764,"Ġà¤¸à¤¬à¤¨":10765,"à¤¦à¤ĸ":10766,"à¤¾)\",":10767,"à¥Īà¤Ĥ?\"à¥¤":10768,"à¥Ģ.)-":10769,"663":10770,"945":10771,"Ġà¤²à¤ĸ":10772,"Ġà¤ĸà¤µ":10773,"Ġ928":10774,"Ġgr":10775,"à¤²à¤Łà¤ķà¤¤":10776,"Ġ991":10777,"Ġ1216":10778,"Ġ1454":10779,"Ġ1345":10780,"091":10781,"619":10782,"1615":10783,"Ġ885":10784,"à¥ĭ\")à¥¤":10785,"077":10786,"Ġ1332":10787,"à¤¼à¥ĩà¤Ĥ\",":10788,")-\"":10789,"Ġà¤§à¤µà¤¨":10790,"à¤Łà¤²à¤¹":10791,"Ġ1382":10792,"ever":10793,"Ġà¤ıà¤°à¤¸":10794,"Ġ1199":10795,"871":10796,"Ġ864":10797,"Ġ1392":10798,"Ġà¤¦à¤®à¤ķà¤²":10799,"à¥Ģ%":10800,"Ġà¤¬à¤¨à¤µ":10801,"Ġ733":10802,"Ġ843":10803,"Ġ1404":10804,"1692":10805,"971":10806,"784":10807,"044":10808,"811":10809,"Ġà¤¹à¤¥à¤ķ":10810,"à¥Īà¥¤\")":10811,"1694":10812,"Ġ752":10813,"hi":10814,"Ġà¤Ĩà¤Īà¤ıà¤¸à¤ª":10815,"Ġ1458":10816,"1636":10817,"à¤£à¤°":10818,"à¤ķà¤Ŀ":10819,"1607":10820,"836":10821,"Ġ1469":10822,"1606":10823,"729":10824,"Ġ1465":10825,"1696":10826,"052":10827,"924":10828,"à¤°à¤¶à¤¨":10829,"Ġ822":10830,"Ġ1302":10831,"879":10832,"ĊĠĊĠĊĠĊĠĊĠĊĠĊĠĊĠ":10833,"723":10834,"Ġà¤Ĩà¤¯à¤®":10835,"à¤µà¤°à¤ľ":10836,"Ġ919":10837,"991":10838,"à¤Łà¤¡à¤²":10839,"Ġà¤«à¤¯":10840,"1626":10841,"ÏĢÎµ":10842,"à¤£à¤ľ":10843,"Ġ1459":10844,"à¤ħà¤ªà¤¤à¤Ł":10845,"ĠÐ¼Ð¾":10846,"Ġ736":10847,"Ġ772":10848,"Ġ816":10849,"Ġ1337":10850,"1687":10851,"à¤ıà¤«à¤µ":10852,"092":10853,"à¤¯à¤¡à¤®":10854,"Ġ761":10855,"à¤ĸà¤¨à¤¨à¤ķà¤°":10856,"Ġ1414":10857,"Ġ1326":10858,"Ġà¤Ĩà¤ĩà¤¸à¤®":10859,"Ġ821":10860,"Ġ1481":10861,"à¤Ĳà¤¡":10862,"Ġ1267":10863,"1614":10864,"à¤°à¤ĸà¤ª":10865,"à¤ıà¤ķà¤¡":10866,"Ġ1318":10867,"858":10868,"tttt":10869,"à¤¯à¤¨à¤Łà¤¨":10870,"à¤¸à¤®à¤µà¤°":10871,"à¤µà¤¨à¤¤":10872,"Ġ1284":10873,"Ġ1101":10874,"Ġà¤ĵà¤²à¤¸":10875,"1622":10876,"Ġsub":10877,"743":10878,"Ġdis":10879,"à¤īà¤ķà¤¸":10880,"Ġ762":10881,"Ġ921":10882,"943":10883,"896":10884,"à¤¼à¥ĩ\",":10885,"Ġà¤¹à¤°à¤²":10886,"Ġ835":10887,"1664":10888,"1673":10889,"à¤¨à¤Ĺà¤²":10890,"à¤ıà¤¹à¤°":10891,"à¤ĩà¤ıà¤¸":10892,"à¤°à¤®à¤Ĺ":10893,"Ġà¤Ĩà¤°à¤ıà¤²":10894,"782":10895,"087":10896,"à¤¬à¤²à¤¹":10897,"Ġ913":10898,"1608":10899,"Ġà¤®à¤²à¤ª":10900,"046":10901,"1450":10902,"Ġ*\"":10903,"Ġà¤ıà¤¡à¤²à¤¸":10904,"ex":10905,"Ġ743":10906,"Ġ1486":10907,"992":10908,"?\"(":10909,"ÏĥÏĦ":10910,"Ð³Ð¸":10911,",/":10912,"Ġà¤§à¤¨à¤¬":10913,"Ġà¤ıà¤µà¤Ĺ":10914,"Ð½Ñĭ":10915,"846":10916,"926":10917,"à¤¸à¤°à¤¸à¤¨":10918,"à¤ĩà¤ķà¤²à¤°":10919,"829":10920,"à¤¯à¤ıà¤¸à¤ķ":10921,"Ġà¤¹à¤ķà¤²à¤¬":10922,"à¤«à¤ļ":10923,"Ġà¤Īà¤¯à¤°à¤¬":10924,"Ġà¤Īà¤ıà¤ļà¤ıà¤«":10925,"Ġ1331":10926,"1568":10927,"951":10928,"Ġqf":10929,"637":10930,"Ġà¤ķà¤°à¤Ĺ":10931,"Ġ1394":10932,"à¤¦à¤¶à¤®à¤²à¤µ":10933,"691":10934,"à¤ļà¤ķà¤¶":10935,"053":10936,"aj":10937,"sec":10938,"Ġà¤ıà¤ķà¤¬":10939,"Ġà¤Ĩà¤¹à¤¨":10940,"à¤¾à¥¤à¥¤à¥¤\"à¥¤":10941,"à¤¸à¤¨à¤¸à¤¨":10942,"Ġ842":10943,"Ġbb":10944,"1646":10945,"1684":10946,"Ġà¤°à¤¶à¤®":10947,"à¤¼à¥Ģ\"à¥¤":10948,"à¥Ģ\">":10949,"Ġ1309":10950,"1669":10951,"à¤¨à¤¨à¤¸":10952,"à¤ķà¤²à¤ķà¤¤":10953,"Ġ674":10954,"967":10955,"à¤ģ\"à¥¤":10956,"Ġà¤ĵà¤²à¤¨":10957,"Ġ1472":10958,"Ġ1441":10959,"1602":10960,"993":10961,"974":10962,"Ġ987":10963,"1663":10964,"à¤īà¤¯à¤°":10965,"Ġà¤¨à¤¹à¤²":10966,"à¥ĩ\":":10967,"à¤Ĺà¤¸à¤Ĺ":10968,"ign":10969,"1617":10970,"à¤ĩà¤¬à¤°à¤µ":10971,"069":10972,"766":10973,"933":10974,"à¤¾à¤ģ\"à¥¤":10975,"Ġà¤Ĳà¤®":10976,"à¤²à¤®à¤²":10977,"Ġà¤¸à¤°à¤µà¤°":10978,"Ġ1299":10979,"Ġ1462":10980,"Ġ1335":10981,"1668":10982,"ÏĢÎ±":10983,"à¤ķà¤¤à¤°à¤¨":10984,"à¤°à¤®à¤¬":10985,"Ġà¤®à¤¹à¤¬":10986,"Ġà¤ıà¤«à¤Ĩà¤°":10987,"Ġ851":10988,"Î³Î¿":10989,"fn":10990,"à¤¦à¤Ł":10991,"à¤ķà¤°à¤ª":10992,"1633":10993,"963":10994,"à¥ĭà¤ģ":10995,"Ġ1304":10996,"1613":10997,"064":10998,"à¤¼à¤¾'":10999,"à¤ķà¤°à¤¹":11000,"Ġ1429":11001,">)à¥¤":11002,"à¤Ĩà¤®à¤¨":11003,"Ġ1389":11004,"Ġ1187":11005,"099":11006,"698":11007,"733":11008,"738":11009,"à¤ĩà¤¥à¤®":11010,"à¤ªà¤¸à¤²":11011,"Ġ1229":11012,"1653":11013,"à¤®à¤²à¤¨":11014,"Ġà¤Īà¤¯à¤°à¤²":11015,"Ġper":11016,"Ġ729":11017,"\"...":11018,"Ġà¤¡à¤¨à¤ķ":11019,"1674":11020,"856":11021,"à¤¯à¤Ĺà¤¢":11022,"à¤ĩà¤ĩà¤¥":11023,"à¤¡à¤¸à¤Ĺ":11024,"947":11025,"593":11026,"922":11027,"à¤¨à¤ħà¤°":11028,"Ġ1456":11029,"ina":11030,"039":11031,"848":11032,"à¤¥à¤°à¤µ":11033,"à¤°à¤®à¤ľ":11034,"Ġ1311":11035,"à¤µà¤¨à¤ĺ":11036,"à¤¨à¤ķà¤ª":11037,"Ġ827":11038,"Ġ1279":11039,"1657":11040,"Ġà¤¹à¤°à¤¸":11041,"à¤ĩà¤¬à¤¸":11042,"à¤Īà¤¡à¤¬":11043,"Ġ659":11044,"988":11045,"Ġ824":11046,"1558":11047,"à¤ļà¤²à¤ķà¤°":11048,"Ġwill":11049,"037":11050,"043":11051,"wn":11052,"Ġà¤Ĩà¤ĵà¤Ł":11053,"Ġ995":11054,"881":11055,"à¤®à¤Ĺà¤°":11056,"Ġà¤¨à¤¨à¤¸":11057,"Ġà¤ħà¤²à¤ª":11058,"Ġ719":11059,"098":11060,"041":11061,"billion":11062,"à¤®à¤ªà¤°":11063,"Ġ1356":11064,"à¤¿!":11065,"à¤ļà¤°à¤ķ":11066,"Ġà¤ľà¤¬à¤²à¤ª":11067,"Ġ1431":11068,"color":11069,"Ġà¤¸à¤°à¤Ĺà¤¸":11070,"à¤ľà¤°à¤¡":11071,"Ġ1489":11072,"961":11073,"ata":11074,"693":11075,"832":11076,"Ġ789":11077,"1706":11078,"Ġyd":11079,"097":11080,"Ġà¤®à¤°à¤ľ":11081,"âĢľ":11082,"AA":11083,"Ġ693":11084,"Ġ1227":11085,"076":11086,"826":11087,"Ġ1266":11088,"Ġ804":11089,"798":11090,"à¤ķà¤²à¤ª":11091,"Ġ969":11092,"Ġ1428":11093,"Ġà¤ıà¤¬à¤°à¤«":11094,"Ġ734":11095,"à¤ħà¤²à¤°":11096,"Ġà¤¶à¤ª":11097,"Ġ738":11098,"Ġ1219":11099,"à¤§à¤¨à¤¤":11100,"Ġ878":11101,"Ġ1368":11102,"à¤ıà¤«à¤ĵ":11103,"à¤Łà¤ķà¤¨":11104,"à¤¼à¥Ģà¥¤\"":11105,"Ġà¤ıà¤¨à¤ıà¤ļ":11106,"Ġ867":11107,"Ġà¤ĳà¤¸à¤Ĺ":11108,"à¤ıà¤²à¤ıà¤¨":11109,"Ġ1437":11110,"Ġrec":11111,"[\"":11112,"Ġ699":11113,"Ġ1020":11114,"948":11115,"Ġà¤ĵà¤¡à¤µ":11116,"1080":11117,"749":11118,"Ġ1201":11119,"Ġ781":11120,"Ġ1244":11121,"Ġà¤ıà¤µà¤°à¤¸":11122,"oss":11123,"086":11124,"1588":11125,"799":11126,"748":11127,"897":11128,"les":11129,"à¤ħà¤¬à¤ĸ":11130,"084":11131,"074":11132,"796":11133,"819":11134,"873":11135,"822":11136,"Ġ696":11137,"à¤īà¤¨à¤ª":11138,"Ġ723":11139,"Ġ968":11140,"sm":11141,"Ġà¤ľà¤²à¤Ńà¤°":11142,"959":11143,"Ġà¤Ĩà¤ĵà¤Ī":11144,"Ġà¤ªà¤ªà¤°":11145,"à¤Ńà¤°à¤ķà¤®":11146,"Ġà¤¸à¤ķà¤°":11147,"Ġ922":11148,"Ġà¤¸à¤¬à¤ľ":11149,"Ġ853":11150,"Ġ862":11151,"Ġ1292":11152,"Ġà¤ķà¤ªà¤ķ":11153,"à¤¬à¤ªà¤¤":11154,"Ġà¤ľà¤¯à¤¶":11155,"Ġ1436":11156,"1585":11157,"à¤¦à¤¯à¤¨":11158,"Ġà¤¬à¤ķà¤²à¤°":11159,"Ġ1445":11160,"Ġ1406":11161,"1536":11162,"use":11163,"à¤¯à¤µà¤¨":11164,"à¤ªà¤¨à¤ķà¤°":11165,"Ġà¤ıà¤²à¤ıà¤¸à¤¡":11166,"à¤ĩà¤¨à¤ľ":11167,"Ġ1060":11168,"941":11169,"ĠÃ¼ber":11170,"Ġà¤ħà¤²à¤ľ":11171,"à¤¾\"-\"":11172,"Ġà¤ħà¤¬à¤¬":11173,"Ġ1277":11174,"Ġ1111":11175,"Ġ1408":11176,"942":11177,"000000":11178,"921":11179,"à¤ªà¤ļà¤°":11180,"Ġà¤ľà¤ĺà¤¨":11181,"Ġà¤¨à¤°à¤Ĺ":11182,"Ġà¤ĵà¤ªà¤¨à¤ķ":11183,"à¤ªà¤°à¤Łà¤°":11184,"à¤Ĩà¤Īà¤«":11185,"à¤¶à¤¨à¤µ":11186,"Ġ1217":11187,"à¤ĩà¤®à¤¶":11188,"à¤¹à¤°à¤¦":11189,"à¥Ģà¤Ĥà¥¤'":11190,"Ġ1272":11191,"à¤ªà¤£à¤ķà¤°":11192,"à¤¿à¥¤-":11193,"Ġà¤¶à¤Łà¤²à¤µà¤°":11194,"Ġà¤ļà¤ķà¤µ":11195,"Ġà¤¬à¤°à¤Ľ":11196,"Ġ1202":11197,"Ġ841":11198,"Ġ1278":11199,"Ġ1466":11200,"ition":11201,"ci":11202,"Ġà¤ħà¤ľà¤²":11203,"Ġ896":11204,"736":11205,"927":11206,"Ġ1409":11207,"1571":11208,"Ġmade":11209,"à¤µà¤¨à¤¹":11210,"à¤°à¤¯à¤¸":11211,"à¤¨à¤¸à¤ľ":11212,"Ġ866":11213,"Ġà¤°à¤ķà¤®":11214,"Ġ1324":11215,"849":11216,"Ġà¤¹à¤ľà¤°":11217,"807":11218,"994":11219,"à¥Ĥà¤Ĥà¥¤âĢĿ":11220,"lo":11221,"xa":11222,"Ġà¤īà¤°à¤²":11223,"à¤¹à¤°à¤¸":11224,"Ġà¤ĵà¤µà¤°à¤¶":11225,"à¤ıà¤²à¤¡à¤¬":11226,"937":11227,"à¤¼]":11228,"à¤®à¤¨à¤Ł":11229,"à¥Ĥ.)à¥¤":11230,"à¤¡à¤¨à¤«":11231,"Ġ+/":11232,"Ġdr":11233,"062":11234,"xs":11235,"Ġ1198":11236,"Ġ1298":11237,"à¥Ģ.)\"":11238,"Ġbo":11239,"734":11240,"cf":11241,"Ġà¤µà¤¨à¤µ":11242,"Ġà¤ķà¤ªà¤²à¤°":11243,"Ġ1135":11244,"Ġ759":11245,"]]]]":11246,"à¥¤[":11247,"à¤ħà¤¨à¤®":11248,"878":11249,"à¤Ĩà¤¨à¤®":11250,"Ġ926":11251,"Ġ1342":11252,"à¤īà¤¥à¤ķ":11253,"Ġà¤ıà¤¨à¤ıà¤¸à¤¬":11254,"Ġà¤¸à¤¨à¤µ":11255,"Ġ746":11256,"Ġ844":11257,"Ġ1468":11258,"Ġ1355":11259,"953":11260,"913":11261,"Ġ973":11262,"à¥¤à¥¤]":11263,"Ġcomm":11264,"Ġ1417":11265,"979":11266,"à¤¬à¤«à¤°":11267,"à¤ĩà¤¨à¤¯":11268,"à¤ĩà¤¡à¤¸à¤¡":11269,"Ġ923":11270,"Ġ1491":11271,"Ġ1473":11272,"1647":11273,"à¤Łà¤¶à¤°":11274,"Ġ1264":11275,"à¤Łà¤®à¤¸":11276,"Ġ5500":11277,"à¤°à¤µà¤¦":11278,"à¤ħà¤²à¤¹":11279,"1521":11280,"1601":11281,"aren":11282,"088":11283,"à¤¾à¤Ĥ;":11284,"1677":11285,"Ġ906":11286,"918":11287,"à¤¤à¤ķà¤²":11288,"Ġà¤¸à¤īà¤¦":11289,"Ġà¤ıà¤°à¤ľ":11290,"Ġ861":11291,"Ġ1351":11292,"Ġ809":11293,"Ġ1228":11294,"Ġ1463":11295,"à¤¹à¤²à¤Ĺ":11296,"ited":11297,"bar":11298,"Ûĥ":11299,"à¥ĩà¤ģ":11300,"à¤ªà¤¹à¤¨":11301,"à¤¸à¤¬à¤ķ":11302,"746":11303,"Ġà¤ıà¤ķà¤¨":11304,"à¤ĥ;":11305,"Ġ869":11306,"Ġ972":11307,"ĠÑı":11308,"à¤µà¤Ī":11309,"à¤ħà¤®à¤²":11310,"à¤¸à¤¨à¤«":11311,"Ġà¤ıà¤¨à¤¨":11312,"Ġ823":11313,"Ġ1391":11314,"1572":11315,"1639":11316,"à¤¬à¤²à¤²":11317,"Ġà¤Łà¤ªà¤ķà¤¤":11318,"à¤Łà¤¬à¤²":11319,"Ġ1254":11320,"949":11321,"à¤ķà¤°à¤¡":11322,"Ġ671":11323,"1595":11324,"797":11325,"à¤ħà¤¦à¤®":11326,"Ġ1283":11327,"1693":11328,"793":11329,"à¤«à¤¨à¤¸":11330,"Ġà¤ħà¤¨à¤Ń":11331,"à¤¤à¤¨à¤ķà¤°":11332,"Ġ1090":11333,"Ġà¤ħà¤«à¤ľà¤²":11334,"Ġ1412":11335,"à¥Īà¤Ĥ\")à¥¤":11336,"à¤ħà¤¨à¤ķà¤Ł":11337,"::::::::":11338,"ĠHTTT":11339,".):":11340,"Ġet":11341,"thul":11342,"à¤Łà¤ĳà¤«":11343,"Ġ1138":11344,"à¥¤\"-":11345,"à¤¹à¤¡à¤°":11346,"ĠPM":11347,"Ġ778":11348,"à¤Ĺà¤¨à¤¹":11349,"à¤°à¤¨à¤¨":11350,"Ġà¤ľà¤²à¤ķ":11351,"Ġ[-":11352,"Ġà¤Ĩà¤ĩà¤®":11353,"956":11354,"Ġà¤īà¤¯":11355,"Ġà¤ħà¤¨à¤¸à¤°":11356,"à¤¼à¥ĩ),":11357,"Ġ1242":11358,"Ġrep":11359,"Ġà¤ľà¤°à¤¦":11360,"à¤·à¤°à¤¹":11361,"à¤¹à¤°à¤Ĺ":11362,"Ġ1424":11363,"Ġ1323":11364,"à¤¹à¤²à¤µ":11365,"Ġà¤®à¤¯à¤¨":11366,"Ġ934":11367,"Ġ1439":11368,".(":11369,"078":11370,"Ġ:":11371,"à¤ħà¤ĸà¤°":11372,"Ġà¤ħà¤ķà¤¥à¤¨":11373,"ĠThe":11374,"à¤Ĺà¤¤à¤°":11375,"à¤«à¤°à¤¹":11376,"Ġà¤«à¤ľà¤°":11377,"Ġ691":11378,"Ġ834":11379,"Ġà¤ıà¤ļà¤ıà¤¸à¤¬":11380,"Ġ1205":11381,"Ġà¤°à¤¶à¤¡":11382,"à¤ıà¤®à¤ıà¤¸à¤¸":11383,"Ġ1361":11384,"à¤ħà¤ªà¤µà¤°":11385,"089":11386,"à¤®à¤ķà¤¸":11387,"Ġ689":11388,"093":11389,"à¤ĵà¤Ĺà¤²":11390,"à¤ľà¤¨à¤¶":11391,"Ġ837":11392,"Ġ876":11393,"Ġ879":11394,"Ġ1294":11395,"Ġ1276":11396,"Ġ1317":11397,"Ġ1398":11398,"ÃĹ\"":11399,"à¤ªà¤Ĺà¤²":11400,"à¤īà¤°à¤ķ":11401,"à¤īà¤¸à¤²":11402,"Ġ1248":11403,"Ġà¤ĺà¤ľ":11404,"à¤ķà¤¸à¤¬":11405,"081":11406,"876":11407,"à¤ªà¤¹à¤¨à¤¨":11408,"Ġà¤Ĺà¤¨à¤²":11409,"Ġ1452":11410,"ict":11411,"à¤¤à¤®à¤¨":11412,"Ġ1125":11413,"Ġ1341":11414,"831":11415,"Ġà¤ªà¤«à¤°":11416,"Ġà¤Īà¤µà¤°":11417,"Ġà¤¶à¤Łà¤¡":11418,"Ġ<\"":11419,"989":11420,"Ġprov":11421,"à¤²à¤¯à¤¬à¤¦":11422,"Ġ749":11423,"à¤®à¤¸à¤µ":11424,"Ġ988":11425,"Ġ1451":11426,"à¤Ĩà¤Īà¤Ĩà¤°":11427,"1593":11428,"à¤¡à¤¶à¤Ł":11429,"073":11430,"834":11431,"Ġà¤¡à¤¨à¤«":11432,"à¤¾à¤Ĥ'":11433,"Ġ847":11434,"à¤²à¤°à¤¹à¤®":11435,"Ġà¤¤à¤ķà¤¸":11436,"Ġ993":11437,"à¤ķà¤Łà¤¸":11438,"à¤Ĩà¤¨à¤²":11439,"ÑģÐµÑģÐµÑģÐµÑģÐµ":11440,"à¤¸à¤°à¤²à¤¤":11441,"Ġà¤Ĳà¤ļ":11442,"Ġ697":11443,"à¤²à¤¸à¤¬à¤°":11444,"ĠÎ´Î¹":11445,"Î³Îµ":11446,"079":11447,"à¤¡à¤¸à¤µ":11448,"ÐļÐµ":11449,"à¤²à¤Ĺà¤²":11450,"à¤Ĩà¤¯à¤¶":11451,"Ġà¤ıà¤Ŀ":11452,"à¤¾à¥¤>":11453,"à¤ľà¤°à¤°":11454,"Ġ882":11455,"Ġdh":11456,"Ġ795":11457,"à¤¸à¤¬à¤®à¤°":11458,"891":11459,"934":11460,"ee":11461,"à¤ħà¤¥à¤ķ":11462,"Ġ1418":11463,"Ġà¤ħà¤¯à¤ª":11464,"Ġà¤¬à¤°à¤¦":11465,"Ġà¤¨à¤ķà¤®":11466,"à¥ĭà¤Ĥ)à¥¤":11467,"Ġ698":11468,"Ġ1231":11469,"Ġ1002":11470,"Ġà¤Ĩà¤ĩà¤¶":11471,"à¤Īà¤ľà¤Ĺà¤¤":11472,"061":11473,"Ġà¤ħà¤µà¤¦":11474,"Ġ871":11475,"Ġ948":11476,"Ġ1246":11477,"Ġ1371":11478,"1526":11479,"1681":11480,"894":11481,"bp":11482,"Ġà¤¸à¤¹à¤µ":11483,"Ġ966":11484,"à¤¹à¤²à¤ļà¤²":11485,"ĠÐ¼Ð¸":11486,"072":11487,"Ġà¤®à¤ĺà¤°":11488,"Ġà¤¬à¤ª":11489,"à¤Ĩà¤Īà¤ıà¤®":11490,"à¤¬à¤²à¤Ī":11491,"Ġ1419":11492,"1599":11493,"ĠØ¹":11494,"Ġà¤ĵà¤ı":11495,"Ġ1256":11496,"898":11497,"à¤°à¤£à¤ķà¤°":11498,"Ġ976":11499,"Ġ1384":11500,"à¤ħà¤ªà¤ĺà¤Łà¤¨":11501,"Ġtheir":11502,"à¤¤à¤ľà¤¨à¤¨":11503,"Ġ963":11504,"Ġshall":11505,"Ġ\"à¥¤à¥¤à¥¤":11506,"à¤ķà¤°à¤Ł":11507,"Ġcour":11508,"Ġà¤ĩà¤ĸ":11509,"Ġà¤ĵà¤īà¤²":11510,"1559":11511,"Ġxf":11512,"erv":11513,"877":11514,"Ġà¤¸à¤°à¤Ĺà¤¨":11515,"Ġ694":11516,"à¤ĩà¤¯à¤¨":11517,"à¤Īà¤Łà¤°":11518,"à¤Łà¤°à¤¡à¤¨":11519,"à¤¾\"/\"":11520,"Ġ881":11521,"à¤²à¤®à¤¬à¤°":11522,"931":11523,"Ġà¤¨à¤ĸà¤²":11524,"Ġ1253":11525,"Ġ1448":11526,"986":11527,"à¥Ģ]\"":11528,"à¤¸à¤¨à¤Ł":11529,"Ġà¤ħà¤®à¤ľà¤¦":11530,"Ġ786":11531,"Ġ776":11532,"Ġ1218":11533,"Ġ1396":11534,"à¥ĩ\".":11535,"1631":11536,"à¤°à¤¹à¤£à¤ķà¤°":11537,"------------------------------------------------------------------------------------------------------------------------------------------------------------------------------------------------------------------------------------------------------------":11538,"928":11539,"Ġà¤ļà¤°à¤¤":11540,"à¤¯à¤°à¤¨à¤²":11541,"Ġà¤¨à¤µà¤¶à¤¬":11542,"Ġnc":11543,"7000":11544,"à¤¯à¤¸à¤ıà¤ķ":11545,"Ġ1336":11546,"Ġ1343":11547,"à¤¾à¤ĥ..":11548,"à¤¼à¤¾\")":11549,"à¤¨à¤¸à¤¸":11550,"Ġ899":11551,"1584":11552,"jjjjjjjjjjjjjjjj":11553,"839":11554,"à¤¡à¤ĩà¤¨":11555,"Î½Î±":11556,"à¤¯à¤Łà¤²":11557,"à¥Ģà¤Ĥ\")":11558,"à¤¸à¤°à¤°":11559,"à¤ĩà¤¨à¤¬à¤°":11560,"Ġ766":11561,"Ġ1257":11562,"à¥Ģ))":11563,"Ġà¤ĵà¤ªà¤¨à¤°":11564,"à¤ıà¤¨à¤ıà¤¨à¤ıà¤¨à¤ıà¤¨à¤ıà¤¨à¤ıà¤¨à¤ıà¤¨à¤ıà¤¨à¤ıà¤¨à¤ıà¤¨à¤ıà¤¨à¤ıà¤¨à¤ıà¤¨à¤ıà¤¨à¤ıà¤¨à¤ıà¤¨":11565,"ĠGMT":11566,"?!":11567,"à¤ıà¤°à¤ķ":11568,"à¤¹à¤°à¤ª":11569,"Ġà¤ıà¤®à¤ıà¤®":11570,"Ġ739":11571,"à¤ĩà¤®à¤¬":11572,"Ġà¤ıà¤°à¤°":11573,"Ġhà¤ı":11574,"Ġà¤ħà¤¤à¤°":11575,"Ġà¤ıà¤ªà¤ķ":11576,"892":11577,"à¤¶à¤¨à¤¸":11578,"Ġ941":11579,"Ġoff":11580,"à¤²à¤¹à¤ķ":11581,"à¤Łà¤ıà¤«":11582,"Ġà¤ħà¤¨à¤Łà¤°à¤¬à¤°":11583,"à¤¯à¤®à¤°":11584,"Ġ1261":11585,"Ġ1313":11586,"Ġ['":11587,"à¥ĭ.\"":11588,"à¤µà¤²à¤¯":11589,"à¤Łà¤®à¤²":11590,"à¤īà¤ĩà¤²":11591,"Ġ794":11592,"Ġ933":11593,"Ġ1442":11594,"1573":11595,"ory":11596,"Ġà¤Ĩà¤°à¤ıà¤ļ":11597,"ita":11598,"thulhu":11599,"sch":11600,"vp":11601,"à¤ħà¤¸à¤¤à¤¤":11602,"ĠĠĠ":11603,"Ġ9001":11604,"082":11605,";,":11606,"à¤¬à¤¦à¤¨":11607,"Ġà¤ªà¤ļà¤¤":11608,"Ġà¤¶à¤¦":11609,"iga":11610,"739":11611,"Ġà¤°à¤¨à¤²":11612,"à¤²à¤¨à¤¹":11613,"Ġà¤Ĭà¤¨à¤µ":11614,"Ġ1221":11615,"Ġ1268":11616,"Ġ1271":11617,"Ġ1363":11618,"à¤ļà¤²à¤¸":11619,"Ġà¤Īà¤¡à¤¬":11620,"Ġ1321":11621,"à¥Īà¥¤\"-":11622,"Ġà¤¸à¤¬à¤¡":11623,"!-":11624,"Ġ1214":11625,"Ġ1245":11626,"Ġ1383":11627,"à¥ĩà¤Ĥà¤ĥ\"":11628,"Ġhas":11629,"à¤¡à¤°à¤¸à¤¨à¤µ":11630,"Ġà¤ĵà¤¹à¤®":11631,"Ġà¤ıà¤¨à¤ıà¤ıà¤¸":11632,"à¤¹à¤ķà¤²":11633,"Ġ763":11634,"Ġ939":11635,"Ġass":11636,"à¤¸à¤¹à¤°":11637,"à¤°à¤®à¤®":11638,"à¥ĩ.'":11639,"Ġà¤ıà¤¡à¤¹":11640,"à¤ıà¤¨à¤ĵà¤¸":11641,"Ġ1457":11642,"Ġ1387":11643,"1587":11644,"Ġ1191":11645,"bo":11646,"Ġbse":11647,"à¤£à¤µà¤µ":11648,"Ġà¤Ĩà¤ĵà¤ķ":11649,"à¤¨à¤ķà¤®":11650,"1553":11651,"Ġà¤ľà¤®à¤¶":11652,"Ġnd":11653,"Ġà¤ıà¤ıà¤ıà¤«":11654,"791":11655,"à¤¾à¥¤/":11656,"à¤¾à¤Ĥ\",":11657,"à¤®à¤°à¤¬":11658,"à¤°à¤¦à¤°à¤«":11659,"Ġ1147":11660,"Ġ1449":11661,"1565":11662,"Ġif":11663,"Ġà¤ıà¤²à¤ıà¤¸à¤Ł":11664,"Ġà¤ĩà¤¨à¤¨":11665,"Ġà¤¬à¤¹à¤®":11666,"Ġwor":11667,"837":11668,"à¤¼à¥¤\"":11669,"à¤łà¤¦":11670,"à¤·à¤®à¤ľ":11671,"à¤¹à¤®à¤°":11672,"à¤ľà¤Ĺà¤®":11673,"Ġ931":11674,"Ġ1099":11675,"Ġ():":11676,"igh":11677,"Â£":11678,"à¤Ĺà¤ĳà¤¨":11679,"à¤ĥ..":11680,"Ġ1362":11681,"Ġà¤ıà¤ľà¤°":11682,"Ġ1433":11683,"à¥Īà¤Ĥ'à¥¤":11684,"Ġà¤¹à¤ľà¤¦":11685,"Ġ|\"":11686,"Ġbp":11687,"à¥Ī!\",":11688,"/,/":11689,"Ġà¤ıà¤ıà¤¸":11690,"Ġ788":11691,"Ġ916":11692,"Ġà¤§à¤¨à¤¶":11693,"à¤¶à¤²à¤°":11694,"à¤ķà¤²à¤¡":11695,"Ġ863":11696,"Ġother":11697,"Ġ(Â§":11698,"à¤²à¤°à¤ª":11699,"Ġ961":11700,"\\,":11701,"à¤¨à¤¯à¤°":11702,"Ġ937":11703,"Ġ1344":11704,"à¤ħà¤¨à¤Łà¤°":11705,"Î»Î¿ÏĤ":11706,"Ġà¤ĵà¤ĩà¤Ł":11707,"ef":11708,"Ø²":11709,"à¤¹à¤Ĺà¤¨":11710,"à¤£à¤¦":11711,"Ġà¤ĩà¤¨à¤ľ":11712,"Ġ829":11713,"Ġ1373":11714,"Ġà¤¡à¤¬à¤²à¤¹":11715,"ings":11716,"à¤¨à¤°à¤Ńà¤ķ":11717,"Ġà¤ıà¤¨à¤ıà¤²à¤¸":11718,"Ġ943":11719,"à¥Ģ.,\"":11720,"Ã¡s":11721,"à¤¨à¤¹à¤¨":11722,"à¥ĩ'à¥¤":11723,"Ġà¤®à¤²à¤Ĺ":11724,"à¤ķà¤°à¤Ĺ":11725,"à¤ĩà¤²à¤Łà¤¸":11726,"Ġà¤¡à¤¬à¤²à¤¡":11727,"'t":11728,"à¤°à¤¬à¤¤":11729,"1563":11730,"Ġkbit":11731,"que":11732,"(*":11733,";//":11734,"Ġà¤¹à¤¥à¤ķà¤°à¤ĺ":11735,"à¤ĩà¤ªà¤°à¤µ":11736,"Ġ954":11737,"ret":11738,"à¤¨à¤¨à¤µ":11739,"à¥¤-\"":11740,"à¤¼à¥Ģ)à¥¤":11741,"Ġà¤ıà¤²à¤µà¤°":11742,"Ġ818":11743,"Ġ1365":11744,"Ġwà¤ı":11745,"Ġ758":11746,"à¤ĳà¤¨à¤¸":11747,"1578":11748,"Ġ807":11749,"Î³Î±":11750,"gb":11751,"à¥ģ)à¥¤":11752,"à¤ħà¤¸à¤¹":11753,"Ġ893":11754,"Ġ1110":11755,"1547":11756,"à¤Łà¤¸à¤¡":11757,"Ġ998":11758,"Ġ1287":11759,"Ġ1407":11760,"Ġ1352":11761,"Ġ831":11762,"à¤ıà¤¯à¤°à¤¬":11763,"ck":11764,"Ġ838":11765,"Ġà¤²à¤«":11766,"à¤µà¤°à¤Ĺ":11767,"Ġà¤Ĩà¤°à¤µà¤¨":11768,"Ġ793":11769,"Ġ981":11770,"Ġ1075":11771,"à¤ıà¤ļà¤Ĩà¤Īà¤µ":11772,"Ġ1423":11773,"Ġà¤°à¤Ĺà¤²":11774,"à¤«à¤¯":11775,"Ġ782":11776,"Ġ2029":11777,"1575":11778,"Ġà¤Ŀà¤ªà¤ķà¤¤":11779,"à¤ķà¤ĩà¤¨":11780,"Ġà¤²à¤¨à¤°":11781,"Ġ771":11782,"à¤·à¤®à¤¯":11783,"Ġsi":11784,"à¤¸à¤ıà¤²à¤µ":11785,"à¤ıà¤ªà¤¸":11786,"Ġà¤¹à¤¬à¤¬":11787,"aÄį":11788,"Ġà¤ķà¤µà¤°à¤¡":11789,"à¤¨à¤ıà¤ķ":11790,"Ġà¤®à¤°à¤¸":11791,"Ġ1263":11792,"Ġ1443":11793,"1582":11794,"à¥Ī-'":11795,"à¤«à¤¤à¤¹":11796,"Ġ836":11797,"Ġ872":11798,"Ġsec":11799,"à¤¹à¤¬à¤°":11800,"à¤¹à¤°à¤¹":11801,")à¥¤)":11802,"Ġ1226":11803,"Ġ1447":11804,"1566":11805,"Ġà¤īà¤Ĺà¤²":11806,"Ġà¤¤à¤¹à¤®":11807,"à¤°à¤ķà¤µ":11808,"Ġ971":11809,"à¤²à¤¡à¤¸":11810,"Ġ1378":11811,"Ġ852":11812,"Ġlib":11813,"à¤Łà¤Łà¤°":11814,"Ġ1411":11815,"1594":11816,"1597":11817,"Ġqu":11818,"rrrr":11819,"à¤ĩà¤Łà¤Ł":11820,"à¤²à¤µà¤¸":11821,"Ġ797":11822,"Ġ892":11823,"à¤Ĩà¤īà¤Łà¤¡":11824,"Ġwhat":11825,"1564":11826,"enc":11827,"Ġ792":11828,"Ġmay":11829,"à¤ªà¤²à¤«":11830,"à¤ıà¤¯à¤°à¤ª":11831,"ĠÐ¾ÑĤÐµ":11832,"elf":11833,"rop":11834,"ĠÐ½Ð°":11835,"Ġà¤¨à¤µà¤²":11836,"à¤Łà¤¨à¤ª":11837,"1671":11838,"Ã©r":11839,"à¤°à¤¥à¤°":11840,"à¤Ĺà¤ĩà¤¨":11841,"à¤Ńà¤Łà¤ķà¤¤":11842,"Ã¡r":11843,"zek":11844,"à¤¸à¤¶à¤ķ":11845,"Ġà¤ıà¤²à¤¬à¤°":11846,"Ġ883":11847,"Ġ1432":11848,"Ġ858":11849,"1111":11850,"Ġ992":11851,"han":11852,"à¤Ĩà¤ĩà¤¸à¤ķ":11853,"Ġ1259":11854,"à¤īà¤¸à¤Ł":11855,"Ġ951":11856,"!!!":11857,"Ġbgcolor":11858,"Ġà¤µà¤®":11859,"à¤¯à¤®à¤ª":11860,"à¤¦à¤¨à¤µ":11861,"à¤²à¤ªà¤¨":11862,"Ġà¤ĸà¤²à¤ľ":11863,"Ġà¤ħà¤¸à¤Ń":11864,"Ġà¤¸à¤¤à¤²":11865,"Ġ1288":11866,"Ġ1426":11867,"Ġpart":11868,"Ġ854":11869,"ĠAM":11870,"Ġà¤ħà¤¯à¤¦":11871,"à¤ĩà¤Łà¤ª":11872,"Ġ877":11873,"à¤ĩà¤¡à¤¹":11874,"âĢ²-":11875,"Ġ986":11876,"à¤¾?!":11877,"à¤¨à¤¨à¤ķ":11878,"Ġ1438":11879,"à¤īà¤¥à¤Īà¤¸":11880,"lef":11881,"Î´Î¿":11882,"France":11883,"à¤¼à¥ģ\"":11884,"ement":11885,"nn":11886,"à¥Īà¤Ĥà¥¤\",":11887,"Ġ1152":11888,"Ġ1206":11889,"à¤Łà¤²à¤¨à¤ļ":11890,"Ġà¤¨à¤Ĺà¤µ":11891,"à¤Ĩà¤ļà¤°à¤£":11892,"à¤¼à¥ĩà¤Ĥà¥¤\"":11893,"Ġà¤ħà¤¦à¤µ":11894,"1517":11895,"1490":11896,"Ġ3600":11897,"à¤°à¤²à¤¬":11898,"à¤Īà¤¸à¤¬à¤°":11899,"Ġ932":11900,"ski":11901,"à¤īà¤ªà¤¸à¤®":11902,"954":11903,"à¤¤à¤ªà¤¸":11904,"à¤«à¤¥":11905,"à¤ľà¤¬à¤²":11906,"Ġ764":11907,"Ġ848":11908,"ink":11909,"[[[[":11910,"Ġà¤ħà¤®à¤°à¤¨":11911,"Ġsf":11912,"xiv":11913,"à¤°à¤¡à¤°":11914,"Ġà¤¬à¤°à¤¹à¤®":11915,"Ġà¤µà¤²à¤¦":11916,"Ġà¤ĩà¤ĵà¤²":11917,"à¤ĺà¤¦":11918,"Ġ1236":11919,"Ġ1273":11920,"Ġà¤ĵà¤ıà¤¨":11921,"Ġà¤ĳà¤Ĺà¤¬à¤°":11922,"Ġ886":11923,")\"à¥¤":11924,"ya":11925,"à¤¶à¤¨à¤¨":11926,"Ġà¤Ĳà¤Ł":11927,"1250":11928,"à¤¾à¥¤\")":11929,"ult":11930,"Ġà¤ķà¤®à¤°à¤ķ":11931,"Ġà¤ıà¤®à¤«":11932,"Ġ832":11933,"Ã©t":11934,"à¤¡à¤Ĩà¤°":11935,"Ġà¤ľà¤¦":11936,"à¥Ģ\"/\"":11937,"Ġ1446":11938,"Ġà¤Ĩà¤¯à¤°à¤¨à¤ķ":11939,"à¤ıà¤µà¤Ĺ":11940,"ima":11941,"Ġà¤ķà¤¸à¤°":11942,"à¤¶à¤¯à¤¶":11943,"Ġ798":11944,"Ġ769":11945,"Ġ1416":11946,"ÑģÐ¸Ðµ":11947,"à¤ıà¤°à¤µ":11948,"Ġà¤ªà¤°à¤¹à¤®":11949,"Ġ773":11950,"1279":11951,"Ġà¤ªà¤µà¤£":11952,"Ġ1208":11953,"Ġà¤¶à¤°à¤®à¤¨":11954,"Ġà¤ĵà¤ªà¤¨à¤¬":11955,"ĠAC":11956,"Ġà¤ĩà¤¬à¤°":11957,"Ġ1238":11958,"à¤¡à¤ķà¤Ł":11959,"Ġ1252":11960,"Ġ1434":11961,"Ġmac":11962,"à¤ĵà¤ªà¤¨à¤°":11963,"own":11964,"Ġà¤ĵà¤²à¤µ":11965,"Ġ1154":11966,"ĠXXXV":11967,"-\",":11968,"à¤¡à¤Łà¤°":11969,"à¤¾à¤Ĥà¤ĥ":11970,"à¤¬à¤¸à¤°":11971,"à¤ªà¤°à¤¦":11972,"Ġà¤ķà¤¥à¤ķ":11973,"Ġap":11974,"à¤Łà¤ªà¤°":11975,"à¤ħà¤¯à¤¸":11976,"à¤īà¤®à¤Ĺ":11977,"à¤§à¤¹":11978,"à¤¾à¤Ĥ/":11979,"à¤µà¤°à¤°":11980,"Ġà¤ĵà¤ĵ":11981,"1350":11982,"à¤ļà¤Łà¤¸":11983,"à¤²à¤¬à¤¸":11984,"Ġ7500":11985,"à¤¤à¤¨à¤¹":11986,"Ġ1232":11987,"))à¥¤":11988,"?\"à¥¤":11989,"à¤ıà¤Ĺà¤¨":11990,"à¤Īà¤µà¤°":11991,"Ġ1427":11992,"Ġ1369":11993,"à¥Ī)-":11994,"Ġ##":11995,"Ġà¤ıà¤¸à¤ıà¤¨à¤ª":11996,"Ġ849":11997,"à¥Ĥà¥¤\"":11998,"à¥ĩà¥¤\"(":11999,"dl":12000,"Ġà¤Ĺà¤ļ":12001,"à¤°à¤®à¤ľà¤¨à¤ķ":12002,"Ġ1015":12003,"ĠXXXI":12004,"Ġ(:":12005,"à¤Ĳà¤Ĺ":12006,"à¥ĭ);":12007,"Ġà¤¹à¤¡à¤²à¤¸":12008,"Ġà¤ľà¤¯à¤®":12009,"Ġ873":12010,"à¥Īà¤Ĥà¥¤'\"":12011,"à¤ħà¤ľà¤Ĺà¤°":12012,"Ã¼ber":12013,"Ġà¤¸à¤®à¤Ń":12014,"Ġà¤Ĩà¤Īà¤µà¤°":12015,"Ġ796":12016,"Ġ982":12017,"gs":12018,"ĠĊĠ":12019,"à¤ķà¤¨à¤¸à¤¨":12020,"à¤¬à¤¥":12021,"à¤ĳà¤²à¤ľ":12022,"Ġà¤ĵà¤ķà¤°":12023,"1569":12024,"à¤²à¤Ĺà¤ľ":12025,"ĠMev":12026,"à¤ķà¤°à¤Łà¤¨":12027,");//":12028,"Ġ959":12029,"à¤ļà¤Łà¤°":12030,"Ġà¤ıà¤ĵà¤¨":12031,"Ġà¤īà¤¨à¤°":12032,"Ġà¤ħà¤¨à¤ļ":12033,"Ġà¤ħà¤¬à¤ľ":12034,"1576":12035,"Ġà¤Ĺà¤¦à¤¹":12036,"Ġà¤ıà¤¸à¤¡à¤¬":12037,"Ġà¤ıà¤¨à¤¥":12038,"Ġ894":12039,"])à¥¤":12040,"à¤²à¤¦à¤¹":12041,"Ġà¤¬à¤°à¤Ľà¤Ł":12042,"Ġ1329":12043,"Ġ(\"\")":12044,"Ġft":12045,"Ġà¤¥à¤µ":12046,"Ġ1247":12047,"Ġ1281":12048,"à¤Łà¤®à¤Ł":12049,"1552":12050,"à¤ıà¤¶à¤¬à¤°":12051,"ank":12052,"Ġà¤ıà¤²à¤ıà¤²":12053,"Ġ884":12054,"Ġ1255":12055,"Ġ1239":12056,"Ġ-->":12057,"land":12058,"à¤°à¤²à¤¨":12059,"à¤ªà¤°à¤ľà¤°":12060,"Ġxs":12061,"Ġà¤¢à¤ķà¤ķà¤°":12062,"Ġà¤ªà¤ªà¤¡":12063,"1535":12064,"fcb":12065,"à¤°à¤µà¤¸":12066,"à¤¡à¤²à¤«":12067,"à¤ħà¤¦à¤°à¤ķ":12068,"ĠÐ»Ð¾":12069,"Ġà¤ĩà¤¹à¤°":12070,"Ġ839":12071,"Ġ1014":12072,"à¥ĩà¤Ĥ\";":12073,"lic":12074,"1515":12075,"à¤µà¤ķà¤²":12076,"Ġà¤¶à¤¹à¤°à¤µ":12077,"Ġà¤¬à¤Łà¤°à¤ķà¤ª":12078,"Ġits":12079,"Ġà¤ıà¤ķà¤Ń":12080,"à¤ķà¤²à¤¸à¤¨":12081,"à¥Ģà¤Ĥà¥¤âĢĿ":12082,"Ġà¤ıà¤ıà¤®à¤¸":12083,"Ġà¤¸à¤²à¤µ":12084,"Ġà¤ķà¤¨à¤Ĺ":12085,"bj":12086,"à¤ħà¤¨à¤¹":12087,"Ġ1192":12088,"à¤Ĺà¤ªà¤Ł":12089,"Ġ799":12090,"Ã¼k":12091,"Ġ1018":12092,"Ġ1237":12093,"Ġ1364":12094,"à¤²à¤ķà¤Ł":12095,"à¤¹à¤°à¤¤":12096,"Ġ1393":12097,"à¤ĩà¤®à¤¹":12098,"Ġ1209":12099,"bg":12100,"à¤Ĭà¤¸":12101,"à¤ıà¤ķà¤¤à¤°à¤«":12102,"Ġ942":12103,"Ġ1286":12104,"ert":12105,"1583":12106,"Ġà¤Īà¤¯à¤°à¤ª":12107,"wo":12108,"Ġà¤¸à¤®à¤µ":12109,"1581":12110,"à¤ħà¤®à¤¨":12111,"Ġà¤¹à¤°à¤¬":12112,"Ġà¤ıà¤ľà¤µà¤°":12113,"ime":12114,"Ġà¤ıà¤Ī":12115,"Ġà¤¦à¤Ĺ":12116,"Ġ1224":12117,"Ġkj":12118,"à¤¹à¤²à¤ķ":12119,"1586":12120,"Ġbx":12121,"à¤¯à¤ĸ":12122,"à¤īà¤¤à¤°à¤¨":12123,"Ġà¤īà¤°à¤®":12124,"Ġà¤¥à¤¨à¤¬à¤°":12125,"Ġà¤°à¤¹à¤®à¤¤":12126,"1016":12127,"1591":12128,"à¤Ńà¤°à¤¨":12129,"Ġà¤ĵà¤Łà¤®":12130,"Ġà¤ĳà¤ľ":12131,"Ġ1211":12132,"ree":12133,"ely":12134,"Ġstate":12135,"Ġà¤µà¤µ":12136,"à¤¼à¤¾)à¥¤":12137,"Ġ1095":12138,"à¤ĵà¤µà¤°à¤¡":12139,"Ä±k":12140,"à¤¬à¤°à¤¬à¤°":12141,"Ġ1155":12142,"1545":12143,"Ġà¤ıà¤¡à¤Ł":12144,"1542":12145,"ons":12146,"Ġ(âĢ²)":12147,"à¤¤à¤¹à¤¸":12148,"à¤¥à¤°à¤ª":12149,"à¤°à¤ªà¤¤à¤µ":12150,"à¤²à¤ħà¤ª":12151,"1534":12152,"1589":12153,"1539":12154,"Ġà¤ĭà¤£à¤ķà¤°":12155,"ST":12156,"Ġà¤®à¤ķà¤²":12157,"à¤ĩà¤¬à¤¨":12158,"à¤ĵà¤Ń":12159,"Ġmk":12160,"Ġà¤°à¤¶à¤Łà¤¨":12161,"Ä±n":12162,"Ġà¤¸à¤°à¤µà¤¨à¤¨":12163,"Ġà¤¬à¤¸à¤¸":12164,"à¤Ĩà¤¯à¤¸":12165,"Ġà¤ĩà¤ķà¤°":12166,"Ġà¤¹à¤²à¤ĸ":12167,"Ġà¤®à¤ĸà¤ļà¤ķà¤²":12168,"-[":12169,"Ġ(?)":12170,"Ġà¤ħà¤§à¤®":12171,"Ġ<=":12172,"Ġ984":12173,"à¤²à¤¸à¤²":12174,"Ġ889":12175,"à¤Ĺà¤¨à¤Ł":12176,"à¤ħà¤¨à¤µà¤°":12177,"à¤ľà¤°à¤¹":12178,"à¤ħà¤²à¤¨":12179,"à¤¦à¤°à¤¬à¤¨":12180,"Ġà¤®à¤§à¤®":12181,"ors":12182,"ĠÐ½Ðµ":12183,"Ġà¤ªà¤ļà¤¨":12184,"à¤ĩà¤µà¤¨à¤°":12185,"à¤ĸà¤°à¤ªà¤¤à¤µ":12186,"à¤¾à¤ģà¥¤..":12187,"ise":12188,"à¤¡à¤ĳà¤²":12189,"à¤ļà¤ľ":12190,"à¤¼à¥ĩ'":12191,"]),":12192,"Ġ967":12193,"Ġkv":12194,"ÑģÑģÑģÑģÑģÑģÑģÑģÑģÑģÑģÑģÑģÑģÑģÑģÑģÑģÑģÑģÑģÑģÑģÑģÑģÑģÑģÑģÑģÑģÑģÑģ":12195,"à¤Ĵ":12196,"Ġà¤Ĩà¤¸à¤ķ":12197,"Ġà¤ĳà¤¨à¤Ł":12198,"à¤Ŀà¤¡":12199,"Ġ1213":12200,"1555":12201,"à¤īà¤¥à¤µà¤°":12202,"Ġ\"()\"":12203,"Ġà¤Ĩà¤īà¤Łà¤Ĺ":12204,"Ġà¤ıà¤²à¤ĺ":12205,"à¤ªà¤¦à¤§":12206,"ÏĥÎ±":12207,"Ġà¤ĩà¤¨à¤¶":12208,"à¤µà¤°à¤µà¤°":12209,"à¤²à¤¬à¤²":12210,"Ġ947":12211,"Ġà¤łà¤£":12212,"Ġà¤°à¤¦à¤°à¤Ĺà¤²":12213,"rn":12214,"1510":12215,"1567":12216,"à¤Ĩà¤Īà¤ıà¤¸à¤Ĩà¤Īà¤ıà¤¸":12217,"à¤²à¤¶à¤¨":12218,"Ġà¤¨à¤Ĺà¤®":12219,"à¤ĥà¤ĥ":12220,"à¤°à¤¹à¤¤":12221,"Ġ'[":12222,"à¤ĩà¤¡à¤ª":12223,"Ġ1372":12224,"Ġà¤°à¤°":12225,"à¤ĺà¤¹":12226,"Ġ946":12227,"Ġcomp":12228,"à¤łà¤¹à¤°":12229,"à¤¸à¤°à¤Ł":12230,"Ġà¤ıà¤¸à¤«":12231,"Ġ784":12232,"à¤Ĩà¤¨à¤ļ":12233,"\"}":12234,"à¤®à¤®à¤¨":12235,"Ġà¤ķà¤²à¤ª":12236,"Ġ1222":12237,"Ġ1262":12238,"1525":12239,"Ġ1207":12240,"à¤¡à¤¬à¤¸":12241,"Ġà¤ħà¤°à¤Ĺ":12242,"Ġ783":12243,"à¥Ī\"]":12244,"Ġ859":12245,"ĊĠĊĠĊĠĊĠĊĠ":12246,"à¤¯à¤¬à¤¦":12247,"à¥ģ\"à¥¤":12248,"à¤¸à¤®à¤Ŀà¤ķà¤°":12249,"Ġ874":12250,"Ġ983":12251,"Ġà¤°à¤¸à¤ľ":12252,"mg":12253,"Ġà¤¸à¤¹à¤°":12254,"Ġà¤ľà¤°à¤®":12255,"à¤¤à¤°à¤¸":12256,"à¤°à¤ĸà¤®":12257,"ater":12258,"à¤¤à¤¬à¤¦":12259,"à¤ıà¤¡à¤ķ":12260,"à¤·à¤¨":12261,"Ġ1223":12262,"à¤ĩà¤¬à¤°à¤¬":12263,"Ġcp":12264,"à¥ĩà¤Ĥà¥¤]":12265,"Ġà¤ĩà¤²à¤®":12266,"Ġà¤°à¤«à¤¸":12267,"à¤ķà¤ªà¤Ł":12268,"Ġ\"[\"":12269,"unds":12270,"à¤¨à¤ļà¤²":12271,"à¤®à¤°à¤¸à¤¨":12272,"Ġà¤¦à¤²à¤°":12273,"à¤Īà¤ĵà¤¸":12274,"Ġ989":12275,"à¤ıà¤¨à¤¸à¤¨":12276,"1577":12277,"à¤ľà¤Ĺà¤Ĺ":12278,"ÏĢÎ¹":12279,"à¤µà¤°à¤¥":12280,"Ġà¤Ĩà¤Īà¤Ĩà¤Ī":12281,"Ġ994":12282,"Ġnad":12283,"________________________________":12284,"à¤²à¤Łà¤²":12285,"Ġà¤ĵà¤µà¤°à¤Ĺ":12286,"à¤Ĵà¤Ł":12287,"à¤¨à¤¶à¤µ":12288,"Ġà¤ħà¤²à¤¨à¤µ":12289,"à¤īà¤¥à¤°":12290,"Ø´":12291,"à¤ĩà¤¥à¤°":12292,"Ġ1357":12293,"à¥Ĥà¤Ĥ)":12294,"Ġà¤¸à¤²à¤Ĺà¤®":12295,"Ġac":12296,"Ġà¤ĳà¤¡à¤°":12297,"Ġà¤Ĩà¤Ĺà¤®":12298,"Ġà¤¡à¤¬à¤¬":12299,"1527":12300,"\";)":12301,"à¤ľà¤°à¤Ĺ":12302,"################################":12303,"Ġ897":12304,"Ġ1126":12305,"Ġsaid":12306,"à¤¥à¤¨à¤°":12307,"à¥Īà¤Ĥà¥¤-":12308,"à¤¨à¤¸à¤¡":12309,"Ġà¤ķà¤¨à¤ķà¤°":12310,"1574":12311,"Ġà¤®à¤²à¤®à¤²":12312,"à¤²à¤Ńà¤¤à¤®":12313,"à¤Ĺà¤Ĺà¤²":12314,"à¥Ģà¥¤:":12315,"ection":12316,"...|...|...|...|":12317,"à¤Łà¤ľà¤¨":12318,"à¥¤\",\"":12319,"Ġà¤°à¤«à¤¨":12320,"à¤¨à¤Łà¤¸":12321,",--":12322,"à¤¡à¤¨à¤®":12323,"Ġ1175":12324,"à¥Ī?!":12325,"Ġgre":12326,"à¤²à¤ªà¤°":12327,"Ġà¤ĵà¤°à¤¨":12328,"Ġ779":12329,"ĠÏĢÎ±":12330,"à¤¦à¤¯à¤¹":12331,"Ġà¤ĩà¤Ĺà¤²":12332,"Ġ887":12333,"Ġà¤®à¤ķà¤®":12334,"à¤¹à¤°à¤ľ":12335,"à¤ĵà¤µà¤°à¤¹":12336,"à¤Ĺà¤£à¤ķà¤°":12337,"à¤īà¤²à¤®":12338,"Ġà¤ĵà¤Ĺà¤¬":12339,"Ġ857":12340,"à¥¤'\"":12341,"à¤Ĥ\")":12342,"Ġ1233":12343,"Ġ1153":12344,"à¤¨à¤²à¤¬":12345,"à¤¬à¤¦à¤°":12346,"Ġà¤§à¤¨à¤°":12347,"Ġ1016":12348,"Ġ1289":12349,"à¤ªà¤Ĺà¤¨":12350,"à¥ģ!":12351,"Ġ1194":12352,"à¤¹à¤°à¤µ":12353,"Ġmore":12354,"Ġ1203":12355,"Ġà¤ıà¤®à¤ıà¤¸à¤ıà¤ķ":12356,"ĠÃ¼rval":12357,"ja":12358,"à¤®à¤°à¤¤":12359,"à¤ľà¤¯à¤°":12360,"Ġà¤«à¤¦à¤²":12361,"à¤¸à¤ķà¤®":12362,"Ġà¤Ĩà¤Īà¤Ĺ":12363,"à¤ħà¤¨à¤Ĺ":12364,"à¥ĩ)-":12365,"Ġwhen":12366,"Ġà¤²à¤µà¤¸":12367,"Ġà¤¸à¤®à¤·":12368,"Ġà¤¬à¤°à¤¨":12369,"1492":12370,"Ġà¤ıà¤®à¤ıà¤¸à¤ıà¤¨":12371,"ari":12372,"Ġà¤ķà¤Łà¤®":12373,"à¤²à¤ļà¤¨":12374,"Ġà¤¯à¤¡":12375,"à¥Īà¤Ĥà¥¤[":12376,"à¤ıà¤¸à¤ĵà¤¸":12377,"Ġ964":12378,"Ġ1376":12379,"à¤ĩà¤ķà¤²à¤®":12380,"Ġxe":12381,"à¤ľà¤¨à¤®":12382,"Ġà¤¶à¤°à¤«":12383,"Ġà¤ħà¤¹à¤®à¤¤":12384,"à¤¯à¤Ĺà¤°":12385,"à¤¶à¤Łà¤°":12386,"à¤®à¤²à¤¸":12387,"Ġ1173":12388,"Ġà¤¹à¤ľà¤²à¤®":12389,"qi":12390,"Ġà¤ĵà¤ıà¤¨à¤ľ":12391,"\"):":12392,"à¥ĭ!'":12393,"Ġà¤ªà¤ľà¤²":12394,"Ġà¤Ĺà¤¨à¤µ":12395,"à¤ħà¤²à¤¡":12396,"à¥Ĥà¤ģ/":12397,"||":12398,"à¤ħà¤°à¤¸":12399,"Â°,":12400,"ĠØ³":12401,"à¤ĩà¤°à¤ķ":12402,"à¤ĩà¤ķà¤²à¤¸à¤¨":12403,"Ġkb":12404,"Ĺı":12405,"à¤®à¤ķà¤¦":12406,"Ġ1354":12407,"à¤Ĩà¤¨à¤¹":12408,"à¤Īà¤¥à¤°":12409,"à¤Ĩà¤ĩà¤ľà¤¨à¤¹":12410,"à¤¸à¤®à¤µ":12411,"Ġ1293":12412,"yl":12413,"à¥ĩà¤Ĥà¥¤-":12414,"1516":12415,"Ġfe":12416,"Ġop":12417,"à¤Łà¤²à¤Ł":12418,"Ġ1249":12419,"Ġà¤ĳà¤°à¤«":12420,"à¤ľà¤°à¤ķà¤°":12421,"Ġà¤ªà¤Łà¤ķ":12422,"à¥Ģà¥¤(":12423,"Ġà¤ķà¤²à¤®à¤¨":12424,"à¥ī.\"":12425,"Ġà¤¨à¤²à¤¬":12426,"Ġà¤ħà¤ªà¤ľ":12427,"Ġ1334":12428,"à¤Ĺà¤°à¤ľ":12429,"Ġà¤ıà¤¡à¤«":12430,"Ġà¤Ĩà¤¶à¤²à¤°":12431,"Ġà¤¤à¤²à¤¬":12432,"Ġ868":12433,"Ġà¤¬à¤¦à¤¹":12434,"Ġà¤ıà¤Ĩà¤°à¤ıà¤²":12435,"à¤°à¤¨à¤¬à¤°":12436,"Ġ938":12437,"âĢĺ":12438,"à¤ĩà¤ĵà¤¡":12439,"à¤Īà¤¤":12440,"Ġà¤ĵà¤¨à¤°":12441,"Ġsome":12442,"HL":12443,"xv":12444,"Ġà¤®à¤®à¤¤":12445,"Ġà¤«à¤°à¤¦":12446,"à¤¤à¤°à¤µà¤°":12447,"!\"\"":12448,"ered":12449,"à¤ģ?":12450,"à¤®à¤°à¤ľ":12451,"Ġ1338":12452,"à¤¿\"),":12453,"à¤ĩà¤ªà¤°à¤«":12454,"Ġ791":12455,"Ġ891":12456,"ĠHTTPS":12457,"Ġ([[":12458,"ally":12459,"ĠÅįsh":12460,".à¥¤,":12461,"Ġà¤¸à¤¸à¤¸":12462,"à¤ĩà¤ıà¤¨":12463,"à¤ĵà¤µà¤²":12464,"Ġdid":12465,"Ġ()-":12466,"à¤°à¤ĸà¤¨":12467,"à¤ıà¤°à¤¹":12468,"Ġà¤ıà¤²à¤®à¤µ":12469,"Ġ979":12470,"ese":12471,"ick":12472,"ula":12473,"à¤¨à¤¯à¤ķ":12474,"à¤Łà¤ļà¤¡":12475,"Ġà¤ħà¤°à¤¸à¤²":12476,"Ġ1359":12477,"Ġà¤ĩà¤¶à¤ķ":12478,"à¤ĵà¤Ĩà¤°":12479,"Ġ1379":12480,"ĊĠĊĠĊĠĊĠĊĠĊĠ":12481,"Ġ(âī¤":12482,"à¤Łà¤°à¤¶à¤®":12483,"Ġà¤¹à¤°à¤ľ":12484,"Ġà¤®à¤¶à¤¹à¤¦":12485,"à¤ıà¤¶à¤¬":12486,"à¥Īà¤Ĥ\"-":12487,"à¤µà¤²à¤¸":12488,"Ġ90210":12489,"Ġà¤®à¤ķà¤¬":12490,"à¤ħà¤°à¤²":12491,"à¤ĩà¤¦à¤°":12492,"Ġà¤ĵà¤ıà¤¡":12493,"Ġ1054":12494,"à¤°à¤Łà¤Ĺà¤°":12495,"ĠNa":12496,"kt":12497,"à¥ĭ--":12498,"Ġà¤ıà¤ķà¤¸à¤¦à¤¨":12499,"Ġ1177":12500,"Ġ1358":12501,"1541":12502,"1579":12503,"à¤¼à¤¾\"à¥¤":12504,"à¤µà¤²à¤ľ":12505,"à¥¤âĢĻ":12506,"Ġà¤Ĩà¤«à¤°":12507,"ational":12508,"à¤¸à¤Łà¤²":12509,"Ġà¤īà¤ıà¤®":12510,"à¤®à¤¤à¤¸":12511,"Ġà¤ħà¤¨à¤ķà¤Ł":12512,"Ġ6500":12513,"ĠâĢ¢":12514,"Ġà¤ıà¤¨à¤ıà¤²":12515,"à¥ĩ.)à¥¤":12516,"Ġ1251":12517,"1524":12518,"à¥Ĥ\"),":12519,"Ġ3300":12520,"à¤¦à¤¯à¤ĺ":12521,"Ġcet":12522,"Ġ),":12523,"Ġà¤Łà¤ķà¤¨":12524,"à¤Ĩà¤°à¤ı":12525,"1562":12526,"à¤Ĩà¤Ĩà¤Ĩà¤Ĩà¤Ĩà¤Ĩà¤Ĩà¤Ĩà¤Ĩà¤Ĩà¤Ĩà¤Ĩà¤Ĩà¤Ĩà¤Ĩà¤Ĩ":12527,"Ġà¤ļà¤Ĺà¤¤":12528,"à¤ģ;\"":12529,"à¤ľà¤¨à¤ķà¤°à¤£":12530,"Ġà¤Īà¤ļà¤²":12531,"Ġà¤ħà¤ªà¤ļà¤¨":12532,"à¤¨à¤¸à¤µ":12533,"Ġ1139":12534,"Ġ1319":12535,"Ġ1367":12536,"Ġ[[[":12537,"!\")":12538,"à¤¹à¤²à¤¬":12539,"à¤ĩà¤ķà¤¡":12540,"Ġà¤¬à¤°à¤ª":12541,"Ġ974":12542,"à¤Ĩà¤ĩà¤ª":12543,"à¥Ĥà¤Ĥà¥¤'":12544,"cz":12545,"à¤ķà¤²à¤¬à¤°":12546,"1519":12547,"Ġ001":12548,"à¤ıà¤¸à¤ıà¤Ĩà¤Īà¤¡":12549,"Ã¶z":12550,"Ġà¤ħà¤¬à¤¹":12551,"à¤ıà¤¨à¤Ī":12552,"Ġ1243":12553,"inity":12554,"orf":12555,"Ġà¤ıà¤²à¤Ĩà¤°à¤Ł":12556,"Ã¼m":12557,"Ġio":12558,"Ġers":12559,"à¤£à¤ķà¤°":12560,"Ġà¤¸à¤¤à¤¸":12561,"à¤ģà¥¤..":12562,"à¤ıà¤¶à¤«":12563,"Äģn":12564,"zeki":12565,"à¤°à¤¨à¤¡":12566,"à¤¾?\"à¥¤":12567,"à¤²à¤Ĺà¤®":12568,"à¤ħà¤Ľ":12569,"Ġà¤«à¤¥":12570,"à¤ķà¤°à¤£à¤ľ":12571,"Ġ856":12572,"à¤ĩà¤¥à¤µ":12573,"à¤¯à¤µà¤¤":12574,"1556":12575,"à¤¤à¤ľà¤¨à¤ķ":12576,"à¤¦y":12577,"Ġà¤Ĩà¤Īà¤ıà¤¸à¤ı":12578,"Ġà¤¸à¤®à¤°à¤«":12579,"ÐļÐ¸":12580,"ĠNC":12581,"à¤ļà¤¸à¤¬":12582,"à¤Ĳà¤°":12583,"Ġ1339":12584,"à¤ıà¤Łà¤ª":12585,"Ġà¤ĩà¤¶à¤°à¤µ":12586,"à¥Ģ.?":12587,"Ġà¤ĵà¤¡à¤²":12588,"à¤¸à¤µà¤®":12589,"Ġà¤ıà¤®à¤ıà¤ıà¤ļ":12590,"Ġà¤ħà¤²à¤Ł":12591,"à¤®à¤¤à¤¨":12592,"Ġ977":12593,"Ġ1366":12594,"Ġstates":12595,"à¤ľà¤²à¤ķ":12596,"Ġà¤¹à¤ļà¤¸à¤¨":12597,"à¤¸à¤¡à¤ķ":12598,"Ġà¤¡à¤¨à¤ķà¤¨":12599,"Ġà¤ĳà¤¥":12600,"Ġà¤ıà¤²à¤¸à¤¨":12601,"à¤īà¤²à¤Ł":12602,"Ġte":12603,"Ġlaw":12604,"Ġà¤īà¤®à¤¸":12605,"à¤¼à¥ģ-":12606,"ars":12607,")-(":12608,"ĠÑģÐ¾ÑĤÐµ":12609,"à¤°à¤¦à¤°à¤¹":12610,"1561":12611,"Ġà¤ªà¤°à¤®à¤Ł":12612,"Ġà¤ħà¤¶à¤¦":12613,"md":12614,"à¤¶à¤ªà¤Ĺ":12615,"à¥ĩ')":12616,"Ġà¤ķà¤«à¤²à¤¨":12617,"ko":12618,"Ġà¤¹à¤¨à¤®":12619,"0001":12620,"à¤¹à¤¨à¤µ":12621,"à¤¹à¤¨à¤¦":12622,"Ġ1374":12623,"Ġct":12624,"ĠLa":12625,"à¤¼à¤¼à¤¼à¤¼à¤¼à¤¼à¤¼à¤¼à¤¼à¤¼à¤¼à¤¼à¤¼à¤¼à¤¼à¤¼à¤¼à¤¼à¤¼à¤¼à¤¼à¤¼à¤¼à¤¼à¤¼à¤¼à¤¼à¤¼à¤¼à¤¼à¤¼à¤¼":12626,"à¤ĵà¤¸à¤®":12627,"Ġà¤ªà¤²à¤Łà¤µ":12628,"à¤ļà¤°à¤¸":12629,"à¥ī\",":12630,"Ġà¤ĳà¤µ":12631,"Ġ1157":12632,"à¤¸à¤°à¤¬à¤°":12633,"Ġà¤Ĭà¤¤":12634,"Ġà¤Ńà¤Ĺà¤µà¤¦":12635,"Ġ953":12636,"home":12637,"à¤ıà¤¹à¤¸":12638,"Ġ1148":12639,"Ġ#\"":12640,"à¥Ģà¥¤..]":12641,"ÎºÎ¹":12642,"Ġà¤¸à¤®à¤¹":12643,"Ġà¤ħà¤Ĺà¤°à¤µ":12644,"ns":12645,"à¤¾à¥¤à¥¤":12646,"Ġà¤¦à¤²à¤ľ":12647,"à¤ĩà¤®à¤¨à¤¸à¤¨":12648,"Ġ958":12649,"Ġà¤ĵà¤²à¤¬":12650,",,,,,":12651,"à¤ĵà¤ĵà¤ĵà¤ĵà¤ĵà¤ĵà¤ĵà¤ĵà¤ĵà¤ĵà¤ĵà¤ĵà¤ĵà¤ĵà¤ĵà¤ĵà¤ĵà¤ĵà¤ĵà¤ĵà¤ĵà¤ĵà¤ĵà¤ĵà¤ĵà¤ĵà¤ĵà¤ĵà¤ĵà¤ĵà¤ĵà¤ĵà¤ĵà¤ĵà¤ĵà¤ĵà¤ĵà¤ĵà¤ĵà¤ĵà¤ĵà¤ĵà¤ĵà¤ĵà¤ĵà¤ĵà¤ĵà¤ĵà¤ĵà¤ĵà¤ĵà¤ĵà¤ĵà¤ĵà¤ĵà¤ĵà¤ĵà¤ĵà¤ĵà¤ĵà¤ĵà¤ĵà¤ĵà¤ĵ":12652,".------------------------------------------------------------------------------------------------------------------------------------------------------------------------------------------------------------------------------------------------":12653,"uch":12654,"Ġ}":12655,"Ġà¤¸à¤ĺà¤¨à¤¤":12656,"à¤·à¤²":12657,"à¤ĺà¤ľ":12658,"Ġà¤ĵà¤¸à¤¨":12659,"Ġrna":12660,"Ġà¤¹à¤°à¤µ":12661,"à¤ĵà¤ĩà¤¨":12662,"Ġ949":12663,"Ġ1098":12664,"à¤¿-\"":12665,"Ġà¤®à¤¹à¤¨":12666,"à¤¸à¤ıà¤®à¤ıà¤²":12667,"à¤¡à¤²à¤¹":12668,"ÎµÏĥ":12669,"Ġà¤¬à¤®à¤°":12670,"Ġà¤ıà¤Ĩà¤°à¤ıà¤¸":12671,"Ġà¤Īà¤Ĩà¤°à¤ª":12672,"à¤Ĩà¤Īà¤ıà¤«":12673,"bi":12674,"gi":12675,"Ġà¤ĩà¤¡à¤²":12676,"à¤¾à¤ģ]":12677,"à¤µà¤¤à¤®":12678,"Ġ1124":12679,"à¤ıà¤¸à¤Ĩà¤°à¤ĵ":12680,"ØŃÙħ":12681,"ner":12682,"1230":12683,"cp":12684,"ÎµÏĤ":12685,"Ġzn":12686,"ĠÑĩÐ°":12687,"à¤°à¤®à¤¤":12688,"Ġ1171":12689,"à¤°à¤Ĺà¤®à¤¨à¤¶":12690,"à¤°à¤Ļ":12691,"à¤¾à¥¤:":12692,"à¤ķà¤²à¤¶":12693,"Ġ1025":12694,"ÑģÑģÐ¾":12695,"à¤ªà¤°à¤ĳà¤°":12696,"à¥¤à¥¤à¥¤\"":12697,"à¤ıà¤µà¤²à¤¨":12698,"Î½Î¿":12699,"à¤¦à¤¸à¤¬":12700,"Ġà¤ħà¤°à¤¶à¤¦":12701,"Ġexp":12702,"Ġà¤¨à¤¨à¤ķà¤Ī":12703,"à¤¬à¤¹à¤¤":12704,"à¤Łà¤ıà¤¯à¤°":12705,"à¤«à¤¡à¤ķ":12706,"Ġà¤ĵà¤®à¤²":12707,"à¤ĩà¤®à¤®":12708,"Ġà¤Ĩà¤ĩà¤µà¤°à¤¸à¤¨":12709,"à¤«à¤°à¤¨à¤¨":12710,"Ġà¤ıà¤ķà¤°à¤¸":12711,"Ġà¤Īà¤ıà¤¸":12712,"Ġ1115":12713,"deild":12714,"à¤ĵà¤ĸ":12715,"à¤ıà¤ķà¤µ":12716,"Ġ1137":12717,"Ġ[,":12718,"sa":12719,"à¤ľà¤°à¤¸à¤¨":12720,"Ġà¤ıà¤ıà¤¨à¤ıà¤¸":12721,"à¤¸à¤®à¤¶":12722,"Ġà¤«à¤°à¤Ĺ":12723,"Ġ1156":12724,"Ġà¤¹à¤ľà¤°à¤¤":12725,"à¥Ģà¥¤\",\"":12726,"Ġ1184":12727,"à¤¸à¤®à¤Ŀà¤¦":12728,"fter":12729,"à¤®à¤ķà¤²":12730,"à¤°à¤¸à¤ķ":12731,"1554":12732,"Ġthem":12733,"Ġà¤¹à¤¡à¤²":12734,"Ġ1179":12735,"Ġlo":12736,"yd":12737,"à¤ªà¤Łà¤®":12738,"1066":12739,"AC":12740,"à¤°à¤¨à¤²":12741,"Ġ1195":12742,"Ġà¤ıà¤¡à¤¬à¤°":12743,"erm":12744,"à¥Ģ?âĢĿ":12745,"za":12746,"Ġà¤ıà¤Ĩà¤°à¤ª":12747,"à¥ĩ]]":12748,"à¥ĩà¥¤\"à¥¤":12749,"à¤ĩà¤®à¤°à¤®":12750,"Ġà¤¡à¤°à¤ķà¤°":12751,"à¤ķà¤°à¤ľ":12752,"Ġ1118":12753,"1528":12754,"Ġà¤µà¤°à¤µà¤°":12755,"à¥Īà¤Ĥ,'":12756,"Ġ1011":12757,"Ġ1127":12758,"Ġà¤ĩà¤ľà¤¸":12759,"Ġà¤¸à¤®à¤°à¤¸":12760,"Ġà¤ıà¤«à¤ıà¤¸à¤µ":12761,"à¥Ĥà¤ģ)":12762,"Ġ952":12763,"à¤Ĺà¤¸à¤°":12764,"Ġà¤¬à¤²à¤µ":12765,"Ġà¤°à¤¸à¤µ":12766,"à¤²à¤¬à¤Ł":12767,"Ġà¤Īà¤¸à¤¨":12768,"Ġà¤ķà¤²à¤¦":12769,"à¤īà¤Łà¤ľ":12770,"Ġpo":12771,"ÑģÑģÐ¸":12772,"ÛĮÙĨ":12773,"à¤ķà¤¬à¤²":12774,"Ġà¤®à¤¨à¤µ":12775,"à¤¬à¤Łà¤°":12776,"1340":12777,"à¤µà¤°à¤ļ":12778,"à¤°à¤¶à¤®":12779,"à¤ıà¤²à¤Ĩà¤Ī":12780,"ĠÃŃ":12781,"Ġng":12782,"year":12783,"à¤¾à¥¤à¥¤à¥¤\"":12784,"Ġà¤ħà¤¬à¤µ":12785,"Ġà¤¹à¤¸à¤°à¤²":12786,"à¤ıà¤¸à¤ıà¤«à¤ıà¤²":12787,"lect":12788,"Ġ1005":12789,"hp":12790,"à¤ľà¤Ĺà¤¨":12791,"à¤¾!\"(":12792,";;;;;;;;;;;;;;;;;;;;;;;;;;;;;;;;":12793,"à¤ħà¤¨à¤°":12794,"Ġà¤ħà¤¨à¤¬à¤°":12795,"Ġà¤ĩà¤¨à¤ļ":12796,"Ġ1353":12797,"âĨĴ":12798,"Ġà¤ıà¤²à¤¦":12799,"à¤Ĺà¤®à¤ķ":12800,"Ġ(\\":12801,"Ġà¤ĵà¤¹à¤°":12802,"à¤¨à¤²à¤ķ":12803,"anc":12804,"Ġà¤ĵà¤¥à¤®":12805,"1537":12806,"à¤¼à¥ĩà¤Ĥ;":12807,"Ġà¤ĵà¤®à¤ĺ":12808,"ny":12809,"Ġà¤ĵà¤ªà¤Ł":12810,"Ġ1102":12811,"Ġ\"()":12812,"Ġpre":12813,"Ġour":12814,"à¤¨à¤ıà¤ľ":12815,"Ġà¤Ĳà¤µ":12816,"sdeild":12817,"Ġà¤Ķà¤®":12818,"à¤¨à¤ķà¤Ł":12819,"à¤£à¤¨à¤Ĺà¤°":12820,"à¤īà¤²à¤Ŀà¤¨":12821,"à¤ħà¤¨à¤µ":12822,"Ġdec":12823,"à¤«à¤°à¤¸à¤¨à¤µ":12824,"Ġà¤¦à¤¨":12825,"à¥Īà¥¤à¥¤à¥¤\"":12826,"Ġà¤®à¤¨à¤¬":12827,"Ġ957":12828,"ls":12829,"Ġà¤¡à¤¨à¤°":12830,"à¤°à¤«à¤¸":12831,"Ġà¤ĵà¤µà¤°à¤°à¤¨":12832,"Åįzeki":12833,"xviii":12834,"Ġà¤ľà¤²à¤ļ":12835,"à¤ıà¤ļà¤ıà¤ļ":12836,".|":12837,"wa":12838,"à¤ħà¤°à¤¹":12839,"Ġ1012":12840,"à¤ıà¤¸à¤ıà¤¸à¤¬":12841,"à¤²à¤¹à¤²":12842,"Ġà¤«à¤¦":12843,"Ġ1174":12844,"Ġgu":12845,"Ġà¤ľà¤¯à¤¨":12846,"à¤£à¤Ĺ":12847,"ĠXXXX":12848,"Ġ1166":12849,"à¤²à¤Łà¤ķ":12850,"Ġà¤¡à¤²à¤µ":12851,"à¤Ĩà¤Īà¤¡à¤¬":12852,"à¤¹à¤µà¤°":12853,"à¤ªà¤¨à¤¬à¤°":12854,"Ġà¤Ĭà¤µ":12855,"Ġ1116":12856,"à¤¶à¤°à¤®":12857,"Ġà¤ħà¤¬à¤¸":12858,"à¥Īà¤Ĥà¥¤]\"":12859,"Ġà¤¬à¤¨à¤ķ":12860,"Ġà¤ĵà¤ĩà¤¸":12861,"Ġà¤Ĩà¤Īà¤ıà¤¨":12862,"Ġà¤ıà¤¶à¤Ł":12863,"arr":12864,"ÏģÎ¹Î½":12865,"à¥ĩà¥¤..]":12866,"aÄŁ":12867,"à¥ĩ>":12868,"à¤¯à¤¨à¤ķà¤°":12869,"Ġà¤Ĩà¤°à¤ı":12870,"Ġ898":12871,"Ġ\"\"),":12872,"1010":12873,"Ġà¤ĵà¤ıà¤¸à¤¸":12874,">-<":12875,"à¤«à¤°à¤ķ":12876,"à¤ªà¤°à¤ĳà¤ķ":12877,"à¤¼à¥Ģ]]":12878,"Ġ1269":12879,"cccc":12880,"Ã³w":12881,"Ġà¤°à¤¨à¤ħà¤µ":12882,"Ġà¤®à¤ķà¤µ":12883,"Ġ1085":12884,"Ġind":12885,"Ġ1186":12886,"à¤¯à¤ķà¤¨":12887,"2030":12888,"à¤Łà¤²à¤¡":12889,"ÏģÎ¿Î½":12890,"à¤īà¤ªà¤ķ":12891,"à¤Īà¤²à¤°":12892,"à¤Ĭà¤¬":12893,"mn":12894,"à¤¡à¤Ŀ":12895,"à¤ĩà¤ļà¤¨":12896,"à¤ĵà¤ļà¤¨":12897,"Ġà¤Ĺà¤°à¤¬":12898,".))":12899,"à¤®à¤ľà¤²":12900,"Ġ1113":12901,"à¤¤à¤²à¤Ľà¤Ł":12902,"\"à¥¤à¥¤à¥¤":12903,"à¤ĩà¤ĵà¤®":12904,"à¤¼à¤¾/":12905,"à¤¾'),":12906,"Ġà¤Ĩà¤«à¤¤":12907,"à¤Īà¤ıà¤ķ":12908,"Ġà¤ķà¤²à¤ľ":12909,"Ġ1165":12910,"1512":12911,"yle":12912,"Ġà¤¬à¤Łà¤®":12913,"à¤Ńà¤ļ":12914,"Ġà¤ĵà¤ªà¤¨à¤ľ":12915,"à¤¼\"),":12916,"Ġà¤ķà¤Łà¤²à¤«":12917,"Ġ1193":12918,"Ġà¤ħà¤ªà¤ļà¤¯":12919,"Ġ1003":12920,"Ġà¤Ńà¤°à¤¤à¤¨":12921,"à¤łà¤¡":12922,"à¤¯à¤²à¤°à¤®":12923,"ÃĤÃĤÃĤÃĤÃĤÃĤÃĤÃĤÃĤÃĤÃĤÃĤÃĤÃĤÃĤÃĤÃĤÃĤÃĤÃĤÃĤÃĤÃĤÃĤÃĤÃĤÃĤÃĤÃĤÃĤÃĤÃĤÃĤÃĤÃĤÃĤÃĤÃĤÃĤÃĤÃĤÃĤÃĤÃĤÃĤÃĤÃĤÃĤÃĤÃĤÃĤÃĤÃĤÃĤÃĤÃĤÃĤÃĤÃĤÃĤÃĤÃĤÃĤÃĤÃĤÃĤÃĤÃĤÃĤÃĤÃĤÃĤÃĤÃĤÃĤÃĤÃĤÃĤÃĤÃĤÃĤÃĤÃĤÃĤÃĤÃĤÃĤÃĤÃĤÃĤÃĤÃĤÃĤÃĤÃĤÃĤÃĤÃĤÃĤÃĤÃĤÃĤÃĤÃĤÃĤÃĤÃĤÃĤÃĤÃĤÃĤÃĤÃĤÃĤÃĤÃĤÃĤÃĤÃĤÃĤÃĤÃĤÃĤÃĤÃĤÃĤÃĤÃĤ":12924,"hh":12925,"à¤¹à¤¤à¤ķ":12926,"à¤ıà¤¶à¤°":12927,"à¤Ĩà¤ľà¤®":12928,"à¤ªà¤²à¤ª":12929,"Ġà¤Ĩà¤ĩà¤µà¤¨":12930,"ÏĩÎ¹":12931,"Ġà¤ıà¤¨à¤¸à¤°":12932,"Ġà¤¨à¤µà¤¸":12933,"à¥ĩà¤Ĥà¥¤à¥¤à¥¤":12934,"ÄŁlu":12935,"à¤ħà¤¬à¤¨":12936,"à¤ĵà¤¬à¤°à¤¸":12937,"à¤Ľà¤¤à¤°":12938,"à¤ĺà¤Łà¤¤":12939,"à¤°à¤²à¤ķ":12940,"à¤°à¤²à¤¸":12941,"à¤¼à¥ĭà¤Ĥ-":12942,"à¥Ĥ\"-":12943,"ÏģÎ¹ÏĤ":12944,"à¤Ĺà¤Ĺà¤¨à¤ļ":12945,"kov":12946,"Ġ1163":12947,"Ġà¤Ĩà¤¸à¤¨à¤¸":12948,",),":12949,"à¤ķà¤Ĺà¤µ":12950,"Ġà¤ĩà¤µà¤¤":12951,"à¤ļà¤°à¤®à¤ª":12952,"frac":12953,"Ġà¤Ķà¤²à¤¸":12954,"à¤¾\");":12955,"à¤ħà¤Ńà¤¦":12956,"Ġro":12957,"ÏĨÎ¹":12958,"Ġà¤ªà¤°à¤²":12959,"Ġà¤¯à¤¶à¤µ":12960,"Ġ68000":12961,"................................................................................................................................................................................................................................................":12962,"à¤¯à¤¸à¤®":12963,"Ġà¤Łà¤¹à¤²à¤¤":12964,"Ġà¤Īà¤ĳà¤¨":12965,"à¤ĩà¤Łà¤®à¤°":12966,"Ġ1143":12967,"Ġ1008":12968,"à¥ĭ.)":12969,"Ġ1093":12970,"Ġ3100":12971,"tain":12972,"à¤ır":12973,"Ġ1197":12974,"à¤ľà¤²à¤Ĺ":12975,"Ġacc":12976,"fore":12977,"xb":12978,"à¤°à¤¨à¤«":12979,"Ġà¤ķà¤¥à¤ķà¤²":12980,"zh":12981,"à¤¿',":12982,"à¤²à¤¨à¤ķà¤°":12983,"Ġ1122":12984,"Ġ1136":12985,"1538":12986,"Ġbd":12987,"ays":12988,"Ġ1176":12989,"à¤ľà¤ķà¤µ":12990,"à¥¤à¥¤à¥¤\"à¥¤":12991,"ove":12992,"ĠÏĨÎ¹":12993,"à¤¨à¤Łà¤²":12994,"Ġà¤īà¤¨à¤Ĺ":12995,"Ġ1188":12996,"ĠÃ¼rvalsdeild":12997,"Ġ1096":12998,"Ġ1164":12999,"1543":13000,"Ġà¤¸à¤¨à¤ª":13001,"por":13002,"Ġà¤ķà¤¸à¤¬":13003,"Ġà¤ıà¤¨à¤¶":13004,"à¤īà¤Łà¤¸":13005,"Ġà¤¤à¤¨à¤ķ":13006,"Ġà¤ĵà¤Ĺà¤¨":13007,"à¤ħà¤®à¤°à¤¤":13008,"à¤²à¤§":13009,"à¥Ĥ)\"":13010,"Ġà¤«à¤¹":13011,"Ġ2031":13012,"à¤¸à¤°à¤¨à¤°":13013,"aya":13014,"Ġonly":13015,"à¤ķà¤Łà¤ķ":13016,"à¤ıà¤°à¤¬":13017,"à¤ıà¤ıà¤ļ":13018,"à¤¨à¤°à¤Ł":13019,"à¤¾-(":13020,"à¤Ĺà¤¨à¤ľ":13021,"1532":13022,"Î¿Î¹":13023,"Ġshould":13024,"à¤¬à¤Ľà¤¡":13025,"à¤Ĳà¤ľ":13026,"Ġà¤ıà¤µà¤°à¤®":13027,"à¤ĳà¤²à¤¸":13028,"à¤ķà¤¡à¤¬":13029,"Ġ1067":13030,"à¤®à¤°à¤Ĺ":13031,"Ġà¤ĩà¤°à¤ª":13032,"Ġà¤Ĩà¤ĩà¤ļà¤®":13033,"Ġà¤Īà¤¹":13034,"Ġ1183":13035,"pos":13036,"chr":13037,"ĠXXIV":13038,"Ġà¤¦à¤²à¤µ":13039,"à¥Īà¤Ĥ\"),":13040,"uct":13041,"à¤Ĩà¤ķà¤®":13042,"à¤¦à¤°à¤ľ":13043,"Ġ1081":13044,"ani":13045,"Ġà¤ķà¤ªà¤°":13046,"à¤¤à¤¹à¤°":13047,"à¤ħà¤ľà¤¯":13048,"à¤Ĭà¤Ł":13049,"à¤°à¤¦à¤²":13050,"1513":13051,"czy":13052,"à¥Ī]à¥¤":13053,"Ġà¤ħà¤¯à¤¨":13054,"Ġà¤°à¤®à¤¤":13055,"Ġà¤īà¤®à¤µ":13056,"à¤ħà¤¸à¤®à¤®":13057,"ton":13058,"Ġá¼Ģ":13059,"Ġà¤ĩà¤Ĺà¤¨":13060,"Ġà¤Īà¤ĵà¤ķ":13061,"à¤ĩà¤²à¤¬à¤°":13062,"1549":13063,"à¤Ĩà¤¨à¤¶":13064,"eld":13065,"con":13066,"nm":13067,"Ġà¤ľà¤¸à¤µ":13068,"Ġà¤¸à¤®à¤°à¤µ":13069,"à¤¯à¤¯à¤¨à¤¶":13070,"Ġbf":13071,"Ġà¤°à¤īà¤«":13072,"Ġà¤Ĩà¤°à¤Ĺ":13073,"Ġà¤ħà¤ķà¤µ":13074,"Ġà¤¬à¤°à¤ĸ":13075,"à¤ľà¤°à¤¬à¤°":13076,"Ġ1141":13077,"ara":13078,"Ġà¤ľà¤ķà¤°":13079,"Ġà¤ĵà¤¹à¤ķ":13080,"à¤Ŀà¤ªà¤ķ":13081,"Ġà¤ĳà¤¸à¤¬":13082,"Ġà¤īà¤Ľà¤²à¤¨":13083,"à¤Ĩà¤¸à¤µà¤¨":13084,"ĠÅįk":13085,"ez":13086,"à¤®à¤Łà¤²":13087,"Ġà¤ĳà¤²à¤µ":13088,"à¥Ĥà¤ģ\")":13089,"Ġthan":13090,"rist":13091,"};":13092,"à¤¹à¤¨à¤¸":13093,"Ġà¤ĳà¤«à¤ķ":13094,"eg":13095,"à¤ħà¤ľà¤®":13096,"Ġ1107":13097,"Ġstr":13098,"1150":13099,"Î»Î·":13100,"Ġà¤Ĳà¤²à¤¨":13101,"1546":13102,"à¤°à¤ĸà¤µ":13103,"-#":13104,"à¤¡à¤ıà¤¸":13105,"Ġà¤ķà¤°à¤ľ":13106,"Ġà¤¹à¤°à¤«":13107,">/":13108,"Ġà¤®à¤°à¤µ":13109,"à¤ľà¤ĸ":13110,"à¤ıà¤°à¤¸":13111,"à¤ģ!\"":13112,"à¤ĳà¤¶à¤µ":13113,"Ġ1031":13114,"1523":13115,"Ð½Ð¸Ñı":13116,"Ġà¤ıà¤²à¤¹":13117,"à¤¤à¤¨à¤Ľ":13118,"Ġà¤ªà¤¤à¤¨à¤¶":13119,"ĠÑĢÐ°":13120,"à¤Īà¤Łà¤ķ":13121,"1509":13122,"à¥Īà¤Ĥ?\"(":13123,"à¤¦à¤«":13124,"à¤¥à¤®à¤°":13125,"Ġà¤Ĺà¤¨à¤ª":13126,"à¤¶à¤°à¤¥":13127,"dw":13128,"à¤ľà¤¯à¤¸":13129,"à¤ĩà¤Łà¤°à¤ª":13130,"à¤ĵà¤Ĩ":13131,"1557":13132,"Î¿Ïģ":13133,"Ġ{{":13134,"à¤ľà¤Ĺà¤¦":13135,"Ġà¤¦à¤°à¤Ń":13136,"à¤«à¤¦à¤²":13137,"Ġà¤ĸà¤«":13138,"à¤ĳà¤®":13139,"1011":13140,"à¤¸à¤łà¤µ":13141,";-":13142,"1522":13143,".\"(":13144,"Ġà¤®à¤«à¤²à¤°":13145,"Ġà¤¯à¤®à¤Ĺ":13146,"à¤Ĺà¤°à¤¡":13147,"Ġsr":13148,"à¥Ģ\"|%":13149,"Ãº":13150,"Ġà¤īà¤Ŀ":13151,"Ġà¤¤à¤¨à¤ĸ":13152,"ĠWWII":13153,"Ġmclaren":13154,"Ġà¤¬à¤ķà¤¬":13155,"Ġxor":13156,"ĠÑĤ":13157,"à¤ıà¤ıà¤¸à¤Ł":13158,"Ġà¤¯à¤µà¤°":13159,"à¤§à¤¨à¤ķà¤°":13160,"Ġ1088":13161,"Ġà¤Ĩà¤ªà¤¤à¤¨":13162,"urn":13163,"Ġ;":13164,"à¤īà¤ĩà¤¸":13165,"à¤Ńà¤¯à¤Ń":13166,"Ġà¤ªà¤°à¤¬":13167,"Ġà¤ĳà¤Łà¤°":13168,"à¤ĩà¤¨à¤¶":13169,"à¤¸à¤ķà¤Ł":13170,"1460":13171,"ama":13172,"%%%%%%%%":13173,"Ġà¤Ĩà¤ĵà¤¸":13174,"à¤ħà¤¸à¤¹à¤¨":13175,"Ð¼Ñĥ":13176,"ution":13177,"âĹı":13178,"Ġà¤ıà¤¸à¤¨":13179,"Ġ1071":13180,"Ġ1013":13181,"aaaa":13182,"à¤Łà¤²à¤ľ":13183,"1533":13184,"à¤¾),\"":13185,"Ġbl":13186,"Ġà¤®à¤¦à¤°à¤¹":13187,"à¤¯à¤°à¤¹à¤®":13188,"à¤Ĭà¤ľ":13189,"à¤¹à¤®à¤ľ":13190,"Ġ1106":13191,"à¤īà¤¥à¤¬à¤°":13192,"Ġà¤ķà¤²à¤ļ":13193,"1551":13194,"à¥Ģà¤ĥ:":13195,"Ġ1181":13196,"Ġà¤ľà¤¯à¤µ":13197,"Ġà¤ĵà¤ıà¤®":13198,"Ġà¤¸à¤°à¤¸à¤°":13199,"à¥ĩ.à¥¤":13200,"Ġà¤ıà¤¶à¤¡":13201,"Ġbel":13202,"Ġà¤¬à¤¬à¤²à¤Ĺà¤®":13203,"à¤¡à¤¦":13204,"à¤¼!\"":13205,"à¤ģ'":13206,"Ġ1017":13207,"Ġxiiii":13208,"à¤¸à¤°à¤µà¤°":13209,"à¤¨à¤°à¤¨":13210,"1453":13211,"ony":13212,"Ġnr":13213,"sg":13214,"à¤°à¤°à¤¹":13215,"Ġà¤ıà¤¹à¤²à¤°":13216,"Ġà¤ıà¤«à¤ıà¤²":13217,"Ġà¤ĩà¤®à¤¬":13218,"à¥ĩà¤Ĥ)-":13219,"Ġà¤²à¤µà¤¡":13220,"Ġkw":13221,"Ġ\"+\"":13222,"Ġ>":13223,"à¤ıà¤®à¤ıà¤ļ":13224,"à¥ĩà¤Ĥ\"-":13225,"à¥Ī\":":13226,"llll":13227,"à¤²à¤ľà¤¨":13228,"Ġà¤¥à¤ķà¤¨":13229,"Ġà¤ĺà¤°à¤ĺà¤°":13230,"Ġà¤ĵà¤²à¤¸à¤¨":13231,"1470":13232,"Ã¼d":13233,"]à¥¤..":13234,"à¤¦à¤°à¤°":13235,"à¥ĩà¤Ĥà¥¤.":13236,"1544":13237,"}à¥¤":13238,"overn":13239,"à¤ªà¤°à¤¶":13240,"Ġ1146":13241,"Ġà¤¨à¤¤à¤¨":13242,"Ġà¤ħà¤¨à¤¯":13243,"kk":13244,"Ùī":13245,"à¤Łà¤ĳà¤°":13246,"à¤®à¤ķà¤ķà¤°à¤£":13247,"Ġxm":13248,"ĠÏĩÎ¹Î½":13249,"à¤ĩà¤µà¤¶":13250,"Ġà¤ıà¤ķà¤¬à¤°":13251,"à¤¾à¥¤;":13252,"Ġà¤ĳà¤²à¤¨":13253,"ĠÑģÐµÑĢ":13254,"Ġà¤®à¤ķà¤¸à¤¦":13255,"Ġknow":13256,"Ġà¤īà¤¦à¤®":13257,"Ġà¤ıà¤¡à¤ľà¤¸":13258,
[...]
